#version: 0.2
à ´
Ġ Ø
Ù Ĭ
Ø §
Ù Ĩ
Ù Ī
à µ
Ġ Ù
Ø ±
Ġ Ú
Ù ĩ
àµ į
Ù Ħ
ĠØ §
ĠØ ¬
Ġ à´
Ø§ Ø
Ø ¯
Ù ħ
Ø ª
Û Į
ĠÙ ħ
Ø§ ÙĨ
ĠØ ³
à´ ¿
Ġ Û
Ø ³
ĠØ ª
ĠÚ ª
å ¤
Ġ ÙĪ
ĠÙ ¾
Ú ª
ä ¸
à´ ¨
ĠØ¬ ÙĬ
ĠÙ ĩ
â Ģ
ĠÚ ©
àµ ģ
à´ ķ
Ø± ÙĬ
ĠØ ¢
Ú »
Ġ ÙĨ
ĠØ ¨
à´ ¤
à´ ¾
ÙĬ ÙĪ
Ø ¬
å¤ ©
Ø Į
Ùĩ ÙĨ
å ½
Û Ĵ
ÙĬ ÙĨ
Ø ¨
à´ °
Ùĩ ÙĬ
Ø ¦
å½ ©
à´ ¯
ĠØ ¯
Ø§ Ø±
ĠÛ ¾
ç ¥
ä º
å½© ç¥
ĠØ ±
s e
à´ Ł
Ø§Ø ¦
ĠÛ ½
ÙĪ ÙĨ
s t
Ġ k
Ú º
Ù ½
Ú ¾
Ø§ ÙĦ
å ı
ĠÙ Ħ
à´ ²
Ú ©
Ú ¯
Ù ģ
Ù Ĥ
ĠÙ ¿
àµ Ĩ
àµį âĢ
ï ¼
ĠØ¬ ÙĪ
ÙĨ Ø¯
Ú Ļ
à´ Ĥ
å½©ç¥ ¨
ĠØª Ùĩ
ĠØ¢ ÙĩÙĬ
Û ģ
Ø ¹
ĠÚ© ÙĬ
Ø ´
àµįâĢ į
ç ļ
ĠÚ ¯
å¤© å¤©
Ú Ĩ
ï¼ Į
çļ Ħ
ĠØ§ ÙĨ
ÙĪ Ø±
ĠÚ Ĩ
a l
Ã ¤
Ġ t
Ù ¾
Ø ¡
ä¸ Ń
ĠØ ´
æ ľ
à´ ±
i n
Ã µ
à´ ª
ã Ģ
Ú ı
Ù Ĳ
l e
à´ ®
Ø Ń
Ù İ
ÙĨ ÙĩÙĨ
å¤ §
ĠØ ¹
Ø ²
à´ ³
Ø¦ ÙĬ
Ø§ Ùħ
à´ µ
å ħ
ĠØ ®
j a
å ®
ĠÚ ı
Ġ å¤©å¤©
Ġ v
à´ £
Ġ o
Ø§ Ú»
ä ¹
Ġ m
Ġ p
Ø¬ ÙĬ
ĠØ Ń
i d
Ú Į
å Ĳ
ÙĦ ÙĬ
Ø§ Úº
ĠØª ÙĬ
Ġ e
ĠÙ »
à´ ļ
ä »
ĠØ¨ Ùĩ
åı ĳ
ÙĬ Ø§
a t
Ġ s
æ Ĺ
Ġà´ ª
ĠÙ ģ
ä¸Ń å½©ç¥¨
i s
i k
ĠØ§ Ø³
å ¥
Ø§Ø ¯
Ø§ Ø±ÙĬ
àµ ĭ
à´ ¸
Ø§Ø ¨
à´ Ļ
Ġà´ ķ
i t
àµ ĩ
å Ī
a s
å¤§ åıĳ
Ø ®
Ù ı
o o
a d
ĠÙĩ ÙĪ
æ ĺ
å ľ
ĠÙ Ĥ
Ø§Ø ¡
Ã ¼
a n
u d
Ú ³
ÙĬÙĪ ÙĨ
ĠØ³ Ø§ÙĨ
ç Ķ
ĠÚ© Ø§ÙĨ
Ú Ĭ
Ø µ
ī é
ĠÙ¿ ÙĬ
å Ľ
ĠÚª Ø±ÙĬ
Ø± ÙĪ
ÙĬÙĨ Ø¯
ç ½
Ùĩ Ùĩ
u s
àµģ à´Ĥ
Ġå¤©å¤© ä¸Ńå½©ç¥¨
ãĢ Ĥ
ĠÙĨ Ùĩ
å °
Ø§Ø ³
å ¿
Ø§Ø¦ ÙĬ
ĠØ§ Ùĩ
ÙĬ Ø±
ç½ ĳ
æ Ī
ÙĪ Úº
Ġ ja
Ġà´ µ
e l
ľ ¸
äº īé
ä ½
äºīé ľ¸
Û Ķ
Ġ n
Ġ âĢ
å½©ç¥ ŀ
Øª ÙĬ
Ø ·
å½©ç¥ŀ äºīéľ¸
Ġà´ ¸
a m
ĠÚª Ø±
a r
æ ĸ
æĹ ¶
ĠØ µ
i m
ĠÙ¾ Ø±
Ġ l
Ù º
Ġ å¤§åıĳ
è ¿
ĠÙĩ ÙĨ
ÙĬ Ø¡
Ġà´ ħ
æĺ ¯
Ġà´ ®
e n
ĠÛ ģ
ĠÚ ĩ
i se
æ Ģ
g a
k s
Ġà´ ¨
äº º
å Ĭ
i l
Ù ¿
ĠØ³ ÙĨ
ÙĪ ÙĦ
e r
ç ī
è ¯
e s
. .
Ġ å½©ç¥ŀäºīéľ¸
ĠÙĩ Úª
å ¹
ĠØ¬ Ø§
u t
Ø§Ø ª
Ø ¸
å¿ «
Ø³ Øª
ĠØ¯ ÛĴ
å ¼
ÙĬ ÙĦ
ä¸ ī
Ġo n
ĠØ¢ ÙĩÙĨ
ĠÙĦ Ø§Ø¡
ÙĬ Øª
å į
è ®
ç »
Ùĩ Ø±
Ø¯ Ø§
ĠØª ÛĴ
àµ Ģ
e t
u l
ĠØ¯ ÛĮ
Ġ (
ĠÙħ ÙĦ
Ġ a
u se
i st
ÛĮ Ø§
a st
ĠÚ Ģ
ÙĨÙĩÙĨ Ø¬ÙĬ
æ ī
âĢ ľ
åľ ¨
ĠØ ·
Ġ se
è §
ĠØ ²
è ½
ĠÙ ½
Ø§Ø ²
à´ ¦
ä¸ Ģ
Ú ĥ
å Ń
ĠÚ ³
Ø§ Úª
ĠÚ ¾
ç İ
u st
å ¾
ĠØ§ ÙĪ
Ġt e
ĠÙ¾ ÙĪ
à´ ·
ĠÙħ ÙĪ
ĠÙħ Ø§ÙĨ
ĠØ§ ÛĮ
å¿« ä¸ī
ÙĬ Ùħ
Ã ¶
ä ¼
ÙĪ Ùħ
ãĢ ģ
Ġk o
é ĩ
è µ
m a
ä¸ į
ä¹ Ī
ÙĬ Úª
é Ģ
ĠØ¬ÙĬ Úª
Ġ r
ÚĻ ÙĬ
Ġà´ ¤
Úı ÙĩÙĨ
ÙĨ Ú¯
Ġ j
ĠÙĪ ÚĨ
æľ ī
ĠÚª ÙĬÙĪ
a v
Ø§ Ùģ
Ø§Ø¦ ÙĬÙĨ
e st
àµ Ĥ
u r
ĠÙ¿ ÙĪ
ÙĬ Ø³
æ ³
Ø¬ ÙĪ
å ·
Ù ¹
ÛĮ Úº
¦ ÙĬ
ĠØ³ÙĨ ÚĮ
åĲ Ĺ
Ġ h
ĠØ ¦ÙĬ
Ġà´ İ
u n
å ¸
ç ľ
ĠØ³ Ùħ
ĠÙ¾ ÙĬ
äº Ĩ
âĢ ĭ
æ Ĭ
ĠÚ Ĭ
ĠÚªØ± Ú»
2 0
âĢ Ŀ
Ø± ÙĨ
Ø¯ ÙĬ
ĠÙħ ØŃ
ĠÙ¾ ÙĨÙĩÙĨØ¬ÙĬ
Ã¤ r
ĠØ³ ÙĨØ¯
Ø§ ÙĤ
ĠØ§ ÙĦ
å Į
Ùĩ ÙĪ
ĠÙĪ ÙĬÙĪ
Ø§Ø ¬
è ´
a k
å¥ ĸ
ç º
ĠÚª ÙĪ
Ġv Ãµ
æ Ŀ
å® ĺ
ÛĮ Ø§Úº
è ī
ä ¿
à´ ŀ
å Ĩ
ĠØ§ ÛĴ
ĠÙĪ Úĥ
ÙĨ ÙĬ
ÚĨ ÙĬ
Ø§Ú» ÙĬ
å º
ä¸ ĭ
a h
ç ¾
a b
é ¢
i i
ĠØ± ÙĪ
ĥ ½
e m
ĠØ§Ø³ Ø§ÙĨ
ĠØ¬ ÙĨÙĩÙĨ
ĠØ³ ÙĪ
Ø¨ Ø±
Ú Ī
Ù½ ÙĬ
ĠØ§Ùĩ ÙĪ
Ú Ģ
o n
Ú¾ ÙĨ
ĠÚª ÙĨØ¯
ÙĬ Ø¯
in g
å ĩ
t e
Ø§ Ùĩ
ç Ī
ĠØ³ Ú¯
è ¡
åĽ ½
å¥ ³
Ġå¤§åıĳ å¿«ä¸ī
à´ §
Ø ¶
è Ģ
ĠÚĨ ÙĬÙĪ
ĠÚª Ùħ
Ú ĳ
Ø± Ø¯
à´ ¶
Ġà´ ļ
æĢ İ
Ġ K
ĠÙħ Ø§Ú»
å° ı
Ø´ ÙĨ
å ¦
Ġk u
å ĵ
å Ĵ
Ġk a
à´ķ à´³
ĠØ¯ Ø§
å ±
å¼ Ģ
ç Ľ
Ġà´ ĩ
in e
Ġ Ã¼
Úı ÙĬ
à´ Ĺ
g i
Ġ æ
Ú Ħ
å İ
o r
ĠÙħ ÙĨ
ĠØ¬ ÙĨ
Ġ S
ä¸ Ĭ
ĠÙĨ Ø§ÙĦ
Ø³Øª Ø§ÙĨ
ç «
ĠÙĪ ÙĬ
ÙĤ Øª
ĠÙħ ÙĪÙĨ
ç Ĳ
ÙĦ ÙĪ
å®ĺ ç½ĳ
àµįâĢ Į
Ø °
Ø «
ĠÙĨ ÙĪÚº
Ġà´ Ĩ
Ø§ ÙĩÙĩ
Ġe t
àµ ½
æĢİ ä¹Ī
àµ Ĭ
h t
é Ļ
Ø± Ùħ
åĴ Į
àµį .
e d
é Ŀ
æ ķ
Ø¯ ÙĪ
ĠØ§ Øª
u m
æĹ¶ æĹ¶
ĠâĢ Ŀ
å ¯
ÙĬÙĨØ¯ ÙĪ
æ ĥ
ĠÙĩ Ø¦
ĠØ º
ĠØ§ Ú³
Ø§Ø± ÙĨ
æ ł
èī ²
Ø¦ ÙĨ
æĹ¶æĹ¶ å½©
Ø§Ø ¹
Ùħ Ø§ÙĨ
ç ł
ĠØª ÙĪ
ĠØ§ Ú©
àµ ¼
ĠÚ³ Ø§ÙĦ
çĪ ±
à´ ´
ĠØ³ÙĨØ¯ Ø³
en d
s i
ĠØ³ ÛĮ
ĠÙĨ ÙĪ
çĶ µ
Ø§Ø Ń
Ú» ÙĬ
æ µ
ç §
æ ı
ĠÚ¯ Ùĩ
ĠØ¨ ÙĬ
æ Ń
ĠÙħ Ø¹
à´ ¹
ĠØ± Ú©
æ Ķ
à´¨ à´¤
Úª ÙĬ
Ø± Ùģ
ĠÙĪ Ø±
ĠÙħ Ø³
ĠØ§ ÙĬ
Ú į
1 9
åĽ ¾
ĠØ§ÙĨ ÙĩÙĨ
æ ŀ
ĠØ± Ùĩ
è ĥ½
ĠÙĩ Ø¦ÙĬ
Ø¦ ÛĮ
ç¾ İ
ĠÚ Į
æ İ
e v
æ ¸
ĠØ³ Ø±
Ø º
Ø§ ÙĩÙĬ
ĠÙ¾ Ùĩ
Ġ ÙĬØ§
à´Ļ à´³
ĠØ °
Ġ T
ĠÙ¿ Ø§
Ø± ÛĮ
æľ º
ĠÚª Ø¦ÙĬ
l i
ĠØ® ÙĪ
æĪ ĳ
àµģ .
ĠÙĪ Ø§Ø±ÙĬ
ĠÙĦ Ú©
è ¦
ÙĦ Ø§Ùħ
ÛĮ Øª
Ġ M
å ģ
ĠØ³ ÙĬ
ĠÙĦ Ú³
çİ °
ĠØ± ÙĩÙĬ
¯ ä»
çī ĩ
Ġs a
ĠÙ¾ÙĪ Ø¡
Ùĩ Ø§ÙĨ
1 0
ĠÙ¾ ÙĨ
åħ ¨
è ĩ
é Ĺ
æ °
Ġå¤©å¤© å½©ç¥¨
ĠÙĩ ÙĬ
ÙĬÙĨØ¯ ÙĬ
ä¿ ¡
æ ĭ
Ø±ÙĬ ÙĨ
åħ ¬
Ùħ Ø¯
à´ ľ
Ġ E
Ù½ Ø±
Ġv Ã¤
Øª ÙĪ
æī ĭ
a p
æĸ °
ĠÙĪÚĥ ÙĬ
ÙĪØ± Øª
ÛĮ ÙĨ
æĪ Ĳ
ĠÚª ÙĨÙĩÙĨ
ĠÙĪ ÚĮ
Ġà´İ à´¨
ĠÙĩ ÙĪÙĨ
é Ľ
d a
ÙĤ ÙĬ
Ã¶ Ã¶
å½ ±
è½ ½
ÚĻ ÙĪ
æ³ ķ
æ ²
çĶ Ł
ä¹ Ĳ
Ø³ Ø§ÙĨ
Ø§Ø µ
Ø§ ÙĬÙĪ
ĠÙĨ ÛĮÚº
å¤ ļ
å Ŀ
Ø³ ÙĬ
ä¸ ª
ĠØ¬ ÚıÙĩÙĨ
ĠØ§ Ùħ
å® ¶
ä¸ĭ è½½
ĠÙĪ ÙĤØª
ĠÙ» ÚĮ
Ø§Ø¦ Ú»
Ú¾ ÙĬ
å¹ ´
æı Ĳ
Ùħ ÙĬ
ĠØ ¶
Ø§Ø± ÙĪ
ĠÚª ÙĬ
æ ´
ĠØ¹ ÙĦ
ä¸ º
ĠØ¹ Ùħ
åĲ Ī
ĠÚı ÙĬ
20 1
å¤©å¤© ä¸Ńå½©ç¥¨
Ø§ÙĦ ÙĬ
Ġe i
å Ģ
Ø¨ ÙĬ
ĠÙĪ ÛĮ
i g
æĹ ¥
Ø± Ø§ÙĨ
ÙĨØ¯ ÙĪ
Ġà´ Ĵ
Ø± Ø§
ĠÚ¯ ÙĩØ±
e le
Ø¯ ÛĴ
å¹ ³
ï ¿
ĠØª Ø¹
ï¿ ½
ĠÛģ ÙĪ
è ¾
ĠÙ¾ Ø§Ú»
ĠÙĩØ¦ Ø§
Ø§ Ù¾
ĠØ® Ø§ÙĨ
u b
ĠÚĨ ÙĪ
çĶ ¨
Ġ P
ĠØª ÙĪÚº
Ø® Øª
à´ ¬
u ur
æĸ ¹
Ø§ ÙĪ
åĪ °
ĠØ¯ ÙĪ
ĠÙ¾ Ø§Ø±
é «
ĠØ³ ÚĢ
æ ¯
é ģ
å Ł
0 0
ĠØ§Øª ÛĴ
åŃ Ĳ
æĢ §
Ø¦ ÙĬÙĨ
ĠÙħÙĦ Úª
é Ĥ
ĠÙĨ Ø¸
Ú ĩ
ç Ļ
Ġà´ ī
Ġà´ °
ĠÚı ÙĬÙĨ
ĠÚª Ø¬
an d
i r
åĩ º
åı °
ĠÚª ÙĨ
ĠÚĩ Úı
Ú¯ Ø±
è¯ ´
ĠÛ Ķ
à´µ à´°
ad a
ĠÚ Ħ
è¡ Į
ĠÙ¾ Ø§Úª
ĠØ§ÙĪ Ûģ
o t
é ĺ
Ġm a
à´ ¡
çľ ĭ
ĠÙħ Ø±
æľ ¬
ĠØ¬ Ø§ÙĨ
ĠØŃ Úª
à´ Ń
é Ĵ
è¦ ģ
ĠØª Ø§Ø¦ÙĬÙĨ
è§ Ĩ
ĠÙĪ Ùº
Ġ A
l t
ĠØ¨ ÙĨ
å ĳ
Ø¨ ÙĪ
o m
ĠÙĩ Ø±
Ø¹ ÙĬ
àµ »
åľ °
n a
ĠÙ º
Ġà´ ¬
æĥ ħ
Ø¨ Ø§Ø¯
ĠÙħ ÙĤ
Ø¯ Ø§Ø±
ĠØª Ø±
çº ¿
Ø¯ ÛĮ
çł ģ
Ġse l
ä¼ ļ
åĪ Ĩ
l a
n e
é« ĺ
Ù¾ ÙĨ
ä½ ľ
ĠØ§ ÚĨÙĬ
ÙĦ Ø§
ĠØ¬ Ùĩ
ĠÚ¯ Úı
àµ ¾
ç Ń
æ ¬
à´ ¥
ĠvÃµ i
ĠÚ¯ Ú¾
Ġ ÙĬ
Ø¬ ÙĨ
ĠØ§Ùĩ Ø§
Ġå¤§åıĳ æĹ¶æĹ¶å½©
ĠÙĪ Ø²
è Ĥ
ĠØ¬ ÙĪÙĨ
ĠØ±Ùĩ ÙĬÙĪ
å ¨
g u
ç« Ļ
ä½ ĵ
o l
e k
al t
ĠØ³ Ø§ÙĦ
è® ¡
Ġà´ ľ
ĠØ Į
çī Ī
àµ Ī
ÙĨØ¯ ÙĬ
çĲ Ĩ
Ġku i
à´¯ à´¤
ÙĨØ¯ Ø±
ĠØ§ ØŃ
Ø§Ø ´
çľ Ł
æ Ħ
Ù¿ ÙĬ
åŃ ¦
æľ Ģ
Úª Ø§Ø±
Ø³ ÙĨ
Ġ L
Úª Ø±
èĩ ª
æ Į
ĠÚıÙĬÙĨ ÙĩÙĨ
è °
id a
Ø ¢
Ġm e
ĠÙ¿ ÙĬÙĪ
Ġo le
ĠÙħØ§Ú» ÙĩÙĪ
ĠÚ© ÛĮØª
Ø³ ÙĪ
ĠØ¬ÙĬÚª ÙĪ
Ø³ Ùħ
é »
Ġt a
ĠÚı ÙĨ
ĠØ¨ Ø±
å¾ ®
Ø§ Ûģ
è ¶
ä¸ ļ
i is
.. .
ĠÙħ ÙĬ
Ø Ł
Ø¬ÙĪ Ø¯
Øª Ø§
ä ¾
u le
u k
oo n
ÛĮ Ø±
ĠØ³ Ø¨
Ùĩ ÙĬÙĨ
a ja
id e
Ø³ Ù½
ÙĬÙĨØ¯ Ø§
ĠÙħ Ø´
ĠØ¯ ÙĪØ±
Ġp e
ĠÙ¾Ø§Úª Ø³ØªØ§ÙĨ
æ ±
at ud
ĠØ· ÙĪØ±
ä¹ °
å §
ĠÚªØ¬ ÙĩÙĩ
Ġ V
Ø§ Ú³
Ġn ing
å ī
Ù¾ ÙĪØ±
çĪ± å½©ç¥¨
ÙĦ ÛĮ
Ġk Ãµ
Ø± Ø¨
Ø§ÙĨ ÙĬ
è £
ĠÙ¾ ÙĨÙĩÙĨ
Ġ al
ç ®
å¸ Ĥ
Ú© ÙĬ
åĬ ¨
ĠØ§ Ø¯
l ik
åı ·
ÙĦ ÙĨ
Úª Ø±ÙĬ
é¢ ĳ
u v
å® ī
å· ¥
w w
ç Ĥ
å¥ ½
ĠÙģ ÙĪ
ĠØ³Ùħ Ø¬
Ġà´ ¶
Ġ ar
Ġt Ã¤
æĿ ¥
Ú» ÙĪ
Øª ÙĨ
è¿ Ļ
è ģ
ĠØ§ÛĮ Ûģ
é ¡
ĠØ§ ÙĩÙĬ
ĠÚ³Ø§ÙĦ ÙĩÙĩ
Øª Ø§Ø¨
n d
ĠâĢ ľ
Ø§Ø³ ÙĬ
ĠÚĩ ÙĪ
ĠÙĪØ² ÙĬØ±
Ùħ ÙĨ
ĠÚ© Ûģ
Ġ Ãµ
ĠØ¬ÙĬÚª ÙĬ
à´° à´¤
å¼Ģ å¥ĸ
ĠÙĪ Úı
ĠØ§ÙĨ Ø³Ø§ÙĨ
æ Ļ
éĩ Į
éĩ ĳ
ĠÙĪ ÙĬØ§
i v
Ú¯ ÙĬ
Úª ÙĦ
Ø§Ùħ ÙĬ
ÙĦ Ø§Ùģ
Ġk as
ĠÙħØŃ ÙħØ¯
ĠÚ©ÙĬ Ø³
ç ¨
Ø§Ø¦ ÛĮ
Ø¯ Ø±
å¾® ä¿¡
ĠØ¯ ÙĨ
al e
å¹³ åı°
å° ĳ
ĠØ§ Ø¹
ÛĮ Ûģ
éĴ ±
æīĭ æľº
Ġ in
à´¿ .
ÙĨØ¯ Ø§
é ¦
ç ©
åĪ Ĵ
Ø§Ø³ Øª
é ĥ
è½ ¯ä»
è½¯ä» ¶
ĠØ¯ ÙĦ
ĠÙĦ ÙĪ
è ¢
am ise
ĠÙħØ§Ú» ÙĩÙĨ
e e
âĢ ĺ
è§Ĩ é¢ĳ
åĵ ª
Ø¹ Ø¯
æŀ ľ
Ú© Ú¾
æ Ĵ
ä» Ģ
Ø±ÙĬ Úª
æ³ ¨
ĠÙĪ Ù½
ÙĨ ÚĬ
ĠØ¯ Ø±
è§ Ħ
à´ķ à´°
ĠØ§Ø³ Øª
ç ¦
ÚĻ ÙĨ
ĠÚ© ÙĪ
Ġà´Ĵ à´°
åľ¨ çº¿
a ks
ĠÚ© Ø±
ĠÙĪÚĮ ÙĬÚª
Ġå¤©å¤© çĪ±å½©ç¥¨
ÚĻ Ø§
Ù¾ ÙĪ
ç ķ
u h
åı ¯
ĠÚª Ùĩ
å° ±
ä» ¥
Úª ÙĪ
ĠÙĪ Ø¦ÙĬ
ÙĦ ÛĴ
Ø§Ø¦ ÙĨ
Ġ N
è ĭ
ÙĦ Ùħ
Ø±ÙĪ Ø¹
Ġm Ãµ
r i
ĠØª ØŃ
ÙĪÙħ Øª
ä»Ģ ä¹Ī
Øª Ø±
ĠÚª Ø§Ø±
ĠÚª ÙĬØª
è ·
æıĲ çİ°
Ø§Ø¯ ÙĬ
ĠØ´ Ø±ÙĪØ¹
Ġp r
å°ı è¯´
ĠØ® ÙĦØ§Ùģ
åĲ Į
ĠÚ ¦
å® ŀ
äº İ
ĠÙ¾ ÚĻ
Ġo ma
çĲ ĥ
Ã¤ Ã¤
ç ¬
Øµ ÙĪ
Ø¯ Ø§ÙĦ
ĠÙĪ ÚıÙĬ
æľ Ī
åĪ ©
Ġà´ ²
é ķ
å¿ ĥ
ĠØ´ Ø§
å¯ ¹
åı ¸
ç½ĳ ç«Ļ
çİ ©
è®¡ åĪĴ
ĠÙĤ ÙĪÙħ
ä¸ »
å¦ Ĥ
ĠØ¨ Ø¯
ĠØ§ ÚĦ
åĲ İ
ĠÙĩ ÙĦ
Ġo l
Ø¹ ÙĪ
ĠÚªÙĨØ¯ ÙĬ
Ġ R
é ª
± ä¹Ĳ
it e
ÙĦ Ùĩ
ĠØ¨ Ø¹Ø¯
ç Ł
æĬ Ģ
Ù »
åĵ ģ
ĠØ§ ÚĨ
im e
Ø± Øª
ĠØ¨ Ú»
ĠØ² ÙĨØ¯
ĠÚĨ ÙĪÙĨ
Ø§ ÙĩØ±
æ Ľ
çĶµ å½±
Ø± ØŃ
æĸ ĩ
Ø§Ø¦ ÙĪÙĨ
Ã¼ Ã¼
ä¹ ĭ
Ø§ ÚĻ
ĠØ¨ Ø§Ø¨
Ø¯ Ùħ
Ġsel le
éĿ ¢
ĠÙħ Ø·
ĠÚª ØªØ§Ø¨
ĠØ´ ÙĩØ±
ĠÚª ÙĦ
å ķ
Øª Ùħ
ĠÙ½ ÙĬ
al d
1 8
ĠØªÙĪ ÙĩØ§ÙĨ
Ø§Øª ÙĬ
å¤§åıĳ å¿«ä¸ī
est i
à´° à´®
å¨ ±ä¹Ĳ
Ġm is
ĠÙĨ Ùħ
ç ¤
éĥ ¨
äº ¤
ĠÙĨ Ø§ÙĩÙĬ
à´Ł à´¤
Ù Ģ
Ø§Ø ¶
à´¯ à´®
Ġm u
Ù °
ä¹ Ł
Ġ -
Ù ĳ
ä¸ İ
ĠÙħ ÙĨÙĩÙĨØ¬ÙĬ
è´ ¹
ÙĬÙĨØ¯ ÚĻ
ĠØ³ÙĨÚĮ ÙĬ
ul t
Ġa ast
ÙĬ Ø§ÙĨ
ç» ı
at e
ĠÙ¾ÙĨ Ø¬
a al
ĠØ¨ ÙĦ
Ú¾ ÙĪ
å »
è Ī
Ġn Ã¤
ĠÙĨ ÛĴ
ĠØ§ÙĨ ÙĩÙĬ
ĠØ¢ Ùģ
ĠÙĪ Ø±ÙĬ
ĠØ¬ Ùħ
Ø§ØŃ Ø¨
Ø§Øµ ÙĦ
ĠØ¹ ÙĦÙĬ
æ¸ ¸
ĠÙ¾ Ú»
ç ³
ĠØ¢ Ú¾ÙĬ
èĢ ģ
ä» ĸ
ĠÙģ ÙĬ
çŃ ī
à´ķ à´¯
ĠØ³ ÙĦ
åħ¬ åı¸
äº §
ĠÙ¿ÙĬ Ú»
1 1
ak se
ĠØ¢ Ø¨Ø§Ø¯
è Ĭ
âĢ ¦
in d
m e
ï¼ ļ
ĠÙ» ÙĬ
Øª Ú¾
ĠØ§ Ø¬
Ġà´ ¦
ĠØµ Ø§ØŃØ¨
åĬ Ľ
è į
oo d
ĠØ§ÙĨ Ú¯
æľ Ł
Ġt o
Ø¦ Ø±
ĠÚĩÚı ÙĬÙĪ
ĠÚĨ ÙĬ
ĠÙ¾ ÙĬÙĪ
æ ¼
åĮ Ĺ
æŃ £
ĠØ´ Ø§Ø¹
è¿ ĩ
è¿ Ľ
Ġà´ħ à´¤
ÙĨØ¯ ÚĻ
Ġt Ã¶Ã¶
è½ ¦
ĠÙĪ Ø§Ø±
Ġse e
ĠÙ» Ø¦ÙĬ
Ġv al
Ġv a
ĠØ³Ú¯ ÙĩÙĬ
ĠÙĨØ¸ Ø±
æ Ł
Ø¨ Øª
ĠÙ¾ Ø¦ÙĬ
ĠÚ³ ÙĪ
ĠÚª Ø§
Ù½ ÙĪ
åħ į
Ù½ ÙĨ
ÙĪØ± ÙĨ
k k
av ad
ĠØ³Ø¨ Ø¨
ĠØŃÚª ÙĪÙħØª
è§ £
ĠØ¯ÙĨ ÙĬØ§
ĠØ±ÙĩÙĬ Ø§
ĠØ§ ÙĬÙħ
ĠØ¢ Ø¡
ĠÙĩ Ù¿
ĠØ§ÛĮ Ø³
ĠÙħ Ø§Ø±
h e
Ø§ÙĨ ÙĩÙĨ
ĠÚ¯ Ø°
Ġk Ã¼
éĩ į
ĠÚªØ± Ø§
æĴ Ń
æł ·
âĢĭ âĢĭ
éģ ĵ
é ĥ½
åº ¦
Ø¦ ÙĪÙĨ
Ø§ Ú©
ĠØŃ Ø§ØµÙĦ
Ġs iis
8 8
ĠØ± ÙĩÙĨ
àµ ĥ
Ù ĵ
Ġ J
å¾ Ĺ
âĢ Ļ
ç³ »
ĠÙ» ÙĨ
Úª ÙĨ
t s
åĿ Ģ
ä¸Ń å¥ĸ
ĠØ¬ÙĬ Ø¦ÙĨ
ĠØ§Ú³ ÙĪ
Ġà´ª à´±
ĠÚ³Ø§ÙĦ Ùĩ
äº ¬
èµ Ħ
Ú¾ ÛĮ
¯ä» ¥
å¤ ĸ
in n
ĠÙħÙĪ Ø¬ÙĪØ¯
ĠØ´ Ø§Ùħ
ĠØ³ÙĨØ¯ ÙĨ
Ġ ÛĮ
åĮ ĸ
Ġ .
ĠÙ» ÙĬÙĨ
a se
åı ¯ä»¥
ĠÙĪ ÙĬÙĨØ¯ÙĪ
à´¾ à´Ĥ
åŁ İ
ĠØ§ÙĨ Øª
ĠÙĦ ÙĬ
ç ´
Ġ le
ĠØ· Ø±Ùģ
c om
Ùº ÙĪ
ĠØ§ ÙĨØ¯Ø±
ĠØ§ Ù¾ÙĨ
ĠÙ¾ Ø±ÙĪ
Ġ I
é £
ä½ ł
å Ļ
åľ º
å® ļ
æ į
g e
ĠÙħ ÙĨÙĩÙĨ
åĮ º
Ùħ ÙĪ
Ġko r
Ġ H
Ġl i
ap p
ĠØŃ Ø§ÙĦ
çī ¹
Ġ d
à´ ĸ
æ ģ
åĽ¾ çīĩ
Ø¬ Ø§
Ġà´ Ń
1 2
äº ĭ
Ø§Ø³ ÙĬÙĨ
.. ..
i ga
j al
ç¥ ŀ
åĬ ł
Ġk oo
ĠØ³ Ú©
si oon
ĠvÃ¤ l
ĠÙ ¹
æľ į
Ø¸ Ùħ
ĠØ® Ø·
ĠÙģ Ø±
Ø±ÙĬ ÙĪÙĨ
ĠÙħ ÙĦÙĬ
Ġ f
ĠÚĩ Ø§
Ġà´ħ à´µ
ĠÚıÙĨ ÙĪ
ĠÚĩ ÚıÙĬ
æ° ´
åĲ į
ÙĬÙĪ Ø±
Ã¤ ev
o s
ç ²
ĠØ§ Ø®
ĠÙĪÙº ÙĬ
Ø§Ø± Øª
ĠØ± ÙĬ
é Ł
ĠÙĩ Ø¬ÙĬ
ĠØ¹ ÙĪ
Ùħ ÙĦ
Ø´ Øª
u p
ä» ¬
à´ İ
ĠØ§ Ùģ
çĶ ·
Ġl Ã¤
ĠØ¶ Ø±
ç» ĵ
çļĦ åĲĹ
Ġk es
Ø±ÙĬ Ùģ
ĠØ§Ø³ ÙĦØ§Ùħ
åģ ļ
Ùĩ Ú»
ĠØ¢ ÙĬÙĪ
åĻ ¨
ĠÚ¾ ÙĪ
ĠØµ ÙĪ
i le
ĠÙħ Ø®Øª
ÙĨ Úį
è¯ ·
Ġk Ã¤
Ġe n
Ø¨ ÙĦ
ĠÚª ÚıÙĩÙĨ
ÙĦ Ùģ
Ø³ ÛĮ
am a
ç¾İ å¥³
ĠØ§Ùĩ ÚĻÙĬ
à´ «
éĢ ļ
ĠÛģ ÛĴ
ä» £
è¢ «
è Ħ
æĬ ķ
ĠØª ÙĨ
ĠØ³Ú¯ Ùĩ
j u
ç¬ ¬
å± ķ
åī į
ĠÚ© ÛĴ
Ø¦ ÛĴ
ÙĪ ÙĬ
ç¾ ¤
æī Ģ
Ġo li
ĠÙ¾ ÙĪØ±
e er
ĠÚı Ø¦ÙĬ
ç Ħ
n ud
å £
é ©
éĢ ī
Ùħ Ø§ÙĦ
Ø² ÙĬ
at a
m ise
Ġs uur
ĠØ ¸
ĠÙĪ Ø§Ø±ÙĪ
åĨ ħ
ĠØ´ Ø§ÙĩÙĩ
é Ķ
è ĥ
Ġs Ãµ
ĠÙģ ÙĤ
èĢ ħ
Ø§Ø ®
é ļ
i a
ĠÙĩÙĪÙĨ Ø¯ÙĪ
Ø¬ Ø¨
Ùħ ÙĬÙĨ
éķ ¿
ĠâĢ Ļ
r a
1 5
e g
ĠØ® Ø¨Ø±
e ga
Ãµ t
Ġà´ Ĺ
æķ Ļ
é ĵ
o h
åħ ³
è ¥
Ø´ ÙĬ
æ ·
ĠØ³ Ø§
ĠâĢ ĵ
ĠØ¬ÙĪ Ø§Ø¨
ĠÚı Ø³
Ø¨ ÙĨ
ĠØ§ ÙĪÙĨ
æ ¶
çĤ ¹
ĠØª Ùħ
ç¦ ı
æĹ ł
ç ĭ
ĠÃ¼ le
éĽ Ĩ
Ġe s
ĠÙħ Øª
ĠÙĦ Ø¦ÛĮ
ĠÙĨ Ûģ
ĠØ³ Ø§Ùħ
æĪĲ äºº
Ġt ule
å® ¢
t i
ĠÙĪ Ø§ÙĦ
ĠÙĨ ÙĬ
Ġm il
ĠÚ³ÙĪ Ùº
èĢ Į
äº Į
ĠØ§ÙĦ ÙĦÙĩ
Ġ |
Ġn e
Ġp Ãµ
ä¸Ń åĽ½
Ġo s
éĹ ¨
ĠØ¹ Ø¨
äº ļ
å¼ ı
åį ķ
ÙĦÙĬ Ø³
ĠØ¬ÙĬÚª ÚıÙĩÙĨ
æĪ ·
Ùģ Ø±
ĠÙ¿ Ø¦ÙĬ
ĠÚªÙĨØ¯ ÙĪ
èµ °
æĪ ı
Ø§Ø¬ ÙĬ
Ġà´ ¯
åİ ¿
ĠÙħ Ø®
ĠØ³ ÚĦ
å» º
Ġà´ª à´°
æĺ İ
ĠÚ¯ ÛĮØ§
ĠØª Ø¨
ÙĦÙĬ Ùħ
ĠØŃ ÙĪ
ĠÙ¾ ÛĮ
ĠØ¢ÙĩÙĬ Ø§ÙĨ
æ² ¡
ĠØ¬ ÛĮ
Ġp o
i p
ĠØ¨Ø§Ø¨ Øª
Ù¾ÙĪ Ø¡
ĠØ¨ ÙĨØ¯
Ø³ ÙĦ
ĠÙ¾ Ø±ÙĬ
Ġ å¾®ä¿¡
ĠØ³ÙĨ Ú¯
Ø§ÙĤ ÙĬ
å¤©å¤© å½©ç¥¨
Ù¾ ÙĬ
åĪ ¶
ĠØ® Ø§Øµ
Ø±ÙĬ Ø¡
ĠØµ ØŃ
é¦ Ļ
ĠÙĪ Ø³
. âĢľ
è¥ ¿
Ġv ast
ç Ŀ
ĠØ§ Øµ
ĠØ «
æİ ¨
åħį è´¹
å ¢
Ùĩ Ø§
ĠØ¹ ÙĪØ±Øª
ĠØ· Ø±ØŃ
è Ĳ
ĠØ¬ÙĬÚª Ø§
é ľ
Ùģ Ø¸
ĠØ¢ Ùĩ
ĠÙĩÙĨ ÙĨ
éĻ ¢
ĠÙ¾ÙĬ Ø´
ĠÙħ Ø¯
åį ģ
ĠØ® ÙĬ
Ġà´ ±
Ø³ ØªÙĬ
ç ±
ĠØª ÙĨÙĩÙĨ
à´° à´£
Ú³ ÙĪ
æ¯ Ķ
ç® ¡
äº Ķ
Ġà´ĩ à´¤
ik u
ĠÛģ ÙĪÙĨ
Ġà´µ à´°
ĠÚ©ÛĮØª Ø§
Øª ÛĮ
æ° ĳ
Ø§Ø±ÙĬ Ø®
ĠÙĪ Ø§ÙĤ
Ø§Ø¦ Ùħ
Ġ "
k i
ĠÙ» Ùĩ
ĠØ¢ Ø²
v a
ĠØ§ÙĨÙĩÙĬ Ø¡
20 0
h a
à´Ĥ .
201 8
ÚĬ ÙĬ
Ġ O
ĠÚĨÙĪ Ú»
åħ ¶
ĠÚª ÙĪÙĨ
ĠÙħ Ù¿
Ú ±
ĠÙĤ Ø¨
Ġte g
i e
ĠÙĨ Ø§
è® ¾
ĠÙħØ®Øª ÙĦÙģ
Ùģ ÙĬ
ĠÚ© ÙĨ
oo l
Ġkas ut
Ù¾ Ø±
ĠØ¹Ùħ ÙĦ
é¢ Ĩ
ĠØ¬ ÙĨÚ¯
æĭ į
ĠÚ Ī
Ġà´ «
åĬ ¿
æµ ·
ĠØ¯ÙĪØ± Ø§ÙĨ
ĠØ´Ø§Ùħ ÙĦ
ÙĬÙĨ ÙĬ
æľ ¯
ä¸ ľ
æ º
èµ ¢
ĠvÃµ im
è ª
ĠÙģÙĪ Ø¬
ĠÙĨ ÙĨÚį
è¡ ¨
ĠÙ¾ÙĪ ÙĦÙĬØ³
Øª ÙĦ
Ġà´ħ à´¨
ĠÚ© Ø±ÙĨ
ĠÙħØ³ ÙĦ
ĠØ¢ Ø®
ĠÚıÙĬ Ú»
e el
ĠÙ¾ÙĨÙĩÙĨ Ø¬ÙĪ
u g
Ġ B
Ġe r
ĠÚ©Ø§ÙĨ Ù¾ÙĪØ¡
ik k
ĠØ§Ø³Øª Ø¹
ii r
Ú¯ Ø±Ø¯
çĽ ´
æ¸¸ æĪı
åħ ¥
ĠØ§ Ù¿
å½©ç¥¨ å¤©å¤©
ĠÚı Ø§
æµ ģ
ĠØ¬ ØªÙĬ
Ġt Ãµ
ĠÙĪ Ø§Ù¾
ĠØª Ø§Ø±ÙĬØ®
ĠØªÙħ Ø§Ùħ
Ø¨ Ø§ÙĨ
ĠØ¹ Ø§Ùħ
ä¿ Ŀ
ĠÚ© Ú»ÙĬ
Ģ è¯·
Ġe l
ĠØ¯ÙĪ Ø³Øª
ĠÙ¾ÙĬ Ø¯Ø§
ĠÙ¿ ÙĬÙĨØ¯ÙĪ
ĠØª Ø§ÙĨ
Ġn ii
æĬ ¥
ĠØ¹ÙĪ Ø§Ùħ
éĹ ´
ust e
ĠÙ¾ÙĨØ¬ Ø§Ø¨
Ġl Ãµ
åĬ ¡
ĠÙĩ Ø§
ĠÚ¯ ÙĪ
ĠÙ¾ Ûģ
Ø« Ø±
ĠØ³ÙĪ ÚĨ
ĠØ¨ Ú¾
ww w
ĠØµ ÙĪØ±Øª
ĠÙĨÙĪ Ø§Ø²
ĠØ®ÙĪ Ø´
éĤ £
un d
Ġl a
åİ »
ÙĨ Ø§Úº
ĠÙĩÙĪÙĨ Ø¯ÙĬ
p p
à´µ à´¨
çº §
ä½ ķ
Ġà´ĩ à´¨
ĠÚĢ Ø±
ĠÙ¾ ÙĪÙĨ
Ġ u
Ø§Ø± ÛĮ
i b
Ø±ÙĬ ÙĦ
æĹ¥ æľ¬
ĠØ§ Úª
ĠÚ¯ ÙĦ
é ħ
Ø´ Ø´
à´² à´¯
è£ ħ
æĦ ı
ĠØ§ Ø¦ÙĬÙĨ
en t
ĠØŃ Ø³
an ud
ĠÙħ Ø§ÙĦ
Ġà´¸ à´®
ï¼ ī
ĠÚĬ Ø§Úª
å ĸ
Ġa ga
åı Į
ï¼ Ī
åħ ĥ
ç§ ĳ
ĠØ§ÛĮÛģ Ûģ
Ġ as
æ ¡
è¿ ĺ
è º
ĠÚĦ Ú»
è® °
k t
ĠÙ¾ ÙĬØ§
è ¨
ĠØŃ ÙĤ
k on
ĠØ§Ø³ØªØ¹ ÙħØ§ÙĦ
ç ģ
éĿ ł
ĠÙ» ÙĪ
Ġ b
è ħ
ĠÚªØ±Ø§ ÚĨÙĬ
a ar
å¾ Ī
ä¸ ĩ
åĽ Ľ
ik s
àµģà´Ĥ .
ĠÙĦ ÙģØ¸
ç§ į
å ©
à´Ł à´¨
ĠÙĪÚı ÙĪ
ç ĥ
Ø§ ÙĬØª
ĠÙĤ Ø±
æ ¨
åĮĹ äº¬
Ùĩ ÙĪÙĨ
Ø§Ùģ ÙĬ
ĠØ§Ø³ Úª
at i
Ġà´ Ī
åĢ ¼
ĠÙħ Úª
ĠÙħ Ùĩ
åı Ĭ
ĠvÃ¤l ja
ç¨ ĭ
Ġà´ ¹
Ø§ÙĨ ÙĪ
è¶ ³
ĠÙģÙĬ Øµ
çī ©
Ø¨ Ø§Ø±
Ø§ÙĨ ÙĪÙĨ
éĤ Ģè¯·
Ġ C
o b
use d
ĠØµ Ø±Ùģ
Ø· ÙĨ
å± ±
Ø® Øµ
åĬ ©
åį Ĺ
Ġp ar
å¼ º
ĠÚ¯Ùĩ Ù½
ĠÚªÙĨØ¯ Ø§
ĠØ¹ÙĦ Ø§Ø¦
Ġà´ Ł
ĠÙ¾ Ø¦
ç½ĳ åĿĢ
é» ĳ
ĠØ§ ØªÙĬ
ad e
ĠØ¢ Ø±
å½ ķ
ĠÙĪ Ø¬
Ġm Ã¤
se d
ÙĦ ÙĤ
ĠØ¢ Ùħ
ĠÙ» Ø§Ø±
éĢ ģ
æİ ¥
ĠÙħ Ø°
æĽ ´
ĠØ§ Úĥ
æ¬ ¡
ĠØ° Ø±ÙĬ
ĠÚª ÙĬØ§
ĠØ®ÙĬ Ø§ÙĦ
èº «
çĽ ®
éĩ ı
ä½ į
ĠØ¬ Ø§Ø±ÙĬ
Ø² Ø§Ø±
ĠØ¨ ÚĨ
äº Ľ
3 0
ĠÚĨÙĪÙĨ ÚĬ
ĠØª ÙĪÙĨ
ÛĮ Ú©
ĠØ¹ Ø§ÙĦ
è ±
ĠØ± Ø§Øª
çĦ ¶
Ġà´ ı
Ø§Ø±ÙĬ ÙĨ
æķ °
u i
Ġp al
ĠØ´ Ø®Øµ
é» Ħ
v al
1 7
ĠÙĨ Ù¿
ÙĤ ÙĦ
å ĭ
ĠÚĬ ÙĬ
ĠÙĤ Ø³Ùħ
Ġà´ ¡
æĶ ¾
ĠÙĩ ØªÙĬ
ĠØŃÚª Ùħ
è® º
o d
ĠØ¹ Ø¯Ø§ÙĦ
Ø¬ Ú»
Ġn a
ik a
å· §
åı £
ĠE esti
Ġà´¤ à´¨
å° Ĩ
Ø§ÙĨ Ú¯
ĠÙĪ Ùģ
ĠØ´ ÙĬ
Ġ ÙĬÙĪÙĨ
åħ Ń
æ´ ²
ĠÙĪ Ø§Ø±ÙĨ
ĠØ³ ÙĬÚª
1 6
ĠØ§Ùĩ Ùħ
è Ļ
å®ĺ æĸ¹
çŁ ¥
çĽ ¸
æľ īé
ĠÙĩ Ø§Ú»ÙĬ
ĠÙĩÙĬ Ùº
à´° à´ķ
ĠÚª ÙĬØ³
æµ ĭ
us i
Ġj u
ĠÙĨØ§ÙĦ ÙĪ
Ø· ÙĬ
Ø± Ø§Ø¦ÙĬ
ĠÙĤ Ø§Ø¦Ùħ
ĠØ¨ ÙĪ
Ġà´ ĵ
Ø§ÙĨ ÛĮ
el d
ii v
æĦ Ł
ĠØ³ÙĬ Ø§Ø³ÙĬ
ĠÙħÙĪ ÙĤ
ä¸ ĸ
å ²
ĠÚı ÙĨÙĬ
il m
ĠÙ¾ Ù½
æĥ ³
ĠÙĪ ÙĬÙĨØ¯ÙĬ
æī ĵ
q q
ĠØ´ Ø±ÙĬÙģ
Ùº ÙĬ
ĠÙ¾Ø§Ø± Ø§ÙĨ
ĠÙĪØ± ØªÙĪ
ĠØ¯ Ùĩ
ĠÚ© ÙĬÙĨ
ĠÙĩ ÙĬÙĪ
éĤĢè¯· çłģ
àµĩ à´¾
Ġm ida
ĠØ³ Ø§Ø±
Ġko h
çĻ ¾
åĲĪ æ³ķ
ĠØ´ Ø±
åĨ Į
ĠÚı Ø§ÙĨÙĩÙĨ
åį ļ
ĠÚª Úį
ĠÚ¾ ÙĨ
Ġs u
ĠÙĦ Ø§
ĠÙĤ Ø§ÙĨÙĪÙĨ
à´ķ àµ¾
æĬĢ å·§
æ´ »
1 4
æ £
ĠÙ¾ Úĩ
èµ ·
Ġr ah
ĠÙĬ Ø§Ø¯
Øµ ÙĬ
Ø¬ Ú¾
ĠØª Ú¾
ç² ¾
ĠÙ» ÙĬÙĪ
ĠØ§ ÙĬØª
ĠÙ¿ÙĬ ÙĦ
ĠÙħØ³ÙĦ ÙħØ§ÙĨ
ĠÙħÙĪ Ø¬Ø¨
r e
èµ Ľ
Ġse da
Ġm it
ĠØ± Ûģ
ĠØ¢Ùģ ÙĬØ³
ç ¶
ç ħ
Ø§Ø¦ ÙĪ
ç© º
é© ¬
æ¸ ¯
å± Ģ
Ġj Ã¤r
å® Į
æ ĵ
Ù¹ ÛĮ
å¤§ å¥ĸ
it se
è§ Ĥ
à´¯ à´¨
åı ĸ
Ġk ir
Ø³ÙĪ Ø³
ĠÚıØ§ Úį
ĠÚªÙĪ Ø´Ø´
ĠØ® ØªÙħ
à´° à´¸
al l
æĺ¯ çľŁ
ĠÙĦÚ³ ÙĬ
ä¸ ĵ
ĠØ³ÚĢ ÙĨÙĬ
ĠØ® Ø±
ÚĬ ÙĬØ§
à´Ł à´ķ
åģ ĩ
ĠÙ¾ ÙĬØ±
ĠØŃ Ùħ
Ø§ÙĨ Ø§
ĠØ§ÙĪ ÙĩØ§ÙĨ
ĠÚ¾ Úª
ĠÚĢ ÙĬ
Ã ľ
ĠÚ© Ø±Ø¯
ĠÚĬØ§Úª Ù½Ø±
æ³¨ åĨĮ
ĠÙ¾ Ø§Ú»ÙĬ
Ú¯ ÙĬØ¡
Ġ an
åķ Ĩ
å¾ ĭ
Ġko n
ÙĪ Ø±ÙĬ
ĠÃ¼ h
Ø ¤
Ùģ Øª
ĠÚª ÙĪØ±
Ø¬ Ø±
ç ĸ
Ùĩ Ø§Ø±
ĠØ±Ú© ÙĬ
åĽ ŀ
ist e
oo v
ĠØ¬ ÙĦ
ä¸Ģ ä¸ª
ä¼ ¦
Ø² Ø§
use s
è İ
çł ´
Ġ Â
åĽ ł
ĠØ± Ø§Ø¬
Ġs Ã¼
Ġk un
ĠÚĮ Ø±
Ġet te
Úª Ø§
ĠØ§ Ø¯Ø§
çĿ Ģ
à´¯ à´ķ
ĠØ± Ø³
Ûģ Ø±
ĠÙĦÙĪ Ú©
ĠâĢ ¦
as i
à´° à´µ
ĠÚı Ø³ÙĬ
Ø§ÙĨ ÙĨ
ĠÚı Ú©
Ġku id
å Ķ
ç» Ł
9 9
é ł
5 0
èĬ ±
ĠØ± Ú³ÙĪ
in na
an e
Ûģ Ø§Úº
ĠÙĪ Ø§ÙĨ
ĠØ´ Ùĩ
Ù¾ Ø±ÙĬ
ä½ ¿
æĶ ¿
ÙĨ Ø§
ĠØ¢ Ø¦ÙĪÙĨ
è¯ Ŀ
ç¤ ¾
çĻ »
å½ ĵ
. âĢĿ
Ġà´ķ à´£
ĠØªØ¹ ÙĦÙĬÙħ
et e
æĺ ĵ
ĠØ³Ø§ÙĦ ÙĨ
ĠØ¨ ÙĨÙĬ
ĠØŃÙĪ Ø§ÙĦÙĬ
Ġmil le
ĠØ³Ú¯ ÙĩÙĨ
Ø§Ø¹ Ø¸Ùħ
å¤ļ å°ĳ
ĠØ§ØŃ Øª
å¸ Ī
æĸ Ļ
ĠØ§ ÙĨØ¯
ik e
ä½ Ĩ
j ut
ĠÙ¾Ùĩ Ø±ÙĬÙĨ
è· ¯
ĠØ§ ÙĬØ³
ĠÙĦÚ³ ÙĪ
1 3
Ù¾ ÙĦ
éĻ ħ
Úı ÙĪ
t t
Ø³ ÙĨØ¯
æĺ Ł
v ad
Ø§Ø ·
ÙĦ Ø¨
it ud
Ù¾ÙĪØ± Ù½
ä¹ ħ
à´¤ à´®
ĠØ¬Ø§ÙĨ Ø¯Ø§
ĠÙĨØ§ÙĦ ÙĬ
Ú¾ÙĨ Ø¬ÙĬ
ĠÙħ ÙĬØ±
ĠØ³ÚĦ ÙĬ
ĠØ³ ÚĨ
ç ¼
Ġar v
å· ŀ
ä» Ĭ
Ù¾ Øª
ĠØª ÙĤ
ĠÚ¯Ùĩ Ú»ÙĪ
åº Ķ
ĠØ¯ÛĮ Ø§Úº
åĮ ħ
se lt
å¹ ¿
Ġv ah
ĠÙģ ÙĦ
åŁ º
ĠÙħØ³ Ø¦
) .
ĠØ²ÙĨØ¯ Ú¯ÙĬ
ä» »
Ùħ Øª
ĠØ¹Ø¨ Ø¯Ø§ÙĦ
ĠÙĪ Ø§
ĠÙĩ ÙĬÙĪÙĨ
åı ĭ
o g
ĠÙĨ ÙĤ
ÙĦ Ø§ÙĨ
åħ Ī
Ø±Ùģ Øª
æĢ »
èģ Ķ
ĠÙ¿ ÙĬÙĨØ¯ÙĬ
ĠÙ» Ø§ÙĩØ±
n n
Ø§Ø º
ÙĪØ± ÙĪ
æº Ĳ
åĬ ŀ
ĠkÃ¼ l
åĳ ĺ
ĠÙĪÚĥ ÙĨ
ĠØ¹ Ø±
ÛĮ Ù¹
ĠÙ¾ Ø§Ø³
ĠÙ¿ ÙĬÙĪÙĨ
ä¹° å½©ç¥¨
ãĢ Ģ
ĠÙĤÙĪÙħ ÙĬ
ĠÚ¯ Ø§
åİ Ł
ĠÙ¾ Ú¾
à´ ĺ
ÙĪ Ø§Ø²
Ø±ÙĬ Ø²
ise lt
at sioon
Ġà´ ŀ
ĠÙħ Øµ
am ine
èµ° åĬ¿
æ »
ĠÚ¯Ú¾ Ø±
Ġà´® à´¨
Ú© Ø§Ø±
ĠÚª ÙĬÙĦ
æĶ ¹
ise d
ØŃ Ø§ÙĦ
ĠØ§Ú³ÙĪ Ø§Ú»
å¸ ¸
ĠØº ÙĬØ±
Ġko ht
ĠÙ»ÚĮ Ø§ÙĬÙĪ
ĠØ¨ Ø§Ø±
ÚĪ ÛĴ
ï¼ Ľ
ĠØ¹Ø¯Ø§ÙĦ Øª
é¢ Ħ
à´Ļ àµ¾
ĠØ¨ Ø§Ø¯
i in
ÙĦÙĬ Ø¡
ĠvÃµim al
el le
Ø±ÙĬÚª Ø§
ĠÚ¯ÙĩØ± Ø¬ÙĬ
à´Ł à´Ļ
ãĢ Ĭ
Ġ ÛĮØ§
Úĳ ÛĴ
å¯ ¼
Ġà´ªà´± à´ŀ
ãĢ ĭ
å¦Ĥ ä½ķ
ĠØŃ ÙĬ
ĠÚ© Ùħ
ÙĪ Ø§ÙĦ
å ŀ
å ł
å® Ŀ
åħ ī
Úª Ø§Ø±ÙĬ
ĠØº ÙĦØ§Ùħ
çķ Į
Ø® ÙĪ
Ã¼ h
ĠÙħØ¹ Ø§Ùħ
ĠØŃ ÙĤÙĬ
ĠÙĨ Ø¦ÙĬÙĨ
ub a
å Ħ
æŁ ¥
ÙĦ ÙĪÙħ
æĸ ¯
ak k
or d
æ Ĥ
Ùħ ÙĪÙĨ
ĠÚªÙĨØ¯ ÚĻ
Ġkor r
ĠÙĩ Ø§Ú»
ÚĮ ÙĬ
ĠØ¯ Ùģ
ĠÚ¾ ÛĴ
æŃ ¤
ĠÚ© ÛĮ
ĠØ¯ Ø§Ø®
ĠÙĨ Ø´
2 4
ĠÙĨ Ø§Úº
æ¸ ħ
ç¦ı åĪ©
Øª ÙĪÙĨ
ĠÚ© Ú¾
è¿ Ĳ
Ġà´¨ à´²
èī º
çĻ ½
æ¼ «
å¹ ²
åĲ Ħ
Ġj Ã¤
ĠØµ Ø¯Ø±
Ġ ise
åĲ §
ĠØ§Ù¾ÙĨ ÛĴ
Ùħ Ø¨
ĠÙ¾Ùĩ ÚĨ
è¯ ģ
ar t
Ø± ÙĦ
éª Ĺ
ç Ĺ
ä» İ
ĠØ§ÙĨØª Ø¸
é ¾
ĠpÃµ h
Ø¹ ÙĨ
èĤ ²
ĠÚªÙħ ÙĬ
ĠØ¨ Ø®
Ù½ ÙĦ
ĠÙģÙĤ Ø·
b i
im ise
ĠÚĦ Ø§Ú»
ĠØ± ÙĨÚ¯
à´ļ à´¤
ĠØ¢Ø² Ø§Ø¯
ç» Ļ
ÚĪ ÛĮ
à´³ à´¤
ÙĨØ¯ ÛĴ
ÙĦ Ûģ
ĠÙ¾Ø§Ø± Ù½ÙĬ
Ġà´ķ à´´
å¦ ĩ
åľ¨ åĵª
ç ı
ĠØ¯Ùĩ Ø´Øª
en e
2 5
Ø§Ø¨ ÙĤ
æ ¢
Ø Ľ
ĠÚªÙĪØ± Ù½
e a
ĠØ³Ùħ ÙĬØª
æ ħ
çħ §
Ġ Ã¤r
à´ª à´¤
ÚĪ Ø§
k e
Ø¬ Ùĩ
Úĳ Ú¾
ĠØ§Ø³Úª ÙĪÙĦ
i c
çī Į
ĠÙĨ ØªÙĬ
ĠâĢ ĺ
å§ Ĳ
ç ¡
ÚĻ ÙĩÙĬ
é¦Ļ æ¸¯
è Į
Ġ æīĭæľº
æ ĳ
à´¿ âĢĭ
Ø±ÙĬ Ø¨
ĠØ¶ ÙĦ
ä¼ ĺ
ĠÙħ ÙĪÙĦ
æ²¡ æľī
è¾ ĵ
Ø§ ÙĬ
ĠÙģ Ø§Ø¦
æ ¿
ĠkÃµ ik
ĠØ³ Úı
Ġà´Ĩ à´°
ĠÙ¿ ÙĬØ§
Úĳ ÛĮ
à´¨ à´Ļ
at akse
Ø¯ ÙĬÙĨ
ĠÙĨÙĪ Ø¬ÙĪ
ĠÚ¯ Ø±ÙģØª
in ud
ĠØª ÚıÙĩÙĨ
ä» ¶
Ġ D
ĠØ³ Ø§Ú³
ÙĪÙĨ ÙĬ
ĠØ¢Ùĩ ÙĬÙĪÙĨ
ĠØ§Ùĩ ÚĻÙĪ
à´¤ à´°
ĠÙĨÛģ ÛĮÚº
Ġ G
àµį ,
ĠÙħ Ø²
ĠØ¹ Ø±Ø¨
ĠÙĩ ÙĦÙĬ
Ø§Ø¦ ÙĬÙĨØ¯ÙĬ
åĩ ł
ĠÙħ Ø«
Ġe h
Ø¯ ÙĨ
ĠØ§Ø¯ Ø¨
æľĢ æĸ°
ĠØ³ Ùĩ
ĠØ¨Ø§Ø¯ Ø´
Ú¾ Ø§
ÙĪ Ø§Ø±
un ud
å· ²
ĠÙħ ÙĬÙħ
ĠØ¨ Ûģ
ig e
ç» Ħ
ud a
ĠØ§ ÙĬÙĨ
ĠØ¶Ø± ÙĪØ±Øª
å¦ »
Ġk e
ÚªÙĬ Ù½
Ġ :
æģ ¯
ÙĢ ÙĢ
ĠÚĨ Ø§Ø±
æĪ ¿
ĠÚª Ø§ÙħÙĬ
æĮ ģ
çİ ĭ
ĠØ§ÙĨØ¯ Ø§Ø²
ĠÙħØ¯ Ø¯
ÙĦ Ø§ØŃ
ĠÙħØ° Ùĩ
id u
p a
ĠÙħ Ø¸
à´¯ à´ª
ĠØ§ÙĨ Øµ
ĠØ¹Ùħ Ø±
ja d
é£ İ
å®ī åħ¨
ĠØ³ÙĪ Ø§ÙĦ
ĠØ¨ÙĨ Ø§
ĠØ¢ Ø¦ÙĬ
ç Į
ä¸ Ŀ
am e
é¢ ĺ
Ġå¤©å¤©ä¸Ńå½©ç¥¨ æĢİä¹Ī
ĠØ® Ø¯Ø§
ĠØ¨ ÙĪÙĦ
Ġ F
ĠØªØŃ Ø±ÙĬÚª
è ²
ĠØŃ Ø¶
al a
it s
ĠØ§ Ú¯
éĿ Ĵ
oo m
ĠÙĪ ÙĦ
oo t
à´ ħ
ĠØ´Ø§Ø¹ Ø±
àµ Ĺ
Ù½ Ø±ÙĬ
b r
ĠØ¢ ÙĪØ§Ø²
çº ¢
ĠØ¬ Ú¾
ÙĦÙĪ ÚĨ
ĠÚª Ø§ÙĨ
ĠÃ¼ ks
ÚĮ ÙĪ
Ú¾ Ùĩ
å¦ ¹
å· ±
ĠØ¶Ø± ÙĪØ±
å¤ ´
in a
el l
ĠÙĪØ§ÙĨ Ú¯Ø±
ĠØ§ Ù¾
am at
ĠÙ¾ Ø§
ç® Ĺ
ĠØ¨ Ø¬
æĪ ĸ
åı ª
å¤ Ħ
ÙĬØ¯ Ø±
æ± Ĥ
å·¥ ä½ľ
ĠÙħØ· Ø§Ø¨ÙĤ
æ ®
ĠØ´ Ø¹
Ġk us
Ġà´® à´±
å¹ ¶
çĶ ±
ĠÙĩÙĪÙĨ Ø¯Ø§
ĠÙħØŃ Ø³ÙĪØ³
ĠÙħ Ø¬
Ġr e
ĠØ ¡
æĪĳ ä»¬
à´µ à´¸
Ġp Ã¤r
Øº ÙĬØ±
éŁ ³
ĠÙ½ ÙĪ
ĠØ§Úĥ Ø§
åŃ Ĺ
ĠÙħÙĦÚª ÙĨ
èī² æĥħ
Ù½ Ø§
ĠØ²ÙĨØ¯ Ú¯ÙĬØ¡
ØªÚ¾ ÛĴ
Ġsa ab
ĠØª Ú©
ä¼ ł
im a
åħ ħ
ç¤ º
ä¸ ¤
Ø§Ø «
à´· à´£
ĠÙĪØ§Ø± Ø§
åĽ½ éĻħ
r g
ĠÚªÙĪÙĨ Ùĩ
av a
Ø¸ ÙĬÙħ
ĠØ¬ Ø¯
æį ®
ĠØ±ÙĪ Ø²
ĠØµÙĪ Ø¨
Ø´ ÙĬØ§
ĠØ§ØŃØª Ø¬
è¶ ħ
ÙĦÙĬ Úª
ĠØ§ÚĨ Ú»
use ga
ĠÙħØŃ Ø¨Øª
ÚĻ ÙĬÙĪÙĨ
èĭ ¹
ĠÛģ ÛĮ
çł Ķ
ĠØ´ ÙĪ
ĠØ³ Ø®Øª
ä¹ ±
èĭ¹ æŀľ
ĠÙĪÚĥ Ú»
èĦ ĳ
m m
ĠÙĦ Ú¯
æł ¼
ç ¯
èĩª å·±
åĪ Ľ
Ġa v
ĠØ¨ÙĬ Ø§ÙĨ
ĠvÃµi b
éĹ ®
ç Ĩ
ĠvÃ¤ ga
æ ļ
Ú© ÛĮ
2 2
ĠØ² Ø¨Ø§ÙĨ
is i
ï¼ Ł
Ø¹ Ø§
Ú¾ Ø±
ĠÛģ ÙĨ
é ĸ
ç« ĭ
Ùĩ ÙĪØ±
ĠÙħ Ø§
Øª Ø§ÙĨ
Ø¹ ÙĨÙĬ
ĠØ± Ú¾
Ø§Ø² ÙĬ
ĠØ·Ø±Ùģ Ø§ÙĨ
Ġp oo
Ġ U
ĠØ§ Ø±
ĠÙĪÙĬ Ø¬
ĠÙĤ ØªÙĦ
ĠØ´Ø§ Ú¯Ø±Ø¯
ĠÙĪØ§Ù¾ Ø³
à´° à´¨
äºļ æ´²
åħ ·
Ùĩ Ø§Ø¦ÙĬ
è ĳ
ĠÙĪØ²ÙĬØ± Ø§Ø¹Ø¸Ùħ
Ø¦ Ø§
Ġà´ħ à´±
Ġ æĸ°
ĠØ¹Ùħ Ø±Ø§ÙĨ
p et
ç»ĵ æŀľ
Ø´ Ùħ
ĠØ³ Ø§Ø¦ÙĬÙĨ
ĠÙĨÙ¿ ÙĪ
à´¤ à´²
Ġto im
åı Ĺ
ek t
Ø¯ Ø§ÙĨ
Ġ www
ĠÙĩ ÙĬØ¡
el t
ĠØ³ÙĦ Ø³
Ø¯ ÛĮØ§Úº
ĠØ§Ùħ ÙĬØ¯
æ¬ ¾
Ġ )
Ø´ Ùĩ
å¥³ äºº
ĠÙĨ Úª
ĠÚ©ÛĮØª ÛĮ
åıĳ å±ķ
é¡ µ
ĠÙĨ ÙĬÙĪ
åį ¡
æŃ£ è§Ħ
ĠÙĪ Úª
Ùħ Ø±
Ø¦ ÙĪ
åģ ·
Ġt er
Ġn Ãµ
se t
åĽ½ å®¶
ĠØ¹ÙĦ Ùħ
Ġ and
ĠØ® Ø¯Ùħ
à´ķ à´£
Ġpo le
ä¼ ģ
ĠÙħÙĤ Ø±
ĠÙĨ Ø§Ùħ
ĠÚı ÙºÙĪ
ĠÙĪ ÙĬÙĨØ¯Ø§
ĠÚªØ§ÙħÙĬ Ø§Ø¨
è® ¤
Ĉ Ĉ
è¦ ĸ
ØªÙĬ Ø§Ø±
ï¼ ģ
è® ¯
ĠØ³ÙĬ Ø§Ø³Øª
oo r
ĠØ¨ ÙĦÙĪÚĨ
ĠØ¨ ÛĮ
àµįâĢį ,
k u
ĠÙĦ Ø§Ú³
6 0
ĠØ² ÙħØ§ÙĨ
çĥ Ń
ĠÙħ ÛĮ
à´¤ à´¨
ĠØ°Ø±ÙĬ Ø¹ÙĬ
Ġp u
åĲ ĳ
ĠØ² ÙħÙĬÙĨ
å¸ ¦
è´ Ń
é º
Ø· Ø§ÙĨ
ĠØ³ ÙĬØ¯
àµ¼ à´¤
à´¤ à´¤
ĠÙĨ ÛĮ
ĠÙħ Ø±ÙĬ
æĶ ¶
èĢ ĥ
åŀ ĭ
ä¼ Ĺ
åĦ ¿
å¤ ľ
ÙĦ Ø§Ø³
Ġj Ãµ
ç± »
ĠØ§ ÙĪÙĦ
à´¯ à´Ļ
ĠÙħÚª ÙħÙĦ
Ùĩ ÙĬÙĪ
åį İ
in u
ĠØ¯Ø§Ø® ÙĦ
éĢ ł
Ġaast a
Øª ÛĴ
éľ Ģ
ut e
ĠØ³Ú¯Ùĩ Ø¬ÙĬ
an g
è§Ħ å¾ĭ
ĠÙħÙ¿ Ø§ÙĨ
æĬ Ĭ
use l
p r
ĠØªØ± ÙĤÙĬ
ĠÚª ÙĬÙĪÙĨ
âĢ¦ âĢ¦
çł´ è§£
ud e
t er
ä¹ ¦
ĠÙģ ÙĦÙħ
Ø§ÙĨ Ø¯
ĠØ¨Ú» Ø¬ÙĬ
201 7
è Ń
ĠÙģÙĬØµ ÙĦÙĪ
æī į
åĩ Ĩ
ĠÙħÙĨÙĩÙĨ Ø¬ÙĪ
Ø¢ Ø¨Ø§Ø¯
æ Ĳ
æ¿ Ģ
çİ ĩ
ĠØ¨ Ø§ÙĤÙĬ
æł ¡
Ġk ah
à´¯ à´°
è¿ ŀ
ä¸į èĥ½
ĠÙħÙĪÙĨ Ú©ÙĬ
ĠØŃ ÙĬØ¯Ø±
ĠØ´ ÛģØ±
m ist
t le
Ġ åĮĹäº¬
ØŃ Ø¯
ĠØ§Ø³ ÙĬÙĨ
ĠØ´ Úª
ĠØ¹ÙĦ Ø§ÙĤ
ĠØ¬Ùĩ Ø§Ø²
ĠÚªØ± Ø¯Ø§Ø±
Úĳ Ø§
ĠÙ¾ Ø³ÙĨØ¯
ĠÙħÙĨ Ø¸
ĠÙ½ ÙĬÙħ
st i
ĠØ³ ÙĬÙĨ
ĠÚªÙĬ Ø¦ÙĨ
åİ Ĩ
p k
ĠÙ¾ Ø§Ø³ÙĬ
à´Ł à´ª
Ġt un
ĠØª Úª
Ġin im
Ø³ Ø±
åĪ Ĺ
æİ Ĵ
ï¿½ ï¿½
ĠÙĬÙĪÙĨ ÙĬÙĪØ±
ĠÙĪ ÙĪ
i im
ĠØ³ ÙĪÙĨ
ĠØ³ ÙģØ±
ĠØ¬ ÛĴ
ĠÚª Ù¿ÙĬ
ĠØ¨ ØŃ
o v
é¾ Ļ
æĬķ æ³¨
è® ©
è° ĥ
åľ ĭ
æ ¥
Ġe est
¾ ³
ĠâĢ ŀ
ĠØŃÙĤÙĬ ÙĤØª
ĠÙħ ÚĻ
ĠØ§ÙĨØµ Ø§Ùģ
Ġta g
Ġà´ī à´£
ĠØªÙĪ ÚĻÙĬ
Ġko l
end e
ÙĤ ÙĨ
Ø±ÙĬ ÙĪ
ĠÚªÙĬØª Ø±Ø§Ø¦ÙĬ
ĠÚĨ Ø§Ùĩ
v Ãµt
ĠÚ¯ ÙĨ
è ı
Ġv ar
æķ ´
ja nd
éĢ Ļ
ĠØ¬ ÛĮÛģ
Ġr a
ç µ
ĠØ§Ú³ ØªÙĬ
Ø§Ú» ÙĪ
Ø§Ø¦ÙĬ Ø¡
ĠÚ į
k a
çľ ģ
Ø§Ø¯ ÙĪ
ĠØ§ÛĮ ÙĨ
ĠØ§ Ø¨
è´ ¨
00 0
ĠÙħÙĤ Ø§Ø¨
æĵ į
èĩ ³
amise ks
åĿ Ľ
Ġv eel
Ġs is
o le
ad es
ĠÙħ ÙĩÙĬÙĨ
æł ĩ
ÙĪØ± Ø§
æĺ¯ ä»Ģä¹Ī
l ast
éĢ Ł
è° ±
Ø§Ø ¤
Ø§ÙĤ Ø§Øª
åĽ ¢
çĶµ èĦĳ
ĠÚĨÙĬ Ùģ
ĠØ¨ Ø³
ĠØ§ Ø´
ĠÙħ Ù¿ÙĬ
ĠØº ÙĦ
Ġj uba
ĠÚ© ÙĪÙĦ
ĠÙħÙĪ Øª
å¤ ª
Úª Ø±Ø§
æĪ ĺ
Ø§Ø± Ø§
Ú© Ø±
ĠØ®ÙĪ Ø¯
ĠØ¢ ÙĬØ§
ĠÙĨ Ø¦
ĠÙħ Ø¶
ĠÙĦ ÛĮ
à´Ĺ à´¤
æ¯ ı
à´· à´¨
å¥ ¹
Ã¤ Ã¤r
æĢ Ŀ
ä» ·
æ¶ Ī
ĠÙħÙĬ ÚĬÙĬØ§
ĠÚı ÙĪ
ĠØ¢ Ø³
Ø·ÙĬ Ùģ
ä¸ĸ çķĮ
d e
ĠØ¢ Ú¾ÙĨ
u ma
Ġ c
à´° à´Ļ
ä¾ Ľ
å¸ ĥ
Ġà´¨ à´Łà´¤
ĠÚ©ÛĮØª ÛĴ
ĠÙĬ Ø¹ÙĨÙĬ
ĠT e
Ø¶ ÙĪ
ĠK ui
ĠÙħÙĦ Ø§ÙĤØ§Øª
Ù¾Øª Ø§ÙĦ
ĠØ§ÙĪ Ø³
ĠØ§ Ú»
Ġj Ã¤Ã¤
è¿ ĳ
a g
åĪ «
ĠÙĦÚ© ÙĬ
Ġs am
æ¨ ¡
ĠÙĪ Ø§Ø³
ĠØ´Ø§ ÙĬØ¯
ĠÙ»ÙĨ ÙĩÙĬ
Ùº Ø§
ĠÚĨ Ø§ÙĨ
Ġà´ħ à´Ł
äº ĳ
ĠØ§ØŃ ÙħØ¯
ÚĬ Ø±
Ø§Ø±ÙĬ Ø¡
æ¯ į
ĠÚ© ÙĦ
ĠØ± ÙĪÙħ
ĠÙ¾ÙĨ Ú¾ÙĨØ¬ÙĬ
à´² à´¤
æľīé Ļ
è° ģ
ĠØªØ¹ ÙĦÙĤ
å£ «
Ġo ts
Ġå¤©å¤©ä¸Ńå½©ç¥¨ æĺ¯
ĠØ§ÛĮ Úº
Ø±Ùħ ÙĬÙĨ
Ùĩ Úª
äºº ä½ĵ
Ġ ,
Ġà´ªà´± à´¯
æľį åĬ¡
ĠÚ© Ø§
Ġj uh
Ø§Ø ¸
é¡ ¹
ĠÙħÙĪ ÚªÙĦ
ĠÂ ·
ĠØª ÙĨÙĩÙĨØ¬ÙĬ
ĠÙħ Øº
Ġl ah
æľīéĻ Ĳ
èª ª
åħ ±
ĠÙħÙĤØ± Ø±
Ġ å¤§
à´¨ à´®
ĠØŃØ³ ÙĬÙĨ
è®º åĿĽ
v e
å ĥ
Øª ØŃ
ĠâĢĻ âĢĻ
ĠØ± Ø§
Ø¨ Ùĩ
Ú¯ Ø§Ø±
èīº æľ¯
19 9
å®ī è£ħ
æ° Ķ
åģļ çĪ±
ĠÙĨÙĪØ¬ÙĪ Ø§ÙĨ
Ø¨ ØŃ
è§Ĥ çľĭ
Ù½ ÙĬØ¡
u ks
Ø³ÙĨ ÚĮ
åħ ĭ
n i
Ġl is
ĠØª Øµ
ä¸į æĺ¯
Ú¾ ÛĴ
ĠØªÙĬ Ø§Ø±
ĠØ¬ Ø³
ÙĬ ØŃ
ĠØ®ÙĪ Ø¨
Û ±
4 0
ć ć
Ġp Ã¤ev
ĠÙĪ ÙĬÙĪÙĨ
ĠØ§ Ø«Ø±
èį Ĳ
å¾ ·
Ã¼Ã¼ d
ĠÙĩ ÙĨØ¯
Ġ is
ĠØ§Øµ ÙĦ
ĠØµ Ùģ
å¦ Ī
Ø¬ ÛĮ
ÙĨ ÙĪ
Ġ ...
ĠÚ¯Ø±ÙģØª Ø§Ø±
åĢ ĭ
Ġs oov
éĿ ŀ
ĠØ§ Ø¸
Ġ g
ÚĻ ÙĬØ¡
r it
å¤ ĩ
Ġko g
Ġe d
ĠØª Ûģ
Ø§Ø¯ Ø±
ĠÛ¾ ØĮ
ii g
ĠÚ©ÙĪ Ø¦ÛĮ
Ø§Ø¦ ÙĬÙĨØ¯ÙĪ
ĠÙħØ´ ÙĩÙĪØ±
Ú¾ Ø§ÙĨ
æ² »
ÙĬØ³ Úª
ĠØ§Ø³ Ù¾ØªØ§ÙĦ
m as
Ú» Ú»
æĬ ¤
ĠØ· Ø§ÙĤ
ĠØ§Ø³ Ù½
éŁ ©
åı ĺ
ĠØŃØ¶ Ø±Øª
ĠØµ ÙĦØ§ØŃ
ÙĬ Ø²
æ· ±
Ø§Ø³ ÙĦØ§Ùħ
ĠØ¢Ùħ Ø±ÙĬÚªØ§
ÙĨ ÛĮ
8 0
n g
èħ ¾
Ø³ Ø§Ø³
Ú© ÛĴ
æİ¨ èįĲ
ÙĤ ÙĪ
Ú» ÙĨ
å¢ ŀ
ĠÙ» ÙĬØ§
æľ ª
ĠÚ¾ Ø¦ÙĬ
è¾ ¾
Úª Øª
Ġme ie
æ ¹
Ø±ÙĪ Ø±ÙĬ
ĠÙħØ® Ø§ÙĦ
å® ¤
ĠØŃ ØµÙĪ
ĠÚ¯ Ø¦ÛĮ
ĠØ±Ú© ÙĬÙĪ
ĠØ± Ø³Øª
ĠØ§Ø® ØªÙĬØ§Ø±
Ġà´ī à´ª
Ø¨ Ø§
Ú¯ ÙĪ
éĿł è°±
ĠS ee
ĠÙģ Ø§Ø±
il ma
7 7
ĠÙº Ø§Ùĩ
Ø¯ Ø§Ø¯
å® ¹
ĠØ² Ø®
ĠØ§Ú³ ÙĬØ§ÙĨ
à´° à´¯
Ġå¤©å¤©ä¸Ńå½©ç¥¨ ä¸Ń
ĠÚªÙĬØª Ø±ÙĨ
um ise
ĠØ§Ø¯ Ø¨ÙĬ
ĠÙĦÙĬ Ú¯
v at
i h
à´µ à´¤
à´ķ à´²
èµ ļ
æķ Ī
ĠØ¬ÙĨ Ø±ÙĦ
ĠØ§ÙĨÚ¯ Ø±ÙĬØ²
æ± Ł
Ġå½©ç¥ŀäºīéľ¸ æĢİä¹Ī
Ø¬ ÛĴ
ĠÙĪÙĬ Ø¦ÙĬ
Ġv an
ç¶ ²
ÙĦ Ø§Úº
ĠØ´ÙĬ Ø®
ĠÙ½ ÙĨ
ĠØªÙĪ Ú©ÙĬ
Ġe el
ĠÙĨØ¸ Ø§Ùħ
ĠÙĩ Ø²Ø§Ø±
ç ¢
ĠÙ¾ÙĪ Ø±ÙĬ
çĶµ è¯Ŀ
ĠØ§Ø³Øª Ø§Ø¯
ĠÚĨ Ø¦ÙĬ
Ġ st
åŃ ©
à´Ł à´°
ĠÚĨ Ú¾
ä¼ģ ä¸ļ
o k
à´¯ à´¯
e b
us lik
id es
ĠØ§ ÙĬÙĨØ¯ÚĻ
Úª Ø³
Ġà´İ à´¤
Ġà´µ à´¨
ĠÙħ Ùģ
è¢ ľ
Ġa ut
ht s
åĪ Ļ
Ú¯Ø± Ø§Ùħ
o p
é¢Ħ æµĭ
ĠÚĬ ÙĬØ³Úª
ÙĬÙĨ ÚĬ
ĠÙĩ Ø¬Ú»
) ,
Ø³Ù½ Ø³
ĠØ±ÙĪ ØŃ
ÙĬÙĨØ¯ ÙĬÙĪÙĨ
Ø±ÙĬ Ø§
Ġv aja
é¦ ĸ
ç ·
éĺ ³
à´® à´¯
å ĺ
ĠØ§Ø¬ ÙĦØ§Ø³
ĠÚªÙĩ Ø§Ú»
å¤§ å°ı
ĠØŃØ§ÙĦ Øª
åı į
ÙĦÙĬ ÙĦ
Ġe nd
Ø§ÙĦ Ø§
ĠÙħ Ø±Ø¯
æŃ ¥
æĢ ģ
Úı Ú¾ÙĨ
ĠÙĨØ¦ ÛĮÚº
ÚĻ ÙĬÙĨ
è¿ ½
Ġkoo s
åº Ĩ
ĠØŃ Ú©
Ø¯ Ø§Ø±ÙĨ
ĠØ³Ø§Ùħ ÙĩÙĪÙĨ
åĬ Ł
ØªÙĬ Ø¡
ĠØ¹ÙĦØ§Ø¦ ÙĤÙĬ
ĠÚªØ± Ø§Ø¦ÙĬ
ĠÙĪ ØºÙĬØ±
ÚĨ Ø±
à´¿ à´Ĥ
ut i
10 0
à´ķ à´¤
ĠØ§Ú© ÙĬÙĨ
us k
ĠØ±ÙĪ Ù¾
Ù Į
åĲĪæ³ķ åĲĹ
Ú© Ûģ
ĠØ² ÙĪØ±
Ġ Ãľ
ĠØ° ÙĩÙĨ
ĠÚª Ø§ÙģÙĬ
ĠØ³ Ø¬
å¼ ł
æľīéĻĲ åħ¬åı¸
Ġku ul
Ú© ÙĪ
ĠØ¨Ø® Ø´
Ġe es
ĠØ± Ù¾
st e
l d
å¤§ åħ¨
ĠØ¯ Ø¹ÙĪ
ĠØ· Ø¨
è Ĺ
ĠØ§ØŃ Ø³Ø§Ø³
ĠØ¬ÙĬ Ø§ÙĨ
ĠØ§ Ø®Øª
ĠÙģÙĤ ÙĬØ±
Øµ Ùģ
se m
Ġà´° à´£
èĤ ¡
e p
ĠØ· Ø±ÙĬ
Ù¾ÙĦ Ø²
ĠÙ¾ÚĻ ÙĩÙĬ
Ġp a
ĠØ±Ú© Ú¾
Ġmit te
ÚĨ ÙĪ
Ġ æĪĳ
Øµ Ø¯
ÙĪ ÛĴ
æĹ¶ éĹ´
æŀ Ĺ
ĠtÃ¶Ã¶ t
ĠÙĩ ÙħÙĬ
88 8
ĠØ¨ Ø§ÙĪ
æ¡ Ī
é ¸
ĠÚıØ³ Ú»
æĮ ĩ
ĠÙ¾ÙĨÙĩÙĨ Ø¬ÙĨ
éª Į
ĠØ§Ø³ Ù½ÙĬ
ĠÚ¯ Ø±
ĠØ§Ø³ ÙĬÙħ
éĵ ¶
Ġtule b
ĠvÃ¤ h
Ġva id
ĠÙ¾ Ø§ÙĦ
ĠØ¢Ø® Ø±
ĠØ·Ø§ÙĤ Øª
ĠÙ¾ ÙĦ
ĠØ§ ÙĦÙĬÚª
Ùħ ÛĮ
ä¹ ³
ĠÙ¾Ùĩ Ø±ÙĬÙĪÙĨ
ĠÙħÙĦ Ø§Ø¦ÙĬ
è£ ¸
Ø§Ø¨ Øª
Ø³ ÛĴ
Ø§Ø±ÙĬ ÙĪ
ÙĬØ§ Ø±ÙĬ
ĠÙħ Ø³Øª
ĠÙĦÚ© ÙĬÙĪ
æīĭæľº çīĪ
ĠÙħØ¹ Ø§Ø´
ĠØ¸ Ø§ÙĩØ±
ÙĩÙĨ Ø¯
ç¨ ³
å¿ ħ
ĠÙĩ Ø§Ø¡
èµ°åĬ¿ åĽ¾
çİ ¯
ĠÙĩÙĨ ÚĮ
ed a
il ise
ĠØ³ÙĪ Ø§Ø¡
Ġli ik
ĠÙħØ· Ø§ÙĦ
Ġt ul
ĠÙħØ± Úª
ĠØ³ Ùģ
ĠØ¬ Ø±Ùħ
Ġko d
ĠÚ³Ø§ÙĦÙĩ ÙĬÙĪÙĨ
ç Ĭ
Øµ Ø±
à´ķ à´¨
ĠÙĪØºÙĬØ± Ùĩ
in i
ĠØŃ Øµ
er i
ĠÚĨ ÚªÙĪ
ĠØ¨Ùĩ ØªØ±
an n
ĠØ³ ÙĪØ±
e id
ãĢ Į
æĢİ æł·
ĠÚĨ Ú±
ĠÙĦ Úĳ
ĠÙģ Ø±Ùħ
æİ §
ç ª
àµįâĢį .
ä¾ Ĩ
ãĢ į
ĠÙĩÙĪ Ø¡
ĠØ³ Úĥ
ĠØ´ Ø§Ùĩ
ĠØ±ÙĪ ÚĬ
Ø§Ø¹ Øª
ĠØ¨ÙĨÙĬ Ø§Ø¯
m ine
ĠØ§Ø¹ ÙĦØ§ÙĨ
se s
è ³
Ġt as
å®¢ æľį
ĠÙ¾Ùĩ ÚĨÙĬ
ĠÚª ÙĬØ±
ĠÚªÙĬ Ø§Ø¦ÙĬÙĨ
ik ult
an i
Ġæ ¬
çĶ »
Ø³ Ø§
éĺ Ł
ĠÙĦÚ³ Ø§
å ¡
Ġpal ju
2 3
ĠØ¬ Ø³Ù½Ø³
ĠØ§ ÙĬÚª
å¨±ä¹Ĳ åŁİ
å§ Ķ
ĠÙĩ ÙĬØ§
Ġà´ħ à´µà´°
å½ ¢
Ø¢ ÙĨ
à´± à´¤
ĠØªØ± Ø¬
é ¥
Ġna gu
ĠØ¬Ø¯ ÙĪÚº
ä¸į äºĨ
åĮ »
ĠØ´ ÙĩÙĬ
è¶³ çĲĥ
Ø§Ùĩ ÙĪØ±
ĠÙĤ Ø¯Ø±
ĠÙĦÚ© Ú»
ÚĬ ÙĬÙĪ
ĠÙ¾ Ùº
ĠÛģÙĪ Ø¦ÛĴ
ç¥ ¨
àµ¼ à´ķ
åĳ ¨
ĠØ±Ú© Ú»
ÙĬÙĦ ÙĨ
Ġ ÙĬÙĪ
Ø§Ø¶ ÙĬ
ä¿ ®
Ġa jal
t r
ĠÛģÙĪ ÛĮØ§
Ġp uh
Ġt ah
ĠØ³Ùħ Ø§Ø¬
ĠØª ÛĮ
åĽ Ń
ĠØ§Ùħ ÙĨ
èµ Į
ĠØ± ØŃ
Ø§Ø¨ ÙĦ
ĠØ§Ù¾ÙĨ ÛĮ
t u
ĠÙĬ ÙĤ
ĠtÃ¤ h
Ġmu ut
Ġn ende
Ġa ja
è´ ¦
Øº Ø§ÙĨ
Ġå¤§åıĳå¿«ä¸ī æĺ¯
èħ¾ è®¯
ï ·
ĠØ§Ùĩ ÚĻØ§
Ġ iga
æĺ¯çľŁ çļĦåĲĹ
ĠØŃ Ø¯
ä»£ çĲĨ
Ġer ine
Ø¨ ÙĦÙĬ
åľ° åĿĢ
ĠÙ¾Ø±ÙĪ Ú¯Ø±Ø§Ùħ
ĠÙĪÙº Ú»
ä¸Ŀ è¢ľ
Ø¯ Ú¾
ĠØ¨ Ø§ÙĦ
Ġj oo
ĠÙħ Úĥ
ĠÚª Ø§ÙĦ
Ø§Ø¦ ÛĴ
ĠÙ¾ÙĬ Ø§Ø±
Ùº ÙĦ
å°± æĺ¯
è½ ¬
ĠÙģ ÙĨ
l us
ĠÙħØ« Ø§ÙĦ
ĠÙ»ÚĮ ÙĬ
å¥ ¸
ĠØª Ùģ
éĻ ¤
ĠØ³Ú¯ Ú¾
an t
Ø§Ùħ ÙĨ
v Ãµ
at es
ÙĨ ÛĴ
à´² à´ª
ç© ¶
2 1
ĠÚĨ Ø§ÙĩÙĬ
ĠÚª Ù¾
Ġ qq
åĳ Ĭ
à´¾ âĢĭ
Ø§Ùħ ÙĪ
ĠØ¯ ØªØ§
à´® à´¤
c h
ĠÙ¾ Ø§Ú©
ĠÙĩÙħÙĬ Ø´Ùĩ
¾³ éĹ¨
am ist
Ùħ ÙĬØ±
Ġko kk
ĠØ® ÙĬØ±
Ø§Ø¯ Øª
ĠØŃÙĬØ¯Ø± Ø¢Ø¨Ø§Ø¯
ĠØ®Ø¯Ùħ Øª
Ø´ Ø§
ä¸Ń å¿ĥ
Ġen am
à´ķ à´®
à´ ĩ
ä¹ Ŀ
Ùħ Ø§
ĠÚ¾ Ø¦Ø§
ĠÙħØ¹ ÙĦÙĪÙħ
Ġà´İ à´²
b er
èĬ Ĥ
ĠÚĢ Ù½ÙĪ
ĠÚıÙĬ Ú©
2 8
Ø¹ Øª
ĠØ¢Ø® Ø±ÙĬ
åħ ĳ
ĠÚªÙĩ ÚĻÙĬ
ĠÙĨ Ùģ
ĠÙ¾ÙĪÙĨ Ø¯ÙĪ
Ø² ÙĦ
å¼Ģå¥ĸ ç»ĵæŀľ
use st
éĽ »
æĮ Ĥ
ĠØ³ Ø±Ø¯
Ġà´ħ à´ª
Ø§Ø¦ Ø±
is k
Ø³ Ù½ÙĬ
Ġju ht
ĠØ± Ø´
Ġt al
ĠØ« Ø§Ø¨Øª
ĠÙĦ Ø§ÚĻ
å° Ħ
ĠØ³Ùħ Ø§Ø¬ÙĬ
Ø·ÙĨ Øª
ĠØ§ ÙĬÙĨØ¯ÙĪ
ĠÙħØ· ÙĦØ¨
ĠØ³ Øª
Ġma a
Ø±ÙĬ Øª
it i
ĠØ´ ÚªØ§Ø±
ĠÙĨ ÚªØ±ÙĬ
è¶ Ĭ
ĠØºÙĦ Ø·
2 7
ĠØ¹ Ø²
æı Ĵ
ĠÙħÙĪÙĤ Ø¹ÙĬ
å° Ķ
Úª Ø§ÙĨ
ĠÙĪÛĮ ÙĦÛĴ
åº Ĺ
ä¸Ĭ çļĦ
à´Ł à´¯
èĭ ±
ĠØ§Ø¸ ÙĩØ§Ø±
åı· çłģ
çĤ º
Ġka as
ĠÙĤ Ø¯
Ġo m
çĻ» å½ķ
Ø¶ ÙĬ
ĠØµØŃ ÙĬØŃ
Ġà´ķ à´°
åı ²
à´Ĥ ,
ĠÙĦ Ø·ÙĬÙģ
o f
ĠØ¬ Ø°
ak t
éĺ ¿
am m
éĶ Ģ
Ġr oh
e ma
à´ª à´¨
Ġå¤©å¤©ä¸Ńå½©ç¥¨ æıĲçİ°
Ø« ÙĬØª
es s
ĠÃµ ig
ĠØ§ÙĨØ³Ø§ÙĨ ÙĬ
ĠÃ¤r a
u u
ç®¡ çĲĨ
ĠØ¨ ÙĬÙĨ
ĠØ§ÙĬØª Ø±ÙĪ
ä¿¡ æģ¯
ĠÚªÚį ÙĬ
æī ¾
ĠÙ¾ÙĪ ÙĬ
ĠÙħÙĤ ØµØ¯
ĠÚ¯Ùĩ Ú»ÙĬ
èĲ ¥
l as
ĠØ³ÙĦ Ø·ÙĨØª
ĠØ¨Ø§ÙĪ Ø¬ÙĪØ¯
é Ń
çī Ľ
ĠÚª Ø§Ùħ
Ġn im
ĠØ¬ Ûģ
Ø±Ùħ ÙĬ
ĠÚ©Ø±Ø¯ ÛĴ
æĬĢ æľ¯
ç³» ç»Ł
à´µ à´¶
çĨ Ł
ĠØ§ÙĪÛģ ÙĨØ§Úº
åĶ ®
ĠØ³ ÙĦØ§Ùħ
æĿ ĳ
n et
å¼ Ĭ
Ø§Ø« Ø±
ç¾İ åĽ½
Ùģ ÙĪ
ä¸ ĥ
ĠØ³ Úª
Ġj uur
Ø³ Ù¹
Ġå¾®ä¿¡ å¤©å¤©ä¸Ńå½©ç¥¨
Ġà´ħ à´¦
éł »
ĠØ³Ø± Ø¨Ø±
Ø· ÙĪ
ÙĪ Ø§
à´¿ ,
ĠÙĨÙĪ ÚªØ±ÙĬ
å¤ «
è¯ ķ
Ġa in
æ ½
Ġte ma
âĢ Ķ
ĠÙħÙĦ Ú»
o st
æĭ Ľ
åĨ į
Ġole ks
ĠÚªØ±ÙĬ ÙĪ
åħ ļ
æŀ ģ
Ġsel l
uv ad
Ġu u
ÚªØ±Ø§ ÚĨÙĬ
ĠÚ¯ Ø±ÙĪ
ĠÛģ ÙĪØ±
Ġà´¨ à´®
éħ į
Ú¯ Ø§
ĠØ¯Ø± Ø®ÙĪ
Ú³ ÙĬ
ĠØ¯ ÙĬØ±
åľ ĸ
Ġ ç½ĳ
èį ī
ĠÙĦ ÛĮØ§
ç¬¬ ä¸Ģ
è¿ Ķ
Ġà´ħ à´®
è¿Ľ è¡Į
Ø´ ÙĦ
æ ©
or m
ÙĪ ÛĮÚº
ĠØ¬Ùĩ ÚĻÙĬ
ĠÙĦÚ© Ú¾
ÙĨ Øª
ĠÙº Ø§ÙĩÙĬ
ĠØŃÙĬ Ø«ÙĬØª
m p
l ust
ĠØ§ÙĨ Ø¬
æľ ĥ
Ú» Ø§
å½©ç¥¨ å¹³åı°
ĠÚĬ Ú¯
ĠØ§ÙĦ Ø²
çĽ´ æĴŃ
r d
à´¯ à´±
ĠÙĪÚı Ø§
Ġm Ã¤r
ĠÙĪØ§ÙĤ Ø¹ÙĬ
ĠØ³Ùħ ÙĨÚĬ
Û ĵ
åį ĩ
çĶŁ æ´»
3 3
ĠÙ¾ÙĨÙĩÙĨ Ø¬Ø§
Ø§Ú» ÙĨ
Ø§ÙĦ ÙĪ
a a
ĠÙĨØªÙĬ Ø¬ÙĬ
ĠÙħ Ûģ
Ġh Ã¤
Ú©Ú¾ ÛĮØ§
ÙĪØ± ÚĬ
æĶ ¯
ĠÙĪ ÙĨ
è¿Ļ ä¸ª
ĠØ³ Ø§Ø¦ÙĬ
Ġà´¸ à´°
ĠØ² Ø±Ø¯
ÛĮ Ø¯
Ġte en
ar d
Ġà´ķ à´®
i ik
æł ¹
Ù¾ Ø§Ø±
ĠÙĪÙĬØ¬ ÙĩÙĪ
Ġse st
Ġà´ħ à´²
åĢ Ļ
Ù½ Ø±ÙĨ
ĠÙ¾ÙĬ Ù¾ÙĦØ²
Ù½ Ø±ÙĪ
Ø± Ø§Úº
ç» ´
Ġà´ı à´±
ĠØ° ÚªØ±
Ġ /
ĠÚı ÙĬÙĨØ¯ÙĬ
ĠØ´ ÙĬØ¡
ĠØ§Ùģ ØºØ§ÙĨ
éĽ ·
å¤§ åŃ¦
ĠÙĪÚĮ ÙĬ
åģ· æĭį
ĠØ´Ø§Ø¹ Ø±ÙĬ
ĠÙħ Ø§Ø¡
ĠØ¬ Ø§Ø¡
ä¸ īé
on d
àµģà´Ĥ ,
Ġà´Ĵ à´¨
ĠØµÙĪØ±Øª ØŃØ§ÙĦ
ing u
Ġp id
à´ª à´°
ĠØ§ ÚĮ
av al
ĠÚĨÙĬ Ø¦
ĠØ¨Ø¯ Ø±Ø§ÙĨ
Ùħ Ø§Ø±
çĶ· äºº
å§ ĭ
Ġkoht a
Ġaast al
ĠØ¢ Ú¯
ĠÙĤØ± Ø§Ø±
ĠØ§Ú³ÙĪ Ú»ÙĬ
ĠØ§ ÙĤ
ÙĨ ÙĪÚº
2 6
Ø´ÙĨ ÙĦ
ĠØŃ ÙĦ
è¾ ħ
ĠØ³ Ù¾
æ ¦
ÙĤÙĦ Ø§Ø¨
å Ĥ
ĠÙĦÙĪÚ© Ø§Úº
ÙĬØª ÙĨ
Ø³ ÙĬÙĨ
åħ «
ĠØ± ÛĮ
ç± ³
èĪ ª
à´¨ à´¯
å· ´
ĠÙĨÙħ Ø¨Ø±
k em
Ø§Ø¦ Ø´
ĠÙĦÚ© ÙĬÙĦ
ĠÚ¯Ø° Ø±ÙĬÙĦ
ĠÚ³ ÙĪÙĦ
å ª
Ġ æĹ¥æľ¬
Ú¯Ø± Ø¯ÙĬ
èĩª æĭį
æĸ ½
æĿ ĥ
Ġm ul
ä¹± ä¼¦
Ġk ind
ĠÙħØ± ØŃ
Ġte ad
ĠÙ¿ ÙĬÙĨØ¯Ø§
ĠØ¶ Ø±ÙĪØ±ÙĬ
ast e
ç ¿
æķ ħ
ĠØª Ø§Úº
æ² ³
Ø§Ø¦ ÙĦ
Ġol la
ĠÙĩ Ø¬ÙĨ
çģ «
ä½ľ å¼Ĭ
åı Ī
ÚĨ ÙĬØ¡
ĠÙĤ ÙĬ
ĠÙħ ÙĩØ±
Ġt r
Ø§Úª Ø§Ú»
ç« ¯
ç» Ń
ĠØª Ø®
Ø§Ø³ Ø§ÙĨ
å¼ ķ
Øª Ø±ÙĬÙĨ
as id
ÙĬØ± Ø§ÙĨ
um i
å¤ į
åĨ Ľ
à´² à´ķ
Ø² ÙĨ
ĠØ¬Ùĩ ÚĻÙĪ
Ġte ha
Ġà´ª à´¤
èµĽ è½¦
à´ ł
ĠØ®Ø± Ø§Ø¨
ä½¿ çĶ¨
Ġ W
æĻ Ĥ
5 00
Ġ ç¥ŀ
Ú© Ø§
æŀ Ħ
Ġp an
ĠØ´ÙĩÙĬ Ø¯
un a
ĠØ³ÙħØ¬ Ú¾
ĠÙĪ Ø¬ÙĪØ¯
ĠØ§ÙĨ ÙĤÙĦØ§Ø¨
ĠØ§ØŃØªØ¬ Ø§Ø¬
ĠØ¯Ø±Ø®ÙĪ Ø§Ø³Øª
n ev
ĠÙħÙĪÙĦ Ø§ÙĨØ§
ĠÚıÙĬ Ø¦ÙĬ
æĺ ¥
ĠØ¬ÙĬ Øª
èµĦ æĸĻ
19 7
Ġà´¸ à´¹
ĠØ¬ÙĨ Ùħ
ĠÚ¯ Ø¦ÛĴ
åı ¤
use le
è¦ĸ éł»
ĠØ±ÙĩÙĨ Ø¯ÙĪ
ÙĪ Ø§Úº
Ø¨ ÛĮ
åĨ ľ
æĭ ī
è¯ Ń
Ġt ur
ĠÙ» Ø§Ø±ÙĨ
ĠØ³Ø± ÚªØ§Ø±ÙĬ
ĠÚıØ§Úį ÙĪ
Ġk iir
åŃ ĺ
ĠÙĨÙĬÙĪ Ø²
ĠÚĨÙĬØ¦ Ø±ÙħÙĬÙĨ
âĢĺ âĢĺ
ĠÙĪ Ú»
ĠÙĦÙĬ Ú©
Ġl ap
4 4
Ø¯ÙĬ Ø¯
åģ ľ
Ġette vÃµt
æ¸¸æĪı å®ĺç½ĳ
çłĶ ç©¶
h n
ĠÚªØ§Ø± Ø±ÙĪ
åİ ĭ
Ùħ Ø¨Ø±
ä» ½
3 6
Ø¬ Ø¯
ĠÚªÙħÙĬ Ø´ÙĨ
ĠÚĩ Ø§ÚªØ§Ú»
çĹ ħ
Ġt und
ĠØ¯ ÙĬÙĪ
ĠØ¬ÙĨ Ú¾ÙĨ
ĠÙ Ģ
éĹ® é¢ĺ
ĠÙĪ ÙĬØ³
åħħ åĢ¼
ĠÚĨ ÙĬÙĨ
à´° à´¦
Ġ ä¸ŃåĽ½
è¯ »
è§ ģ
ÙĪÙĬ Ø¨
ĠÙĦ ÙĬÚª
åıĮ èī²
å¤§åıĳ æĹ¶æĹ¶å½©
ĠØ®Ø± ÚĨ
ĠØ§ÙĦÙĬÚª Ø´ÙĨ
å¯ Ĩ
ĠÚªÙĩ Ø§Ú»ÙĬ
ĠJ a
ÙĨØ¯ ÛĮ
Ġå½©ç¥ŀäºīéľ¸ æĺ¯
Ġk inn
ĠØ§ Ø¯ÙĬ
å£ °
ĠÙ¾ ÚĨ
ĠÙ½ ÙĬÚª
Ġ æľī
ĠÙħÙĦØ§Ø¦ÙĬ Ø´ÙĬØ§
ÙĦÙĬ Ùģ
éĻ Ĩ
à´Ļ à´¨
ĠØ³ÙħØ¬ ÙĩÙĬ
Ø± Úª
Ġma ks
éĺ ²
æĴŃ æĶ¾
è ¼
Ġ Ã
ime se
æµ İ
Ġå½©ç¥ŀäºīéľ¸ éĤĢè¯·çłģ
ĠØ®ÙĪØ¨ Øµ
ĠØ± Ø§Ø¨
è´ £
ik ud
ĠØ° Ùħ
ikk a
ĠÙ¿ ÙĬÙĨØ¯ÚĻ
Ġal g
ĠÚª Ø§Ø±ÙĪ
p Ã¤ev
ĠÙħØ³ ÙĦÙħ
Ĉ ï¼Į
ĠÙĤØ± Ø¢ÙĨ
è¯ ¥
Ġå¤§åıĳ å½©ç¥¨
ĠÛģÙĪ Ø¦ÛĮ
Úª Ø§Ú»ÙĬ
ĠÙħÙĦ ÙĬÙĪ
Ø¦ Ú»
ĠØª Ø¬
ĠÙĨÙĤ Øµ
ĠØ¨ ÙĬÙħ
Ġà´Ĩ à´¦
ĠØ§ Ø·
Ø´ ÙĪ
5 5
ite ks
ĠØ¨ Ø§
à´¯ à´µ
è Ľ
ii gi
l l
àµĨ .
äº ²
Ù¾Ø±ÙĬ Ùħ
âĢĭâĢĭ âĢĭ
ç ĵ
ĠÙĩ Ù¿ÙĬ
Ú© ÙĦ
ĠÙ¿ Ø±
ĠÚĩÙĪ ÚªØ±ÙĬ
ĠÚĨÙĬ Ø§Ø¦ÙĬÙĨ
ĠØ±Ùĩ Ú»
à´± à´µ
ÛĮ Ùħ
ÙĪ Øª
ĠØ¯ Ú¾
æ¼ Ķ
ĠØª Ø´
æ´ ¾
ĠÚĨ Ø¦
ĠÚĨÙĪ ÚĮ
åıĮèī² çĲĥ
ĠÚĩ Ù¾
ĠÙ¾ ÙĬØ¡
ĠØª ØµÙĪ
æŀ Ĳ
Ġp k
è¾ħ åĬ©
æ³ ¢
ja te
t a
ĠØ³Ø§Ø± ÛĴ
å¼Ģ æĪ·
ĠÙĨ Ú¯
å¸Ĥ åľº
Ùĩ Ø±ÙĬ
ĠÚĬ Ø±
ur oo
éĺ ´
ĠÙģ ÛĮØ±
Û ½
Ġv Ã¤r
9 1
ĠÙĩØ¦ Ú»
ĠÚĨ Ø§
t te
è ©
Ù½ Úª
Ġà´ħ à´Ń
ĠÚª Ø¦
Ġp er
Ù½ ÙĬÙĨ
ĠØ± Ø¨
ĠØ² Ø§ÙĦ
ä¾ ¿
ĠØ² Ùħ
s a
Ø³Øª Ø§Ø¦ÙĬÙĨ
o ks
å°ĳ å¦ĩ
èģ Ĭ
ĠØ§Ø³ÙĬÙħ Ø¨ÙĦÙĬ
ĠØ³Ø± ÚªØ§Ø±
å½± éĻ¢
æ¿Ģ æĥħ
ĠÚ¯ ÙĪØ±ÙĨ
å¢ ĥ
ĠØ± ÙĬØª
m is
è®° å½ķ
ĠØ³ ÙĬÙĨÙĬ
Ġà´ ·
ä½ İ
ĠÙħ Ú©
Ùģ ÙĤ
ĠÙĤØ¨ ÙĪÙĦ
! âĢľ
ĠÙĬÙĪÙĨÙĬÙĪØ± Ø³Ù½ÙĬ
å¿ Ĺ
ĠØ± Ù¾ÙĪØ±Ù½
Ù½ Ø³
Ø§Ø¦ ÙĬÙĨØ¯Ø§
ĠØ¶ÙĦ Ø¹ÙĬ
æ² ¹
Ø§Ø± Ú»
éĩį åºĨ
ĠÙĦ Ø§Ø´
æĿ İ
.. ...
åı Ĥ
Ġà´µ à´²
ĠÚªÙĦ Ø§Úª
Ġå¤§åıĳ å¿«
ĠÙħØ®Ø§ÙĦ Ùģ
àµ º
ä½ ı
r o
Ġp il
è· Ł
ĠØ¨ÙĦ ÚªÙĦ
ĠÙĪÙģ Ø§ÙĤÙĬ
å± ŀ
ÙĪ Ø³
åľ¨åĵª éĩĮ
ĠØ²Ø±Ø¯ Ø§Ø±ÙĬ
Ġ å½©ç¥¨
es k
åĵª éĩĮ
ĠØ¹Ø§ÙĦ Ùħ
Ø§Ø¯ Ø±ÙĬ
- -
å®¢ æĪ·
ä¸Ĭ æµ·
Ø§Ú» ÙĬØ¡
ĠØ´ Ø§Ø¯ÙĬ
§ ç¾İ
çŁ ³
Ø´ Ø§ÙĨ
le s
ĠT all
æĻ º
éĩ ĩ
ĠÙ¿ ÙĬÙĨ
ï· º
à´£ à´®
Ġt ar
ĠØ¯ÙĩØ´Øª Ú¯Ø±Ø¯
Ø¯ ÙĬÙĪÙĨ
Ù ī
å® ĥ
ĠØ¯ Ø§ÙĨ
ĠØ¨ ÙĨÚ¯
ĠØ³ÙĬÚª Ø±ÙĬ
ĠÛģ Ø±
Ġse ad
ĠØ§ ÙĬÙĪ
or t
ĠØ³ÙĦØ³ ÙĦÙĬ
ĠÚ© Ø§Ø±
ä¹ ī
à´¹ à´¤
ä¸º ä»Ģä¹Ī
ĠØ§Ø¯ Ø§Ø±ÙĨ
ĠØ¯ Ø±ÙĪ
å «
æĿ ¡
äº§ åĵģ
b a
Ø¨ Ø§ÙĦ
ç¡ ®
ĠØ¬Ø§ ÚĨ
ĠÙĨÙĤØµ Ø§ÙĨ
åĵ ¥
ĠÙĩÙĨØ¯ Ø³ØªØ§ÙĨ
Ġne ed
ĠØ§ ÙĤØª
ĠlÃ¤ bi
ĠØ¢ ØµÙģ
Ġå¤©å¤©ä¸Ńå½©ç¥¨ ä¸Ńå¥ĸ
çİ© æ³ķ
ĠØº Ø±ÙĬØ¨
Ġkes k
åĵª ä¸ª
è¡ £
æĿ ¿
Ġæ ¾³éĹ¨
ĠÙħ ÙĬÙĨ
å¥ Ĺ
Ãµ h
Ĉ ć
Ø±Ø§ÙĨ Ø³
åģĩ çļĦ
ĠÙ¾ÚĻ ÙĩÚ»
çļĦ äºº
ç½ ®
ĠØ¹ Ø´
åĥ ı
å»º è®¾
ĠÚ© Ø§ØªÙĬ
ĠØ§ÚĨ ÙĨ
èģ Į
è¨ Ģ
Ù½ Ø§Ø¦ÙĬ
Ú¯ ÛĮ
s im
Ġà´® à´¤
Ø§Ø¦ Ø²
3 5
Ġa b
æĺ ¾
ĠM a
ĠØ§ÙĬ Ø¦ÙĨ
Ø¬ Ø§ÙĨ
ĠØ¹ÙĦ Ø§ÙĪ
Û± Û
Ø¯ ÙĬÙĦ
ÛĮ Ø§Ø¯
ĠÚĢ Ø§Ø±Øª
ç¯ ®
ĠØ¯ Ø³Øª
j on
s p
ĠØ¢ ÚıÙĪ
ĠÙĩÙĪ Ø³
ĠtÃ¤ n
Ġli hts
ĠÙ» ÙĪÙĦ
ĠØª Ø§Ø¬
Ùģ Ø±ÙĨ
åįķ åıĮ
à´İ à´¸
Ġk r
ĠÙĩ Ø¯Ø§
it us
9 0
ĠÚªÙĪ Ø¨Ùĩ
åĲ ĥ
Ġol ul
ĠØ³ Ø±ÙĪ
åľ¨çº¿ è§Ĥçľĭ
ĠØ§Ø¹ Ø¸Ùħ
ÚĨ Ø§Ø±
9 7
æĢİä¹Ī æł·
ĠÚªØ± Ù¾
ĠØ± Ø¯
Ġpe ale
ĠkÃµ r
ĠtÃ¤ i
ĠÙ¾Ø§Ú© Ø³ØªØ§ÙĨ
as in
ĠÚª Ø§ÙĦÙĬ
Ġko gu
ĠØ± ÙĨ
ĠÙ»ÙĬ ÙĩØ±
àµģ âĢĭ
æĿ Ĳ
Ġ æĪĲäºº
åĨ Ļ
ĠØ¹ÙĦØ§ÙĤ ÛĴ
Ø§Úª ÙĬ
ÙĬØ³ ÙĬ
è® ®
àµįâĢĮ .
ÙĤ ÛĮ
ĠlÃ¤ h
ĠØŃ Ø³ÙĨ
Ġk elle
åŃ¦ çĶŁ
v ah
Ġà´ħ à´§
Ġol nud
use ks
ç» ľ
ĠØªØ¨ Ø¯ÙĬÙĦ
ÙĬØ± Ø§
ä¾ Ŀ
æĸ¹ æ³ķ
Ġ ikka
Ġå¤©å¤© ä¹°å½©ç¥¨
èĲ ½
Ġroh kem
Ø§Ø± ØªÙĬ
à´ķ à´ª
Ġà´² à´Ń
ĠØ¹ÙĪØ±Øª ÙĨ
ĠE est
å¥ ĩ
ĠØ¬ Ø³Ùħ
à´Ń à´µ
åĨ ³
ĠÙħ ÛĮÚº
ĠkÃµ ige
Ø¯ Ùĩ
ĠÙĬÙĤ ÙĬÙĨ
Ú© Ú¾ÙĨ
ĠØ§ÙĨØªØ¸ Ø§Ùħ
Ø±ÙĬ ÚĬ
ĠÙ¾ Úª
il ine
Ø± Ø§Ø±
Ġå½©ç¥ŀäºīéľ¸ å¤§åıĳ
Ø§Ø² Øª
Ġ ....
à´µ à´¯
ĠØ³Ú¯Ùĩ ÙĬÙĪ
äºĶ æľĪ
ĠÚ© Ø¦ÛĮ
åħŃ åĲĪ
Ġn ad
åĸ ľ
äº¤ æµģ
ĠØ§Ùħ ÙĬØ±
Ø§Ùħ Ø§
åľ Ł
æ± ½
åŁ Ł
et i
ĠÙĦ Ø¨
å¤©å¤© çĪ±å½©ç¥¨
åĬ¨ æ¼«
it ab
ç»ı æµİ
ĠØ§ÛĮ ØªÚ¾ÛĴ
el i
ĠØ¯ÙĪØ³Øª ÙĨ
æį ¢
ĠÙĦÙģØ¸ ÙĨ
ol oo
ç» Ī
ĠØ²Ø® ÙħÙĬ
ä¹ ł
ĠÚªÙĪÙĨ ÙĩÙĬ
è¿ ħ
è ŀ
Ġh akk
ĠÙĪÙĬ Ø¨
ĠØ¬ÙĬ ÙĦ
è®¡åĪĴ è½¯ä»¶
ä¼¦ çĲĨ
åį ĥ
Ġkuid as
ÛĮ ÙĦ
ĠÙĤ Ø¯Ùħ
æł ¸
ĠØ§Ø¹ ÙĦÙĬ
ĠØ®ÙĪØ¨Øµ ÙĪØ±Øª
Ġjoo ks
ĠÙĦØ§Ú³ Ø§Ù¾
äºº çļĦ
æľ Ľ
ĠØ¨ Ø§Ø±ÙĬ
Ø³ Ù¾
ĠÙ¾ÙĪØ± ÙĪ
åı¯ éĿł
åĪĨ æŀĲ
p er
ĠØ§Ø¬ Ø§Ø²Øª
Ø§Ûģ ÛĮ
Ø´ ÙħÙĨ
Ġp iir
ĠÙĪ Ø§Ø¶
ĠØ§ÙĬØª Ø±ÙĬ
Ġne id
ĠØ§ÙĬ Ø§Ø²
à´¸ à´°
à´ Ĩ
ĠØ³Ø§ Ù¿
ĠÙģ ÙĪÙĨ
ĠÚª ÚĨ
ç§ °
é ¤
ĠØªØŃ Øª
Ġv ab
ÙĬÙĦ Ø§
ä¸ĭè½½ å®īè£ħ
ĠØ³ÙĬÚªØ±ÙĬ Ù½Ø±ÙĬ
ç« ŀ
ist r
ĠÙĩÙĪ Ù½ÙĦ
Ġà´ľ à´¨
å© Ĩ
ÙĬÙĦ ÙĪ
t se
ĠÙĦ Ø§Ø¦
èŃ ¦
Ø³ÙĪ Ø§Ø¡
ĠÚªØ§Ø± ÚªÙĨ
ĠÙĪ Ø·ÙĨ
ä¸ ¾
Ġ [
ĠÙĨÙħ ÙĪÙĨÙĬ
æıĲçİ° åĲĹ
Ġteg ev
ĠmÃµ n
åħ ¸
Ġl ood
ç³» åĪĹ
Ġ åħ¨
im ine
ĠØ¨Ø¯ ÙĦ
ç½ Ĺ
Ãµ r
ĠÃ¼ ld
ĠØ³ Ø§Ø¦ÙĨ
åį ³
çļĦ å¤©å¤©ä¸Ńå½©ç¥¨
ÚĦ ÙĬ
4 5
et ud
201 6
ĠØ¢ ÙĬÙĦ
ĠÛĮ ÙĪÙĨ
Ġrah v
Ġà´ī à´³
ÙĪÙĦ Øª
ĠØ¨ ÙĪØ±ÚĬ
ĠØ²ÙħØ§ÙĨ ÙĬ
ĠÙħÙĨ ØµÙĪ
æķĻ èĤ²
ol l
Ġr Ã¤Ã¤
Ġter v
å² ģ
ĠØµ Ø§Ùģ
ĠØ§ÙĦ Ú³
çŁ¥ éģĵ
ç» ¼
Ġh uv
æĢİä¹Ī é¢Ĩ
èĮ ĥ
ĠØ³ ÙĪÙĦ
ĠØ§ Ø±Ø¨
ĠØ³ Ø²Ø§
Ġvast u
Ùħ ÚªÙĨ
ĠÙĪÙĬ ÙĩÙĬ
Ø§ ÙĬÙĦ
ĠÙģØ± ÙĤ
å¤ ±
ĠÙħÙĨ Øª
ĠØ¹ Ø¸ÙĬÙħ
åº ľ
ĠØ±ÙĪ Ø´ÙĨ
Ġæ ±
i id
ĠÚª ÙĬÙħ
Ø¯ Ø³
ä» ĭ
u ga
ç´ ł
ç½ĳ é¡µ
ÙĲ ØĮ
ĠØ¢ÙģÙĬØ³ Ø±
ĠÃ¼ he
ÚĢ Ø±
ĠÙģÙĪ Øª
ĠÙĨ Ø¦ÙĪÙĨ
ĠØ³Ø§Ùħ Ø§ÙĨ
ÙĩÙĬ ÙĦ
ĠÙĩ ÙĬÙĨ
ç¤¾ ä¼ļ
åł Ĥ
2 9
ĠØ¯ÛĮ Ø³
ĠØ¢ Ù¾Ø±ÙĬ
ç· ļ
äº Ĵ
à´° à´µà´°
ĠØµ Ø¨ØŃ
ĠØªØµ ÙĪØ±
ÙĪØ± ÛĮ
å° ¼
éľĢ è¦ģ
ĠÙ¾Ø± ÚıÙĬ
çľ ¼
ĠÙĪØ± ØªÙĬ
Ġ é¦Ļæ¸¯
ĠØ¯ÙĩØ´Øª Ú¯Ø±Ø¯ÙĬ
Ø§Ø¨ Ø±
Ġà´Ĩ à´¯
ĠØ¬ÙĦ Ø¯
è¯ ¢
ç§ ĺ
Ġ '
ĠÙĨ Ù¿ÙĬ
æ® µ
av alt
èİ ·
åŃ ¸
æ» ¡
ĠÙģ ÚªØ±
ĠØ§ Úı
Ġp ak
ÚĻ ÙĬÙĦ
as ut
æĻ ļ
ĠÙĨÙħ Ø§Ø²
Ġå½©ç¥ŀäºīéľ¸ å¤§åıĳå¿«ä¸ī
ĠÙ»ÚĮ Ø§Ø¦ÙĬ
ĠØ¨ÙĦ Úª
Ø±ÙĬ ÚªÙĬ
ĠØ§Úª Ø«Ø±
åĭ ķ
å¾ Į
Ġmida gi
é»Ħ èī²
ĠÚĨÙĪÙĨÚĬ ÙĨ
o gu
ĠÚı ÙĬÙĨØ¯ÙĪ
ĠØ¢ ÙĩÙĬÙĨ
ĠØ³Ø±Ø¯ Ø§Ø±
ĠsÃµ n
ĠÙĦ ÙĨÚ¯
à´² à´µ
Ġv ee
Ġh a
it a
ĠØ¨ÙĪÙĦ ÛĮ
å¹ ¼
ĠÚĢ Ø±ÙĬ
ĠÙĩØ¯Ø§ ÙĬØª
Ø² ÛĮ
19 8
ĠÙĪØ± Øª
ĠÚªØ± Ø§Ø¦Ú»
åĢ ĳ
ĠØ± Øª
éľ ²
ĠÙ¾Ø§ÚªØ³ØªØ§ÙĨ ÙĬ
ÙģØ±ÙĨ Ø³
ĠÙħ Ø§ØŃ
éŁ© åĽ½
ĠÙħ Ø¦
Ġà´µ à´³
è¾ ĥ
ĠÙħØ¸ Ø§Ùĩ
ĠÙĨÙĨÚį ÙĬ
ØŃ ÙĬ
ĠØ± ÙĤ
æıĲ ä¾Ľ
ĠØ³ ÙĪÙħ
å¥ ¶
àµ½ à´ķ
æ© Ł
åħ »
éĵ ¾
çļ ĩ
Ġkoo st
ĠÚ©Ø§ÙĨ Ø³ÙĪØ§Ø¡
ĠÙħÚĻ Ø³
Ġpoo lt
ĠØ° Ø§Øª
à´± à´ķ
æĦ Ľ
Ġh ea
å¦Ĥ æŀľ
w s
t ud
éªĹ å±Ģ
ÙĬÙĨ Ú¯
Ø§Ø±ÙĬ ÙĪÙĨ
ĠØ³ÙĨÚ¯ Ú¾
å¯ Į
å½© äºīéľ¸
ĠÚĢ Ø§Ø¡
ĠÙħØ°Ùĩ Ø¨
ĠÚ³Ø§ÙĦÙĩ Ø§Ø¦ÙĬÙĨØ¯ÙĬ
ĠjÃ¤r g
Ġh e
ĠØ§ÙĦØ² Ø§Ùħ
ä¸ Ķ
ĠÙĤ ÙĦ
äºĨ ä¸Ģ
ĠÙģÙĦ Ø³
Ġk at
ĠØ¹ÙĦØ§Ø¦ ÙĤÙĨ
ĉ Ċ
ĠØ³ Ø§Ú»
ĠÙ»ÙĪ ÙĦÙĬ
ĠÚ¯Úı ÙĬÙĦ
ĠÙĨ Ø³
å½© åĽ¾
il l
ĠØ§ÙĪÙĨ ÛģØ§Úº
Ġkun a
Ġh oo
ĠÙħÙĨ Ø¬
å ³
ĠÚ©Ø± Ø¯Ø§
19 6
ĠØ´ ÙĬÙĨ
ÙĬ Ø¨
ĠØ¨ÙĨÙĬ Ø§Ø¯ÙĬ
p s
Ø§ Ù½
ĠÙħ Ú¾
Ġkun i
çº ¦
Ø¦ Ø³
ĠØ± Ø³ØªÙĬ
ĠpÃ¤r ast
å®īåħ¨ åĲĹ
Ġ ig
ĠÚªÙħ Ù¾
ĠÙħØ¹Ø§Ùħ ÙĦÙĬ
ĠÚª Ø§Ø¨
éĿłè°± åĲĹ
ĠØ³Úĥ Ø§Ú»
ĠØ³ ÚĮ
ĠÙħØ§ÙĦ Úª
ÚĬ ÙĨ
ĠØ¯ Ø´ÙħÙĨ
m Ã¤r
ĠÙħØ°Ùĩ Ø¨ÙĬ
ĠØ±Ú© ÙĨØ¯ÚĻ
ĠØ¢ Ù¾
å°ĳ å¥³
ÙĩÙĬ Ø¡
çŁ Ń
ÙĤ Ø§
ÚĬ ÙĪ
ÙħÙĬÙĨ Ù½
åį ĵ
ĠÙĦ Ø§ÙĦ
è¯ Ĩ
Ġo st
åĴĮ åĢ¼
ev ad
ØªÙĪ Ú»
à´® à´¨
Ø¦ ÛĮØ§Úº
Ġes it
Ø² Ø±
Ø« Ø§Ø±
o ht
Ø±ÙĬ Ø¯
çĭ Ĺ
à´¯ à´²
Ġain ult
Ć ć
æĸ Ń
ĠØ¢ ÙĨ
ĠÙĨ Ø¹
ste em
ĠÛģÙĪÙĨ Ø¯Ø§
ĠØ¹Ø§ÙĦ ÙħÙĬ
à´· à´¤
æĻ ®
ĠØ§ Ú¾
ä¸ĵ ä¸ļ
Ġà´Ĩ à´ķ
ĠØªÚ¾ Ø§Úº
ĠØ¹Ø² Øª
ĠØ¬Ùħ ÙĩÙĪ
ĠÙħ Ú¯
ØªÙĪÚ» ÙĬÚª
ĠÙ¾ÙĬ Øº
Ø¦ ÛĮØ§
Ġl oo
è´ ¢
åĲ ¦
ÙĪØ± Ø³
è¯ Ħ
ĠØ¬Ø§ÙĨ Ø¯ÛĮ
ÙĨØ¯ ÙĨ
æŃ »
åº Ĭ
ĠM e
ĠØ¨Ùĩ ØªØ±ÙĬÙĨ
èĳ Ĺ
å¿« æĴŃ
ĠØ®ÙĪ Ø§Ùĩ
ĠÙĪÚĨ ÙĪÚº
Ø¯ ÙĪÙħ
åĢ į
ĠÚĢÙĬ Ø±ÙĪ
ĠmÃ¤ Ã¤r
Ġ ilm
ĠÃµ pp
Ġå¤©å¤©ä¸Ńå½©ç¥¨ æľī
Ġm ah
ĠØ§Ùĩ ÚĻÙĨ
éĻ Ĳ
Ġse al
ĠÚ¯Ùĩ Ø±ÙĪ
ĠÚªØ§ÙĦÙĬ Ø¬
ĠÚ¯ ÙĪÙĦ
Ġkorr al
åº ķ
éĢļ è¿ĩ
ĠØ¹ÙĪ Ø§ÙħÙĬ
æĹ¶ åĢĻ
åģ ¥
Ġ èī²
é£ Ł
ĠÚªØ±Ù¾ Ø´ÙĨ
Ø³Ù½ Ø±ÙĬ
ĠØ¹Ùħ ÙĦÙĬ
ad i
ĠØ®Ø§ÙĨ Ø¯Ø§ÙĨ
Ġ æĢ§
ÛĮ Ø³
i it
ĠØ± Ø§Ø¡
ĠÙģ Ø¶
Ġå¤©å¤©ä¸Ńå½©ç¥¨ app
ÙĬÚª ÙĦ
ĠØ§ Úĩ
éļ ¾
ç« ł
Ø¹ Ø§Ùħ
ĠÙħØ³ÙĦÙħØ§ÙĨ ÙĨ
é¢ Ŀ
æ· «
ĠØ±Ùĩ ÙĬÙĪÙĨ
ĠÃ¼ tle
ĠlÃµ p
ÚĨ ÙĨ
Ø² Ùħ
ĠÙĦØ§ÚĻ ÚªØ§Ú»ÙĬ
ĠÙĩ Ùħ
Ø§ÙĦ Ùħ
çĽ ĳ
ĠØ¯ ÙĬ
åĨ µ
kon d
Ġeh k
Ġkir jut
Ġ ÙĬÙĪØ±
ĠØ§ ÙħØ§ÙĨ
çķ ¥
Ġç¥ŀ å½©äºīéľ¸
ĠØ¯ Ø±ÙĬ
Ġ åľ¨
ĠØ´Ø§Ø¹ Ø±ÙĬØ¡
ÛĮÙ¹ Ø±
ĠÚª Ø±ÙĪ
uroo pa
ĠØŃÚ© ÙĪÙħØª
ĠÙĤ Ø±Ø¨
ĠØ® Ø§ÙĦ
7 0
u id
å¨ ģ
ĠØ´ Ø§ÙĨ
Ġà´® à´£
ĠÙ¾ Ø§Ø¨
Ġh o
ĠØ¹ Ùĩ
Ġinim est
Ø¬ ÙĪÙĨ
ĠØ¨ Ø§Øº
ĠÙĩ Ú»ÙĬ
atsioon i
Ġal l
èµĦ æºĲ
ĠØ´Ø§Ú¯Ø±Ø¯ ÙĨ
çŃī å¥ĸ
ĠØ³ Ø¯
ĠÚĨ ÙĨ
ĠØ¯ Ùħ
Ġh ar
ĠÙħØ¸Ø§Ùĩ Ø±ÙĪ
Ú© ÙĨ
ÛĮØ± ÛĴ
p an
ĠÚªÙĩ ÚĻÙĪ
äººä½ĵ èīºæľ¯
éļ ı
éĢ ¼
ĠvÃµ t
åİĨ åı²
ĠÙĩÙĦ ÙĬÙĪ
å° į
ĠÛģ ØªÚ¾
v er
Ù¹ Ø±
Úı Ø§ÙĨÙĩÙĨ
é¡¹ çĽ®
ĠÙĪ Ú©Ú¾
ØŁ âĢľ
ĠØ§ÙĪ ÚĨ
é ²
ĠÚ¾ ÙĬ
åĨ ł
à´ļ à´¯
ĠÚıÙĨ Ø§
é« Ķ
éĵ¶ è¡Į
ĠØªÙĨ Ø¸ÙĬÙħ
Ġtag asi
Ġv iim
äº ¿
Ø§Ø± Ùģ
ĠÙĨÙ¿ Ø§
ĠØ§ÙĪÛģ Ø¯ÛĴ
ul g
3 1
çĶµèĦĳ çīĪ
æĹ ħ
ĠÚª Ø¬ÙĬ
ĠØ¨ Ø§Ø²
ĠØ® ÙĪØ±
em ise
ĠØ´ ÙĬØ±
ÙĩÙĨ Ø¯ÙĪ
ÙĬ Ø§Ø±
æľ ¨
ÙĤ ÙĬØ¯
Ġà´Ĩ à´£
ĠvÃµimal ik
Ġl ast
ĠkÃ¼l l
ĠØ¢Ù¾Ø±ÙĬ Ø´ÙĨ
Ġaast at
ĠØ¯ Ø±Ø¯
ÙĦÛĮ Ùħ
éħ Ĵ
ĠØ§ ÙĬÙĨØ¯ÙĬ
ÙĪÙĨ Ø§Úº
Ġ æĹ¶æĹ¶å½©
ĠØ¯ÙĨ ÛĮØ§
ĠØ´ÙĩØ± ÙĨ
åº ĵ
ĠØ± ÙĬÙĦ
ĠØŃÚªÙħ Ø±Ø§ÙĨ
ç»¼ åĲĪ
ĠØ³ Ø§Ø²
Ġsa i
ĠÙĪØ§Ø¶ ØŃ
ĠÚ³Ø§ÙĦ ÙĩÙĬÙĨ
Ø¨ÙĪ Ø·
ĠØ¯ÙĦ ÚĨ
ĠØ§ ÙĬÙĨØ¯Ø§
èŀ į
Ġæ µ
çľŁ çļĦ
le kt
iv ad
is se
ĠØ¨Ú» Ø§Ø¦ÙĬ
ç§ ¯
ä¸ °
èµ¢ å½©ç¥¨
Ġmu ud
ĠÙĨØ§ ÙĪÙĦ
ĠØªÛģ Ø§
Ġselle st
ĠÚ¯Úı Ø¬ÙĬ
ĠØ±ÙĪ Ø§ÙĬØª
ĠØ§ Ú¾ÙĪ
ç½ĳ ç»ľ
ĠØ§ÙĨ ÚĬ
Ġv e
éģ İ
ĠÙĪ ÙĬÙĦ
ĠØ¨ ÙĦØ§
èĩ ´
o j
Ġsa ad
Ã¶Ã¶ d
Ġà´¸ à´¨
ĠØ³Ø§Ú³ ÙĬ
ĠØ¨Ø§Ø¯Ø´ Ø§ÙĩÙĩ
ĠØµÙĪØ¨ Ø§Ø¦ÙĬ
Ġ çİ©
Ġ ï·º
æ ĩ
ĠØ§ Ø±Ø¯
è ĵ
ä»ĸ ä»¬
Ġæ ·
ĠÚªÙĨ Ú¾ÙĨ
ĠÙĦ Ø§ÙĩÙĪØ±
ĠØ³ Ù¾Ø±ÙĬÙħ
Ø§ÙĦ ÙĨ
ĠÚªØ±Ø§ ÚĨÙĬØ¡
ĠÙĪ Ø³ÙĬ
é¸ ¡
ĠÙħÙĪ Ø§Ø¯
is a
å¤§ ç¥ŀ
ÛĮ ØŃ
ĠØ³ÚĦ ÙĪ
å± ħ
ĠA r
ĠØ® Ø§Øª
ç¯® çĲĥ
ÚĻ Ú»
ĠÙħØ¹ ÙĨÙĬ
ãĢĤ âĢĿ
Ġà´ §
ĠØ§Úĥ Ø§ÙĨ
Ġt oo
Ø§Ø¯ ÙĤ
ĠØ¢ Ø¦ÙĬÙĨ
ĠÙĨ Ø³ÙĦ
æĻ ¯
Ġpe ab
Ġm in
Ġj ust
ĠÙĦÚĳ Ø§Ø¦ÛĮ
Ø§ Ú¾
æ¯ Ľ
è¡ Ģ
Ġja oks
m ed
us id
èĥ Ĩ
âĢ ¢
çļĦ ä¸Ģ
åį ı
é£ ŀ
ĠØ®ÙĪ Ø§Ø¨
à´± à´Ļ
ĠÚªØªØ§Ø¨ ÙĨ
ĠØ° Ø§ØªÙĬ
åº ·
Ġ å½©ç¥¨å¤©å¤©
Ø§ ÚĻÙĬ
è »
ĠØ¯ÙĪ Ø¬ÛĴ
ĠÚªØ§Ø±Ø±ÙĪ Ø§Ø¦ÙĬ
ĠØ¨ÙĪ Ûģ
æĺ¯çľŁ çļĦ
ç¦ıåĪ© å½©ç¥¨å¤©å¤©
èĤ ī
ĠØ³ Ø·
ĠÙ¾Ùĩ ØªÙĪ
Ġkokk u
ĠØ³Ø±Ø¨Ø± Ø§ÙĩÙĩ
Ø±ÙĬ Ø±
ĠÙ»ÚĮ Ú»ÙĬ
ĠÙħØ§ÙĨ ÙĬ
ĠØ¹Ø´ ÙĤ
å¹ ¸
ĠÚªØ± ÚªÙĬÙ½
Ú© Ø³
ĠØ±ÙĬ Ø§Ø³Øª
æĸĩ åĮĸ
ĠÚĨ Ùħ
ĠÙĨ ÚªØ±
av at
å¾Ī å¤ļ
ĠÙ¾Ùĩ Ø±ÙĬ
en ud
p t
Ø±ÙĪ Úº
æŃ ¦
ĠØ¢Ø² Ø§Ø¯ÙĬ
ĠØªØ¹ Ø¯Ø§Ø¯
æ´» åĬ¨
ĠØ¨Ø¬ ÙĦÙĬ
ĠØ§Ø³ÙĦØ§Ùħ ÙĬ
ĠØŃ Ø±
ĠØªÙĬ Ø²
ä¸ī çº§
ĠØ®Ø· Ø§Ø¨
e ks
kon na
æľ ĭ
ĠÙĩÚª ÚĻÙĬ
ĠÙģÙĪ Ø¬ÙĬ
ĠÚıØ§Úį ÙĬ
èĤ ĸ
à´° à´³
à´¯ à´¸
åĳ ½
à´ķ à´±
æĮ ī
ĠÙħØ§ØŃ ÙĪÙĦ
K ui
ĠØ§Ú© ÙĬÙĪÙĨ
Ġm ing
åı «
ĠÙħ ÙĬØ¯
Ø§Ûģ Ø±
ĠÙ¾Ûģ ÙĦØ§Úº
çŃ ĸ
ĠØ°Ùħ ÙĬÙĪ
çĻ ¼
åı¯ èĥ½
ĠÙħ Ø§Ø¦
ĠÙĨ Ø§Úª
Ù¿ Ø±
Ø¬ÙĬ Ø¨
ĠØ¨ Ø§ÙĩÙĩ
Ġå¤§åıĳå¿«ä¸ī æĢİä¹Ī
ÙĬÙĨ Ø§
ĠÚªØ±Ú» ÙĪ
ĠØŃØ§ÙĦ ØªÙĨ
åħ °
ĠØªØŃ ÙĤÙĬ
aal se
ĠØ³ Ø±Ùħ
à´¨ à´²
ĠÚªØ¬ Ú¾
ĠÙħØª Ø§Ø«Ø±
Ġà´Ĩ à´µà´¶
s it
v est
ĠÚĢØ± Ø³Ø§ÙĨ
Ġ â
é Ĩ
åŃ £
Å ¡
ÙĬÙĨ Ù½
ĠØ¬ÙĬ ØªÙĪÚ»ÙĬÚª
ĠÙģ ØªØŃ
åı ¦
Ø³ Ù½Ø±
ĠÙĩ ÙĨØ¯ÙĪ
ĠÙĤ ÙĬÙħ
è± ¹
ç© ¿
ĠÚıÙĬÚ© Ø§Ø±ÙĬ
ĠÙ¾ Ú©
Ġà´¬ à´¨
ĠØ§ÙĦ ØŃ
an is
6 6
Ġk li
å® ģ
ĠÚĨ Ø±
Úª Ú»
l g
æ£ ĭ
ĠÙģ Ø·
al i
ÙĬØ³ Ù½
ĠÙ»ÙĪ ÙĦÙĬØ¡
Ġà´Ĩ à´¶
äº «
ĠÚĢ ÙĦÙĬ
Ġà´īà´ª à´¯
) ØĮ
ĠÙħÙĪ Ù½
Ġpoo le
à´ª à´ķ
à´Ł à´±
em alt
è® ¸
ÛĮÙĨ ÛĮ
Ġå¤©å¤©ä¸Ńå½©ç¥¨ çļĦ
ç £
ĠØ³ ÙºÙĪ
ĠÙħØ§Ú»ÙĩÙĪ Ø¡
Ġpe aks
æĢİä¹Ī åĬŀ
Ġ uur
ÙħØ¨ Ø¦ÙĬ
ĠI n
or r
è®¾ è®¡
ĠØªØ® ÙĦÙĬ
ç§ĳ æĬĢ
ä½ĵ èĤ²
ÙĬØ± ÙĨ
è¿ Ŀ
Ġpu ud
à´¾à´Ĥ .
è½ ®
ĠØ¨ÙĦÙĪÚĨ Ø³ØªØ§ÙĨ
ĠÙĦ ÛĴ
æ£ Ģ
ĠØ± Ø¶
à´° à´¶
Ġin f
id ele
Ġà´®à´¨ à´¸
p e
åĲ ī
éĴ Ł
ĠØ³ Ú³
çĽ ĺ
ĠØ§Ø® ÙĦ
amise l
ç ĳ
ĠØ§Ø® Ø¨Ø§Ø±
è Ĵ
Ġà´ķ à´³
Ġk ul
é ±
æķ° æį®
åį °
ast i
Ø§Ùģ Øª
èĭ ı
Ġra amat
Ġol id
ç§ ģ
ĠØ§ÙĬ Ùģ
Û ²
Ġs ob
Ġà´¨ à´Łà´¨
le t
19 4
ÛĮÙĨ ÚĪ
éĢ ı
ĠÙĩØ¦ Ø³
ĠÚ¯Ø° Ø§Ø±ÙĬ
æ¬ ¢
ide ga
ir ja
ĠØ¨Ø± Ø·Ø§ÙĨ
s s
è± ¡
Ãµt tu
ĠÙĪØ§ÙĦ ÛĴ
Ġto et
ĠØ¬ Ú³
ä¸» è¦ģ
ĠÚ© Ø¬Ú¾
ÙģÙĪ Ø¸
es se
ÛĮ Ø²
ĠÙħØ¶ ÙħÙĪÙĨ
ĠÚª Ø§ÙĪ
æĺ¯ å¤ļå°ĳ
è¾ ¹
èĽ ĭ
ĠÚĢ Ø§Ø±ØªÙĬ
çĽ Ĭ
ĠØ§ÙĩÙħ ÙĬØª
è´ Ł
Ġn Ã¼Ã¼d
à´ķà´° à´£
ç© ´
Ġà´ĩ à´ª
Ø§ÙĪ Øª
æľĭ åıĭ
Ø´ ÛĮ
gi a
c k
é± ¼
éĩ İ
ĠÙ¾Úĩ ÙĬÙĪ
ĠÙħÙĦ Ø§Ø²
æĶ¿ åºľ
Ġtun n
è¿ħ éĽ·
ĠØ§ÙģØºØ§ÙĨ Ø³ØªØ§ÙĨ
201 5
ĠØµ ÙĨ
ĠØ§Ùħ Ø§Ùħ
æ¸ ©
Ø§Ø± ÚĬ
Ġm Ã¼Ã¼
ĠK a
ÙĦÙĬ Øª
oo li
å® ³
ĠÙħØ¶ Ø¨ÙĪØ·
el da
Ġkol m
end i
Ġå¤©å¤©å½©ç¥¨ ç½ĳ
ĠÙħØŃ ÙĨØª
ä¸Ń çļĦ
ĠÙĩÙ¿ÙĬ Ø§Ø±
åĪ ĩ
ĠØ§Ùĩ ÙĦ
ma a
æĸ¹ å¼ı
å½± éŁ³
ÙĬØ¯ Ø§Ø±
ĠÙħÙĬÙħ Ú»
Ġà´ª à´ķ
ult uur
ĠØ§ Ø¨Øª
ĠØ³Ùħ ÙĪØ±ÙĬ
ĠØ¬Ùħ Ø¹
Ùĩ Ø§Ø±ÙĬ
âĢ ĵ
ĠÙĩ Ø²
ĠÙĤ Ø§Ø¨ÙĦ
ĠØ³ ÙºÙĬ
ĠØ³Ú¯ Ú¾ÙĬ
å¾ Ģ
ĠÃ¼le s
ĠÙĩ Ø§Ø¦ÙĪ
æ¬ ²
ÙĬÙĪØ± Ù½ÙĬ
ĠØª Ø³
ĠØ¨Ø± Ø§Ø¨Ø±
Ġ w
åķ Ĭ
âĢ Į
ĠÙĨ ÙĪØ±
Ġå¤§åıĳå¿« ä¸īé
è§ ī
âĢĿ ï¼Į
Ġr as
ĠâĢĺ âĢĺ
Ġl inn
æĪĳ çļĦ
èī ³
Ø§ ÙĪÙĨ
ĠÙĨÙĪ Ù½
ĠÙħÙĪ Ø¶ÙĪ
ĠÚĮ Ùħ
ĠÙħØ® Ø¯ÙĪÙħ
Ġel u
j ale
ÙĬØ³ Ø±
à´¨ à´µ
x t
Ġs iin
åĪ Ŀ
æĸ ¼
Ġà´ĩ à´°
ĠT a
ÙĩÙĨ Ø¯ÙĬ
Ø¨ Ø§Ø²
å¹ ķ
Ġ å¤©
um ine
ĠØ´Ø±ÙĪØ¹ Ø§Øª
åī §
ĠÙħØ³ Ø¬Ø¯
ĠÙģ Ø±Ø§ÙĨØ³
ĠÙħØŃ ÙģÙĪØ¸
ä»Ĭ å¤©
Ġe ks
ÙĨØ¯ ÙĬÙĪÙĨ
kon n
ĠÙĪØ§Ø± Ø«
æķħ äºĭ
Ġole n
æĶ »
ĠØ¨ Øº
éĻ ©
è´ ´
Ø§Úª Ø§
éĺ ħ
kk on
Ġ å¥³
ĠØ² ÙĬ
Ġen ne
ç» ĩ
å·² ç»ı
ĠÚª ÙĬÙĨ
ĠØ§ØŃØªØ¬ Ø§Ø¬ÙĬ
ĠÙĨØ´ Ø§ÙĨ
Ø¬ ÚıÙĩÙĨ
ç¦ »
Ù ĭ
ĠÙĢ ÙĢÙĢ
ĠÙĪÙĬ ÙºÙĪ
ĠØ´ÙĪ ÙĤ
ĠØª ÙĦ
æĸ¹ éĿ¢
à´° à´§
ĠØ· ÙĪ
à´² à´®
Ġå¤©å¤© ä¹Ĳ
ĠÙ¾Ø§Ú» ÙĬØ¡
å¼º å¥¸
Ġà´ī à´¦
an ts
ĠØµ Ø§Ø¯ÙĤ
ÛĶ ÛĶ
å· ¨
ĠÙħÙĬÙħ Ø¨Ø±
Ġå¤©å¤© èµ¢å½©ç¥¨
ĠØ¯ Ø¤
Ù» Ø¦ÙĬ
ĠÙħ ÙħÚªÙĨ
è² »
Ġees mÃ¤r
à´§ à´¤
ĠÙħÙĪ Úª
ĠØ¬Ùħ Ø§Ø¹Øª
ĠÙĪ ÚĻ
ä½Ĩ æĺ¯
ĠS elle
ĠÙĨØ¸ Ùħ
Ġta ga
âĢľ .
Ġà´ Ĳ
åħ¨ éĽĨ
v i
é«ĺ æ¸ħ
äºº æ°ĳ
ĠT art
à´² à´¨
ĠØ¯ Ù»
ĠÙħØ± Ø§Ø¯
ĠÙģØ± Ø§Ùĩ
ĠÙħ Ø¬Ø¨
ĠÙĦÙĬÚ© Úª
ĠÙħØ³ Ø§Ùģ
si on
l it
ĠÙĪØ§ ÚĮ
ĠÙħØª Ø¹
ĠÚ¾ Ø±
ĠØ¨ØŃ Ø«
éĢ Ģ
ĠØªØ§Ø±ÙĬØ® ÙĬ
ĠÚĩÚı ÙĬØ§
ä¸į ä¸Ń
è§ Ĵ
9 8
à´ª à´±
à´ľ à´¨
Ġtule m
ĠÚ¯ Ùħ
ar i
19 5
p il
æĹ ©
æŃ ¢
Ùħ ØŃ
ĠØ¢ Ø¯Ùħ
ĠÙħ Ú¯Ø±
ik us
ĠÙ¾ ÙĪÙĦ
ĠÙ¾Ø¦ Ø¬ÙĬ
ĠpÃµh j
ĠØ® Ø±ÙĬØ¯
m b
ĠØ® Ø§Ø·
Ġv ii
ĠÙĬ Ø§Ø±
ĠÙħØŃ Øª
Ġsu ht
à´¬ à´¨
Ġkas v
æ² Ļ
Ø±ÙĬ Ø²ÙĬ
Ġte ise
åĸ Ħ
Ġsel g
ÙĪ Ú¯
éĩį è¦ģ
ĠÙħÙĬ Ø§ÙĨ
Ø§Ú» Ø§
um ist
ĠØ§Øµ ÙĪÙĦ
äºº å·¥
Ġk er
ĠÙĤ Ø¨Ø±
ĠØªÙģ Øµ
ÙĬÙĨØ¯ Ø³
ĠÚ¯ Ø±Ùħ
og r
ÙĦ ÛĮØ§Úº
ĠÚ¯Ø§ Úı
ĠØ¬ Ø¯ÙĬØ¯
ĠÙĨ ÙĬÚª
i ht
éĽĨ åĽ¢
ĠØ¬ÙĪ Ø§ÙĨ
ĠØ² ÛĮØ§Ø¯
å½© éĩĳ
us a
ĠÚªÙħÙĬ Ù½ÙĬ
æ£ĭ çīĮ
Ġm inu
Ø§Ø¯ ÙĨ
ÙĪ ÛĮ
ar a
Ġà´® à´²à´¯
Ġjooks ul
ĠÚ© Ø³ÛĴ
ĠØ± Ø§ÙĨ
ĠÙ¾ Øª
Ġ èħ¾è®¯
ĠmÃ¤ ng
Ġos a
j Ã¤r
æ¼ ı
ÙħÙĪ Ø¯
ĠØ§ Ø¨ÙĪ
? ?
æĸ Ĺ
ĠÚ© Ø±ÙĪ
ĠE uroopa
éĽ ¶
ĠÙĪÚı ÙĨ
ĠØ¹ÙĦØ§ÙĪ Ùĩ
et a
åŁ ¹
Ġ Ð
ĠÙ¾Ø±ÙĬ Ø³
ĠÙħØ± Ø²Ø§
! !
ĠÙħÙĬ ÚĨ
å·¥ ç¨ĭ
å© ļ
à´¤ à´ª
å¤§ çļĦ
ĠÃ¼ m
æĬķ èµĦ
Ġsa a
ĠÚ¯ÙĪØ±ÙĨ Ø±
Ġà´¨ à´Łà´ª
ĠjÃ¤ t
Ù½ ÙĪÙĨ
ĠÚĨÙĪ ÙĬ
as se
ĠØ§ÙĦ ÙĦÛģ
ĠØ§Ú³ÙĪØ§Ú» ÙĨ
ĠØ¨ ÙĬØª
ĠØ¨Ûģ ÙĪÚº
ä¼ Ĭ
ĠÙ¿ ÙĪØ±ÙĪ
Ø§Ø¦ ÙĬÙĨØ¯ÚĻ
è¿½ åı·
æĪĲ ä¸º
å®ĺæĸ¹ ç½ĳç«Ļ
ÚĻ Úª
Ġn oor
Ġ å°ıè¯´
an a
s id
å¸ Į
at er
ĠØ« ÙĤ
ĠÚĢØ± Ù¾ÙĪØ±
Û °
Ø¹ ÛĴ
æī ¿
ĠÙ¾Ùĩ ÙĦÙĪ
Ġà´ī à´¤
Ø§Øª ÙĪ
ĠÙħØ¬ ÙħÙĪ
éĩįåºĨ æĹ¶æĹ¶å½©
ç¼ ĸ
äºĶæľĪ å¤©
ĠØ§ÙĨØªØ¸ Ø§Ø±
e gu
æĭ ¿
æĢİä¹Ī çİ©
ĠÚ¯ ÙĩÙĪ
ĠØ¨ Ú©
ĠvÃµ tt
Ġà´® à´°
Øµ ÙĪÙħ
åħ ´
ĠØ®ÙĪ Ø§Ø¬
ĠÙ¾ Ø§ÙĨ
ĠØ³ Ú©Ú¾
ĠØ³ÙĨÚ¯ Øª
ĠÚªÙĦ Ø§Ø³
ĠÙħØ³ ÛĮØŃ
ĠÚĮ Ø§Ø±
Ù¾ ÛĮ
Ġà´ķ à´²
ĠÙ¾Ø±ÚıÙĬ ÙĩÙĬ
ĠØ³Ø· ØŃ
ĠØ³ÙĨÚĮ ÙĪ
ĠØ§ Ù½
Ġeh it
aja te
Ġà´ħà´µ à´¸
ÚĨ Ø§
ç¦ıåĪ© å½©ç¥¨
Ġà´² à´ķ
ĠØ±ÙĩÙĨ Ø¯
ĠÚªØ± Ø§ÙĬÙĪ
ĠnÃ¤ d
éª ļ
em ist
ĠÚĨ Ø¦ÙĨ
l use
ĠØ¯ ÚªØ§ÙĨ
ĠÙħ ÙĪØ±
l u
m ete
åķ ª
ç® Ģ
è «
Ú¯ Ùĩ
ĠØ§ÙĨÚ¯Ø±ÙĬØ² ÙĨ
è¯ ī
Ġa eg
201 4
es i
m in
ĠØ¹Ùħ Ø§Ø±Øª
ĠÚĦ Ø§Ùħ
Ø¨ Ø±ÙĨ
Ġse is
ĠØ¬ÙĪØ§Ø¨ Ø¯Ø§Ø±
ĠØ¬ Ø§Ø¦Ø²
ĠØ§ Ùº
å®ī åįĵ
am et
ĠÙĩØ§Ø¦ÙĪ Ø³
Ġole ma
ĠØ±ÙĪ Ø³
åº Ń
Ø§Ø¤ ÙĨ
3 8
å¥½ çļĦ
ĠØ¢Ùħ Ø±ÙĬÚªÙĬ
ĠÙħÙĬØ¯ Ø§ÙĨ
ĠØ® Ø§ÙħÙĪ
ç» Ĩ
ĠÚĨ ÚªØ§
ĠØ±Ù¾ ÙĬØ§
ĠÙĨÙĬ Ø¨
ĠØ§Øª Ø±
ht ud
ĠØ° ÙĪØ§ÙĦ
ĠÚ¯ ÛĮ
ĠÚ¾ ÙĪÙĨ
ĠÙħØ§Ø± ÚĨ
ĠØ´ Ùħ
ç» ĳ
åľĸ çīĩ
éĽ» å½±
ĠØ¬ Ø¯ÙĪ
åİ Ĥ
ĠØ³Ø± Ú¯
ĠØ§Ùħ Ø±ÛĮ
Ùħ Ú»
ĠÙĨ Ø¬
Ġ ä¸Ģ
ĠØ± Úª
à´¤ à´¯
Ûģ ÙĪØ±
Ø¯ Ø¯
ĠØ®ÙĪ Ùģ
æĺ¯ ä¸Ģ
èĻ İ
ĠÙĨÙħ Ø§Ø¦
Ġà´ĩ à´µ
ĠÙħ Ø§ÙĩØ±
Ġå¤©å¤©ä¸Ńå½©ç¥¨ å¾®ä¿¡
ĠØªÚª ÙĦÙĬÙģ
ĠÚıÚ© Ú»
ÙģÙĤ Ø§Ø±
ĠÚĮØ± ØªÙĬØ¡
ĠÚĨ ÚªÙĬ
å° ģ
Ġ äºļæ´²
à´° à´ŀ
çĻ» éĻĨ
Ã¤ n
ç¶ ĵ
Ġk ar
aja d
ĠÚªÙĬØª Ø±Ø§
ĠØ§Ø¯Ø§ ÚªØ§Ø±
Ø´ Ø§ÙĩÙĩ
201 3
Ġ ç¾İå¥³
èģĬ å¤©
çı ¾
ÙĦÙĬ Ø§
ĠØ± Ø³Ùħ
Ãµ n
ĠØ§ÙĬ Ø¦Ø±
ĠØªØ¨ Ø¯ÙĬ
å§ ¨
a eg
åĲĮ æĹ¶
ĠÙħÙĤ Ø§Ùħ
ĠØ³ÙĬÚª ÚĻÙĪ
æīĢ ä»¥
éĵ¾ æİ¥
Ú¯ ÙĨ
æĤ ¨
Ø§ØŃ Øª
åĿ ļ
ĠÚĮ ÙĬØ§ÙĨ
il t
æ±½ è½¦
ĠÙ¾ÙĪÙĨ Ø¯ÙĬ
Ġte k
ĠÙħØ¹ ØµÙĪÙħ
Ġva at
or i
ĠØ´Ø± Ø·
ob le
åħŃåĲĪ å½©
Ġe ur
ĠØ´Ø®Øµ ÙĬØª
åı¯éĿł åĲĹ
å¤ ®
ĠØ§Øª ØŃ
h o
ĠÙĪ ÚĪØ§
à´Ĺ à´Ļ
ĠÙħØ¬Ø¨ ÙĪØ±
ÙĨÚ¯ ÙĬ
3 4
à´Ł à´®
æĹ ı
im ist
ĠØ± Ø§ÙĨØ¯
ĠÙĪÙĪ Ù½
ĠÙĤ Ø·
çĸ Ĩ
éĶ ĭ
éĹ »
Ú¾ ÙĬÙĨ
ä¾ ĭ
e et
ĠØ§Øª Ø§ÙĨ
ĠÙĨÙĪ Ø§Ø¨
ä¼ ¼
ÙĬ Ø¹
ĠÙħÙĩ ÙĦ
Ġæ¬ §ç¾İ
æŁ¥ è¯¢
à´± à´ª
end ada
ä»¥ åıĬ
Ø§ ÙĩÙĪ
Ø¨ ÙĨØ¯
ĠÚĬ Ø§Ø¦
ĠØ§Ø· ÙĦ
ĠÙħØŃ ÙħÙĪØ¯
ĠØ¹ÙĦ Ø§Ø¬
åŃ© åŃĲ
ĠØ§ÙĪ Ú¾Ø§ÙĨ
Ġ éĩĳ
à´µ à´²
Ġs p
à´¨ à´µà´°
ĠØŃ Ø¬
ĠØ¸ ÙĦÙħ
Ã¤ h
å¿ µ
ĠØ± ÙĬÙĨ
åĽł ä¸º
ĠØ¢ Ú»ÙĬ
ĠØ³ÙĨ ÚĢ
Ġà´İ à´´
ĠÚĬ ÙĪ
ĠØªØµÙĪ ÙĬØ±
ĠÙĪ Úĩ
ĠS am
Ġ æĢİä¹Ī
l o
èµļ éĴ±
Ø® ÙĬ
ĠØ´ ÙĬÙĪÙĨ
ĠÚ¯Ø° Ø±ÙĬ
æľīéĻĲåħ¬åı¸ å®ĺç½ĳ
ĠÙħØ³Ø¦ ÙĦÙĨ
ĠØ³Ø¯ Ø§Ø¦ÙĬÙĨ
æĥħ èī²
è ķ
å®ŀ åĲį
åį Ī
ĠÚ© Ú»
ĠØ¨ Ø§ÙĤ
ĠØ²ÛĮØ§Ø¯ Ûģ
Ġà´İ à´¸
Ġl oom
Ø§ ÚĦ
Ø¨ÙĪ Øª
ĠØ§ÙĨ Ú¾ÙĨ
ĠÙ¾Ø±ÙĬ Ø´Ø§ÙĨ
ut se
å¤ļ ä¹ħ
åħĳ å¥ĸ
ĠØ¯ ÙĬÙĨ
Ġsis se
Ġl ii
åħ¨ åĽ½
ĠÙĪØ§ÙĦ Ø¯
Ġà´ħ à´¯
ĠÙģØ§Ø¦ Ø¯ÙĪ
ĠØ· ÙĦØ¨
k ur
Ú¯ Ø²
è¿ĺ æĺ¯
Ġan n
Ġsa ada
éĥ½ æĺ¯
ĠÙģØ§Ø¦ Ø±
ĠØ§ÙĨØª ÙĩØ§Ø¦ÙĬ
Ġà´ĵ à´°
à´ļ à´°
Ùħ Ù¾
æĴ ¸
ĠÙºØ§Ùĩ Ú»
çķ Ļ
ĠÚĬ Ù¾
ĠÙĨ Ø«Ø§Ø±
ĠØ§ ÙĬÙĦ
Ć ï¼Į
è¦ģ æ±Ĥ
ĠÙ¾Ø§Ø± ÙĦÙĬ
åĪ° äºĨ
ĠØ±Ø§ ÚĦ
ĠØ¯ Ø§Ø±
Ġs Ã¤
ĠÙ¾Ø±ÙĪ Ùģ
ä¸ ½
ä¸Ń æĸĩ
ĠØ§ÛĮÛģ ÙĨØ§Úº
åı¯ ä¿¡
mise ks
ĠØ±Ø³ ÙĪÙĦ
à´± à´¨
li it
ä¹ ¡
ĠvÃ¤ Ã¤r
un kt
ç§ Ģ
ä¸Ń å¤§å¥ĸ
Ú¯ ÙĬØ±
Ġp akk
Ġm et
Ø¬ ÙĩÙĩ
Ø±ÙĪ Ø²
Úª Ø§Ø±ÙĨ
Ġà´µà´³ à´°
ĠN e
end ab
ĠØ¬Ø§ÙĨ Ø¯ÛĴ
ase d
æĹł æ³ķ
ĠÙĩÙĦ ÙĨØ¯ÚĻ
çĮ ľ
Ġke ht
æ½ ®
åį Ĭ
ĠØ® Ø§ÙĦÙĬ
ĠnÃ¤ iteks
ÙħØ§ÙĨ ÙĬ
ç¦ ģ
ï »
Úª ÙĬÙĨ
ime sed
ĠØ§ÙĨÚ¯ Ø±ÙĬØ²ÙĬ
ĠÙħÙĤØ§Ø¨ ÙĦÙĬ
è±¹ åŃĲ
çĶŁ äº§
æĥħ åĨµ
à´İ à´¨
çı Ń
åĲ ¬
ĠÚªØ§ÙĨ Ùĩ
éĺħ è¯»
éĸ ĭ
l an
Ø² Ø§Ø¯
om m
ĠÙ¾ ÙĦÙĬ
3 7
ĠÙĩÚª ÚĻÙĪ
ĠÙħ Ø§Øª
Ã¤ l
oo s
åĵ į
Ġpar em
ĠÚĨ ÙĨÚ¯
ĠÚªÙĪ Ù½
Ú¯ Ø§ÙĩÙĩ
oble em
ĠÙ»ÚĮ ÙĦ
àµ¼ à´¨
ĠØªØŃÙĤÙĬ ÙĤ
ĠÙħÙĨØ¸ ÙĪØ±
ĠØ¯ Ø³
Ø§Úª ÙĪ
ĠÙ¾ÙĪ ÙĬØ§ÙĨ
ĠØ¹Ø± ØµÙĬ
åħ ½
Ø· Ø§
ĠØ±ÙĩÙĨ Ø¯Ø§
Ġå½©ç¥ŀäºīéľ¸ æľī
Ġà´µ à´´
ĠÚ© Ø§Ø¦ÙĬ
åĵ Ī
ĠÙĤ ÙĬØ¯
Ġå¤§åıĳæĹ¶æĹ¶å½© æĺ¯
ĠÚı ÙĬÙĨØ¯Ø§
ati on
Ãµ l
ĠÙħ Ø¯Ø±
åĽ ´
ĠØ§ÙĨ ÚªØ§Ø±
ĠjÃµ ud
åĲ ¸
id est
è¡ Ĺ
ÙĬØ± Øª
Ġt oot
ĠÙĨ ÙĨÚĬ
Ġ im
å¼Ģ å§ĭ
m ast
ĠØ¨ ÙĬÙĪ
ï» ¿
ÚĻ ÙĬÙĪ
æĢ§ çĪ±
ĠÚ©ÙĪ Ù½
ĠkÃµ rg
è´ §
ĠØ¹ Ø¬ÙĬØ¨
à´· à´®
åĵģ çīĮ
ja s
ÚĬ Ø§
çİ° åľ¨
ĠØ¬ ÙĩÙĨ
ĠØ´ Ûģ
ĠØ°ÙĪØ§ÙĦ ÙģÙĤØ§Ø±
Ġkoh al
Ø±ØŃ Ø§ÙĦ
Ġ äºº
ĠÙĩ Ùģ
ĠÚĨ ÚĻ
ĠÙĨÙĩ Ø§ÙĬØª
ĠØ®ÙĬØ§ÙĦ ÙĨ
ĠØ´Ø± ÚªØª
Ġvah el
éĿ ©
Ġt ood
Ġt ut
Ġà´ª à´²
ĠÙĩ Ø§Ø±
Ġis ik
ĠØ¨Ø§Ø± ÛĴ
éķ ĩ
æĦı æĢĿ
ĠØ³ Ø¹ÙĪ
ĠÙĩØ¦ Ø§Ø³ÙĬÙĨ
åħ³ ç³»
ĠÚĨÙĪÚĮ Ø±ÙĬ
ĠÙ»ÚĮ Ú»
Ġpuh ul
èĢģ å¸Ī
Úª Ù½
å© ·
à´ Ĳ
Ġ å°ı
ĠØ³ Ø¦ÙĪ
Ġà´İ à´Ł
ĠÙĦ ØŃ
ĠØ³Ø§Ø¦ÙĨ Ø³
è½ »
ĠØ§ÙĪÙĦ Ø§Ø¯
åĿ ĩ
Ú¯ ÙĦ
ĠØ§ÙĪÚĨ ØªÙĪ
h u
ĠåĮĹäº¬ èµĽè½¦
ĠÙħÚ¯ Ø±ÙĪÚº
à´ļ à´¨
ĠÙħ Ø§Ø±ÙĬ
ĠâĢ ¢
Ġà´ķ à´¥
Ġos al
ÙĩÙĨØ¯ ÚĻ
ç ĩ
ĠØ¨Ø§Ø¯Ø´ Ø§Ûģ
ĠÙħØ´ ÚªÙĦ
èģĶ ç³»
ĠØµ Ø¯ÙĬ
ÛĮØ± Ûģ
ç´ ¢
Ġ å¹¿
éĢ Ĥ
ØµÙĪ Øµ
ot si
ĠØ®ÙĪ Ø´ÙĬ
å· Ŀ
ĠÚ© Ú¾ÛĮ
ĠmÃ¤ n
ĠØªÙĩ Ø°
Ġ un
ĠØ§Ø¯ÙĬ Ø¨
ĠØ§ÙĨ ÚĬÙĬØ§
Ġk ur
ĠØ¢Ùĩ ÙĬÙĪ
à´¸ à´®
Ġ Ã¶
r os
ut a
èĪ ŀ
Ø§ ÙĬÙĪÙĨ
ĠÚ¾ ÙĬÙĪ
ĠØ§ÛĮ ÙĨØ§Úº
Ġt ug
ĠÙħØ§Ø± Ø¬ÙĬ
ĠÚĨ ÚĻÙĩÙĬ
ĠÙĦ ÛĮÛģ
ĠnÃ¤ it
Ġlihts alt
à´° à´¹
åĲĪ ä½ľ
el ikult
Ġr iik
ĠØµØŃ Øª
ĠØ¯Ø¤ Ø±
ĠØ¬Ùĩ ÚĻØ§
å¯¼ èĪª
ĠÙ¾ Ø³
ĠØªÙģØµ ÙĬÙĦ
ĠØµÙĪ Ø¨ÙĬ
à´ª à´£
P P
ĠÚ© ØªØ§Ø¨
åĪ ·
ĠEest is
Ãµ ik
çĪ ¶
à´¯à´® à´¨
4 8
ĠØ³Ø§Ú» Ø³
æ´ ŀ
es id
äº ®
æĥ ł
æĿ Ģ
ĠØªÙĨÙĩÙĨ ÚªØ±ÙĬ
ĠÚªØ§ÙħÙĬØ§Ø¨ ÙĬ
ĠØ³ÙĦ Ø·Ø§ÙĨ
ĠÙħØ³Ø¦ ÙĦÙĪ
é ¹
Å ¾
ĠØ¨ Ø±Ø¯
ja t
ĠØ³ÚĥØ§Ú» Ù¾
ĠÙ¾Ø¦ Ø³Ø§
ĠÚªØ§Ø¨ Ùĩ
ÛĮÙĨ ÙĪÚº
åĽ½ äº§
a at
ĠÚ³ Ú»
æ¹ ĸ
um e
ĠÚ© Ø§Ø¦Ú»
Ġà´¶ à´°
ĠÚıÙĬÙĨ Ú¾ÙĨ
Ù½Ø±ÙĪ ÙĦ
Ù¹ Ú¾
å² Ľ
à´¤ à´ķ
åŁİ å¸Ĥ
ĠØ±ÙĤ Ùħ
èĪ ĩ
éĻ į
à´Ł à´²
ĠØ§ÙĨ Ø¹Ø§Ùħ
Ø§ÙĨ ÛĴ
Ġpr ot
ĠØ§Ø³ Ù¾
ĠØ§ÙĨÚ¯ Ø±ÛĮ
ç¤¾ åĮº
à´° à´³à´¤
im is
at iiv
ĠØµ Ø¯
Ġ ÛĮÛģ
æīĢ æľī
ĠØ± Ù¿
Úĳ ÛĮØ§Úº
å®¢æĪ· ç«¯
çº ª
ĠØ´ ÚªÙĦ
Ġj al
ĠØŃ Ø§Ø¬ÙĬ
è ĸ
ĠØ´ ÛĮ
i gi
è¡¨ ç¤º
vah el
ĠØ² Ø±
ĠÙº ÙĬÚª
u ud
ĠÚ¯Ø° Ø±
ä¸ ¥
ĠØ¢Ùĩ Ø³ØªÙĬ
ĠØ¬Ø±Ùħ ÙĨ
ĠØ´ Ø§Ûģ
ĠØ³Ú¯ ÙĩÙĪ
Ø§Ø² ÙĪ
Ø±ÛĮ ÙĤ
ĠØ³ÙĦØ³ ÙĦÙĪ
æī ¹
ĠÙĨØ§ ÙĩÙĨ
çħ§ çīĩ
å¼Ģ åıĳ
çİ Ħ
åľ¨ ç·ļ
ĠØ¨ÙĪÛģ Øª
ĠÙĦØŃ Ø§Ø¸
x x
Ø¢ Úº
ĠÚªØ§ÙĨ ÙģØ±ÙĨØ³
ÙĬ Ù½
å¾ ħ
Ø§Ø¦ Ø¬ÙĬ
ĠØ¨Ø¬ Ø§Ø¡
äº§ ä¸ļ
ĠØ§Ø±Ø¯ ÙĪ
ÚĬ ÙĨÚ¯
é ¼
ĠØ§ Ø¶
ĠØªÙĤ Ø±ÙĬØ¨
ĠØ®ÙĪØ§Ùĩ Ø´
Ø±ÙĪ Ùģ
Ġka ks
æĥ ĳ
Ġà´¨ à´Łà´ķ
ĠÚĨ ÚĳÚ¾
ĠØ¬ ÚıÚ¾ÙĨ
ĠØ§Ø³Ù½ÙĬ Ø´ÙĨ
Ġh inn
ĠÙ¾ ÙĬÙĦ
è¿ ·
en i
çļ ®
ĠØ±ÙĪ Ø´
ĠØ§Ù¿ Ùħ
ĠkÃ¼ sim
æ¼« çĶ»
Ġen da
ĠØ¨Ø§Ø¨ Ø§
us se
ä» ħ
il ist
çĽ® åīį
Ġme eld
Ø§Ú» ÙĬÙĨ
Ġæ ĥ
ĠÚªØ§Ùħ Ø±ÙĬÚĬ
ĠØ¹ ÙĦØ§Ùħ
ĠÙĦ Úª
è¿ ľ
ĠÚªØ§Ø±ÚªÙĨ ÙĨ
ĠØ´Úª Ø³Øª
Ø® Ø±
ĠÚ³Ø§ÙĦÙĩ Ø§Ø¦Ú»
ç´ §
çľŁ å®ŀ
åĩº ç¥¨
ä½ Ľ
ĠØ¨ÛĮ Ø§ÙĨ
ĠÙĨ Ø§Ø±
ĠÙĩÙ¿ ÙĨ
at av
Ġkorr ald
ĠØ±Ø³Øª ÙĪ
c c
Ûģ Ùħ
Ġs ise
å¤§ å®¶
è¯ ±
ĠØ§Ø¹ ØªØ±
ĠÙħÙĪØ¶ÙĪ Ø¹
ĠØ³Ú© Ø¯Ø§
ĠM ar
ĠÙĬÙĪÙĨÙĬÙĪØ± Ø³Ù½
Ġp Ã¼
ĠlÃ¤ b
Ø²ÙĬ Ø´ÙĨ
ĠØ³Ùħ ÙĪØ±ÙĨ
ĠÙ¾ Ú¯
ĠÚıÙĨ ÙĦ
èģ ļ
ĠØ§ÙĤ Ø¨Ø§ÙĦ
ĠØº ÙĪØ±
éĵ ģ
ĠÙĨ Øµ
Ġ èĭ¹æŀľ
à´Ĺ à´®
ĠÚĢ Ú³
çĻ¾ åº¦
ĠÙħÙĪØ¬ÙĪØ¯ Ùĩ
ĠØ¨Ú» Ø§ÙĬÙĪ
Ú© Ø§ÙĨ
n t
ç»Ħ ç»ĩ
ä¸ ´
Ġjuur de
Ġà´ª à´Ļ
Ġl u
ĠvÃµ r
oo ri
ĠP r
ÙĪÙĦ ÛĮ
åĨ °
Ġå¤§åıĳ å®ĺç½ĳ
ĠØµ Ø¯Ø§Ø±
Ġs oo
Ġr eg
Ġà´ª à´ł
a id
Ġpr oj
ĠØ³ÙĪ ÚĨÙĬ
à´® à´°
Øª Ùĩ
çĪ Ĩ
ãĢ ĳ
ĠmÃµ ist
ĠØ¢ Ø³Ø§ÙĨ
m et
Ġ us
éĤ Ħ
me id
ĠÙĨ Ø§Ø²
te er
lik u
ÚĢ ÙĬ
ĠÚ© Ù½
à´· à´¯
ĠÙģ Ø±Ø¯
ĠØ´Ø§ ÙĬØ¹
Ġa kt
è® ²
è§Ħ åĪĻ
Ø¬Ùĩ Ø¯
Ø±ÙĪ Ø´
åį ĸ
ĠØ¢ ÙĦÛĴ
åĳ ³
ĠØ§Ø¯ Ø§Ø±ÙĬ
Ġe ga
Ġæ Ń
æ² Ĵ
ĠÙħØ±ØŃ ÙĪÙħ
ĠÙģØ±Ø§Ùĩ Ùħ
å± Ĥ
æ´¾ å¥ĸ
ĠØ¨ ÙĨØ¯ÙĪ
Ġà´ª à´£
ĠØ§ ÙĪØ±
ĠÙħÙĨØ¸ Ø±
Ù» ÙĬ
um is
ĠÙĬÙĪØ± Ù¾
ĠÙĪ Ø¯Ú¾
ĠØ§Ø·ÙĦ Ø§Ø¹
ĠØ¬ Ø¬
ĠØ· Ø§ÙĦ
ä¹ İ
ĠÙĦÚ³ ÙĦ
ĠØŃ Ø§Úª
ĠÚªÙĨ ÚĮ
ĠÚªØ§ÙĪ ÚĻ
ĠÚĦÚ» Ø§
Ø§ ÙĬØ§
ĠØ§ÙĨÚ¯ ÙĦ
å¸ Ŀ
ĠÙ¾Ùº ÙĬØ§ÙĨ
Ġt Ã¼
ĠN E
ut s
ĠK T
ĠØ¨Ùĩ Ø±ØŃØ§ÙĦ
ÙĬÚª Ø§Ø±
ĠÙħØ§Ú» Ú¾ÙĪ
ä¹Ł æĺ¯
Ġà´ħ à´¸
ĠØ¬ ÙĩØ§ÙĨ
Ġl o
ĠØ± Ø¬
Ġole mas
ĠØ¬ÙĪØ§Ø¨ Ø¯Ø§Ø±ÙĨ
à´¦ à´°
åĪĽ æĸ°
ĠÙħØŃ Ø¨ÙĪ
åĪĨ éĴŁ
ĠÚ³Ø§ÙĦ Ú¾
ĠÙħÙĦ ÙĩÙĩ
Ġsa anud
ĠØ¬ÛĮ ÚĪØ§
ĠÙĤØ§ÙĨÙĪÙĨ ÙĬ
ĠÙĤ ÙĦÙħ
ĠÙĪØ¬ Ûģ
ĠÚª Ù¿
äº ī
Ġà´ļ à´°
Ġà´ĩ à´²
åĵª äºĽ
æ¥ ¼
ç§ĳ åŃ¦
ĠØ¨ ÙĨØ¯Ø±
ĠØ±ÙĩÙĨ Ø¯ÙĬ
Ġa ega
Ø§ÙĦ Ø±
ĠØ¹ ÙĨ
u a
ĠÚªØ±ÙĬ Ø§ÙĨ
è£¸ ä½ĵ
ĠÚªÙħ Ø²
ĠÚª Ø§Ø±ÙĬ
åĲĮ è¡Į
åħ¬ å¼ı
9 5
Ùģ Ø§Ø¸
Ø§Ø´ Øª
W S
è´ µ
ĠØ¨Ûģ Øª
ÚĬ ÙĦ
l le
ç¨ ®
ĠØ³ÙĨÚĮ ÙĬÙĨ
Ø§Ø¦ÙĨ Ø§Øª
ĠØŃØ³ Ø§Ø¨
i il
ĠØ§Ø³ Ùħ
àµĨ à´¾
Ø² Ø¯
ĠØ´Ø¹ Ø±
åħ¬ ä¼Ĺ
æ¦ ľ
ĠØµ Ø¯ÛĮ
ä¸į åĲĮ
à´µ à´ķ
à´ķà´£ à´®
en a
ĠÙ¾ ÚĳÚ¾
ing im
ĠÙ¾Ø§Ø±ÙĦÙĬ Ø§Ùħ
ĠÙĤØ¯ ÙĬÙħ
ĠØ³Ú© Ø±
Ġæ ²
ĠØ¨ÙĦØ§ ÙĪÙĦ
ÙĤ Ø¨ÙĦ
ĠÛĮ ÙĪØ±
Ġte hn
ÙĩÙĨ Ø¯Ø§
çİ¯ å¢ĥ
ĠÙĪÙĬ ÙºÙĦ
ood i
ĠÙħ ÙĨØ¯Ø±
ĠÙģ ÛĮ
ĠÙħØµ Ø±
ĠÙĦØ§Ú³ ÙĪ
ĠØ¯ Ú©Ú¾ÙĨ
Ð °
ĠØ¯ Ø¹Ø§
ãĢ Ĳ
Ùģ Ø§ÙĤ
Ġå½©ç¥ŀäºīéľ¸ app
ĠÙĩ ÙĬØ³
æİ§ åĪ¶
ĠÙħ ÙĬÙĦ
çĦ ¡
Ø¨ Ú¾
å® £
mise l
ĠØ§Ù¿ Ø³
ĠÙĪ ÚĪÛĮ
ĠØ¨ Ø¦ÙĨ
ĠØ± Ø®
çĭ ł
Ù½ ÙĨÚ¯
te d
ĠÙ¾Ø± Ø³Øª
ĠÚªØ¬ Ú¾Ùĩ
Ġal la
èĥ ¸
ĠØ®Ø§Ø· Ø±
à´µ à´¦
ĠØ§ÙĨØ³Ø§ÙĨ ÙĨ
ç» Ŀ
ĠÛĮÛģ ÙĪ
ĠÙģØ§Ø± Ùħ
çĨŁ å¥³
ä» ª
à´¸ à´¨
h it
Úª Ø´
ä½ľ ä¸º
æĹ Ĺ
èį ¯
ĠvÃ¤ ik
åĪ ĺ
ĠÙ¾ÙĬ Ù½
èĩªå·± çļĦ
ĠØ¬Ø¯ÙĪ Ø¬ÙĩØ¯
ĠÙħ Ø¨
ĠØ¯ÙĩØ´ØªÚ¯Ø±Ø¯ ÙĨ
e al
ä¸İ ä½ł
Â Ń
åħ¶ ä»ĸ
ĠÙħÙĨÙĩÙĨ Ø¬Ø§
ĠØ§ Ø¯Ø§Ø±
Ù¹ ÛĴ
ĠØ§Ø³ÙĦØ§Ùħ ÛĮ
Ġ é«ĺ
åĩ ı
Ġ ä¸Ĭæµ·
à´± à´¯
éĸ ĵ
Ġ ä¸ĭè½½
èĢģ å©Ĩ
Ø¬Ø± Ø²
ĠÚ¾ Ù¿
Ġle id
as s
ĠØ· Ø¨ÙĬ
ĠÚĮØ± ØªÙĬ
ĠÙħØ¹ÙĦÙĪÙħ Ø§Øª
ĠØ¢ ÙĨØ¯ÙĪ
3 2
Ø§Ø³ Ø¨
ĠØ§ÛĮ Ø¯ÛĴ
ĠÙĪØ± ÙĩÙĬÙĨ
ĠÙħÙĦÚª ÙĬØª
ĠØ§ ÙħØ¯
ÙĪÙħ ÙĬ
ĠÙ¾ÙĩÚĨ Ú»
ĠØ§ÙĬÙħ Ø§ÙĨ
ĠØ§ØªØŃ Ø§Ø¯
g r
Úª Ø±ÙĬÙĨ
èī ¯
å· ®
ĠÙº ÙĩÙĬÙĦ
ĠåĮĹäº¬ pk
ĠÃµ pet
ust ada
èĥ ľ
ĠØ±ÙĩÙĨØ¯ ÚĻ
Ø¯ Ø§Ø±ÙĬ
Ġà´ĵ à´«
Ø§Ø¦ Ø¨
ĠØª Ø³ÛĮ
ĠTall inna
çİ ī
Ġà´ħ à´°
ĠÚª Ø´Ùħ
Ġ il
å¤Ħ çĲĨ
å®¶ åºŃ
ĠÙĨ Ø±
Ġà´ħ à´Ļ
Ġs ur
ä» Ļ
å¤ Ł
åĨ »
ĠØ¯Ø± ÛĮØ§
äº ķ
Ø¨ Ø±ÙĬ
à´§ à´¨
ä½ Ļ
Ø§Ù¾ ÙĪØ±
å¿« ä¹Ĳ
ĠØ³Ùħ ÙĪ
ĠØ± ÚªØ§Ø±
Ø± Ø§Ø¬
h i
Ġo f
à´¬ à´°
Ġå½©ç¥ŀäºīéľ¸ èĥ½
ĠØ± Ø§Ú³
è¡Į ä¸ļ
ĠÙħÙĪÙĤ Ø¹ÙĪ
on t
ĠÙĪÚª ÙĬÙĦ
à´® à´¸
ĠÚªÙħ Ø±ÙĬ
ÙĬÙĨØ¯ Ø§Ø³ÙĬÙĨ
ikk u
Úı Ø§
éĶ Ļ
çļĦ æĺ¯
ĠÙĦÚ³ Ø§Ø¦ÙĬ
ĠÛģÙĪ ÙĪÛĴ
è¿Ļ äºĽ
Ġmil l
ĠØ´ Ø§Ø¯
ĠÙ¾ Ø§Ø¦ÙĬ
Ù¾ Ø§Úª
ĠÙĪØ§ÙĤ Ø¹
j ud
Ġlap se
åħĪ éĶĭ
ĠØ§ÙĬ ÚĬÙĬ
ĠÙ¾ÙĨ Ú¾ÙĨ
ĠÙĩÙĪ Ø§
èĥ½ åĬĽ
Ù¾ Ù½
aal ne
ÙĪ Ø§ÙĨ
ust atud
on i
Ġo ot
çª ģ
ĠÚĮ Ø§Ø±ÙĬ
çº ³
ĠÙ¿ÙĪ Ø±ÙĬ
ap Ã¤ev
ĠV Ãµ
ĠÙĦ Ø§Ø²
å¯ Ł
ĠØ± ÙĩÙĪ
Ġà´ħà´µ à´³
ĠØ³Ùħ ÙĪØ±Ø§
åİ ħ
ĠKT N
ĠØªØ¨Ø¯ÙĬ ÙĦÙĬ
ĠNE WS
àµ¼ à´®
ĠÙħØ®Øª ØµØ±
æ¯ Ĵ
ĠØ·Ø±ÙĬ ÙĤÙĬ
ĠØ¯ÛĮ ÙĨ
ĠÙģÙĬØµ ÙĦÙĬ
et k
ĠØ¨ ÛĴ
Ġkasut ada
Ġise gi
ä¸Ģ çĽ´
last i
Ø¨ Ûģ
ĠÙĪÙĬ ÚĻ
ĠÙħØ·Ø§ÙĦ Ø¨ÙĪ
Ùĩ Ø§Ø¦Ú»
æħ °
Ġà´¤ à´®
å½© ç½ĳ
Ġed asi
æĶ¯ æĮģ
Ġr iigi
ĠØ¬ÙĪ ÙĦ
ĠÙģØ± Ø¶
ĠÙĩØ² Ø§Ø±ÙĬÙĨ
ĠÙħØ¹Ø§Ùħ ÙĦÙĨ
ĠÙ¾Ø±ÙĪ ÙĬØ²
ä½ ³
ĠÙĤÙĪÙħ ÙĨ
ĠÚªÙĬØª Ø±ÙĬÙĪÙĨ
Ø²ÙĬ Ø²
å® ¡
ĠÚĨ ÙĦ
Ø± ÛĴ
t xt
ĠØ§ÙĤØª Ø¯Ø§Ø±
ĠØªØ´ Ø¯Ø¯
æĿ ¾
åĿ Ĺ
à´± à´°
ga v
çĸĨ æĹ¶æĹ¶å½©
ÚĪ ÛĮØ§
ĠØ§Ùģ Ø³ÙĪØ³
ÙĨÚĬ ÙĨ
Ġnim et
ĠØ³Ø§Ø¦ÙĬ Ù½
ç» į
Ġar en
ĠØ´Ùĩ Ø±ÙĬ
Ġaut o
c e
ĠÚĮ ÙĬØ¡
çĽ¸ åħ³
éĥ¨ åĪĨ
è Ĩ
çĶ °
Ġma jand
s in
ĠØ³Ø¹ÙĪ Ø¯ÙĬ
ĠÚ¯ÙĩØ± ÙĨ
ĠÙħÙĩÙĬÙĨ ÙĬ
ĠÚª ÙĦØ§Ùħ
val ite
ĠÛģ ÙĨØ¯ÙĪ
é¡ º
Ø³ Ø§Ø¨
ĠÙħÙĪ Ø³Ùħ
éŃ Ķ
ÙĦ Ø³
æĭ ©
Ġla i
ma ks
ĠÙĪ ÙĤ
çķ ¶
æ± ī
åį Ģ
ĠØ±Ú¾ ÙĬÙĪ
éº ¼
è¿ĩ ç¨ĭ
ĠÚĨ ÙĨØ¯
or e
ĠÙħØ³Øª ÙĤØ¨ÙĦ
Ġkor d
Ġh il
ĠÛģÙĪÙĨ Ø¯ÛĮ
ĠÙĨ ÙĪÙĨ
end us
à ¤
Ø´ ÙĬØ¯
ç« ¥
le m
Ġo rg
ĠÙ¾Ø± Ø§Ú»ÙĬ
Ã¼ r
éº »
å®ŀ çİ°
å®¢æľį çĶµè¯Ŀ
ĠÙħÙĨ Ú¾ÙĨØ¬ÙĬ
Ġl ug
of t
Ø§ÙĪ Ø§Úº
çĸ Ĺ
ĠÙħÙĨ Ø²ÙĦ
s k
ï¼ļ âĢľ
ĠS a
éĿŀ å¸¸
ĠØ³ Ø¹
ĠÚĮ ÙĪ
è¿Ļ æł·
k oh
åį «
Ġkaas a
ĠÚ© Ù¾ÙĬ
ĠØ²Ùħ ÛĮÙĨ
ĠÃ ķ
æīį èĥ½
çĬ ¯
Ġte ist
Ã¼Ã¼ s
ĠÙĪÙĬ ÙºØ§
r uk
ã ģ
Ù¾ Ø§ÙĨ
ĠØ¨ Ø²Ø±
ĠØŃ Ø§Ø¶
6 1
é ½
st it
å Ĺ
ĠÙĪ ÚĪÛĴ
a ast
Ġh ul
ise l
Ġpe a
ç§ »
ĠÙħÙĦ ÙĪ
ĠØ³ÙħØ¬ ÙĩÙĩ
Ġà´ħ à´ķ
çľŁ äºº
éĢ ²
à´ Ĵ
æ¬ §
ĠØ´Ùĩ Ø¨Ø§Ø²
æĽ ¾
à´± à´±
ĠR a
Ã¤r ast
Ġà´¤ à´Ł
ĠØ§ÙĦ Ø¯ÙĬÙĨ
S S
Ø§ ÙĬÙĨ
ĠÙħÙĨØª ÙĤÙĦ
å¼ Ł
at t
Ġà´ĩ à´Ł
ĠØ¨ÙĬ ÙĩÙĬ
Ġ ä¸Ń
ĠÙ½ ÚªØ±
åº ı
Ø¹ ÙĦ
ĠØ´Ø§Ùĩ Ø¯
çīĪ æľ¬
ĠÙº ÙĩØ±
ĠÚĢ Ø§Ø¦
èµ Ķ
çģ µ
ĠØŃÙĤ ÙĨ
ĠTart u
ĠÙĪØ§ÙĦ ÛĮ
ĠÚ¯Ùĩ Ú»Ø§
çĭ ¬
çĶ¨ æĪ·
å¹ »
çĭ Ĥ
ĠÚĢ ÙĪ
Ġal ati
ĠÚĨØ§Ùĩ ÙĬÙĪ
éĻ Ī
ĠvÃµ iks
ĠØ± Ø§Ûģ
æ ¤
ç¤ ¼
ç¬¬ äºĮ
ÙĦÙĬ ÙħÙĬ
è¨ Ĭ
Ġp la
ĠØ§ ÚªÙĬ
é¥ °
ä¸į åĪ°
ĠÙĩÙĦ Ú»
èĦ ±
er e
ĠÙ¾ÙĬØº Ø§Ùħ
ÙĪ Ø²
Ø³Ùħ Ø¨Ø±
ĠÚ¯Ùĩ Ú»
åĳ ¢
sioon i
ĠØ¹ Ø«
à´ŀ à´¤
Ġpr obleem
ä¸İä½ł åĲĮè¡Į
ĠÙ¾ ÙĦØ§ÙĨ
ĠÚ© Ú»Ú»
ĠØ±ÙĬÙĨ Ø¬Ø±Ø²
æ³ °
ĠØ¯ ÙĪÙĦØª
å°ı èªª
Ġkor da
Ø§ÙĦ ÛĴ
æĢ§ äº¤
ĠR e
æĢ§ æĦŁ
è® Ń
ĠØ§ÙĪÙĨ Ø§Úº
it akse
çĬ ¶
ĠØŃÙĬ Ø§Øª
ĠØŃÙħ ÙĦÙĬ
Ġ ä¸ľ
ĠØ¯ÙĪ Ø³ØªÙĬ
å¸ ®
ĠÙĨØ§ÙĦ Ø§
ĠØ³ Ø§ÙĩÙĩ
ĠØŃÙħ ÙĦÙĪ
æĻº èĥ½
èĤ ¥
ĠØ¨ÙĦÚª Ùĩ
Ġh ind
ĠÚ©ÙĪ ÙĦÙĬ
ÛĮ Ø§Øª
ĠØ§ÙĨØ¬ ÙĨÙĬ
Ġmu us
ĠM ic
Ø¬ ÙĨÙĩÙĨ
è®¾ å¤ĩ
ĠA ga
åī ¯
em ad
ik ul
201 2
7 5
å³ °
ĠÚ¦ Ø±
à´ª à´¯
ĠÙħÙĦ ÚªÙĬ
Ø³ ÙĬØ¡
Û ³
æ³ ½
ak on
Ú¾ ÙĬØ¡
Ø« ÙĬ
ç¬ Ķ
ĠØ§ÙħÙĬØ¯ ÙĪØ§Ø±
ãĢĤ ï¼Į
ĠÙĨÙģ Ø±Øª
ĠhÃ¤ sti
ĠÙĪÙģ Ø§Øª
ĠØ¢ Úª
å½©ç¥¨ ç½ĳ
ĠÙĪØ§Ø± ÛĮ
æĪĲ åĬŁ
Ø¯ Ûģ
Ġà´° à´ķ
Ùĩ Ø¬ÙĬ
é¤ Ĳ
ogr amm
åħį è²»
et akse
è¯ ¾
ĠÙģØ§Ø¦Ø± ÙĨÚ¯
ĠÙ¾ÛĮ Ø´
Ġå¤§åıĳå½©ç¥¨ å®ĺç½ĳ
ĠÙĨÙĪÙ½ ÙĬØ³
ĠØ§ ÙĬØ±Ø§ÙĨ
ĠÙħÙĤØ§Ø¨ ÙĦÙĪ
å¦Ī å¦Ī
ĠØ¢ Ø±ÙħÙĬ
p o
ĠØª Ø±Ùħ
ĠÙĪÚĮ ÙĪ
ĠÙħ Ø¨Ø§Ø±
ĠÙħÙĪ Ù½ÙĬ
uk e
Ø§Øº Ø°
ĠØ°Ø±ÙĬ Ø¹ÙĨ
ĠÚĨ Úª
åį ´
à´ľ à´¯
ĠÙħ ÙĨÚ¯
ĠÙĨÙĪ Ø§ÙĨ
Ø§Ø³ ÙĪÙĨ
æĺ¯ åĲ¦
ĠÙĪØ§ÙĤ Ùģ
ĠÙĩÙĬÙĨ Ø¦Ø±
ĠÚªÙĬ Ùģ
Ġå½©ç¥ŀäºīéľ¸ å®ĺç½ĳ
ç¬ ĳ
ĠÚĢ ÙĦ
Ø´ Ø±
se id
ĠØ¢Ø± Ø§Ùħ
ĠÙĪÙ½ Ø§ÙĨ
ĠÙħØ± Øª
as k
ĠÙ¾Ø§ ÚĻÙĬ
èĪ ¬
à´¡ à´¨
éĽ Ħ
åĩ »
Ã¼ steem
ĠØ§ Ú¯Ø±
ç½ĳ ä¸Ĭ
ĠØ¹ Ø¨Ø§Ø¯
Ø¬ ÙĬÙĨ
æıĲ é«ĺ
um b
ĠÚ©Ø±ÙĨ Ø§
ÙĪ Ø¯
æ¢ ħ
ĠØŃ ØµÙĬ
ĠÙĩÙĪÙĨ Ø¯ÙĬÙĪÙĨ
un i
ĠØ®Ø§ÙħÙĪ Ø´
ĠÙħ Ù½
ase lt
ĠÚ¯Ú¾ ÙĪ
is id
ĠØªØ®ÙĦÙĬ ÙĤ
ĠÚĨÙĪÙĨ Ø¯Ø§
ĠÚªÙħ Ù¾ÙĨ
ĠØ® Ø¯
ĠØªÙĤ Ø±ÙĬØ±
ĠØ¢ Ú»
ä¸ ģ
se te
ĠÚªØ±ÙĬ ÙĪÙĨ
20 10
Ġà´ŀ à´Ļ
è®¤ è¯ģ
è ľ
Ġs uv
ĠØ¬ÙĬ Ø¦
æģ ĭ
ĠØ±ÚªØ§Ø± ÚĬ
æĸ¹ æ¡Ī
ä¸ĵ å®¶
ĠØ§ Ø¨Ø±
ĠÙĤ Ø±ÙĬ
Ġval mist
Ġv iis
ĠL a
ĠÙħÙĩ ÙħØ§ÙĨ
Ġva jal
Ø§Øª ÙĦ
åįķ ä½į
Ġà´ı à´¤
èĭ ¥
æħ ¢
ĠØŃÚ© Ùħ
åĺ Ľ
æİĴ è¡Į
ĠØ±Ù¾ ÙĬÙĨ
Ġsam uti
201 1
Ġtug ev
æľĢ é«ĺ
ĠØŃ ÙĬØ±Øª
è· ĳ
ĠØ¯ÛĮ ØªØ§
ĠÙĨÚª ØªÙĪ
ĠØ¯Ùģ Ø¹ÙĪ
ĠÚ¯Ø§ ÚıÙĬ
Ġpe al
ĠrÃ¤Ã¤ k
ĠÚĨ Ù¾
åĪ ļ
ĠÛģ ÙĨØ¯
ĠØ±Ú© ÙĨ
åħ³ äºİ
æĳ ©
ĠØ³ÙħØ¬ ÙĩÙĬÙĪ
ĠjÃ¤r gi
ĠÙ¾ÙĪØ± ÙĩÙĬ
ĠpÃ¤ev a
ĠØ¬ÙħÙĩÙĪ Ø±ÙĬØª
ĠØ§ÙĪ ÚĢØ±
Ø´ ÙĬØ±
Ø¯ÙĪ Ø¯
ĠÙħØ±Úª Ø²
æľº æŀĦ
Ġ ilma
r u
èĦ ļ
ĠØ¬ÙĨ ÛģØ§Úº
Ùĩ Ùħ
ĠØ§Ùħ ØªØŃ
æĺ¾ ç¤º
ĠvÃ¤ ike
ĠÙħÙĩÙĬÙĨ ÙĨ
ÙĬÙħ ÙĨ
ä¸ª äºº
ĠÚ¯Ú¾ Ù½
Ġp ool
ĠÚĨ ÙĬÙĨÙĬ
ĠØ³ÙĪÚĨ ÙĬÙĪ
ĠÙħÙĦ Ø¦ÙĬ
ros oft
ĠØ¬ Ø±
Ġse ot
Ùİ ØĮ
Ġas ja
çĪ ¸
ÚĪ Ú¾
ĠÙħØŃØª Ø±Ùħ
ĠØ§ØŃ ÙĪØ§ÙĦ
ĠØªÙĩØ° ÙĬØ¨
ĠÙĩÙĪ Ø§Ø¦ÙĬ
æĺİ æĺŁ
ed e
æŃ£è§Ħ åĲĹ
ÚĻ Ø§Ø¦ÙĬ
Ġte h
åĲ «
Ġes im
æļ ĸ
Ġmaa ilma
åĬ© æīĭ
æī §
ĠÚ©Ú¾ÛĮ ÚĪ
Ø´ Úª
ĠØ´ Ùģ
åħ¬ä¼Ĺ åı·
Ø§ÙĦ ÙĦÙĩ
Ġ ç¾İ
Ø§Øª ÙĨ
ĠÚĢ Ø±ÙĬÙĦ
Ġà´ ĸ
ä½ľ åĵģ
ĠØªØ¨ Ø§ÙĩÙĩ
se ks
ise er
ĠÚªÙħÙ¾ ÙĨÙĬ
ĠÚ¯Úı ÙĪÚ¯
3 9
Ġà´ª à´¦
Ġt u
ĠÚĨ ÙĨÚĬ
ĠØªÙĨÙĩÙĨ Ø¬ÙĪ
ä»ĭ ç»į
¯ä» ĺ
ĠÚ¯ÚıÙĪÚ¯ Úı
ĠÙħØª ØŃØ¯
Ġku j
è¿ °
m at
æľī äºº
ĠÙ¾ÙĬØ± ÙĨ
å®Į ç¾İ
ĠØ³ Ø±ÙĬ
ĠÙĪØ¬ ÙĩÙĬ
å° ļ
se l
æľī ä¸Ģ
ĠÙĦÙĬÚª ÙĨ
ĠÚªÙĪ Ø¦ÙĬ
a f
ĠØªÙĬ Ø¦ÙĨ
Úª Ø±Ø¯
èı ²
Ġte at
ut ada
n ast
ĠØŃ Ø§Ø¯
ĠvÃµtt a
æľ Ŀ
ĠÚª Ø§Ø¦ÙĨØ§Øª
ĠnÃ¤d al
ĠÚĮ ÙĨ
Ġme ele
Ġ åħįè´¹
ĠÚªØ±ÙĪ ÚĻ
ĠÙĪ ÙĬÙĨØ¯ÙĬÙĪÙĨ
æŁ Ĳ
ĠØ¨ÙĬ ÙºÙĦ
Ġ å¥½
ĠÙ¾Ûģ ÙĦÛĴ
å¯ ¦
Ù Ĵ
ĠØ¨Ú» Ø§Ø¦Ú»
Ġva ad
ĠÚĬØ± Ø§Ø¦
k us
ĠÚĨÙĪÙĨ Ø¯ÙĪ
Ġà´ª à´Ł
ä½ľå¼Ĭ åĻ¨
ĠØ¢Ø²Ø§Ø¯ ÙĬØ¡
ĠÙ¾ÙĩØ±ÙĬ Ø§ÙĨ
ĠÙĪØ² Ø§Ø±Øª
ĠØ¢Ø³ ÙħØ§ÙĨ
Øª Ø§Úº
Ãµ Ãµ
Ġle i
Ø¨ Ø§ÙĨÙĬ
è° ¢
ĠÙħÙĨ Ø§Ø³Ø¨
à´£ à´¤
à´ķàµ¾ à´ķ
åĬŁ èĥ½
ĠÙħÙĦ ÙĨ
à´ª à´Ł
éĽ ª
æ¢ ¦
çļĦ å½©ç¥¨
ĠÙ¾ ØªÚ¾
éĢī æĭ©
å½± åĵį
åĨ» ç»ĵ
å» ¶
ä¿Ŀ æĬ¤
ĠvÃµ ist
çĽ Ł
ĠØªØ¹ ÙĦÙĬÙħÙĬ
ĠØ§Ø®Øª ÙĦØ§Ùģ
ĠØ¬ÙĬ Ø³ØªØ§Ø¦ÙĬÙĨ
ÙĦ Ø§ÙĩÙĪØ±
ĠØ¬Ùĩ ÚĻÙĨ
Ø§ÙĨ ÛĮØ§Úº
Ġko he
ĠØ¬ Ø§Ùħ
Ø§Ù¾ ÙĬ
äºº å¦»
Ø§ÙĨ Ø¡
un e
in da
Ø§ÙĨ Ú¾ÙĨ
çĶµ è§Ĩ
ĠÙ¾ Ù¿Ø±
å¤ ı
Ø³ ÙĪÙĨ
ĠÚªÙĦ Ø¨
ĠÙħÙĬ Ø²
Ġme es
æ´ Ĺ
Ġr av
å¼ Ĥ
/ /
çķ ª
å¹¸ è¿Ĳ
v ate
ĠÙĤ Ø§Ø¶ÙĬ
ĠÙĨ Ø¨ÙĬ
ĠØ¹Ø¨ Ø§Ø³ÙĬ
Ġav ald
ĠÃµ nn
å¤§åıĳ å±ķ
æĭ ¬
âĢľ ØĮ
ĠØµÙĪ ÙģÙĬ
çĽ Ī
ĠtÃ¤ na
æī £
em e
S A
äºº åĳĺ
ĠÙ¾Ûģ ÙĦÛĮ
ĠØ§ÙĬ Ø¬ÙĨ
ĠÙħØªØ¹ ÙĦÙĤ
ĠØ±ÙĪØ´ ÙĨÙĬ
à´¨ à´¨
ĠØ§ØŃØª Ø³Ø§Ø¨
çº ¸
id i
ĠØªØ±Ø¬ ÙħÙĪ
àµ¼ à´Ł
è» Ĭ
ĠÙ¾ÙĪ Ø¦
ÙĦ Øª
ĠØ³ÙĪ Ø´ÙĦ
m u
ĠØªØ¹ ÙħÙĬØ±
Ġk ultuur
ĠÙĤ Øµ
Ġselle s
ĠØ´ Ø±ÙĬÚª
é ¬
ĠÚ©ÙĬ Ø±
m i
ĠØ§Ø¹ Øª
åŃ¦ æł¡
Ġå¤§åıĳå¿«ä¸ī å¼Ģå¥ĸ
ç¨ İ
ĠÚı Ùº
ĠÚ©ÙĨ ÙĬÙĪ
Ã ĥ
Ġå¤©å¤©ä¸Ńå½©ç¥¨ èĥ½
åĪ ¸
ĠØªÙĬ ÙĦ
éĤ£ ä¸ª
åı¯ä¿¡ åĲĹ
Ø¨ ÙĪÙĦ
éĽ ¨
åª Ĵ
Ġp ol
æ´ ¥
ĠØ¨Ø± Ø³
s us
is aks
ĠØŃØµ Ûģ
ĠØŃÙĤÙĬ ÙĤÙĬ
ĠÚª Ø§ÙĨÚ¯
Ø§ÙĦ ÛĮ
å± ģ
Ùĩ ÙĦ
ĠØ¹Ø« ÙħØ§ÙĨ
ĠvÃµ it
lan eer
ĠØ¢ Ú»Ú»
åįģ åĪĨ
ĠØŃÙħ Ø§ÙĬØª
ĠÙĨ ØµÙĬ
n er
ĠØ³ÙħØ¬ ÙĩÚ»
åĨħ å®¹
ĠØ¨ Ø¬ÙĬ
Ø§ÙĦ ØŃ
Ø´ÙĨ Ø±
ĠØ¯Ø¹ÙĪ Øª
é¦ Ĩ
Ø§ÙĨ Ùĩ
ĠØ§ÙĨØ³Ø§ÙĨ ÙĬØª
Ġp ik
å¥ ´
æķĻ å¸Ī
ĠÚ© ÛĮÛģ
v it
ĠK as
ÚªÙĬ Ø´ÙĨ
ĠÚ¯Ú¾ Ú»ÙĪ
Ġs al
à´® à´²
ĠÚª Ø§Ø±ÙĨ
Ġà´Ĵ à´´
ĠØ³ Ø§Ûģ
Ù¾Ø§Úª Ø³ØªØ§ÙĨ
è¶³ å½©
åº §
Ġk eel
A PP
c t
ĠØ³Ùħ ÙĨØ¯Ø±
éģ ĩ
Ø±ÙĬ Ø³
ĠÚª Ú¾
Ġvah et
Ġ ÙĬÚª
Ġme il
éķ ·
ud u
ç² ī
å¨±ä¹Ĳ å¹³åı°
ĠØ§ Ø¦
Ġka itse
ĠÚı ÙĬÙĪ
è± Ĩ
ĠÙħÙĤ Ø§ÙħÙĬ
ĠØ« Ø¨ÙĪØª
ç ¹
ĠÙĪØ§Ø±Ø« ÙĨ
Ġseot ud
Ġp Ã¶Ã¶
ĠÙ½ Ø±
å¨ ĺ
al ist
ĠÙ¾ÙĨØ¬Ø§Ø¨ ÛĮ
ĠÙ¾Ø§Ø¨ ÙĨØ¯ÙĬ
Ġà´¨ àµ½à´ķ
Ġs ul
Ø¨ Ø²
st a
ĠÙħØ¹ ÙĬØ§Ø±
Ú ¦
Ġ åįĹ
âĢĿ ãĢĤ
ĠÙħÙĪÚªÙĦ ÙĬÙĪ
Ø§Ú» ÙĬÙĪÙĨ
åĽ½ åĨħ
Ø§Ø³ ÛĮ
ĠØ§ÙĨØ¬ÙĨÙĬ Ø¦Ø±
ud el
Ġtut v
ĠÚıØ³ ÙĨØ¯ÙĬ
ç» ¿
ust ega
ĠØ§ Ù¿ÙĬ
i f
åıĳ å¸ĥ
ĠK r
ÙĪÙĨ Ø¯
Ġå¤§åıĳå¿«ä¸ī å½©ç¥¨
Ġin imesed
4 9
ĠÙĨØ§Úª Ø§Ùħ
Úĩ Ø§
è´¦ åı·
Úª ÙĬÙĪ
ĠÙĪØ§Ø³ Ø·ÙĪ
ĠÙ»Ø§ÙĩØ± Ø§ÙĨ
ĠÙĨÚ¯ Ø±Ø§ÙĨ
h h
ee gi
ĠØ¨Ø± Ø§Ø¯Ø±ÙĬ
ĠÙħØº ÙĦ
éĢģ éĴ±
Ġ ide
ĠÙĪÛĮ Ú©Ú¾
ĠÙħØ³Ø§Ùģ Ø±
ĠØ¨Ú¾ Ø§Ø±Øª
çĶµ åŃĲ
imise ks
Â »
ĠÛģÙĪÙĨ Ø¯ÛĴ
a ga
Ù½ ÙĬÙĪÙĨ
Úª Ø±ÙĨ
Ù¿ ÙĪ
Ġr u
å« ©
Ġæµ ·
ĠØ¬ Ø¯Ø§
ĠÙħ Úĩ
Ġ åľ¨çº¿
ĠØ³Ú¯Ùĩ ÙĪÙĨ
ĠÙħØ¹Ø§Ø´ Ø±ÙĬ
ĠÙħØŃØ¨ÙĪ Ø¨
ĠÙĩ Ú»
ĠÚ© Ù¾
Ġha ig
ĠØ§Ú³ÙĪ Ø§Ú»ÙĬ
ĠÚ¯Ùĩ Ø±ÙĬ
ĠÚ¦ ÙĦ
ĠØ§Ùħ Ø±
Ø¸ ÙĬØ±
åŃ¦ ä¹ł
ÚĨ ÛĮ
ĠØ¨Ø±Ø¯ Ø§Ø´Øª
Ø³ Ùģ
7 8
E esti
ĠÙĪ ØŃ
ĠØ³Ú¯ÙĩÙĨ Ø¯ÙĪ
ÚĪ ÛĮØ§Úº
ĠÙĩ ØªØ§ÙĨ
ĠØ³Ú¯ ÙĩØ§ÙĨ
ĠÚıÙĨ ÙĬÙĪÙĨ
Ġte kk
il iselt
ĠØ¹ ÙĬØ³
ĠÙħÙĪ Ø³ÙĬ
èĳ ¡
ĠØ¢ ÙĦ
ĠØ§ÙĬ Úĩ
èĩª æħ°
p i
ĠØ¨Ø± ÙĤ
æĳ ¸
é» ŀ
Ø§Ùģ Ø¸
èµĮ åľº
Ø¬ Ûģ
Ġsiis ki
ĠØ¯Ùģ Ø¹ÙĬ
ĠÙĪÙĪ ÚĬ
ĠÙĩ ÚĻ
Ø¨ ÙĬØ±
Ġin ter
æĬ ĵ
Ø± Ø²
ĠvÃ¤Ã¤r t
è® ĵ
ĠÙħØŃ ÙĦ
çİ° åľº
ĠÙĤØ¨ Ø¶
åįļ å½©
Ø§Ø¯ Ø§
Ġqq å¤©å¤©ä¸Ńå½©ç¥¨
oo g
Ú© Ø§Úº
ĠÚ³ Ø§ÚĻ
ĠÙ¾ ÙĬØ³
Øª Ø±ÙĬ
ĠÙ¾ Ø§ÙĨÛĮ
åĢ Ł
ĠØ§ÛĮÙĨ ÛģØ§Úº
çĭ ¼
à´± à´²
ĠØ±Ùĩ Ø¬ÙĬ
èĥ Į
èĹ ı
Ġv ald
Ġà´¨à´Łà´ª à´Ł
ĠÙħØ± Ø¶
çĶ ³
åħ¶ ä¸Ń
ĠØ¬ Ø¨ÙĦ
Ġmaa ilm
Ø´ ÙĪØ±
äº¤æµģ ç¾¤
åĮħ æĭ¬
å¯¹ äºİ
Ġke ele
ĠÙħÙĩ Ùħ
ĠØ¬ Ø¹
Ġkes kkon
ĠØ§ Ø²
èĮ ¶
ç¦ı å½©
æ° ¸
ä¸Ń äºĨ
Ġæĸ° çĸĨæĹ¶æĹ¶å½©
ĠÙ¾ÙĪØ± Ø§
Ġin imese
Øµ ÙĦ
ć ï¼Į
åĩº çİ°
ust us
ĠØ¯ÙĦÚĨ Ø³Ù¾
Ø§ ÛĮØ§
å® ¾
ä»· æł¼
Ø±ÙĪ Ùħ
ĠÙĩÚª Ù»Ø¦ÙĬ
Ġl ub
Ø· Ø§Ùģ
ĠÚĢ Ù½ÙĬ
Ø§Ø³ Ù½
ĠÙĪØ§ Ù½
ĠÚĢ Ø§
Ø§Ùħ Øª
ĠÙ½ Ø§Ø¦ÙĬ
ĠÙ¾ ÚĮ
ik ut
ĠØ§ÙĦ Ùħ
Ġes imese
ĠØ® ÙĪÙĨ
ĠØ³ Ø¤
ĠÙħØ³Ø¦ ÙĦØ§
à´° à´Ł
ĠMic rosoft
Ġr ak
ĠÙģØ· Ø±Øª
èģ ĺ
ä¹ħ ä¹ħ
ç» §
à´µ à´£
ĠØ¬ÙĬØª Ø±ÙĪ
ĠØ§ÙĪÛģ Ø¯ÛĮ
ĠÙĤØ±Ø¨ Ø§ÙĨ
Ø³ ÙĦØ§Ùħ
Ġ çĪ±
ĠÙĪØ§ÙĦ Ø§
Ø® Ø§ÙĨ
Ġvee b
ĠØ³Ø§ Ù¿ÙĬ
ä¸įä¸Ń è¿Ķ
ĠØ¬Ø§ ÙĪÛĴ
ĠØ± Ù¾ÙĪØ±
è¯± æĥĳ
Ġkon tr
ÙħÙĪ ÙĦÙĬ
ĠØ®Ø· Ø±ÙĨ
ĠÚª Ø§ØºØ°
ĠØ³ÙĨÚĮ ÙĬØ¡
Ãµ ig
ĠÚªØ§Ø±ÙĪ Ø¨Ø§Ø±
è¾ĵ äºĨ
ĠÙħÚª Ø§ÙĨÙĬ
ĠÙħØ¹Ø§Ø´ ÙĬ
Ã¼ m
Ġp aar
ĠÚªØ§Ø± ÚªØ±Ø¯
å°ı å§Ĳ
oon i
ĠÙ¾Ø§Ø³ ÛĴ
ĠÙĦ Ûģ
æĶ ¯ä»ĺ
ĠØ¹Ø¨Ø§Ø¯ Øª
ĠÚªÙĨØ¯ Ø§Ø³ÙĬÙĨ
ĠÙħØ´ Ø±Ùģ
ĠÚªÙĩØ§Ú» ÙĬÙĪÙĨ
Ġ å¿«ä¸ī
æ¥ Ń
Ġs ama
ĠØ§Ùĩ ÚĻÙĬÙĪÙĨ
ĠÙħÙĦ ÙĨØ¯ÙĪ
ĠØ§ÙħØ¯ Ø§Ø¯
è¿Ŀ æ³ķ
à´² à´Ļ
6 5
ĠØ§Ø¹ ØªÙħ
éĩĮ éĿ¢
ĠØ·Ø¨ ÙĤÙĬ
ĠÚ¯Ø±ÙĪ Ù¾
ä» ¤
Ġn ah
Ø¯ ÙĦ
ĠØ· Ø±Ø§Úº
ĠØ¶ÙĦ Ø¹
ĠÚı ÙĬØ§Ø±ÙĬ
Ù¾ Ø§ÙĦ
ĠÙĪØ³ Ø§Ø±ÙĬ
ĠÙĨÙĬ Ùº
àµ» à´¸
200 8
åĪ ł
ĠØŃ ÙģØ§Ø¸
Ġk and
ĠÙ¾ÙĪ Ø³Ù½
ĠÙĩÙĦ Ø§Ø¦Ú»
ĠØ¢ Øº
Ġe lekt
Ø§Ø¦ ÛĮÚº
Ġa val
Ġe ri
Ġko mm
ĠÚıÙĪ ÙĩÙĩ
eer i
à´ķ à´Ł
ĠÙħÙĨ Ø¹
ä¸ ²
Ġ ç¦ıåĪ©å½©ç¥¨å¤©å¤©
Ġvaja d
ĠÙħØ§Ø± ÚªÙĬÙ½
Ø´Ø§ ÙĪØ±
it av
è´´ åĲ§
ÙĪÙĦ Ø§
ĠÙĪ ÚĦ
ĠØ¹ÙĪØ±Øª ÙĪÙĨ
ĠÚª Ø§Ø¦ÙĪÙĨ
ä¸Ńå¥ĸ å½©ç¥¨
va id
Ġç½ĳ æĺĵ
3 00
ĠÙ¾ÙĨ ÚĮ
æłĩ åĩĨ
Ġlah end
ĠØ±ÙĬÙĦ ÙĪÙĬ
ald ab
ĠÙĨÙĪØ¬ÙĪ Ø§ÙĨÙĨ
ĠØ³ÙĨÚ¯ Ø§Ù¾ÙĪØ±
Ġk an
ĠÚª Ù½
ÙĪÙħ Ø¨Ø±
ÚªÙĪ Ù½
u e
ĠÙ¾ÛĮ ÙĪ
ÙĨÚĬ ÙĬ
ĠÙħ Ø§Ø³
àµģ ,
Ġà´İ à´Ļ
æĿ¥ çļĦ
Ġå½©ç¥ŀäºīéľ¸ å¿«
ust ele
æł¹ æį®
à´ĺ à´Łà´¨
ĠØ§Ø® Ø¨
ater jal
æŃ£è§Ħ çļĦåĲĹ
ar v
é¡ »
ÙĤ Ø±
ĠÙĨØ¸ Ø±ÙĬ
18 0
er s
ĠØ´ Ø±Ùħ
ĠÙħ Ø§ÙĬÙĪ
ĠÚĢÙĬ Ú»
æ¹ ¾
ĠØ§ÙĪÛģ ÙĨÙĪÚº
ĠØ¹Ø§ÙĦ ÛĮ
ĠØ¯Ùħ Ø§Øº
Ø§Úª ÙĨ
Ġk l
ç»Ī äºİ
ah v
ĠØ§Øª ÙģØ§ÙĤ
éĤ ĵ
ust est
use id
æĳ Ħ
åģ¥ åº·
ĠØ§Ø³Ø§ÙĨ Ø¬ÙĬ
Ġå½©ç¥ŀäºīéľ¸ èĭ¹æŀľ
ĠØ®ÙĬØ± Ù¾ÙĪØ±
Ġrahv us
à´¹ à´®
Ġ æľĢæĸ°
å° ½
å¹´ çļĦ
Ġæ ŀ
Ġte htud
è´¨ éĩı
ĠÙ½ ÙĬÙĨ
ĠØ±Ú©Ú¾ ÛĮØ§
å±ŀ äºİ
ĠÚĪ ÛĮ
ĠØ³ÙĬÙĨ Ù½Ø±
ï¼Į âĢľ
ĠÙ½ Ø§ÙĦ
å¤« å¦»
éĶĢ åĶ®
ĠÙĦ ÙĩÙĬ
am is
ĠÙħØ± Ú©
ĠÛĮ Ø±ÙĪØ´
åĪ »
ĠØ¯Ø± Ø³Øª
èª ī
ĠØ¨ÙĬ Ú¯
ĠÙĤÙĬ Ø§Ø¯Øª
å® ľ
Ø§ÙĦ Øª
Ġh ool
qq ç¾¤
ĠÛģ Ú©
Ġk valite
ĠÚ³ÙĪÙĦ Ø§
se st
ĠØ¹ÙĦ ÙħÙĬ
è®° èĢħ
à´Ļàµ¾ à´ķ
Ø§ÙĨ Ûģ
Ãµ ige
éĵ¶è¡Į åį¡
Ø§Ø¨ ÙĬ
Ġåħ¨ æ°ĳ
ĠØ¹Ø± Ø¨ÙĬ
ĠÙ¾Ø±ÙĪÙģ ÙĬØ³Ø±
ĠØ§Ùĩ ÚĻÙĬØ¡
ust ab
ĠØ±Ø§Ø¬ Ø§
è¯ Ģ
Ġma g
ĠlÃµ pet
æĸ° éĹ»
Ù¹ ÙĨ
ĠS t
ĠØ±Ø¶ Ø§
ĠÙĨØªÙĬ Ø¬ÙĪ
ĠÃ¼m ber
ĠØ¹ÙĦÙĬ Ùĩ
l m
ĠØ¹ ÙĤÙĦ
ĠtÃ¶Ã¶ d
è¾ĵ éĴ±
ÚĪ Ø±
ĠÙħÙĦÙĬ ÙĦ
Ø±ÙĬ Ø¨ÙĨ
ĠØ³Ú³ ÙĪØ±ÙĨ
ĠÚ¾ ÙĦ
ĠØªØ±Ùħ ÙĬÙħ
åĨ ·
20 00
ĠÃµig us
å¥³ åŃ©
or g
Ġ å¦Ĥä½ķ
èĵ Ŀ
ĠØªØ¹ Ø§ÙĦÙĬ
ek ti
å¤§åıĳ å®ĺç½ĳ
ĠØº Ø²ÙĦ
ĠÙħØ®Ø§ÙĦ ÙģØª
ĠØ±ÙĬ ÚĬÙĬÙĪ
éļ ľ
Ø¨Ø± Ø¯
ĠÙ»Ø§Ø± ÚĻÙĨ
ĠÚ¯ ÙĪÙĨ
ĠØ¨ÙĬÙĨ Ø¸ÙĬØ±
è£ ¤
à´µ àµ¼
å¤§å°ı åįķåıĮ
Ġ Q
ĠÚ©ÛĮ ÙĪÚº
æļ ´
Ġæ ¸
f a
et t
æĶ¿ çŃĸ
ĠØªØ±Ø¬ ÙħØ§ÙĨ
ĠØ´Ø§Ø¹ Ø±ÙĨ
Ġæĥ ħ
ĠÚĢ Úĥ
å¥ ¥
ĠØ³ÙĨÚĢ Ø§ÙĦ
å¼Ģ æĮĤ
éĴ ¢
ĠÚªÙĨ Ø§Ø±ÙĬ
ol li
Ġå¤©å¤©ä¸Ńå½©ç¥¨ åı¯ä»¥
ĠÚĢ Ù½
ĠÙ¾ÙĬ Ø¦Ú»
åıĳ çİ°
ĠØ¨Ø¯ ÙĨ
çĽ´ æİ¥
ĠØ¹ Ø°
ĠÚ¯ ÛĴ
Ġkind lasti
Ø±ÙĬÚª Ù½Ø±
ĠØ³ÙĦØ§Ùħ Øª
ĠÙĦØ§Ú³Ø§Ù¾ ÙĬÙĦ
å¼Ģ å±ķ
Ġann ab
ĠØ§ÙĦ Ø§Ø¦ÙĬ
12 8
ĠÙĩØ¦ ÙĪ
é Į
åħ µ
ĠÙ¾ ÙĬÙĨ
ĠÃ¼tle s
ĠØ´Ø§ÙĨ Ø¯Ø§Ø±
àµĨ âĢĭ
ĠØŃØ§Úª Ùħ
ï¼ļ ãĢĮ
ĠÚĨ ÙĪØ±
çº¢ åĮħ
é¡ ¶
ĠØ±Ú© ÙĬÙĦ
ĠØ§ÙĨØ¯Ø§Ø² ÙĪ
èº« ä»½
ĠØ¹ ÙĬØ¯
åºĶ çĶ¨
ĠÙĪ Ø¯
v od
Ġå¤©å¤©ä¸Ńå½©ç¥¨ä¸Ń å¤§å¥ĸ
ĠÚ©ÙĬ Úı
å®ĺæĸ¹ ä¸ĭè½½
ĠÙĬÙĪÙĨÙĬÙĪØ±Ø³Ù½ ÙĬØ¡
ä¸Ń çī¹
è´£ ä»»
Ġpa ig
çĪ ½
ĠØ¬ ØªØ§ÙĨ
å° Ĭ
ĠÙħØ± Ú»
ik as
ÛĶ [
æĭ ħ
ĠØ§Úª Ø¨Ø±
ĠØ¢Ùģ Ø±ÙĬÚªØ§
ĠØ§ ÚĢ
à´ķ à´µ
h el
Ø±ÛĮ ÙĨ
ç²¾ åĩĨ
ĠÚªØ´Ùħ ÙĬØ±
å¦¹ å¦¹
ĠlÃ¤ he
à´¤ àµ½
ĠÚı ÙĩÙĩ
Ø§ØŃ Ø¯
ĠÙħÙĪÚª ÙĦÙĬ
ĠÚ© ÙĨÚĬ
ç į
æĪĳ åĢĳ
ĠÙħØ§Ú» Ú¾ÙĨ
Ġte e
ĠÙĪ Ø¶
un n
à´¸ à´¤
Ġjuh ul
Ġuu e
ĠØ§ÙħØªØŃ Ø§ÙĨ
ĠTall inn
Ù¾ Ø§
ĠÚªÙĨØ¯ ÚĻÙĨ
ĠØ± Ø§Ø²
ĠØ¬ Ø²
æ¶Ī è´¹
Ø§Ø¦ÙĬ ÙĦ
Ø³ÙĦ ÙħØ§ÙĨ
ĠØ¢ Ú©Ú¾ÛĮØ§
å½± çīĩ
ek ord
o w
ÙĬÚª Ø±
ar k
ĠvÃ¤r v
Ø¬ÙĬ Ø¯
se is
ĠØ§ÙĪ Ø¯ÛĴ
ä¸Ģ äºĽ
m es
ĠÚ©Ø± Ú©ÛĴ
à´£ à´¨
d i
ĠÚĨÚ± ÙĬ
à´¶ à´¨
Ú¯ ÚĳÚ¾
ĠØ³ÚĢ Ø¦ÙĬ
ing i
Ġ äºļ
ĠØ³ÙĬÚª ÙĬÙĪØ±Ù½ÙĬ
ĠØ¢ÙģÙĬØ³ Ø±ÙĨ
Ø¦ Ùĩ
åħ¨ çĲĥ
çľĭ çļĦ
ç ¸
ĠØ§Ø¨ ÚĻÙĪ
ä¸Ģ èµ·
ĠÙģ Ø±ÙĬ
æĿ ±
ĠV al
Ĩ Ĵ
ĠØ¹Ùĩ Ø¯ÙĬ
ĠØ®ÙĪØ´ ÙĬØ¡
am b
Úį ÙĬ
à´® à´±
èķ ī
åĨ ²
ĠÚªÙĨ ÚĬ
éĥ¨ éĹ¨
Ġer iti
æıĲ æ¬¾
ĠÙĦ ÙĨ
ĠL i
ÙĦ ÚĬ
Ùħ ÙĪÙĦ
ĠØ§ Ø¨ÙĨ
å®¶ çļĦ
Ġtul i
Ù¾Ø§Ø± Ù½ÙĬ
ä¸Ģ æŃ¥
ĠÙĪ Ø§Øª
ĠÚ©ÙĪÙĦ ÙĪÚº
Ġka up
ä¸į æĸŃ
le st
ä½ľ çĶ¨
é»ĳ å¹³åı°
ĠØ´ Ú©
Ġà´Ĩ à´¨
ĠØ³ÚĢ Ø§Ú»ÙĬ
åį ł
Ġh Ã¼
æ´ ĭ
ĠÙĪØ³ÙĬ ÙĦÙĬ
ma al
ĠØŃÚªÙħ Øª
åľ° äº§
Ġa k
æİ Ī
ĠÙħ Ùº
à´² à´°
ĠØ§Ù¾ÙĨ Ø§
ĠØ³ ÚĮÙĪ
Ø¬ÙĬ Úª
ĠÙħÙĬ ÚĬ
m s
åľ° æĸ¹
ĠÚĨ ÙĪÚº
ĠÙħØ¨Ø§Ø± Úª
è³ ĩ
Ġpr a
on e
Ùģ ÙĨ
ĠÃ¼h is
ĠØª ÛĮÚ©
ĠØ¨Ø±ÙĤ Ø±Ø§Ø±
ĠmÃ¤r k
t ik
ĠÙ¾ Ú©ÙĬ
Ġta ot
Ġtoim ub
ĠÚª Ø´
ĠÚ¾ÙĨ ÙĨ
Ġu us
Â ·
ĠØ«ÙĤ Ø§ÙģØª
æİĴè¡Į æ¦ľ
ĠÙĩ Ù½
à´³ à´³
æł ĳ
ing ut
æĽ´ å¤ļ
Ġk ell
al am
Ġà´ķ à´¯à´±
ÙĦÙĪÙħ ÛĮÙ¹Ø±
ĠØ¹ Ø§Ø´
äº¤ æĺĵ
ĠØŃÚª ÙĪÙħ
uk oh
Ġà´¨ à´¨
at use
åŁº æľ¬
ĠØª Ø§Ø±
ĠØ¯Ø¹ÙĪ ÙĬ
ĠÙħÙĪ Ù½Ø±
Ġval g
Ġsuur em
: //
ĠØªØŃ ÙģØ¸
ĠØ³Ø§Ú³ Ø¦ÙĬ
ĠØ¨ Ú¾ÛĮ
Ġå¤©å¤©ä¸Ńå½©ç¥¨ è¶³çĲĥ
ĠØª Ø¬Ø±
Ġsu un
ĠÙħÙĦ ØªØ§ÙĨ
å· ¦
ä» ĺ
Ú± ÙĬ
ĠÙħØ±Úª Ø²ÙĬ
ise s
se n
Ð ¾
ĠÙĤØ¨ Ø¶ÙĪ
ĠØ¨ÙĬ ÙºÙĪ
id el
Ġjuur es
ed i
ĠØ´Ø§ Ú¾
ĠÚªØ§Ø±ÚªØ±Ø¯ Ú¯ÙĬ
Ġæ °
å® «
ÚĨ Ú¾
ä¿ Ħ
ĠØ² ÙĨ
ĠÚĨ ÙĬÙħ
Ù¾ÙĪØ±Ù½ Ø³
Ġmul le
èĩª åĬ¨
å±± å¤§åıĳ
ÙĦÙĨ ÚĬ
ĠØ§ Øº
ĠØ¢ Ú±
à´¯ àµ»
ĠØ¢ ÙħØ¯
ĠÚ³ÙĪÙº ÙĨ
èī² åĽ¾
æĲ ľ
ĠÙĪØ§Ø³ Ø·
è¡ ¥
Ġs uh
å½± è§Ĩ
ĠÚªÙĬ Ø§Ø¦ÙĪÙĨ
Ù¹ Ø§
æĹħ æ¸¸
à´§ à´®
ä¸į ä¼ļ
ĠØ³Ø¨ Ú¾
åħ· æľī
ĠÚ¯ Ø±ÙħÙĬ
Ġte le
ÙĦ ÙĬÙĨ
ĠÙ¿ ÙĬÙĨØ¯ÙĬÙĪÙĨ
Ġp Ã¤Ã¤
ĠÃ¼h end
æŃ Į
ĠÙ¾ Ø¦ÛĮ
ĠÙħÙĬÙħ Ø¨Ø±ÙĨ
ĠÙħØŃ Ø¯ÙĪØ¯
Ġå¤©å¤©ä¸Ńå½©ç¥¨ è½¯ä»¶
ĠØª Ø®Øª
å¤§ç¥ŀ æİ¨èįĲ
ĠØ§Ø³Ùħ Ø§Ø¹
ik at
Ø§Ùĩ Ø§
oo ne
ĠØµÙĪ Ø¨ÙĨ
ä¸Ģ å®ļ
ekt iiv
Ġko mp
ju ht
è®¡ ç®Ĺ
ÙĪ ÚªÙĬ
ĠÚªÙħ Ø§ÙĦ
ĠÙħÙ¿ Ø³
ĠÚªÙħØ² ÙĪØ±
ĠÙ¾ ÙĬÙĪÙĨ
ĠÙĦ Ø§Ø¦ÙĬÙĨ
Ð ¸
ĠØ¨Ø± Ø·
ĠÛģÙĪ Ú¯
ĠÚ³ ÙĨÚį
ĠØ¬Ø§ ÙĪ
ĠÚ© ÙĦÙĪÙħÛĮÙ¹Ø±
æĽ ²
éĽ ħ
ĠÚ¯ Ø§ÙĦ
Ġp iis
Ø§Ùģ ÙĪ
Ú¾ Ú»
ĠÙĤÙĬÙħ Øª
åħ¨ éĿ¢
Ġte ada
ĠÙģØ¶ ÙĦ
ĠÙĪ Ú©
é¦Ļ èķī
ĠÙĩÙĨ ÙĬÙĪ
åĽł æŃ¤
æ¯Ķ èµĽ
! âĢĿ
å® Ī
è´Ń å½©ç¥¨
ĠÚªÙĨ Ù½Ø±ÙĪÙĦ
ĠØ§Ø¹ØªÙħ Ø§Ø¯
ja st
àµĨ ,
M e
èĢĮ ä¸Ķ
Ġkoo l
æľĢ å¤ļ
ĠØ§Ø®ÙĦ Ø§ÙĤ
à´± à´ļ
ĠØ§Ø¨Øª Ø¯
ĠÙĩ ÙħØ±
u ar
Ø±Ø§ÙĨ ÛĮ
ĠlÃµ pp
æĶ¹ éĿ©
ĠØ¯ ÙĪÙĨ
Ġs otsi
ĠÚĢ Øª
ĠØ¢ Ø¨
Ġà´¶ à´ķ
ĠtÃ¤ p
Ġle nn
å¥³ çĶŁ
ĠL e
Ù¾ÙĨ ÛĴ
ÙĤ ÙĬØ¡
ĠØ¨Ø¯ ÙĬÙĨ
Ġå¤©å¤©å½©ç¥¨ ä¸Ńå¥ĸ
ç¡ Ģ
ĠÚªÙħ Ø´ÙĨØ±
Ġà´ħà´µ à´¨
ĠvÃ¤h emalt
ĠÚªÙħ ÙĨ
ĠÙĨ ÙĪÙħØ¨Ø±
ç²¾ ç¥ŀ
ç§į åŃĲ
ĠØ¬Ø§Ø¦Ø² ÙĪ
Ġr iig
9 6
ÙĦ ØŃ
la sed
ĠØ¬Ø§ÙĨ ÙĪØ±
Ġp Ã¤
åľ° åĮº
ĠØµØ¯Ø§Ø± Øª
Ø³Ù½ Ùħ
ĠÚĨ Ø§ÚĻ
è´Ł è´£
Ġm ur
19 0
ĠØ¨ÙĨ Ø§ÙĨ
ĠØ¯ÛĮ ÙĪ
ÚĮ Ø§
ĠØ§ÙħØ±ÛĮ Ú©Ûģ
åŁº ç¡Ģ
ĠÙ¾Ø± ÙĨ
ĠØ¹ Ø²ÙĬØ²
am ata
è® ¨
ĠÚĢÙĬ Ø±ÙĬ
çĽ Ľ
ĠÙ»ÚĮ ÙĪ
ĠÙĦ Øº
ĠÙ» ÙĬÙĪÙĨ
Ø§Ø±ÙĬ ÙĦ
ĠÙ¾ÙĬ Ø¦ÙĬ
Ġh etk
ĠØŃ ÙħÙĦ
ĠÙħØ® ØµÙĪØµ
Ø§ÙĨ Úª
åĪĨ å½©
Ġkon t
Ġja g
ÙĪÙĨ ÚĬÙĬ
ĠÙĨÙĪ ÛĮÚº
æ¶ ²
ĠV ene
Ø§Ø³ Ùħ
ĠØ± Ú¾ÙĬ
åľ¨çº¿ è§Ĩé¢ĳ
èħ ¿
æŀ ¶
ĠÚĢ ÙĬØ±Ø§
å®Į æķ´
ĠØ±ÛĮ Ø§Ø³Øª
ĠØª Ø¬ÙĪ
ad r
è¼ ī
ç¢ °
à´¿ :
à´Ĥ :
Ġne ws
Ġk eer
Ġå¤©å¤©ä¸Ńå½©ç¥¨ å¦Ĥä½ķ
uur i
æĤ £
ĠØ³Ø§Ø± ÛĮØ§Úº
Ġ q
ĠØ³ Ùº
ĠØ¹ ÙĤÙĬØ¯
ĠØ³Ø§Ú³ ÙĬÙĪ
ĠÚĬ ÙĬÙĪ
æľī ä»Ģä¹Ī
Ĉ Ć
Ø´ Ø±ÙĬÙģ
ØªÙĪ ÙĬ
ä½ĵ çİ°
Ġol uk
Ø³ÙĨ ÚĮÙĬ
Ġà´ħ à´ŀ
in f
ĠÛĮÙĪØ± Ù¾
Ġà´ķ à´Ł
Ġle p
æĿ ¨
Ġar u
Ġeur ot
èı ľ
ç« Ł
çļĦ å°ı
à´¦ à´¨
ĠØ±ÙĪ Ø§Ø¬
àµįâĢ ĭ
äºĴ èģĶ
ĠØ§ÙĪÛģ ÙĨÛĴ
Ġkun st
ĠØªØ± Ø¨
ol u
ĠÚªÙĬØª Ø±ÙĪ
ĠÙĦ ÙĨÚĬÙĨ
5 6
Ø§ ÛĮÛģ
åł ´
Ġp un
Ġà´¤ à´¯
ĠÚ© Ø³ÛĮ
Ġà´Ĩ à´³
ĠÙ¾Ø§Ø± Ù½ÙĬÙĨ
ÙĩÙĬ Ø§
ç¯ ĩ
ĠvÃµi vad
ĠÙ¹ ÛĮ
Ġå½©ç¥ŀäºīéľ¸ çļĦ
ĠÚĩÚı Ú»
ĠÚ© Ø§Ùħ
æŃ£ åľ¨
Ø§Ø¦ ÛĮØ§Úº
M a
ĠÙĩ Ø§ÙĦ
ĠjÃ¤t k
Ġ çĶ·
ĠØªØ± ØªÙĬ
åŃ ķ
æİ ¢
å¤© åłĤ
æķ° åŃĹ
5 7
Ġk al
Ġf ilm
Ù½Ø± Úª
äº ŀ
Ġj ut
ĠØ± ÙģØª
ĠØ±Ø§ÙĨ Ø¯ÙĬ
ÙĪ Ø¯ÛĴ
ĠØ¨ÙĨØ§ ÛĮØ§
âĢĿ .
ĠÙ¾ ÙĩØ±
ĠØ¨ÙĦ ÙĨØ¯
çľĭ åĪ°
ĠÙĤ Ø§Ø¨
ä»Ĭ å¹´
ĠØ² Ø¨Ø±Ø¯
ist er
ĠÙĪÙĬ ÚĨ
Ġarv est
Ġ ä¹Ĳ
4 6
ĠÙ¾ Ø¨ÙĦ
Ġå¤©å¤©ä¸Ńå½©ç¥¨ä¸Ń äºĨ
Ø§Ùģ ÛĮ
ĠÙĪÙģ Ø§ÙĤ
Ġå¤©å¤©ä¹Ĳ å½©ç¥¨
åĪ ¤
à´° à´ª
à´Ĺ à´¸
ĠØ§Ú¯ ÛĴ
ĠØ±Ø´ ÙĬØ¯
ĠØ¬ÙĪ ÚĻ
ĠÚªÙĩØ§Ú» ÙĬÙĨ
ĠØª ÙĨÚ¯
æĪ ª
ĠØ³Úı ÙĬÙĪ
ĠÚ© Ú¾ÙĪ
ĠØ´Ø¹ ÙĪØ±
ĠØ§Úª ÙĬÙĦÙĪ
à´¶ à´¤
ĠÚı Ùĩ
ĠÚĢÙĬ Ù½
ĠmÃµ tle
å¸Į æľĽ
Ġal ates
ĠØ® Ø²
Ġå¤©å¤©ä¸Ńå½©ç¥¨ è¿½åı·
çŃ Ķ
ĠØ± Ø§Ø´
ĠpÃ¤r is
Ġà´ĩ à´µà´°
ĠÙħØ¹Ø§Ùħ ÙĦÙĪ
Úª Ùħ
Ø² Ø§Ø²
è° Ī
ĠÙĤ ÙĪØª
ĠÙħØ³ÙĦ Ø³ÙĦ
em ine
æĬ ½
ĠÙ¿ ÙĪØ±
åĿ Ĳ
j uh
ĠÚªØ±Ú» ÙĬ
Ġt ell
ĠÙħ ÙĬÙĪ
Ø§Ø¦ Ø¯
ĠÚĮ Ø±ÙĬÙĨ
ÙĦ ÙĤÙĬ
è¿Ľ åħ¥
ĠØ®ÙĪØ§Ø¬ Ùĩ
Ø³ Ú©
ĠÙħØ±ÙĬ Ùħ
è´Ń ä¹°
Ġ ist
ĠØ¬ÛĮÛģ ÚĳØ§
ĠØ§ Ú¾Ø§
i os
ÛĮ Ø§Ø±
ĠØ¯ Ø¨
æĬ Ĺ
à´¹ à´¨
T e
àµĭ .
à´¶ à´Ļ
Ġkog em
ĠØ¶ ÙħØ§ÙĨ
ĠÙģ Ø®Ø±
é¢Ĩ å¥ĸ
à´ħ à´¤
ĠÙħÙĤ Ø¯Ø³
å® Ĺ
ĠÙħÙĨ Ú¾ÙĨ
ĠØ³ÙĪ Ø§Ø±
ĠÚ¯ ÙĨØ¯
è¿ İ
Ġç½ĳ ä¸Ĭ
ĠÛģÙĪ Ø¦ÛĮØ§
éĩĮ çļĦ
åħ¬åı¸ çļĦ
ĠÙħÙĦÙĪ Ø«
ĠsÃ¼ nd
Ø±ØŃ ÙħØ§ÙĨ
çĶ ļ
ĠØªÙĨ ÙĤÙĬØ¯
ĠÙĨØ§Ùħ Ø²Ø¯
Ġà´¨ à´Ł
ĠÚı Ø³ÙĪ
Ġkinn it
ĠÙº Ù½ÙĬ
Ù¾ÙĨ ÛĮ
ç Ĵ
ĠØ± Ù½
ĠÃ¼ ht
ĠØ§ÙĤØª Øµ
ĠØ¢ Ø¦ÛĮ
ĠØ³ÙĬ Ù½
ĠØ³Ú© Ø¯ÛĴ
Ġ äºĮ
ØªÙħ ÙĦ
ĠØªÛģØ§ ÚĪÛĴ
is s
18 8
æľĢ å¤§
ĠÙĦÙĪ ÚĬ
ĠÚ³Ø§ÙĦÙĩ Ø§Ø¦ÙĬ
ĠÃµ h
ĠØ¢ ÛĮØ§
æķ ĳ
ĠØ¨ÚĨ Ø§Ø¡
ud es
Ù¹ Ø§Úº
Ĉ ą
Ġend ale
Ġh al
Ġte eb
ĠØ¬ Ø§Úº
ĠØ¨ ÛĮÙ¹
Ġå¤©å¤©çĪ±å½©ç¥¨ æĺ¯
ĠØ¬Ø§ Ú³
è¿Ļ ç§į
ĠÙ¾ ÛĮØ§
ĠØ± Ø§Ùħ
Ø§Ø¦ Ù¾
ĠØ°ÙĩÙĨ ÙĬ
ĠØª Ø±ÙĬÙĨ
åı ³
è± ª
ĠÙ½ÙĬÚª ÙĨ
à´ķ à´ļ
ĠØ¯ ØªÛĮ
Ġà´¸ à´¤
à´± à´ŀ
çļĦ å¤§
ÛĮØ§ Ûģ
Ùĩ Ø§ÙĬÙĪ
ĠÚªÙħ ÙĬÙĪÙĨ
Øª Ø§ÙĦ
Û ´
v an
us s
Ġ éĩįåºĨæĹ¶æĹ¶å½©
ĠÛģÙĪ Ø¦ÛĮØ§Úº
æī ĺ
ĠÙħÙĦ Ú©
ĠØ³ ÙĩÙĬ
S ee
ĠØ¨ Ø±ÙĪ
ä»£ è¡¨
t el
Ġla ul
ĠÙħØ´ ØªÙħÙĦ
ĠÚĨÙĪÚĮ Ø§Ø±ÙĬ
ĠÙĨÙĨÚį ÚĻÙĬ
Ø§Ø±ÛĮ Ø®
5 8
Ø§Ùģ ÙĬÙĨ
å®Į æĪĲ
Ġmu idu
iv e
Ġo tse
æĪĸ èĢħ
ĠÙ¾ÚĨ Ú¾
Ø¯ Ø§ÙĨÙĨ
è§ Ģ
ĠnÃµ u
Ġçİ© å¤§åıĳå¿«ä¸ī
Ġt he
ĠØ®ÙĪØ± Ø´ÙĬØ¯
Ġ !
il le
å¸ «
à´§ à´ª
ĠÚĨÚ± ÙĪ
ĠØ® ÛĮ
å¾ ģ
ĠØ± ÙĦ
ĠØ¬Ø±Ùħ ÙĨÛĮ
ĠØ¨Ø²Ø± Ú¯
ise id
è¶ £
ç£ ģ
ĠÙ½ ÙĬØ³Ù½
åľ £
è Ķ
ç± į
Ø§Ùĩ Ø¯
ï¼ī ï¼Į
ĠÚªÚį Ú»
j Ãµ
ĠØ±ÙĪ Ø§ÙĨÙĪ
ĠÚ¯ Ø±Ø¯
æıĲ åįĩ
ĠÙĪÚĨ Ú©Ø§Ø±
ĠØ±Ø§Ø¨ Ø·ÙĪ
ĠÚĬÚ¯ ÙĩÙĬ
ĠØ´Ø± Ø§Ø¨
ÙĦÙĬ Ù½
ĠK Ã¼
æĹł çłģ
ĠØ§ÙĦØŃ ÙĤ
ĠØªØ¬ Ø±Ø¨
çĳ ŀ
æµ ª
ĠÙĪÙĬ ÙºÙĬ
ĠÙħØ´ ÙĬÙĨ
l ane
las s
h ar
ĠÙ¾ Ø¯
ĠØŃÙģØ§Ø¸ Øª
àµĢ à´Ĥ
Ġl iig
èĻ Ĳ
ĠØ¬ÙĪ Ø´
ĠØ§ÙĨ ÙĪØ±
im al
ala y
ĠØªØ±ØªÙĬ Ø¨
ÙĬØª ÙĪÙĨ
ĠØ§ÙĦ Ø·Ø§Ùģ
ĠsÃµ id
ĠK uid
çĻ¾ å®¶
ust as
ĠØ§ÙĪÙĦ ÙĩÙĩ
à´¨ à´ª
ĠØ¯ Ø§Ø¦
us p
åľ ³
Ġselle ks
å¼Ģå¥ĸ åı·çłģ
ĠjÃ¤Ã¤ b
ĠØ´ ÙĩÙĨ
4 7
èĩª çĦ¶
çı ł
Ġå¤©å¤©ä¸Ńå½©ç¥¨ ä¸įèĥ½
ĠØ¬ ØªÚ¾ÛĴ
Ù¾ Ù½ÙĨ
æĭĽ èģĺ
à´´ à´¯
ĠÙ¾ÚĻ ÙĩÙĬÙĪ
ma at
ĠØ¹ÙĦ ÛĮ
ĠÙĦ Ø§ÙĨ
os it
ĠÙ¾Ú¯ ÙĩØ§Ø±
Ġk eegi
il ised
ne b
Ð µ
à´¨ à´ķ
Ġk uts
ĠÙĦØ§ Ú©ÙĬ
ĠÙĪÙĦ ÙĪÚº
å»º ç«ĭ
Ġsa avad
æĢİä¹Ī çľĭ
ĠØ§ÙĨ Ù½Ø±ÙĨ
è´ ¥
Ġe esti
Ġme et
ĠØµÙģ ØŃ
ĠØ§Ø³ØªØ§Ø¯ ÙĨ
ĠÙ¾ ÛĮØ±
ä¸Ģ çŃīå¥ĸ
ç»ı åħ¸
ĠÚĨØ§ÙĩÙĬ Ø§ÙĨ
ĠØ§Ú³ ÙĬ
t est
çº¿ ä¸Ĭ
ĠÙĪØ§Ù¾ Ø§Ø±
ĠÙ¾Ø§Ø±ÙĦÙĬØ§Ùħ ÙĬÙĨÙ½
çĿ £
äºĨ è§£
ĠÙħØ² Ø¯
ĠÙĪ ÙĬÙĨØ¯ÚĻ
Ø§ÙĦÙħ Ù¾ÙĪØ±
çľŁçļĦ åģĩçļĦ
Ġà´Ń à´°à´£
åĩº æĿ¥
ĠÚ¦ Ø§
Ø³ Ù¾ÙĬ
ĠØ³ÙĪÚĨ Ú»
ĠÚªÙĨØ¯ Ø³
ĠØµÙĪØ¨ ÛĴ
ĠØ§ÙĨÚ¯Ø±ÛĮ Ø²
Ġte ie
à´µà´¨ à´¨
ĠØ¢ Ø¦
ĠA l
Ġhil j
ĠkÃµ igi
æĢ ¥
Ġh ak
Ġs Ã¶Ã¶
å¤©å¤© ä¹°å½©ç¥¨
ĠØ§ÙĦ Ø³ÙĦØ§Ùħ
ĠÙħØµ Ø±ÙĪÙģ
Ø§Ùĩ ÙĬÙĨ
ĠÙħØ´ Ø±
èµĮ åįļ
ĠÙħÙĦÙĬ Ø§
ise ks
ĠØªØ¹ ÙĦÙĤÙĬ
ĠÙĨÙĬ Ø´ÙĨÙĦ
ĠÙĬÙĪ Ø³Ùģ
è¾ħåĬ© åĻ¨
ĠØ´Ùĩ Ø±ÙĬÙĨ
èİ· å¾Ĺ
Ġà´Ń à´ķ
ĠØ¨Ø¦ÙĨ Úª
j e
ĠÚªØ§ Ùº
n u
ĠÙħ Ø§Ø³Øª
Ġm ood
æĦ ¿
Ø¨ØŃ Ø±
Ġ è°ģ
k irja
ĠÙħØ³Ø¦ ÙĦÙĬ
end id
å½© å½©ç¥¨
ĠÙħÙĪÙĤ Ùģ
Ġp Ã¼h
è®¤ ä¸º
Ùħ Ø§Ø¦ÙĬ
ĠÙ¾Ø§Ø± Ù½ÙĬØ¡
Ġt ingim
ĠØ¬ÙĪ ÚĻÙĬ
Ġå¤©å¤© ä¸Ńå¥ĸå½©ç¥¨
ĠÙĪ Ú³ÙĬ
ĠØ¨ÙĬ ØŃØ¯
Ġ *
Ġrah a
ĠÙħØ¹ Ø§Ùĩ
ĠÙ¾ ØªÙĪ
Ý ¨
Ġ åĴĮ
ĠtÃ¤ it
æ¼ı æ´ŀ
å¤ļå°ĳ éĴ±
ĠÙ» Ø§ÙĨ
99 9
æĹ¶ ä»£
Ġ X
ĠØ³ Ù½
ĠØ³Ø§Ùħ ÙĪÙĨÚĬÙĬ
ĠtÃ¤h ele
Ø§ÙĨ Ø³
Ġæ¬ ¢
ĠØ±Ú© ÙĨØ¯ÙĬ
ĠvÃ¤l is
Ø±ÛĮÙĤ Ûģ
ĠÚªØ§Ø¦ÙĪÙĨ Ø³ÙĦ
Ø§ÙĩÙĬ Ø¡
ÙģÙĬ ÙĤ
Ġv er
ĠØ³ÙĪ ÙĬÙĨ
ĠÂ «
Ġval mis
ĠØ¶ÙħØ§ÙĨ Øª
ĠØ§Øº ÙĪØ§
Ġå¤§åıĳ æ¸¸æĪıå®ĺç½ĳ
ge ma
ĠsÃµn ul
Úª Ø±ÙĪ
ĠØ¬ ÙĩÙĬ
ĠØ±Ø³Øª ÙĨ
Ġå½©ç¥ŀäºīéľ¸ æıĲçİ°
é² ģ
istr eer
k ir
Ġe b
ĠP Ã¤r
ĠÃ¼ rit
Ġka ug
Ġ Y
Ġsoov it
ĠÙħ ÙĨØ¯
Ġà´¤ à´Ļ
4 00
Ú¯ ÛĴ
ĠÚ¯ÙĨ ØªÛĮ
åį ±
Ġs ilm
ĠØ³Ùĩ ÙĪÙĦ
ĠØ§ Ø´Øª
ĠÚ¯ ÙĬØª
ĠØ§ÙĬ Ø´ÙĬØ§
ĠØ³Ùħ ÙĪØ±ÙĪ
éĩĳ èŀį
ĠN Ã¤
ãĢĤ ãĢĤ
Ġ èī²æĥħ
Ġå¤©å¤©ä¸Ńå½©ç¥¨ ç½ĳ
ĠØ´ Ú¾
èĢ ³
èģĬå¤© å®¤
å ´
Ġ amet
ĠÙ» Ø§
ĠÚ¯Ú¾ Ù¹
ÙĦ Ø²
ĠÚ©Ø±Ø¯ ÛĮ
ĠÙĪØ§Ø±ÙĬ ÙĪÙĨ
å¸ Ń
ĠØ³ Ø§Ø±ÙĬ
Ø³Ù½ ÙĨ
ĠØ³Ø±Ú¯ Ø±Ùħ
Û µ
Ú© Ø§Ø±ÛĮ
re en
à´ Ľ
Ġsa av
ĠÚĢ ÚĦ
éģ Ĭ
ĠØª Ø§Ø¦ÛĮÚº
ĠÙħÙĦØ§Ø² ÙħÙĨ
Ġn el
åħ §
ä¿ ĥ
åĮ» éĻ¢
ĠÙĦÚ³ ÙĨØ¯ÙĪ
åĬ¨ æĢģ
ĠØ§ÙĦ Ø¹
Ġ èĢģ
it u
Ġorg anis
èĻ ½
åĶ Ĳ
çľŁ åģĩ
ĠÙħÙĩÙĬÙĨ Ø§
Ø§Ø± Ø´
ä¸Ģ èĪ¬
Ø§ÙĦ Ø§ÙĦÙħÙ¾ÙĪØ±
Ġæ· «
uk ogu
æ¨¡ å¼ı
æĿĲ æĸĻ
_ _
æľī æķĪ
Ø§Úª Ø±
at us
ĠÙħ ÚĨ
ĠØ§ÙĬ ÚıÙĪ
ĠÚĬ Ø³ÙħØ¨Ø±
Ġar mast
ØªØ± Ø§Ùħ
ĠÙ»ÙĪ Úı
Ø§ ÙĬØ§ÙĨ
ĠÙĩÙĬÙº Ø§ÙĨ
ä¸Ń å¤®
æģ ¶
ĠÙħØ±ÙĬ Ø¶
ĠÙ¾Ø§ÙĦ ÙĬØ³ÙĬ
ĠÚªÙĪ Ùº
è ¸
el ine
ĠÙħØ´ ÛģÙĪØ±
à´³ à´µà´°
ĠØ§ÙĪÙĨ ÛĴ
ĠØ§Ø´ Ø§Ø±ÙĪ
ĠnÃ¤ ha
er a
éªĹ äºº
æĲ ŀ
ĠÚª ÙĪÙĦ
é¢Ĩ å¯¼
è¿Ļ ä¸Ģ
ut ab
Ġæīĭæľº å¤©å¤©ä¸Ńå½©ç¥¨
ĠØ¨Øº Ø§ÙĪØª
å¥³ æĢ§
, âĢĿ
ĠØ§Ø³ ÛĮ
ĠÙĦ Ø´
èį ¡
ĠØŃØ¶ ÙĪØ±
ĠÙ¾ÙĩÙĦÙĪ Ø§ÙĨ
ĠÚıÚ© ÙĬÙĪ
Ġole me
ee g
ĠÙĦØ§Ø¦ ÙĤ
o e
ĠÚıÙĨ Ø§Ø¦ÙĬÙĨ
ĠØ§ÙĬÙĪ Ø§Ø±ÚĬ
Ġsa aks
ĠÙĦÛĮ ÙĨØ¯ÛĴ
Ġlis aks
ĠØ±ØŃ Ùħ
ĠØ¬Ú³ ÙĩÙĩ
ĠÚªØ§Ø± Ú»
Ġå¤§åıĳæĹ¶æĹ¶å½© è®¡åĪĴ
à´® à´¦
oloo gia
ç½ĳé¡µ çīĪ
ä¹ĭ åĲİ
èį £
Ġ ãĢģ
é©¬ ä¼ļ
åº Ħ
ĠØ³ ÙĬÙĦ
èİ ī
ĠÙħØ¹ ÙĨ
ĠØ³ÙħØ¬ Ú¾ÙĬ
ĠØªØ¬ÙĪ ÙĬØ²
Ġte iste
ĠÙĦÙĬ ÚĬØ±
ĠØ¨ÚĨ Ø§Ø¦Ú»
èĭ į
ĠØ³ÙĬ Ø±ÙĬØ²
Ġselle le
åħ ©
ĠØ§Ø®Ø¨ Ø§Ø±ÙĨ
è° ·
ĠÙ»ÙĬ Ù½
Ġ Ċ
ĠÚªÙĦØ§Úª ÙĨ
Ġà´ī à´¯à´°
ĠØ³ÛĮ ÙĨ
ĠØŃØ§ÙĦ ØªÙĪÙĨ
à´Ń à´¯
ĠØ·Ø±ÙĬ ÙĤÙĪ
Ø§Ø´ ÙĬ
åĸľ æ¬¢
çŃ ĳ
ä¸º äºĨ
ä¸¤ ä¸ª
ĠÚĢ ÚĦÙĬ
ØŃ Ø§ÙĤ
ĠØª ÚªØ±
åĽ °
éľĢ æ±Ĥ
ĠS e
Ġå¿«ä¸ī å¤§åıĳ
ĠÙħØŃ Ø±ÙĪÙħ
est e
åľ Ī
Ġà´µ à´ķ
ĠÙĪØ¶ Ø§ØŃØª
it si
Ùģ Ø§Ø±
Ġ è¥¿
ĠØ§ÙĨØªØ¸ Ø§ÙħÙĬ
ĠØ¢Ú¯ Ø³Ù½
Ġà´Ĩ à´¤
se nd
ĠN ii
en ts
ĠØ¢Ø¨Ø§Ø¯ ÙĬ
ĠØ¨ Ú¯
Ø¨ Ø³Øª
æĺ¯ä»Ģä¹Ī æĦıæĢĿ
ĠØ³ÙĪ Ø³
ĠØ§ØŃ ØªØ±Ø§Ùħ
ut us
å¢ŀ éķ¿
å®Įç¾İ ä¸ĸçķĮ
ĠÚªÙĪ ÚĻ
n ne
ĠÚĬØ§Ø¦ Ø±ÙĬÚªÙ½Ø±
ĠØ§ÛĮÛģ Ø¯ÛĴ
Ø§Ø¹ ÙĬ
èĥ½ å¤Ł
ä½ĵ éªĮ
ĠP e
an ik
an s
oloo g
ĠÙĦ ÛĮÙĨ
10 00
à´³ à´µ
Ġrah ul
Ġèħ¾è®¯ å¤©å¤©ä¸Ńå½©ç¥¨
ĠØ§ Ù¹
ĠÙħ ÚªÙĬ
ĠÙĨ Ú¾
ĠØ³Ú¯ÙĩÙĬ Ø§
en Ã¤
ĠØ Ł
çŃ ¾
Ø§ÙĤ ÙĪ
I I
åĽ º
ĠØ¯ Ûģ
ÙĪÙĦ ÙĪ
ĠÙ¾ÙĨ Ø¬ÙĨ
ÙĪÙĨ ÛĴ
ĠØ§Ø¯Ø§Ø± Ø§
å¤© ä¸ĭ
ĠØ¬ ÛĮÙĨ
ĠØ³Ø±ÙĪ Ø³
Ùĩ Ø§Ú»ÙĬ
ĠØ³Ø± Ø§Ø¬
ĠÙĤØ± Ø¶
ĠÃµ ht
aal selt
ĠÙĩÙĪÙĨ Ø¦ÙĨ
Ġrahvus vahel
ĠØ§ÙĨÙĤÙĦØ§Ø¨ ÙĬ
ĠÙĪ ÙĦÙĬ
ĠØ´Úª Ø§ÙĬØª
Ġg r
ĠØ§ÙĤØªØµ Ø§Ø¯ÙĬ
ĠlÃ¤ ks
ĠÙĨÙĪØ§Ø² Ø´Ø±ÙĬÙģ
b b
Ġt aval
ØªÙĪ Ø¦ÙĬ
ĠØ®Ø§Øª ÙħÙĬ
Ĉ ãĢĤ
ç¨³ å®ļ
å° ĩ
Ġà´µ àµ¼
ĠØ¬ÙħÙĩÙĪ Ø±ÙĬ
Ø±Ø¨ Øª
ĠÙħ ÙĩØ§ÙĨ
Ġh Ã¤Ã¤
é ŀ
è´ ·
ĠØŃ ÙĬØ±Ø§ÙĨ
5 2
ĠØ¹ Ø±Ùģ
ĠÙĪ Ø´
ĠØ³ÚĨ ÙĦ
ĠÙĪØ§ÙĤ Ø¹ÙĪ
ĠØ§ Ú¾ÙĬ
ĠØ®Ø·Ø±ÙĨ Ø§Úª
ĠÙħ Ø§ÙĦÙĬ
è¦ĸ è¨Ĭ
ĠØ¯Ùģ ÙĨ
ĠÙĩÙĦÙĬ Ø§
ĠÙ½ Ø§Ø¦ÙĪÙĨ
ĠÙ¾ÙĬØ§ Ø±ÙĬ
ĠÚĢ ÙĦØ§
æ£ ®
. )
æĸĩ ç«ł
ĠÙħÙĨØ¬ ÙĩØ§ÙĨ
ç® ±
ĠÙĨ Ú©
å¸ ģ
ĠM u
Ù¾ Ú»
à´¦ à´®
ä¸ ¹
ĠÙħ Ø§Ø¶ÙĬ
æĬķ è¯ī
ĠØª Ø§Ø±ÛĮØ®
Ġselle ga
å± ĭ
ĠÚĩÚı ÙĬÙĨØ¯ÙĪ
çĤ ®
ã ĥ
ĠØ´ Ø§Ø®
ĠØ¯ÙĪ Ø¬ÛĮ
Ġolul ine
h v
Ùģ ÙĦ
im et
ĠØ¬ÙĪÙĦ Ø§Ø¡
çī¹ åĪ«
lik ult
åıĳ çĶŁ
ĠØ·Ø¨ÙĬ Ø¹Øª
å± ı
Ġ å¿«æĴŃ
æ± ¡
à´· à´ª
Ù¾Øª Ø§ÙĨ
Ġl inna
Ġn at
ĠØ³Ø± ØŃØ¯
èĳ¡ äº¬
konn as
ĠØ¬ÛĮ Ø¯ÛĴ
ĠÙĩ ÙħØª
ĠÙ¾ÙĬØ¯Ø§ ÙĪØ§Ø±
ĠÙħ ÙģØª
ĠÚªÙĬØª Ø±ÙĬ
ĠÙħÙĬØ± Ø¨ØŃØ±
ĠÙħØ¹ ÙħÙĪÙĦÙĬ
Ø§Ù¾ ÙĪ
ä»» ä½ķ
åŃĺ åľ¨
à´· à´Ļ
ĠÙ¾ ÚĦ
ĠØ¨ÙĬÙħ Ø§Ø±ÙĬ
ĠÙ¾ÚĻÙĩÙĬ ÙĦ
äºĴèģĶ ç½ĳ
åı ¶
æĸ° çļĦ
èµĦ éĩĳ
on g
Ġ ä¸ī
b o
Ġviim ase
æ¡ ĥ
ĠkÃ¤ sit
ĠÃ¼ld se
Ø§Ø¶ ÙĬØ¡
ĠÙħ Ø¦ÙĬ
ĠÙĪØ² ÛĮØ±
Ġà´ħ à´¬
åĬł å¼º
Ġ Ã¶Ã¶
éĢī åĽĽ
and i
é» ĥ
ĠÚ¯Ú¾Ø± Ø¬ÙĬ
ĠÙħ Ù½ÙĬØ¡
Ġ åħŃ
ad el
ä¸ĭ è¼ī
åĶ ¯
ĠÙĩ Ø§Ø±ÙĬ
Ø§Øª Ø§Ø±
ØªÚ¾ ÙĪÚº
ĠØ¯ ÙĦÙĬ
Ġm ust
æŁ ĵ
ĠØ§Ø¯ÙĬ Ø¨ÙĨ
æį ķ
Ġkoost Ã¶Ã¶
ç ŀ
Ġ ä¸ĥ
ĠkÃ¼l ast
ç¨³ èµļ
ĠØ³Ø§Ù¿ ÙĬÙĨ
ĠÚ© ÙĦÙĬÙĦ
è¯ Ĺ
is in
ĠÙħØ³ÙĦÙħØ§ÙĨ Ø§Úº
ĠØ¯ÙĦÚĨ Ø³Ù¾ÙĬ
ĠÚ³ÙĪ ÚĻ
ä»ĸ çļĦ
ĠÚĩÚı ÙĬÙĪÙĨ
Ø§Ùĩ Ø±ÙĬ
ĠA nd
ĠÙĪ Ø§Ø¦ÙĬ
iv al
Ġmil jon
ĠÚĬ ÙĬÙħ
ÙĬÙĨØ¯ ÚĻÙĨ
ĠØ®Ø§ÙĦ Ø¯
Ġ æĢİæł·
ĠØŃ Ø§Ùħ
Ġà´® à´¹
Ġ +
tt es
uu a
Ġteg ele
ĠÙħÙĪ Ø¨
ĠkÃ¤ es
ĠÙħÙĦ ÙĨØ¯ÙĬ
ĠkÃµr v
Ġs ar
ĠÚı ÙĬÙĨØ¯ÚĻ
ĠÙĪÙĦ Ø¯
Ġe si
ĠÙ¾ Ø´Ø§ÙĪØ±
æ¨ £
æ¬ §ç¾İ
æŁ ±
ĠÙĪØ± ÛĴ
Ġen er
ulg as
Ø ©
Ú©Ú¾ ÛĮ
Ø´ Ø¯
Ùĩ ÙĬÙĪÙĨ
å¾®ä¿¡ ç¾¤
ĠÙ¾Ùĩ Øª
éĹ ľ
ĠÙĦØ§Ø² ÙħÙĬ
il iste
ĠØµØŃ Ø§ÙģÙĬ
åŃ¦ éĻ¢
ĠÚĬ Ø§ÙĦØ±
ĠØ®ÙĪØ´ Ø¨ÙĪ
a ad
ĠL isaks
à´¨ à´±
ä» į
ĠÙ¾ÙĪÙĨ Ø¯Ø§
èĹ ¥
ĠÙ¿ Ø§Ú»ÙĬ
ä¸į è¦ģ
ĠÙĨ ÚĢ
eld ud
ĠjÃ¤r j
æİ¨ è¿Ľ
ĠÛĮÙĪÙĨ ÛĮ
Ġlii ga
Ġos k
Ġ Ã¤Ã¤r
ĠÙ¾ØªÚ¾ Ø±
Ú¾ Ø§Ø±
Ġmah a
ĠsÃ¼ steem
Ġà´ħ à´ļ
ĠÙĦÚ© ÙĬØ§
av ate
ĠØ§Ùħ ÚªØ§ÙĨ
ĠÙģØ±Ùħ Ø§ÙĬÙĪ
Ġkuna gi
Ġkon kur
Ûģ Ø§
Ġå¤§åıĳå¿«ä¸ī çļĦ
ĠÙħØ³ ÚªÙĬÙĨ
ĠØ¨Ø±Ø·Ø§ÙĨ ÛĮÛģ
Ù½ Ú»
ĠØ§ ÙĬØ±
Ġå½©ç¥ŀäºīéľ¸æĢİä¹Ī æł·
Úĩ ÙĪ
æ¯Ķ è¾ĥ
n Ãµ
Ġå¤§åıĳæĹ¶æĹ¶å½© å¼Ģå¥ĸ
200 9
Ġå¤©å¤©ä¸Ńå½©ç¥¨ å¤§å¥ĸ
ĠØ¬Ø§ÙĪ ÙĬØ¯
ĠÙ¾ÙĬÙ¾ÙĦØ² Ù¾Ø§Ø±Ù½ÙĬ
Ġa bi
em br
Ġo r
à´³ à´¯
à´°à´µ àµ¼à´¤
ĠÚĨÚ¾ ÚĪ
ç´ ļ
Ġå¤©å¤©ä¸Ńå½©ç¥¨ ç¯®çĲĥ
ĠØ¯Ø³Øª Ø§ÙĪ
åĪ° è´¦
Ġkoo li
ĠV ab
ĠÙĪ Øµ
ok um
å½¢ æĪĲ
36 5
ÙĤ Ø¯
ĠØ³Ø§Ø² Ø´
ĠÙħ ÛĮÙ¹Ø±
è§Ħ åĪĴ
à´¥ à´¯
æĿ ¯
åħ³ æ³¨
l ine
à´³ à´ķ
6 7
å·¥ ä¸ļ
æ¨ Ĥ
4 2
ĠÙĪÚı ÙĬÙĪÙĨ
Ġte ine
Ġsam as
Ġà´¨ à´·
n ik
ĠÙĪ Ø§Ø¹
ĠÚı Ø§ÙĨÚ¾ÙĨ
ĠØªØ³ ÙĦÙĬÙħ
æ³ķ å¾ĭ
ĠØ³ÙĬÙĨÙĬ Ù½
amise ga
ĠØ¬ ØªÙĪØ¦ÙĬ
è§£ åĨ³
at si
ak u
å¢ŀ åĬł
Ġle ida
ç¬¬ ä¸ī
å½© å¤§åıĳå¿«ä¸ī
ÙĪÙĨ Ú¯
Ù¾ÙĨ Ø¬
å¤§åıĳå±ķ æľīéĻĲåħ¬åı¸å®ĺç½ĳ
at s
è´ ¸
åıª æľī
æ® ĸ
Ġâ ĨĴ
ĠÙĩÚª Ø¯Ùħ
ĠÚĨØ§ÙĨ ÙĩÙĩ
æĭ ¥
ĠØ± Ø§Ø¦
ä¸Ģ æ¬¡
o kk
Ġpar im
Ġsell ine
ĠØªÛĮÚ© Ø±
ĠÙ¾ÙĨÙĩÙĨ Ø¬ÙĪÙĨ
æĢ Ģ
ĠØ§ ÛģÙħ
Ġæ¬¢ ä¹Ĳ
ÛĮÙĨ Ûģ
ĠØ¬ÙĦ Ø¯ÙĬ
ĠØ³ Ø®
å± Ĭ
ĠÙĩÙħØ± Ø§ÙĩÙĩ
à´¹ à´°
ĠÙħØµ Ø·
ĠØ³ÙĪÙĨ ÙĩÙĨ
Ġ .....
ĠÚ©Ø§ ÚĮÙĬ
åĴĮ å¤©å¤©ä¸Ńå½©ç¥¨
ä¸Ģ æł·
ç»ı éªĮ
à´ª à´®
pet si
4 3
ĠØ¯ÙĪØ± ÙĪ
ĠØŃÙĬ Ø§ØªÙĬ
ĠT Ã¤
ĠÚĨÙĪ Ø±ÙĬ
ĠØ¨Ø±Ø³ Ø§Øª
Ù¹ ÛĮØ§Úº
ĠØ± Ø§ÙĩÙĩ
ĠØ¹ Ø·Ø§
ĠÙĪ Ø§Ø¦
ĠØ±Ú¾ ÙĬØ§
ç¼ º
p is
eld es
ĠÙĩÙĦ Ø§Ø¦ÙĬ
ĠÙģÙĦØ³ ÙģÙĬ
ĠØ¬Ø° Ø¨
åª ³
é¬ ¼
ĠØ¯ÙĦ ÙĬÙĨ
åŁ¹ è®Ń
ĠÙĦ Ø§ÙĩÙĬ
ĠÙħØ¬ÙħÙĪ Ø¹ÙĬ
ÚĢ Ø§
åĢ Ĵ
å¨±ä¹Ĳ åľº
ĠÚªØ§Ø± ÚĬ
çĶ ²
æį Ł
ent si
ĠÚªÙ¿ Ø§ÙĨ
ĠØ³Ø¹ ÙĬØ¯
ĠÚ¯ Ø¬Ø±
al u
ĠÙħØº Ø±Ø¨
I i
Ø§Øµ Ø±
çĸ ĳ
éĩĩ çĶ¨
è´ «
ĠØªÙĨ Ú¾ÙĨ
ĠP ar
ĠØ±ÙĪÙ¾ ÙĬØ§
ĠØ¯ÙĪ Ø±ÙĬ
å®Ŀ å®Ŀ
ĠÙħ Ø§Ú³
Ù¿ ÙĬÙĨ
ĠØ¹Ø° Ø§Ø¨
ĠØ§Ú© Ø±
ĠØ§Ø³ ÙĨÙĪÚº
âĢĻ âĢĻ
ĠsÃµ lt
ĠÙĪÙĨ ÚĪ
ĠÙĦ Ø§Ø¦ÙĨ
ĠÚĦÚ» ÙĨ
ĠÙ¾ Ú¾ÛĮ
èī² èī²
ĠÙĩÙģ ØªÙĬ
Ġv eid
ĠÙģÙĪØ¬ Ø§Úº
Ġs ood
ĠØ³ Ø§Ø¦
ĠÚĨÚĳÚ¾ Ø¯ÛĴ
ĠÙ¾Ø± Ø§ÙĨÛĴ
Ġæ ¿
ĠØ§Ø¹ØªØ± Ø§Ø¶
ĠØ§ÙĬ ÚĬ
iv a
çĽ Ĺ
ĠÙģ ÙĪØ±Ø³
ĠÙĤ Ø§Ùģ
æ± ł
à´ļ à´ª
ĠØ§ÙĨÚ¯ÙĦ ÙĬÙĨÚĬ
ĠØ§Ù¾ Ø±ÙĬÙĦ
ÚĨ ÙĦ
è® ¿
ĠØªØ±Ø¨ ÙĬØª
ug ust
Ġpo liit
el u
Ø´ÙĪ Ø¨Ø²
ĠÚ© ÙĦÙĬ
ĠØ§Ùģ Ø³Ø§ÙĨ
Ø§Ø¯ ÛĮ
ĠÚªÙĬ Ø¦ÙĬ
o se
uv Ãµt
ĠÙĩÙĦ ÙĨØ¯ÙĪ
Ûģ ÙĪÚº
Ġh el
v Ã¤Ã¤r
çĻ¾å®¶ ä¹Ĳ
Ù¿ ÙĦ
ĠØ¨ÙĨØ¯ÙĪ Ø¨Ø³Øª
ĠØ¹ÙĦØ§ÙĤ Ûģ
å° º
ĠØ± Ø§Ú»ÙĬ
ĠØ¨ Ø§ÛģØ±
ĠØ§Ø®ÙĦ Ø§ÙĤÙĬ
âĢ¦âĢ¦ âĢ¦âĢ¦
ĠÚĩÙĪÚªØ±ÙĬ Ø¡
æ± ĩ
v ast
é¢Ĩ åŁŁ
Øª Ø¨
æī ĳ
ĠeesmÃ¤r k
ĠsÃ¼ nn
ĠÙĩÙĦ ÙĨØ¯ÙĬ
ĠÙĨ Ø§Ù¾
ç¶² ç«Ļ
Ùħ ÛĴ
ä»Ģä¹Ī æĹ¶åĢĻ
Ø®Øª ÙĪÙĨ
ĠØ¹ ÙĤ
Ġà´ĩ à´ķ
åħ Ĵ
ĠØª Ø§Ø²ÙĪ
ul ine
ĠØ±ÙĪ ÚªÚ»
ĠP a
ä¼ ¤
ĠÙĪ Ùĩ
æ°´ å¹³
Ø¬ ÙĩÙĬ
Ġ umb
ĠvÃµimal us
ĠØ±Ûģ ÙĨ
ĠÚĬØ±Ø§Ø¦ ÙĬÙĪØ±
ĠÙĦÙĪ Úª
le n
åĨĻ çľŁ
èĦ ¸
ĠÚ¾ ÙĬÙĪÙĨ
éĢļ çŁ¥
Ġal usel
ĠÙħ Ø§Úº
s use
Ġ æĹ¥
å¾ ŀ
Ġteg elikult
ĠØ¨ Ùħ
Ġ åħ¬
ĠØµÙĪØ¨ Ûģ
Ġva im
åĵ ¡
ĠØ³ ÙĬÙħ
6 9
ĠØ·Ø§ÙĦ Ø¨Ø§ÙĨ
Ùħ Ø³
èĩ Ģ
oo k
f f
èĲ ¨
ĠÚªÙ¾ ÚĻØ§
ĠÙ¿ Úª
çĵ ¶
te id
ĠØ§ÙĪÙĨ ÙĪÚº
5 1
ĠÙħ ÛĮÙĨÙĪÚº
Ġj ne
Ġpr oov
h ed
åħ ¼
éĤ£ éĩĮ
æļ Ĥ
ava id
uv alt
ĠØ¯ ÙĦÙĬÙĦ
ĠØ¨ ÚĨÙĬ
Úı ÙĨ
ĠØ§ÙĬÚª Ø³
last e
ç²¾ åĵģ
èĪ ¹
Ø¨ ÙĬÙĪ
ĠÙ½ Ø±ÙĬÙĨ
t h
ÚĻ Ù¾
ĠÙĤØ¯Ø± Øª
Ø³Ù½ ÙĪ
éł Ń
ĠÙĨØ´ Ø§ÙĨÙĪ
0 1
ĠÙħ Ø§Ø¦ÙĬ
ĠØ·ÙĪ Ùģ
j Ã¤Ã¤
ĠÛĮØ±ÙĪØ´ ÙĦÛĮÙħ
ç©º éĹ´
éħ ·
3 60
ĠØ¢ ÙĬØ³
ĠØ±Ùĩ Ø§Ø¦Ø´
ĠÚı ÙĪØ±
ä¹° åĲĹ
ĠØ§Úª Ø§Ø¦ÙĪÙĨ
æ· ·
æĿ Ĥ
ĠØº ÛĮØ±
ĠØ°ÙħÙĬÙĪ Ø§Ø±ÙĬ
ĠvÃµ id
Ã¼ k
ĠØ® Ø§Ø±
è¯ ļ
ĠØ³Úª ÙĪÙĨ
Ùģ Ø§
ĠÚĨØ§ÙĨ ÚĬÙĬÙĪ
è¯ į
Ù½ÙĪ Ø¨Ø±
ĈĈ ï¼Į
ĠØ± Ùħ
at el
éĽ¶ éĴ±
Ø§ÙĨ ÙĪÚº
ĠÚĦ Ø§Ú»ÙĬ
ĠÙħÙĪÙĦ ÙĪÙĬ
ĠÙ¿ÙĬ Ø³
. "
Ø¹ ÙĬØª
éĴ Ī
ĠÚ© Ø±ÛĮ
Ú¯ Ø±ÙĨ
ÚĨ ÙĨØ¯
Ø§ÙĩÙĬ Ùħ
è« ĸ
z z
ist eeri
ÚĢ Ø±ÙĪ
ĠÙĤ Ø±Ø§
ĠÚ©Ø§ ÚĮÙĪ
ÚªÙĦ ÙĩÙĩ
ĠÙ¾ÙĪØ¦ ØªÙĬ
ä¸ ¦
ĠS uur
ĠÙĩ Ø§ÙĦØ§
ĠÙħ Ù½ÙĬ
Û ¹
Ùĩ ÚĻÙĬ
å®¹ æĺĵ
ĠØ§Ø³Ù¾ ÙĬÚªØ±
ÚĻÙĩÙĬ ÙĦ
Ġà´ķà´£ à´ķ
ĠØ¢ Ú¾
ĠØŃ Ø§ÙģØ¸
Ñ Ģ
ek on
æĢİä¹Īé¢Ĩ å¥ĸ
ĠÙĨÛĮ ÚĳÛĴ
à´· àµ»
éĸ Ģ
ĠÚ©Ø§ÙĨ Ø¦Ø³
ĠØ´ ÙħØ§Ø±
åĩº äºĨ
ĠlÃ¤he b
o et
ĠÚĨ Ø§ÙĦ
Ġà´ĩ à´¸
Ú© Øª
åĲ »
la se
ĠÙ½Ø§ÙĦ Ù¾Ø±
åĪ© çĶ¨
ĠÙģÙĪ Ø±ÙĬ
Ġt Ãµttu
il i
ĠØ¨Ø§Ø² Ø§Ø±
ĠÚĬÙ¾ Ù½ÙĬ
ĠØ¯ Ø§Ø¯
ĠÚ¯Ø±ÙģØª Ø§Ø±ÙĬ
æ¶Ī æģ¯
ĠÙħØ¹ Ø§Ùģ
ĠØ¢Ø± Ù½
åĩł çĤ¹
Ġka ub
ĠÙºØ§Ùĩ ÙĬÙĪ
es si
o c
ĠØ§ÙĪÙĨ Ø¯Ø§
ĠÙ¾ Ù½ÙĬ
Ø¶ ÙĦ
ust es
Ø§ ÛĮ
Ù» ÙĪ
ĠÚĢ Ù½Ø§Ø¦ÙĬ
ĠØŃÙĪ Øµ
ĠvÃ¤h em
ĠÙ¾ Úĳ
è¿Ļ æĺ¯
å¿ħ é¡»
Ãµ ist
ĠÙ¾Úĩ ÙĬ
åĲĦ ç§į
Ġka udu
Ġla en
k r
Úª ÙĪÙĨ
ĠØª Ø±ÛĮ
ä½ł çļĦ
ĠØ±ÙĩÙĬ Ø³
æĵį ä½ľ
æĭĽ åķĨ
ØŁ âĢĿ
Ø§Ø³ Ù¾ÙĪØ±Ù½Ø³
ĠÙ¾ÛĮ Ø¯Ø§
äºĭ ä»¶
Ġ Ã¤
n ba
ĠØ³ÙĪÙħ Ø±ÙĪ
ĠØ¹Ø§Ø´ ÙĤ
Ġan al
ĠÙħÙĦ ØªÙĪÙĬ
åĬŀ åħ¬
ĠÙĤØ±ÙĬ Ø´ÙĬ
ĠØ¨ÙĨØ¯ ÛĴ
ç¡ ¬
ä¸» æĴŃ
am as
ĠØ§ÙĩÙĪ Ø¦ÙĬ
ĠÛģ Ø²Ø§Ø±
ĠÙĨ Ø¨
ĠØ¨Ú» ÙĬÙĦ
a jal
ĠÙĪØ± ØªØ§
ä¸Ń è¿ĩ
ing ute
ĠÚ© Ø§ÙĦ
Ġpan na
ĠÙĬÙĤ ÙĬÙĨÙĬ
ĠÙ¾Ø§Ø± ÙĪÚº
àµĭ ?
ĠåĮĹäº¬èµĽè½¦ pk
ĠÙ¾ ØªØ±
ĠÙĪÙº ÙĨØ¯ÙĪ
Ġpra egu
ĠLi idu
ĠÚĮ Ú»
ĠÙ»ÙĪÙĦ ÙĩÙĩ
Ø¢ Ø¡
ÙĨØ¯ Ø³
åĭ Ļ
ĠÚª Úĩ
ĠØ³Ø±Ùħ Ø§Ø¦ÙĬ
Ġpal jud
Ġm iks
ä¼ ĳ
Øº Ø±
ç§ Ł
Ġe em
Ø§Ú» ÙĬÙĪ
ĠØ³ Ù¹
å½©ç¥¨ å¤§åıĳå¿«ä¸ī
Ø§Ø¦ ØªÙĪ
äºº äºº
ĠÙĤ ÛĮ
ĠØ§ØŃ Ø³Ø§ÙĨ
àµĩ âĢĭ
é¢Ĩ åıĸ
ĠÚª Ø¦ÙĨ
Ġis iku
à´¨ à´¸
æ²Ĵ æľī
åĺ ī
ĠÙĤ Ø§Ø³Ùħ
um al
an da
ĠÙ¾Ùĩ ØªØ§
äº ¦
åĲĮ å¿Ĺ
à´ĺ à´Ł
Ø¨ ÛĴ
à´¤ à´µ
ç½Ĺ æĸ¯
l am
ĠÙĪØ§ÙĤ Ø¹ÙĨ
ĠÚªÚĨ Ùĩ
ĠØ§Ù¾ ÙĬÙĦ
ĠmÃ¤n gu
Û ¸
ĠÙħÙĦ Ø§ÚªØ§
Ùħ ÙĨÙĩÙĨØ¬ÙĬ
ĠØ³Ø§Ø± Ø§
à´± à´®
ĠØ¨ Ø§ÙĦÙĬ
Ġà´ĵ à´Ł
å¼ ·
å© ¦
ĠÙħØªØŃØ¯ Ùĩ
ad est
ĠÙħÙĬÚĬ ÙĬÚªÙĦ
Ġå¤©å¤©å½©ç¥¨ æĢİä¹Ī
ĠÙ½ÙĪ ÚĻ
Ġ é»Ħ
ĠØ¯Ø± Ø¬ÙĬ
ĠØ§ Ù¾ÙĪ
ĠØ¢ Úº
Ġku u
è¯ ¦
ĠØŃÙħÙĦ Ûģ
åĭ Ĵ
Úĳ ÛĮØ§
è· ³
Ø§Ø± ÙĤ
éĿĴ éĿĴ
ĠÚª Ù¾ØªØ§ÙĨ
ĠkÃµ ig
v ar
ãĢĤ ãĢį
çĶ± äºİ
ç§ ĭ
ĠtÃ¤hele pan
ĠØ±Ú© Ú¾ÙĨ
ĠØ¨ ØŃØ§ÙĦ
æĹ¶æĹ¶å½© è®¡åĪĴ
ĠØŃ Ø¯ÙĬ
ul ik
ĠÚĮØ± Ú»ÙĪ
ĠÚªØ±ÙĬ Ùħ
Û ¶
Ø³ Ø±ÙĬ
ĠÚĨ ÚªØ±
àµ¼ à´µ
Ġf ot
å½±éŁ³ åħĪéĶĭ
E R
ĠÚªÚį ÙĬÙĪ
ĠØ¬Ø§ Ú¯ÙĬØ±
Ġen nast
.... ....
ĠØ¯Ú¾ Ø±Ùħ
ä¸¾ æĬ¥
ra af
ĠÚªØ± ÙĨ
p ool
åķª åķª
àµį :
ĠØ§ Ø«
ĠÙ» Ø§ÙĨÙĩÙĨ
Ġæĥħ èī²
èµ¢ éĴ±
ĠÙĩ ÙĬÙĦ
ĠØ¹Ø¨Ø¯Ø§ÙĦ ÙĦÙĩ
å¡ ĳ
Ġå½©ç¥ŀäºīéľ¸å¤§åıĳ å¿«
ĠØ§Ø³ ØŃØ§ÙĤ
ĠØ¹Ø± Ø¶
Ġ ul
éª ¨
å»º çŃĳ
ig em
ĠØ¹Ø± ØµÙĪ
ĠØ¨ Øª
æĶ» çķ¥
ĠØŃØµ ÛĴ
ise st
ĠÙĤØ¨ Ø¶ÙĬ
ç» ĥ
ä¹Ł ä¸į
ĠÚ©Ø± ÛĴ
ĠØµ Ø¯ÙĬÙĨ
ĠÙģ ÙĬÙĦ
Ġ å¥³äºº
ĠÙħØ² Ø§ØŃ
ev a
ĠÙħÙĪ ÙĩÙĨ
ĠÙħÙĬÙĨ ÙĩÙĨ
å° ¿
S T
åķ ı
åĪĨ äº«
ak e
å¿« éĢŁ
ĠØ¯ Ø§Ø¯ÙĪ
ĠÙ¾ÙĪØ±ÙĩÙĬ Øª
Úĳ Ø§Úº
Ġan da
, "
ĠÚªÚĨ ÙĩØ±ÙĬ
àµ¼ à´ļ
ĠÚªØ§ÙĦ Ùħ
Ã¼ l
åı° æ¹¾
ald us
àµĤ .
Ġà´Ĩ à´¸
åıª æĺ¯
y y
ĠØ§Ùĩ ÚĻÙĬÙĨ
ÙĬØ§ Ø±ÙĬÙĨ
åĽ½ å¤ĸ
ja id
âĢ¦ ]
ĠÙħØ² Ø§Ø¬
ĠØ¨ÙĪÙĦ ÛĮØ§Úº
ĠØ¯Ø±ÙĬ Ø§ÙĩÙĩ
se r
åĪ¶ åº¦
Ġtule v
ĠÙ¹ Ø¨Ø±
ĠÙħØ§Ø¦ Ù½ÙĨ
ĠÙĪØ± ÙĩØ§
åı ¥
å·¨ ä¹³
ĠØ§Ø³ Ø±
å½©ç¥¨ ç«Ļ
éĻ Ħ
Ġå¹¿ ä¸ľ
j eld
çĮ «
ĠØ³ÙĪØ³ Ø§Ø¦
ĠÙ¾ ÛĮÙĨ
it ada
ĠØ¨ Ø§Ø²ÙĬ
ad ega
ĠÙħ ÙĩÙĬØ§
åŁº åľ°
çĤ ¸
Ġma itse
è¿ ª
ä¸į åı¯
ĠÙĩÙĬ ÚĬ
Ø¦ Ùħ
æ´ ģ
åĩł ä¸ª
ĠÙĨ ÙĬÙĨ
Ġ çĻ½
ĠÙĤ ÙĪ
à´ķ à´´
è£ ¡
åªĴ ä½ĵ
al is
ÙĨØ¯ ÛĮØ§Úº
Ġar tik
à´° à´ļ
ĠØ¨Ø± Ø¨Ø§Ø¯
Ã¶Ã¶ t
Ġæ¿ Ģ
ĠÚĩ ÙĩÙĩ
Ġas jad
ç»Ł ä¸Ģ
Ġ åįļ
ĠØ§ÙĨ Ú¾ÙĬØ¡
200 7
Ø¬ Ø²
ĠÃµ pil
ĠÚªÙĩ ÚĻØ§
å®ŀ æĸ½
Ø¯ ÛĮÙĨ
ĠÚªÙĬÙģ ÙĬØª
èµ· æĿ¥
ĠÙĪØ§Ø³Ø· ÛĴ
à´° à´ĸ
up Ã¤ev
åħ¨ éĥ¨
à´¿ âĢĭâĢĭ
ç§¯ æŀģ
äºķ ç©º
ĠØ¬ Ù¾Ø§ÙĨ
-- --
Ġd e
Ġkah e
ĠØ§Ø¨Ø± Ø§ÙĩÙĬÙħ
Ġ[ âĢ¦]
Ùħ Ûģ
ĠÙģ Ø§Ø±ÙĪ
ĠØ±ÙĪ ÚªÙĬ
à´°à´£ à´®
I N
äº Ī
ĠvÃµr r
åıĸ æ¶Ī
åĲ ¯
åĩ ¤
ÙĨ Ùĩ
Ð ½
ĠØ¢Úª Ù½ÙĪØ¨Ø±
åĪ º
ĠØ³ÙĨÚ¯ ÙĩÙĩ
Ġos as
ä¼ ¯
ä¼ł ç»Ł
ĠØ¢ Ø¦ÙĪ
ĠÙĪÚª Ø±ÙĪ
il d
ĠÙĨØµÙĬ Ø¨
Úª ÙĬØ¡
ĠÙĪ Ú»ÙĨ
éĨ «
Ø¹ Ûģ
ä¸Ģ åĢĭ
ĠØ§Ú© Ú¾
éĢ Ĳ
ul aar
Ġmet s
ĠÚĨ ÙĩØ±ÙĬ
ĠØ¬ Ø§Ø±ÛĮ
ĠØ¬ÙĩÙĨ Ú¯
en n
ĠØªØµ Ø¯ÙĬ
æ° §
Ġà´ķ à´¤
ad us
ĠØ³ Ø§Ø¯
çĶļ èĩ³
Ġn end
è¿ĺ æľī
ĠØ¯Ú©Ú¾ÙĨ ÛĮ
ĠØ§Ø³ Ø¯Ø§
ig us
ĠÚªÙĪ Ø§ÙĦØ§ÙĦÙħÙ¾ÙĪØ±
é½ Ĳ
ĠÚĨØ§Ùĩ ÙĬÙĨ
ĠÙĨ Ø¯
ĠÙĪÚĮ Ø§Ø¦Ú»
Ø§ÙĦ Ø§Ø¬ÙĬ
æ¡ ¥
ĠC h
Ø§Ø± ÛĴ
èĪ Ĵ
Ġ åģ·æĭį
o u
ĠØ§Ø¨ ÚĻÙĬ
ĠØ§Ø³ÚªÙĪÙĦ ÙĨ
Ú¯ Ø°
æĺ Į
éħĴ åºĹ
Ġma ja
Ġm inna
Ã ķ
ĠØ§ÙĨÚĬ ÙĬÙĨ
à´ĩ à´¨
ĠØ¨ Ø§Ø¬
éĩį çĤ¹
ĠØ·Ø§ÙĤØª ÙĪØ±
å¼Ģ æĶ¾
u ut
æľī åĵªäºĽ
å·¥ åħ·
ĠvÃ¤ he
Ġå¤§åıĳå¿«ä¸ī è®¡åĪĴ
ĠÙĪÚĮ Ú»
ĠÙ¾ÙĪ Ú©
æĩ Ĥ
å¾ Ĳ
çİ° ä»£
Ġ æľĢ
ä¸» ä¹ī
çİĦ æľº
ĠØ¢ Ø³Ù½Ø±ÙĬ
av ast
ĠØªØ¹ Ø±ÙĬÙģ
Ú¾ ÙĪÙĨ
ĠÙ¾Ûģ ÙĦØ§
Ġk ann
çŃ īé
åŃĲ çļĦ
ÙĬÙĪ Ù½Ø±
ik ogu
ĠØ±Ú© ÙĨØ¯ÙĪ
ĠÙģØ§Ø± Ø³ÙĬ
è¡ ĵ
Ġà´¨ à´Ĺ
ĠØ³Ùĩ Ú»ÙĬ
Ø§ÙĬ ØªÙĬ
is jon
Ġæ ¯
æĭ ĸ
è¡Į ä¸º
ist ada
ĠÙ½ ÙĬÙĪÙĨ
Ġh tt
ole k
u gu
et te
Ù½Ø±ÙĪ ÙĬÙĪ
ĠÚĨ ÙĬÚª
Ú³ Ø§
ord i
ĠØ±ÙĪØ² Ø§ÙĨÙĬ
s na
ĠÚ¯Ùĩ ÚĻÙĬ
p la
ĠØ§ÙĦ Ø¨Øª
Ã¤ e
ĠØ³ÙĨØ¯ Ú¾
ĠÙĨÙħ ÙĪÙĨ
ir m
lik ooli
ĠsÃ¤ il
ĠØ³ Ø§Ø±ÛĮ
ä¿¡ èªī
b t
ĠÚ© Ø§Ø±ÙĨ
Ġku hu
ĠØ§ÙĬ ÚıÙĬ
æ³¨ æĦı
Ġ ..
ĠA n
Ø³Ù½ÙĪ ÙģØ±
Ġreg istreer
Ø¨ Ø§Ø¨
ĠÙĤØ³Ùħ Øª
ç»ĵ æŀĦ
æĬ¤ å£«
äº¤ éĢļ
Ø§ÙĪ ÙĬ
à´İ à´²
Ġà´¤ à´°
à´µ à´®
ĠÚ© Ø¬
Ġå¤§åıĳå¿«ä¸ī åĴĮåĢ¼
ĠÚĨÙĪÙĨÚĬ ÙĬÙĦ
à´² à´ķà´³
æ §
Ġ åĽĽ
gi b
èµĶ çİĩ
ma k
è ļ
Ġå¤©å¤©ä¸Ńå½©ç¥¨ ä¹°
æ¦ Ĥ
ÙĲ .
ĠÙ¾ÚĻ ÙĩØ§Ø¦ÙĬ
Ġm Ã¶Ã¶
éħ ¸
ĠØ¬ÙĬØª Ø±ÙĬ
ÛĮØª ÛĮ
ĠÙħØ¸ ÙĦÙĪÙħ
ut ud
ÙĬÚª Ù½
æľª æĿ¥
ĠØ¯ Ø§Ø³Øª
ĠÙ¾Ø¦ Ø³ÙĪ
Ġm ind
ĠÙĪ Ø§Ø¬
ĠÙħØ¨ ÙĬÙĨØ§
çĶ ¢
up p
Ġåħ¨æ°ĳ å½©ç¥¨å¤©å¤©
ÙħÙĦ Úª
Ġå¤§åıĳå¿«ä¸ī æľī
6 8
ä½ĵ ç³»
ÚĻ Ø¬ÙĬ
ĠÙħØ§ Ùº
ĠØ³Úª ÙĬÙĪØ±Ù½ÙĬ
Ġar end
a c
Ġà´¤ à´²
ĠÙ¾ÙĪØ± ÛĮ
ĠØ¯ Ø±Ø¨
çŁ¥ è¯Ĩ
ĠkÃ¤ ib
çµ ¦
Ø¬ÙĬÚª ÚıÙĩÙĨ
Ġne ile
ĠtÃ¤ is
ĠÙĪ Ø§Ùĩ
Ġå¤©å¤©ä¸Ńå½©ç¥¨ å®ĺç½ĳ
ĠÛģ ÙĨØ¯Ø§
ĠnÃ¤ id
ĠØªØµØ¯ÙĬ ÙĤ
ĠÙ¾Ø§Ø± Ù¹ÛĮ
ĠÚĢØ§Ø¦ Ø±ÙĨ
ĠÙĪ Ø§ØŃØ¯
Ġumb es
Ù¹ Ø³
ĠØ¨ÙĨ ÛĮØ§
Ġà´µ à´ļ
âĢ¦ .
ć Ć
ĠØ±Ûģ ÛĮØ§
ĠÚª ÚıÚ¾ÙĨ
ĠÙĨÙĨÚį Ø§
Ø§Ø± Ø§Ø¬
Ø±ÛĮ Ú©
Ġe m
ĠØ³Ùģ Ø±ÙĨ
æ¯ı å¤©
ĠØŃØ§Ø¶ Ø±
ĠØ±Ù½ Ø§Ø¦Ø±
è¿Ľ ä¸ĢæŃ¥
: -
Ø±ÙĬ Ø´ÙĨ
ĠÙ»ÚĮ Ø§Ø¦Ú»
å¿«ä¹Ĳ åįģåĪĨ
ĠØ² ÙĩØ±
è°ĥ æķĻ
Ġinimest e
ĠØ¬ Ø§Ø¯ÙĪ
Ġer ald
Ø§ÙĬ Ø§Ø¦ÙĬÙĨ
äºĭ æĥħ
Ġteg emist
- ,
ÙĦÙĪ Ø§Ø±
ĠØ¯Ø± Ø³
èº«ä»½ è¯ģ
ĠÙĪØ³ÙĬ Ø¹
ĠÙĨÛĮ ÙĪ
æĮ ĳ
ĠÙħ Ø§Ú»ÙĬ
ĠmÃ¤r g
ä¸į ç»Ļ
ØŃ Øª
s m
ä¸ļ åĬ¡
è¿ħéĽ· ä¸ĭè½½
à´¡ à´²
ĠÙ¹ ÛĮÚ©
à´İ à´«
ĠØ§ÛĮÙĨ Ø¬
å¤ĸ æĮĤ
æīĭ æ©Ł
Ġm ad
çĶŁ èĤĸ
Øª Ø§Ø¦ÙĬ
ĠØ³Ú¯Ú¾ Ø¬ÙĬ
Ġå¤©å¤©ä¸Ńå½©ç¥¨ å®ŀåĲį
ĠÚĨ Ø§Ûģ
è Ŀ
at u
åİŁ åĽł
ä¸ĩ åħĥ
èĻ½ çĦ¶
ç ĺ
6 2
Ùħ Ùĩ
ĠÙĨÚªØ± Ú»
ĠØ´ Ø¯
n am
imise l
Ñ ģ
Ġr ÃµÃµ
ĠØ§Úª Ø«
ĠÙĪØ§Ø±ÙĬ ÙĨ
ĠÙĩÙ¿ Ø§ÙĨ
ĠÙ¾ÙĪ ÚĦ
ĠØ¬ Ú¯
Ù½ ÙĬÙĪ
è© ±
ĠØ¬Ùħ Ø§Ø¹
çĶ· å¥³
çķª åı·
çĽ® æłĩ
ĠÚĨÙĪÙĨÚĬ ÙĪÙĨ
çĽ ĸ
ä¼ĺ æĥł
çº ¯
Ø± Ø§Ùħ
Ġrak end
ç½ ª
ĠÚıÙĬ Úį
ĠØ§ÙĪ Øª
ĠØ®Ø§ÙĨ ÙĬ
15 0
ĠÙħØ±Ú© Ø²
ĠK ar
ĠØ¸ Ø§ÙĦÙħ
Ġpil d
Ø§ ÙĪØ±
ÙĪÙĦ Ù¾ÙĨ
Ġteg utse
ĠØ¨ Ø±Ø§
åŁº éĩĳ
æīĭ æ¸¸
à´¯à´® à´Ļ
av i
Ġ éŁ©åĽ½
ÙĪÙĨ ÙĪÚº
ĠÙĪØ§ÙĤ Ø¹Ø§
Ġs inu
Ø³ÙĨØ¯ Ø³
ä¿® æĶ¹
ĠØ¬ÙĨ Øª
ä¸ĭè½½ å½©ç¥ŀäºīéľ¸
ĠÙĦØ§ Úı
ĠÚ³Ø§ÙĦÙĩ Ø§ÙĬÙĪ
ĠØ§ÙĦ Ø§ÙĤÙĪ
Ġvast avalt
Ø§Ø¦ ÙĦÙĨÚĬ
èģĶ åĲĪ
ÚĮ ÙĨ
an k
ä»¥ ä¸Ĭ
ĠÙĩ Ø¬
ĠØ¯ Ø¹
Ġtal le
ĠÙĦÚ© ÙĬÙĨ
å¢ ĵ
ÙĬ Ø´
Ġab il
ĠØ¶ Ø§Ø¨
Ġpak ub
àµ¼ à´¡
ĠÃľ h
Ù½ÙĬ Ùģ
Ø² ÙĨØ¯
æĬ ĺ
åĿļ æĮģ
æĿ¡ ä»¶
Ġsuur e
ÙĪÙĨ ÛĮ
Ø±ÙĬ Ù½
Ø· Ø§ÙĤ
ĠÙĪØ² ÙĨ
à´ Ī
ema ks
ĠØ¹ÙĦØ§Ø¦ ÙĤÙĪ
âĢĮ àµį
Ø§Ùģ ØªÙĬ
ĠØ§ÙĨ Ù½Ø±ÙĪÙĬÙĪ
Ġà´ĩ à´Ļ
ĠØ¬ Ø§Ø±
èĭ ¦
ĠØ±ÙĪØ² Ú¯Ø§Ø±
ĠÚĩÚı ÙĬÙĨØ¯Ø§
ĠÚ© ÙĨÚ¯
ĠÚ¦ Ø±ÙĬ
åºĶ è¯¥
Û ·
ĠÙħ ÙºÙĬ
æĪ ²
ah t
ĠÙĦØ´ ÚªØ±
ĠK Ãµik
ĠØ±Ø³Øª Ø§
æ¤ į
ĠØªÛģ Ø§ÙĨÙĪÚº
Ûģ ÙĨ
çļĦ æĹ¶åĢĻ
Ġhilj em
Ġv orm
ĠØ³ÙĪ Úį
ĠÙ½ Ø¦ÙĬÙĨ
ĠÚĨÙĪ Úª
æĴŃæĶ¾ åĻ¨
ĠØ³ Ø³Ù½Ùħ
ĠÙĨÙĨÚį ÙĪ
ĠØ¨Ú¾ Ø±
æİ¨ åĬ¨
ĠÚ© Ø³
ed el
ĠØ§ÙĬØ¦Ø± Ù¾ÙĪØ±Ù½
ĠØ§Ø³ Ø¯ÛĴ
ĠØ· Ø¦ÙĬ
ĠØ¬ Øª
Ø§Ø¦ ØªÙĬ
Ġkoh ust
Ġas i
ime es
Ġar ut
ik ust
ĠÙ½ÙĬÚª Ø³
ĠØ´ Ú¾Ø±
çµ Ĳ
ĠÙ¾ÙĨ Ø§ÙĩÙĩ
ĠÛģÙĨØ¯ Ø³ØªØ§ÙĨ
Ġà´ķ à´µ
ĠÙħÙĩØ± Ø¨Ø§ÙĨÙĬ
ĠMe ie
ĠØ¬ÙĨ Ø§ØŃ
åĴ ª
ĠÙħÙĨ Øµ
ĠÙħÙĨØ¸ ÙĪØ±ÙĬ
Ø± Ø³
ip Ã¤ev
ç» ©
ĠSam uti
ç¨³ èµ¢
ĠØµØŃ Ø§ÙģÙĬÙĨ
Ø§Ø¦ÙĬ Ù½
è¾¾ åĪ°
åĽ¾ åºĵ
Ø±ÛĮ Ùģ
åĬ ³
ĠØ±Ø§Ø¬ Ú¯ÚĳÚ¾
Ġp ikk
àµ½ à´ª
Úª Ø´ÙĨ
ĠÙ¾Øª Ûģ
Ø¨ÙĬÙĪ Ø±ÙĪ
ĠØ§Ùħ ÙĬÙĨ
ate g
Ġka ot
à´ĩ à´¤
Ġte da
amise st
ĠØ¹ÙĦØ§ÙĤ ÛĮØ§Úº
l is
ja k
Ġ å®Įç¾İä¸ĸçķĮ
éģ Ĺ
Ø¬ÙĬ ÙĦ
ĠØº Ùħ
æķĻ åŃ¦
Ġvar em
Ġal les
ä¸Ģ ä¸ĭ
ĠÙĤ ÙĨ
ĠØ¯ÛĮ ÙĨØ¯Ø§
Ġ å®ī
ĠÚĦ Ø§Ø¦ÙĪ
Ġkon tse
å·ŀ å¸Ĥ
Ġå¤©å¤©ä¸Ńå½©ç¥¨ åıĮèī²çĲĥ
è· Ŀ
ÙĦ Ø·ÙĬÙģ
ĠÙģÙĦØ³ Ø·
uv a
è ĺ
ÙĦ ÛĮØ§
Ùı ØĮ
akon na
åĨħ éĥ¨
ĠtÃ¤h endab
åĨł åĨĽ
ĠÚª Ù½ÙĨ
Ù¾Ù½ ÙħØ¨Ø±
âĢĶ âĢĶ
ĠØ¢Ø¦ÙĪ Ù½
ĠØ¯Ø±ÙĪ Ø§Ø²ÙĬ
åĢ «
ĠØ±ÙģØª Ø§Ø±
Ġa it
ĠØ¹Ø¨ Ø§Ø³
åİĨ å±±å¤§åıĳ
ä¿Ħ ç½Ĺæĸ¯
ĠÚ¯ ÙģØª
à´£ à´¯
ĠÚ³ÙĪ ÙĦÙĬ
å° ¤
ĠO n
éĤ£ ä¹Ī
ĠØ³Ø± Ú©Ø§Ø±
ĠÚ©ÙĪ ÚĻ
ĠØ· Ø§Ø±ÙĤ
ĠÚªÙĦ ÚĨØ±
, âĢľ
æī¾ åĪ°
à´ķà´° à´®
Ġå¤©å¤©å½©ç¥¨ app
ĠÙº ÙĩÙĬ
am aks
åĸ Ŀ
ĠÙĩÙĨÚĮ ÙĨ
âĢ ŀ
éĿ Ļ
çķ «
Ø¢ ÙħØ¯
ĠÙ¾Ø± Ø§Ø¦Ùħ
ĠÙģÙĪ Ù½ÙĪ
ä¼ļ è®®
ØŃ Ø¶
à´ļ à´ķ
Ġme ile
ĠÚ¯Ø§ÙĦ Ú¾
et se
ĠØµØ¯ ÙĬØ¡
h k
ut o
ĠØ¯ÛĮÙĪ ØªØ§
à´ļ à´±
aal i
oo st
æķĪ æŀľ
Ġker g
Ġvan a
åĩº çļĦ
ÙĪØ±Ø³ Ù¹ÛĮ
ĠÚ©ÙĪ Ø´Ø´
ĠØ¢ Úĩ
ç±» ä¼¼
Ø§Øª ÛĮ
çī¹ èī²
ĠtÃ¤i esti
Ġu ud
ĠÙ¿ Ø§Ùħ
ĠÚªÙħ Ø§ÙĨ
ĠÙ¾Ùº Ø§Ú»
ĠettevÃµt te
ć Ćć
å¤ĸ åĽ½
ĠÚ ¦ÙĬ
å¡ Ķ
vest eer
Ġæ¿Ģ æĥħ
ĠÚ¯Ùĩ ÙħÚ»
ast a
Ã¤ ng
ĠÙĦ ÙĩØ±
âĢ ķ
ĠØŃØ¯ÙĬ Ø«
Ġà´¸à´® à´°
æħ §
ĠØ²Ø¨Ø±Ø¯ Ø³Øª
çģ ¯
ĠØ¨Ø§ÙĤ Ø§Ø¹
ĠÚĩÙĪ ÚªØ±ÙĬÙĨ
ĠÙĤ ÙħØ±
ĠØ§ÙĨ ÙĪ
Ġæ± Ł
æĪĳ åĽ½
p al
Ġinim ene
ĠlÃ¤h ed
ĠØ¯ ÙĬØ³
ĠÙħ ÛĮØ±ÛĴ
Ġole d
ĠØ§Ø¶ Ø§ÙģÙĪ
in k
Ġn iis
ĠÚĮ Úª
Ġm ine
å°ı æĹ¶
ÙĨ Ø³
ĠÙħÙģ Ø§Ø¯
Ġpar and
à´Ĵ à´°
E L
ĠØ§Úĩ ÙĦ
æīĳ åħĭ
Ġtas uta
éĶ ®
inf o
Ġa st
ĠÙ¾Ûģ Ø§
è½¯ä»¶ ä¸ĭè½½
alay alam
ĠØ¶ ÙħÙĬØ±
Ø§Øª Ø§
Ġà´ ĺ
æĢ ķ
å¥ĸ éĩĳ
ĠØ±ÙĬ Ø§Ø³
Ã¤ nd
Ġà´Ĵ à´Ł
Ø±Ùħ Ù¾
å®Į åħ¨
Ø¬ Ùħ
å®ŀ éĻħ
à´¤ à´°à´µ
ĠÚĮ Ø§Ø±ÙĬÙĨ
çĹ Ľ
Ġà´µ à´¸
åĲį åŃĹ
æĻļ ä¸Ĭ
åħĪ çĶŁ
éĢĻ åĢĭ
ĠtÃ¤ ht
ç¿ »
çĽ Ĵ
Ġà´ľ à´¯
åĪ¶ éĢł
ĠØ¨Ø¯ ÙĦÙĬ
åıĤ åĬł
å¦ ĸ
ĠpÃµh jal
ĠØŃÚªÙħØ±Ø§ÙĨ ÙĨ
Ġra am
äºº æīį
ĠÙħØŃ Ø¨
Ġà´ª à´ŀ
åįĪ å¤ľ
ĠÚªÙĬ Ø§ÙĨ
ĠØ³ÙĦ ÙħØ§ÙĨ
æĢĿ æĥ³
ĠØ§Ø³Øª Ø¹ÙĬ
o li
ä¼¦çĲĨ çĶµå½±
" .
ä¸į è¿ĩ
ĠÃ¼ sna
æĺ¯ åģĩ
Ġras ke
Ġh omm
Ġ é»ĳ
v ip
ĠE r
æļ Ĺ
Ġhetk el
Ġl Ã¼h
ĠØ³ Ø§ÚĻ
Ġa itab
its use
ikk e
Ġhe ad
Ø§ÙĨÙĪ ÛĮ
Ú³ ÙĨ
ĠsÃ¼ d
ĠØ²Ùħ ÙĬÙĨØ¯
åĩ Ģ
Ġpr ogramm
Ġho i
ite ga
è¾ °
Ġ ?
an sp
ä¸Ĭ å¤©å¤©ä¸Ńå½©ç¥¨
Ġà´¹ à´°
ĠØ²ÙĬ Ø§Ø¯
é¢ ¨
ĠØ®ÛĮ Ø§ÙĦ
æī ©
ĠØ®ÙĬ Ø¨Ø±
ĠØ¨ÚĨ Ø§Ø¦ÙĬ
Ġmille st
ĠØ¹Ø§ÙĦ ÙħÙĨ
åħ± åĲĮ
ĠÙħØ´ Ø§Ùĩ
ĠØ±Ûģ ÛĮ
ĠÃ¶ elda
çīĪ ä¸ĭè½½
åĪł éĻ¤
Ø¹ Ø¨
ĠÙģ ÙĨÚĬ
å£° å°ıè¯´
æķ £
åĿ ĳ
ĠØ°ÙħÙĬÙĪ Ø§Ø±
ĠØ³ ÙĬÙĪ
æĢ§ çļĦ
ĠÙ¾ÙĪ Ú»
ĠÙĤ Ø§Ø¯Ø±
ĠØµÙĪ Ùģ
ĠÙĨÙĨÚį ÙĨ
ç»Ł è®¡
æľĢ åĲİ
ĠÚª Ø§Ùģ
ĠØ´ÚªØ§Ø± Ù¾ÙĪØ±
ĠÙ» ÙĩØ±
æľī åħ³
æĩ ī
ĠmÃµn ed
æķ ¸
ĠØ±ÙĬ ÙĦÙĬ
ĠØ®Ø· ÙĬ
ĠØ¨ ØºÙĬØ±
ĠÙħØµØ· ÙģÙĬ
à´¯à´ķ à´¨
ĠP Ãµh
ĠÚĢ Ø±ÙĬÙĪ
ç² ¤
ĠÙĬÙĪÙĨ ÙĬÙĨ
Ú¯ Ø§Ø±ÙĨ
éľ ĩ
ĠØ³Ø±ÙĪ Ø§Ú»
æĭ ¼
ĠÙĪÙĬ Ø²Ø§
ÙĨÚ¯ Ø±
ĠØ§Ù¾ÙĪ Ø²ÙĬØ´ÙĨ
ĠØ§ÚĦ ÚªÙĦÙĩÙĩ
Ġà´® à´²
ÙĪ Ø§Ø±ÙĨ
Ġpr akt
el a
Ø§Ú³ ÙĪ
å§ ĵ
k ti
æİ ª
ĠØ§ÛĮÙĨ ÙĪÚº
è§Ħ å®ļ
Ø³ÙĪ Ø¹
éĺ¿ å§¨
ÙĦ Ø±
ĠÙ¾Ø§ÙĨ Ø§ÙħØ§
ĠÙĦ Ø§Ú©
ab er
Ġu ut
Ġà´® à´°à´£
ä¸į å¼Ģ
ĠØ¢ ÙĬÙĪÙĨ
Ġsa g
ik ute
il isi
le r
ama a
Ġh ot
ĠÙĦÚ³ Ú»
ĠØ¯Ø³ØªØ§ÙĪ ÙĬØ²
ĠÙĤØ¯Ø± ØªÙĬ
j j
åħ¨ å¤©
ĠÙĦ ÙĤ
ĠØ§Øª ÙĦÛĴ
ÙĦ Úª
ĠP al
Ûģ ÛĮ
ĠØ±Ûģ ÛĴ
ĠØ±Ø³ Ø§ÙĦÙĬ
ĠØ¬ ÙĦÙĪ
åĢį æĬķ
ç«ŀ çĮľ
ĠÚĬÙĪ ÚĻ
ĠØ¨ Úª
Ù¾ÙĨØ¬ Ø§Ø¨
è¨ Ī
Ñ Ĥ
Ġal ust
ĠØ¨ÙĨ Ø¬ÙĬ
çĶŁ æĢģ
ĠØ§ÙĨØ¬ Ø§Ùħ
ĠØ§ Ø±Øª
ä¸» ç®¡
ĠÙĪ Ø§ÙĩÙĩ
ĠÙģÙĪØ¬ ÛĮ
æĶ¿ æ²»
ä¼ ´
Ġà´Ĩ à´±
æĮ ¥
ĠØ¯Ø§ÙĨ Ø´ÙĪØ±
åĲĪæ³ķ çļĦåĲĹ
çĿ ¡
l oom
ĠÚªØ¦ ÙħÙ¾
77 7
ĠØ³ÙĬ Ùº
ĠØŃØ³ Ø§Ø³
æĬ¥ åĳĬ
å¼ Ħ
åľ¨çº¿ æĴŃæĶ¾
è¯ ¸
Ġveid i
ĠÙĩÙĨØ¯ ÙĨ
24 6
ad use
ĠÚıØ³ ÙĨØ¯ÙĪ
at est
ĠØ³ÙĬ Ù¾Ù½ÙħØ¨Ø±
Ġvaad ata
ĠÙĦ ÚıÙĬ
ĠÙ»ÙĪÙĦ ÙĬÙĨ
i o
ĠØ³ÛĮ Ø§Ø³ÛĮ
Ø§Ø °
Ġå½©ç¥ŀäºīéľ¸ åı¯ä»¥
Ġà´İ à´ķ
Ġå¤§åıĳå¿«ä¸ī å®ĺç½ĳ
ĠÚª ÚĻ
4 1
è¯ ¯
Ø§Ùĩ ÙĪÙĨ
Ø¨ Ø¯
ĠØŃØ§Ø¯ Ø«
Ġhoo pis
Ġming i
ÚĮ Ø±
è¿Ļ éĩĮ
ĠK al
æŁ¥ çľĭ
ruk t
ĠÙħØ§ ÚĬÙĦ
ÙħØŃ ÙħØ¯
Ú© Ù¹
v is
ĠÙ½ ÚªÙĬÙ½
ĠÙĪÚĥ Ø§ÙĨ
ĠØ§ÙĪ Ø·Ø§ÙĤ
Ġkoo lit
Ġl aste
ÙĨÚĬ ÙĪ
ĠØ§ÙĩÙĦ ÚªØ§Ø±ÙĨ
è® ¢
ĠØ´ ÙĨ
ĠÚ¯Ú¾ Ú»ÙĬ
Ġs inna
ĠÚĨØ¦ Ø¬ÙĬ
ĠÙĪ Ø§ÙĨÚ¯
ĠØ³ ÙĦÙĪ
èĲ½ å®ŀ
åıĤ ä¸İ
Ġig al
ĠØ¨ÙĬÙħ Ø§Ø±
n es
é«ĺ æīĭ
Ġas ut
Ġta ast
ĠÙģØ§Ø±ÙĪ ÙĤ
ĠØ§Ú¾ ÚĻÙĬ
Ġ çļĩ
ĠØ±ØŃ ÙħØª
æĿ Ł
ĠØ¹ Ø§Ø¨
éģ ¿
ĠÙĪØ§ÙĦ ÛĮØ§Úº
Ġan tud
Ġr aja
ð Ł
Ġkontr oll
ĠÙ¾Ø± Øª
Ø³ØªÙĬ Ø¡
à´® à´£
ĠØ§Ø®Øª ÙĬØ§Ø±ÙĬÙĨ
Ã¼ ks
ĠØ¬Ùħ Ø§ÙĦ
à´¨ à´°
Ġsead use
ĠÚĢ Ø§Ø¦ÙĬ
éĻ¤ äºĨ
ĠØ³ÙĪ ÚĢ
ĠØº Ø±
èĻ ļ
Ġo od
ĠæŃ ¦
åĤ ³
æĲ Ń
éĻ ¸
5 3
à´¹ à´ļà´°
Ġà´ľ à´¨à´Ļ
ĠÙĤØ¨Ø± Ø³ØªØ§ÙĨ
ĠØ± ÛĮØ§
ØªÙĪ ÙĩØ§ÙĨ
ä¹ĭ ä¸Ģ
Ġà´Ĵ à´ķ
ĠØ³Ú¯ÙĩÙĨ Ø¯Ø§
200 6
Ġà´Ĩ à´Ĺ
å° ¾
Ġja h
å©· å©·
æľº å®ĺç½ĳ
8 7
Ġinim esi
ur i
é¦ ¬
Ġ ç»Īäºİ
Ġçİ© å½©ç¥ŀäºīéľ¸
ĠØ§ÙĬÙĪ Ø§ÙĨ
ĠØ¯Ùģ Ø¹Ø§
ĠK esk
ãĢĤ âĢľ
Ð »
æĽ ¸
Ġs ilma
Ġesim ene
Ġterv ise
ÙģØª Ùĩ
å¦ ŀ
ç»ı èĲ¥
Ø¬ Ø§Ø²
ĠØ¬Ùħ Ø§ÙĦÙĬ
çĥ Ī
ĠØ³ Ø§Ú»ÙĨ
ad ele
æĪĲäºº çĶµå½±
ht ne
å°ı æ¸¸æĪı
Ġå¤©å¤©ä¸Ńå½©ç¥¨ æ´¾å¥ĸ
å¾Ĺ åĪ°
] [
ĠÙ½ Ø§Ø±
ĠÚ¯ÙĩØ± Ø¨ÙĦ
Ġh ing
ĠÚ¯ ÙĦÙĨ
ĠÙĪÙĬ ÚĨØ§Ø±
Ù¾Ø± Ø³Øª
Ġo h
ĠjÃ¤ lle
Ġå¤§åıĳ äºĳ
ĠØ¨Ø® Ø§Ø±ÙĬ
ĠØ³Ø¨ ÙĤ
aar e
Ġpr of
ĠØ±ÙĪÙħ ÛĮ
Ø§ÙĨ ÚĮ
ĠvÃµ rd
ĠØŃ ÛĮ
ç¬Ķ è®°
ĠÚĩ ÙĬ
ĠÙħØ±ØŃ ÙĦÙĬ
ĠÙĦ Ùģ
ĠØº Ø±Ø¨Øª
åħ¬ å¼Ģ
åįĩ çº§
ĠÙĨ Ø§Ú»ÙĬ
k use
ĠT r
ĠÚ¯ÙĩØ± Ø¬ÙĨ
ĠÙĪ Ø³ÛĮ
Ġà´İ à´£
ĠØ§ÙĩÙĦ ÚªØ§Ø±
çİ Ľ
ĠÙģÙĬ Ø¨
ĠØ¯Ù» Ø§Ø¡
Ġå¤§åıĳ æ£ĭçīĮ
å¨ ľ
å§Ķ åĳĺ
ç»§ ç»Ń
à´¤ à´ķà´°
Ø¨ Ø¹
ĠÚ©ÙĬ ÚıÙĬ
à´¯ àµ¼
Ø± Ø§Øª
ĠØ± ÙĬÙħ
Ã¤ it
ĠÙ¾ÙĩÚĨ Ø§ÙĬÙĪ
ĠØ´ ÙĪØ±
àµĪ à´Ĥ
ĠØ± ÙĪÙĦ
Ġå¤©å¤©ä¸Ńå½©ç¥¨ è¶³å½©
ĠÚıÙĬ Ú©Ø§Ø±
ä¹ĭ éĹ´
ĠÙħØ² ÙĪ
er n
Ø±Øª ÛĮ
Ø¢ Ø¦ÙĪÙĨ
Ø±ÙĪ Ø¬
ç»´ æĬ¤
ĠÙħÙĦØ§Ø² Ùħ
ul a
ĠØ± Ø§ØŃ
pÃ¤ev a
Ø®ØªÙĪÙĨ Ø®ÙĪ
åĬ ª
æģ ©
Ø® Ø§Øµ
l ub
Ú¯ Ú¾
ul i
ç´ «
Ø§Ø¦ÙĪÙĨ ÚĬ
æĸĩ åŃ¦
ĠÙĪØ§Ù¾ Ø§Ø±ÙĬ
.... ..
k ui
ĠØ³ ÙĦÙĬÙħ
Ġeh itus
ĠÛĮÙĪÙĨÛĮ ÙĪØ±Ø³Ù¹ÛĮ
ĠØ¹ÙħÙĦ Ø¯Ø§Ø±ÙĨ
ĠjÃ¤ i
ĠØ±ÙĪ Ø§ÙĬØªÙĬ
èĤ Ľ
æķ ı
ĠÙĪØ± Úª
ĠØ§Ùģ Ø±ÛĮÙĤÛģ
à´´ à´ķ
åĪ ¥
ĠØª Ú¾ÙĪ
pan ek
ï¿½ï¿½ ï¿½
åĲ Ľ
æ¢ °
é Ĭ
j us
Ĉć ï¼Į
Ġkir ja
èĴ Ļ
va at
ĠØ¯Ø§Ø³Øª Ø§ÙĨ
ĠØ§Ø´ Ø±Ùģ
Ġne ist
ĠÙĦÚ©Ú¾ ÛĮØ§
A T
ç¼ ©
àµģ àµį
lik ud
è¿Ļ ä¹Ī
ĠØ§ÛĮ Ø±Ø§ÙĨ
ĠÙĨ Ø±Ùħ
åĲĪ éĽĨ
ĠÙħÙĨ Ø¬Ú¾
as p
ĠØ¹ Ø¸Ùħ
ĠØ§ÙĦ ÙĪ
åħ¨ æĸĩ
è£ ģ
ĠÚı ÙĩØ§
ĠØ¬ÙĪ Ú³ÙĬ
à´°à´µ à´§
ĠÙĪÙº ÙĨØ¯ÙĬ
ĠØ´Ø±ÙĪØ¹ Ø§ØªÙĬ
er itud
ĠÙ» Ø§Ùĩ
ĠÚ¯ÙĪ Ø´Øª
ç¬ ¦
Ġsu ud
ĠØ¬ÙĩÚĻÙĪ Úª
ĠÚ¯Ùĩ Ú»ÙĨ
ÚĬ Ø§Úª
el li
Ġle h
Ġk ust
Ġæ± Ĥ
Ġà´ Ĭ
è® Ĭ
sem el
ĠÚĨ ÛĮÙĨ
Ú¯Ø§ ÙĩÙĨ
ĠØªÚ¾ ÙĦ
çĲ ª
ĠØ³Ø§Ùħ Ø±Ø§Ø¬
æ¶ ī
s on
Ġs um
æ ¾³
ĠÙĪÚĩ ÙĪ
åĪĨ éĴ±
ĠØ³Ùĩ ÚªØ§Ø±
èľ ľ
ĠÙ¾Ø±Ø§Ø¦Ùħ Ø±ÙĬ
ĠÙĤ Ø§Ø¦Ø¯
ĠØŃÚª ÙĬÙħ
ĠÙ¾ÙĨ ÚĪ
m ek
1 10
àµ» à´¡
ĠÚ¦ ÙĬØ±
ĠÙħ Ø±ÙĨ
ur g
Ġà´¤ à´³
A V
ĠØ®Ø¨Ø± ÙĪÙĨ
ÙħØª Ø§Ø²
é² ľ
æł¸ å¿ĥ
ĠØ¨ÙĬ ÙºÙĬ
è¶ ĭ
Ġà´ħ à´£
ĠØ§Ø³Øª ØŃ
ĠØ§ÙĦ Ùģ
ĠÙ¾ÚĻ ÙĩÙĨØ¯ÚĻ
ĠØ¯Ø¨ Ø¦ÙĬ
ĠØ³ÙĬØ§Ø³Øª Ø¯Ø§ÙĨ
Ġà´ı à´ķ
ĠØ±ÙĪØŃ Ø§ÙĨÙĬ
åĬ¨ çĶ»
ä¸īçº§ çīĩ
Úª ÚĻÙĬ
éĢł æĪĲ
å¿ ĺ
åĽ¢ éĺŁ
Ġ ä¹Ŀ
ĠÚĬØ§Úª Ù½Ø±ÙĨ
Ø´ ÛĮØ§
Ġpo st
æ ¾³éĹ¨
ą ï¼Į
ĠÙħØ§Ø¦ Ù½
ĠØªØ±ÙĤÙĬ Ø§ØªÙĬ
ĠØ¨ÙĨÚ¯ ÙĦ
Ġos ale
Ġn ime
ĠØ° Ø±ÛĮ
å¡ ŀ
Ø¬ ÛĮØ§Úº
c n
ĠO Ãľ
çµ ²
ĠpÃµ ll
Ġd okum
ĠØ¨ÙĨ Ø§Ø¦Ú»
ĠØ¢Ø³Ù½Ø±ÙĬ ÙĦÙĬØ§
åĪ Ģ
é Ħ
ĠÚ¦ ÙĪ
ÙĨØ¯ ÚĻÙĨ
Ġ ç¾İåĽ½
Ġå¤©å¤© éĢģ
ĠÙĦÚ³ ÙĬÙĪÙĨ
æľī çļĦ
Ġm ina
a i
Úª ÚĻ
ĠØ¬ÛĮ ÙĪÛĮÚº
ĠÚĨ ÙĬÙĦ
Ø¬ Ø§Ø¯
ĠØ± ÙĪÙĨ
Ø¹ÙĨ ÛĮ
oo me
ĠÚ¯ Ø¦ÛĮØ§Úº
Ġ å½©ç¥ŀ
ĠÚĦ ÙħØ§Ø±
p Ã¤rast
ÙĬÙħ Ø§
ĠÙħÙĬØ± Ù¾ÙĪØ±
à´ ī
ĠÙĪÚĮ Ø§Ø¦ÙĬ
ĠÙģØ· Ø±ÙĬ
200 5
éŁ ĵ
ä¿Ŀ éļľ
ĠÙ¾Ø§Ø³ ÙĪ
ĠkÃ¼ m
ĠØ¢Ø¯Ùħ Ø´Ùħ
ĠØ·ÙĪÙģ Ø§ÙĨ
å§Ĳ å§Ĳ
ĠÚªÙĩØ§Ú» ÙĬØ¡
Ġå½©ç¥ŀäºīéľ¸ å¹³åı°
9 2
Ø® Ø§ÙĨÙĬ
è§ Ī
èµ µ
ut it
kk i
ep Ã¤r
Ġt Ã¼h
àµĭ ,
amise le
ćć ï¼Į
ĠØ²ÙĨØ¯ Ùĩ
ĠÙ¾ÙĨÚ¾ÙĨ Ø¬ÙĪ
ĠØ¨ÙĪ Øª
ĠØµ Ø§ÙĦØŃ
Ùħ ÙħØ¨Ø¦ÙĬ
ĠU SA
æģ Ĳ
Ø³ Ø§Ø¦ÙĬÙĨ
ĠØ°Ø±ÙĬ Ø¹ÙĪ
ĠÙģÙĬ Ø¶
om isjon
æ¯ ķ
ĠØ¨ Ø§Ø¦
Ġs ir
am i
¢ Ħ
Ġmu gav
ĠÚĨØ¦ Ø¨ÙĪ
ĠØ§ÛĮØ³ ÛĴ
ĠØ³ ÙºØ§
hit ekt
Ġo d
ĠN Ãµ
åī ĳ
ĠØ§Ùģ Øª
it sioon
ĠÚªÙĪØ´Ø´ ÙĪÙĨ
Ġ ä¸ºä»Ģä¹Ī
ĠØ®Ø· Ø±ÙĪ
Ùħ Ø¹
Ġs ii
å¤§ é¦Ļèķī
à´Ĺ à´£
ĠÙ½ Ø¦
ĠO l
ĠØ§Ø¹ Ø²Ø§Ø²
å¥³ åĦ¿
ĠÚĩÚı ÙĬÙĨ
ĠØ§Ù¿ Ø¦ÙĬ
j ust
ĠÛĮ Ø³ÙĪØ¹
æĺ¯ ä¸įæĺ¯
ĠvÃ¤l j
Ġt h
Ġt Ã¼Ã¼
ĠØªØ± ÚªÙĬ
Ġs petsi
åĸ ®
1 20
ĠØ¹ ÙĨÙĪ
Ġà´ī à´±à´ª
ä¹¦ è®°
ĠÙĨÙħØ§Ø¦ ÙĨØ¯
å¤± è´¥
ĠØ±ÙĪØ² Ø§ÙĨÙĪ
é¡ ŀ
åľ¨ å¤©å¤©ä¸Ńå½©ç¥¨
ĠvÃ¤ lt
Ġl ang
ç¨ĭ åºı
çī Ļ
äº¿ åħĥ
Ġsaav ut
m el
ĠØ§ÚªØ« Ø±ÙĬØª
v alt
Ġp osit
Ġmille ga
Ġ è¶ħ
ĠsÃµ it
ĠØµÙĦØ§ØŃ ÙĬØª
ĠÙĪÙº ÙĨØ¯Ø§
è£ Ŀ
ĠÚ¯ Ø§ÙĩÙĩ
Ġakt iiv
ĠÙħ ÙħØªØ§Ø²
Ġå½©ç¥ŀäºīéľ¸ ä»£çĲĨ
è¦ ª
ÙĦ ÛĮÙĨÚĪ
ĠÙ¾ÙĬØº ÙħØ¨Ø±
Ġkir jeld
ĠÚ¯Ùĩ Ùħ
æĭ Ł
ĠÙ¾ÙĪ ÚĻ
ĠØ± ÚĮ
çłģ ä¸Ńçī¹
ĠÙ¾ÙĩÚĨ Ø§Ø¦Ú»
ĠØ¨ØŃ Ø±Ø§ÙĨ
æįķ é±¼
v as
ĠØ§ÚªÙĬ ÙĦÙĬ
ĠØ¯Ùĩ ÙĦÙĬ
ĠØ³ÙħØ¬ ÙĩØ§ÙĨ
Ø® Ø§ÙĨÙĨ
æĽ´ æĸ°
ĠmÃµ ne
ĠØ¹ÙĦØ§ÙĪ Ûģ
ĠØ±Ù¾ÙĪØ± Ù½Ø±
ÙĪ Ø¨
æĮī çħ§
ĠV Ã¤
Ø§ ÙĬÙħ
ĠjÃµ u
ĠÙħØ³Øª ÙĤÙĦ
ĠØ¬ÙĨ ÙĪØ±ÙĬ
Ġk est
Ġe ne
lik ool
ĠÙ½ ÙĨÚ¯
Ø§Ú³ ÙĬ
Ġm ar
Ġp is
ĠØ§ÙĪÛģ Ø¯Ø§
ĠÚ¯Ø§Úı ÙĬÙĨ
ĠÃµ ige
ĠÙ¾ÙĬ Ø±ÙĪ
ĠØ§Ú¯ ÙĩÙĩ
ĠmÃµ jut
ĠØ§Ø³ÙħØ§Ø¹ ÙĬÙĦ
çĥ Ł
Ø² Ø§Ø¯ÙĬ
ĠÚĬÙĬ Ù½Ø§
ĠÚªÙ½ÙĨ Ø¨
Ø§ÚĻ ÙĬØ¡
app ä¸ĭè½½
oon d
ĠÙ¿ Ø§Ø¦ÙĦÙĨÚĬ
çĸ ¾
ĠÙĪØ± ÙĦÚĬ
åĥ ¹
ĠØ§ÙĪ ØªÚ¾ÛĴ
è¯ º
Ġkor ter
I D
ĠØ¬Ø° Ø¨ÙĬ
ĠM alayalam
ĠØ§Ø¹ Ø¬Ø§Ø²
ĠØ Ľ
å¤§åıĳ å¿«
ĠÙ¾ ÚªÙĪ
éĵ¶ æ²³
Ġ x
in t
ĠÚĨ Ú©
ĠÙĨ Ø§ÙĨÚ¯
ike se
Ġä¸ŃåĽ½ ç¦ıåĪ©å½©ç¥¨å¤©å¤©
Ûģ Ûģ
ĠØ¬ÙĦ Ø³ÙĬ
ĠØª Ø§Ø²
Ø§ ÙĪÙĦ
Ø§ ÙĩÙĨ
ĠØ³ ØªØ±
ĠÚªÙĦ ÙĩÙĩ
ÙĨØ¯ Ø§Ø³ÙĬÙĨ
ĠÙĦ Úı
ĠØ±Ú© ÙĨØ¯Ø§
æ¶ ¦
ÙĬÚª Ø³
åł ±
å¥³ åıĭ
ĠÚı ÙºÙĬ
æı Ń
ĠØŃÚªÙĪÙħ ØªÙĬ
à´¶ à´¯
å¨±ä¹Ĳ å½©ç¥¨
Ġ Z
ĠJ Ã¤r
Ġà´Ĩ à´µ
éĺ ¶
ĠÚ¯Úı Ø¬
åħ ģ
èĻ ķ
ĠØ¯ ÚĻÙĬ
ĠÙĩØ¦ ÙĬÙĨ
Ġà´ª à´ķà´°
ĠØ±Ú© Ú¾ÛĮ
Ġelekt r
ĠæĪĳ åĴĮ
ĠØ§Ù¿ ÙĨ
Ø§Ø³ Ø§
Ġte gi
Ġte em
Ġsa at
Ø§ÙĤ Ø¨
ĠØ¹Ø¯Ø§ÙĦ ØªÙĬ
ĠÚ¯ÙģØª Ú¯ÙĪ
ĠÚ¯ÙĩØ± Ø§Ø¦ÙĬ
ĠØ¨Ùĩ Ø§Ø¯Ø±
ÙĪ ÙĦÙĬ
Ġmaailm as
Ġte inud
Ġmuidu gi
ĠV a
k o
åĳ ¼
æĹ ¢
æĪ °
çļĦ æĸ°
é«ĺ æ½®
ĠØ¨ÙĨ ÛĮØ§Ø¯
å§ Ĩ
ĠØ¬ÛĮÛģ ÚĳÛĮ
its us
ĠÙĨ Ú©ÙĦ
ĠÙĪÙ½ Ø³
ĠÙĦ ÚĻ
ĠÚĨ Ø§ÙĦÙĬ
iin a
ä¹ Į
ĠØ¬Ø§ÙĨ ÙĪØ±ÙĨ
æĬ¥ éģĵ
ĠeesmÃ¤r g
æĽ Ŀ
ä¸į ä»ħ
à´§ à´°
ĠÚ¯ ÙĪØ±
à´·à´£ à´¤
Ġke h
Ø§ÙĨ Ø³Ø§ÙĨ
è ¬
ĠØ¸ Ø§ÛģØ±
èµĦæĸĻ å¤§åħ¨
ĠÚ© Ù¹
ĠØ¢Ú¯ Ø§ÙĩÙĩ
à´¨à´® à´¨
æĢİä¹Ī ä¹°
l id
æ¬ £
æī§ è¡Į
ĠÙħÙĨØµÙĪ Ø¨ÙĬ
æ° £
ĠØ³Úı Ø¬ÙĬ
9 4
ĠÙĦÚ³ Ø§ÙĬÙĪ
¢Ħ æµĭ
ĠØ§ØŃ Ø³ÙĨ
ĠÙĩÙĪ ÚıØ§ÙĨÙĩÙĨ
ĠØ¸ ÙģØ±
Ġm aterjal
ä¸ĭè½½å®īè£ħ åĪ°
Ġproj ekt
Ġnimet atud
Ġåľ¨ å¤©å¤©ä¸Ńå½©ç¥¨
iv i
à´ĸ à´²à´¯
ĠØªØ¨ Ø¯ÛĮ
f on
ĠØ¨Ø¬ÙĬ Ù½
Û ¾
ĠØ¬ ÙħÙĨ
æ¡ £
ÙĬØ¯ Ùĩ
é¢ ľ
ä¸į å¾Ĺ
Ġerine vat
ĠØ§Ø¹Øª Ø¨Ø§Ø±
ĠÙĪØ§ÙĦ Ø¯ÙĬÙĨ
ç£ģ åĬĽ
Ø¸ Ø±
ĠÛģÙĨØ¯ÙĪ Ø³ØªØ§ÙĨ
ĠØ±ÙĪØ´ÙĨ ÙĬØ¡
éŀ ĭ
à´® à´ķ
6 3
çĹ ĩ
Ġto id
ä¹ ĺ
Ø³ Ù¾ÙĦ
ĠØ¨ ÙħØ¨Ø¦ÙĬ
ĠÙĨØ§ Ø§Ùĩ
å¼ ¹
ĠÛģ Ø§Ø±
ĠØ± Ø§Ø¶ÙĬ
kt oo
Ġ ä»Ĭ
é¡ Į
ĠH ar
ĠÙĦ ÙĩÚ»
ĠkÃµr val
ĠØªÙĬ Ø³ØªØ§Ø¦ÙĬÙĨ
ĠÚªÙĨØ¯ ÙĬÙĪÙĨ
å®£ ä¼ł
en g
ĠØ³ Ø¦ÙĬ
Ġs iht
Ġ çĶ·äºº
a j
ĠÙĪØ³ ÙĬÙĦÙĨ
s ust
à´µ à´ª
ÙĪÙĬ Ø²ÙĨ
æĿ¥ è¯´
ĠÙ¾ Ø§ÚĻ
ĠØ´Ø§Ø¯ ÙĬØ¡
ĠØ¨ÙĨÚ¯ Ø§ÙĦ
ĠÚ¾ Ø¬ÙĬ
ĠØ³ Ø³Øª
ĠØ§ÙĦ Ø±ØŃÙħØ§ÙĨ
Ĉ ãĢģ
Ġinter net
ĠÙĪØ´ Ú©Ø§Ø±
æ³ ī
up id
Ġtule ks
ĠÙĦ ÙĬØ§
å¯ »
Ù¿ ÙĨ
ĠÙħØ§ÙĩØ± ÙĨ
ĠØºÙĦ Ø·ÙĬ
ti on
ĠØ±Ú© ÙĬØ§
ĠÙĦ Ø³Ù½
a çīĩ
ĠÚ©Ø±ÙĪ Úĳ
å° Ī
ĠÙħ Ú©ÙĬ
çĭł çĭł
ĠØ§ÛĮÛģ ÙĪ
Ġ #
ĠÙĪÙĬØ¬ Ú¾ÙĪ
a ge
Ġm Ã¶Ã¶d
æĪĺ çķ¥
Ġto it
ĠØ¯ ÙĦÛĮ
Ú©Ú¾ Ø§
æľ «
ĠØ± Ø¦ÙĬ
ĠÙħ ÙĬÙĪÙĨ
te le
oo le
Ø§ÙĬ Ø§Ø¦ÙĪÙĨ
à´¤ à´ķà´³
æĹ §
æŁ ´
ĠL Ãµ
et ele
ĠI nd
æ³ķ åĽ½
Ġæ Ļ
ĠØ§ÚªÙĬ ÚĬ
ĠØ§Ù½ ÚªÙĦ
å¦» åŃĲ
å¹ ħ
çĮ ®
Ø¨Ø§Ø± Ûģ
æİ ī
ĠÛĮ ÙĪ
ĠØ´ Ø§ÙĩÙĬ
é ľ¸
Ġpuh ast
Ġ y
P r
ĠÙĩ Ú»Ú»
æĽ´ åĬł
jate le
éĤ£ äºĽ
ĠmÃµ ju
ĠØ³ÙĬ Ú©
ĠØ¨ÙĨØ¯Ø± Ú¯Ø§ÙĩÙĩ
çģ £
à´¯ à´µà´¸
ent ide
ĠÙ¾Ú¾ Ø±
ĠÚĬ Ø§Ø±
èª ŀ
ĠK una
å°¼ æĸ¯
Ġli gi
ĠØ¨ Ø±ÙĬÙģ
ĠtÃµ st
ĠØ´Ø±Ø· Ø§Úº
Ġte av
ĠØ¹Ø± Ø§ÙĤ
ĠØªÛĮ Ø§Ø±
Ġ å½©
ÙĪØ² ÙĬØ±
ĠØ± ÙģÙĬÙĤ
Ġà´¸à´® à´¯
ĠÚªØ¦ Ù¾Ù½ÙĨ
Ùģ Ûģ
Ø² ÙħÙĬÙĨ
Ù¹ ÙĪ
ĠÙĤÙĬÙħ ØªÙĬ
ak aal
è¨ Ń
æ£ Ĵ
ä¹ĭ åīį
éģ ¸
ĠØ¨ Ø³Øª
ĠN a
ÚĻ ÙĩÙĩ
ak ond
Ġaut or
ç¾İ åľĭ
ÙĩÙĨ ÙĨ
ÙĬ ÙĬ
es kkon
Ġte a
ĠÙħÙĨ Ø¸Ùħ
à´¯ à´£
Ġå½©ç¥ŀäºīéľ¸ çł´è§£
ĠÃ Ħ
éĢŁ åº¦
å¸® åĬ©
é¡ ¿
Ġà´ħà´± à´¸
à´µ à´ļ
ĠÚ¯ Ø§Ø±
å¤§ èĥĨ
ĠÚªÙĪ Ø´
Ø±ÙĬ ØŃ
è´ Ŀ
åį ·
Ġk all
ĠØ§Ø®Øª Ø±
uk og
æ¼ Ĥ
ĠÙĤØ¨Ø¶ Ûģ
ĠÛĮÛģÙĪ Ø¯ÛĮ
éªĹ åŃĲ
èº« ä½ĵ
Ġp igem
ĠkÃ¤ tte
ĠÙħÙĬØ² Ø¨Ø§ÙĨ
æ³¨ éĶĢ
çĵ ľ
çĲĨ è®º
ĠÙĨØ§Ø± Ø§Ø¶
ĠÙĦØ¨ Ø§Ø³
ĠÃ¼h te
ĠmÃµ tte
ĠÛĮ Ø¹ÙĨÛĮ
Ġon gi
ĠØ§ÛĮ Ø¯Ø§
Ġf in
Ġil us
Ġterv is
ĠÙģÙĬØ¨ Ø±ÙĪØ±ÙĬ
ĠÙĨ Ø§Ø±ÙĬ
6 00
ç©º å½©ç¥¨
ĠØ¹Ø§Ùħ Ø±
ĠÙĪØ§Ø³ Ø·ÙĬ
ĠØ³ Ù¾Ø±
ĠØªÙĦ Ø§Ø´
å±ģ èĤ¡
æĮģ ç»Ń
ĠØ¨ Ø§ÙĨ
Ġ da
à´± àµ¼
ç»ı åİĨ
å¹ ¾
me er
ĠÚĨ ÛĮ
ĠÙħ Ø§Ø¶ÙĬØ¡
ĠÙ¿Ø§Ùħ Ø³ÙĨ
ĠÙ¾ ÙĨØ¯Ø±
æº ª
é¡ ¾
åĬ© èµ¢
0 8
ĠÚĮ Ø±Ùħ
ĠØ³Ø± ÙĪØ±
Ġa adr
ĠÙħØ± Ø¶ÙĬ
ĠÙĨ Ú¯Ø§Ø±
àµ Į
à´°à´® à´²
ĠØªØ± Ú©
Ġkeht est
Ø´ Ûģ
Ø´ ÙĬÙĨ
ĠÛ¾ .
ĠØ± ÚĻ
ĠØ§ÙĦØ§ÙĤÙĪ Ø§ÙħÙĬ
Ø® ÙĦ
ÙĩÙĬ Ùĩ
ĠÙĩÚĻ ØªØ§ÙĦ
5 9
ĠÚ¯Ø° Ø±ÙĬÙĪ
ĠØ®ÙĪØ§Ø¬ Ø§
à´¯à´¤ à´¯
at or
Ġvah end
ĠØªØ± Ø³
Ø§ÙĦ Ø¨
ĠÚĩ Ø§ÙĨ
ç´ Ħ
ĠÚĬ ÙĪÙĬØ²ÙĨ
ĠØªØ± ÙĤÛĮ
ĠÙħÙĤ Ø¨ÙĪÙĦ
uslik u
ĠØ§ Ûģ
ĠÙħÛĮ ÙĦ
ĠjÃ¤Ã¤ nud
as ime
é£İ éĻ©
à´¦ à´¤
è®¨ è®º
ĠØ´Ø¹ Ø¨ÙĬ
å½ »
Ø§ Ú¯
ĠØ¹ÙĦØ§Ùħ Ùĩ
ĠÙĩ ÙħØ¯
è¦ º
Úĳ ÙĨ
ĠtÃ¤ hts
éĥ ĳ
Ġp laneer
ĠÚĨ Ùĩ
ĠÛģ Ø§Úº
Ġ ç¬¬
ĠÚ¯ÙĨ Ø¬
ĠØ§ÙħÙĬØ¯ ÙĪØ§Ø±ÙĨ
ĠØ®ÙĪØ± Ø§Úª
ç´ ¯
Ġerine vaid
Ø§Ø´ Ø§
ĠØ±ÙĬ ÙģØ±ÙĨØ³
åĽ¾çīĩ å¤§åħ¨
ĠÚĨØ§Ùĩ ÙĬÙĪÙĨ
ĠÚ¯ Ø¦Ø³
ĠÙĬØ§ ÙģØªÙĩ
ri ik
0 2
% ï¼Į
O D
ç½ ²
ĠÙĪÚĥ Ø§Ø¦ÙĬ
éļı çĿĢ
å¼Ģ åı·
åĬ ±
ĠÙ¾Ø§Ø± Úª
ĠÙħØ³ Ù½Ø±
ĠØ´ Ø§ÛģÛĮ
Ġæ² ³
ĠØ¬ Ø§Ø³
ĠØ´Ø¯ Øª
éĹ Ń
ah a
ä»¥ æĿ¥
ĠØ±ÙĪ Úª
ĠÚı Ú©ÙĬ
Ġà´¤ à´ķà´°
uma jand
ä¸ģ é¦Ļ
ek la
and us
åĲ ´
ĠÙħ Ø§Ø¯ÙĬ
Ùģ ÙĪØ±
Ġ i
Úª Ø§Ùħ
éĤ ª
åŃĹ å¹ķ
Ġpe at
ĠÙ½ Ø±ÙħÙ¾
Ġsuht es
Ø§ÚĻ ÙĬÙĨ
æ²» çĸĹ
ĠØŃ ÛĮØ§Øª
ÙĩÙĨØ¯ ÚĻÙĨ
Ġte ost
Ù¾ Ùĩ
ĠÙħ Ú©Ûģ
Ø¨ÙĬ ÙĦÙĬ
å§ ĳ
ÚĬØ§Úª Ù½Ø±
àµĭ à´Ĥ
ä¼ĺ åĬ¿
åĬª åĬĽ
st r
èĭį äºķç©º
Ġos ut
çĶ¨ äºİ
ĠkÃ¤ igus
ĠÙħÙĨØ¹ ÙĤØ¯
A L
ÛĮ ÙĪ
à ¦
ĠÚıÙĬÚ© Ø§Ø±ÙĬÙĪ
æľº åĪ¶
è¦ ĭ
Ġinf o
ĠØ§ ÚıÙĬ
ĠØ§ÙĦ Ø¯ÛĮÙĨ
ĠÚ¯Ø° Ø§Ø±Ú»
åģľ åĶ®
éĿĴéĿĴ èįī
ĠÙĦÚ© ÙĨ
æĮī æĳ©
jÃ¤r el
è¾ £
Ġb r
ar b
Ġsa jand
ä¸ĭ çļĦ
Ġ åįģ
ĠÚĪ Ú¾
ĠØ¢Øº Ø§
ÙĬÚª Ø´ÙĨ
ĠpÃ¤ev al
ĠØ¬Ø³ ÙħØ§ÙĨÙĬ
Q Q
ÙĨ ÚĢ
Ġ å¼ł
ĠØ¯Ø§Ø® ÙĦØ§
Ġig as
ĠK u
Ġka al
Ġm ak
è§ ¦
æľī æ²¡æľī
Ġå¤§åıĳæĹ¶æĹ¶å½© æĢİä¹Ī
ĠÚªÙħÙ¾ÙĨ ÙĬÙĨ
åķ ¥
äºĶ æĺŁ
à´Ĩ à´°
ĠØ·Ø±ØŃ Ø§Úº
199 0
ĠØ¬ÙĩØ§Ø² ÙĨ
ĠØ¹ Ø¨Ø±
Ġæ ķ
ĠØ®Ø§Øª ÙħÙĪ
ir ma
ĠÙģÙĬØµ ÙĦ
I T
ĠlÃµp uks
Ø³ ÙĨÚ¯
ç»ĵ åĲĪ
ĠmÃµ ni
t es
ĠÙ¾ Ù¿
d d
Ġà´® à´ķ
ĠÚĨÙĪÙĨ Ø¯ÙĬ
ĠÙ¾Ø§Ø¨ ÙĨØ¯
Ø¨ ÙĦÙĬØ¡
Ġå½©ç¥ŀäºīéľ¸ é«ĺ
ĠÙĦØ¨ Ú¾
ĠØ¬ÛĮÛģ ÚĳÛĴ
ĠØ¹Ø¯Ø§ÙĦ ØªÙĨ
ĠØ¢Ø¦ÙĬÙĨ ÙĬ
Ġà´Ĵ à´±
ĠH a
h one
Ġkinn i
ĠØ¨ Ø´ÙĬØ±
ĠÚĮ Ú»ÙĬ
ĠÙ¾Ø¨ÙĦ Úª
ĠKr ist
ĠØ³ ÙĬØ±
Ġtah a
ĠÚĢÙĪ Ú³
è¡ ¡
ĠÚĨ Ø§ÛģÛĮ
ĠÚĩ Úª
Ġkasut atud
æ´ Ľ
èİ «
ĠØ§ÙĨ ÚªØ±ÙĬ
Ġà´ķ à´¨
å¥ Ī
s u
f orm
ĠÚĩÙĪÚªØ±ÙĬ ÙĪÙĨ
ĠØªØ± Ø¬ÙĬ
Ġe ma
ĠÙģØ±Ùħ Ø§ÙĨ
v ara
Ġhakk ab
æµ ´
ĠÙħÙĦ Ø§ØŃ
åĭ ĩ
ÛĮ Ø±ÛĮ
ist ab
ÙĦÙĪ ÙĤ
Ġt or
ĠØ¯ÛĮØ³ Ø§Úº
Ġse es
Ġpe avad
ht t
Ġhtt p
ĠS eda
ĠØ¹ÙĨÙĪ Ø§ÙĨ
ĠL Ã¤
Úª Ø¬ÙĩÙĩ
ĠÙ¾Ø§Ø³ Ù¾ÙĪØ±Ù½
åĨħ å°Ħ
end atud
éļ Ķ
Ø§Ø¦ÛĮ ÙĦ
it y
Ġots ust
ĠÚª Ú»
ØŃ Ø§ÙĦÙĬ
Ø¬ÙĬ Ø¦ÙĨ
ĠÙħ Ø§Ø¯
ĠØ¨ ÛĮØª
å®Įæķ´ çīĪ
ĠÙħÙĬ ÚĻ
ĠØ§Ø± Ø§Ø¯ÙĪ
ĠÙĩØ± Ú¯Ø²
ĠÙ¾ÙĨ Ø¬ÙĪ
åŃ Ķ
ĠÙĪ ÙĩÙĨ
ĠÙģ ÙĪØ±
åĮĹäº¬ pk
éĢ Ķ
åįģ äºĶ
æİ Į
çĶŁ çļĦ
Ġli htne
c o
Ġhool d
0 9
èĽĭ èĽĭ
ĠÙĦ Ø¹ÙĦ
æĺ¯ æŃ£è§ĦçļĦåĲĹ
ĠØ´ Ú©ÙĦ
ĠV il
æı ¡
ĠÙĬ ÙĩÙĪ
Ġkoh aselt
ĠkÃµik i
èĹ Ŀ
å¹´ é¦Ļæ¸¯
ĠØ§Øµ Ø·
k ust
è¾ Ĩ
ĠØµ Ø§Ø±Ùģ
Ø³ Ø§Ø±
ĠØ¨ Ø§Ø´
ä» ĵ
ĠnÃµ ud
c on
Ù Ķ
ar iigi
ĠÙĨØ¬ Ø§Øª
ĠÙħÙĦ ÙĬÙĨ
il a
ĠØ¹Ø¸Ùħ Øª
ĠØ¬Ø° Ø¨ÙĪ
æĽ ¼
èĲ ¬
ĠÚªÙĦ ÙĪÙħÙĬ
ĠÙ¾ÙĪØ± ÛĴ
Ġse r
Ø§ ÛĴ
ĠÙħÙģ Ø§Ø¯ÙĨ
ĠÙ¹ Ú¾ÛĮ
æīĵ éĢł
or da
Ġå¤©å¤©ä¸Ńå½©ç¥¨ æıĲæ¬¾
ĠØ§ÙĨØªØ¸Ø§Ùħ ÛĮ
Ĥ ¬
ï ½
ÙĬØ§Ø± Úª
Ġv ide
ĠØ³ÙĩÙĪÙĦ ØªÙĪÙĨ
Ġsa id
Ġå¤§åıĳå¿«ä¸ī è±¹åŃĲ
Ġà´¶ à´¤à´®
è¡¨ çİ°
çŁ¥ ä¹İ
el ik
àµģ ;
Ø§Ø¯ÙĬ Ø´
å® ĩ
Ġm en
ĠØ² ÙĬÙĨ
å¸ ¶
ĠØ¬ Ø¨Ø±
ĠØ¬Ø§ÙĨ Ø¯ÛĮØ§Úº
ĠkÃ¼ s
ĠÙĪÛĮ Ú©Ú¾ÛĮØ§
ĠØ±Ú©Ú¾ Ø¯ÛĴ
uk a
åıĸ å¾Ĺ
Ġp unkt
ĠÙĩ Ø§Ø´
ĠS aks
ĠØ¨ÙĨ ÙĩÙĩ
è§£ ç»ĳ
ĠØ¬Ø° Ø¨ÙĨ
ĠÙĬÙĪØ± Ù¾ÙĬ
à´¯ à´µà´°
Ġà´ħà´µ à´¤à´°
ĠÚªÙĩØ§Ú» ÙĬÚªØ§Ø±
ĠÛģ ÙĨØ¯ÛĮ
12 3
ĠØ¬ÛĮ ÚĪÛĴ
Ġå½©ç¥ŀäºīéľ¸ å®īåįĵ
Ø§Øª ÛĴ
ÙĪ Ø§Ø±ÙĬ
ĠØ³ Ø±Ùģ
Ġ å¹³
ĠØµÙģ Ø§
ĠØ«ÙĤ Ø§ÙģØªÙĬ
ĠÚĢ Ø±ÙĪ
éļ Ĳ
å¤§å¥ĸ å½©ç¥¨ç«Ļ
ĠÙĤØ¨ ÛĮ
ĠÚª Ø§Ù¾ÙĬ
ĠØ¢ Ø¬ÙĬ
Ġne il
ĠØ§Ø¬ ØªÙħ
ga st
åĲ ¹
Øª Ø§ØŃ
à´£ à´±
ĠÙħØŃ ÙĤ
Ùħ ÛĮØ±
ĠÙĪÙģ Ø§Ø¯
ĠÙħØ¹ÙĨ Ùī
ĠØª ÙħØ¯
amat u
ä¸į çĶ¨
ĠÚ¯ÙĨ Ø§ÙĩÙĩ
ĠØªÙĪ Ø³Ø§ÙĨ
ĠÚĨ Ú¾ÙĪ
ĠØ§ÙĪ Ø²Ø§Ø±
ĠÚ¯ ÙĬ
ĠB alt
Ġsotsi aal
ĠÙģ Ù½
im i
ĠØŃØ± Ø§Ùħ
åĬ¨ çī©
ĠtÃ¤helepan u
Ġf Ã¼Ã¼s
Ġà´ª à´¨
à´· à´ķà´°
ĠØ§ÙĬÙĨ ÚĬ
A N
ĠØ¹ Ûģ
ĠÚªÙĬ ÚıÙĬ
ÙĨ ÙĨ
ä¿Ŀ è¯ģ
Ġav ast
çµ ±
ç®¡ å®¶
ĠÙĪØ± Ùĩ
åľ Ĩ
Ġ ä¹±ä¼¦
ĠK ir
åĮº åŁŁ
ĠØªÚªØ± Ø§Ø±
ĠÙĪ ÙĬØ±
ĠÙĦ ØªØ§
åĨľ æĿĳ
Ġ åĲī
7 6
v el
ĠÚ© ÙĪÙĨ
ØŃ Ø±
ĠÚªÙħÙ¾ ÙĬÙĪÙ½Ø±
ä¿Ŀ æĮģ
äº¤ åıĭ
oot or
ĠØ« Ø§ÙĤØ¨
ĠØ³Ø§ÙĨ ØŃÙĬ
ĠØ¢ Ú©
Ġkui gi
ĠÙģÙĨ ÚªØ§Ø±
ĠÙ¾ ÙĬÚª
im ata
ĠØº Ø²
å®ļ ä½į
Ùĩ Ø§Ú»
8 5
èĥ ¶
ĠÙĪÚĥ ÙĪ
ĠØ¢Ø¯ÙħØ´Ùħ Ø§Ø±ÙĬ
åĪ¶ ä½ľ
ÙĨÙĩÙĨ Ø¬ÙĪ
ä¸ĬçļĦ å¤©å¤©ä¸Ńå½©ç¥¨
Ġta as
is ki
à´ķ à´¸
ä»» åĬ¡
ä¸ĵ çĶ¨
ĠÚĬ ÙĪÙĨ
éĤ ®
çĶŁ çī©
ĠØ¹ ÛĮ
ĠÙ¹ ÙĪ
ĠØ® ÙĦÙĤ
im Ãµt
ĠØªÚ¾ ÙĦÛĴ
ç«ŀ å½©
ak a
çİ° éĩĳ
ĠÂ §
Ġkog ud
Ġkas vat
ol d
æ¯Ķ åĪĨ
å° İ
Ġà´¬ à´¹
é¢ Ĥ
ole va
ĠÚ¾ Ø§Ú»ÙĬ
Ġà´Ĩ à´²
å½©ç¥¨ å®ĺç½ĳ
ah et
ĠÙĦØº Ø§Ø±ÙĬ
Ø¬ Ø§Ùħ
ise m
ĠØ´ Ù¾
æī ¶
ĠÙħØª Ø§ÙĨ
Ġà´ĩ à´Łà´ª
las si
ĠÙħ ÙħØ¨Ø¦ÙĬ
Ġpol nud
ĠS el
æĺ¯ åľ¨
Ãµ d
uma a
à´³ à´¨
ä» ģ
ç¾İ åħĥ
ĠØ³ÙħÙĪ Ø±ÙĬÙĨ
Ġà´ķ à´Łà´¨
ĠÚ© Ù½ÙĬ
èĥ ¡
ä¼Ĭ äºº
èĤ ¯
ĠØ§Ø¹ØªØ± Ø§Ùģ
à´± à´£
ĠØª Ø§Ø¨
ĠØ§ÙĬØª Ø±Ø§
ĠØ³ÚĨ Ø§Ø¦ÙĬ
ĠÚĢ ÙĦÙĪ
ĠØ´Ø®Øµ ÙĬØªÙĨ
Ġm at
å¹¼ å¥³
à´µà´° à´Ļ
Ġtegev us
ĠÙ¾Ø± Ø§Ú»ÙĪ
ĠØ¯ Ø±ÛĮ
us si
ĠØ§ÙĪ ÙĩÙĬÙĨ
ĠØ§ÙĬÚª Ø´ÙĨ
éģ Ķ
ĠØ³ Ú¾
åİŁ æĿ¥
ĠÙģ ØµÙĦ
æľ Ĺ
ĠÙħØ¸ ÙģØ±
Ġmuut a
çĵ ¦
ĠØ±Ø§ÙĨØ¯ÙĬ Ú¯Ø±ÙĨ
Ġin vesteer
o ses
ii ri
ç½ĳ æĺĵ
ĠØ²Ø± Ø¹ÙĬ
ĠØªØ±ÛĮ Ø®
Ġkor ra
Ġkol me
Ø¦ ÙĦ
ĠØ³ÙĦØ§Ùħ ØªÙĬ
ĠK Ã¤
å² ¸
ĠØ§ÚĨ ÙĪ
Ġæµ· åįĹ
ÙĲ )
ĠØ¯ Ø±Ùħ
ÚĨ ÙĬÙĨ
ĠØ§Ù¹ ÙĦÛĮ
ĠÙħØ§Ø³Øª Ø±
ĠØ® ÙĦ
åĩ ¡
æĭ¥ æľī
ĠØ°Ø±ÛĮ Ø¹ÛĴ
à´° à´Ń
ĠØ§ØµØ· ÙĦØ§ØŃ
ÙĬÙĪ Ø§Ø±
æŃ£ å¸¸
Ġkiir esti
Û±Û ¹
Ø§Ùĩ Øª
ĠØ¨ÙĬ ÙºØ§
Ġt uh
ä¸Ģ æľŁ
ĠÚĮ ÙĬ
Ġt ab
åľ Ĵ
ĠÙ» Ø±
Ġà´¸ àµ¼à´ķ
A R
ĠÙĪÙģ Ø¯
å¤ ¹
Ġm er
ä¼ Ł
å¤ľ å¤ľ
Ġkasut aja
ĠÙĨØªÙĬ Ø¬Ø§
ã Ĥ
ĠÙĤÙĬ Ø§Ùħ
Ø¬Ø§ÙĨ Ø¡
ĠÚ³ÙĪÙº Ø§Ú»ÙĨ
ĠØ§Ø³Ù½ Ø§Ø±
id us
ĠÙ¾Ùĩ ØªÙĬ
ĠÙĪÙĬÚĻ ÙĩÙĩ
ir e
Ã¤Ã¤ ne
ĠØ§Ø¯ Ø§Ø±ÙĪ
ĠÙĦÚ³ Ø§Ø¦Ú»
* *
is m
éļ Ĩ
Ø¹ Ø§ÙĦ
ĠÚªÙĦ ÙĩÙĪ
ä»» éĢī
ĠÚ©Ùħ ÛĮ
ĠÙĦÚ© ÙĨØ¯ÙĪ
Úª ÙĬÙĦ
en s
ç»ı è¿ĩ
Ġerine vate
æľī äºĽ
æĢİä¹Īé¢Ĩ åıĸ
å® ¿
ĠØ§Ø³ÙĬÙħ Ø¨ÙĦÙĬØ¡
Ġà´® à´¦
ĠpÃ¶Ã¶ rd
è¿Ĳ åĬ¨
lik e
Ġtar b
å£ ģ
eta il
æĻ ĵ
Ġp Ã¼Ã¼
p Ã¤Ã¤
Øª ÛĮØ§Úº
ĠÚĩ Øª
èª ¿
ĠÙ¾Ø± Ø§ÙĨÛĮ
ä¸» ä»»
ĠØ§ÙĨÚ¯Ø±ÛĮ Ø²ÛĮ
åİ ķ
æ³¨åĨĮ éĢģ
åİĭ åĬĽ
A çīĩ
ÙĬÚª Ø§
ç¬¬ä¸Ģ æ¬¡
æ¯į äº²
ĠØ³ ÙĩÚ»
æī ¬
ĠÙħØ·Ø§ÙĦ Ø¹ÙĪ
ĠÙģ Ø³
ĠÙĪÙº ÙĨ
ç °
é¸¡ å·´
ĠÙģ Ø±Ø§
å®Į åĸĦ
- :-
à´ ĵ
ĠØªØ± ÙĤÙĬØ¡
ĠÙĨ Ú¯Ø±
ĠÚı ÙĨØ¯
è² ·
å¤ª éĺ³
ĠØ§Ø¯Ø§ÚªØ§Ø± Ø§
Ø´ÙĬ ÚĬÙĨÚ¯
ĠØ¨ Ø¦
ĠÚªØ§ÙĨ ÙĩÙĬ
ĠØµ Ø¨Ø±
ust el
ĠtÃ¶Ã¶ k
Úĩ ÙĬ
Ġ ãĢĤ
Ġsa ate
Ú¯Ùĩ ÚĻ
d ruk
ĠÙħØ± Ø¨Ø¹
Ù¾ÙĨ Ø§
çĽĹ å¢ĵ
l ah
Ġ å¨ģ
ĠÚªØ§Ø¨ ÙĬÙĨØ§
ĠÙ½Ø§Ø¦ÙĬ Ùħ
ĠÙ¾ÙĨÙĩÙĨ Ø¬ÙĬÙĨ
ur e
Ġvast ut
ĠØ§ØµÙĪÙĦ ÙĨ
Ġ åĽ½éĻħ
Ġaast ast
ĠØµÙĨ Ø¹Øª
æ ¾
å® ħ
Ù½ ÚªÙĬ
å¼Ģå¥ĸ è®°å½ķ
Ġpo p
Ùħ ÙĪØ±
å½ Ĵ
ĠÚ¯ ÙĩÙĬ
ĠØª ÙĦÙĪØ§Ø±
ĠæŃ £
ĠÙħØ§ÙĬÙĪ Ø³
èĢ Ĳ
n as
em ia
ut akse
ä¸į ä¸Ĭ
k re
ĠæĢ§ æĦŁ
ĠØ§ÙĦ ÙĤ
å¼Ģå¥ĸ åĲĹ
ĠØ³ Ø³
ĠÚĮÙħ Ø§ÚªÙĬ
Ġpaig ald
Ù¹ Ø±ÛĮ
om e
æĪĲ æľ¬
à´ª à´³
å¨ ĥ
ä»Ģ éº¼
et er
à´¤ à´¨à´Ļ
ĠØ¨ ÙĨØ¯ÙĬ
m us
c èĽĭèĽĭ
ĠØ¬ÛĮÛģ Ø¯ÛĴ
Úª Ø§Ø¦ÙĬ
ä¸Ń äºĮ
ĠÚ©Ø±Ø¯ ÛĮØ§Úº
Ġas ub
ÙĬÙĪ Ø§Ø±ÙĬ
ek a
Ġsee ga
åĨľ ä¸ļ
àµįâĢį :
ĠsÃµ br
çļĦ é«ĺ
ĠØªÙĪ Ø§ÙĨ
ÙĪÙĦÙ¾ÙĨ ÚĬÙĬ
ĠØ®ÙĦØ§Ùģ Øª
ĠØªØ¬Ø± Ø¨ÙĪ
ĠpÃµ nev
ĠØ¨ Ø¯ÙĪ
ĠØ±ÙĪ Ø³ÛĮ
ĠØªÙĬ Ø±
) :
ĠÙĪ ÛĮØ§Ûģ
çĪ ·
Ġà´ī à´¨
ĠÙĬÙĪÙĨ Ù½
æĤ ¦
ĠÃ¼m br
çĶ³ è¯·
ise le
ĠÙħØ¬ÙħÙĪ Ø¹ÙĪ
ĠÙĦ Ø§Ûģ
ĠØ¬ÛĮ Ø¯Ø§
ĠÚıÙĪ Ùĩ
ĠÙ½Ø§Ø± Ú¯ÙĬ
ĠØ³Ú©Ú¾ Ø§Úº
åĲĮ æĢ§
çĦ¶ åĲİ
ĠØ§ÙĨØªØ¸Ø§Ùħ ÙĬØ§
åĽĽ åħŃ
Ġæ· ±
ĠÙ¾ÙĦÙĬ Ù½
æ¥ ļ
åĩ ¯
èĢģ æĿ¿
A S
è¨ ĺ
ĠØª Ø§Ø«Ø±
5 4
àµ½ à´¨
Ġhuv it
ist ri
k ra
Ġæ ĵ
Ġst r
ĠÙģÙĬØµ ÙĦØ§
Ġkuj und
Ġho id
ĠÚĨ ÛĮØ²
ĠÙ»Ø§Ùĩ Ø±ÙĬÙĨ
im ed
ĠØ³Ø§Ø¦ÙĬ ÚªÙĦ
ĠØªØ®ÙĦÙĬ ÙĤÙĬ
ĠØªÙĬ Ø§Ø±ÙĬ
ĠÙĨÙĬ Ø§Ø²
ĠÚªÙĬØª Ø±ÙĬÙĨ
Ø±Ø§ÙĨ Ø¯
ĠØ¨ Ø·
Ġæŀ ģ
ĠÙĪØµ ÙĪÙĦ
Ġ >
ĠØ¨Ø§Ø¨ Ø±
ĠÚªÙĬ ÚıÙĪ
ĠØªÙĤ Ø±ÛĮ
I S
â ĳ
Ġv i
ÙħØ§ÙĨ Ø³
ĠÙ¾ÙĨØ¬Ø§Ø¨ ÙĬ
ĠØ· ÙĦ
ĠØªØ¨ Ø§ÙĩÙĬ
ĠÙĪØ§ Ù½Ø±
ĠÙħØ¹ Ø§ÙģÙĬ
R e
un g
ĠÚª ÚĨÙĬ
Ġå½©ç¥ŀäºīéľ¸ çĶµèĦĳçīĪ
ĠØ¯ÙĪ Ø¨Ø§Ø±Ûģ
çĽĹå¢ĵ ç¬Ķè®°
ç¹ ģ
å¿ į
æ¹ ¿
Ġk lass
ć ą
æĦŁ è§ī
Ġå¤©å¤©ä¸Ńå½©ç¥¨ åĴĮ
Ġu usi
ĠÙĪ Ø±ÙĨ
ĠØ¢ Ø¤
ç« ¹
ĠØ³ Ø§Ú©
Ġæ ¹
ĠÚ³Ú» ØªÙĬ
Ġå¾®ä¿¡ éĩĮ
Ù¾ Ø³
Ġv ih
é ĭ
Ġveeb ile
ĠÚ¾ ÙĬØ¡
ĠÙĪÚĥ Ú»ÙĪ
ĠØ±ÙĨ Ø³ÙĪÙĨ
èī ĩ
Ġæ İ
æİ¨ å¹¿
ĠtÃ¤h end
å² ³
ĠÙ¾ Ù½ÙĨ
at ele
ĠØ³ÙĬØ§Ø³Øª Ø¯Ø§ÙĨÙĨ
èĢĥ è¯ķ
ĠÙģ ÚªØ±ÙĬ
å¤§ éĩı
Ø§Ø¯ Ø±ÙĬØ¡
å¿ĥ æ°´
ĠØº Ø±ÙĬØ¨ÙĨ
åĿ ¡
Ġ ä¸Ŀè¢ľ
ĠÙĦÙĪÚĬ Ø´ÙĬÚĬÙĨÚ¯
Ø§Ø± Ø§Úº
Ġre is
åĮĸ çļĦ
Ġpid ev
Ø¢ ÙĩÙĬ
ĠÙĦÙĬÚª ÚĨØ±
ĠØ¬Ûģ ÚĳØ§
Ġter ve
Ġme id
ĠÚĮ Ø§ÚĻ
ĠtÃ¶Ã¶ le
ĠÙħØ° ÙħØª
ĠÙĦÙĬØ§ ÙĤØª
ĠÚ© Ø¯
Ø§Ø² ÙĨ
ĠØ§ÙĨØª ÙĩØ§
k and
ĠJ uh
éĴ± æĢİä¹Ī
è¶ħ è¿ĩ
åıĹ åĪ°
ä¸» é¢ĺ
ØŃØ¶ Ø±Øª
ĠØ³ÙħÙĪ Ø±ÙĬÙĪÙĨ
ç£ ¨
à´· à´ķ
Ð º
om p
Ã Ħ
Ġo ht
se le
el iselt
åĨ ¬
E D
Ø´ Ø§Úº
Ú± Ú»
ĠØ¢Ø¨Ø§Ø¯ Ú¯Ø§Ø±ÙĨ
ĠtÃµ us
ĠÚĬÚ¯ Ø±ÙĬ
èģĮ ä¸ļ
ĠÚıØ§Úį Ø§
Ġost a
ĠÙĪØ§Ø±ÙĬ Ø¡
ç¾¤ ä¼Ĺ
éģ Ń
æĪĲ å¹´
ĠÙĦÚ¯ Ø§
ĠjÃ¤Ã¤ t
ĠØ¯Ø±ÙĬ Ø§Ø¡
èĥ½ æıĲçİ°åĲĹ
ÙĤÙĬ Ø¯ÙĬ
Ġ ðŁ
per atiiv
ä½ľ èĢħ
ĠØ´ ÙħØ§ÙĦ
ĠÚªØ§ÙĦ ÙĩÙĩ
Ġæ Ľ
å°ıè¯´ æİĴè¡Įæ¦ľ
Ġå¤©å¤©ä¸Ńå½©ç¥¨ åħ¬åı¸
èĢģ åħ¬
Ø§ÙĪ Ù½
åĦ¿ åŃĲ
ĠØ³ ÚĮÙĬ
Ú¯ ÙĬÙĨ
ĠK on
ĠØ§ ÚĢØ±
ĠÚªÙħ Ø§Ø¦ÙĬ
Ġ çĽĹå¢ĵç¬Ķè®°
Ù» Ø±
èİ ±
ĠÙħ Ø²Ø§Ø±
Ġte ised
ĠØ¢ Ú©Ú¾
æ³ Ľ
Ġ åĽŀ
Ġn ov
ĠtÃµ esti
ĠÚĮ Ø§ÙĨÚĮ
ĠØ¨Ø±ÙĬÙģ ÙĨÚ¯
ĠjÃ¤r el
Ùģ Ø±Ø¯
é¦ĸ é¡µ
ĠØ² ÙĦØ²
ĠjÃ¤r ele
Ùģ ÛĮ
ĠØªÙĨØ¸ÙĬÙħ ÙĨ
Ġilm selt
Ġ alt
Ùħ ÙĬÙĦ
åħģ è®¸
Ġse pt
ed ia
Ġlu gu
ja ks
ç¼ ĺ
ĠØ§Ø³ Ù½ÙĪ
ĠÚı ÙºØ§
à´ķ àµ½
æīĭ ç»Ń
ĠÙĬÚª Ø¯Ùħ
ĠØªØ¹ ÙĦÛĮÙħ
é¥ ®
æĤ£ èĢħ
t si
oloo gi
ĠÚ¦ ÙĩÙĦ
ĠØ±Ø§ØŃ ÙĬÙĦ
Ġå¤§åıĳå¿«ä¸īæĺ¯ ä¸įæĺ¯
è®¾ æĸ½
ĠØ¢Ø¨Ø§Ø¯ ÛĮ
ĠÚ¯ Ûĵ
æ£Ģ æµĭ
Ġener gi
Ġlap sed
ĠØ§Ùħ ÚĻ
Ġà´ªà´° à´¸
ĠØ·Ø§ÙĦ Ø¨
0 7
ä»Ĭ æĹ¥
Ġte el
Ġt reen
ĠØ¹ ÙĬÙĪ
æĥ Ĭ
ĠØ³Ú¯ ÙĩÙĩ
ĠkÃµr ge
éĶ ¦
ĠØ³ÙĨÚĮÙĪ Ø¡
ist us
a y
ĠØ§ÛĮ Ø´ÛĮ
Ø¬ÙĬ ÚªÙĪ
ä¼ Ļ
ĠÙĨÙĨÚį ÚĻÙĪ
æĺ¯ è°ģ
Ġsell ist
nev alt
vÃµ i
ĠØ¶ÙĦ Ø¹ÙĨ
ĠtÃ¤i end
è© ¦
Ġ éķ¿
I n
àµĩ ,
ĠØ¨ Ø±Ùģ
ĠÚªÙĪØ´ Ø´ÙĨ
Ġaren gu
åħ¶ å®ŀ
ĠÛģÙĪ ÙĪÙĨ
ĠÚıÙĬ Ø§Ø±Ú»
ĠØ¬ÙĪ Ú»ÙĬ
æİ¥ åıĹ
Ġpla an
çİ© åĲĹ
Ġmit u
èĮ İ
eri ood
ĠØªØ± Ú©ÛĮ
ĠÙĦ Ùħ
il y
ĠÃµ p
ĠØ¨ÙĨÚ¯ÙĦ Ø§Ø¯ÙĬØ´
ĠØ³Ú¯ Ú¾ÙĨ
ĠØ§ÙĨ ÙģØ±
ĠØ¬ÛĮ ÙĪÙĨ
ĠÙĪ ØŃØ¯
ĠØ³ÙħØ¬Ú¾ ÙĬÙĪ
et sem
Ġà´ª à´°à´®
ĠÙĪÚıÙĬ Ø±ÙĬ
àµ¼ à´ª
åĪĽ ä¸ļ
ä¸Ĭ éĿ¢
ä¼ °
éĽĨ ç¬¬
æĪĲ ç«ĭ
ĠØ¨Ø±Ø· Ø§ÙĨÙĪÛĮ
ĠØªØ± Úª
Ø° ÙĬØ±
ĠØ§ÙĨØª Ø®
ĠÙ¾ÚĻ ÙĩÙĨØ¯ÚĻÙĨ
å¡ «
en teer
ĠÚı Ø§ÚĻ
ĠÙħØ³ ÙĬØŃ
å¦Ĥ æŃ¤
r is
ĠÚĨ Ù¾ÙĨ
ĠÙĦÚ³ Ø§ØªØ§Ø±
Ć Ć
ĠÙĦ ÚĻÚª
çİĦ å¹»
ä¿ĥ è¿Ľ
ä»· åĢ¼
ĠÙĪÙĬ Ùº
æĽĿ åħī
ĠÙ½ ÙĩÚª
æ» ĳ
Ø¨ Ø³
ĠÚª ÙĦÙĪ
Ø´ Ø§Ø¯
ĠÚ¯ÙĦ Ø§Ø¨
è®¾ ç½®
å±± ä¸ľ
ĠÙ¾Ø¦ Ø¯Ø§
å¯Ĩ çłģ
ĠØ³Ø± Ø²ÙħÙĬÙĨ
ĠØ®Ø§ÙĨ Ú¯ÙĬ
ĠÙħØ§Ø± Ú»
7 2
Ġå¤©å¤©ä¸Ńå½©ç¥¨ å®ĺæĸ¹
åı¦ ç±»
Ġsuur epÃ¤r
ĠÙģÙĪØ±Ø³ Ø²
ĠÙĦØ§ÚĻ Úª
Ġja an
à´µ à´³
Ġli it
Ø§Ø± Ù½Ø±
ĠØŃØ³ ÛĮÙĨ
Ġäºļ åİĨå±±å¤§åıĳ
Ġnat uke
194 7
Ø§ÙĪ Ûģ
à´¸ à´²
an te
Ġ çļĦ
å°ĳ å¹´
Ġ &
ĠÙ»ÙĬ ÙĦÙĬ
ĠØ§Øµ ÙĦÙĬ
ĠÛĮ Ø§Ø¯
ĠØª ÙĢ
ÙĬ Ø§Ø¡
ĠØ¹ Ø·
éĽĨåĽ¢ å®ĺç½ĳ
ĠÙħÙĨ Ø³ÙĪ
ÙĬØª Ø§
ĠÙĪØ± Ø§Ú»ÙĬÙĪ
Ġ ad
éĥ½ æľī
al ine
ĠØ¬ÙĬÚª ÚıÚ¾ÙĨ
ĠÙ½ÙĬ Ø¨ÙĦ
ĠÚ¾ Ø§
ÙĬ Ø´ÙĨÙĦ
ĠÙħ ØµÙĬ
Ø§Ø± Úª
ĠmÃµ eldud
åħ³ éĶ®
å¸ ħ
Ġæĵ į
ĠÙĪÙĬ ÙĩÚ»
ĠÙħØ²Ø¯ ÙĪØ±
ĠØ±Ûģ ØªÙĦ
ÛĮÚ© ÙĦ
ĠÙĪÚı ÙĬÙĨ
åĿ ı
ĠØ§Ú© Ø«Ø±
éķ ľ
eer itud
ĠØ³ÙĬÙĨÙĬ Ù½Ø±
æĲľ ç´¢
ĠØª Ú¾ÛĮ
ÛĮ Ø¨
Ġo ktoo
è¯´ æĺİ
æĶ¶ åħ¥
ĠÚı ÙĬØ§
äºĨ åĲĹ
æ·± åľ³
èª į
ĠØ¬ Ø¨
æľ¬ éģĵ
ĠÚ© ÙĪØ±
ĠlÃµ ik
åİ ļ
é»Ħ éĩĳ
Ġ ÙĬÙħÙĨ
ÙĬÙĨ Ø³
ĠÚĢ Ø§Ø¦Ø±
ĠØŃØ§Ø¯ Ø«ÙĬ
ĠØ³ Ù¿
âĢĿ ,
ĠÙ¾Úĩ Ú»
åĸ ·
éĺ ģ
åĪĨ åĪ«
Ġvan em
ĠØ· Ø±ÛĮÙĤ
å¢ ¨
l y
ĠØ·Ø¨ ÙĤ
æ°ĳ æĹı
å¤ĩ çĶ¨
Ġvii b
Ġlah ti
Úª ÙĬÙĪÙĨ
ĠÙ¾ÙĩÚĨ Ø§Ø¦ÙĬ
" ,
ĠÙĨÚª ØªØ§
Ġt ip
çĪ¸ çĪ¸
ĠØµÙĨ Ùģ
ĠÙĪÙĬ ÙĩÙĩ
ĠÙ¾Ø§ ÙĪØ±
Ġà´¨ à´µ
ĠÙ¾Ûģ ÙĨ
ĠØ³Ú¯Ú¾ ÙĬÙĪ
j uur
ĠØŃ ÙĦÙĤ
o id
å« Ĥ
ĠÙĪØ± Ø¬
è¿Ĳ èĲ¥
ĠÚ¯Ø§Úı ÙĬØ¡
å¦ ĥ
ida gi
Ġà´µ à´¯à´¸
åģ ı
ĠØ§ÙĨÚ¯Ø±ÛĮØ² Ø§Úº
éĥ½ å¸Ĥ
Ġul at
ĠÙģÙĦ ÙħÙĨ
ĠÙ¾Ø§ÙĦ ÙĬØ³
éª ĳ
çĨ ±
ĠÙħØ±Ø¯ ÙĨ
ĠÙ¹ Ø±
ÚĨ ÙĪÙĨ
ĠE i
éº ¦
Ġmu u
æĸĩ ä»¶
ĠØªØ¹ÙĦÙĤ Ø§Øª
æħ Ī
Ġes ind
Ġh inna
em i
ĠØ§ÙħØ±ÛĮ Ú©ÛĮ
ĠÙħØ´ Øº
ï¼Į ï¿½
ĠtÃ¤n av
Ġå½©ç¥ŀäºīéľ¸ ä¸ĭè½½
ĠTallinn as
Ġ Ġ
ÙĤ Ø³Ùħ
ĠÙĪÚĨ Ø§ÙĨ
ÙĩØ± Ø³Øª
ĠØ³ÙĬÙĨÙĬ Ø¦Ø±
0 3
çĶµå½± ç½ĳ
ĠØ±Ù½Ø§Ø¦Ø± ÚĬ
ĠÙ»Ø§ Ú¾Ø±
ĠÙĨ Ø¨ÛĮ
ĠÙĦØ§Ú³Ø§Ù¾ Ø§
ĠØ§ÙĨ ÛģØ§Úº
éĩ Ĭ
å·¦ åı³
éĺ µ
ĠÚĢ Ø§ÚªØ±
s ik
Ġin d
ĠÙģÛĮ Øµ
ĠÚ¯ Ø¯
ÙĪ Ø¯ÛĮ
Ø§ÛĮÛģ Ûģ
ri it
çĮ ª
Ġkod ule
äºº ä»¬
å¹² éĥ¨
ĠÙ¾ÙĩØ± Ø¦ÙĬÙĨ
Ùħ ÙĬØ¯
en er
æ² Ł
å¤©å¤© å¥½
ist atud
ĠÙ¿ ÙĪØ±Ø§
æĬ¥ èŃ¦
Ġ ä¼ĺ
ÛĮÙĨ Ø³
ĠØ³ÙħØ¬ ÙĩÙĨ
ä» Ķ
ĠØ§Ø³ Ø¯
ÙĪÙĦ ÙĨ
ĠÙĤ Ø¨ÙĬÙĦÙĬ
s h
è¯¦ ç»Ĩ
ĠÚªØ± Ø³Ù½ÙĪÙģØ±
ĠØ¨Ùĩ ØªØ±ÙĬ
à´¥ à´¨
ĠkÃµigi le
Û° Û°
èĮĥ åĽ´
ĠÙĦÚ³ Ø³
Ġes inda
åħĳ æį¢
orr as
ĠÙħØ³ ÙĪ
ist a
ćĆć ãĢĤ
ĠÚª Ø¦ÙĬÙĨ
0 5
åıĳ è¡Į
Ø¶ Ø§ÙĨ
ĠNe ws
ĠÙģ Ø§Ø·
200 2
æ Ĩ
ĠT eg
éģĬ æĪ²
Ø§Øª ØŃ
å¥¹ çļĦ
ÙĪ Ø³ÙĬ
Ø¦ÙĬ Ø´ÙĨ
Ø§Ùĩ Ú»
ĠØ±ÙĪØ§ÙĬØª ÙĨ
ç®¡å®¶ å©Ĩ
Ġk eda
ĠÚıÙĬ Ø§ÙĨ
ÛĮ Ø§Ø¨
æł¡ åĽŃ
ĠØ§Úı Ø§Ùħ
å¤§ åİħ
ĠØ³ÙĨ Ø¬ÙĬ
åĦ ª
ÚĬ Ø±ÙĨ
ĠØŃØµ ÙĨ
us h
r id
ĠÚıÙĬ Ú»ÙĪ
ĠtÃ¤p selt
Ġk el
Ġæ ¡
Ø¶ Ø§Ø¯
Ġå¤§åıĳå¿«ä¸īæĺ¯ åĽ½å®¶
Ġav atud
ĠØ§ÙĨ Ù½Ø±
è½ ¯
Ġproj ekti
it as
Ø¬ ÙĦ
ĠÚ¾ÙĬ Ùº
Ġarv ut
å¤§ çīĩ
è§Ģ çľĭ
æīĵ ä¸įå¼Ģ
ĠØ±ÙĬ Ú¯
è¶ĭ åĬ¿
Ø¨ Ø§Ø±ÙĬ
å® µ
Ġr ikk
ĠØµÙģ Ø§Ø¦ÙĬ
à´µ à´±
èĥ ŀ
ĠÙĩØ¦ Ø§Ø¦ÙĬÙĨ
èĬĤ çĽ®
lik ku
ĠpÃ¶Ã¶ r
Ġikka gi
6 4
æ·± åħ¥
ĠØ§Øª Ú¾ÛĴ
æĪĳä»¬ çļĦ
ĠØ¨ÙĦ Ú©Ûģ
U S
Ġå¤©å¤©çĪ±å½©ç¥¨ app
Ġr ing
æ¨¡ çī¹
k Ãµige
æĤ ī
Ġæ ł
ç½ĳ åıĭ
ĠØ§ÙĬÚĬÙĬ Ù½Ø±
ĠØ¨ÙĨ ÙĨ
ĠÙĢ ÙĢ
200 4
ĠØ§ÙĬÙĪ Ø¨
7 1
Ġå¤©å¤©çĪ±å½©ç¥¨ æĢİä¹Ī
ĠØ¹ÙĨ ØµØ±
t et
iis i
or ra
ĠÙĨ Ø§ØµØ±
Ġtoim et
O N
çī¹ çłģ
j ekt
ĠÚªØ±ÙĬ ÙĨ
Ġæľī æ²¡æľī
ĠØ¹ Ø§Øµ
æĻ® éĢļ
Ø§Ø± ÙĪÙĨ
à´¶ à´®
ĠÙĩÙĨ Ú¯
çľŁ çļĦåĲĹ
ĠÙħØ° Ûģ
ÛĮØª Ø§Úº
è§ī å¾Ĺ
ĠÙĬØ§Ø¯ Ú¯Ø§Ø±
åĹ İ
ĠÚªØ± Ø¯Ø§Ø±ÙĨ
ÙĤ ÙĪÙĦ
ä¸ľ æĸ¹
ar e
ĠØ³ÙĪØ± Ø¬
ĠÚ¾ÙĪÙĨ Ø¯ÙĪ
é ³
ä½ĵèĤ² å½©ç¥¨
ç»¿ èī²
è¾ ĳ
Ġkasut atakse
åı ¬
ĠØ§ÙĨØ¯Ø± ÙĪÙĨÙĬ
Ġå¤©å¤©ä¸Ńå½©ç¥¨ ä¸ºä»Ģä¹Ī
Ġæ° ¸
àµ¾ à´ķ
åĮ» çĸĹ
ĠvÃµt ab
ĠØ¸ Ø§ÙĩØ±ÙĬ
ÙĨÚĬ Ø§
ĠÙ¾ÙĪÙĦ ÙĨÚ¯
ĠØ¹Ø§Ø¨ Ø¯
ĠÙĨÙĨÚį Ù¾Ú»
p x
åķ ¦
vÃµ te
ĠÙĨØ¸ Ø±ÙĬÙĪ
çľŁ æŃ£
Ġte ema
åĬŀåħ¬ å®¤
ĠØ¹ Ø§Ø¯Øª
ĠÚ©ÙĪ Ù¹
Ġv ist
ĠØ±Ø¦ÙĬ Ø³
çļĦ éĩįè¦ģ
ĠkÃ¤ it
ĠØ¨ ÚĳÛĮ
ĠØ¢Ú¾ÙĬ Ø§ÙĨ
ĠÙĤØ³Ùħ ÙĨ
è³ ª
æĢ ª
ĠØ³ ÚĨÙĬ
æĻ Ĵ
Ġkod us
åħ· ä½ĵ
ĠÙĪÚĻ ÙĩÚ»
en ti
Ġà´ħà´µ àµ¼
è§Ħ æ¨¡
ĠS aar
Ġs ad
Ġse g
çĨ Ĭ
use na
æ¯ «
ĠØ§ÙĨØªØ® Ø§Ø¨
isa in
ä¾ µ
Ø§Øª ÙĬÙĨ
è ¹
ĠjÃµ ul
Ġ éĺ¿
ĠÙħØ® ÙĦÙĪÙĤ
åĪ« äºº
ĠÚĩÚıÙĬ Ø§Ø¦ÙĬÙĨ
æļĤ åģľ
ĠÙħÙĦ ÙĨØ¯Ø§
Ġà´ª à´³
ĠÙģ Ø§Ø¦ÙĨ
c a
ĠÚĢÙĦ Ø§Ø¦ÙĬ
ÚªØ´ Ø§Ùģ
ĠvÃµ Ãµr
o ut
le ks
q vod
é£Ł åĵģ
ĠÙħÙĨØµ ÙĪØ±
äºŀ æ´²
ĠØ¬ÙĨÚ¯ ÙĬ
æ£Ģ æŁ¥
ĠØªØ¹ Ø§ÙĪÙĨ
ĠS ell
èĳ £
ĠØµÙĨ Ø¹
è ¤
ĠjÃ¤ lg
ĠÙĨÙĬ Ù½
æĳĦ å½±
ĠØ§ÙĬÚª ÚĻ
Ġke ha
Ġå¾®ä¿¡ å¤©å¤©å½©ç¥¨
ĠG r
Ġà´¬ à´¸
ĠÙĩÙĬ Ø±ÙĪ
ĠsÃµ lm
æıĲ åĩº
æĺ ł
Ġkli end
èĭ± åĽ½
àµ¼ à´¦
S V
ĠÙĨÙĬ Ø§Ú»ÙĬ
Ġå¤§åıĳ æ¸¸æĪı
ĠvÃµim aldab
ĠØ¹ ÙĬ
ç»ĳ å®ļ
é¼ İ
ĠÙ¾ ÙĦÛĮ
Ġsel ge
æĿ¥ èĩª
åıª è¦ģ
Ġo b
à´£ à´²
ĠØ´ÙĩÙĨ Ø´Ø§ÙĩÙĩ
ing ud
æĮĩ åĩº
ĠØ§ÙĨ ÚªØ´Ø§Ùģ
ä¸į å°ĳ
200 1
ĠÙħØ¯Ø± Ø³ÙĬ
ĠØµÙĦØ§ØŃ ÚªØ§Ø±
Ġå¤©å¤©ä¸Ńå½©ç¥¨ ä¸įä¸Ńè¿Ķ
ç§» åĬ¨
Ġte gema
ĠÙħØŃ ÙģÙĦ
g is
ĠÚ³Ø§ÙĦ Ú¾Ùĩ
Ġn r
ĠØ¨ÙĬ Ø´Úª
ĠÙ½ÙĪ ÚĻÙĬ
Ġtoim us
åħ Ħ
åı° çģ£
ÚĬ Ù½
ÙĨØ¯ Ø±ÛĮ
å¹ ¹
ĠØ´ Ø±ÙĬ
ä»¥ ä¸ĭ
Ġk Ã¶Ã¶
ĠnÃ¤ ht
é£ Ľ
Ġk il
Ġå¥½ çľĭçļĦ
ĠÚªÚ» Úª
à´¸ à´®à´¯
ÚĪ ÙĨ
J a
àµį ;
A r
Ġ am
ĠØ³Ø±Ø¨Ø± Ø§ÙĩÙĬ
èĻ ĳ
ĠØ¹ Ø§Ø±Ùģ
ĠÙĨØ§ÙĦ ÙĨ
ĠØ³Ùģ Ø§Ø±Ø´
ĠÚ¾ÙĪ Ø¡
ĠØªØµÙĪÙĬØ± ÙĪÙĨ
k Ã¼
Ġ éĻ
ĠØ¨ÙĨ ÛĴ
Ú¾ Úª
ĠØ¯ÛĮ ÙĨØ¯ÛĴ
Ø¢ Ùħ
ä¸Ń åįİ
ĠÚ¯Ø°Ø± Ú»
Ġ çº¢
ĠNÃ¤ iteks
ĠÙĪ Øº
Ú¯ Ø§ÙĦ
åĮĹäº¬ èµĽè½¦
å®ļ çļĦ
tte vÃµt
æĺ¯å¤ļå°ĳ éĴ±
Ġæ ĭ
äº ı
éĩĳ é¢Ŀ
ĠØ®Ø¯Ùħ ØªÙĪÙĨ
Ø³ Ù¾Ø±ÙĬÙħ
è´¦ æĪ·
ĠÙħ ÙĨÙĬ
æĸ¹ åĲĳ
Ġho ida
Ġå¤©å¤©ä¸Ńå½©ç¥¨ æĢİæł·
åı£ äº¤
ĠÚĨÙħ Úª
m ata
ĠÚı ÙĩÙĨ
ĠÙĪ ÙĩÙĬ
ĠØ¢ ØªÙħ
ĠÙģ Ø±ÙĪ
l v
åĪ ĳ
ç®Ģ åįķ
ĠÙħÙĩØ± Ø§Ú»
è· ¨
è¡Į åĬ¨
ØŃ ÙĬØ¯
Ùħ Ø¦ÙĨ
Ġaren g
ĠÙģ ÙĬØ³
æĮ £
iku ks
ĠnÃ¤ g
ÚªØª Ø§Ú»
al da
åİ» äºĨ
un ik
à´¤ à´Ļ
ĠÙĪØ²ÙĬØ± ÙĨ
çİĭ èĢħ
ĠÚªØ±Ø§ ÙĬØ§
ĠS iis
Ġs Ã¼Ã¼
ĠÙĨÙĤ Ø´
Ġsob ib
. [
m an
æ¸ Ĳ
ĠÚ© ÙĪÚº
Ġkah ju
ĠÙĪØ± ÛĮØ§Úº
ĠØ±ÙĪÙ¾ ÙĬÙĨ
Ú» ÙĬÙĪÙĨ
ii b
ĠjÃ¤rg mise
ĠØ§ÙĪ Ø²
ĠØ¨ Ø§Úª
è· µ
Ġ éĿĴ
Ļ æ±Ł
ĠÙ½ Ø±Ø§ÙĨØ³
ĠØ§Ø³ Ø±Ø§Ø¦ÙĬ
ĠØ§Ø³ Ø¯ÛĮ
ä¸Ĭ å¸Ĥ
ĠØ¹ ÚªØ³
à´® à´³
ĠÙħØ¹ ÙħÙĪÙĦ
åĿ Ĭ
Ġm Ã¼
al g
åĳ Ĩ
à´°à´£ à´¯
åķĨ ä¸ļ
n Ã¤
Ġto idu
é¡µ éĿ¢
Ø§ÙĪ Ø§
Ġæ¬¢ä¹Ĳ é¢Ĥ
ĠØ¨ ÙħØ¨
ĠÙħØ§Ø± Ø´ÙĦ
çļĦ çĶµå½±
ĠØªØŃ Ø±ÙĬØ±
Ġes ine
ĠÚıÙĬÚ©Ø§Ø± Ú»
ĠÙħÙĦÙĬ Ø±
ä¸Ģ åĪĩ
Ø¨Øª ÙĦØ§
Ø³ ÚĢ
à´® à´ķà´³
åı¦ å¤ĸ
Ġå½©ç¥ŀäºīéľ¸ ç½ĳç«Ļ
ĠÙ¹Ú¾ÛĮ Ú©
200 3
ĠÚ³ Ø§Ø¦Ú»
ä¸Ńæĸĩ åŃĹå¹ķ
çĶ ĺ
7 9
ä¼¦çĲĨ çīĩ
ĠÚªÙĪ Ø±ÙĬ
ĠØŃØ§Ùħ Ø¯
k as
t akse
æ° ı
Ġorganis atsioon
ĠØ¬ÙĦ Ø§ÙĦ
ĠØ§ÙĨÙ½Ø±ÙĨ ÙĬØ´ÙĨÙĦ
ØªÙħ ÙĨØ¯
p h
é¾Ļ èĻİ
æĪª åĽ¾
ĠØ§Ø³Ø§ÙĨ Ú©ÙĬ
èŃ ·
ĠØ³Ùĩ ÙĪÙĦØª
ĠØ§ Úį
åı£ è¯Ģ
éŁ³ ä¹Ĳ
Ġà´ĩ à´·
Ġalg uses
ĠÙħØ¯ ÙĬÙĨÙĬ
Ø§Ø¦ ÙĦÙĬ
ĠA S
ĠÙħ ÛĮÚ©
éģ į
ĠÙĦ ÛĮÚ©
Ġæ ı
ĠÙ½Ø§Ø±Ú¯ÙĬ Ù½
ĠØ±ÙĩÙĪ Ø§Ø³ÙĬÙĨ
ĠØ³ Ø§Ùģ
èĥ½ æºĲ
ĠÙħÙ¿ ÙĨ
ĠÚ³ÙĪÚĻ ÙĩØ§
s Ãµ
å½©ç¥ŀäºīéľ¸ éĤĢè¯·çłģ
Ġå¤§åıĳå¿«ä¸ī å¼Ģå¥ĸç»ĵæŀľ
ĠÙĨ Ø§ÙħÙĬ
ĠÙĪØ± ØªÙĦ
ĠÙħ Ø§Ø±ÙĬÙĪ
å¯¼ èĩ´
Ġk ra
uk as
åıª èĥ½
ç¸ ½
od e
Ġf or
Ġprot ses
Ġku jut
ĠØ®ÙĪØ´ ØŃØ§ÙĦ
à´ĸ à´°
ĠÚ¾ÙĪÙĨ Ø¯ÙĬ
ĠØ§ÛĮ Ù¹
ĠÚ¯ÙĩÙ½ ØªØ§Ø¦ÙĬ
ÚĮ Ø§Ø±
ĠØ¬Ø§ Ú©ÙĪ
Ġtoo te
æŀģ åĵģ
ĠÙĦÙĪ Úĳ
Ø± Ø§Ø²
ĠÚĬ ÚĦ
Ġparem ini
åķĨ åĵģ
éªĹäºº çļĦåĲĹ
ĠØ¨Ø±Ø·Ø§ÙĨ ÙĪÙĬ
ä¹³ æĪ¿
ĠÛģÙĪ Ûĵ
ga b
ÙĪ Ùģ
Ø§ÙĨ ÙĩÙĬØ¡
ĠØ±Ø§ÙĨ Ø¯ÙĬÙĨ
Ġv il
éĺ´ èĮİ
Ø® ÙĬØ±
an ne
ĠÙħ Ø§Ø±ÙĪ
Ġa id
ĠÚª Ù¾ÙĪØ±
ĠØŃÙĬØ§Øª ÙĬØ¡
ĠÙĪØŃØ¯ Øª
æľĢ ä½³
ĠØ§Ø®Øª ÛĮØ§Ø±
ĠØ¢Ø®Ø± ÚªØ§Ø±
Ġteg el
Ø¹ Ø§Øª
ĠÚĩ ÚªØªØ§Ú»
ĠsÃ¤ test
Ø§ ÛĮØ³
ĠÙħÚ© ÙħÙĦ
ĠØªØ±Ø¬ÙĬ ØŃ
Ġp l
ĠÚıØ³ ÙĨØ¯Ø§
ÙĬÙĨØ¯ ÙĬÙĨ
ĠØ¬Ùĩ ÚĻÙĬÙĪÙĨ
ĠØ·Ø¨ ÙĤÙĪ
apÃ¤ev al
s se
ĠÙĨ Ø¯ÙĬ
ĠÙĩÙĪ Ø´
ĠØ¨Ø±Ø·Ø§ÙĨ ÙĬØ§
Ø± Ø¨ÙĬ
ĠØ³Ø§ ÚĪÛĴ
ĠK er
Ø§Ø´ ÙĨÚ¯
Ģè¯· çłģ
Ġå¤©å¤©ä¸Ńå½©ç¥¨ ä¸į
ĠS p
ĠÙħ Ø¨ØªÙĦØ§
p Ã¤r
Ø¨ Ø±ÙĪ
çļĦ æķħäºĭ
ĠØ§ÛĮÛģ ÙĨÙĪÚº
è¿ĳ å¹³
Ø§ÙĨ Øª
ĠØª Ø§Ùħ
ĠØ§Ú© Ø±ÙĨ
ĠÚĨÙĪ Ù¿ÙĬÙĨ
t o
Ġvajal ik
ĠÙĪØ¬ Ú¾ÙĬ
8 1
äºĭ ä¸ļ
åį° åº¦
ĠØ´Ùĩ Ø§Ø¯Øª
çĽ® çļĦ
ĠÚĨ ÙĬØ³
ĠÚĩÙ¾ ÙĬÙĦ
ĠØ®ÙĪ Ø¯Ùħ
ĠÙĨ Ø§ÙĤ
ĠÚªÙĨ ÙĨ
ĠÙ¿ÙĬ Ú»ÙĪ
Ġj oon
é ¨
8 00
Ġsuur t
æĬ µ
ĠÙ¿ ÙĦ
ĠØŃØ§ÙĦ Ø§ÙĨÚª
ĠÙ¾ Ø¦ÛĴ
åħħ åĪĨ
Ø± ÛĮØ§Úº
æĬ ¢
æŁ± é¢Ħæµĭ
à´Ĥ ;
Ġå¤©å¤© éĢģéĴ±
åľ¨çº¿ çľĭ
æ³ ¡
å¸ Ĳ
ul l
ĠØ¹Ø±Ø¨ ÙĨ
è´ ¯
à´¥ à´®
Ġà´Ĵ à´ª
ĠÙħÙĪØ¨ Ø§Ø¦ÙĦ
å§ ¿
ĠmÃ¤n gi
æľº æ¢°
ãĢĭ ï¼Į
Ø¨ ÙĩØ±
ĠÙ¾Ø¦ Ø³ÙĬ
è¼ ĥ
ĠÙħÚĥ Ú»
ĠØ§ÚªÙĬÚĬ ÙħÙĬ
åĵªä¸ª å¥½
æİª æĸ½
åĶ ±
jad e
æī İ
ĠÙĩ Ø§Ø±ÙĬÙĨ
ĠØ®Ø¯ÙħØª Ø§Úº
ĠV iim
ä»ĸ åĢĳ
ĠÙĨØ´ Ø§ÙĨØ¯
ĠØ±Ùħ Ø¶Ø§ÙĨ
ĠÙģ Ù¹
é¥ Ń
kt or
ĠÙħÙĨ ÙģØ±Ø¯
ĠØ³Ø±ÙĬ ÙĦÙĨ
ĠØ§ÙĨ ÙĬÚª
é¼ ĵ
ç¥ ĸ
Ġå¤§åıĳå½©ç¥¨ å¿«ä¸ī
kon da
ĠØŃÙĤ ÛĮ
æµĭ è¯ķ
ĠVene maa
Ġå¤§åıĳå¿«ä¸ī å¦Ĥä½ķ
ĠH e
æĳ ĩ
ĠÃ¼ ll
ĠÙģ Ø§ØªØŃ
Ġka ard
19 99
çĬ¯ æ³ķ
æĻ ¶
ĠÙħØ¹Ø§Ùĩ Ø¯ÙĬ
l asi
Ġk m
Ġse alt
ĠÙ¾ÙĪ ÚĻÙĩÙĬ
å¹¸ ç¦ı
å¤§ ä»Ļ
Ġpr aeg
Ġeem ald
ĠØ±ÙĪ ÙĬÙĪ
ĠØ³ Ø§ØŃ
è¡Į æĶ¿
ĠÙ½ÙĬÚªÙĨ Ø§ÙĦØ§Ø¬ÙĬ
ĠØ³ÙĪØ§ÙĦ ÙĨ
ĠÙĪ ØªÛĮ
ĠSam as
ĠÚį ÙĨÚį
è°ĥ æŁ¥
ĠsÃµ na
ĠØ³Ùģ Ø§Ø±Øª
ãĢģ âĢľ
ĠÚĨ ÙĨØ¯Ø±
ĠØ´Ùģ Ø§Ùģ
æŃ£ å¼ı
ĠØ± Ø§Ùĩ
çļĦ éĤĢè¯·çłģ
S elle
ĠØµ Ø¯Ø§
ĠØ¬Ûģ Ø§Ø²
çľĭ çľĭ
ĠØ³ Ø¯Ø§
à´® à´²à´¯
Ġæ¬ §
uk oht
ĠÙĨÙĬÙĪ ÙĬØ§Ø±Úª
ĠØ§ Ø°
åħļ çļĦ
ĠÚĢØ± ØªÙĬ
ad itsioon
t v
ĠØ³Úª ÙĨØ¯Ø±
åĴ ¨
èµļéĴ± åĲĹ
æ ª
æ¯Ķ å¦Ĥ
àµĢ âĢĭ
v Ã¤
èĪ į
is u
ĠÙĪÛĮ Ú©Ú¾ÙĨ
à´ĸ à´¤
Ø· Ùģ
ĠØ§ÙĤ Ø±Ø§Ø±
éĨ Ĵ
el s
àµ¼ à´¶
g ev
ĠÙĪØ±Øª ÛĮØ§
ĠÙĪ ÚĻÙĩÙĬ
ĠÙ¾ÙĪ Ø²ÙĬØ´ÙĨ
å¹¿ åĳĬ
ĠÙĪØº ÛĮØ±Ûģ
Ġse n
ØµÙĬ ÙĦÙĬ
ĠØªÙģ ØµÙĬÙĦÙĬ
ĠØ³Ø±Ú¯ Ø±ÙħÙĬÙĨ
ĠØ¢ ÙĨØ¯Ø§
ĠÙĦ ÙĩØ¬ÙĬ
ç«ŀ äºī
ĠÚªØ§ÙĦ ÙĪÙĨÙĬ
ĠE s
ĠÙħÙ¿ ÙĬÙĨ
ĠÚ¯ÙĪ Ú¯ÙĦ
è¾ ¦
çŁ ¿
æºĲ çłģ
Ġå½©ç¥ŀäºīéľ¸ æľĢæĸ°
Ġd ir
Ġa send
ä¾Ľ åºĶ
å¹´ æĿ¥
ĠØ§ÛĮ ØªÚ¾ÙĪÚº
ĠÚĬ Ø³Ù½Ø±
èĩª çĶ±
ĠØ®Ø¯Ùħ ØªÙĨ
ĠØ³Ø§Ûģ ÙħÙĨ
ĠÙĩ Ø§Ø³
ĠØ³ ÙĦÙĬ
ä¹ł è¿ĳå¹³
ĠØ®Ø· ÙĨ
ç¨ĭ åº¦
ĠØ¯ Úª
åħ¬ éĩĮ
å¤§åıĳ çĶµ
ĠÙħÙĨ Ù½
ĠÙħØ¹ Øª
ĠØ§Ø³Ù½ Ø§Ùģ
Ġnel ja
éģ ĭ
éĥ Ń
Ġc m
Ġhuv i
Ġp ane
ol la
lt s
ĠÙ¾ ÙĦØ§
Ġ æĹł
æĹ¥ éŁ©
ur u
Ġ åįİ
ĠØ®Ø§ÙĨ Ùĩ
Ù¿ ÙĪÙĨ
ĠØ° Ú©Ø±
è´¸ æĺĵ
Ġ å¹¸è¿Ĳ
ØĮ âĢĿ
ĠØŃ Ø¨
ĠÙ¾Úĩ Ø§
ĠØ§ÛĮ ÙħØ§ÙĨ
ĠØ¯ÙĪ Ø¬ÛĮØ§Úº
çļĦ å¿ĥ
Ġming it
Ġkelle l
ĠØ³ Ûģ
çı į
ĠØ³Ø± Ø§ÙĨ
ĠÚ© Ø¯ÛĮ
ĠÙħØ¹ Ø·
Ġå¹¿ä¸ľ å¿«ä¹ĲåįģåĪĨ
ĠÙĨ ØªÛĮ
æĹ ĭ
Ġ åı¤
ĠÙĦÙĬÚª Ø³
åįı ä¼ļ
ĠØ±ÙĪ ÙĬÙĨ
ĠÃµpet aja
ĠØªÙĪ ÙĩÙĬÙĨ
âĢĭâĢĭ âĢĭâĢĭ
à´³ à´ª
ĠÚĦØ§Ú» Ø§ÙĬÙĦ
ĠØ³Ú© Ø¯ÛĮ
å¤® è§Ĩ
Ø§Ø¦ÙĨ Ø³
mise st
ĠÙ¾ÛĮÙĪ ØªØ±
pÃ¤ev al
æĺ¯ ä¸į
åĬŀ æ³ķ
ç¾ ©
ĠØ³Ø§Ø± ÙĨÚ¯
æį ·
ĠÙħÙĨ Ø§Ùģ
Ġloo b
ĠÚ¯Ø¬Ø± Ø§Øª
o ma
ĠÙħÙĨ Ø´ÙĬ
Ġlah k
à´¸ à´Ļ
æĺ Ĩ
Ġkorr as
çı¾ åľ¨
ĠØ³Ù¾ Ø§ÙĩÙĬ
T Ã¤
æľĢ éķ¿
éļ Ĭ
ĠØªÙĤ Ø±ÙĬØ¨ÙĨ
ĠØ¹ÙĬÙĪ Ø¶
l in
iht i
çļĦ æĢ§
Ø® Ø´
æ¶Īè´¹ èĢħ
ÙĨÙĬ Ùģ
ĠÙģØ§Ø¦ÙĨ ÙĦ
ĠÙĩÙĪÙĨ Ø¡
ĠÙ¾ÚĻ Ùĩ
ka itse
ĠØ¯ Ø±ÙĬØ§
æľº åĻ¨
u us
ĠØ³ÙĪÙħ Ø±ÙĬ
è°ĥ æķ´
æĮ ¯
æ® Ĭ
å®ī æİĴ
ä¸Ģ å¤©
ĠØ¨Ø· ÙĪØ±
Ġk ad
ĠÙĪ Øª
Ġsu ut
âĢ į
Ġà´ķ à´¯
ĠØ² Ø§ÙĩØ¯
åı¯ä»¥ æıĲçİ°åĲĹ
ĠØ¬ Ø¦ÙĬÙĨ
Ø§Ø· Ø¨
ĠØ¯ÙĪ Ø¬Ø§
ĠØ³Ú© ÙĪÙĦ
åıĬ æĹ¶
10 8
ĠØ¨ÙĨ ÛĮ
ĠÙģ ÙĨÙĬ
åįģ äºĮ
ĠØ´ Ø¯ÙĬØ¯
çħ ¤
àµ¼ à´£
à´² à´±
é© ¾
åĽł çĤº
çŁŃ çīĩ
Ã¼steem i
ĠØ³ÙĪØ³Ø§Ø¦ Ù½ÙĬ
ÙĨ Ú¾ÙĨ
al iseer
Ø±ÙĬ Ø§ÙĨ
Ġka un
å»º è®®
ĠØ±ØŃ ÙħØ§ÙĨ
æ¶ ¨
Ġl uua
ç¾ Ĭ
å®ŀåĲį è®¤è¯ģ
éĵ ľ
ĠØ¨ØŃ Ø±
ĠØ®Ø§Øµ Ø®ÙĬ
ĠÙħ ÙĩØ§
Ġte ki
ĠtÃ¤n u
ĠÙĤÙĬØ¯ ÙĬÙĨ
ĠØµ ÙĦÙĬ
ĠÛĮÙĪÙĨ Ø§ÙĨÛĮ
ĠØ± Ø²
Ø§Ø¦ ØªØ§
éĢĻ äºĽ
Ø¨ÙĩØ± ØŃØ§ÙĦ
è¦ Ĩ
ĠÙħØ´ Øª
ist u
ÙĦÙĪ ÙĬ
Ġpiis avalt
Ãµ pet
å® ½
äº Ĥ
Ġà´® à´ŀ
ĠÙĤ ØµÙĪ
ĠØ¯Ø± Ø§ØµÙĦ
ĠÚ¦ Ø§Ø³
ĠE d
ent aar
ĠÙĤ Ø±ÛĮ
å¼ ±
å¼ µ
è¢« åĨ»ç»ĵ
ĠÚıÙº Ùħ
à´¥ à´°
å¹¶ ä¸Ķ
Ġteg emise
ĠÙģØ± Ø§Ø±
Ġå¤©å¤©ä¸Ńå½©ç¥¨ æĬķæ³¨
ĠØ¨ÙĨ Ø§Ø¦ÙĬ
uv ast
çİ¯ ä¿Ŀ
ĠØ§Øµ ÙĦØ§ØŃ
éĤ Ĭ
ĠÙ¾ Ø§Ø¦Ú»
ä¸° å¯Į
ĠØ±ÙĩÙĪ Ø§Ø³ÙĬ
ĠÙħØ·Ø§ÙĦ Ø¹ÙĬ
ĠØ§ÙĪÙĨ ÛģÙĪÚº
ĠÙĨ ÙĬÙĨÚ¯
ĠÙħÙĨ Ù½ÙĨ
ĠÙħÚĥ ÙĬ
Ø¬ÙĬ ÚªÙ½
Ġà´¸ à´ľ
ĠÚ³ÙĪÙĦ Ú»
o ur
ĠØ´ ÚªØ±
Ġmood ust
àµįâĢĮ ,
Ġ å°ĳå¦ĩ
Ùĩ ØªÙĬ
Ġ çĶµå½±
ĠØªÛĮ Ø²
ĠÚĨ Ù½
Ø¸ ÛĮÙħ
ĠÚ©Ú¾ Ø§ÙĨ
ĠØ§Ø³ØªØ¹ÙĬ ÙģÙĬ
ĠÚªÙĪ Ø±ÙĬØ§
åĲĮ åŃ¦
ĠÚıÙĪÙĩ Ø§Ø±ÙĬÙĨ
ĠØ¬Ø§Ùħ Ø¹
åĩ Į
k Ãµ
ĠÙģØ±Ùħ Ø§Ø¦ÙĬ
ĠÃ¼tle b
èĪ Ķ
ÙĬÙĨ ÙĨ
ĠÙĦØ§Ú³Ø§Ù¾ ÙĨ
æľī å£°å°ıè¯´
Ø§ÙĬ Ø¹
ul ikult
èµ ı
ĠØ±ÙĪ Ø¦
ÚĬ ÙĬÙĨ
èµ ¤
ĠØ§ÙĨØª ÙĤ
Ġ ãĢĲ
og raaf
æ¯Ľ çīĩ
ĠØ§ÙĪØ± ÙĨÚ¯
ĠtÃ¶Ã¶ st
æİĴ åĲį
ĠØ³ÚĨ ÙĪ
à´° à´²
ĠØ¬ÙĨ Ø³ÙĬ
ĠÙĨÙĬ Ù¾Ø§ÙĦ
jÃ¤r g
ĠØ® ØµÙĪØµ
ĠØ¬ÙĬ ÙĪÙĨ
K a
l uste
os a
Ġpr esid
å¢ Ļ
ĠÙ¿ ÚĮ
um m
ĠÙĩ ÙĬÙħ
ĠÙĪ Ø§Ø³ÙĬÙĨ
ĠØ§Ø³ ÙħØ¨
ĠØª ÚıÚ¾ÙĨ
Ġle v
ĠØ³ÙĪ ÙĪ
Ġk oond
Ġ åĵªéĩĮ
Ġå¤§åıĳå¿«ä¸īé ¢Ħæµĭ
ĠÚ¯ÙĦ Ø§Úº
ĠÚ¯ ÙĬØ³
197 0
ä¹ĭ å®¶
o te
Ġjuh at
Ù¿ Ø§
ĠÚªØ§ÙĨÚ¯ Ø±ÙĬØ³
Ã¼ kk
Ġsam al
ĠØ¬Ú¾ ÚĻÙĪ
Ġ ä»Ĭå¤©
Ġ äºĶ
Ù¾ Ø§Ú»
çİ ²
Ù¾Ø§Ø± Ù½
197 1
Ġp ur
ĠØ³ ÚĻÙĬ
ĠØ§ÙĦ Ø§ÙĩÙĬ
è£ Ļ
Ø´ Ø§Ûģ
ĠnÃ¤d ala
è´· æ¬¾
ĠÙģ ÙĩØ±Ø³Øª
ĠÙĤ Ø§ØªÙĦ
ĠÙĪÙĬ Ø¬Ùĩ
ĠÙĤØ¨ÛĮ ÙĦÛĴ
ĠØ³ Ù½ÙĬ
ĠØ§ ÙĬÙĨØ¯ÙĬÙĪÙĨ
ä¸įèĥ½ æıĲçİ°
Ûģ ÛĮÚº
æĸ¹ ä¾¿
0 6
äºº åľ¨
ab a
juur es
ÙĬØª Ø±
ĠÙ» Ø§Ø±ÙĬ
ÚĨ ÛĴ
à´· à´µ
à´Ł à´µ
çĮ Ľ
ĠØ³Ø±Ø§ÙĨ Ø¬Ø§Ùħ
åİĤ å®¶
ine er
åıĺ åĮĸ
iin i
æģ Ĵ
k y
ĠØ³ Ø§ÙĦÙĬ
ĠÙĦ Ø¦
Ġt ub
ĠÚª Ø§Ø¨ÙĦ
ĠÚªÙĬØ³ ÙĨ
ĠØ¨Ø§Øº ÙĬ
ĠØ§ÙĨØªØ¸Ø§ÙħÙĬ Ùĩ
è¿Ķ çĤ¹
ĠÙħØ± Ø´Ø¯
à´¸ à´Ń
ĠØ³ÙħØ¬ ÙĩÙĪ
ĠØ§Ø¨ØªØ¯ Ø§Ø¦ÛĮ
ust a
ÙĨÚ¯ Ø§
SS SS
çľ ¾
ĠI I
ĠØ§Ø³Ù½ÙĬ Ø¬
ĠÙħØ· ÙħØ¦ÙĨ
é¾ į
ĠØ´ÛĮ ÙĪØ§Úº
Ġiga pÃ¤ev
ĠØ´ÙĩÙĬ Ø¯ÙĨ
ĠÚ©Ú¾ ÙĦ
ĠÙħÚĥ ØªØ§
ĠØ³Ø§ÙĨ ÙĪÚº
ä½ĵ å½©
Ġå½©ç¥¨å¤©å¤© ä¹Ĳ
ä¾ ł
åıĳ æĮ¥
ĠØ¯Ø±ÙĪ Ø§Ø²ÙĪ
ĠØ§ÙĦØ² Ø§ÙħÙĨ
Ġtund ub
Ø§Ùħ ÛĮ
ĠØ¨Ùĩ Ø§Ø±
Ġå¤©å¤© è´Ńå½©ç¥¨
ĠØ¹ Ø¯Ùħ
ĠØ¯Ø± Ø¬ÙĪ
ĠØªØµÙĪ Ùģ
Ġ $
ĠÙħ ØªÙĪ
Ġå½©ç¥ŀäºīéľ¸ å®ĺæĸ¹
æĺ¯çľŁ æĺ¯åģĩ
Ġ å¾·
çł´è§£ åĻ¨
Ġ ä¸ĩ
ĠØ³ Ø¹Ø¯
ĠÙ½ ÙĨÚĬÙĪ
ĠM is
Ġk am
ĠØ±Ú©Ú¾ Ø¯Ø§
Û ¡
ĠÙĨØ¸Ø±ÙĬ ÙĬ
Ġ è´µ
åģļ å¥½
Ġå½©ç¥ŀäºīéľ¸ å¿«ä¸ī
åľ ĺ
ĠØ§ÛĮØ´ÛĮ Ø§Ø¡
ÙĪ ÙĤ
ĠÙĪ Ø§Ú³
Ø´ Ù¾
Ø§Ù¾ Ø§
ĠØ¬Ùĩ ÙĦ
Ú¾ÛĮ ÙĦ
K as
Ġsis ald
ĠÙĨ Ø§Ø³
ĠÙħØ¯ Ø§Ø®
ĠÚĬÙĬÙĪ Ù½ÙĬ
Ġr ekla
en te
ĠØ¬ÙĪ ÚĻÚ»
Ġte mp
ÙĪÙĨ Ø§
ä¸¾ åĬŀ
å®¶çļĦ è¯±æĥĳ
èĥ İ
% ãĢĤ
7 4
Ġtul nud
ĠÛĮÛģÙĪ Ø¯ÛĮØ§Úº
Ġè°ģ æľī
ut atud
Ġen t
Ġole vat
Ġeks p
ĠØ¨ ÙĬÚª
åī Ĥ
ĠØŃ Ø§Ø¬
ĠtÃµ s
ĠØ³ ØªÙĨ
àµ¼ à´ľ
ä¾ §
åĤ ¨
ĠØŃÙħ ÙĦÙĨ
ĠØ¨ÙĬÙħ Ø§Ø±ÙĬÙĨ
ĠÙħ Ø±Ùħ
Ġel us
ĠvÃµrr eldes
ĠÙ½ Ù¾
Ġkind lust
Ġà´¸ à´ŀ
Ġå¤§åıĳå¿«ä¸ī å¤§å°ıåįķåıĮ
ä¸ľ è¥¿
ĠØ¬ÙĬ Ø¦Ú»
an ia
åĨ³ å®ļ
uma ks
éĩĳ èĬ±
Ġru um
or n
ĠÚ¯ ÙĬÙ½
èī² çļĦ
ĠÚ©ÙĬ Ø³ÙĬ
Ø¹ Ùħ
Ġmuus ik
0 4
ĠØ¬ÙĪ ÙĩØ±
ĠpÃµ r
ĠØ±ÙĨ Ø³ÙĨ
ĠÙħÙĦ Ø§Ú©
Ġkon kre
ĠÚ©ÙĨ ÙĬØ§
ĠØ§Ø³ Ù½Ø±ÙĬ
ĠØª Ø¯
ĠÚ¯ Ø§Ø¯ÙĬ
çĦ ¦
Ġe f
Ġq vod
ĠØ¹ Ø§Ø±
à´¹ à´¸
Ø² ÙĪ
æĿ °
ÙĬØª ÙĪ
Ġå½©ç¥ŀäºīéľ¸ å®ĺæĸ¹ä¸ĭè½½
ĠÙħØº ÙĦÙĨ
å¥³ ä¼ĺ
ĠØ±ÙĪ Ø§ÙĨØ§
ĠØ¯Ø±ÛĮ Ø§Ø¦ÛĴ
Â ¤
in aal
åĺ ´
çĶ ľ
ĠØ¯ ÙĬÙĨÙĬ
åħįè´¹ è§Ĩé¢ĳ
ma id
ĠtÃ¶Ã¶t aja
ĠØ³Ø± Ú©Ø§Ø±ÛĮ
å¯ ¶
ĠÙĨ Ø«Ø±
Ġerald i
ĠNe ed
umise l
Ġarv am
Ġtur val
ĠØ§Ø³ ÙĨÛĴ
ĠØ¬ÙħØ§Ø¹ ØªÙĨ
ĠØ¹ÙĦØ§Ùħ Øª
åĬĽ éĩı
èı ¯
ĠÙĦØ§Ú© ÙĪ
ĠÙĨ Ø§Ø¸
ĠS Ãµ
Ġjuh atuse
Ġposit iiv
ĠÙĤ Ø³
éĻ¸ å®µ
Ġp ika
un st
Ġe eld
éĺ¶ æ®µ
çµ Ħ
æł¹ æľ¬
Ý Ļ
Ø¬ ÙħÙĪ
ĠØ³Ø± ÚĨ
ĠØ¹Ø±Ø¨ ÛĮ
è¾° ä¸ľ
Ġas ju
ĠpÃµh imÃµt
åį¡ éĢļ
ĠQ Q
Ġkoo r
te k
å® īé
ĠM ul
ĠÚ¯ Ø±ÛĮ
ÙĨ Ùħ
ĠØªÙħØ¯ ÙĨ
ĠE t
et Ãµttu
çª Ĺ
åª³ å¦ĩ
Ù ª
è¨ ±
çłĶ åıĳ
i an
ĠT Ã¤n
Ġå¤©å¤©å½©ç¥¨ æĺ¯
ĠØªØ¹ ÙħÛĮØ±
Ø¯ÛĮ Ø¯
ĠtÃµ enÃ¤
æķ ¢
åĳ Ī
ĠÚıÙĬ ÙĩÙĩ
Ø§Ø¦ ÙĬÙĪ
çīĽ çīĽ
àµį ...
é»ĳ äºº
ĠÚªÙħÙ¾ÙĨ ÙĬØ¡
Ã¤r v
ut as
æľĢ å¥½
æ±Ł èĭı
ĠØ¹ Ø±ÙĪØ¬
Ġkod u
ĠØ³ÙĨÚĢ Ø§ÙĦÙĬ
ĠÙĤÙĪÙħ Ù¾Ø±Ø³Øª
ĠÙħÙĨØµÙĪ Ø¨ÙĨ
ĠØ® ÙĦÙĬ
ĠÚ¯Ú¾ ÙĦ
ĠÚªÙĦÙĪÙħÙĬ Ù½Ø±
ĠÙĨØ§ÙħØ²Ø¯ Ú¯ÙĬ
Ġk av
è§Ħ èĮĥ
ĠØ´ÙĪ ÚĢØ§
ĠÙĩ ÙĨØ¯ÙĬ
Ġà´ħà´µ à´ķ
Ú¾ ÙĪØ±
Ġæīĭæľº çīĪ
Ø±ÙĪ Ø§Ø±
Ġ å¼ºå¥¸
â Ħ
ÙĪ Ø±ÙĬØ¡
à´°à´£ à´¤
ĠTe ma
Ġå¤§åıĳ da
çĪ ¾
å°± ä¸ļ
Ġà´ī à´®
ĠÃµnn est
ho i
Ġse etÃµttu
Úª ÙĨÙĩÙĨ
èİ· åıĸ
Ø¬ ÙĨØ¯ÚĻ
at r
ĠØ§ÙĬØ± Ø§ÙĨÙĬ
ĠÚĨ Ø§Ø¯Ø±
Ġte ab
ä¸ĭ éĿ¢
ĠÛĮÙĪÙĨ ÛĮÙĨ
ĠØ¯ÙĪ Ø§
Ġæ ¢
ĠÙħØ¯Ø§Ø® ÙĦØª
ĠØ¨Ø§ÙĤ ÛĮ
Ġå¤©å¤©ä¸Ńå½©ç¥¨ ä¸Ĭ
Ġa pr
ĠØ¹ÙĬØ³ Ø§Ø¦ÙĬ
à´³ à´®
åħ¼ èģĮ
ĠÙħÙ¿ ÙĪ
ĠmÃ¶Ã¶ da
Ġà´ħ à´´
æ¼Ĥ äº®
éĺ´ éģĵ
Ġà´ı à´´
Ġæ Ķ
ĠÙĨÙħ Ø§ÙĬØ§ÙĨ
à´¤ à´°à´®
ĠØ¶ Ø§ÙĬØ¹
oog le
æ¬§ æ´²
Ù» Ø§Ø±
ĠÚĢ Ø§Ú³
à´£ à´ķ
ĠÚ©Ø§ÙĨ Ø¦ÙĨ
åı° åĮĹ
it ele
å½¢ å¼ı
Ġn um
ĠØª Ø§Ø±Ø§
ï¼ İ
ç¯ Ģ
åĬł å·¥
Ġte is
ides se
éĽĨ ä¸Ń
ĠÙ¾Ø± Ø§Ø³
ĠØ³Øª Ø§Ø±
ØªÚ¾ ÛĮ
è¿ĩç¨ĭ ä¸Ń
Ø²ÙĬ Ø¨
ĠØ¯Ø³ ÛĮØ§
æĺ¯çľŁçļĦ åģĩçļĦ
isk as
Ġuu esti
Ġlii ge
Ø±ÛĮ ÙĦ
ä¹Ł æľī
Ġà´Ĩ à´ĺ
ĠØ±ÙĩÙĨ ÙħØ§Ø¦ÙĬ
é¸ Ł
Ġa ugust
èĥĨ æĭĸ
se er
ĠÙĩ Ø§Úª
ĠÙĨ ÙĬÙĪÙĨ
ĠØ±ÙĪÚĬ ÙĨ
ĠtÃ¶Ã¶ tle
äº ¡
uk k
ĠÙĨÙĪØ§Ø¨ Ø´Ø§ÙĩÙĩ
Ġpu ht
Ġ ç¦ı
ĠØ¨ Ø²ÙĨ
Ġ é»Ħèī²
ĠÙĨØ¯ ÙĬØ¡
èĤ¡ ä»½
Ġ ä¸Ĭ
å¤§ éĻĨ
ĠØ¶ ÙĬØ§Ø¡
àµģ :
èŃ ī
å¹´ è½»
ÙĨ Ùģ
ĠØ± ÙĦÙĬ
Ø§Ùĩ ÙĬÙĪÙĨ
è¿Ĳ è¡Į
ĠÙħ ÚĪÚ¾
à´µà´¨ à´ķ
ĠÚĪ Ø§Ú©
. (
ĠØ±ØŃ ÙĬÙħ
Ø§Øª Ú¾
çĩ ĥ
à´¶ à´¦
åł ¡
ĠØ§ÙĨØµ Ø§Ø±ÙĬ
Ġp es
ĠÙĪØ§Ù¾ Ø³ÙĬ
ĠØ¨ÚĨ Ú»
Ġoma val
ç³ ĸ
ĠÙĪÙĬ Ùĩ
ĠÙ¾ÙĨØ¬ Ø§ÙĩÙĩ
vÃµ imal
åĴ¨ è¯¢
Ġkuj un
çļĦ éĹ®é¢ĺ
æľŁ éĹ´
åŁ¹ åħ»
åĪĨ åĪĨå½©
å¸¦ æĿ¥
l og
ĠØ¬ ÙĩÙĪ
Ġko ha
åį« çĶŁ
ĠÚĢØ§ Ú±ÙĬ
Ġäºº äºº
i al
U R
æĪĲäºº ç½ĳ
æĺ¯ ä¸Ģä¸ª
ĠÚ©ÛĮØª ÛĮØ§Úº
ĠÙĤ Ø§Ø¯Ø±ÙĬ
ĠÙĨØªÙĬ Ø¬ÙĨ
Ġkvalite et
ĠØŃÛĮØ§Øª ÛĮ
ĠÛģ ÙħÛĮ
Ġa semel
ĠT Ã¶Ã¶
Ġar hitekt
Ø§Ø± ØªÙĨ
ĠÙħØ® Ø§Ø·Ø¨
ĠÙĦÚ© Ú¾ÙĨ
ĠÙĪ ÙĬØªØ±
ĠØ¹ÙĨ Ø§ÙĬØª
åĪ° åºķ
ĠØ¯Ø§ÙĨ Ø´
æ½ ľ
Ġv en
ÙĪØ²ÙĬØ± Ø§Ø¹Ø¸Ùħ
ĠÃ¼h es
åŃ Ļ
ĠÚ¯ÙĪØ±ÙĨ ÙħÙĬÙĨÙ½
me et
ĠsÃ¼ gav
Ġf r
ĠØ±Ø§Ø¨ Ø·ÙĬ
ĠØ²ÙħØ§ÙĨ ÛĴ
ÙĬ Ø¹ÙĨÙĬ
ĠÙħØµ ÙĨÙĪ
ÙĩÙĬ Ùħ
æĮĩ å¯¼
Ø¦ Øª
ĠÛģÙĪÙĨ Ø¯ÛĮØ§Úº
à´¸ à´¯
ĠØµ ÙĦØŃ
ÛĮØ± ÛĮØ§
ĠÚ© Ø¹
äº§ çĶŁ
å§Ĳ å¦¹
E N
Ġlood us
ÛĮÙĨ Ø§Úº
å¨ ĩ
Ġmuus ika
ÙĦ Ø§Ø·
ot s
Ġpe alt
ĠÚ© Ùĩ
ĠE L
çľ ī
ĠØ¬ÙĬÚª Ø±
Ġeel kÃµige
Ġà´® à´§
Ø§Ø³Ù½ Ø§Ùģ
æĪĲ äºĨ
e h
Ĉ ćć
å¤§ åĪ©
ĠÚªÙĪ ÚĨ
ĠØ±Ø´ ØªÙĪ
à´ľ à´±
ap s
ĠÃľ ks
Ġom and
ĠN Ã¼Ã¼d
ĠÙĨÙĪ ØŃ
Ø§Ø¤ÙĨ Ù¹
Ù¾ ÙĨÙĩÙĨØ¬ÙĬ
ĠÙħ Ø¬ÙĬØ¯
Ġà´® à´ķà´¨
) ;
ĠØ´Ú© Ø³Øª
Ġæ į
ĠÙĪÙĬ Ø§Ø³ÙĬÙĨ
ĠÙĨÚª ØªÙĦ
ĠÙħØ³ÛĮØŃ ÛĮ
è¿ Ł
å¾ Ħ
Ġlei ab
Ø¯ Ø§Úº
ĠÛĮ ÙĤ
à´ª à´²
ĠK asut
Ġku mm
ĠØ³Ú¯ÙĩÙĬ Ø³
at ri
âĢ ı
ĠæĢ§ çĪ±
èĤ ¤
Ùħ Ø²
Ġà´ª à´¶
é ĳ
Ġa pp
l ise
å°ı å§¨
Ġtaot le
éĥ İ
è¿ĺ èĥ½
ç©º å§Ĳ
ØŃ ÙĬØ¯Ø±
ĠØ³Ùħ ÙĬ
Ã¤l ja
Ġ äºĳ
ĠÙħØŃÙĤ ÙĤ
ĠÙħ ØªÙĨ
ĠÙĤØ¯ ÙħÙĨ
ĠL inn
ĠtÃ¼ druk
Ø§ÙĨ ÙĬØ¡
Ġval ida
ÙĪ Ú»
ĠØ³ ØªÙĦ
Ù¾ ÙĪÙĦ
l uses
èĭ± è¯Ń
æľº ä¼ļ
ĠØ· Ø±Ø²
mise ga
åľ¨çº¿ è®¡åĪĴ
ÙĬÙĨ Ùĩ
çİ© å½©ç¥ŀäºīéľ¸
min isteeri
p id
çĲĨ å¿µ
ĠÙħØª ÙģÙĤ
Ġ ÛĮØ§Úº
ĠÚıÙĪ ÙĩØ§Ø±ÙĬ
ĠØ®Ø· Ø±ÙĬ
ĠØ¨Ø§Ø¦ Ø¨ÙĦ
ÙĪ Ø§Ø¨
ĠØŃ Ø§ÙħÙĬ
Ġf unkt
æ» ¿
Ġ ï¼Į
ĠÙĨÙĪ Ø¨ÙĦ
ĠÙĪ Ø³ÙĨ
ä¸į å¥½
ĠØ®ÙĪØ§Ø¨ ÙĨ
ĠØ¨ ÙĬÙĦ
Ġte ed
ĠÙħÛĮ Ø±ÛĮ
ĠØ§Ø· ÙħÙĬÙĨ
æĪ ´
Ø§ ÛĮØª
ĠS oome
ĠØ§Ø« Ø§Ø«
ĠÚĩÚı ÙĬÙĨØ¯ÙĬ
ĠØ¨ÙĪ Úª
ĠØ¨ Ø§Ûģ
Ø¦ÙĬ Ø¡
Ġerine vad
ĠÃ¼le va
ç©¿ è¶Ĭ
èī³ çħ§
ĠØ¢ Ø±ÙĬ
ª Ĺ
ĠÚª Ø§Ù¾
ĠÙĤ Ø§Ø¹
ĠØ§Ø¨Øª ÚĻ
Úª ÙĪØ±
æı ´
ç´ ħ
aal set
ĠØ¨Ø¯ÙĦ Ø¬ÙĬ
ĠÙħØŃØªØ±Ùħ Ùĩ
Ġå¤©å¤©ä¸Ńå½©ç¥¨æľī äºº
gu le
çļĦ è¯Ŀ
Ġåħ¨æ°ĳå½©ç¥¨å¤©å¤© éĢģ
ÙĦ Ùī
Ĥ Ģè¯·çłģ
çļĦ åıĳå±ķ
éĺ »
ĠØ§ÙĬ Ø¬Ø§Ø¯
ä¿¡ çĶ¨
ÙħÙĨ Ù¹
ĠØ§Ú³ÙĪ Ø§Ù½
è´Łè´£ äºº
Ø§Ùĩ ÚĻÙĬ
Ġ: )
æĿ¥ è¶Ĭ
çº ·
Ø¯ Ú¾ÛĮ
ĠÙ¾ÙĨØ¬ ÙĬÙĨ
é© Ĺ
ĠÙĩÙĬ ÚıØ§ÙĨÙĩÙĨ
Û±Û °
ç§ Ĵ
Ġà´ Ķ
ĠpÃ¤r it
éĽ £
åħ¨ å¹´
çļĦ éĴ±
æĿĢ åı·
ĠÙ¾Ø± Ø¯
ĠØ´Ø§ Ú¯Ø±Ø¯ÙĬ
åľ°äº§ å®ĺç½ĳ
Ġm an
è½® å¥¸
ĠØ¯Ø±ÙĪ Ø§Ø²
Ø´ Ø§Ø±
è« ĭ
ĠØ¨ ÙĪØ±
Ġpakk uda
Ú ĺ
è· Į
ĠÙħÙĤ Ø¯Ø§Ø±
Ġval m
ĠÚĢØ± Ú»
è¶Ĭ æĿ¥è¶Ĭ
éº» å°Ĩ
Ġa set
ÙĬÚª ÙĬ
ĠmÃµ Ãµt
å§Ķåĳĺ ä¼ļ
Ù¾ Ø§Ø³
ĠØ§ÙĪ Ø³ÙĬ
åī ĩ
æ¶ ©
ĠÚ¯ÙĩÚ» ÙĬÙĪÙĨ
ĠØ§Ù¿ Ø§Ø±
ĠÚıØ³ Ø¬ÙĬ
ĠÚ¯ÙĪ ÙĦÙĬ
ĠØ±ÙĪ Ø¦Ú»
æº ¶
Ġm ed
ĠÚ©Ø§ÙĦ Ø¬
ĠØ³ Ø§Ø±ÙĪ
k Ã¤
Ġæ ģ
ä¸Ńå¿ĥ å®ĺç½ĳ
äººå·¥ è®¡åĪĴ
ÙĨ Ø¬
èī ¾
ĠØ±ÙĪ Ø¦ÙĬ
ĠÚĬ Ù¾Ø§Ø±Ù½
à´Ń à´µà´¤
ĠØ³ ØŃØ±
et s
ĠØ®ÙĪØ´ ØŃØ§ÙĦÙĬ
ĠÙĪØ§Ø¹ Ø¯ÙĪ
Ġk evad
ĠØ³ÙĬ ÚĻÙ¾
I P
ĠØ³Ø§Ø¦ÙĬÙĨ Ø¡
b ri
Ø±Ø§ÙĨ ÙĬ
Ġel an
éĻį ä½İ
Ġol in
ĠØ³Ø§Ø¦ÙĨ Ø³ÙĬ
Ġmiljon it
ĠÚ© Ø¯ÛĴ
ä¿Ŀ éĻ©
åĪĹ ä¸ī
è½ ¨
æīĭæľº å®¢æĪ·ç«¯
å¼Ģ çļĦ
è® Ģ
ĠÚĨÙĪÙĨÚĬ ÙĬÙĪ
æ¢ ģ
Ġå½©ç¥ŀäºīéľ¸ åħħåĢ¼
ĠB r
ot o
uroo p
ĠØ¹Ø¨Ø¯Ø§ÙĦ ØŃ
om eet
ĠÙĤ Ø§Ø¦ÙĦ
åĲĪ çĲĨ
m ar
ï· ¦
åĬĽ çļĦ
up er
es sion
Ġle mm
æ² ¿
el ise
ĠÙĤØ§Ø¨ ÙĪ
ĠÙĨ Ø§Ø¨
Ġr eeg
ĠØŃÚ©Ùħ Ø±Ø§ÙĨ
çĽĳ ç®¡
Ú¯ ÙĩÙĪ
ĠØ±Úª ÙĨÙĬ
ĠÙħØŃ Ø§Ø°
ĠØ§ØŃØ³Ø§Ø³ ÙĨ
æ¥ µ
æ»¡ è¶³
ĠÙ¾Ø§Ø±ÙĦÙĬØ§Ùħ Ø§ÙĨÙĬ
ĠÙĤÙĬ Ø¯ÙĬ
ud est
ĠÙ½ ØªÙĪ
ĠjÃµud nud
Ġpe h
Ġper ekon
ĠØ§Úį Ø§Ø¦ÙĬ
ĠØ¨ÙĨ Ø§Ø¦ÛĮ
ĠØ³Ú¯ÙĩÙĨ Ø¯ÙĬ
Ø§Ø¯ ÙĬØ¡
æĢ» ä»£çĲĨ
à´³ à´ľ
ĠÙĨÙĪÚªØ±ÙĬ Ø¡
ï¼ī ãĢģ
ĠÙĨ Ø§Ø¦Ø¨
ĠÙ¾Ø¦ Ø³ÙĨ
æĵ ļ
é¤ ¨
l used
ĠåĽŀ å®¶çļĦè¯±æĥĳ
E T
Ġh Ãµl
à´¿ ;
Ġper e
ï¼ī ãĢĤ
ĠÙĨØ¸Ø±ÙĬ Ø§ØªÙĬ
ĠØ¹Ø¨Ø¯Ø§ÙĦ ÙĦØ·ÙĬÙģ
ĠÙĦØ§ÙĦ ÚĨ
ĠØ§ÛĮ ÙĦ
ĠØ´ Ø±ÛĮÙģ
Ġ ç¦ıå½©
Ġå¤©å¤©çĪ±å½©ç¥¨ ä¸Ńå¥ĸ
ĠØ³Ú¯Ùĩ Ø¬ÙĨ
ĠÚªÙ¾ ÚĻÙĨ
ĠØ§Ø³ Ù¾ÙĬ
éķ¿ æľŁ
Ġpe aa
ĠÚĦØ§Ú» ÙĪ
ĠØ³ÙħØ¬Ú¾ Ú»
Ġé«ĺ é¢ĳ
åĬł å¿«
ä½į ç½®
æĬ ±
éĿ¢ ç§¯
ĠØªÙĤ Ø§Ø¶
ed es
ĠÙĨÙģ Ø³ÙĬ
àµį ?
ĠØ³ ØªÙħ
ĠØ¬ Ú¾ÙĪ
ĠØ¬Ø¨ ÙĦÙĨ
ĠÙĪ Ú¯
Ġå½©ç¥ŀäºīéľ¸ è¾ĵéĴ±
ĠSee ga
Ø§Ø¦ÙĬ ÚĬ
èĬ Ŀ
ĠÙĦ ÙħØŃ
åĬł çĽŁ
ç§ĳ çłĶ
at as
ĠÙ¾ÙĨÙĩÙĨ Ø¬
ĠÙĤ Ø¨ÙĦ
r ist
ĠÙģÙĬ Ø±ÙĪØ²
ä¹Ĳ éĢı
ol m
ĠÚ©Ø§ Ù»ÙĬ
Ġå¤©å¤© ä¼Ĺ
ĠØ®Ø§ÙĦ ÙĤ
Ġu ute
ĠÚĢØ± Ø¬ÙĬ
ĠØ³ Ù¹ÛĮ
ĠØ±ÙĨ Ø¬
ĠTe ie
Øª ÙĪÚº
ĠØ´Ø± Ø¬ÙĬÙĦ
Ġme en
Ø± Ø§Ø¦Ú»
éŁĵ åľĭ
ĠØªÙĪØ§ÙĨ Ø§Ø¦ÙĬ
7 3
ĠØ¬ ÙĨØ¯
ĠÙħÚ©ÙĬ Ùĩ
. âĢĺ
ĠØ³ÙĬ Ø§ÙĦ
Ġsob iv
ĠÙ½ÙĨ ÙĩÙĬ
Ġm m
Ġsell ise
Ø±Ø§ÙĨØ¯ Ø§Ø²
Ġà´ĩ à´±à´Ļ
ä½ĵèĤ² å½©ç¥¨å¤©å¤©
Ġj ulg
à´Ńà´µ à´Ļ
ĠØ´ Ø¦ÙĬ
am ad
ĠÙģØ± Ø´
ĠÙħØ³ ÛĮØª
199 8
ĠØ³ Ø¬Ø§
à´Ł àµ»
ĠM art
Ġlap s
Ú© ÛĮØ§
Ú¯ Ø§Ø±ÙĬ
199 3
ĠÚª ÙĦÙĬ
ĠØ§Ú¾ ÚĻÙĪ
Ġå¤©å¤©ä¸Ńå½©ç¥¨ nba
æĢ» éĥ¨
ĠI g
Ġpar t
Ùĩ ÚĻ
ĠØŃØ± ÚªØª
ĠÙħØªØ¹ Ø§Ø±Ùģ
ĠØ§ÙĦ ØŃØ§ÙĦ
à´µ àµ»
Ġà´¨ à´¯
ĠØ§Ø·ÙħÙĬÙĨ Ø§ÙĨ
Ġlast ea
ĺ ħ
ĠØ§Ø¯ Ø§Ø³
ĠÙĨØµ ÙĬØ±
æĺİ æĺ¾
ĠÚ¯ Ú¾ÙĨ
å® ı
çļĦ æĸ¹æ³ķ
Ġt av
å¯ «
ĠÙħ ÙĪØ±Øª
åĢ º
Ġtag as
ĠØ§ÙĨ Ø¬Ú»
Ġlug eda
è¥ ª
è´Ń å½©
ap k
å¹¶ ä¸į
å¤ĦçĲĨ ä¸Ń
ĠØ²ÙħØ§ÙĨ ÙĪ
ĠØªØ¬Ø± Ø¨ÙĬ
ĠmÃµ j
ĠÙ¾ÙĩØ±ÙĬ Ø§Ø¦ÙĬÙĨ
Ãµ pp
æīĭ æ·«
ĠØ®Ø§ØµØ®ÙĬ ÙĦÙĬ
æķĻ ç¨ĭ
al ise
ĠØ¬ Ù¾
é»Ħ çīĩ
ĠÚıÚ© ÙĨ
ĠØ·Ø±ÛĮÙĤ ÛĴ
ĠÙĤÙĪ ØªÙĨ
æĬķæ³¨ æĬĢå·§
à´¸ à´µ
Ġ åĪĺ
Ġval l
ĠÙĩ Øª
ĠÙħ Ø´ÙĨ
Ġ æĿİ
ĠÙĦ Ùº
ĠÙ¾Úĳ Ú¾ÙĨ
ĠÙĪØ³ Ø±ÙĬ
8 4
ĠÙħÙĪØ³ÙĬ ÙĤÙĬ
Ú¯ Ú¾Ø±
åĳĬ è¯ī
Ġå¤§åıĳ æīĳåħĭ
æĸ½ å·¥
à´Ľ à´¨
ĠØ§ÙĨÚ¯Ø±ÙĬØ² ÙĬØ¡
èĴ Ĥ
Ø³ ÙħÙĬ
ĠÙħ Ø§Ø±ÙĨ
ĠÙħÛģ ÛĮÙĨ
ĠÙĩÙ½ Ø§Ø¦Ú»
Ġko mb
Ġ ing
ĠÙħØ§ÙĨ Ø³
Ġ éĩįåºĨ
ĠÙħØ°Ùĩ Ø¨ÙĨ
åĪĽ éĢł
Ġtun ne
ĠÛģÙĪ Ø§
å®Į æľ¬
Ø®ØªÙĪÙĨØ®ÙĪ Ø§ÙĩÙĩ
Ø§ Ú¾ÙĬ
ĠØ´ÙĪ ÚªØª
Ã¤ nn
Ġæ ´
æĭ ľ
ĠÙħØ¹ ÙĬ
ĠÙĪØ¬ ÙĩÚ»
æı ı
ĠÙĦØ§Ø¦ Ø¨Ø±ÙĬ
éĩį å¤§
ĠÙħØº Ø±Ø¨ÙĬ
Ġel am
et ega
ĠÃ¼le t
ĠÙĦÚ³ ÙĨØ¯ÙĬ
ĠÙħÙĨ Ø¬Ùĩ
ĠØ¯ÛĮ ØªÛĮ
Ø§Ø± ÚĪ
å¤ļå°ĳ æľŁ
ĠÙģ Ø±ÙĬÙĨ
ĠÛĮ Ú©
æľ ±
ĠØ¢ ÙĦÛĮ
Ġpal j
k aar
éĻ ½
Â µ
ĠØ§Ùģ Ø¶ÙĦ
ĠØªÙĪ Ú¾Ø§ÙĨ
ĠØ³ÙĨ Øª
C O
ĠÙĦ Ø§Øª
ØªÙĬ Ø§Ø±ÙĨ
ĠØ§Ø® ØªÙĬØ§Ø±ÙĨ
Ġkolm and
ĠÙģ ÙĩÙħ
Ġise loom
ĠÙħÙĬ Ù½Ø±
Ø³ Ø§Ø¦ÙĬ
ĠÙħÙĪ ÚĻ
oo si
Ġvee br
ĠÙģÙĪØ¬ ÙĬÙĨ
ĠT er
äºĨä¸Ģ çŃīå¥ĸ
ÙĨ Ø§Úª
Ã¤Ã¤ st
ĠØ¬Ú¾ ÚĻÙĬ
è¿Ļæł· çļĦ
ĠÙĨÚª ØªÙĬ
Ġtul la
ĠlÃ¤ inud
ind lust
èµĦ äº§
ĠK ur
æµ ¦
Ġà´ħ à´¡
ĠØ·Ø±ÙĬ ÙĤÙĨ
Ġsuur im
çĶŁ åĳ½
embr il
ĠÚ©ØªØ§Ø¨ Ø§Úº
ĠØ§Ø³Ù¾ØªØ§ÙĦ ÙĨ
ĠrÃ¤Ã¤k is
ç½ ļ
é¦ĸ åħĪ
ÙĨ ÚĮ
ĠÙĩÙĬÙº ÙĬÙĨ
ĠØ³Ùħ ÙĨØ¯Ø±ÛĮ
å½©ç¥¨ åĲĹ
ĠØ²ÙħÙĬÙĨØ¯ Ø§Ø±
ĠØ¨ ÛĮÙĨ
ĠÙħØ³Ø§Ùģ Ø±ÙĨ
ä¸įäºĨ æĢİä¹ĪåĬŀ
Ġette panek
ĠÙ¾ ÙĬÙħ
ĠÙģØ± Ø²ÙĨØ¯
ĠÙĩÙĬ Ø¦ÙĨ
ĠÙ¾Ú© ÚĻÙĬÙĦ
éĻ µ
é» ĺ
ĠØ¹ ÙĬØ³ÙĬ
ĠÙ¾Ø± Ø³
ic e
ĠÙħÙĨ ÙĪØ±
ĠØº Ø§Ø¦Ø¨
Ġtah t
Ġraam es
Ġå¤§åıĳå¿«ä¸īæĢİä¹Ī çľĭ
ĠØ±Ø§Ø´ Ø¯
Ø§ÙĨÙĬ Ùĩ
o y
Ġisiku and
Ġ Å
èĩª èº«
ĠØŃØ§Ø¶ Ø±ÙĬ
ÙĪ ÚıÙĬ
Úį Ø§
Ø´ Ø§ÙĨÙĬ
Ġà´Ĩ à´§
ĠR ahv
ĠÚªÙĪ Ø§Ø±Ù½Ø±
Ùħ Ø§Ú»
ĠØ¨Ú» Ø¬Ú»
ĠØ§Ø¨ØªØ¯ Ø§Ø¦ÙĬ
æ¬¢ è¿İ
æīĭæľºçīĪ ä¸ĭè½½
æĲ ¬
ĠÙħÚĻ ÙĨÙĬ
Ġå¤©å¤© ä¸Ń
A D
aat or
à´¬ à´¤
çģ °
ĠØ¯Ø³Øª ÙĪØ±
ĠÙħÙĨØµÙĪ Ø¨ÙĪ
ĠØ³Ø±Ùģ Ø±Ø§Ø²
an gu
Ġmu use
q u
ĠÚı Ø§Ùĩ
ĠâĢ Ķ
åĪº æ¿Ģ
Ġd etsem
à ¥
ig ht
Ġkoh ale
nev ad
9 3
Ø´ ÙħÙĬÙĨÙ½
ĠÙħØ¹Ø§Ùħ ÙĦØ§
ĠØª Ø§Ø²ÙĬ
æĸĩ æĺİ
ç¾ ħ
Ġmille s
Ġvab a
ast ele
åĿ ¦
åı¯ æĺ¯
à´Ĺ à´µ
ĠÙħÙĩØ± Ø¨Ø§ÙĨ
er at
åıĳå±ķ çļĦ
ĠØ§Ú» ÚĦ
ĠÙĪ ÙĬØ±Ø§ÙĨ
å¹´ åº¦
ĠÙ¹ÛĮÚ© Ø³
ot t
ĠÙĬØ§Ø¯ Ú¯ÙĬ
è¯Ħ ä»·
éĹ ²
ĠÚĨÚ± ÙĬØ¡
Ġpil t
ĠÙ¾Ø§ÚªØ³ØªØ§ÙĨ ÙĬÙĨ
ä¿ ±ä¹Ĳ
ĠÚı Ø§Øª
ĠÚĢ ÙĬÙĨ
ĠÙĦÛĮ Ú¯
ĠÙĨ Ø§Ø¯
à´µ à´Ł
ĠÙĪØ§ÙĨ Ú¯ÙĬ
Ġli h
Ġras k
ĠØ¬ ØªÙĨ
ĠØ¯Ø± Ú¯Ø§ÙĩÙĩ
à´Ł àµ¼à´¨
å®ŀ éªĮ
ĠÚªØ±ÙĪ ÚĻÙĬÙĨ
Ø§ÙĦ Ûģ
Ġ ä¹°
ĠÙħÙĨÚ¾ÙĨ Ø¬ÙĪ
ĠØ¯Ùģ Ø§Ø¹
ĠÚªÙĪØ¦ÙĬ Ù½Ø§
Ġtoo b
ĠØ±ÙĩÙĬ ÙĦ
ĠØ¨Ú» ÙĬÙĪ
Ġc a
ç¬¬ åĽĽ
Ġæīĭæľº ä¸ĬçļĦ
Ġtunn ist
in o
ĠÚ¯ÙĩØ± Ø§ÙĬÙĪ
Ø§ÚĻ ÙĬÙĪÙĨ
ĠÙħØ¬ Ø¨ÙĪ
Ġma al
åĩ Ŀ
ĠÚĨ Ø¦ÙĪ
å¥³ åŃĲ
Ġà´ī à´¯
è®¸ å¤ļ
å¤ ł
ä¸į çŁ¥éģĵ
ĠÙħØ¸ ÙĩØ±
Ġte il
ä¹ ĥ
å½ĵ æĹ¶
Ġte atud
Ġlood ud
ĠkÃ¼l m
ĠÙĪ Ûģ
åĩĨ å¤ĩ
ĠØ¬ Ú¾ÙĨ
å² Ĺ
ĠØ§ÛĮ Ø¯ÛĮ
ĠØ§ ÙĬÙĪÙĨ
ĠÙħ Ø§Ùħ
å½ĵ åľ°
ä¼ĺ ç§Ģ
ĠØ§ÙģØª ØªØ§ØŃ
ĠÙĪ ÙĬÙĨ
ä¿±ä¹Ĳ éĥ¨
èĤ Į
ç¼ ĵ
æıŃ ç§ĺ
ĠÙĨØ´Ø§ÙĨØ¯ ÙĩÙĬ
èµ ŀ
ĠÙĨ Ø¬ÙĬ
ä¸ª æľĪ
ajate le
ĠT ule
ĠÚĩ Ø§ÙĨÙĪ
àµ» à´ª
åħ¬ åħ±
ç¡® ä¿Ŀ
ĠØ³Ú© ÙĨ
è¿ ¹
Ġ çľĭ
å® ĭ
ĠØ§ÙĪ Ø¬
ĠÙ¾Ú¾ ÚĨ
tt a
Ġar st
æĥ³ è¦ģ
ĠÚĬØ³Ù½Ø± ÚªÙ½
ĠØ±Ø³ Ø§ÙĦÙĪ
Ø§ÙĦ Úª
ĠÚĨÙĪ Ø§ÙĨ
Ġtell im
2 50
ĠvÃ¤ik sem
à´² à´¸
ĠØ¢ÙħØ¯ ÙĨÙĬ
ĠÙħÙĨ Ø·
è¿ŀ æİ¥
æ¯Ķ ä¾ĭ
æľĢ å¤§çļĦ
ĠÙħÙĪÚªÙĦ Ú»
ĠÃ¼ l
æīĵ å¼Ģ
Ø· Ùĩ
ĠØŃ ÙĦÙģ
ĠÙĨØ¸ Ø±ÙĨ
Ġà´¸ à´Ń
ĠÙ¾ÙĪ Ø¦ÙĬÙĨ
åħ¬ åĽŃ
Ġesim est
ĠÙĪØ§Ø¦ÙĬ Ø³
éĴĪ å¯¹
ĠÙĤØ±Ø¨ Ø§ÙĨÙĬ
åİ» å¹´
ĠÚªÙĬÙĨ ÙĬØ§
ĠØ³ÙĬ Ø´ÙĨ
ĠÙħØ¹ Ø±ÙģØª
Ø® Ø·
æ² ī
Ġà´ī à´ļ
Ø³ÙĨ Ø³
ĠØ¯ Ø®ÙĦ
ĠÙ¾ÙĬ Ø¦
à´¿ âĢĭâĢĭâĢĭ
æĺ ¨
Ġh ulgas
ĠM Ãµ
æĻ ¨
et av
é» İ
åĬł æĭ¿
æĥħ äºº
p laneer
ĠØ¨ Ø¹
Ġku idagi
. -
Ġt oon
ĠØ¨ÙĨÙĬØ§Ø¯ ÙĨ
20 19
ap Ã¤r
ĠØµØ¯Ø§Ø± ØªÙĬ
ĠÚ¯ÙĪ ÚĻ
ĠÙħÙĦ ÙĨØ¯ÚĻ
ĠÙĪÚĮ ÙĨØ¯ÙĪ
ĠØªÛĮ Ø¬ÛĮ
éĤ »
å¥ Ķ
Ø§ÙĨ Øµ
Ġkeele s
ĠÚĨÙĩ Ø±ÙĪ
à´° àµ»
b et
Ġå¤§ è¿ŀ
ÛĶÛĶ ÛĶ
r y
ĠÙĨÙĪ ÚªØ±
åĲ¸ å¼ķ
ĠÚ¯ÙĩØ± Ø§ÙĨ
ĠØ¨ ÚĳØ§
å¨±ä¹Ĳ å¼ĢæĪ·
å®ŀ è·µ
ĠÙħ Ùħ
çľŁå®ŀ åĲĹ
ç¬¦ åĲĪ
ht i
æŁ ı
è³ ½
ĠÚ© ÛĮØ§
ĠØ³Ùħ Ø§Ø¡
ĠÚĩ Ø§Ù¾ÙĪ
ĠØ²Ø® ÙħÙĬÙĨ
use lt
æŃ» äºº
ä¸įåĲĮ çļĦ
Ġå¤§åıĳå¿«ä¸ī æĺ¯ä»Ģä¹Ī
ĠØ¨ÙĦ ÚĬÙĨÚ¯
ĠM aa
ĠØ¹Ø² Ùħ
ĠÙĩ ÙĬÚª
ĠÚĦ Ùħ
ĠsÃµ pr
Ø§Ø± ÚªØ³
ĠÙħØŃ Ø¶
i x
ĠÙ¾Ø± Ø³ØªÙĬ
è¡£ æľį
ĠØ®Ø§ÙĦ Øµ
ĠÃ¼he ks
ĠÚĩ ÙĩÙĨ
çĸ¾ çĹħ
åĬ¨ åĬĽ
ä¸ĭè½½å®īè£ħåĪ° æīĭæľº
ĠØ³ÙĬ Ø§ØŃ
r es
æĪĳ åĴĮ
p u
æĿ ı
19 80
Ø§Ø¯ Ùħ
Ġto h
éķ¿ é¾Ļ
199 1
Ġà´ĩ à´Łà´¯
Ġp s
Ø· ÙĨÙĬ
ĠÙ½ÙĬÙħ ÙĨ
Ø§ÙĨØ¯ Ú¾ÛĮ
ÙĦÙĬÙģ ÙĪÙĨ
ĠØ¨ÙĨØ¯ÙĪ ÙĤ
il li
Ġtund i
æķ´ ä¸ª
ĠØ±ÙĬ Ø§Ø¶
Ġà´¸ à´Ńà´¯
ĠÙĩ Ø±ÙĪ
å¹¿ ä¸ľ
ĠØ§ÙĨØª Ùĩ
Ġm akse
æķ ¬
èħ Ĳ
ĠØ¢Øº Ø§Ø²
bo x
à´£ à´Ļ
ĠÙĩ Ø±ÙĬ
ĠØ³ ÚıÙĬ
Ġtaval iselt
çĬ¶ æĢģ
æīĭç»Ń è´¹
Ġæŀ Ĺ
ĠØ¯ÙĬÙĪ ØªØ§
ĠÙĪ ÚªÙĬ
Ġå¤©å¤©ä¸Ńå½©ç¥¨ ç²¤
åľ° æļĸ
ÙĦØ§Ø· ÙĪÙĨ
br il
Ġs h
ĠÙĩØ§Ø³ Ù½ÙĦ
Ġsag eli
ĠÚıÙĩ Ø§ÚªÙĬ
éĿĴ å¹´
ĠØ¬ÙĬ Ø¡
å¼Ģ å¿ĥ
apÃ¤ev a
ĠÙĨÙĪ Ø§Úº
ÚĨ Ûģ
ĠÚĨÙĨÚ¯ Ø§
ĠØ´Ùħ Ø³
Ġvast uvÃµt
Ù¹ Ø±ÙĪ
ĠÙħØ¬ ÙĦØ³
Ù¾ Ø±ÙĪ
ĠØª Ø³ÙĦ
Ġà´¸à´® à´¯à´¤
å¤§å¥ĸ åĲĹ
ene b
ĠÚª ØªØ¨
Ġaast ate
åĲİ çļĦ
åĮ» çĶŁ
Ġt ih
ĠÙģ Ø±ÙĨ
ĠØ±Ú© ÙĪ
Ø¦ÙĨ ÚĬ
ĠÙħØ´Øª Ø§ÙĤ
ÚĢ ÙĪ
ĠÙĪØ±ÙĩØ§ Ú±ÙĬ
Ġm ot
ĠØ±ÙĬÙħ Ø§Ø±ÚªØ³
ÙĬ Ø§Ø¦ÙĬÙĨ
ĠØ³Ú© ÙĬØ§
ĠnÃµ us
Ġm o
Ġhul ka
ÙĦÙĪ Ø¨
åºĬ ä¸Ĭ
ĠØ®Ø§Ø± Ø¬
ĠÙħØºØ±Ø¨ ÛĮ
ĠØ³Ø±ÙĬÙĦÙĨ ÚªØ§
le d
æŁ´ æ²¹
Ġand is
ima a
Ġå¤©å¤©ä¸Ńå½©ç¥¨ è¿Ļä¸ª
ĠØ¨Øº ÛĮØ±
ĠØ´Ø¹ Ø¨ÙĨ
æĻĤ éĸĵ
ĠØ¨ÙĬÙĪ ÙĤÙĪ
ĠÙĦØ§ÚĻÚª Ø§Ú»ÙĪ
ĠÚ¯ ÙĨØ§
ĠØ· Ø§ÙĩØ±
éŃ Ĥ
en sion
å¤©å¤©å½©ç¥¨ æĺ¯çľŁçļĦåĲĹ
ĠØŃÚªÙħØ±Ø§ÙĨ ÙĬ
Ġtoim unud
ÙĤØ± Ø¢ÙĨ
ĠØµØ¯ÙĬ ÙĤÙĬ
æ³ ¥
Ġà´ªà´² à´°
s is
ĠÚĨÚª ÙĬÙĪÙĨ
ĠÙģÙĬÙĦ ÚĬ
ĠåįĹ äº¬
g o
ĠÙ» Úı
ab i
æŃ ²
à´§ à´µ
Ġjal g
ĠØ¯ Ø§Ø³
à´ľ à´°
ĠØ¨Ø¯ÙĦ Ø§Ø¦ÙĬ
Ø¬ÙĬ ÚªÙĬ
ĠØ§Ø¬ Ø§ÙĬÙĪ
ÚĻ ÙĬØ§
å¦ Ļ
ĠØ¬Ø§ ÙĬÙĨ
Ø³ÙĨ Ø§
ĠØ±Ø§Ø¦ Ø¬
è» į
pla y
éĢ £
Ġr Ãµh
ĠÚ¯ ÚĳÚ¾
ĠÛģÙĪÚ¯ ÛĮØ§
r t
Ġr ingi
eer ida
ĠÙĪØ§ÙĨÚ¯ ÙĪÚº
ĠØ± ÚĨ
ĠÚ¾ ÙĬØ³
Ġå¤©å¤©å½©ç¥¨ ä¸İä½łåĲĮè¡Į
ķ è¥¿
ĠÛģ ÙĪÙĦÛĮ
ĠØµØ¯ÙĬ ÙĤ
Ġpeaa egu
o ja
ĠÚĨÙĨÚ¯ ÛĮ
ĠØ³Ø±ÙħØ§Ø¦ÙĬ Ø¯Ø§Ø±
I A
Ġsuur ema
ĠØ³Ø± ØŃ
and ard
ĠPÃ¤r nu
Ú¾ ÙĦ
æĶ¹ åıĺ
è¿ «
Ġ ä»Ģä¹Ī
ĠÚĦØ§Ùħ Ø´
ĠÙħØ¬ Ø³Ùħ
ĠØ¢Ù¾ Ú¯Ùĩ
ĠØ¨Ø§ Ø§Ø«Ø±
Ġhak ata
è¾ħåĬ© è½¯ä»¶
ĠØ±ÙĬØ§Ø³ ØªÙĨ
ut av
ĠsÃ¼ g
8 6
ĠÙĨ Ø§Ùģ
ĠÚ©Ø§ ÚĮ
ĠÙĨ ÙĬØª
ĠÚ©ÛĮ ÙĪÙĨ
ĠØ¯Ø±Ø¨ Ø§Ø±
ĠØ§ Ù½Úª
æĪĲ éĥ½
ĠkÃµ ike
ĠÙĦÚ³ ÙĨ
à´¸ à´°à´¤
Ġå¤©å¤©ä¸Ńå½©ç¥¨ å¼Ģå¥ĸ
åĴĮ å½©
v ed
Ġ id
ĠØ¯ÛĮ ÛģØ§
Ġr ist
ĠÚªÙħÙĬÙĪÙĨ Ø³Ù½
åľ¨åĵª ä¸ª
Ġpe amise
çĤ İ
Ġs id
ĠØ³Ø§ÛģÙħÙĨ ÛĴ
Ø¨ÙĦ Ø´ÙħÙĬÙĨÙ½
ĠVab ariigi
ĠÙ¾Ø§ ÛĮØ§
ć ãĢĤ
å¿ĥ ç»ı
f t
Ø² Ø®
Ġsis aldab
Ù½ ÙĦÙĨ
ĠÙħÙĩÙĬÙĨ ÙĪ
Ġsa in
åª ½
Ġ ge
æŁ Ķ
å¼ķ èµ·
å¢ŀ å¼º
Ġsoo j
ç» ķ
æ· »
Ú¯ Øª
ĠØªÙĪ Ú©Ø§ÙĨ
ĠÙ»Ø§Ø± ÚĻØ§
Ġl oot
Ġpe en
ä½ł ä»¬
çł´è§£ çīĪ
åĲ Ĭ
k ul
àµĭ âĢĭ
1 18
on s
ØŃ Ø§ÙĨ
åĩı å°ĳ
ĠÙħ Ø¤
ĠÙħÙĩ Ø§Ø¬
Ġà´ļ à´¨
åħįè´¹ ä¸ĭè½½
å½©ç½ĳ å¤§åıĳå¿«ä¸ī
âĢ¦ ..
ĠÙ¾Ø±ÙĬ Ø´Ø§ÙĨÙĬ
éº Ĺ
ĠØ¢Ú¾ ÙĬÙĪÙĨ
ĠÚª Ø¹
ĠÙĪ Ø§Ø³ÙĬ
Ġs iit
ĠØµÙģØŃ ÙĨ
ĠØ¨ Ø±Ø§ÙĨ
ÚĪ ÙĪ
ĠØ³ÙĪÚį ÙĦ
Ġ com
ĠÚĢ ÙĪØª
ĠÙħØ´Øº ÙĪÙĦ
e es
ĠØ§Ùħ ÙĬ
ĠÚªÙĬ ÚıØ§ÙĨÙĩÙĨ
ç§į å½©ç¥¨
åĬł åħ¥
Ġsoov i
ĠÙĪ ÙĬÙĨØ¯Ø³
ĠØªØ¬ Ø²
Ġ ä¸į
çĭ Ĳ
çĽĳ çĿ£
Ú© Ø±ÛĮ
ĠÙĦ Ùĩ
çĽ¸ ä¿¡
à´¤ à´°à´¤
å¤ļ çļĦ
ĠØ¹ÙħÙĦ Ø¯Ø§Ø±
çĤ¸ éĩĳèĬ±
ĠØ¬ÙĬ Ø¦ÙĬ
ĠÙħØ¸ Ø§ÙĩØ±
ĠÙ¾ÙĪØ± ÚĨÙĪ
ĠØ¬ÙĪ Úĳ
ĠØªÙĤØ±ÛĮ Ø¨Ø§
Ġà´¡ à´¯à´±
ĠÃ¼h el
Ġal koh
ĠR iig
èĭ¹æŀľ çīĪ
Ġkokk ule
ĠÙħ ÙĬÙĦÙĨ
Ġod av
ĠÙ½ ÙĨÚĬÙĬ
æ¡ Į
ĠÙģØ±Ùħ Ø§ÙĬØ§Ø¦ÙĪÙĨ
ĠÙģ Ø±ÛĮ
B A
ĠØ² ÙĪØ§ÙĦ
ĠØ§Ø¶ Ø§ÙģÙĬ
åĽ½ è¯Ń
Ø¨ÙĨØ¯ Ú¾
ĠÙ¾ÚĻ ÙĩØ§Ø¦Ú»
Ġhakk as
ä¸¥ éĩį
çĽĪ åĪ©
ĠÙħ ÚĻÙĬ
us in
ĠÙĪØŃ Ø´ÙĬ
ć ĈĈ
ĠpÃµll umajand
ĠØ±ÙĪ Ø§ÙĨ
æľį åĭĻ
ÙĬÙħ ÙĬ
ĠÚ¯Ø± Ø§Ùĩ
Ġoma vahel
è¿Ŀæ³ķ åĲĹ
ĠØ§ÙĦ ÛĮÚ©
ĠrÃ¤Ã¤ gib
ĠÙ½ÙĬ ÙĦÙĬÙģÙĪÙĨ
ĠØ³ÙĪ Ûģ
èĢ Ģ
ĠÙĤØ· Ø§Ø±
ĠäºĮ åĽĽåħŃ
ĠE l
ĠÙĪØ³ ÙĬÙĦØ§
å¤§åŃ¦ çĶŁ
Ġteki b
ĠÚ© Ø§ÙģÛĮ
åģľ æŃ¢
Ġval la
ĠØ²ÙĨØ¯ Ú¯ÛĮ
Ù½ Ùħ
Ġæīĭæľº å¤©å¤©å½©ç¥¨
Ġom ad
ÙĤ ÙĪÙħÙĬ
éĴ± åĲĹ
ĠÙĪÚĮ ÙĨØ¯ÚĻ
å» £
ĠØª ÚĻ
Ġ æľ¬
Ġse as
Ġselle l
ĠØ¢Ø± ÚĬØ±
ĠÙħ ÙĬÚª
ole ku
ĠÙĪØ§Ø± Ø¯
éĽ Ļ
Ġå¾®ä¿¡ çļĦå¤©å¤©ä¸Ńå½©ç¥¨
il is
ĠØ¨ ÙĤØ§
à´¥ à´²à´¤
Ġhot ell
æĪĲ ç»©
åįĹ äº¬
Ú© Ú»
and e
ĠÙºÙĩØ± Ø§Ø¡
åħ¬ä¼Ĺåı· å¤©å¤©ä¸Ńå½©ç¥¨
Ġ äºĶæľĪå¤©
ĠÙ¾ Ø§Ø¦
Ø§Ø² ÛĮ
ond i
åĴ ĭ
è© ²
ĠØ® Ùħ
ä»Ģä¹Ī æĦıæĢĿ
ĠÙ¾Ø§ÙĦ Ú»
ĠÙħÙĨ ÛĮØ§
Ø±ÙĬÙģ Úª
ĠØŃÚªÙĪÙħ ØªÙĨ
è¯ Ĭ
ĠØ®Ø§ÙħÙĪ Ø´ÙĬ
Ġpop ulaar
Ġà´Ĺ à´µ
ĠØ§Ú©Ú¾ Ø§Úº
Ġå¤©å¤©ä¸Ńå½©ç¥¨ ä¸ĢçŃīå¥ĸ
Ã¶Ã¶ st
ĠÚĢÚĥ ÚªÚĻÙĬ
æĪĲ æŀľ
åħ¬ å®ī
ĠØ¯ÙĪØ³ØªÙĬ Ø¡
ĠÙĨØ´ Ø§ÙĨÙĬ
ĠØ³Ø§ Úĥ
ĠÚ¯ Ø¦ÛĮØ§
ĠØ³ÙĪÚĨ ÙĬÙĨØ¯ÙĪ
èģ ²
å®ĺç½ĳ åĲĹ
Ûģ ÛĴ
åħįè´¹ æıĲçİ°
Ġt ants
é©¬ æĬ¥
éĻ °
Ġtah aks
ĠÚĨ Ø¤
Ġsp ord
Ø§Ø« Ø±ÙĨ
Ø§Ø± Ûģ
æĦı è¯Ĩ
Ġ åĲĪ
åı¦ ä¸Ģ
ÚĢ Ø±Ø§Ø¦ÙĬ
Ġmad al
åĭ ¤
èĥ ĸ
à´µ à´§
Ġaja st
ĠØ¨ Ø®Øª
è¿½ åĽŀ
le x
ĠÙħØ¹ Ø°
æĽ ¿
Ćć ï¼Į
ĠÙ¾ÚĻ ÙĩÙĨØ¯ÙĪ
ĠÙĦØ§ÙĦ ÙĬØ¡
ĠÚ¯ Ø³
å®ĺç½ĳ ä¸ĭè½½
Ġà´¸ à´Ļ
ĠØ§ÙĨÙ½Ø±ÙĨ ÙĬÙ½
ĠØ§Ú© Ù¹
ĠÙĨÙĩ Ø§Ø±ÙĬ
Ġmeeld ib
çĪ± çĪ±
ĠØ¹Ø¨ ÙĬØ¯
ĠØŃÙħ ÙĦØ§
ĠsÃµ ja
å°Ħ ç²¾
ĠØªØŃ Ø±ÛĮÚ©
Ù¾ Ûģ
aa Å¾
Ġte ile
ĠK e
æıĲ åīį
ĠÚ¦ Ø§Ø³ÙĬ
ĠØ²Ø® Ùħ
ĠØ¯ ØªÛĴ
æĢ§ èĥ½
Ġr em
Ø± Ø§Ø¡
ĠÙħØ¹Ø· ÙĦ
nÃµ u
æľĢ ç»Ī
Me ie
Ġker ge
Ġà´§ à´°
ĠØŃ Ø±Ùħ
Ġ uk
åº Ł
ĠÙĩ Ø§ÙĨÚ¯
ĠjÃ¤rj est
al li
äºº å£«
mise lt
æĦı è§ģ
ĠØ§Ú³ÙĪ Ú»ÙĪ
ĠÙħØ« Ø¨Øª
l ad
ĠÙĨ Ø²
ĠØ±ÙĬÚ¯ Ø³ØªØ§ÙĨ
ĠØ²ÙĨØ¯ ÙĩÙĩ
ĠØ´ÙĬÙĨ ÙĩÙĨ
ĠÚ³ Ø¬
Ġjaan uar
Ġæ·± åľ³
à´¶ à´ķ
ĠÙĨØ§Ùħ ÙħÚªÙĨ
çļĦ ä¸į
ĠÚªÙħØ§ÙĨ ÚĬØ±
ation al
Ġtr aditsioon
èĹ ¤
æĺİ ç¡®
èĢĥ çĶŁ
ĠÚªØ±ÙĨ ÙĦ
ĠÙĦ Ø·Ùģ
è½ ī
ĠJ Ãµ
Ġ çĻ¾
Ġlis as
ĠØ§ÙĨÚĬ ÙĪÙĨÙĬ
Ġr Ã¼
àµĤ âĢĭ
ĠØ´ÙĩØ± Øª
txt ä¸ĭè½½
Ġå¤§åıĳ æīĭæ¸¸
ĠÚ¾ ØªÙĬ
Ġtun tud
Ġa h
Øª Ø³
ĠØ±Ø³Ùħ ÙĨ
Ø¨ ÙĨØ¯ÙĨ
Ġteen ind
ĠÙħØ¹ ÙĬØ§Ø±ÙĬ
Ġk la
ÙĪ ÚĨ
ĠØ³ÙĪÚĨ ÙĨ
Ġt ak
ĠØ¨ÙĬ Ùº
ud ega
è½ ´
Ġå¤§åıĳå¿«ä¸ī ç²¾åĩĨ
Ķ ĭ
ĠØ¹ Ø§Ø¯
ase m
ĠÙĤÙĦ Ø¹ÙĬ
Ġ ç¦ıåĪ©å½©ç¥¨
Øª Ø§Ø¬
ĠÙ¾ Ø´
åĨ Ĵ
çľŁ éĴ±
ÙĤØ± Ø§Ø·
« ĺ
ĠÙĪ ÙĬÚª
ĠÚ¯Ø§Úı ÙĬÙĪÙĨ
c m
ĠÚ© Ø§Ø±ÙĪ
ist ele
åŃķ å¦ĩ
ĠÙĪ ÙĦØ§
c tion
ĠÙ»Ø§Ø± ÚĻÙĬ
èĸ Ħ
Ġ åĽ½äº§
r iig
f i
ãĢį ï¼Į
Ġteh akse
Ġå¤©å¤©ä¸Ńå½©ç¥¨ ç½ĳç«Ļ
ĠmÃµ lem
ĠØ³Ùħ Ø§ÙĬÙĦ
ĠÙĨÙĪ Ø¹ÙĬØª
ja ga
ĠÙĩØ¦ Ùħ
ĠØ¨ÙĬÚ¯ Ùħ
ÙĦØ§ ÚĻ
ĠÙĦÚ© Ú¾ÛĮ
Ġç¦ıåĪ©å½©ç¥¨å¤©å¤© å½©
ĠØ¬ÙĬØª Ø±Ø§
Ġakt si
ĠÙĨ Ú©ÛĴ
ĠÙĩØ² Ø§Ø±ÙĨ
ĠT he
ĠÙĪ Ø§Ø¨
ĠØ³ Ø§Ùĩ
M A
ĠÙĦ ÙĬÙĪ
ĠÚªØ± Ùħ
ĠØŃ Ø¯ÙĨ
ĠÙĨÙĬÙĪØ² ÙĬÙĦ
Ġå¤©å¤© å½©
ĠÙĩÙĪ Ùħ
à´² à´²
Ġkuul ub
äºīé Ķĭ
ĠØ¢ ÙĬØª
Ø§Ø¬ Ø¯
åĽŀ è¡Ģ
ĠØ± ÙĬØ³Ù½
ĠrÃ¤Ã¤ g
èµ¢ å®¶
ĠÙĩÙ¿ÙĬ Ø§Ø±ÙĨ
Ġ èı²
Úı ÙĩÙĬÙĨ
ĠØ¬ÙĪ Ú³ÙĪ
ĠÚªÙĪ Ø¦
199 7
ĠÚ© Ø´Ùħ
Ġå½©ç¥ŀäºīéľ¸ è®¡åĪĴ
Ġma jut
Ġaadr ess
ĠÙ½ Ø±ÙĬÙģÚª
çĪ± æĥħ
ĠØ¯Ø§Ø¦ Ø±ÙĬ
ĠØ¯Ø¹ÙĪ ÛĮ
ĠØªÛģØ§ ÚĪÛĮ
ĠÙĨÙħÙĪÙĨ ÙĪ
å¹¿ è¥¿
à´¦ à´Ļ
Ġeks per
A l
ĠÙĪÚı ÙĬØ±ÙĨ
Ġd etail
Ø° Ø¨
ĠØ§ÙĪ Ø¯ÛĮ
Ø³ÙĪ ÛĮ
ä¸Ń åľĭ
ĠØ¶Ø±ÙĪØ± ÛĮ
ĠÙħÙĨ ÛĮ
ĠÙĦ ÙĬØ§Ø±ÙĬ
ĠÙģÛĮØµ ÙĦÛģ
ĠÚıÙĪ ÙĩÙĨ
v art
ä¸ĸ çºª
ĠØªØ¹ Ø§Ø±Ùģ
ik ast
Ġå¤©å¤©ä¸Ńå½©ç¥¨ä¸Ńå¥ĸ äºĨ
èĨ ľ
r ah
Ġin n
ĠlÃµp us
um ala
Ġval ik
à´¸ à´±
ĠI ga
ĠØ®ÙĪØ´Ø¨ÙĪ Ø¡
æĹ ¦
ĠØ¬ÙĨ Ø§Ø¨
Ġar usa
ĠØ¬ÙĬÚª Ø¨
ĠÙĨÙħØ§Ø¦ ÙĨØ¯ÙĨ
Ġæ Ĳ
ĠÙ¾Ø±ÚıÙĬ ÙĩÙĩ
ĠtÃ¤ id
ĠØ§ÚĦ ÙĪÚªÙĬ
P S
Øº ÙĪÙĨ
àµ¾ à´ª
ĠÙĪØ§ÚĮ Ø§Ø±ÙĪ
le ma
ĠÙº Ø§ÙĩÙĩ
Ø§Ø´ÙĨÚ¯ Ù½ÙĨ
Ã¼ ri
Ġp ing
ĠØ§ÚĢ Ø±ÙĬ
ĠØ±Ø¬ Ø³Ù½Ø±
ĠÙħ ÙħØ¨
ite en
ĠØ¨ ÙĦÙĪ
ĠÙĤÙĬ Ø§ÙħØª
ĠmÃµn us
åİķ æīĢ
Ġerine v
è´¢ æĶ¿
ĠØªØ± Ø®Ø§ÙĨÙĨ
Ġs il
æĬķ åħ¥
ĠÙħÙĤØ§Ùħ ÛĮ
ĠØ§ÛĮÛģ Ø¯Ø§
ĠØ´ ÙĦ
éĽ ķ
åı ĥ
ĠÙĤÙĪÙħ ÛĮ
Ġvii a
ekt or
ĠÙĦÙĬÚ© ÚªÙĨ
Ġesit ada
ĠØ§Ø¬ØªÙħ Ø§Ø¹ÙĬ
ç§ĳåŃ¦ éĻ¢
ĠØ§ÚĨ Ø§ÙĨ
è¾ Ľ
çī¹ æ®Ĭ
è³ ¼
à´¸ à´«
ĠØª ÙĪØ±
åħ± äº«
ĠÙĨ ÙĬÙĦ
ĠØ§ÙĬÙħ Ø§ÙĨØ¯
ÙĬ Ø¦Ø±
ĠØ¨ÙĬ Ø±ÙĪØ²
Ġæ¹ ĸ
ĠØ¬Ø¹ ÙĦÙĬ
ĠÙĪÚ» ÙĨØ¯ÚĻ
O S
ĠÙĩØ§Ø´ Ùħ
Ġva ik
ĠÙĦ ÚªÙĬ
é£ŀ èīĩ
ĠØªÙħ Ø§Ø´
Ø§Ø¦ÙĬ Ø²
8 3
éĹ ª
ĠV ah
ĠpÃ¼ si
ĠÙħØ¯Ø¯ Ú¯Ø§Ø±
ĠÚ¯Ùĩ Ø§
ĠØ¨ÙĪÙĦ ÙĨ
çŃī çŃī
Ġå½©ç¥ŀäºīéľ¸æĺ¯ ä¸įæĺ¯
Ø´ÙĬ Ø§Ø±
ä¸ Ī
ĠØ§ÙĨØªÙĩ Ø§Ù¾
ĠÃ¤r i
Ġkli ent
ĠÃµht ul
Ø± ÙĪÙĨ
å®ŀ ä½ĵ
ĠØ§Ø³Úª ÙĬÙħ
ĠØª Ø§
ÛĮØ± Ø§Úº
ĠÙĨ ÙĤÙĦ
ĠÙĨÙħØ§Ø¦ÙĨØ¯ Ú¯ÙĬ
Ġà´¶ à´¬
ĠØµÙģ ØŃÙĬ
ä¹±ä¼¦ å°ıè¯´
æľº åħ³
Ġå¤§åıĳ å¨±ä¹Ĳ
Ĥ £
Ø¨ÙĪ ÙĦÙĬØª
ĠÙĨÙĬ Ø§Ú»ÙĬÙĨ
ĠÙħÛģ Ø§Ø±Ø§Ø¬
ĠÚĢ Ø§ÚĦ
Ú¯ Ø±ÙĬ
ĠÙħ Ø§Ø¦ÙĪ
ĠÚ¯ Ø±ÙĬ
Ġp atsi
ĠØ¯Ø±ÙĪ ÙĬØ´
Ù¾Ø§Ø± ÚªØ±
ĠÚ©ÙĪÙĦ ÙĬÙĪ
åĪ¤ æĸŃ
ĠÃ¼ li
eg ev
esk us
æ³¨åĨĮ çłģ
å¯ ¿
Ġà´ļ à´Łà´Ļ
an na
ingu id
et est
æ¼« çķ«
ĠÚ¯ÙĨ Ø§Ûģ
Ġsis u
Ġå¤§åıĳå¿«ä¸ī èµ°åĬ¿åĽ¾
ĠÙĨØ¹ ÙħØª
Ġh Ãµ
æŃ¤ æ¬¡
à´ª à´°à´®
ĠÙħ ÙħÙĨ
ĠÚ© ÙĨØ¯
ÙĤ Ø¯Ø±
T Ãľ
åĽł ç´ł
é© »
é¥° å®ĺç½ĳ
è£ħ ä¿®
à´ ĥ
ä¹ĭ ä¸Ń
à´® à´®
Ġm ist
åį »
Ġv iga
éĥ½ ä¼ļ
å±ķ ç¤º
Ġå¤©å¤©éĢģ å½©ç¥¨
ĠØ¢ ÙĦØ§
ĠÙĨÚ¯Ø±Ø§ÙĨ ÙĬ
çĶ¨ çļĦ
imise ga
Ø¦ Ø±ÙĨ
ÙĪÙħ ÙĦ
V OD
ĠÙ¾Ø± Ø§Ú»Ø§
ĠØ¨Ú¾Ø§Ø±Øª ÛĮ
ĠÙº ÙĩÚ»
ØŃÙĬØ¯Ø± Ø¢Ø¨Ø§Ø¯
ĠØ¯Ø¹ Ø§Ø¦ÙĪÙĨ
Ġpar k
Ġl avast
ĠÙĨÚªØ± ÙĨØ¯ÙĪ
ĠÙĦ ÙĬÙĨÚĬ
ĠA d
å¥ ĭ
ĠÙ¾ÙĪ Ø´
ĠÙ¾ÙĬ ÚĨ
ĠØªØ§Ùħ ÙĦ
à´ª à´¨à´Ļ
te ga
ĠØ¢Ø¬ÙĬ Ø§ÙĨ
ĠÙĪØ±Øª Ø§Ø¦ÙĬÙĨ
ĠØ±Ø´ ÙĪØª
m ent
ĠÙĦÙĨ Úª
Ġene se
Ġvast av
ĠØ±Ø¨ Ø§ÙĨÙĬ
Ġta im
åĬ¨æĢģ åĽ¾
le v
à´ ¢
Ġed ast
æŃ ¡
èĢĥ èĻĳ
ĠØ§ÙĪØ±ÙĨÚ¯ Ø²ÙĬØ¨
Ġç½ĳæĺĵ å½©ç¥¨
Ġl ase
çĶµ åĬ¨
Ġa i
ĠØŃÙĤÙĬÙĤØª ÙĨ
æĬ½ æıĴ
Ġd isain
ĠÙħØ²Ø§ØŃ ÙħØª
å² Ń
l ar
ĠÙħØµÙĬ Ø¨Øª
ĠØ¬Ùħ Ø¹ÙĬ
Ġ _
ĠÚªÙĨ ÙĪ
ak as
ĠÙ»Ø§Ø± ÙĩÙĨ
Ġd r
ĠÚĬ Ø¨ÙĦ
à´ĺà´Łà´¨ à´¯
Ġ usk
ĠmÃ¤ lest
ĠÚĬ Úª
ĠØ³Ø§Ú³ ÙĬØ§
Ø¯ÙĨ ÙĬØ§
Ġå¤©å¤©éĢģéĴ± å½©ç¥¨
ĠÙģØ§Ø± Ø³ÛĮ
ĠF r
Ø³ÙĦ Ø±
Ú± ÙĪ
çļĦ å°ıè¯´
Ġà´® à´ķà´³
ĠÙ¾ÚĮ Ø±ÙĪ
ateg oori
Ġpidev alt
ĠÙĪØ± ÚªØ±
ĠØªØ± Ø®Ø§ÙĨ
199 6
èĭ± éĽĦ
è´ ¡
ti c
1 30
ĠØ± ÙĬÚª
ÙĤ Ø§ÙĨÙĪÙĨ
è° ĵ
ast el
æİ¨ åĩº
æĶ¯ä»ĺ å®Ŀ
oot si
èµ° åħī
ĠÙĦÚ¯ ÛĴ
ÙĪ ÙĬØ±
ĠÙĨÙģ Ø³
ä¼ į
çĦ¶ èĢĮ
Ġkiir e
åįĥ ä¸ĩ
ĠT o
æķĻ æİĪ
ĠØ±ÙĪ ÚªÙĬÙĪ
ĠØ± ÙĨØ¯
ÚĬÙĬ Ø²
ç§ ¦
ĠÙĩÙĪ Ù½ÙĦÙĨ
ĠØ§Ø³ ÙĪØ¯
ĠÚĨØ§ ÚĨÙĬ
ĠÙĨÙĬÙĨ Ú¯Ø±
ĠØ²Ø± Ø§Ø¹Øª
ĠÙ»ÚĮ Ø§Ø¦ÙĬÙĨØ¯ÙĪ
ÙĨ Ù½
ĠÙ¾ÙĬ Ù½Ø±ÙĪÙĦ
at h
ĠÚªÙ¾ ÚĻÙĬ
ĠÙħÙĬÙĪ Ø²
19 60
ĠÙ¾Ø³ ÙĨØ¯ÙĬ
ĠÙ¾Ø± ÛĮ
ĠÚ³ ÚĨÙĬØ¡
ĠÙ¾ÙĨ ÚĨ
Ã¶Ã¶ r
ĠØ±Ø³ Ø§ÙĦÙĨ
à´¤ à´°à´£
Ġk art
ĠÙ¾ Ø§Øª
ĠØ¬Ùĩ ÙĦÙĬ
Ñ ĥ
un t
ÙĨ ÙĦ
Ø³ Ú©Ø±
çĤ ¼
à´ ı
çĭ ±
æī °
ĠØ¹ ÙĬÙĨ
Øª ÙħÙĬ
ĠL oe
ĠØ±Ø§Ø¬ Ûģ
Ø³Ù¹ Ø±ÛĮ
ĠÙģØ³ Ø§Ø¯
åĪĨ æĹ¶æĹ¶å½©
Ø¬ ÙĨÚ¯
çļĦ å¥³äºº
æīĭæľºçīĪ å®ĺç½ĳ
Ġ è§Ĩé¢ĳ
èĬ ³
Ġesit atud
àµ» à´±
ĠÙĦ ÙħØ¨
Ġauto maat
Ø¯Ø§Ø± ÛĮ
ĠÙĦ Ø§Ø¦ÙĬ
ĠÙĪØ§Ù¾ Ø§Ø±ÙĬÙĨ
å¹¿ å·ŀ
ĠØ¬Ø§ Ú³ÙĬ
åĶ¯ ä¸Ģ
Ù½ ÙĬÙĦ
Ø§Ø³ Ø±
å®¡ æł¸
ĠÙ¾ Ø±ÙĬÙĨ
Ø§Ø® Øª
est ival
ĠØ±Ûģ Ø§
ç»ĵ æĿŁ
å°¤ åħ¶
it use
ĠØ§Ú© Ø§Ø¤ÙĨÙ¹
Ġliik mes
çģ ¾
ap e
æľĢå¤ļ è¿ŀ
ĠØ®ÙĬØ¨Ø± Ù¾
ĠÙħØ¹ÙĬ Ø´Øª
ĠÚĢ Ø±Øª
os k
ªĹ å±Ģ
ĠvÃµimal usi
ä¹¡ æĿĳ
Ġv ol
ĠÚıØ§ ÚıÙĬ
ĠkÃ¼sim us
åı ī
Ġà´ķ à´ª
çķ ħ
æĿ Ń
Ġmin utit
ĠØ§ Ù¾Ø±
æµģ ç¨ĭ
o la
ĠÙħØ¯ Ø§ØŃ
èİ ²
æĤ ł
èĥ½ æıĲçİ°
Ġå½©ç¥ŀäºīéľ¸ å¦Ĥä½ķ
Ġaastat el
ä¸ĭ æĿ¥
ĠÚ¯ÙĦ Ø§Ø³
Ġpid ada
å·¥ èīº
æĪ Ĵ
Ġg ar
Ġolul iselt
ĠØ·Ø¨ÙĤ Ø§ØªÙĬ
éĮ ¢
Ġå¤§åıĳå¿«ä¸ī ä¸Ńå¥ĸ
Ġkind el
à´¦ à´µ
ĠÚªÙĨ ÙĪØ§Ø±
Ġv iid
æ¯ķ ä¸ļ
ĠÚĢ Ø§ÙĨ
end use
èģĶ çĽŁ
Ġle nd
Ġko ju
ema a
im as
ĠÙĦÙĨÚ¯ Ú¾
ĠÚªÙĪ Ùĩ
Ġse oses
çİ© çļĦ
an al
ĠmÃ¤r ts
ĠØ¨ Ø¦Ø±
ĠÛĮÙĤ ÛĮÙĨ
çļĦ å¥½
å¤ļ äºĨ
Ø¦ ÛĮÚº
iku ga
åĵªä¸ª åħ¬åı¸
ĠØ¬ÙĦÙĪ Ø³
ĠØ¯Ú¾ Ø±ØªÛĮ
ĠÙĪÚĩÙĪ ÚĻÙĬ
Ġkasut amise
ØªÙĪ Ø¨Ø±
ÙĢÙĢ ÙĢÙĢ
ob iil
æķ´ ä½ĵ
Ð¾ Ð
è¯ģ åĪ¸
Ãĥ Âµ
ĠØ¨ÙĨØ¯ Ûģ
Ġå¤©å¤©ä¸Ńå½©ç¥¨ è°ģ
ĠÛģ ÛĮÙ¹
çī¹ çĤ¹
Ġtele fon
ĠvÃ¤r sk
v ald
èµ ¶
Ø¯Ø± ÙĦÛĮÙĨÚĪ
çĻ¾ ç§ĳ
ç»´ ä¿®
and ja
ç´ °
ĠÙĩÙ¿ÙĬØ§Ø± Ø¨ÙĨØ¯ÙĨ
ĠÚ©ÛĮÛģ Ø§
åľŁ åľ°
Ġà´ķ à´±
Ġ å·´
Ġ Å¡
ĠÙĦÚ³ ÙĨØ¯Ø§
ĠÙģÙĪ Ø§Ø¯
åľ¨ å®¶
iku id
ĠØ¯ Ø§ÙĨÙĩÙĨ
ĠÙĨØ§Ø² Úª
å ļ
åħĳ çİ°
it est
ĠØ¯Ùģ ØªØ±
åĨį æ¬¡
Ø³Ù½ÙĨ Ù½
ĠÚĩ Ù¾Ø±
Ġpa ik
ç§ģ äºº
Øª ÙĬÙĪÙĨ
Ġå¤§åıĳå¿«ä¸ī åįķåıĮ
ĠÙ¾ÙĬ ÚĻ
ĠÙ¾ÙĬÙĨ Ø§ÙĨÚ¯
gi ga
ĠlÃ¤ ht
ć ãĢģ
ÙĦ ÙĪÚº
à´¨ à´Ł
Ġtegev use
ĠÚªÙĨ ÚĬÙĬ
ØªØ± Ø¬ÙħÙĪ
ĠØ±Ûģ ÙĨØ¯ÛĴ
å½ĵ çĦ¶
ĠN SV
ĠÚªØ± Ø´ÙĨ
ĠeesmÃ¤rg iks
ĠØª Ø±ÙĬ
ĠÙĨØ§ÙĦ ÙĪÚº
ĠØ¢ ÙĪÙĨ
å¤©å¤© éĢģ
Ġs in
ĠÙĦÛģ ÙĨØ¯ÛĴ
ä¸Ń å°ı
ÛĮÙĨ Ù¹
Ġmit meid
Ø§Ø¨ ÙĪ
ĠÚª ÙĨÚ¯
å¿ Ļ
k est
Ġà´Ń à´°
Ġà´ĩ à´Łà´¤
çĪ¶ æ¯į
è¾ ½
ĠØ³ ÙĩÙĬÙĦ
ĠÙ¾ Ø§Ù¾
ĠÙ¿ Ø§Ø¦ÙĬ
ĠØ¬ Ø³Øª
Ġinf ot
Ø¯ Ø§Ø¦Ø´
ĠØ§ÙĦ Ùĩ
ĠÚ© Ø±Ø§
àµį *
ĠØ¢Ø® ÙĪÙĨØ¯
Ġtar bi
ĠmÃ¼Ã¼ g
çĶ· åŃĲ
at aht
ç¿ ¼
ĠÙħØ±ÙĬØ¶ ÙĨ
. ,
éĺ´ éĥ¨
ĠØ³Ùħ ÙĩÙĬ
å¤§å°ı è§Ħå¾ĭ
Ġr Ã¼h
ĠS iin
ĠÚĮÚ» ÙĬØ¡
à´± à´¡
sen ti
ĠØ³ÙĪ Ø§
å¦ ĵ
à´ļ à´ķà´³
Ġa uh
ĠÙĨ Ø§Ø¬
Ø¨ Ø·
Ø§Ø¦ÙĪ Ø¯
ĠØ¯ÙĬ ÙĩÙĩ
ĠÙ¾ÚĻ Ú¾
ĠØ¬Ø±Ùħ ÙĨÙĬ
ĠØ§Ø±Ø¨ Ø§Ø¨
ĠkÃ¤ ttes
è¾ ī
ĠØ¬ÙĬ Ø³ÙĬÙĨ
as a
ĠK oh
åħįè´¹ è§Ĥçľĭ
ĠØ§ÙĬØ³ ÙĪØ³ÙĬ
Ùĩ ÙĪÙħ
ĠØ³Ùĩ Ø§Ø±ÙĪ
ĠÚ© ÚĪ
ĠÚ©Ø§Ùħ ÛĮØ§Ø¨
ç¶ Ń
ĠÙħØ±ÙĬ Ø¯
ä¸Ģ è·¯
Ġ äººä½ĵèīºæľ¯
çĶ· çĶŁ
ĠÚĨÚ¾ ÛĮØªÛĮ
en enud
Ġh oon
ĠØ¶ÙĦ Ø¹ÛĴ
ä»¥ åĲİ
Ġ amm
ĠØ³ Ø¦ÙĨ
åįģ ä¸ī
ĠÙ¾Ø§Ø³ ÙĨ
Ġteen uste
Ø³ Ûģ
ĠÙģ Ø±Ø§ÙĨ
im u
éģ¿ åħį
em at
å·² ç¶ĵ
ĠÚĨ ÛĮÙĨÛĮ
htt p
å¾ ª
ase st
ĠÙ¾ ÛĴ
åĦ¿ ç«¥
Ø§ÙĦ Ùģ
å¤į å¼ı
æ¯ı ä¸ª
äº« åıĹ
Ġà´ħà´ª à´ķ
ĠÙ¾ÙĪØ± ÙĩÙĬÙĪ
Ġ é©¬
ĠØ³Ùģ ÙĬØ±
æĪĲ éķ¿
ĠÚĬ Ø²
å¾ ½
ĠÙħÙĪØ¬ÙĪØ¯ Ú¯ÙĬ
ç»ı çĲĨ
é¤ Ĭ
ĠÚ º
ĠØ¬Ùħ ÙĦÙĬ
ĠP Ãµ
Ġ è¶³çĲĥ
à´Ł àµ¼
Ùº ÙĨ
åĮº åĪ«
è¿ĩ åİ»
Ġl Ã¶Ã¶
æµ ©
æĪĲ çĨŁ
ĠÙ¾ÛĮ Ø±ÙĪ
ç«Ł çĦ¶
ä¸¥ æł¼
æĹ º
Ġeur o
ç§ĺ å¯Ĩ
B T
ĠÛģ ÙĦ
ĠØª Ø§Ø±ÙĨ
ĠØ¢ ÙĬ
ĠØ§ÙĬÙĨ Ù½ÙĬ
ĠØ±Ø§Ûģ ÛĮÚº
und us
éł ģ
åħ¬ äº¤
Ú¯ Ø±ÛĮ
çļĦ ç½ĳç«Ļ
å¹» æĥ³
ĠT Ãµ
ĠØ¨ Ø±Ùħ
Ġhuv itav
o a
è¿ŀ ç»Ń
up i
ir i
ĠÙĨÚ¯ Ø§ÙĩÙĩ
è¼ ķ
ul ge
ĠØ§ÚªØ§Ø¦ÙĪÙĨ Ù½
ĠsÃ¼d am
ĠT oom
ĠÛģ Ùħ
âĦ ĥ
ć Ĉï¼Į
Ġ å¿ħ
ĠØ³ ÙĬØ§Ø±ÙĬ
ĠnÃ¤ itab
Ġtr ansp
Ġko m
çĩ Ł
g g
ĠØ± Ø¦ÛĴ
Ġp ub
ÙĩÙĪ Ø´
Ġveebr uar
ĠØª Ù¾
ÙĬØª Ø§Ø¦ÙĬÙĨ
ĠÙ¿ ÚĮÙĪ
çĶµè§Ĩ åī§
å°º åº¦
ĠØ§ÙĨ Ú©Ø§Ø±
et es
Ġå¤©å¤©å½©ç¥¨ æıĲçİ°
ĠÚĨØ¦ ÙĦÙĬÙĨ
ĠØ¬ ÛĮÙĨÙĪÚº
ĠsÃµid uk
ĠÚ© ÚĪÚ¾
ĠsÃ¼nd m
ĠØ± Úį
Ġt ihti
at avad
Ġå¤©å¤©ä¸Ńå½©ç¥¨æĢİä¹Ī ä¹°
ĠÙ¹ ÛĮÙħ
ĠÙģ Øµ
ç¦ §
ĠÙħÙĤØ± Ø±ÙĬ
Ġà´Ĩ à´Ń
ver ents
ĠØ¢ Ø¦ÛĴ
åĵª å®¶
ĠÙ¾ÛģÙĨ ÚĨ
é¹ ¿
ä¸Ĭ äºĨ
ĠØ·Ø±ÙĬ ÙĤØ§
Ùĩ Ø¦ÙĬ
a in
Ø§ ÙĬØ³
ĠØªÙĨÙĩÙĨ Ø¬Ø§
æ· ĺ
à´ķ à´ķ
Ĉ Ćï¼Į
ç² Ĺ
ĠÚĨØ§ÙĦÙĬ ÙĩÙĩ
ĠØ±Ø³ Ø§Ø¦ÙĬ
N e
ĠØ¹ Ø¶
ĠÙħØ§ÙĨ ÙĬØ¡
ĠÙĪ ÚĬÙĬÙĪ
Ã¼h h
ĠÙĦÙĤ Ø¨
Ġ éŃĶ
Ġèĭ¹æŀľ æīĭæľº
Ġs Ã¤r
ĠÚĮ ÚĻ
Ġ æĺİ
Ġà´® à´®
Ø§ÙĪ ÙĩØ§ÙĨ
åħļ å§Ķ
ĠØ§Ø³Ø± Ø§Ø¦ÛĮÙĦ
å°ĳ å©¦
éĢ Ĵ
ĠrÃ¤Ã¤k ida
Ġf a
ç¥ ¥
ĠØ¬ÛĮ ÚĪÛĮ
ç«ŀå½© è¶³çĲĥ
ĠÙ¾ÙĪ Ø¬Ø§
ĠØµÙĦØ§ØŃ ÙĬØªÙĨ
æľĢ è¿ĳ
m isi
ĠØ¬Ø§ÙĨ ÙĬ
æ· ¡
ĠØ³ÙĨ Ø¦ÙĪÙĨ
çĻ¾ ä¸ĩ
ase l
ä¸¾ è¡Į
å°± åı¯ä»¥
ĠÚ©Ùħ Ø§Úº
Ġæ¾³éĹ¨ éĵ¶æ²³
ĠÚªØ§Ø± Ø§
ĠØ³ÛĮ Ø§Ø³Øª
ĠÙģÙĤÙĬØ± ÙĨ
ĠØ§Ù¿Ø§Ø± Ù½ÙĬ
ÙĦÙĪ Øµ
çģ Ń
ig u
à´¾ âĢĭâĢĭ
çª Ŀ
åı Ķ
ts in
ĠT al
åŁ ĥ
Ġteen use
ĠØ¬Ø¹ ÙģØ±
pa ania
ĠØ³ Ú©ÙĬ
ĠÙħØ§Ø± ÛĴ
Ù¾ ÙĦÛĮ
çİ© å®¶
å¤© æ´¥
åķı é¡Į
å¯ ¸
çĸ ¯
éªĮ è¯ģ
Ġtas akaal
ĠÙĨ Ø§ÙĨ
ä¼ĺ åĮĸ
éĸĭ å§ĭ
ĠÙĪØ¬ Ú¾
æŃ¤ å¤ĸ
end a
åĩ °
Ġpo stit
ĠØ¢ Ø«Ø§Ø±
ĠØ¨ Ø§Ø±ÙĪ
ĠØ´ÙĬ Ø¦Ø±
é© ¶
ĠØ§Úª Ø±Ùħ
ĠÚı ÙĬÙĨØ¯Ø§Ø³ÙĬÙĨ
Ø§Ø¦ÙĨ Ù½
ĠØ¹ Ø§ÙĦÙĬ
ul d
â Ī
Ø¬ Úª
ĠØŃØ§Úª ÙħÙĨ
ĠÙº ÙĩÙĬÙĪ
Ø´ ÙħÙĬ
ĠØµ ÙģØª
çİ© å¤§åıĳå¿«ä¸ī
ĠØ³ÙħØ¬ ÙĩÙĨØ¯ÙĪ
Ġ å®ģ
ĠØ¹ÛĮ Ø³ÙĪÛĮ
éĢī äºĶ
åħĪ è¿Ľ
ä» ¿
çĻ Ĥ
ĠØ¨Ø¯ ÙĤØ³Ùħ
Ùĳ Ùİ
ĠØ¬ÛĮÙĨ Ø§Úº
å¹¿ æ³Ľ
ç¨ ±
ĠØ§Ø³Ù½ ÙĪØ±
ĠÚĬÙ¾Ø§Ø±Ù½ ÙħÙĬÙĨÙ½
ÙĨÙĪ Ø§Ø¨
ĠM inu
k it
ĠÙ¾ÙĬ Ù¾Ø±
Ġalg at
Ġà´Ĩ à´ª
éĩįè¦ģ çļĦ
ĠØ¹ ÙĤÙĬØ¯ÙĬ
19 88
d å¤©å¤©
ĠÙĦ Ø§Ùħ
ĠÙĨØ§Ø² ÙĦ
ĠÙĪØ± ÙĩØ§Ø¦ÙĬ
è¢« éªĹ
ä¿ Ĺ
åĬ©èµ¢ è½¯ä»¶
é«ĺ çļĦ
ĠÙĩÙħ Ù¿
å®ŀ åĬĽ
Ġm ass
Ġæ ¼
ĠØ®Ø±ÙĬØ¯ Ø§Ø±ÙĬ
p ar
ĠØ³ÙĪ ÚĮÙĪ
ĠØ± ÚĻÙĬÙĪÙĨ
ÚĬÙĬ Ø´ÙĦ
ĠÙº Úª
ĠÚ¯ Ù¾
ĠÚ© Ø§Ø¨ÙĦ
ĠØ¨ Ø¯Ø±
rit i
æĺ¥ èī²
ÙĦÛĮ ÙħØ§ÙĨ
ĠÙħØ« ÙĦØ§
ule t
Ġkah j
Ù¾ Ø§Ú©
ar u
å»¶ æľŁ
Ġå¤©å¤©ä¸Ńå½©ç¥¨ åľ¨
esk use
ĠØ® ÙĦÛĮ
æ» ¨
ĠØ¨ÚĨ ÛĴ
Ġte gu
â Ĵ
ĠmÃµ ttes
ĠÙ¾ Ø§Ú³
ĠÙĦ ÛģÙĪØ±
ĠK Ãµ
Ġà´µ à´¯
Ġse ni
ĠÚ©ÙĪÙĦ Ú»
Ġtutv ust
ĠØ§Ø± ØºÙĪÙĨ
ĠÚı Ø¬ÙĬ
ub e
åģ ¶
Ġæĸ° å¤©å¤©å½©ç¥¨
Ø¨ÙĬ Ø¨
pr ot
ĠØ³Ø± ÚªÙĬ
ä¼ļ åĳĺ
ĠæĹ¶æĹ¶å½© å¤§åıĳ
Ġsii a
Ú» ÙĬÙĨ
b e
åħ» æ®ĸ
ĠÚĩÙĪ ÚªØ±ÙĪ
inn as
ÚĨØ§Ø± Ø¬
éĮ Ħ
le me
Ġre gule
ĠpÃµh ja
ĠØ³Ø§ ÚĦÙĬ
ĠÚ©ÙĦ Ú»
Ġå¤©å¤©ä¸Ńå½©ç¥¨ äººå·¥
åĲĮæĢ§ æģĭ
Ġv ed
Ġru umi
é«ĺ éĢŁ
Ùħ Ø®
ĠÙĩ ÙĬØ±
ĠØ¬ÙĪ Ø§Ø²
Ġkl ub
åĬłæĭ¿ å¤§
ĠÙĤØ§ÙĨÙĪÙĨ ÙĨ
çĲ ´
ĠÚ¯ÙĨØ¬ Ø§Ø¦Ø´
Ø¦ÙĨ Ù½ÙĬ
Ø³ÙĦÙħØ§ÙĨ Ø§Úº
Ġt uua
ĠlÃ¤h en
Ġas uv
å¥³ ä¸»æĴŃ
ĠØ¢Ú± Ø±
ç¢ İ
Ġes in
Ø§ÙĦÙĪ Ø¬ÛĮ
Ġtule vad
uslik ult
ĠÚªØ¦ÙĨ Ø§ÙĦ
ac eb
ĠÙħÙĬÙĪÙĨ Ø³Ù¾ÙĦ
ĠÚªÙħ Ø§Ø±
ĠÙħÙĪ Ø²
Ġku us
ÚĬ ÙĪÙĦ
ĠØ³Ú¯ Ø±ÙĬÙ½
Ø§ÙĪ ÛĮÚº
ĠV Ãµr
àµĩà´¾ âĢĭ
ĠØ¨Ø¯ Ú¾
ĠØ§Ùģ Ø²
ĠÙ¿ ÚĮÙĬ
ĠÙģÙĪ Ù½
Ġku ud
æĽ´ æĺ¯
ĠØ²ÙĦØ² ÙĦÙĬ
æĭ ĵ
Ġvalmist atud
ä¸Ģ å¹´
Ġå¤§åıĳæĹ¶æĹ¶å½© çļĦ
à´ļ à´Ł
å² ©
n da
Ġsee jÃ¤rel
ĠÚ¯Ø± Ø§Ùħ
Ġr ii
Ġ å°±
Ġé«ĺé¢ĳ å½©å¤§åıĳå¿«ä¸ī
à´¶ à´ª
S e
å¥½ å¤ļ
Ġn or
ĠØ§ÙĨ Ø¬ÙĨ
ĠÙħØ« Ø§ÙĦÙĬ
ä¼ł å¥ĩ
ĠÙħ Ø±ÙĪ
ĠM er
ĠØ¬ Ø±ÙĨ
à´µà´¸ à´Ļ
è¿Ľè¡Į äºĨ
Øª ÙĨÙĩÙĨ
Ġnoor te
çļĦ å·¥ä½ľ
ä¹Ĳ å½©ç¥¨
Úª Ø§ÙĨÙĬ
T all
ĠÚĬÚ¯ ÙĩÙĪ
ĠÙĪ ÙĨÚĬ
ĠÙ» ÙĬØ¡
ĠÙĨØ§ Ø§ÙĨØµ
çªģ çł´
ĠØ§ÛĮ Ùħ
ĠØ§ÛĮ ÙĨØ§
ĠØ¨ Ø§Ø³
ĠÙħØ¦ ÙĨÙĬ
Ùħ ÙĨÙĩÙĨØ¬ÙĪ
ĠØ§Ø³ Ø§Úº
çİ° å®ŀ
ĠØ¬Ø§ Ú¯Ø±
ĠÚĩÙĪ ØªÙĩ
å¿ĥ çĲĨ
ĠÙĨÙĪ ÙĬØ³
ĠØªØ¬ Ø§Ø±Øª
çµ² è¥ª
Ġnim i
Ġk Ã¼Ã¼
ĠÛģÛĮÙ¹ Ú¾
ĠÙħÚĩ ÙĬ
å®Į ç»ĵ
Ġ åģļçĪ±
ĠÙħØŃØª Ø§Ø¬
ĠØ¬ Ø§Ø¨
ĠØ§ÙĨØ¬ÙĨÙĬØ¦Ø± ÙĨÚ¯
ĠØºÙĦØ§Ùħ ÙĬ
Ġhinn ang
äºº é«Ķ
ĠÙħÙĪ Ø¯ÙĬ
Ġlast ele
è¿Ĳ è¾ĵ
Ġà´ħà´µ à´¯
éĶ ģ
199 2
ĠØ¨Ø± Ø§Ø¨
ĠKuid as
Ø§ÙĦ Ø¯ÙĬÙĨ
Úĥ Ø§Ú»
é© ±
Ġeel mise
ĠØ§Ø³Ù½Ø±ÙĬ Ù½
ĠP ro
ĠØ±Ø§ÙĨØ¯ÙĬ Ú¯Ø±
å¦ ®
ĠÙĦØ§Ø¦ Ø³ÙĨØ³
Ġkeskkon n
ĠÙħØ®Ø§ÙĦÙģ ÙĨ
Ġte evad
ĠÚ¯ ÙĩÙĨ
Ġte isi
ĠÙģÙĦÙħ ÙĪÙĨ
ĠÙħØ¯Ø± Ø³ÙĨ
ĠØ¨Ø±ÙĪ ÙĩÙĬ
v o
ĠØ§ ÚĢÙĬ
ĠV ast
Ġpe ad
æĦı ä¹ī
çĶ¨ åĵģ
xx x
ĠÚĮ Ø§
Ġme est
ĠÚĨØ§ÚĻ ÙĩÙĬ
in s
8 2
ĠØ¯ Ø³ØªÙĬ
ĠØ³Ø¬ Ø§Ø¯
ĠvÃµimal use
æ²» çĲĨ
é«ĺ æł¡
ĠØµØŃ Ø¨Øª
è°ģ ä¸İ
Ġs ind
Ġå¤©å¤©ä¸Ńå½©ç¥¨ è¢«
ar m
åĲį çļĦ
ĠÚıØ§Ùĩ Ù¾
Ġed uk
Ġà´ĩ à´¯
èĹĿ è¡ĵ
ÙĪÙĨ Ø¡
Ġse in
çļ Ĩ
çº ¤
Ġole te
Ġmille le
ĠsÃ¤test atud
ç» ĺ
Ù¾ÙĬ Ùĩ
Ġprot senti
ĠØ³Ú© ÛĴ
omisjon i
ĠÙĩØ§Ú» ÙĪÚªÙĬ
ĠÚĨØ§Ø± Ø¬
ĠØ¹Ø¨Ø¯Ø§ÙĦ ÙĪ
ĠØ²ÙĬØ§Ø¯ ØªÙĬ
å¤§ ä¹ĲéĢı
ĠÚ¾ Ø§Ú»
ĠØ¨ÙĬÙĨ ÚĨ
Ù¾ ÙĬØ±
ĠÙĨ ÙĬØ§
ĠÚĩ ÙĨÚĬ
ĠØ¹Ø§Øµ Ùħ
ĠØ³ÙĨØ¬ÙĬ Ø¯Ùĩ
Ø³ Úª
umise ks
ĠÙ¾ÙĩØª Ø³
Ùİ .
ä¸Ģ ç§į
ĠT h
ÙĨØ¯ ÙĬÙĨ
ĠÙĦØ§Ø´ Ø§Ø±ÙĬ
ÙĬØ¯ Ø§Ø±ÙĬ
ĠÙĪØ± ÙĩÙĬÙĩ
Ġå¤§åıĳå¿«ä¸ī åľ¨çº¿
ĠÚ¦ Ù½ÙĬ
ĠS ky
ĠÙĩØ± ÚªÙĪ
r ik
Ć ą
17 0
åı¯ä»¥ ä¹°
ĠnÃ¤ eb
ĠØ¢ Ø¯Ø±
éļ Ľ
ä¸į ç®¡
ul ise
æľīé Ĥ£
åĽŀ æĿ¥
æĻĴ åįķ
ĠÙħØŃ Ø±Ùħ
ĠvÃµtt is
Ġvar a
æĸ° äºº
u ge
ĠØ¯ÙĪ Ø§ÙĦÛĴ
Ġtaga st
ĠÙĪÚĮ Ø§ÙĬÙĪ
ĠtÃ¤ iskas
ĠØ¯Ø´ÙħÙĨ ÙĨ
ĠÙħÛĮ Ø±Ø§
ĠÚĨØ§ÙĨ Ø³ÙĦØ±
ĠÙĨÙĪÚªØ±ÙĬ ÙĪÙĨ
åįģ å¤§
ĠÙĦÚ¯ ÛĮ
k ste
åī µ
å°± ä¼ļ
ĠÙģ Ø²
å· ¡
çī© æµģ
åįı è®®
å¦Ĥ ä»Ĭ
ä»¥ åīį
çĹ ´
å° ĸ
ĠL Ã¤Ã¤ne
ee e
ĠP ost
éĢĤ åĲĪ
ĠØ±Ùĩ Ø§ÚªÙĪ
èĶ ¡
ĠPÃµh ja
ĠÙĪØ§Ø¨ Ø³Øª
Ġk ih
le b
è¯ķ éªĮ
ĠÙ¾Ø±ÙĬ Ø§ÙĨ
ĠÙºØ§Ùĩ ÙĬÙĪÙĨ
as si
ule k
ĠÙĦÚ© Øª
ÙĪÙħ ÙĬØ¡
ĠØ² ÛĮ
ĠØ² ÚªÙĪ
å¾Īå¤ļ äºº
å¯ Ĥ
ĠØ´ Ú©Ø§Ø±
åĩº åı£
j oon
+ +
ĠÙĨØ¹ Ø±ÙĪ
Ø§Ø± ÛĮØ§Úº
é«ĺ ä¸Ń
ĠÙĨÙħ Ø§
Ġkah t
ĠÚ¯ÙĪÙĦ ÙĬÙĪÙĨ
ĠÙ¾Ø± ÚĨØ§Ø±
ĠÚĨØ¦ ÙĨÙĬ
ä¸Ģ çĤ¹
éĿłè°± ä¹Ī
ĠÙ¾Ø§ÚĻÙĬ Ø³Ø±ÙĬ
8 9
ĠÙ½ Ù½ÙĬ
èĢĮ æĺ¯
éĻĲ åĪ¶
Ġ ;
ĠÙ¾ÛĮ ÙĨØ¯Ø§
ĠØ¢Ø² Ùħ
çĬ¯æ³ķ åĲĹ
ĠÚ¯ ÙĪÚº
ĠÙ¾Ø¯ Ú¾Ø±
Ġå¤©å¤©ä¸Ńå½©ç¥¨ ä¼ļ
ĠÙ¾ÙĨ Ø§Ùĩ
æ¼Ķ åĳĺ
ĠÙĪ Ú»ÙĬ
ĠÙĨ ÚĨ
ĠÙĩÙĪ Ø´ÙĬØ§Ø±
ast ik
ile t
Ġm ootor
ĠØ±ÙĪ Ú©
Ù¹ Ú©
ĠØµÙģ Ø¯Ø±
Ġkuul uvad
aja t
Ġanal Ã¼Ã¼s
ĠvÃµimal ust
ĠØ¹ÙĪØ±Øª Ø§Úº
and eid
ĠÚ©ÙĪ Ø³ÙĪ
åĨħ çļĦ
çĵ¶ æ¢ħ
Ġ çĶµ
ĠØ¢ Ù¿
Ġkelle le
Ġk lassi
Ø¶ Ø§
ĠØ´Ú¾ ÙĬØ¯
å¨ ±
ÙĩÙĪ Ø§Ø±
ĠS E
ĠØ³ Ù½ÙĪÙĨ
Ø§Øµ ÙĦÙĬ
è¢ ĭ
ĠÙĪÙĬØ¬ ÙĩÙĬ
ä½ľå¼Ĭ è½¯ä»¶
çĲĨ è§£
à´¦ à´¯
æĿ ľ
ĠÚı ÙĬÙĪÙĨ
å¿ħ è¦ģ
ĠÚªÙ¾ ÚĻÙĪ
ĠØ³Ú© ÙĨØ¯Ø±
ĠÚ¯ Ø±ÙĬÚĬ
ĠvÃµimal ikult
Ġ çīĽ
ĠØ¯ Ø§Ø¦ÙĪØ¯
Ġà´ĩ à´±
æ´ ª
ĠÙ¾ÙĩØª Ø§Ø³ÙĬÙĨ
Ã ©
ĠØ§ÙĨ ÚĪ
Ġvar i
éĿ¢ å¯¹
el ist
ĠÙĦÛĮ ÙĨØ¯Ø§
ĠI s
Ġand mete
Ġà´¬ à´²
èĭ Ĺ
amat ult
Øµ Ø¨
Ġtut t
lub i
er d
Ġà´İ à´«
ĠÙĬÙĪÙĨ Ø§ÙĨ
Ġand med
S t
éŃ ħ
ĠØ¨ÙĬÙħ Ø§Ø±ÙĬØ¡
Ú¯Ø° Ø±ÙĬÙĦ
g us
å¹³ åĿĩ
Ġveel gi
ï¼ģ âĢĿ
Ġå¤©å¤© å¤§å¥ĸå½©ç¥¨ç«Ļ
Ġmajand us
Ġà´ħ à´Łà´ķ
ĠØ¨ Ø§ÙĨÙĬ
ÙĨ Ø¸Ø±
Ġsum ma
ĠØ³Ùħ ÙĨ
ĠÚ¯ÙĩØ± Ø§Ú»ÙĬ
ĠÙ¾Úª ÚĻÙĬ
ĠÙĪÙģ Ø§
ĠØ¯ÙĬÙĪ Ø§ÙĨ
asp idi
å£ ¯
Ġes imees
ĠÙħØ² ÛĮØ¯
Ġkind la
Ġà´Ĵ à´¤
Ġmuud at
à´µ à´¹
ĠÙ» ÚıÙĬ
çļĦ æĥħåĨµ
ĠØº Ø§Ø²ÙĬ
ĠvÃ¤h end
ĠkÃ¼ t
æĳ Ĩ
æµģ éĩı
Ġhomm ikul
ĠÙĨÙĪ Ù½ÙĬÙģ
ä½į äºİ
ĠØªÙĪ ØŃÙĬØ¯
Ġkir iku
Ġjuh end
æľĢæĸ° çīĪ
éħį åĲĪ
Ø² Ø§ÙĨ
ee b
Ġtekk inud
å¤Ħ å¥³
Ġlep ingu
Ġæ Į
Ġaid ata
ĠV ar
Ġå¤©å¤©ä¸Ńå½©ç¥¨ ä»»éĢī
ĠÙħØ¹ Ø²
ĠØ§ÙĨ ÚĨ
ĠÙĦ ÚªÙĦ
ĠØ¨ÚĨ Ø§ÙĬÙĪ
ĠÙĨ Ø°
ĠØ§Ù¾ÙĨ ÛĮØ§Úº
Ġpar ima
ĠØ¢Ùģ Ø±ÙĬ
ĠÙħØ±Ùħ Øª
Ġla usa
ĠØ¬Ø§Ú©ÙĪ ÚĻ
ĠÚª Ø¨ÙĪ
Ġå½©ç¥ŀäºīéľ¸æľī æ²¡æľī
Ø§ÙĦ ÙĩÙĩ
ĠÙħÙĤ Øµ
æ·« ä¹±
å¾® åįļ
ĠÚª Ú©
é¸ ¿
å¤§åıĳå¿«ä¸ī èµ°åĬ¿åĽ¾
ĠÚ¦Ø§ Ù¿ÙĦ
Ã¼ le
Ø³Ø§ÙĨ ÙĬ
Ġæŀģ éĢŁ
æŃ£è§Ħ çļĦ
ĠÙĨÙĪ ÚªØ±ÙĬÙĨ
j i
ĠØ³ÙħØ¬ Ùĩ
æ±¡ æŁĵ
ĠØ¬ Ø´ÙĨ
è´¨ çļĦ
ĠÙħØª ØŃ
ĠØ³ Ø±ÙĨ
Ġæ±Ł èĭı
aja nd
Ġà´ķ à´¸
å¼ ĥ
à´¤ à´µà´°
éķ¿ æĹ¶éĹ´
Ġr est
Ġhoo ne
an em
Ġlis a
ĠVil jand
æ¸ ¬
ĠÙĦÙĪÚ© ÛĮ
ä¸Ģ å®¶
ĠnÃµ ukogu
ĠÚ¯ ÙĦÙĪ
Ø§ ÛĮÚº
Ć ãĢĤ
ç®Ĺ æ³ķ
éĢ² è¡Į
æĺ¯åĲ¦ åĲĪæ³ķ
äºĮ ä¸ŃäºĮ
ĠÚ¦ Ù½
ĠÙĩ Ù½ÙĬ
ĠØ¬ÙĬØ¦ Ø±ÙĪ
Ġmit mek
è² ¸
ĠÙĩÙĪÙĨ Ø¯
ĠØ§Ø³Ù½ÙĬ Ù½
ÛĮ Ø§ÙĨ
æ® ĭ
ĠÙħÙĪ ØªÙĬ
Ú©Ú¾ ÛĴ
ÙĬÚª Ù½Ø±
Ġko er
ĠÚıÙĨ Ø§Ø¦ÙĪÙĨ
ĠØ§Ø¹ ÙĦÙī
Ġ è¾°ä¸ľ
Ġå¤©å¤©å½©ç¥¨ è½¯ä»¶
' '
ĠÙĪ Ø§Ø¡
ç½ ©
) ï¼Į
éŃ ļ
æŀ ª
Ġp aber
è¿Ľ åı£
Ã¤r g
å¤ļ ä¸ª
è°¢ è°¢
ĠæĹ¥æľ¬ å¤§åıĳ
Ġsul le
àµģ âĢĭâĢĭ
Ġå¤©å¤© çĪ±
éĿłè°± ä¸į
ĠÙħØµ ÙĦØŃ
Ġn n
ĠÙĨØ§ ÚĨ
ĠØ¢Ø¨ Ù¾
ĠØªÙĬ Ø²ÙĬ
ç¾ ½
Ġhakk ama
ĠÙĩÙĨ ÙĬØ§
Ġto hi
Ġf il
Ġkah eks
ĠØ¨ÙĨÚ¯ Ø§ÙĦÙĬ
ĠØ± Ø§Ø¦ÙĬ
çĥ §
ĠÙħØ§ÙĦ ÚªÙĨ
ĠØ¹ÙĦØ§Ø¦ ÙĤØ§
ĠØ¶Ø±ÙĪØ±Øª ÙĨ
ĠØ®ÙĪØ´ ÙĬÙĪÙĨ
èĤĽ äº¤
ĠØ³ Ø§Ø¨ÙĤ
ĠÙħÙħØ¨ Ø§Ø³Ø§
ĠØ¹ÙħÙĦ Ø¯Ø±
ĠÙĦÚª Ø§Ø¦ÙĬ
Ġk ing
ÛĮÙĦ ÛĮØ§Úº
ĠÙĨØ¹ Ø±Ø§
Ġt s
ĠØ±ÙĨÚ¯ ÙĬÙĨ
Ġå¤§åıĳå¿«ä¸ī æĬĢå·§
ĠØ´ÙħØ§ÙĦ ÛĮ
j alt
ap it
è¦ ı
è®¤ åı¯
è¿Ŀ è§Ħ
ÚĪ Ú¾ÛĴ
Ġå¤§åıĳå¿«ä¸ī æľĢéķ¿
à´¯ àµ½
Ø³ Ø§Úº
æĦŁ åıĹ
Ġçļĩ åĨł
le ja
Ġå¤§åıĳ åĽ½éĻħ
é½ ¿
ĠÙĨ Ø§Ú©
Ġ sti
Ø¹ÙĪ Ø¯
ĠÙĩ Ù½Ø§Ø¦ÙĬ
ĠØ²ÙĬ Ø§Ø±Øª
ĠÚı ÙĬÙĨØ¯Ø³
is ime
ĠØ¨ ÙĤÙĪÙĦ
èĩª ä¸»
ĠØ¬ÙĪÚ»ÙĬ Ø¬ÙĪ
Ġuu ed
ĠØ³ÙĬÙĨÙ½Ø± ÙĦ
ĠÃľ likooli
ä¸ī ä¸ª
ç¦ ®
å¾ĭ å®¾
Ùģ Ø±ÙĬ
ĠÙ¾ÙĬ ØªÙĬ
ĠØ§Ø³Ø§ÙĨ Ø¬ÙĪ
ĠØ®ÙĬØ± Ø§Øª
Ú¯ ÙĩÙĩ
ĠØ¨ÙĨ Ø§ÙĬÙĪ
åĤ Ļ
ĠØ§Ø³Ø±Ø§Ø¦ÙĬ ÙĦ
ĠØªØ¹ Ø§ÙĦ
am eti
ĠÚĩÙĪ ÚªØ±Ø§
èĢģ èĻİ
ĠÙħØ´Ø± ÙĤ
11 1
Ġæ¸ ©
ĠØ§Ø³ Ø³Ù½ÙĨÙ½
Ġtek it
ĠØ¬Ø° Ø¨Ø§
èĢĥ æł¸
ĠÚı Ø³Ø§ÙĨ
æ³¨åĨĮ åľ°åĿĢ
æķĪ çİĩ
Ġmuut ub
ap i
è¾ ±
çĴ °
èĤ ĥ
ĠØ´ Ø±ØŃ
Ġpid i
ĠÙħØµ ÙĨÙģ
ĠØ¢ ÙĦÛĮØ§Úº
è¶ħ çº§
à´¥ à´¤
Ø± ØªÙĬ
æģ ¢
ĠØ§ÙĪ Ø¯Ø§
ĠP h
Ġv ene
ç§ĺ ç±į
Ãµ pil
Ġå¤§åıĳ æįķé±¼
ĠÙĪ Ø¹
åľ¨ éĤ£éĩĮ
ĠÚ©Ú¾ÙĪ Ø¬
Ġp eriood
ĠÚ¯ÙĩØ± Ø¬
ĠÙĦ Ø§Ø·
Ġal a
ĠØ± Ø´Øª
Ġkesk end
ĠÙĪÙº ÙĪ
Ġà´ª à´´
ÙħÙĬ Ø±ÙĬ
ĠE st
ĠØ³Ø± Ù½ÙĬÙģ
ĠÙħØ® ØªÙĬØ§Ø±
ĠØº Ø°
ĠØªØ´ Ø±ÙĬØŃ
ĠÚĦ Ø§Ø±
à ¨
ĠØ³Ú© Ú»
P e
åħ Ķ
ĠÙħÙĦ ÙĬÙĪÙĨ
ĠÚĨ ÙĦØ§
æķ Į
à´² à´ļ
èĸ ¦
ĠØ§Ø³Øª ÙĤ
ud ele
ĠS oom
à´¬ à´²
ĠØªØ¹Ø§ÙĦ Ùī
Ø¯ Ø§Ø³
åĢ« çĲĨ
éĥ½ ä¸į
ÙĦ Øµ
ĠØ¶ Ø¯
è½¦ ä¸Ĭ
Ñ ı
Ø¹ Ùĩ
ĠÚ© ÙĦØ§
ĠÙĤ ÙħØ¨Ø±
ĠtÃµ h
% .
Ġ ä¸´
å± Ħ
Ġkir jand
Ġsa ame
ĠÚªÙĬ Ø±ÙĬ
ĠÚª Ø§Ø´
ĠØ®ÙĪØ¯Ùħ Ø®Øª
è·Ŀ ç¦»
ÙĤ Ùħ
ÙĨ Ø±
ĠkÃ¤es oleva
èĻ Ł
Ġà´Ĩ à´´
ep eal
ÚªØ§ Ù½
ĠÙĨ Ø§Ø¦ÙĬÙĨ
ĠÙħØ´Ø± ÙĤÛĮ
Ø³ ÙĪÙĦ
ĠØ± Ø³ÙĬ
ĠÚªÙ¿ Ø§
ĠØ¨ Ø§Øª
Ø¯Ø±ÙĦÛĮÙĨÚĪ Ø²
æľī å¤§åıĳå¿«ä¸ī
ĠÙģÙĬ ÚĬ
Ø³Ù½Ø±ÙĬ Ù½
å¤§ åŀĭ
Ġtead us
ĠÙĪÙĤ Ø§Ø±
ĠÙĦ ÚĳÛĮ
Ø¨ ÙĦÙĪÚĨ
ĠÙħ ÙºÙĪ
Ġp ul
à´°à´£ à´Ļ
s il
èŃ °
ut ele
ĠØ§ Ø±Ùħ
Ġmeeld e
ĠÙħ ÛĮØ±
çļĦ åĺĽ
Ġà´¡à´¯à´± à´ķ
ĠÚı ÙĩÙĬÙĨ
è®¤ è¯Ĩ
Ġ åħŃåĲĪå½©
Ġanal Ã¼Ã¼
Ġapr ill
Ġä¸ĥ æĺŁ
æĶ¹ éĢł
ä¸° æ»¡
ĠØ§Ùģ ÙĦØ§Ø·ÙĪÙĨ
éĤ ¦
éģĵ è·¯
Ġ æ³ķåĽ½
Ġkirjut ab
ĠÙĨØ³ Ø¨Øª
Ġ å©·å©·
ĠÚĮØ§ÙĨÚĮ ÙĦÙĬ
çĶŁ æ®ĸ
Ġre isi
Ġpun kti
ÙģÙĬ Ø¸
Ġkoo peratiiv
Ø´ ÙĬØ¡
Ġ åĽ½å®¶
à´·à´£ à´Ļ
ĠÙ» Ø¬
ĠØºÙĦØ§Ùħ ÙĬØ¡
ĠsÃµlt ub
ĠØ§Úĩ ÙĬ
O L
å°ıè¯´ ä¸ĭè½½
ĠØŃÙĤ Ø¯Ø§Ø±
ĠÙħÛĮ Ø¯Ø§ÙĨ
E S
Ġlis ada
ĠØ¯ Ú¾ÙĪ
åĳĺ å·¥
Ġan ti
um at
ä¾Ŀ æ³ķ
Ġkontr olli
èģ ¯
ä¸įåĪ° è´¦
Ġæīĭæľº ä¸Ĭå¤©å¤©ä¸Ńå½©ç¥¨
Ø´ Ø§Ùħ
ĠÙĪØ²ÛĮØ± Ø§Ø¹Ø¸Ùħ
Ġo per
Ġà´İ à´µ
ĠØ§Ø¯Ø§ÚªØ§Ø± Ùĩ
à´°à´® à´Ļ
ĠÚĩÙ¾ ÙĬÙĪ
ä½ ©
Ġà´ī à´Łà´¨
èĤ¯ å®ļ
Ġå¤©å¤©ä¸Ńå½©ç¥¨ æĹłæ³ķ
Ġæµ·åįĹ å¤©å¤©ä¸Ńå½©ç¥¨
ĠJ umal
Ġkus k
ĠÙħ Ø¦ÛĮ
æĹ¶æĹ¶å½© è®¡åĪĴè½¯ä»¶
ĠÙĨØ´ ÙĬÙĨ
Ġs att
å¿ Ĩ
ĠØ° Ø®ÙĬ
ĠÙħÙĬ ÙĦÙĬ
Ã¤ t
Ġà´® à´Ł
åĲĮ æ¯Ķ
æŁ ³
ĠÙĦÚ©Ú» ÙĬÙĨ
ÙĦØ§ÚĻ ÚªØ§Ú»ÙĬ
ĠÙģÙĦ Ø§Ø³
Ġinf orm
Ġà´µ à´¹
æ³¨åĨĮ ç½ĳåĿĢ
Ġom an
ĠØ´Ø§ ÙĩØ±
A ga
ĠrÃµÃµ m
ĠØ³ Ø²
ĠØ·ÙĦ Ø§ÙĤ
3 000
Ġtar k
ĠÃ¼hend ust
ĠØ§Ø³ ÚªÙĪ
ĠÙĨ Ø¨ÙĪØª
ç¾İ ä¸½
ĠL ood
ĠØª Ø¶Ø§Ø¯
çļĦ äºĭ
ĠØ®ÙĪØ§Ùĩ Ø´ÙĨ
Ġæ Ł
ä¸įäºĨ äºĨ
ĠÙħÙĪÙ½ Ú»
æĻĤ åĢĻ
ĠÙ»ÚĮ Ø§Ø¡
ette vÃµt
ĠÙħØ¹ Ø§ÙĪ
Ġä»Ĭ æĻļ
ĠÙħ ØªØ±
Ġn o
çİ° è±¡
ĠÚĢÚ³ Øª
ĠÙ¾ÙĦÛĮ Ù¹
é ı
ÙĪ Ø¯Ø§
ĠS inu
Ġr at
ĠÙħØ§ Ù¿
Ġand meid
æĿ Ĩ
à´¬ à´±
à´² à´£
Ġå¤© æ´¥
ĠO len
Ġsp ort
ÙĦÛĮ Ûģ
æĻº æħ§
à´§ à´Ļ
I K
ĠÚ¯ Ø§ÙĨ
Ġ è¿ħéĽ·
Ùħ Ø§Úº
ĠØ± Ø¦ÛĮ
ĠØ¹Ùĩ Ø¯ÙĨ
åŃ¸ çĶŁ
Ġna ut
Ġå½©ç¥ŀäºīéľ¸å¤§åıĳ äºĳ
ĠØ¨ ÙĢ
ĠØ³ÙĪÙĦ ÙĨÚ¯ÙĬ
ii i
ĠØ§Ø± Ø´Ø§Ø¯
æ¡ Ĥ
åĢ¼ å¾Ĺ
ĠÚ©ÙĬÚı Ú»
ĠÚıÙĩØ§ ÚĻÙĬ
ĠÙĦØ§ ÚĨØ§Ø±
ĠØ§Ø³Ù½ÙĬ Ø¨ÙĦØ´ÙħÙĬÙĨÙ½
à´Ł à´µà´°
ĠØ³ÙĨÚ¯ ÛĮ
åŃ¦ ä¼ļ
å¤ º
èħ ¦
ÙĩØ± ÙĨ
ĠÚĨØ± ÚĨ
à´ŀ à´ª
ĠØ¬Ø°Ø¨ Ø§ØªÙĬ
Ġlaen u
ĠØ¢ ÙĨØ¯ÙĬ
Ġaast as
ĠØªØ¨ Øµ
aja id
æ³ Ħ
æ¶ ¯
ĠÙ¾Ø± Ø¨ÙĨØ¯Ú¾
ĠÙħØ´ ÙĪØ±ÙĪ
ĠØŃØ§ÙĦ Ø§Øª
à´¾ .
Ø§Ø¦ Ø´ÙĬ
ĠÙħØ¦ Ù½Ø±Úª
ĠÙ¾Ú© ÙĬÙĨ
Ú©Ú¾ Ø§Úº
Ġvah ele
ĠØ±ÙĪ Ú¯
ĠØ¬Ø§ Ù¾Ø§ÙĨ
K Ãµik
æł ı
s ke
Ġto ime
u ja
åĵ¥ åĵ¥
åĨħ è¡£
ĠÙĦ Úĩ
ĠØ® Ø§Ø¯Ùħ
æĸĩ åŃĹ
å¼Ĥ å¸¸
æĶ¹ åĸĦ
ĠsÃ¼nn ipÃ¤ev
ĠÚªÚĨÙĩ Ø±ÙĬÙĪÙĨ
ĠÙħ ÙĤØª
ah end
ĠØªÛģØ§ ÚĪØ§
ĠÚ©Ú¾ ÚĪ
Ġæ²³ åĮĹ
ĠØ±ÙĪÙħ Ø§ÙĨ
ek as
ä¼¼ ä¹İ
à´µ à´µ
ĠÙ¾Ø± Ø§Ú»ÙĨ
ĠÙºÙĩØ± Ø§Ø¦ÙĬ
ĠæĹ¥ éŁ©
çĻ¼ çı¾
Ġà´¯ à´¥
ĠÙħØ±Øª Ø¶ÙĬ
å¸Ŀ åĽ½
åĭķ æ¼«
ĠÙĤ Ø§Øª
196 5
Ġka it
Ġrah ast
ĠØ¯Úª Ø§ÙĨÙĨ
le id
åķĨ åĬ¡
å½©å½©ç¥¨ ä¸İä½łåĲĮè¡Į
A C
ĠÙħÙĤØµ Ø¯ÙĨ
ä¸Ńå¥ĸ äºĨ
ĠØ® Ø¨Ø±ÙĨ
ĠØ® Ø³
ĠÙĩÙĨØ¯ÙĪ Ø³ØªØ§ÙĨ
ĠÙ½ÙĪ Ø¦Ø±
ĠØ¯ Ú¾ÛĮ
Ġtek st
å¥³ ä¸»
Ġorg an
ä¾ £
Ø¨ ÙĦØ§
ase s
ĠkÃ¼l j
å¾ ¡
çº Į
ĠÙĤØ³ Ø·ÙĨ
èµĦ æľ¬
èĦ Ĥ
it h
ap er
æīĭæľº å®ĺç½ĳ
ĠÙº Ù½ÙĪ
åĤ ¬
ek irja
Ù½ Ø±ÙĬØ¡
it te
ĠtÃ¶Ã¶t ab
ĠÙĪ Ø³Øª
ĠÙĨ Ø§ÙĨØ¡
æĺĨ æĺİ
å®¶ åħ·
æĿ¥ çľĭ
ĠÙĦÙĬ Ù½Ø±
ç±» åŀĭ
ä¸º ä¸»
Ġm asin
ĠØ§ÙĬ Ú¯Ø²
ĠØ§ÙĬ ÚĬÙĪ
ĠÙ¾ Ø°ÙĬØ±
ukog ude
è´¹ çĶ¨
ĠØ³ Ø§Ø¯ÙĬ
ĠØ§ÙĪÙĨ Ø¯
Ġ ä¸ĸçķĮ
Ġarv ates
ĠØ³ÙĪÙħ Ø±
u c
ĠØ§Ø¯ Ø§Ø¦ÛĮ
5 000
ĠS h
ĠÚ¯ÙĩÙĪ ÚĻÙĬ
ĠÚ©Ø´Ùħ ÛĮØ±
ĠpÃµ lv
ĠÚ¯ÚıØ¬ Ø§Ú»ÙĬ
Ø¯ ÙĬØ±
æľī äºĨ
ĠØ¨ ÙĨØ¯Ø§
Ġà´ħ à´¶
è¯ ĳ
Ġma in
ĠØ§Ùº ÙĬÙĨ
ĠÚ³Ø§ÚĻ ÙĩÙĬ
ĠØ§ÛĮ ÚĨ
ing us
æ¶ µ
Ġ èĵĿ
åħĦ å¼Ł
Ûģ Ø§Ø±
à´± à´¸
åĪ¶ å®ļ
ĠU n
Ø³Ù¹ Ø±
éģĩ åĪ°
umise st
Ġhar id
m iste
ĠkÃµ n
é¢ Ĺ
ĠE el
Ġæ ĳ
Ø§ÙĨ Ø¯Ø§
ĠÚĨÙĪ Ù¾
à´µ à´´
ĠØŃ Ø¬Ø±
ä¸Ģ æľ¬éģĵ
ĠØ¬Ú¾ ÙĨÚ¯
Ġ çĶ¨
è£ ½
ĠØ§ÛĮ Ú©
ĠÙħØ§Øª ØŃØª
çĴ ĥ
ar y
ĠÚĦØ§Ú» Ú»
ĠÙħÙĦ ÙĩØ§ÙĬÙĪ
æĹĹ ä¸ĭ
å£ ĩ
ĠØ§Ø³ØªØŃ Øµ
ĠÚ©Ø± ÙĦ
çİ »
ĠØ³ÙĬ Ù½ÙĨ
Ġå¤©å¤©å½©ç¥¨ ä¸Ńå¤§å¥ĸ
ĠK ah
ĠÚ¯Ø± Ø§Ø¦ÙĪÙĨÚĬ
ĠØº ÙĪ
or ter
ĠØ§Ú© ØªÙĪØ¨Ø±
ç§ĳ éĻ¢
æĪ¿ åľ°äº§
ĠÙħØ§Ú» Ú»
ĠØ§Ùº ÙĨ
äºĮ çŃīå¥ĸ
ÚªØ±ÙĬ Ùħ
çĶ· æĢ§
åĲĦ åľ°
å¹ķ åĲİ
ï½ ŀ
Ù» ÙĨ
ĠØ±ÙĨÚ¯ ÙĨ
ĠØ´ ÙħÙĪ
ĠÙ½ Úª
Ġà´ı à´°
al ik
ĠvÃµim ald
å½ĵ åīį
äºĮ ç»´
çĽ¸ æ¯Ķ
æĺ¯ä¸Ģ ç§į
ä¸į åĩº
ĠÙĨÙĬÙĪØ²ÙĬÙĦ ÙĬÙĨÚĬ
Ġà´İ à´³
20 20
19 40
Ø§ÙĤ Ø§ÙĨ
ĠØº Ø§ÙĦØ¨
ĠØ¨ÙĦ Ø§Úª
Ġ åĳ¨
âĢĿ ãĢģâĢľ
ĠØŃÙĪ Ø§ÙĦÛĴ
Ġole v
ri ga
ĠØ³ÙĬÙĪ ÙĩÚ»
æ¸© åº¦
ĠÙ¾Ùº ØªÙĬ
ĠØ§ÙĨ Ø³Ù¾
Ø§ÙĪ ÛĮ
4 97
Ú© ÛĮØ§Úº
ende id
ĠÙĪÚª ÙĬÙĦÙĨ
ĠØ±Ù¾ÙĪØ± Ù½ÙĨ
ĠÚ©Ûģ ÙĨØ¯ÛĴ
ÙĬÙĨÚĬ ÙĦ
å¿ ł
åľ¨ç·ļ è§Ģçľĭ
Ġs Ã¼Ã¼d
æĹ¶ æľŁ
è¯¾ ç¨ĭ
Ġla ad
ĠÙħØ±Ø¶ ÙĬØ¡
Ú¯ ÙĨÚĬØ§
ç»ı å¸¸
ĠØ®ÙĪØ´ ÙĬÙĨ
] ÛĶ
ĠÙĦ Ù¾ÛĮ
ĠØªÙĬØ² ÙĬØ¡
Ø± Ø¯ÙĬ
ĠÙĪØ±Øª ÙĬÙĪÙĨ
Ġpol itse
p ingu
ĠÙ¾Ú¾ ÙĦ
å½© åĲĹ
it es
ĠÙĨÙħ Ø§Ø¦Ø´
ĠØ³Ø±ÙĪ ÙĬ
éĿŀ æ´²
Ø§Ø¦ Ú»ÙĬ
Ġin stit
ĠÙ½ÙĬ ÙĩÙĩ
Ù¾ ÙĬÙĨ
Ġà´¤ à´µà´£
ĠÚıØ³ ÙĪÙĨ
éĢı è§Ĩ
åħ¬åı¸ å®ĺç½ĳ
Ġd em
ĠØ³ÙħØ¬ Ú¾ÙĨ
ĠØ´ÙĬ Ø·Ø§ÙĨ
ĠettevÃµt ete
ĠØ¯ ÚĻÙĪ
ĠÙ¾ Ø®
ĠÙħÙĬ ÚĨÙĨ
è¡¨ æĥħ
æĭ ³
è®¤ çľŁ
ĠØ¨Ø¯ÙĨ Ø§Ùħ
val mist
Ġk i
ĠØ¨ Ø§Ø¹
Ą Ĉ
ĠmÃµ elda
ĄĈ Ą
æĶ¶ è´¹
ĠØ¹ÙħÙĦØ¯Ø± Ø¢ÙħØ¯
ĠØ¨ÙĨØ¯ ÛĮØ§Úº
ĠÙħ ÛĮØ§Úº
ÚĨ ÙĪÚº
ho id
el nud
ĠÙĪÚĮ ÙĨØ¯ÙĬ
l at
Ġsa an
ok ra
ĠØ³ Úĳ
Ø§Ùĩ ÙĬÙĪ
ĠmÃµ Ãµd
èį ·
ĠÙĦÚĳ Ø§Ø¦ÛĮØ§Úº
ĠØ³ÙĪÙĦ ÙĪ
ĠØ¨ÙĨØ¯ ÛĮ
am p
ĠØ® ÙĦÙĪØµ
å¾®ä¿¡ éĽ¶éĴ±
Ġ åħ³äºİ
ĠØ¢ ÚĮØ§Ø±
Ø¨ ÙĬÙĨ
ĠØ¨Ø¦Ø± Ø§Ø¬
Ġsaad ud
ĠØ° ÙĩÙĬÙĨ
ĠØ³ÙĬÚª ÙĨÚĬ
å¤§ å¤ļ
æĽ °
Ġju un
ĠÙģ Ø¹Ø§ÙĦ
Ġ éģ
à´¬ àµ¼
I M
ä¸Ģ åĪĨéĴŁ
m l
Ġm ik
à´¸ à´¸
Ġà´® à´Łà´Ļ
ĠâĢ ĭ
åı« ä»Ģä¹Ī
ĠÙħØŃØ¨ ØªÙĨ
ç¡® å®ļ
çĶ· åŃ©
Ġà´° à´ľ
è®¡åĪĴ ç¾¤
ĠÚ³Ú» Ù¾
å§Ķ ä¼ļ
ĠÙĨØ§Ø¬ Ø§Ø¦Ø²
ĠØ³ÙĩÙĪÙĦ ØªÙĨ
å¤©å¤©å½©ç¥¨ ç½ĳ
ĠÙ¾ÙĦØ§ Ù½
ĠÙĨØ§Ø¸ Ùħ
åĬ¨ ä½ľ
u un
ĠÚªØªØ§Ø¨ ÙĬ
ÙĬÙĨ Ø§Ø±
ĠÚªØ§ÙħÙĬØ§Ø¨ ÙĬØ¡
Ġå¤©å¤©ä¸Ńå½©ç¥¨ APP
éĻ ·
ĠÙģÙĦØ³Ø· ÙĬÙĨ
ĠØ³ÙĬ Ùģ
à´ķ à´Ļ
ĠØ±Ú¾ ÛĮØ§
éĩĩ åıĸ
ĠÙĪÙĤ ØªÙĬ
Ġ =
ĠÙĪ Ú¾
Ġpeamise lt
Ġ å¤«å¦»
ĠÙĩÙĨ Ø±
Ġä¸Ĭæµ· å¤©å¤©
ĠØ´Ûģ Ø²Ø§Ø¯
ĠÚªØ±Ú» Ø§
Ġæķ Ļ
Ġå¤§åıĳ å½©ç¥ŀäºīéľ¸
Ø¬ÙĬ Ù½ÙĦ
ĠÙĤÙĦ Ø¹ÛĴ
s ime
ĠE uroop
Û±Û ²
ĠØ¬Ùħ ÙĦÙĪ
ĠÙħÛģØ§Ø±Ø§Ø¬ Ûģ
A M
uv Ãµ
åįģ åħ«
Ġme istr
é ī
ä¸» å¸Ń
ald iski
ĠÙ¾ÙĪÚĦ Ø§
ØĮ âĢľ
éļ ¨
ä¸ĭ éĻį
ĠØŃÙĤÛĮ ÙĤØª
er t
Ġå¤©å¤©ä¸Ńå½©ç¥¨ åĩºç¥¨
çĶµå½± ä¸ĭè½½
å®īåįĵ çīĪ
è§£ç»ĳ éĵ¶è¡Įåį¡
ĠÃµ lle
ĠÃµ l
åĽ° éļ¾
ĠØ¢ Ú¯ÙĪ
ĠJa an
à´· à´¯à´¤
âĢĿ ØĮ
éĥ½ èĥ½
èĢ Ĺ
æĹł è®º
ĠØª Ø°
av ahet
ĠÚ¯ Ø±ÙĦ
Ġkel la
ĠØ¹ Ø§Ø¦
ĠØ³ÙĨ Ø¬ÙĬØ¯
Ġnim el
ĠÚ¾ Ø²Ø§Ø±
ĠØµÙĨØ¹ ØªÙĬ
ĠÙ¾ÙĪ Ø±ÙĬÙĪÙĨ
åĵªä¸ª å¹³åı°
ĠØ¬Ø§ ÙĬÙĪÙĨ
è¡¨ æ¼Ķ
ĠØ³ÙĬÚ© Ø§Ø±ÙĬ
ĠØ¬Ø§ÙĨ Ø§
ĠØ±Ø§Ø´ Ø¯ÙĬ
ĠÙħÙĨØ¬ ÙĩÙĩ
ĠØ¨ Ú©Ø±
à´¸ à´£
ĠÙ¾ÙĬ Ø§Ø±ÙĪ
ç»Ħ æĪĲ
ĠÚĢ Ú³ÙĪ
ĠØ§Ø³ ÙĦÙħ
ĠÙĩÙĦ ÙĨØ¯Ø§
ĠØ® Ø§ÙĤØ§ÙĨ
Ø§ Ú¯Ø±
Ùħ Ø·
ĠÚªÙĪ ÚĻÙĬ
ĠØ² ÙĬØ±
Ġå¤©å¤© å¼Ģå¥ĸ
ĠÙ¾Ø± Ø§Ø¬
ĠÙ¾ÙĨ ÚĬ
ĠØ¹ Ø¯
æı Ľ
ĠØ¯Ø± Ù»Ø§Ø±
ĠmÃ¼Ã¼ gi
Ġà´¨ à´°
è¢ į
åĽĽ å·Ŀ
Ġ çł´è§£
ĠØ§Ø±Øª ÙĤØ§
ÙĬ ÙĩÙĩ
éł ĺ
ĠÚ³ Ø§Ø¦ÙĬ
éĵ º
à´¤ à´±
ĠØ³Ø§Ùħ ÙĨÛĴ
ide er
Ġkoh v
ĠØ§Ú© Ú¾Ø±
Ù» ÚĻ
ä¸ŃäºĨ å¤§å¥ĸ
Ù¹ Ø§ÙĨ
ÙĦÙĬÚª Ù½Ø±
Ġ ä½ĵèĤ²å½©ç¥¨å¤©å¤©
Ġm od
ĠÙħÙĦ Ø§
av aks
ĠØ¯ Ø§Øº
Ã¤n gu
æİ¨ èĸ¦
èħ °
ĠkÃ¼ p
Ġrah va
ĠØ´ Ø¨Ø¯
ĠÙģØ§Ø· ÙħÙĩ
ĠØ¬ÙĨ ÙĪØ±ÛĮ
åĩ¤ åĩ°
ĠnÃµ ust
Ú¯ Ø§ÙĨ
Ġp ort
å¥½ åĲĹ
ĠØ® Ø±ÛĮ
ĠÂ »
ĠØ§Ú³ ÙĬÙĨ
ĠØ³Ùĩ Ú»ÙĪ
ĠIn ter
ĠØŃ Ø¨ÙĬØ¨
ä¹Ĳ å½©
ĠÙģØ±Ø§Ùĩ ÙħÙĬ
à´° à´ľ
ĠØ§ÙĪ Ø¯
ĠØ¨Ú» Ø¬
ĠØ¨ÙĬÙĨ Úª
ĠÚªØ§Ø±Ø±ÙĪ Ø§ÙĬÙĪÙĨ
Ã¼ nd
k ord
ĠØ§ÙĪØª Ø±ÙĪ
ĠØ³ Ø³ØªÙĬ
ĠÚĬ Ø§Ø¦ÙĪÙĨ
ĠØ¹Ø¨ÙĬØ¯ Ø§ÙĦÙĦÙĩ
ĠÚıÙº Ø§Ø¦ÙĬÙĨ
æ» ļ
ĠÚ© Ø³ÙĬ
Ùħ ØªÙĬ
ĠØ®Ø² Ø§ÙĨÙĬ
ÙĨØ¯ ÙĬØ¡
ĠÚª Ùģ
ĠØ¹ÙħØ§Ø±Øª ÙĪÙĨ
Ġl og
ØŃ ÙĪ
à´ķà´°à´£ à´Ļ
ĠÙģØ±Ø§ ÛģÙħ
æŃ£ çīĪ
Ù ¡
Ġ ä¹ħä¹ħ
Ġter rit
ĠÙĦ Ø§Ù¾
é¾ Ħ
åıĺ æĢģ
åĩº è±¹åŃĲ
ä¸Ģ çº§
çĽ´ å±ŀ
ãĢĤ ï¼Ī
èĲ Ŀ
ĠÚĢ ÙĬÙĦ
ĠÙĪ ÚªÙĬÙ½
ap r
ĠØ§Ø´ Ø§Ø¹Øª
Ġregule er
ĠØŃØ§ØµÙĦ Ø§Øª
åı¸ æľº
Ø§Ø¤ÙĨ ÚĪ
Ġå¤©å¤©ä¸Ńå½©ç¥¨ æľª
ĠÙħÙĬØ±Ù¾ÙĪØ± Ø®Ø§Øµ
åĨľ æ°ĳ
ĠÙĨØ§ÙĤ Ø§Ø¨ÙĦ
Ġp ot
Ġn eli
Ġkasut amine
Ø¯ Ø§ÙĨÙĬ
ĠÚıÙĨ ÚĬ
å¥³äºº çļĦ
ĠØ´ Ø§Ù¾
æ» ´
ĠØ® Ø´Úª
é£İ æµģ
Ġ at
ÙĪ Ø¡
åĲİ æĿ¥
åħįè´¹ èµĦæĸĻå¤§åħ¨
ĠÙĩ Ùĩ
ĠÙĪÚĮ ÙĬÙĪ
ï¿½ |
L a
ĠØ§ ÚĪ
Ġkinn is
ĠÙħÙĪØ¨ Ø§Ø¦ÙĬÙĦ
ĠØ§ÙĨ Ø´
em ini
ĠØªÙĨ Ú¾ÙĨØ¬ÙĬ
Ġes ime
å¦ĩ å¥³
å¹¿ å¤§
ĠÙĦÚ¯ Ø¯Ø§
Ùĩ Øª
ĠÙ¾ÙĨ ÙĩÙĪØ±
åįģ ä¹Ŀ
I C
èĪª ç©º
èŃ¦ å¯Ł
ut avad
ĠR ah
ĠØ¨Ø± Ùĩ
ĠÚ¯Ú¾ÙĪ ÚĻÙĬ
Ø¹ ÙĪØ±
Ġs oet
ĠØ´ Ø¬
ĠO ma
Ø± ÚªÙĬ
æ¢ Ŀ
å¼º åĮĸ
et r
åħ¬ å¸ĥ
é«ĺ åº¦
å¤§ ä¼ļ
ĠÙħÙĪØ³ÙĬ ÙĤÙĬØ¡
ĠÚ¾ ÙĦÙĬ
Ġval itse
çľ ł
ĠÙħØ³ Ø¹ÙĪØ¯
Ġo k
æ³¢ å¤ļ
V Ãµ
em al
ĠÙĦÚ© Ø§ÙĨ
å® °
ĠÚı ÚªØ§Ø±
çī µ
æİĪ æĿĥ
ĠØ´ÙħÙĪ ÙĦÙĬØª
Ġå¤§åıĳå¿«ä¸ī åħ¨å¤©
âĢĿ âĢľ
çŃ ¹
ĠØªØŃÙĤÙĬ ÙĤÙĬ
èİ İ
7 00
à´ľ à´ķ
èĵ ī
ĠØ´Ø±ÙĬ Ø¹Øª
ĠØ¨ Ø±ÙĬ
Ø¹ ÙĦÙĬ
Ġku um
Ġ çŁ³
ĠÙħÙģ ÙĩÙĪÙħ
ĠÙ» ÚªØ±ÙĬ
Ġ é¾Ļ
ul u
Ù¾ Ú¾
Ġth is
d es
ĠØ´ÛģØ± Ø§Úº
ĠØ¯ Ú©
åĲĦ ç±»
æ¢ ¯
à´İ à´®
iv Ãµist
ĠØ®Ø§ÙħÙĪØ´ ÙĬØ¡
ĠÙĩÙĦ ÚªÙĬ
Ġpu ut
ĠØ¢ Ø¬ÙĪ
åį± éĻ©
ĠÙĤØ§Ùģ ÙĦÙĬ
ĠÙĩÙĦ Ø§ÙĨ
éľ į
Ù½ÙĬ ÚĬ
Ġmille l
ĠÙĤÙĦ ÙĨØ¯Ø±
âĢľ ,
åĬł å¤§
ĠØ¶ Ø¨Ø·
ĠØºÙĬØ± Øª
Ġà´¸ à´²
ĠØ§ÙĨÚĬÙĪÙĨÙĬ Ø´ÙĬØ§
èĲ Į
à´Ĺ à´°
ap eal
è£ ı
ĠØ¬ÙĨ Ø³
éĢ Ĩ
ĠÙ¾Ú¾ ÚĨÙĬ
Ġkui v
ĠÙ¾Ú¾ Ø±ÙĬÙĨ
æ´¾å¥ĸ ä¸Ń
ĠÙħÙĦ ÙĩØ§Ø¦ÙĬ
ĠØ±Ù¿ Ø§
Ġartik li
ĠÚª ÚĻÙĬ
ĠØªÙĨ ÙĪÙĬØ±
ĠØŃ ØªÙħÙĬ
ĠkÃ¼ la
ĠKui gi
Ø±Ø§ ÙĪ
ĠØ§Ø¬ ÛĮÛģ
éĢĻ ç¨®
æī© å¤§
l k
ĠÙħØŃ ÙĨ
Ġef ektiiv
jÃ¤Ã¤ nud
Ø´ ØªÙĬ
Ø§Ø¦ Ø¹
ĠÙģØ§Ø¦ Ø¯ÙĬ
ĠØ§ÙĬØ¬ÙĨ Ù½
çĵ ·
ĠØ¨ Ø§Ø·
å¼º è°ĥ
ç¤¾ä¼ļ ä¸»ä¹ī
èµĮ çĲĥ
ç¸ £
Ú³ÙĪ Ùº
å¼Ģ ä»Ģä¹Ī
ĠØªÚª ÚĻ
Ø± Ú»
ĠÙĪ ÚªÙĪ
Ġmuut unud
ĠÚĩ ÙĩÙĬÙĨ
åĩº çīĪ
Ġà´¶ à´¬à´°
Ġç»Īäºİ çŁ¥éģĵ
Ø±ÙĬ Ø±ÙĨ
ĠÚ³Ø§ÙĦÙĩ Ø§Ø¦ÙĬÙĨØ¯ÙĪ
Ġå½©ç¥ŀäºīéľ¸ æĺ¯ä»Ģä¹Ī
ĠØ¨ÙĨ ÙĪ
ãĢģ ãĢĬ
æ± º
ĠØ± Ú»
à´°à´¶ à´¸
Ġoluk ord
ah es
ĠvÃµ etud
ĠvÃµr ra
Ø° Ø§Øª
Ù¾Ø§Ú© Ø³ØªØ§ÙĨ
ĠÚ©Ú¾ ÛĮØª
éĻ ª
ĠÙĪÚª Ø§ÙĦØª
å·¥ä½ľ çļĦ
è Ł
Ġaasta id
Ø´Ùħ Ø§Ø±
à´ķ àµ»
Ġlub atud
àµº à´²
ĠØ¬ÙĨÙĩÙĨ ÚªØ±ÙĬ
ĠÙ¾ÙĪØ±ÙĩÙĬ ØªÙĨ
ĠØ¬ ÙĦÙĬÙĦ
æ² Ī
Ġå½©ç¥ŀäºīéľ¸æĢİä¹Ī çİ©
ĠÚªÙĦ Úª
ĠÙħÛģÛĮÙĨ ÛĴ
Ø§Ø¦ ÙĬÙĨØ¯Ø³
ĠÙ»ÙĬ ÚĻÙĬ
ĠØ¢Ùħ Ø±ÙĬÚª
ÙĬØ¯ Ø§Ø±ÙĨ
åĮħ è£ħ
ĠÚĢÚĦ Ú»
.... ...
ĠÙħ Ú±
ĠØ§Ø´Øª ÙĩØ§Ø±
é¹ °
äºº çī©
ĠÙ¾Ø±ÙĪ Ø§ÙĩÙĩ
ĠØªÚª ÚĻÙĪ
ĠÙ¾ÙĨØ¯Ø± ÙĩÙĨ
ÙĩÙĪ Ø¡
æĢ» è£ģ
Ġtoim uv
ĠÙĤ ÙħÙĬ
ĠÙĪ Úį
ĠÙģÙĦ Ø§Ú»ÙĬ
ig it
lik ke
è´¯ å½»
v il
ç³» çµ±
åħ½ äº¤
äºĮç»´ çłģ
Ġju ul
Ġà´ī à´²
ĠØ±Ø¶ Ùĩ
Ġà´İ à´ª
ĠÚ¯Úı ÙĩÙĩ
ĠØ¬ÙĦ Ø§ÙĪ
Ġæ¸ ħ
æ£® æŀĹ
ĠÙ¾ ØªØ§
ĠSky pe
O R
Ġä¸ŃåĽ½ ç¦ıåĪ©å½©ç¥¨
å°¼æĸ¯ äºº
Ġkir ik
ĠÙ¾ÚĦ Ø§Ú»ÙĬ
éł Ĳ
u um
ĠÛģØªÚ¾ ÙĪÚº
ĠØ¨Ø²Ø± Ú¯ÙĨ
, Â»
åĬ ²
ĠÙħÙĪØ¶ÙĪ Ø¹ÙĨ
ĠN ad
è¡¨ éĿ¢
ÛĮØª Ø§
Ġà´ķà´¥ à´¯
Ġkultuur i
Ġå¤©å¤©ä¸Ńå½©ç¥¨ åħ¬ä¼Ĺåı·
Ġæ ¨
ĠÚ¯Ú¾ Ø±ÙĨ
199 5
ĠØ±Ûģ ÙĨØ¯Ø§
ĠØ²ÙħÙĬÙĨ ÙĨ
Ø¯ÛĮ Ø«
ĠI se
Ġkoh ald
ĠØ¨ÙĬ ÙĩØ§Ø±ÙĬ
ĠÙĪÙĬ ÙĩÙĨ
ØªØŃ Ø±ÙĬÚª
ĠÙĦ ÚĻØ§Ø¦ÙĬ
à´ļ à´µà´°
ĠÛģÙĪ ÛĮØ§Úº
ĠÙĨ Ø§Ø¯Ø±
ĠÚĩ ÚĻÙĪ
ĠÙĩ Ø§Ø¦ÙĬ
Ġà´¸ à´ĸ
ĠÙ½ ÚªØ±Ø§
å¹³ æĸ¹
ĠØ³ Ú±
d is
è¿Ļ æ¬¡
al le
ĠØ§ÙĪ Úı
ĠÙĪØ± Ø³ÙĬ
åľŁ è±Ĩ
ĠÙ¾Ù¿ Ø±ÙĨ
ĠÙħØ³Øª ØŃ
çº ±
Ø¨Ø± Ø¯Ø§Ø±
é Ĳ
å¯ Ĵ
ĠØ¯ Ø±ÙĬØ¡
ĠØ¯Ùĩ ÙĦÙĬØ¡
ç¤¼ åĮħ
ĠÙħ Ø§ÚĻ
Ġkr ist
Ġnah a
ĠjÃ¤Ã¤ da
ÚĬ ÙĬÙħ
Ġl oov
Ġv est
te e
è®© æĪĳ
èį Ĵ
å¹´ ä»£
ĠÙģ ØªÙĪ
ÙĪ Ø´
ĠkÃµ l
ol le
çº¿ å®Ŀå®Ŀ
Ĉć ãĢĤ
Ġinimest ele
åģļ æĦĽ
Ùİ âĢľ
Ø¹ÙĪ Ø±ÙĬ
èĺ Ń
Ø±Ùħ ÙĨ
ĠÙĨØ§Ùħ ÙĪ
ĠØ±ÙĪ ÙĬÙĬ
ç¾İ å°ĳå¥³
ĠØ§ÙĬØ¬ÙĨ Ø³ÙĬ
ĠÙĪØ³ÛĮ Ø¨
ĠØ§Úª ÙĬÙĦ
ĠÙħØ±Øª Ø¨
ĠSelle ks
ĠkÃµrv ale
ĠÙĪÚĥ ÙĪÙĨ
Ġots a
è° Ĳ
æĬĢ èĥ½
Ġå½©ç¥¨ å¤§åıĳå¿«ä¸ī
ĠpÃµ let
ĠÚĩ ÚªÙĬ
ĠØ§ÙĨ ÚĮÙĬ
ĠØ°Ùħ Ûģ
ĠØ¹ Ø¸ÛĮÙħ
å® ł
ĠØ³Ùģ ÙĬØ¯
ĠÙ½ Ø±Úª
Ġå¤§åıĳå¿«ä¸ī æĢİæł·
ç² Ĵ
ĠÚĮØ§ÚĻ ÙĬÙĦ
ĠØ·Ø±Ùģ ÙĪÚº
ma g
ĠØ³ÛĮÙĨ Ù¹ÛĮ
ĠÚª Ø§Úª
ĠM Ãµn
Ø§ÙĨÙĪ Ø§Úº
ĠØ¬Ø² ÛĮØ±ÛĴ
àµģà´Ĥ ;
ĠÙ¹ Ú¾
Ġa p
Ġprof ession
Ġette vÃµte
ĠtÃ¤i elikult
ist el
Ġ åħ«
ĠØ¨ Ø´
ç»Ļ åĲĹ
16 8
Ġrekla am
v en
ĠÙħ ÙħÙĦ
ĠØ¢Ø³ Ù¾Ø§Ø³
ĠÙ¾ÛĮ Øº
ĠØ¢Ø® Ø±Øª
uses se
Ġval ge
ĠÙħÙħÙĨ ÙĪÙĨ
ÛĮØ¯ Ûģ
ĠØ´Ùĩ Ø¯Ø§Ø¯
ĠÙ»ÙĨ Ú¾ÙĬ
ĠJ oh
çļĦ è½¯ä»¶
Ġtas ub
ĠØ¨Ø¦ÙĨÚª Ø§Úª
Ø§ÙĦ ÚĬ
ĠpÃ¤ ikese
è° ĭ
ĠG oogle
Ġç¥ŀ ç®Ĺ
ĠØµØŃ Ø§ÙģØª
ĠÙĬÙĤÙĬÙĨ ÙĨ
ĠÙĤÙĪÙħ ÙĪÙĨ
ĠpÃµhj ust
ĠU r
Ġhar jut
åĢ ¾
ĠÙħÚĥ ÙĬÙĪ
å®ĥ çļĦ
Ġv as
ĠÙĪÙº ÙĨØ¯ÚĻ
ĠÙºØ§ÙĩÙĬ Ø§
Ġ çľŁäºº
Ø¬ Ø³Ù½Ø±ÙĬÙ½
èĢħ çļĦ
Ġå¤§åıĳå¿«ä¸ī çł´è§£
Ġem ot
ĠØ±ÙĪ Ø³ÙĬ
ĠØ§Ø³Ù¾ÙĬ Ø´ÙĦ
ĠÙĪ Ø§Ú©
ĠÙģÙĬØµ ÙĦÙĨ
ØŃ ÙĤÙĬ
ĠØ¬Ø§Ø± Ø¬
çº ¹
èĲ¥ éĶĢ
ĠØ³Úĥ Ø§Ú»ÙĬ
und i
ÙĩØ± Ø§
Ġtas u
ĠÙĪÚª Ú»ÙĬ
19 50
ĠÚĨÛĮØ² Ø§Úº
) ÛĶ
ĠmÃµn da
æĿ¥ æºĲ
ĠØ§Ø³ÙħØ¨ ÙĦÛĮ
Ġå¤§åıĳå¿«ä¸ī èµ°åĬ¿
æŃ£ ç¡®
199 4
z e
à´§ à´¯
ĠØ³Ø³ Ø¦ÙĬ
é£ŀ æľº
v et
ĠØ¬ÙĪ Ø§ÙĨÙĨ
âĢķ âĢķ
å¥ ī
à´ĸ à´ª
ĠÙ¾Ø± ÚĨ
Ġta ust
ĠÙĦ Ø¦ÛĴ
ĠÛģØªÚ¾ ÛĮØ§Ø±
ĠK Ãµige
Ġlu ge
aal sed
av e
ç¢ º
ĠØ¨ Ø§Ø¦ÙĬ
ĠØ³ÙĨ Ùĩ
ĠØ§ÙĦ ÙĩÙĩ
ĠÙĪÙĬØ³ Ù½
å¤© ä½¿
ĠØ§Ú¯ Ø³Øª
ĠE x
Ġpoole st
Ġuu end
Ġå¤©å¤©ä¸Ńå½©ç¥¨ qq
ĠÙ¾Ø§Ø± Ù½ÙĬÙĪÙĨ
å¯ ŀ
ĠÙĪÙ½ ÙĨ
Ġå¾®ä¿¡ ä¸ĬçļĦå¤©å¤©ä¸Ńå½©ç¥¨
ĠÚ¯Ú¾ Ùħ
ÙĦÙĬ Øº
ĠÙĨØ¸ Ø±ÙĬÙĨ
ĠÙĨØ¸ Ø±Ø§ÙĨØ¯Ø§Ø²
ĠØ¨Ø¦ÙĨ ÚĨ
Ġ ç¿
ĠÚ¯ Ø§Ø¯ÙĬØ¡
Ġm obiil
Ø¢ Ø®Ø±
æĺ¯çľŁçļĦ ä¹Ī
Ġå½©ç¥ŀäºīéľ¸ ç½ĳåĿĢ
ä¿Ŀ åģ¥
ĠÙħÙĪØ¬ÙĪØ¯ Ú¯ÙĬØ¡
èı ©
ĠØ§ÙĬÚĬÙĬ Ø´ÙĨ
Ã¼ mp
àµįâĢį âĢĮ
Ġp Ã¼Ã¼d
Ġà´¸ à´¦
à´¶ à´µ
ĠvÃ¤lja st
an ge
Ġise seis
æ³ ģ
ĠÙĪØ§Ø¶ Ø¹
Ø® Ø¨
æº ĸ
Ġtun da
ĠÙģÙĪØ± Ùħ
à´¤ à´¦
ĠØ¹Ùĩ Ø¯ÙĪ
ĠP ra
åĩº åİ»
ĠÚ¾ÙĪÙĨ Ø¯Ø§
Ø§Ùħ Ùĩ
ĠÙĨÛĮ Ø´ÙĨÙĦ
Ġ èģļ
ĠtÃ¤h ist
å³ ¶
ĠÙĨÙĪÙ½ÙĬÙģ ÚªÙĬØ´ÙĨ
ĠÙģØ¶ Ø§
çĪ¶ äº²
ç§ĺ ä¹¦
çļĦ æĸ¹å¼ı
Ġo pt
æ³ ³
ĠØ¬ÛĮ ÚĳØ§
ĠØ³ ÙĤØ±Ø§Ø·
ĠÛģ ÛĮÙĨ
ĠØ´Ùĩ Ø²Ø§Ø¯ÙĬ
ĠØ¬Ø§ Ûģ
Ġ èĭįäºķç©º
Ġå¤©å¤©ä¸Ńå½©ç¥¨ å¤§ç¥ŀæİ¨èįĲ
ĠÙĬÙĪÙĨÙĬÙĪØ±Ø³Ù½ ÙĬÙĨ
ä¸Ģ ä½ĵ
ĠÛĮ Ø§Ø±
ĠÛĮÙĪØ± Ù¾ÛĮ
ĠÙħÙĦ ÛĮØ§
à´Ĺ à´¨
ĠÙĩÚª Ø¬Ùĩ
æĥ³ åĪ°
åıĳ åĬ¨
ĠÚ¯Ú¾ Ú»Ø§
K una
ĠØ§Ùĩ Ø§Ø¦ÙĬ
ĠØ¬Ø± Ø¦Øª
Ġpart ner
èĢģ äºº
æĴ ĳ
è«ĸ å£ĩ
Ø· Ûģ
ĠÚª Ø§Ø¦ÙĬ
ĠÙħ ÛĮÙĨ
ĠÚį Úª
Ø³Ù¾ Ø§ÙĦ
ase id
éĻ ¶
ĠØ´ÙĬ ÚĬÙĪÙĦ
Ġk iv
Ġsuur ed
ĠÙħÙĬ Ù½
ĠÚ¦Ø± Ú»
æĭ Ķ
åĲĪæ³ķ ä¹Ī
Ġkol lekt
iv er
ç¢ ³
ĠÃ¼ kste
æµ ®
ar ve
ĠÙ½ ÙĪØ±ÙĨ
Ġp and
éĢ ĥ
æ¶ī åıĬ
ĠØ¨Ø± ÚªØª
èģĶç³» å®¢æľį
Ġliik me
Ġà´ĩ à´±à´ķ
çłĶç©¶ æīĢ
ĠÙĩÙħ Ø±Ø§
ĠÙħÙĨØµÙĪ Ø¨Ø§
ä¼ ¸
Ġ è¢«
è§£ æ°§
ĠØ§Ø·ÙĦØ§Ø¹ Ø§Øª
Ġsal vest
à´ħ à´®
Ø® Ø¯Ø§
ÚĨÙĬ Ùģ
ÙĨ Ø´Ø§Ûģ
ĠÛģÙĪ Ú©ÛĴ
éĺ³ å¸Ĥ
ĠÚ¦ÙĦ Ø§Ú»ÙĬØ¡
ĠØ®ÙĪØ¨Øµ ÙĪØ±
ĠØ¨ÙĬÙĪ Ø³
ĠØ¹ÙĤÙĬØ¯ ÙĪ
åħ¬ åĳĬ
åģ·æĭį èĩªæĭį
Ù¹ ÙĨÚ¯
ia o
è¯ Ī
à´ķà´°à´£ à´¤
åĨħ è£¤
Ġf irma
çªģ çĦ¶
ĠÙĨÙĬÙĨÚ¯ Ø±ÙĬ
æ²¡ æľīé
Ġja ot
Ġc h
à´°à´® à´£
ĠÚ©ÙĦ ÙĨØ¯ÙĬ
ĠÚĢ Ø±ÙĬØ§
ak at
Ġà´ľà´¨ à´±à´²
T a
ĠÚĩÙĪ ÚªØ±ÙĨ
ĠØ³Ú© ÙĬÙĪ
sioon id
ĠÙĪ ÙĨÚ¯
Ø§Ø± ÙĨÙĬ
ĠÚĬ Ø¬ÙĬÙ½ÙĦ
Ġna ine
à´µà´¸ à´¤
Ġä¸ľ æĸ¹
ĠÙ¾ ØªÙĬ
çģ« å½±
ĠnÃ¤dal al
Ġse lts
åĪ Ĭ
Ġå¤§åıĳå¿«ä¸ī ç½ĳåĿĢ
hn ika
T he
ĠØ±ÙĬÚª Ø§Ø±ÚĬ
å¤©å¤© ä¸Ńå¥ĸ
Ġå¤§åıĳæĹ¶æĹ¶å½© äºĶæĺŁ
Ġmine ma
ĩ į
Ġå¤©å¤©çĪ±å½©ç¥¨ ç½ĳç«Ļ
Ġà´¤ à´Łà´¯
Ø§Ø¦ÛĮ ÙĦÛĮ
ĠØ± Ø§Ø³Øª
ĠØ® Ø§Ùħ
Ã¤r k
å¤©å¤©å¥½ å½©ç¥¨
èĿ ¶
ĠØ¬ÙĩØ§ÙĨ Ú¯ÙĬØ±
TÃ¤ na
å±ħ æ°ĳ
ĠØ§Ø¹Øª Ø²Ø§Ø²
Ġà´ħ à´ľ
ĠØ§Øª Ø³
ĠØ¢Ú± Ø±ÙĬÙĨ
ĠÚĩ Ø±Úª
ĠÙħØ§ÙĬÙĪ Ø³ÙĬ
èµĦ è®¯
ĠØ³Ø§ÙĨ Ú¯ÙĩÚĻ
ĠÙ¾ÙĬØ³ Ø§
ä¸Ģå®ļ è¦ģ
Ġprogramm i
ĠÚıÙĬØ§ Ø±ÙĬÙĪ
çļĦ ä¸»
ĠØ³Ú¯ Ú¾Ø§ÙĨ
ĠÙĩ Úı
åĲĮ æł·
mise d
ÙĬÚª ÙĪ
å¤ĩçĶ¨ ç½ĳåĿĢ
at ist
Ø¦ Ø¬ÙĬ
ĠÚĬ ÙĬÙĦ
ĠØ² ÙĬÙĪØ±
Øª ÙĨÙĩÙĨØ¬ÙĬ
ĠÙº ÙĪ
çĹħ æ¯Ĵ
!! !
éļı æľº
ĠØ¬ÙĪØ§ÙĨ ÙĬØ¡
ÙĪ Ø¨ÛĮ
oori um
ĠØ³Ú³ ÙĪØ±Ø§
à´³ à´Ļ
æĴ ¤
ĠJ umala
ØŁ ØŁ
æ¨ ª
ä¾ĭ å¦Ĥ
ĠØ¬ÛĮÙĨ ÛĴ
mise le
ä¸Ĭ ä¸ĭ
å® ®
ĠØ´ Ø§Ø±
an ce
æĹ¶ å°ļ
Ġka uba
Ġsajand i
ĠÙħ Ø¯ÙĬ
ed u
aast ane
j ekti
Ġka ua
19 77
åįģ ä¸ĩ
Ġel lu
ĠØ¨Ø±Ø· Ø§ÙĨÙĬÙĩ
Ġn ut
e x
åľ° éĵģ
ĠÚ¯Ú¾ ÚĻÙĬ
ĠÚĮØ± Ú»ÙĬ
äº¦ èı²
è§£ éĻ¤
ĠØ³Ø§ ÚįØ§
ĠÙ»ÚĮ Ø§Ø¦ÙĬÙĨØ¯ÙĬ
ĠØ³ÚĨ Ø§
ĠØ¨Ø§Ø¯Ø´ Ø§ÙĩÙĨ
ĠÙĩÙĬÙĦ Ù¿
ÙħÙĪÙĨ Ú©ÙĬ
ĠÙĩÙĬ ÚıÙĬ
ĠÚª Ù½ÙĬ
é¦ĸ æ¬¡
èı Į
ĠÙĤ ÙĪÙĦ
Ġl Ã¼
èĢ ¶
ĠÚ¯Ø° Ø§Ø±
st rukt
ĠÙ¾ÚĻ ÙĩÙĨØ¯ÙĬ
ĠæĪĳ åľ¨
Ġmaks im
ĠjÃ¤ tta
Ġval itud
æķ° éĩı
Ġå½©ç¥ŀäºīéľ¸ è½¯ä»¶
æīĭ æ®µ
åĲĪ æĪĲ
at ava
ä¸Ģ å¤ľ
ĠÙ¾Ø¦ ÛĮØ§
åĬŀ çĲĨ
10 1
Ġà´ĺ à´Ł
åĩłçĤ¹ å¼Ģå¥ĸ
sp ir
æ¯ı å¹´
Ġå½©ç¥ŀäºīéľ¸æĢİä¹Ī ä¸ĭè½½
ĠØ¯ ÙĨÚ¯
Ġkonkre et
Ġå¤§åıĳæĹ¶æĹ¶å½© è½¯ä»¶
Ġait avad
ĠØ·Ø¨ ÙĤÙĨ
ĠÙĨÚ¾ Ø§ÙĬØª
Ġim p
Ġp ah
ĠÙħÙĬ Ø¬Ø±
ĠÚ¯ ÛĮØ§Úº
ĠØŃÙħ ÙĦÛĴ
ĠÙħØ§Ø± ÛĮØ§
ĠÙĪ ØµÙģ
ĠØ³ÛĮ Ú©
ĠØ§Ø³Úª Ø±ÙĬÙĨ
ĠÚ©Ø±Ø¯ Ø§Ø±
ÙĪ ÙĬÙĦ
è¥¿ äºļ
ĠØ¨ÙĬÙĪ Ø±ÙĪ
çĸ¯ çĭĤ
å½ ¼
is h
Ġenam asti
ĠÙ¾ÙĦØ§ÙĨ Ù½
ĠØ±Ø§Ø¨ Ø·Ø§
å¹ ½
ĠØ²ÙĨ Ø¬ÙĬ
ĠØ§ÙĬ Ù¾
ha ig
h ulgas
ĠE ks
ĠØ³ÙĬÙħ ÙĬÙĨØ§Ø±
ĠØ³ÙĨÚ¯ ÙĬÙĨ
ĠØ¬ÙĩÙĬ ÚĻÙĪ
ĠÚ© Øª
ĠÚıÙĪ ÚªØ±ÙĬ
Ø§Ùħ Ø§ÙĨ
å¯Ĥ å¯ŀ
in as
ç®Ģ ä»ĭ
ĠØ¹ÙĤÙĬØ¯ Øª
ĠÚ© Ø§Ø¦ÙĬÙĨØ¯Ø§
ãĥ »
ĠÚĨ Ù½ÙĪ
è± Ĳ
æĸĹ çīĽ
åĪ© çĽĬ
Ġer ak
æ¤į çī©
194 8
èĩª æ²»
ĠÙĪÙĬ ÙĩØ§Ø±ÙĬ
àµį -
ä»İ èĢĮ
ĠÚªÙĩ ÚĻÙĬÙĪÙĨ
Ġ æĺĵ
ĠmÃµ te
od u
ĠØ³ÙĨÚ¯Ú¾ Ø§Ø±
ĠÚı Ø§Úª
Ġm udel
imise st
Ġoma k
Ġmen et
Ġvast upid
oo ks
Ø± Ûģ
Ã¼ g
ip r
ĠÚ¾ Ùħ
ust use
èµ ĸ
æī£ æī£
E uroopa
Ġ åĬ¨æ¼«
éĿĴ æĺ¥
å®¶ å±ħ
èĢģ å¸«
à´ķ à´¥
æµ· å¤ĸ
ĠØ§Ø¨Øª Ø¯Ø§
à´¤ à´ķà´¤
ĠØ¢Ù¿ Øª
Ġ å¦Īå¦Ī
ÙĩÙĬ Ø§Ø±
Ġä¸ĭè½½ å½©ç¥ŀäºīéľ¸
ç¨ ¿
Ġmill ine
ĠØ±ÙĩÙĨ Ø¯ÙĬÙĪÙĨ
ĠÙĪØ³ Ø·
éĢģ å½©éĩĳ
Ġ ä¸Ģä¸ª
ĠO r
çĶ £
èĢģ èĢħ
ä¹³ å¤´
ĠØŃ ÙģÙĬØ¸
ĠÚªÙĪ ÚĻØ§
èĪ °
Ġkirjut as
ĠØ³ÛĮ Ø¯
æ¶ Ĥ
ĠØ¬ÙĪ ÚĻÙĬÙĪ
æĢ§ å¥´
Ġà´ª à´²à´ª
ĠØ¹Ø§Ø¦ Ø´Ùĩ
ĠØ³Ø¬ Ø§Ú³
ĠÙĩÙģ ØªÙĨ
ĠÚ¯Ú¾ Ø±ÙĬ
ĠØ³Ø±Ø¯ Ø§Ø±ÙĨ
ĠØªØ¨Ø¯ÙĬ ÙĦÙĬØ¡
ĠÚ©Ø±Ø¯ Ûģ
ãĢģ ï¿½
à´ĺ à´¤
Ġsuv el
ĠÚªÙĦ ÙĩÙĬ
à´ĺà´Łà´¨ à´ķà´³
å¿ §
ur id
Øª Ø§Ø±ÙĬØ®
ĠÚ© ÛĮÙĨ
æľĪ å¤©
em ber
d v
ĠØ§ÚĨ ÛĮ
Ġrav i
ĠØ³ØªÙħ Ø¨Ø±
Ġ èĩªæĭį
å° ĺ
æĮĤ çīĮ
ĠØªÙĩØ° ÙĬ
ĠØ²ÚªÙĪ Ø§Øª
ĠØ§ÛĮ Ù¾ÙĦÛĮ
ĠØ§Øµ ØºØ±
Ø§Ø± Ø«
ĠÙ¾ÚĨÚ¾ ÙĪÚº
V Ã¤
ĠÛģÙĪÙĨ Ø§
k Ãµik
o x
æľ¬ æ¬¡
ĠÙħØ¹Ø§Ø´ Ø±ÙĪ
ĠØ¨ÙĬÙĪÙĤÙĪ Ùģ
éĤª æģ¶
ÙĩÙĪ Ø±ÙĬ
ĠØ´Ùģ ÙĤØª
éĴ »
Ø±ÙĪ Ø¦
ĠÚ© Ø§Ø¦ÙĬÙĨØ¯ÙĪ
197 2
å°± èĥ½
ĠØ± Ø§Ú»Ø§
ĠÚ¯ ÙĬØ§ÙĨ
èĽ ĩ
å¿ĥ çļĦ
Ġà´ª à´ļ
Ø§Ø¨ ÙĨ
Ġ ä¿¡
ä¹Ł ä¼ļ
ĠÙĩÙĨØ¯Ø³ØªØ§ÙĨ ÙĬ
ĠØ¬ÙĨ ÙĪÙĨ
Ġ åı°
Ø³ Ùĩ
Ġå¤©å¤©ä¸Ńå½©ç¥¨ å½©éĩĳ
Øµ Ø§ØŃØ¨
ĠÚĨÙĪÙĨ ÚĬÙĬ
éĸ ±
Ġsa ar
88 88
ĠÚ© Ø§ØªÙĨ
Ġajal oo
ĠØ§Ø³ØªÙĤ Ø¨Ø§ÙĦ
Ú¯ÙĬ Ø²
Ġmeet od
ĠÚĩØ§ÙĨ ÙĬÙĦ
ĠÙ¾ Ø¨ÙĦÙĬ
Ø¹ Ø²ÙĬØ²
à´Ĺ à´²
ĠÙ¾Ø§Ú» ÙħØ±
à´ķà´£ à´ķ
Ø¹ÙĪ Ø§ÙħÙĬ
ĠÚ³Ø§ÙĦÚ¾ ÙĬÙĪÙĨ
ãĢĤ ,
ĠØ±ÙĪ Ø§ÙĨÙĬ
ĠÙ¾ØªÚ¾ Ø±Ø§Úº
ĠØ¬ÙĪ Ú³
Ġpuud ub
ĠØ² ÙĩØ±ÙĬ
O n
å¹³åı° åĲĹ
ĠÙĦØ§Ûģ ÙĪØ±
éĩį æĸ°
ĠÙ½ ÙĬÙĪ
åģļ åĪ°
Ġg l
æ¹ĸ åįĹ
ĠØ¨ÙĨØ¯ Ø´
éĤĦ æĺ¯
ĠÙ½ÙĪ Ø¦ÙĨÙ½ÙĬ
198 5
ÙĪ Ú©
ĠÚ©ÛĮ ÙĨØ¯ÛĴ
44 4
Ø´ Ø§Ø¹
ĠØ± Ø³ÙĪ
ĠØ¸ ÙĦ
ĠÙ¾Ø± Ú©
ug une
198 6
Ġkann at
Ù¹Ø± ÛĮØ§
ĠØ¹ ÙĤÛĮ
Ġse ks
Ġå¤©å¤©ä¹Ĳ è´Ńå½©ç¥¨
à´¶ à´°
è¦Ĩ çĽĸ
Ġt uvast
ä¹ Ļ
ĠM ida
éĢĢ åĩº
ma il
ØµÙĪ ØµÙĬ
ĠÙĩ Ø§ÙĦÙĨ
Ġà´¤ à´°à´¤
ĠØ¹Ø¨Ø¯Ø§ÙĦ ÙĤ
àµį )
ĠP Ã¤rast
Ġkeht ib
ĠÚªÙĨ Ø§Ø±ÙĨ
ĠÙĩÙĪ Ø§Ø¦ÙĨ
ĠØ´ Ø§ÙĦ
Ù½Ø± Ø²
Ø§Ø¨ Ø±ÙĪ
çµ ķ
Ġå¤§åıĳæĹ¶æĹ¶å½©æĺ¯ åĽ½å®¶
ĠØ´Ø§ ÙĩÙĪ
ĠØ§ÙģØ² Ø§Ø¦ÙĬ
ĠØªÙĪ Ø¬ÙĩÙĩ
ĠN o
ĠØ¬ÙĩÙĬ ÚĻÙĬ
v es
Ġd i
æ¯Ķ è¼ĥ
Ãµ li
ĠØ¬Ùħ ÙĬÙĦ
è¸ ı
ĠtÃµenÃ¤ ol
èī²æĥħ ç½ĳ
Ġtood ud
çļĦ è§Ĩé¢ĳ
Ġh ob
ĠÙħØŃ Ø³ÙĨ
çģ Į
Ġpeaks id
ĠØ§ ÚĻ
ĠÙħÙĪÚªÙĦ Ø§Ø¦ÙĬ
ĠÚı ÙĩØ±
ĠÙĨ Ø±ÙĪØ§Ø±
ĠØ§Ù½ Ø§Ø±ÙĨÙĬ
ĠÙĤÙħÙĬ Øµ
ĠÙ¾ÙĬ ÚĻØ§
åģļçĪ± è§Ĩé¢ĳ
ĠÚª ØªÙĬ
ĠÙħÙĩ Ø§Ú³
é»ĥ èī²
ĠÙº Ø§Ú¾
its a
çļĦ å¤©å¤©
å·¥ åİĤ
å¹¼ åĦ¿
c i
äº¬ çĥŃ
ÙĦÙĪ ÛĮ
çŁ¥ åĲį
Ġå¾®ä¿¡ ä¸Ĭ
å¾· åĽ½
ĠØ±ÛĮØ§Ø³Øª Ø§Úº
ĠjÃ¤Ã¤ vad
ĠÚĪ Ø±
ĠÙħØµÙĨÙĪ Ø¹Ø§Øª
Ġed as
ĠÙħÙĨØ³ÙĪ Ø¨
Ġ ï¼Ī
Ġà´ľ à´¨à´¤
Ġà´ľ à´¸
éĭ Ĵ
èŃ ĺ
ĠK o
æ¢ ¨
æ¨ Ĭ
ĠØ§Ø¯ Ú¾
ĠÙĪÛĮ ÙĦÛģ
æĤ¨ çļĦ
ĠÚĨÙĨÚ¯ ÛĴ
ĠØ§ Ù¹Ú¾
åĽĽ æŁ±é¢Ħæµĭ
Ø¹Ø¨ Ø¯Ø§ÙĦ
ĠS er
po liit
Ġk utse
ĠpÃµh ine
æļĤåģľ éĶĢåĶ®
å£ ®
Ù¾ÙĪ Øª
ĠÙĬÙĪÙĨ Ø§ÙĨÙĬ
Ġsam m
ĠÙ¾Ø± Ø§Ø¦ÙĬÙĪ
Ġa us
ĠÚĩÙĪ Ù½
Ġelekt ri
Ġrav im
ĠÙ¾Ø¨ÙĦÙĬ ÚªÙĬØ´ÙĨ
ĠØ³ÙħØ¬ ÙĩÙĨØ¯Ø§
ĠØ± ÛĮÚ©
ÙĨ Ø¦ÙĬÙĨ
ĠÙħØ« ÙĦ
æ± ¤
ĠØ§ÙĦÙĬÚª Ù½Ø±
Ġ èĭı
ÚĮ Ú»
åģ ¿
ĠÚ¯ÙĩÙ½ ÙĬÙĨ
Ø±ÙĪ Ø³
ĠØ¨ÙĨÚ¯ ÙĦÙĬ
ĠØ¬ ÚĻÙĬÙĦ
Ã¶ id
vÃµ im
Ġda ily
Ġesi le
å·ŀ å¤§åıĳ
çĶ¨ äºĨ
Ø¹ ÙħÙĦ
Ġà´Ĩ à´¹
ĠØµØ§ØŃØ¨ ÙĨ
33 3
æľ¬ èº«
ĠØ´ ÙĬÙĪ
éħį ç½®
ĠnÃ¤ inud
ĠØ¨ Ú¾ÙĪ
ĠÚ¯ Ø²
Ġkon s
ase ks
æĪĳ æĥ³
ĠÙĩÙħØ¯ Ø±Ø¯
åħ¨ è£¸
ĠØ§ÙĪÙĨ ÛģÛĮÚº
ĠÃ¼ ha
å¤§ å¸Ī
Ġkasut amiseks
ĠÚªØ§ÙħÙĬ Ù½ÙĬ
à´ķà´¤ à´¯
198 4
Ø´ ÙħÙĪ
Ġ å¹²
Ġlemm ik
ĠØ±ÙĬØ§Ø³ ØªÙĬ
æĢ Ĵ
è£ Ĥ
9 00
ĠÚªÙĦ ÙĩÙĨ
pr oj
Ġal gab
ĠØ³ ØªÚ¾
Ø¦ÙĬ Ù½
ĠÛģÙĪ Ø¬Ø§ÙĨ
ĠÙĪ ÚĪÛĮØ§Úº
çļĦ å¤©å¤©å½©ç¥¨
çĨŁ å¦ĩ
ĠØ®Ùħ ÙĬØ³
ĠÙħ ÙĬØ³
ĠÙĨ ÛĮÙĨ
æī «
ĠÙĨØ§Ùħ ÙĬØ§Ø±ÙĬ
Ġ z
19 20
ĠÙģ ÙĩÙĬÙħ
ĠÙĤØ¨ ÙĬÙĦÙĨ
ä½ı æĪ¿
ä¸² ä¸Ģ
éľ ŀ
ĠÙ½ Ø§ÙĨ
ĠÚªØ§Ùħ ÙĪØ±ÙĨ
ĠÚĮÙĨ ÚĮÙĪ
Ġà´ħà´µ àµ¾
Ø§ ÚĨ
ĠÙĪÙº Ø§ÙĨ
ĠÙĪØ± Ø§Ø¦ÙĬ
ĠÙħØ° Ø§ÙĤ
ĠV ir
ĠÙ¾ÙĪØ± Ù½
Ġà´ĵ à´£
ĠÙħØ³ÙĪ Ø§ÚĻ
ĠÙ»ÙĪ ÚĻ
æ¸ħ æ¥ļ
åĨ° åĨ°
ĠvÃ¤r vi
197 3
Ġà´® à´´
è¿ħ éĢŁ
Ġsead us
èº« ä¸Ĭ
Ġå¤©å¤©ä¸Ńå½©ç¥¨ åľ¨åĵª
à´² à´§
èı Ĭ
è¯Ħ è®º
Ġ åħįè²»
ĠØ³ÙĬÙĨ Ù½
M ul
Ġots use
Ġr oll
çļĦ å¥³
ks a
rg ust
eskkon na
ĠØ§ÙĬÚª Ù½
ĠØ¬ÙĪ ÚĻÙĬÙĦ
ĠØ§ÙĬÚĬÙĬ Ø´ÙĨÙĦ
ĠsÃ¤il it
ÙĤ Ø§Ø¦ÙĬ
ĠØ³Ø§ Ú¯Ø±
k oht
ĠÙ¾ÙĪØ± ÙĩØ¦ÙĬ
ĠÃµpp e
ĠØ¹Ø§Ø± Ø¶ÙĬ
ĠK es
ĠØ§Ø¯Ø§ ÚªØ§Ø±ÙĬ
ĠÚªØ§Ø±ÙĪ Ø¨Ø§Ø±ÙĬ
ĠØ³Ø® ØªÙĬ
ĠÙ½Ø±ÙĬÙĨ ÙĨÚ¯
ĠÚĨÙĬ Ø§Ø¦ÙĪÙĨ
ĠØ¨Ø¯ ØªØ±ÙĬÙĨ
ĠN ende
å½©ç¥¨ å¼Ģå¥ĸ
ĠÙĤØ§Øª ÙĦÙĨ
b us
m er
ist use
èī²æĥħ çĶµå½±
ĠØ¯Ø±ÙĪØ§Ø² Ø§
ä¸ĭ åįĪ
çľĭ çīĩ
ĠÚĨÚĻÙĩÙĬ ÙĦ
iv aat
ĠÙĨÙĨÚį ÙĬÙĪÙĨ
è¿ĳ æĹ¥
Ġ ga
è½¦ è¾Ĩ
Ġå½©ç¥ŀäºīéľ¸éĤĢè¯·çłģ æĢİä¹Ī
ĠÚªØ§Ø± ÙĪÙĨ
ç» ª
å¯ ĵ
ĠØ¨Ø± Øµ
ĠÙĨ Ø´ÙĬ
ĠØ´ÙĬ Ø¯ÙĬ
Ġka p
çļĦ æĥħ
à´ľ à´¯à´¨
èĥĮ æĻ¯
ĠØ¢Ø® Ø±ÛĮ
ĠÙħØ¹Øª Ø¨Ø±
ï¿½ ^
ĠØ¯Ø± Ø¬
est iv
ĠÙĪ Ø§Ø¯
ĠØ¢ Ø°
ĠØ¬ÙĪÙĦ Ø§Ø¦ÛĮ
ĠÚªÚ¾ ÚĻÙĬ
Ġ åĮĹ
Ġkasut ades
ĠÚĨØ¦ÙĦÙĬÙĨ Ø¬
å´ ĩ
àµ½ à´¹
ä¼ł æĴŃ
ĠØŃ Ø±Ùģ
ĠsÃ¼steem i
æĹ ģ
ĠkÃ¼ ps
ä¸į è¶³
ĠØ¯ Ø§Ø¯ÙĨ
ĠmÃµist a
na asi
æľ¬ äºº
Ġ å¸Ĥ
èģ ½
Ġtegev ust
ĠØ¬ Ø³ÙĨ
åĲ Ĳ
â Ĥ¬
ĠØ´Ùĩ Ø²Ø§Ø¯
ĠÙĤØµ ÙĪØ±
Ġà´Ĵ à´³
Ø¨Ø§Ø¯ ÙĦ
Ù¾ÙĬ Ù¾ÙĦØ²
Ø¹ Ø±Ø¨
Ø§Ø¦ Ùģ
ĠØ¢Ø¨Ù¾ Ø§Ø´ÙĬ
Ø¯ÙĪ Ø²
Ġkomm entaar
éģ ¥
ĠØ¨ÙĬ Ø´ÙħØ§Ø±
ĠÚª Ø§ÙĩÙĬ
ĠÙ½ ÚªØ±ÙĬ
é«ĺ éĽĦ
ĠÙĪØ³ ÙĬÙħ
ĠS oov
M M
åĲ¯ åĬ¨
ĠØ§ Ø²Ø§Ø¯
çļĦ å®ĺç½ĳ
Ø§Ø¦ ÙĬÙĨØ¯ÙĬÙĪÙĨ
sem alt
èŀį åĲĪ
ĠÚĨ Ù½ÙĬ
ĠØ¹ Ø³
æĿŃ å·ŀ
ĠÙħØªØŃ Ø±Úª
ĠÙĨ ÙĨÚ¯
à´ħ à´¨
Ġleid nud
ĠØ¹ Ø§Ø¬
Ġå¤©å¤©ä¸Ńå½©ç¥¨ æĻĴåįķ
ĠC o
Ġ å¤ĸåĽ½
ĠÚĨ Ø§Ù¾
ĠÙ½ Ùħ
å« Į
ĠÙħØ´ ÙĤ
195 6
i er
Ġk ategoori
é¢ĳ éģĵ
Ù¾Ùĩ Ø±ÙĬÙĨ
ç¥ Ŀ
äºº ä¸º
à´ª à´¸
Ġh irm
ur n
ä¸» åĬ¨
ĠÚ©Ú¾ÛĮÚĪ Ø§Úº
ĠØ®Ø§Øª ÙĪÙĨ
æĸ° æĹ¶ä»£
ÙĩÙĬ Ø±
à´¤ à´¸
èĭ± æĸĩ
éī ´
æ³¢å¤ļ éĩİ
Ġà´ª à´´à´¯
Ġon line
T A
åĩ Ń
ĠØ® ØµÙĪØµÙĬ
Ġl k
åıį åºĶ
Ġkod an
èĢģ å¹´
åħ¨ æ°ĳ
à´¾ âĢĭâĢĭâĢĭ
jÃµ ud
ÙĨ ÙĬÙĪ
çļĦ åľ°æĸ¹
ĠÙĨØ§Ø§Ùĩ ÙĦÙĬ
Ø² Ùĩ
æĽ´ å¥½
ĠÙ¾ÚĨ Ú¾ÛĴ
Ġlinn as
p all
Ġà´µ à´£
ĠÙĩÙħØ¯ Ø±Ø¯ÙĬ
ĠØ¨ ÙĬÚªØ§Ø±
Ġà´ĩ à´µà´¯
éªĹå±Ģ æıŃç§ĺ
ĠÙ¾Ú© ÚĻØ¬ÙĬ
ĠÙĤØµ Ø§
ĠØ³Øª ÙĬÙĨ
ĠÙĨ ÚªÙĬ
ĠØŃ ÙĪÙĬ
11 4
ĠÚĩ Ø§Ù¾
ist i
å¤ªéĺ³ åŁİ
ĠØ¨ÙĬ Ø²Ø§Ø±
ĠÚ¯ÙĪ Ø±ÙĬ
ĠÙħÙĩ Ø§Ø±Øª
è³ĩ æºĲ
Ġsir aj
ĠÚĢ ÚĻ
äº¤ æį¢
Ġnor maal
% ,
æĮ ĸ
av Ãµt
ĠÙģÙĦØ³ ÙģÙĪ
ĠÙĪÙĬÚĻ Ùĩ
ĠÙ¾Ø± Ø§Ø¦ÙĬ
ĠØ±Ø§Ú³ ÙĬ
çļĦ åīį
Ġà´ķ à´Łà´²
éĽ ĸ
à´¦ à´Ĺ
ĠØ¯Ø§ÙĨ ÙĩÙĪÙĨ
ĠØ§ÙĪ Ú¾ÙĬÙĨ
è¿ ģ
ĠÙ¿ Ø§ÙĨÙĪ
Ġå¤©å¤©ä¸Ńå½©ç¥¨æĺ¯ ä¸įæĺ¯
r ast
Ġk ant
ĠÙĨ Ø§Ø±ÙĬÙĦ
åĵĪ åĵĪ
äºº å¤§
è°ģä¸İ äºīéĶĭ
æıĲ ä¸įäºĨ
u ht
åħ¬ åħ¬
çĻ Į
æĮ º
aa a
ĠÙ¾ÙĩÙĦÙĪ Ø§ÙĨÙĨ
Ø§ÙĨ Ú¯Ø±
Ġme el
Ġt ore
ĠtÃµ i
ÙĤØ§ÙĨÙĪÙĨ ÙĬ
198 9
ĠÙħØ±Ø¯ Ùħ
çĶµè¯Ŀ åı·çłģ
Ġäººäºº ä¸Ńå½©ç¥¨
ĠØ¶ÙĦ Ø¹ÙĪ
uud i
Úª ÙĪÙĦ
ĠÙĦ Ø¹ÙĨ
ĠØ¬Ø§ÙĨ Ø¯Ø§Ø±
æĳ ĺ
ĠÙ¾ÚĳÚ¾ Ø§Ø¦ÛĮ
meer ika
ĠÚ³ Ø¬ÙĩÙĬ
ĠÙ½ÙĬ ÚĨØ±
Ù¾Ø±ÙĬ Ø³
ĠÙĤØ¯ Ø±ÙĨ
Ġkr ooni
ĠÙĩØ±ÙĪ ÚĢØ±ÙĪ
æĥ³ çĿĢ
ĠØ¨ Ø±ÛĮ
ĠØ±Ø¬ ØŃØ§ÙĨ
ĠÙħÙĪ ÙħÙĦ
éĢļ çĶ¨
ĠØ¨ÚĨ ÙĬÙĦ
ĠhÃ¤ ir
æĢ ĸ
ĠÚıÙĬÙĨ ÙĩÙĪÙĨ
çĬ¯ ç½ª
æ³ķ éĻ¢
æħĪ ç¦§
Ø³ ÙĬÙĪÙĨ
ĠÙĬ ØªÙĬ
éĥ¨ ç½²
Ġelektr oon
Ġfilm i
ĠÙ¾ÛģØ§ Úĳ
av Ãµ
äºº ç±»
Ġ ï¿½
ĠØ³ÙĬÚª Ø´ÙĨ
Ã¼m naasi
ut u
è¯Ń è¨Ģ
ĠÚ¾ Ø¦
åĩĨ ç¡®
Ġlis and
Ġin t
ĠØ± Ø§ØŃØª
èĴ ²
çµ Ĥ
ut use
ØªÙħ Ø§Ùħ
Ġsar na
y a
æľī æīĢ
éĩį è§Ĩ
aja s
ĠØ§Ú¾ ÚĻØ§
Ġm un
Ġp at
Ġand met
àµį ..
Ġteise l
ĠØ¹Ø¨Ø¯Ø§ÙĦ Ø±ØŃÙħØ§ÙĨ
Ġst andard
Ø±Ø§ ÙĪÙĦÙ¾ÙĨÚĬÙĬ
T V
S uur
ĠØ¢Ú¯ Ø§ÙĩÙĬ
Ã Ĺ
ĠÚ¯ Ø±ÙĬÙĨ
ĠÙħÙĦ Ø²
ĠØ¨Ø§ÙĤØ§Ø¹ Ø¯Ùĩ
Ġsu gu
ĠØ¨ÙĬ Ù½
ĠÙħÙĪÙĤ Ø¹Ø§
Ø®ÙĪ Ø¯
ĠØ§Úı Ø§ÙĪØª
ÚĬÙĨ Ù½
à´Ĺ à´ª
ĠØ¨ÚĨ ÙĨ
ĠÙĪÙĦØ§ ÙĬØª
ĠPr ants
æĢ§ çĶŁæ´»
Ġra ud
ĠØ¢ Ú³Ø§
Ø§ÙĦ ÙĬÚªØ´ÙĨ
ĠØ§Ø¯Ø§Ø¦ÛĮ Ú¯ÛĮ
â Ĺ
éĿ¢ çļĦ
Ø§Ø¦ Ø±ÙĬ
çĪ °
Ġvaja b
å¤© ç©ºå½©ç¥¨
ĠØ¢ÙģÙĬØ³ ÙĨ
it el
ä»Ĭ æĻļ
ĠØªÙĤ Ø¯ÙĬØ±
ĠÙģ ÙĬÚªÙ½
Ð° Ð
ĠÙ¿Úª Ø¬ÙĬ
Ø¢Ùħ Ø±ÙĬÚªØ§
çĻ½ å°ıå§Ĳ
æĪĳ è¦ģ
å¡ĳ æĸĻ
Ø® ÙĦØ§Ùģ
ĠÚ¯ ÙħØ§ÙĨ
ja n
æ» ¤
ĠØ¨ ÚĳÛĴ
ä½¿ å¾Ĺ
ĠØ¢Ø²Ø§Ø¯ ÛĮ
ĠØ³Ø±Ùħ Ø³Øª
ĠÛģ Ø§Ø¦ÛĮ
ÙĪ Ù¹
Ø± Ùĩ
ĠØ§Ù¾ Úĳ
ĠÚĮ Ø§ØªÙĪ
ĠØ§Ú¯ ÙĦÛĴ
ĠÚ¾ ÙħÙĬ
Ã¤Ã¤ n
ĠÙħ Ø±ÛĮ
ĠØ§ÙĨ Ø³
ro id
re id
ĠO s
ĠÚª Ø§Ø³Ù½
Ġ æĢİä¹Īæł·
li ve
æĸ¹éĿ¢ çļĦ
et us
äº§ æĿĥ
Ġselg it
à´Ł à´£
Ø§Ø¦ ÙĬÙĨØ¯ÚĻÙĨ
Ġà´ī à´°
ä¸įä¸Ń åıį
ĠØ³ÙĨØ¯ Ø±
åıĮ æĸ¹
ĠØ³ÙĦÙĬ ÙħØ§ÙĨ
ĠÙĨØµÙĬ ØŃØª
çĽ ¾
ĠM an
Ġ å®Ŀ
Ġ èĤ¡
em ale
ĠÙĪØ§Ø± ÚĬ
ĠÙħØ¹Ø§Ùĩ Ø¯ÙĪ
ĠÚªÙĪ Øª
ä¸į éģİ
ĠÙħØ´Ø§Ùĩ Ø¯ÙĬ
ĠØ§Ø± Ø§Ø¯ÙĬ
ä¸Ģ ä½į
ĠÙħÙĨÙĩÙĨ Ø¬ÙĪÙĨ
Ġann avad
ĠÚį ÙĬØ±
ç· Ĵ
ĠØ®Ø§Ø· Ø±ÙĬ
ĠÙĦØ§Ø¦Ø¨Ø±ÙĬ Ø±ÙĬ
è¿ĺæĺ¯ åģĩçļĦ
ĠØ¬ÙĬØ¦ Ø±ÙĬ
ĠÚªØ± Ø§Ùħ
ĠØ¬Ø°Ø¨ Ø§Øª
çīĩ æ®µ
ĠÙħÚĻ ÙĩÙĩ
ĠÙĪ Ø§Úª
Ø² Ø§Ø¯ÙĪ
ØµÙĪ Ø¯
ĠÙĩ ÙĦÙĨ
åľ¨ éĤ£
ĠØ´Ø§Ùĩ ÚªØ§Ø±
ĠØª ÙħÙĨ
ĠÙħØ¹ Ø§ÙĪÙĨ
ool is
ç§ĺ è¯Ģ
Ġ åıĮèī²çĲĥ
èİ ŀ
Ġaja kirja
Ġaja ks
ĠØ®Ø¨Ø± Ø¯Ø§Ø±
ĠØ¹Ø±Ùģ Ø§ÙĨ
ĠÙħØ´ Ø§Ø¹
pr ess
ĠÙħÙĨØ¬ ÙĩÙĨØ¯
æľį è£ħ
Ġà´ıà´ķ à´¦
L isaks
ÙģÙĪØ± ÚĪ
ĠvÃµt nud
åħļ åĳĺ
åĵģ è´¨
æ¸ ł
Øª Ø±ÛĮ
ĠØ± Ø§Ú»ÙĬØ¡
ĠØ¬ÙĪ Ø§
ĠØ¢Ø±ÙĬ Ø³Ø±
N a
ĠØ§ÛĮ Ø±Ø§ÙĨÛĮ
o ck
ĠÙ¾Ø± ÙĪØ±
V D
ĠØ¢ÙĦ Ø§Ù¾
Ø§ÙĦ Ø§ÙĨ
Ġtehn oloogia
Ġla u
çĥ ¦
Ġtood ete
Ġj ur
ĠÚĨØ§ ÚĨØ§
iiv ne
oo lest
Ġa ine
Ġà´¤ à´ķ
E est
Ġà´¨ à´¶
ĠÙĨØ§Ø§Ùĩ ÙĦ
ĠØ¢Ø±Ù½ ÙĬÚªÙĦ
Ġ ä¸İ
ĠØ§Ø³Úª ÙĬÙĨÚĬÙĦ
ĠÙħÙĤ Ø¨ÙĪÙĦÙĬØª
åĬł æĹ¶
ĠØ³ÙĦÙĪ Úª
ĠÚĢØ±ÙĪ Ø³ÙĪ
åĩł å¹´
ĠÙĦØ§Úı Ø§Ú»ÙĪ
aalse te
ĠØ§ Ú±Ú»
ĠkÃ¤ iv
ĠÙħØ²Ø¯ ÙĪØ±ÙĨ
à´ķà´¯ à´±
ĠÚ©Ùħ Ù¾ÙĨÛĮ
Ġpis ut
èĪ Ī
ĠØ¹Ø¨Ø¯Ø§ÙĦ Øº
ĠØ§Úĩ ÙĪ
ĠØ¨ ÙĬØ±
ĠÙ¾Ùĩ ØªÙĦ
æĬķæ³¨ å¹³åı°
ĠÚ©ÛĮ Ø´ÙĨ
Ø¨ÙĬ ÙĩÙĩ
Ġå¤§åıĳå¿«ä¸ī å±ŀäºİ
åĺ İ
ĠÚĩÙ¾ Ø¬ÙĬ
ĠØ§ÙĪÙĨØ¯Ø§ ÙĩÙĬ
ĠÚªØ± Ø³ÙĬØ¡
ĠÙ¾ÙĦÙĬ Ø¬ÙĪ
åľ¨åĵªéĩĮ ä¹°
at ed
éĢĻ æ¨£
å±± å¸Ĥ
ĠØ¢ ÙĨØ¯
r ite
åī ²
èĳ£ äºĭ
éĩĳ å±ŀ
ä¸» æĮģ
Ø§ Ú¾Ùĩ
å¤ļ äºº
Ġ à¤
} .
ĠØ§ÙĨ ÚĨØ§Ø±Ø¬
ç· Ĭ
Ġraamat u
ç¢ §
y s
Ġmu ude
nne ks
Ġtaga b
Ġå¤©å¤©ä¸Ńå½©ç¥¨ ä¸ĢçĽ´
Ġkehtest atud
ĠS al
ĠØ±ÙĦÙĬ Ø²
ÙħÙĪÙĦ Ø§ÙĨØ§
ĠÚ¯ ÙĪØ±ÙĪ
åĭ ¢
P A
çĪ± çļĦ
Ġà´ī àµ¾à´ª
r r
ul iselt
àµ¼ à´·
ĠÙĪØ³ÙĨ ÛĮÚ©
ĠØ§ÙĬ Ù½
ĠkÃ¤ttes aad
Ġtah ab
Ġmist Ãµttu
ĠØ¬ÙĨÚ¯ Ø§Úº
uslik ku
çĽ¸ å¯¹
ĠØŃÚª ÙħÙĨ
å°ıè¯´ ç½ĳ
o ws
Ø³ÙĨØ¯ ÙĨ
Ġkont akt
ĠÙħÙĬ Ú¯Ø§
ĠØ§ÙĨÚ¯ ÙĨ
ĠÙ¾ÙĪØ¦ ÙĦ
ĠØ®ÙĬØ¨Ø±Ù¾ Ø®ØªÙĪÙĨØ®ÙĪØ§ÙĩÙĩ
Ġvab ataht
ĠØ´ Ø¨
ĠØªÙĬ Ø§Ø±ÙĬÙĪÙĨ
ĠÚ¾ ÙĨØ¯
ĠÙ¾ÚĻ ÙĩÙĨØ¯Ø§
ĠÚĬÙĪÙĨ ÙĦÚĬ
et ke
ĠÙĨÙĬ Ú»ÙĨ
ĠØ§Ø³ÙħØ§Ø¹ ÛĮÙĦ
ĠkoostÃ¶Ã¶ s
ĠÙ½ÙĪ ÙĦÙĬ
Ġkeskkon na
ĠØªØ¨ ÙĦÙĬØº
åıĤ èĢĥ
ĠØ§Ú© Ø§Ø¦ÛĮ
ĠØ§ÙĨÙģØ± Ø§Ø¯ÙĬ
ĠØ¬ÙĬ ÙĦÙĨ
ĠØ¯ÙĨ Ø§Úº
å¤§ å¥¶
ĠØ§ÙĨØ¯ Ø±Ø§ÙĨ
Ġå½©ç¥ŀäºīéľ¸æĺ¯ æŃ£è§Ħ
9 188
çĽ¸ å½ĵ
ĠØªÚª ÙħÙĬÙĦ
æİ¢ ç´¢
ï¼Ł âĢĿ
æ±½è½¦ å®ĺç½ĳ
Ø¦ Ù½
ĠØªØ¨ Ø§Ûģ
Ġeel nÃµu
S a
ĠÙ» ÚĨÙĨ
Ġmaks ust
Ġ åįĵ
ĠÙħØ´Ø§Ùĩ Ø¯ÙĪ
åľ¨çº¿ çĶµå½±
ĠÙĨØªÛĮ Ø¬ÛĴ
ĠØ§Ú¯ ÙĩØ§
ï¼Ł ãĢį
ĠTart us
è¡Į çļĦ
l usega
çĭ¬ ç«ĭ
ad ust
Ġæ° ´
K uid
Ġkog un
å®¢æľįçĶµè¯Ŀ æĺ¯å¤ļå°ĳ
ĠÙĤØ§Ø¨ Ø¶
ĠØ ¦
Ġel uk
c p
Ġkaas aeg
Ġn t
asut use
aja ks
Ġp cèĽĭèĽĭ
éĴ± åĮħ
im isk
Ġko mis
à´ª à´Ļ
è¨Ģ æĥħ
ĠØ±ÙĪÙĬÙĨ ÙĬÙĪ
èĪ ī
åĮ» åŃ¦
ĠØ¶ Ø±Ø¨
å¤©å¤© ä¸Ń
Ġæ ½
ÙĦÙĨ ÚĬÙĨ
æµĭ éĩı
ĠÙħÙĪÙĤ Ø¹
ä¹ħ èįī
ĠÙĪÙģØ§Ø¯ Ø§Ø±
Ø± Ø§ÙĬÙĪ
ç¾İ èħ¿
ĠÚªØ§Ùħ ÙĦ
Ġ æ³°
Úª Ø³ÙĬ
ĠØ¹Ùħ ÙĦÙĨ
Ġproj ek
ĠÙĬÙĩÙĪ Ø¯ÙĬÙĨ
Ġ åħī
ĠØ±Úª Ø§ÙĪÙ½
æĥ ¯
ä¹° å¤©å¤©ä¸Ńå½©ç¥¨
ĠØ¯Ùģ Ø§Ø¹ÙĬ
ĠØªØ³ÙĦ Ø³ÙĦ
ĠØ·Ø±Ùģ ÙĨ
Ø²Ùħ ÛĮÙĨ
ĠØ±Ø³Ùħ Ø§Úº
Úª Ùĩ
Ø§ Ù½Ø§
Ùħ Ø«
éĵ Ŀ
ĠÚ¯ÙĩÙĪ Ù½ÚªÙĬ
ĠØ¢Ø³Ø§ÙĨ ÙĬ
ĠØŃÙĪ Ø§ÙĦÙĪ
ĠÙ½ Ùĩ
Ġj ulge
çĶµ æ±ł
ĠM ina
ĠØŃÙħ ÙĬØ¯
ĠØ§Ùħ ÚªØ§ÙĨÙĬ
ÙĨ ÚĪ
ĠÙħÙĬ Ø¦Ø±
ĠÚ© ØªÛĴ
åĲ ¨
Ùħ ÙĩØ±
ĠÚĨØ§Ùĩ ÙĬÙĨØ¯Ø§
ĠÚ¯Ø° Ø§Ø±Ø´
æł¼ å¼ı
ĠÙ¾ÙĪÙĦ ÙĬÙĪ
çĲ ³
Ġstr at
ĠÛģ Ù¹
R a
ĠØ§ÛĮ Ø´ÛĮØ§
ĠÙħÙĦ Ø§ÙĨ
ĠK ol
è© ķ
ĠØ§Ûģ ÙĦ
ĠØ´ Ú¯Ø±
èĩª æĪĳ
åĬł ä¸Ĭ
ĠØ¨Ø± Ø¬
ĠÙ¹ ÙĪÙĦÛĮ
ĠÚĨÙĬÙĪ ÙħØ§ÙĨØ³
Ġsuun as
ĠÙħÙĨ Ûģ
ĠÚ¯Ùĩ ÙħÙĬ
Ġvajad usel
l and
Ġarv atud
åħ¨éĽĨ ä¸ĭè½½
is Ãµ
æµ ĵ
ĠÙ¾ÙĨÚ¾ÙĨ Ø¬ÙĨ
éĬ Ģ
ĠØ³Ø¦ÙĬ ÚĬÙĨ
à´£ à´µ
é«ĺ æ¢ħ
t ar
ades se
p cèĽĭèĽĭ
å½©ç¥¨ å¨±ä¹Ĳ
Ġviim ane
å¤© çĦ¶
Ġb lo
à´¨ à´¦
ad id
Ġv eer
Øª Ø´
oo p
ĠØ³ÙĬÚĻÙ¾ ÚªØ§Ø±ÙĬ
Ġve end
po sti
Ġr ann
ĠÚĦØ§Ú» Ø§ÙĬÙĪ
! ØŁ
Ø§Ú³ÙĪ Ú»ÙĬ
Ġse let
r ed
ĠÙĦ Ø§ÙĨÚ¯
Ġå½©ç¥ŀäºīéľ¸ éĤĢè¯·
ĠÙĨØ§Úª Ø§ÙħÙĬ
Ø³ Ø³
éªĹ äººçļĦ
ĠØ¨Ø¯ Ø¹ÙĨ
åħ¥ åı£
ĠÙ¾ ÚªÙĬ
ĠÚªÙĪ ÚĻÙĪ
ĠÚªÙĪØ± Ø³
å¸ħ åĵ¥
ĠÙĪÙĬØ¬Ùĩ ÚĻ
Ú¯ ÙĬÙĪÙĨ
é² į
= =
ĠØ¨ ÙĬØªÙĨ
ĠØ¬ÙĪÚĻ Ø¬Úª
Ú¾ÙĨ Ø§
åĲĪ åĲĮ
Ġqq çļĦå¤©å¤©ä¸Ńå½©ç¥¨
Ù¾ÙĪ ÙĦÙĬØ³
ĠØ³Ú¯ ÙĩÙĬÙĨ
å¸ĥ å±Ģ
Ġå¤§åıĳå¿«ä¸īé ĤĢè¯·çłģ
ĠØ§ÚªØ§Ø¦ÙĪÙĨ Ù½Ø³
ĠØ¢ÙĬ Ø§Ø³ÙĬÙĨ
à´³ à´¨à´¤
ĠØ³ÙĪ ÙĬØ±
ÙĪÙħ ÙĬÙĨ
Ġå½©ç¥ŀäºīéľ¸ è¾ĵäºĨ
åĪĿ ä¸Ń
Ġv ir
èķ ¾
Ø¨Ø± Ú¯
Ø± Ø¬
å¥Ĺ é¤Ĳ
éĬ ·
ĠÙģ Ø¦
ĠÙĦÙĪ ÚĻ
ĠØ§ Ø²Ùħ
ĠVÃµ i
Ġkav and
Ġå¤§åıĳæĹ¶æĹ¶å½© æľī
Ġkohal iku
ĠØ¨Ø± Ø§Ø¯
M inu
Ġ çĻ¾å®¶ä¹Ĳ
Ġette valmist
ä»¤ äºº
Ġâ Ĥ¬
ĠÙĪÙĨ ÚĪÛĮØ§
k ade
åĽ½ åĬ¡
éĩĮéĿ¢ çļĦ
ĠØ§ÙĨ Ú¾ÙĬ
ĠÙ¾ÛĮ Ø³ÛĴ
ĠØ¯ÙĪ Ø²Ø®
Ġå¤©å¤©ä¸Ńå½©ç¥¨ ç½ĳç»ľ
ĠØ³Ø§ÙĦ Ú¯Ø±
Ġhe aks
Ø¨ ÙĨØ¯ÙĬ
Ġå½©ç¥ŀäºīéľ¸ å¸¦
Ġå¤©å¤©å½©ç¥¨ è®¡åĪĴè½¯ä»¶
ĠØ§Ùħ ØªÙĬ
ĠÚ¯ ÙĬÙĦ
ik ule
çĶŁæ®ĸ åĻ¨
Ġ å°ĳå¥³
ä¸ĵ é¡¹
ĠÙĦÛĮÚ© ÙĨ
ĠÙ½ ÙĬÙĦ
Ø§Ø¦ ÙĬÙĪÙĨ
à´¸ à´Ńà´¯
à´® à´ª
ĠÙģÙĬ Ø§Ø¶
ĠvÃ¤ik se
Ġtervis hoi
ĠÙģ ÙĦÙĬÙ½
à´°à´ķ à´Łà´¨
R O
ĠI ng
æĵ ¦
ĠÙĨÙģ ÙĬØ³
å®ĥ ä»¬
Ã¶ r
ĠØ§ÙĨØ³Ø§ÙĨ ÛĮ
Ġ ä¸º
Ø¬ÙĬ Ø¡
Ġà´° à´®
ĠÙ½ Ù¾ÙĬ
ĠÚĩÚıÙĬ Ø§ÙĨ
ĠÙģ ÙĬÚª
ĠÚĨØ§ÙĨ ÙĪØ±
Ġå¤©å¤© ç§įå½©ç¥¨
ĠpÃ¤Ã¤ se
å¼Ģ äºĨ
ĠØ¹Ùħ Ø§Ø±ØªÙĨ
ĠÙħÙĬ Ø±ÙĪ
ĠÙ¿ÙĬ Ø§Ø³ÙĬÙĨ
Ġpuh k
ĠØª ÛĮØ±ÛĴ
æ°´ æŀľ
Ú¯ ÙĪØ§Ø±
å¹ «
da ja
æĲ ı
å» ī
éªĹå±Ģ åĲĹ
ud i
Ã¤Ã¤ Ã¤Ã¤
ç° ¡
ik on
å®¢æĪ·ç«¯ ä¸ĭè½½
ĥ ¨
Ġèı² å¾ĭå®¾
éģĹ æ¼ı
ç¿ Ĵ
ĠÚ¯ Ø¬
æĢİä¹Ī ä¸ĭè½½
Ġole va
åį³ ä½¿
åĵĪ å°Ķ
å±ģ çľ¼
Ùħ ÙĤ
è´ ¤
ä¹Ł åı¯ä»¥
à´ª à´ķà´°
Øº ÙĦ
ĠÛĮØ±ÙĪØ´ ÙĦÙħ
Ġå½©ç¥ŀäºīéľ¸ å½©ç¥¨
äºº åı£
Ø® Ø¨Ø±
èĩ³ å°Ĭ
Ġps Ã¼hh
éĺ³ åİ¿
ĠP er
ĠØ³Ù¾ Ø§ÙĩÙĬÙĨ
197 4
ĠØ§ÙĨ ÚªÙĪ
Ġvab ast
ÙĨ Ø§Ø¡
ĠÙħØ±Ú© Ø²ÛĮ
l ite
Ġkan da
ĠÙħØ°Ûģ Ø¨ÛĮ
ĠÃµ li
åĭ ĥ
Ø³ ÙĬÙħ
Ø§Ùģ Ø±
Ġka ev
ĠÙħÙĦ ÛĮ
ĠØ§Ø± ÚĻ
ĠÙ¾Ú¾ Úĳ
ä¸ ĺ
ĠØ¨Ø® Ø§Ø±
ĠÙĪØ§ÚĮ Ø§Ø±ÙĬ
ĠØ³Ø¨Ø¨ ÙĨ
åħĪ éĭĴ
ĠÙĦÙĬ Ùģ
ĠÚªØ§ØºØ° ÙĨ
Ġe kra
è¨Ń è¨Ī
Ø§Ø¯ ÙĬØª
ĠÙ½ Ø±Ø¨
ĠØªÚ¾ Ø§ÙĨÙĪØ§Úº
Ġte st
ĠÙ¿Ø± Ù¾Ø§Ø±ÚªØ±
ĠØ§ÙĪ Ø¨
ĠÚĨØ§ÙĨ ÚĬ
ĠtÃµh us
è² ¼
ĠÙĤÙĦ ÙħÙĬ
ĠØ¨ Úĩ
à´°à´® à´¤
ĠØ·ÙĪ ÙĬÙĦ
ĠÙħÙĬ Ù½ÙĨÚ¯
ĠÚ³ÙĨÚį ÙĬÙĦ
Ġå¤©å¤© å¥½
ĠØ³Úĥ Ø§ØªÙĪ
ĠÙ» ÙĬÙĦÙĨ
Ú© ØªÛĮ
ĠÙħÙĤ ØµÙĪØ¯
ĠÙĩÙ¿ÙĬØ§Ø± Ø¨ÙĨØ¯
ĠØ§Ù¾ Ø±ÛĮÙĦ
æĮĳ æĪĺ
Ø±Ø¯ Ø§Ø±
ĠØ§Ø¨ÙĪ Ø¨
à´¸ à´ķ
ĠÚĬØ§Úª Ù½Ø±ÙĬ
ĠØªØ±Ø¬ ÙħÙĬ
ĠÙĨÙĪ ÙĬØ¯
se x
è¯ģ æĺİ
ĠÚªØ± Ø³ÙĬ
al iste
çĽĴ å½©
Ġs ig
Ġse ekord
è£ħ å¤ĩ
ĠØ¯ÙĬÙĪ ÙĬ
ĠÙ¾Ú¾ Ø±ÙĬÙĪÙĨ
å¤¹ å®ĺç½ĳ
Ġsu uda
l usi
ĠÚªÙħ ÙĨØ¯
Ġtoot mis
ä¸ľ åĮĹ
Ġæı Ĵ
ä¹¦ ç±į
Ġol les
ą ą
Ġd ek
ĠlÃµ h
Ġr ip
ĠÙħØ§Øª Ùħ
Ġsa ata
Ġpaar i
Ġ ç»Ŀ
Ġå¤§åıĳæĹ¶æĹ¶å½© åĲİ
æĪ ¶
Ġb a
ĠÙħÙĪÙĦ Ø§
ĠÙħÙĪ ÙħÙĨ
ĠØ§ÙĤ ÙĦÙĬ
æ°¸ ä¹ħ
Ġåħ¨æ°ĳå½©ç¥¨å¤©å¤© éĢģéĴ±
ĠæĪĳ è¦ģ
ĠÚĮÚ» ÙĬÙĨ
ad ing
çľĭ çĿĢ
ĠÙħØ§ ÙĩÙĪØ§Ø±
Ú© ÛĮØ±Ûģ
av ale
ess ur
f oni
ĠØ¬ÙĪ ÙĬÙĪ
ĠØ´ ÛĮØ±
am aal
ÙħØ§ÙĨ ÚĬ
us r
ĠØªÛģ Ø°
å¼ Ĺ
ĠØ®ÙĪ Ø§Ø±
ĠÙĨØ¸Ø± ÙĪÙĨ
Ø¨ Úª
uv ate
è´¡ çĮ®
ĠÙ¾Ø± Ø¯ÙĬ
ĠÙħÙĩ Ø°Ø¨
ĠæīĭæľºçīĪ å¤©å¤©ä¸Ńå½©ç¥¨
ÙĤ Ø§Ø±
Ġkogud use
ĠØ±ÙĩÙĬ Ø§Ø³ÙĬÙĨ
åħ īé
ĠØ§ÙĪÙĨØ¯ ÙĩÙĩ
Ġk vart
ä¸» æµģ
æ²¡ äºº
æĽ´å¤ļ çļĦ
ĠÙħ ÙĨÚ¯ÙĬ
Ġb i
å¾ Ĵ
ĠÙĤÛĮ ÙħØª
æĭ Ĩ
ĠØ¯ Ø³ÙħØ¨Ø±
ĠØ§ÙĦ Ø±ØŃ
åİŁ åĪĻ
ĠÙĨØµ Ø¨
ĠÙĪÛĮ Ûģ
Ġkeht iv
ĠØ¹Ûģ Ø¯
ĠÃ¼ks nes
f ilm
um p
Ġ é«ĺæ¸ħ
ç¼ĸ åı·
éĻĦ è¿ĳ
Ġ uh
Ġp ind
å¤§åıĳæĹ¶æĹ¶å½© è®¡åĪĴ
åĻ ľ
Ġå½©ç¥ŀäºīéľ¸ ä¼ļ
ist est
ĠØ¢ ÙĨØ§
Ø³Øª Ø§Ø±
ä¹° äºĨ
ĠØ¯ ÙĪÙĦ
Ġå½©ç¥ŀäºīéľ¸èĭ¹æŀľ çīĪ
å£° éŁ³
Ø§Øª ÙħØ§
Ø±ÙĪ Ù¾
ĠÚĮ Ø±ÙĬÙĪÙĨ
ĠØºÙĬØ± ÙĤØ§ÙĨÙĪÙĨÙĬ
Ġriik ide
éĽ ¢
ĠÚªÚĨÙĩ Ø±ÙĬÙĨ
æ± ģ
Ġjust kui
19 30
åįģäºĶ è¨Ģ
ĠÙĦ Ø§Ø¬
ĠÙħØª Ø¨Ø§Ø¯ÙĦ
çĦ Ĭ
ĠØ³ÙĨ ÙĬ
ĠéĻ ķè¥¿
æĹ¥ æĬ¥
ĠÚ¯ Ø§Ùħ
ĠØ® Ø§Ø¨Ø±ÙĪ
ĠØ³ÙĬ Ù½ÙĪÙĨ
çŃĸ çķ¥
Ġr isk
Ġæ Ħ
ĠØ±Ø§ ÙĪÙĦÙ¾ÙĨÚĬÙĬ
Ġs oor
ĠÙĦØ§ Ú¯ÙĪ
ĠÙĩÙĦ ÚªÙĪ
ĠØ³Ø±Ù½ÙĬÙģ ÚªÙĬÙ½
ĠØ§ÚĢÙĬ Ø§Ø³
ĠÚĨÚĻ ÙĩÚ»
ĠÙĪ Ø§Ø´ÙĨÚ¯Ù½ÙĨ
ik o
ä¸Ĭ åįĪ
ĠØ±ÙĪ Ø²ÙĬ
ä¸Ń åŃ¦
ĠØ¯ÙĦ ÙĬÙĪÙĨ
Ġpr e
ĠH ot
å²ģ çļĦ
åħ¶ å®ĥ
æ¯į åŃĲ
ĠØ§Ø¦ Ù½
æ¨ ĵ
Ø³Ù½Ø±ÙĬ Ø´ÙĨ
Ġ è´¢
Ú¯ Ø§Ùĩ
ip a
55 5
å¹¼ å¹¼
Ġr i
ĠÙĨ Ø§Ø¦ÙĬ
ĠØ§Ùħ Ø¬Ø¯
ĠØ¬ ÙĩØ±
oo b
åĲĪ ä¹°
èī²æĥħ ç½ĳç«Ļ
upÃ¤ev al
è¾ĵ åħ¥
Ġkomis jon
Ġas ukoh
ĠÙĪØ± ØªÙĨ
ĠØ¬Ú¾ ÙĦ
ĠtÃµ mb
ĠØªØ¹ Ø¬Ø¨
çİ «
ĠØ±Ù¿ ÙĬÙĦ
im at
ç® Ń
ĠÚ¯ÙĪØ± Ú©
T Ã¤n
ĠtÃµ est
Ġka am
ĠsÃµ ita
ĠÚĨ Ûģ
åī ª
ĠlÃµ ike
ĠÃľ likool
å®£ å¸ĥ
planeer ingu
Úª Ø´ÙĬ
ĠØ§Ú³ ÚĢØ±Ø§Ø¦ÙĬ
Ġ å¼Ģ
ĠØ´Ø®Øµ ÙĬ
ĠØ§Ø³ØªØŃØµ Ø§ÙĦ
ĠØªÙĤØ±ÙĬØ¨ Ø§
ĠØ³ÙĨ Ø³
ĠÙĩÙĬÙº ÙĬØ§ÙĨ
sioon ide
br it
ĠÙĩÙĪ Ø±ÙĬØ§ÙĨ
Ã¼Ã¼ m
åĲ ŀ
ĠÚĩÚıÙĬ Ø§Ø¦ÙĪÙĨ
å° ¸
çĮ İ
ĠØ´ÙĩÙĨ Ø´
ĠØ·Ø±ÙĬ ÙĤ
ĠØ³ Ù»
ĠØ¯ Ø´Ùħ
Ġà´µ à´§
Ġoot ab
ä½Ļ é¢Ŀ
ab et
æµģ æ°´
åĪĽ å»º
çļĦ ç½ĳåĿĢ
ĠØ¨Ø±Ùĩ ÙħÚ»
al ised
ĠÚ¾ÙĨ ÚĮ
é¢Ħæµĭ è½¯ä»¶
æĢ ¡
æĴ ŀ
ĠtÃ¶Ã¶t as
åħ¬ ä¸»
ĠØ§ÙĦ Ø¨
ĠÃ¼ likooli
---- ----
à´¥ à´²
L E
Ġå½©ç¥ŀäºīéľ¸ uu
ĠØ§ÙĨ ÙĨÚ¯
å¥³ æķĻå¸Ī
å®¶ éķ¿
åĥ ħ
à´· à´ķà´³
ĠØ§ÙħØ§ÙĨ Øª
ĠØ¯ Ø§Ø¯Ø§
ĠØ´Ûģ ÙĨØ´Ø§Ûģ
Ġ çİĦå¹»
à´·à´£ à´²
å±± åİ¿
ĠÙĤ Ø¯ÛĮ
i P
ĠÙħÙĤØ§Ø¨ ÙĦÛĴ
Ø± Ø§Ø¨
ĠÙĨ Øª
å¤§ ä¼Ĺ
ĠÙħ ÛĮØª
ĠÙħÙĤØ§Ø¨ ÙĦÛģ
eet Ãµttu
à´¯à´® à´²
èµĦ æł¼
ĠS ul
Ø§Ø¨ ÙĨØ¯ÙĬ
ÛĮÚ© ÛĮ
ĠÙĦÚ©Ú¾ Ø§Ø±ÛĮ
åİ ¦
æĢİä¹Ī åıĸ
ĠÙĦÙĪ Ú»
ĠØ§Ø¬ Ø§Ø¦ÙĬ
é© ´
ip hone
Ø³ÛĮ Ø³ÛĮ
k m
Ġ éĢļ
ĠÙĪØ± ÙĤ
åı¤ ä»£
Ġæĥ ł
åĹ ¯
Ø§Ú© ÛĴ
æ·± åĮĸ
ĠÚı Ø³ÙĨ
ĠÙħÙĦØ§ÙĤØ§Øª ÙĪÙĨ
Ġli id
äºº çĶŁ
ĠØ¨ØŃ Ø§ÙĦÙĬ
app å¤©å¤©ä¸Ńå½©ç¥¨
Ġis a
ĠÙħØ¶ÙħÙĪÙĨ ÙĨ
ĠÚĨ Øª
ØŃÙĤÙĬ ÙĤØª
ĠÙĩ Ø¬Ø§ÙĨ
Ġk le
ĠÙĨØ§ÙĩÙĬ Ø§ÙĨ
ä»ĸä»¬ çļĦ
ĠÙĨÙĬ Ù¾
Ġå¤©å¤©ä¸Ńå½©ç¥¨ èħ¾è®¯
Ġst rukt
Ġkoost Ã¶Ã¶d
Ø§ ÙĪØ±Øª
g p
ĠÚªÙħ Ù¾ÙĪ
Ġå¤©å¤©çĪ±å½©ç¥¨ æıĲçİ°
æĪĲ åĳĺ
Ġæİ Ĵ
m od
Ø³ ÙĬØªØ§Ø¦ÙĬÙĨ
ĠÚªÙħ Ø±ÙĪ
ĠÙĨ Ø§Ø´
à´ķà´° à´¨
åºĶ å½ĵ
Ġsuht eliselt
ih k
Ġsa ama
æ¬ Ĭ
ĠØ¨ Øµ
ç«ŀçĮľ è¶³çĲĥ
ĠÙģÙĦ Ø§ØŃ
Ġhar j
å½©ç¥ŀ çŁ³
198 2
éĿ Ī
ĠÙĨØµ Ø±Øª
Ġ åĲĮ
Ø§Ø¦ ÙĬÙĨØ¯Ø§Ø³ÙĬÙĨ
åĢĭ äºº
y e
ĠÚ¾ ÙĨØ¯ÙĪ
Ġà´± à´£
19 19
um it
or is
ĠÙħ Ø§Ù¾
ĠÚªØ¬ Ø§ÙĨØ¡
æĹ¥ å¸¸
ĠÚ¯Ø° Ø±ÙĬØ§
åĶ ĩ
ĠÚĨÚ± Ø§
ĠÙĩ Ø§ÙĦÙĬ
ÙĬÙĪÙĨ ÙĦ
à´Ĺ à´³
ç¥ŀ åĻ¨
æĵ Ĭ
å± ¬
æģ¢ å¤į
ĠÛ¾ )
ĠÙ¾Ú¯ÙĩØ§Ø± ÙĪÙĨ
ĠØ¹ Úª
Ù½ Ø§Ø±
Ġos ka
ĠÚ©ÙĨ ÚĪÛĴ
k an
ĠØ³ Ø§ØªÚ¾
ĠÙĨÛĮ Ø¯Ø±ÙĦÛĮÙĨÚĪØ²
ĠØ¯ ÙĬØ¯Ø§Ø±
Ø§Øª ÙĬØ¡
ĠØ¨ÛĮÙ¹ Ú¾Ø§
ĠØ¨ÙĬ ÙĩÚ»
Ġå½©ç¥ŀäºīéľ¸èĥ½ ä¸įèĥ½
ĠÙħÙĪÙ½ ÙĬÙĪ
Ø§ Ù¹
ik oh
ama id
Ġom anik
è®Ń ç»ĥ
ĠØŃ Ø¯ÛĮØ«
ĠÙĪÚª Ú»Ú»
Ġç½ĳ ç»ľ
im aks
ĠÙ½ Ø¦ÙĬ
ä¸Ģ åĲį
æĬ¥ åĲį
ĠØ¨Ø¬ ÙĦÛĮ
ĠÙħ Úĳ
Øµ Ûģ
ju ks
Ġå¤©å¤©ä¸Ńå½©ç¥¨ä¸įèĥ½ ä¹°
å¯¼ å¸Ī
Ġp inn
d al
å¤Ħ äºİ
àµº à´¸
Ġ ãĢĬ
å¤ļ éķ¿æĹ¶éĹ´
æģĲ æĢĸ
ĠlÃµik es
ald use
ĠØ§Ø¬ Ø±Úª
çª į
ĠØ¨ÙĬ Ø¨ÙĬ
ĠI da
ĠØ¨Øº Ø¯Ø§Ø¯
ĠÚ¯ Ø´Øª
ä¹ĭ å¤ĸ
Ġà´ľ à´²
Ġt ap
è¿ĳ æľŁ
Ġend ast
ĠÙĩØ¯Ø§ÙĬØª ÙĪÙĨ
Ġan takse
ĠÚ©Ù½ Ú»
åľ° ä¸ĭ
ĠØ¢ ÙĩØ±
æ² ĥ
ek Ã¼l
ĠvÃ¤lja k
ç¾İå¥³ åĽ¾çīĩ
ĠÙģ ÙĬÙħ
ĠÙĦ Ù½
Ġajal ool
ĠÚªØ§Ø±ÙĪ Ø§Ø¦ÙĬ
Ø§ÙĨ ÙĩÙĬ
æĪĳ èªª
ĠÙ¾ Ø³Øª
Ø¨ÙĪ Ø¯
åĽ´ ç»ķ
ĠÙ»Ø§ÙĨ ÙĩÙĪÙĨ
v orm
æĸ° åĮº
æħ ĭ
ĠÙ½ Ø±ÙĬ
ĠØ¢ Ø±Ø§
ĠÚĬØ± Ø§ÙħØ§
ĠØ¢Ú± Ø±ÙĬÙĪÙĨ
ĠØ±ÚĮ ÙĦ
ĠÚĩÙĪ ÚĻ
M S
Ġseal hulgas
ĠØª ÚĻÙ¾
ĠtÃ¶Ã¶t ajate
æĢİ éº¼
Ġva ev
åľ¨çº¿ éĺħè¯»
äººæ°ĳ å¸ģ
ÙĪÙĦ ÙĬÙĪÙĨ
å¦¹ åŃĲ
ĠpÃ¤Ã¤ st
à´ļ à´µ
å¾Ģ å¾Ģ
ĠØ¯ÛĮ ÙĪÛĮ
Ġalg use
ØªÚ¾ Ø§
ÙĪ Ùĩ
ĠØ³ ÙĬØ¡
Ġv iiv
ĠH el
Ġ èĳ¡äº¬
ĠØ³Ø¨ Ø¬ÙĬÚªÙ½
ĠØ³Ø§Ûģ Øª
ĠÚ©Ûģ Ø§ÙĨÛĮ
ĠÛģÙĪÚ¯ Ø¦ÛĮ
Ġ ä¸ģé¦Ļ
ĠÙ¾ Ø§Ø¦ÛĮ
Ø§Ø¶ ÛĮ
ĠØ¬ÙĨ Ø§Úº
ĠØ³Ø§ÙĦ Ø§Úº
çī¹ é©¬
Ġå¤©å¤©å½©ç¥¨ æľī
éģĵ äºº
19 45
Ġ.... ..
Ġjuhat aja
Ġsuur end
ÙĪÙħ ÙĨ
ol ut
ĠÙĨØ§Ùħ ÙĪØ±
es in
Ġ çİĭèĢħ
ĠÙħÙĨØª Ø®Ø¨
ĠØªØ¬Ø±Ø¨ ÙĨ
ÙĦ ÙĩÙĩ
Ġà´ªà´ł à´¨
ä½ Ĳ
åįļ å®¢
ĠØ§ÙĦØ¨Øª Ùĩ
ĠÙħ ÚĻÙĩÙĬÙĦ
Ġel ust
estiv ali
v asti
ĠÚ¦ Ùĩ
ĠØ¬Ø§Ú¯Ø± Ø§ÙģÙĬ
çļĦ ä¸Ģä¸ª
ĠÙĪØ± Ø«ÙĬ
ĠØ¶Ø§Ø¨ Ø·ÙĪ
ä¸Ģ èĤĸ
ver e
ĠØ§ÙĪØ³ÙĬ Ø¦
ĠÙħØ¦ Ø¬Ø³Ù½Ø±ÙĬÙ½
Ġå½©ç¥ŀäºīéľ¸é«ĺ èµĶçİĩ
åī ©
ĠÚªØ§Ø± Ù¾ÙĪ
æīĢ åľ¨
å°± è¦ģ
ĠÙħØ§Øª Ø§
ĠÙĤ ØµÙĬ
ĠØªÙĤØ§Ø¶ Ø§
ĠÚ¯ÙĩÚ» Ø§Ø¦ÙĬ
Ġå¤§åıĳæĹ¶æĹ¶å½© ç½ĳç«Ļ
ãĢĭ ãĢģãĢĬ
ĠÙħ ÙĬÙĦÙĪ
à´£ à´ª
Ġ ï·¦
ĠØ§Ø³ Ø±Ø§Ø±
ĠØ§Ø¨ Ø§Ú»ÙĬ
Ġæ¬§ æ´²
ĠÚĨ Ø¦ÙĪÙĨ
ä¸ĵ éĹ¨
ĠÙĩÙģ ØªÙĪ
ĠØ³Ùħ ÙĩÚ»
ĠÙħÙĨ Ø³ÙĦ
Ã¤Ã¤ k
ĠØ§Ø³ ÚªØ±
Ġe ba
n iku
ĠØ³ÙĬÙĨ Ú¯Ø§Ø±
Ġsell ised
æĪ Ģ
à´£ à´°
æľĢæĸ° åľ°åĿĢ
Ġseis ukoh
Ġand nud
èĸ ĩ
ĠÙ¾ÙĨÚ¾ÙĨ Ø¬Ø§
äºĮ åįģ
Ú©Ø³ ÙģÙĪØ±ÚĪ
Ġkvalite ed
ĠA in
è· ĥ
ĠÙħØª Ø§Ø«Ø±ÙĨ
ĠØ¨ÙĬ Ù½ÙĨÚ¯
ĠÚªÙĬØ±ÙĬ Ø¦Ø±
Ġå¤©å¤©ä¸Ńå½©ç¥¨ èĭ¹æŀľ
ç½ĳç«Ļ åĲĹ
Ø´Øª ÛĮ
ĠØ¹Ø¨Ø± Ø§ÙĨÛĮ
ĠÃ¼ll at
ĠÙħÙħ Ú©ÙĨ
ÙħØ· ÙĦØ¨
16 0
æľīéĤ£ äºĽ
Ġtoim uvad
éĶĻ è¯¯
ku j
ĠÛĮÛģÙĪ Ø§Ûģ
ĠÙĪÚªÙĬ Ù½ÙĨ
çĻ¾ å§ĵ
ĠsÃµ idu
ÚĨ Ø§Ø±ÙĬ
ĠÙĨØ³ ÙĬÙħ
ĠØµÙĪØ¨ÛĴ Ø¢Úº
ĠPÃ¤r n
Ġk riit
V al
æĽ ¹
ä½ł æĩĤ
Ġprobleem e
Ġà´® à´¸
ĠI T
ĠÚ¯Ø±Ùħ ÛĮ
ĠÚªØ±Ù¾ Ù½
ĠÙħØ¹ Ø§Ûģ
ĠØ§ÙĬØ³ÙĪØ³ÙĬ Ø¦ÙĬØ´ÙĨ
Ø§ ÚĬ
Â ¼
ĠØ¢ Ø¬
ĠÚĨ Ø§Úª
ide ks
Ġå¾®ä¿¡ åħ¬ä¼Ĺåı·å¤©å¤©ä¸Ńå½©ç¥¨
Ġ èĬ±
Ø¬ÙĨ Ø§
æľºåĻ¨ äºº
ĠÚĨ Ø±ÙĬ
ÚĢ Ø§Ø±Øª
ä¾Ŀ çĦ¶
Úª ÙĬØª
ä»£ çłģ
ate ga
on eer
ĠØ± Ø§Ø³
ĠÙ¾Ø± Ø§ÙĨØ§
ĠkÃ¤ si
çĶµ æľº
ĠÙĪ Ø§Úº
ÚĪ ÙĦ
æľĪ ä»½
ĠÚ¯Ø±Ø§Ùĩ ÚªÙĨ
é¢ ĸ
æ¬ º
Ãµ nn
ĠÙħØ§ØŃ ÙĪÙĦÙĬ
Ġå¤©å¤©ä¸Ńå½©ç¥¨ é¢Ħæµĭ
é«ĺ çº§
ä¼ ı
ĠÙĦÙĪ Ú¯
çĥŃ çĶµ
Ġpu uv
å ¬
Ġviis il
Ġsuur us
çªģ åĩº
à´ķ àµ¼
èī¯ å¥½çļĦ
à´¡ à´±
p akk
Â «
ĠØ§ÙĦ ÙģØ§Ø¸
æĢ» ä¹¦è®°
à´§ à´ķà´°
ĠØ³ Ø¯ÙĪØ²
am oodi
éł ħ
é į
è¥¿ æ¸¸
pr ogramm
å¤§ åĬĽ
Ġt ra
Ġpiir kond
ÙĲ -
å£ ĵ
ĠØ¬ÙĨÚ¯ Ø¬ÙĪ
ä¸º ä½ķ
å§¿ åĬ¿
ts id
ĠpÃµh ik
Ġfin ants
Ù¾ Ø±ÙĨ
éĩį çĶŁ
ĠÚ¯ Ø±ÙĨ
ĠØ¨ÙĦ Ø¯ÙĬ
å® ´
ĠÙħØ¯ Øª
å¸ ĸ
Ġnend ega
ĠÙħÙĦ Ùĩ
ĠØ³ Ú³ÙĪ
ĠØ¨ ÙĦÙĬÚª
ĠØŃ ÙĬÙĪ
ĠÙħÙĪÙĤ Ø¹ÙĨ
ĠÚĢ ÙĨÚĢ
ĠÙĦÙħ ØŃÙĬ
ĠÙ» Ø§Ø¬
in ga
ĠÙħÙĪÙĨ Ø¬Ùĩ
åĽŀ äºĭ
ĠØªÚªÙĦÙĬÙģ ÙĨ
Ġ éªļ
ĠmÃµ tet
ule m
ĠÙħ Ø§Ø¯ÙĪ
Ø° ÙĬ
ĠÙ»ÙĬ Ø¦ÙĬ
ĠÙħØ¸Ø§ÙĩØ± Ø§
ĠØ®ÙĬ Ø§ÙĦÙĬ
Ú©Ø§Ø± Ø§Úº
Ø¬Ø¯ ÙĪÚº
ĠØ®Ø¯ Ø§Ø¦ÙĬ
Øª Ø§Ø¦ÙĨ
ÙĬ Ùĩ
Ġn ur
åĬ ĩ
é»ĳ éĴ±
ĠÚĨ ÙĦÛĮ
Úı ÙĬØ¡
ar va
ĠØ¨ Ø§Ø¡
ĠÚ³ Ø§
ĠÙħØ´ Ø§ÙĪØ±Øª
ĠØ¨ÛĮ ÙĦ
Ġteist ele
E s
Ø¬ ÙĩØ±
Ø³Ú© Ø±Øª
ĠØ§Ø® ÛĮØ±
àµĩ .
ĠÙħÚ¾ ÙĦ
ĠØ±ÙĤ Øµ
Ġà´ĵ à´ª
æŀģ éĢŁ
ĠØ³Ù¾ ÛĮÙĨ
ÙĪ Ûģ
ĠÙħ Ú©Ú¾
ĠA nn
Ġesimese l
äºĤ åĢ«
å±± è¥¿
ĠØ¹Ø¨Ø¯Ø§ÙĦ Ùħ
ĠkÃµ ne
Ġpand ud
ĠL iit
Ġta se
å¼Ł åŃĲ
ĠØ³ÙĪ Ø¯Ø§
å± ¥
éĸ± è®Ģ
Ġp iim
èĢ ½
åĢį çİĩ
æ¨ Ļ
ur a
iiv i
åĩº ä¾Ĩ
çľĭ èµ°åĬ¿
ĠØ§ÙĨ ÙĬØ³
Ġin tr
ĠN oor
Ø§Ùħ Ûģ
ç¶ ľ
å¼ķ å¯¼
Ġæ¹ĸ åįĹ
ĠÙģ ÙĦÙĬ
æ¢¦ æĥ³
çº ½
ĠS eal
ĠØ§Ø³ØªØŃ ÚªØ§Ùħ
ĠÙĪØ³ ÙĦÙħ
Ġhinna ga
ĠØ³Ø§Ø± Ø§ÙĩÙĩ
à´° à´ļà´°
Ġv ett
Ø§Ø¨ Ø®Ø´
èĻ ¹
ĠØ³ Ù¾ÙĦ
Ġk ip
ĠÙħÙ¿Ø§ÙĨ ÙĩÙĪÙĨ
èĲ Ħ
ĠØ¢ ÙĪØ±
Ġmu id
ĠÙĨÚª Ø§ØŃ
ĠØ¹ÙħØ± ÚªÙĪÙ½
æĶ¾ åľ¨
ĠÙħØ¹Ø² Ø²
ÙħÙĨ Ù½
ĠÙħØ§Ø³ Ù½Ø±
ĠÙ»ÚĮ Ø§Ø¦ÙĬÙĨ
ĠØ³Ø±Ú¯Ø±Ùħ ÙĬÙĪÙĨ
ĠÙ¾ÙĪ Ø±ÙĬØ¡
ĠÚ©Ú¾ ÙĪÙĦ
Ø¬ ÙĬÙĪ
ĠÙĩØ¬ Ø±Øª
åĨľ å¤«
æĢİä¹Ī ç®Ĺ
ĠÙħØ¦ ÙĦ
Ġviimase l
P al
Ġtulem us
Ġmet sa
â ĸ
Ġkorra ga
ĠØ¬ Ú¾ÛĮÙĦ
ĠØ¬ÙĨ Ø§Ø²ÙĬ
çıł å®Ŀ
ĠÚ¯Ú¾Ø± Ø§Úº
à´¯à´® à´¤
ĠØ¹ Ø¬Ø¨
ĠØ¯ÚªØ§ÙĨ Ø¯Ø§Ø±
15 8
Ø¯ Ø±ÛĮ
æİĮ æı¡
g in
Ø´ ÙĤ
ĠØ§Ø¨ Ø§
ĠÙĦÙĨÚ¯ ÙĩÙĬ
ĠØ±ÙĬØ³Ù½ ÙĪØ±ÙĨ
N Ã¤
ĠtÃ¤ ps
ĠØ§ÛĮÛģ Ø¯ÛĮ
èĻ «
Ġ äººä½ĵ
ĠØ®Ø± Ø§Ø¬
ĠÙ¾ ÙĦØ§Ø³
ĠØ® Ø§Úª
Ġl um
ĠÚĪØ§Ú© Ù¹Ø±
ĠØ³ ÛĴ
ÚĮ Ø§ÙĬÙĪ
it ee
ç¤º èĮĥ
ÙĤÙĪ Ø¨
ĠØ´ÛģØ± Ø³ØªØ§ÙĨ
å¾Ī å¤§
g n
çĽ Ĳ
æĹħ è¡Į
Ø¹ ÙĪÙĨ
ĠØ¬ ØºØ±
é¨ ·
æį Ĩ
ĠØ§ÙħØ¯ Ø§Ø¯ÙĬ
å¤ļ å¹´
ĠØ±Ùĩ Ø¨Ø±
è®¾ ç«ĭ
å¤į æĿĤ
è®¢ åįķ
ĠØ± Ø§Ø¦ÙĪ
Ġp i
éĽĸ çĦ¶
l usk
Ġå¤§ èĥĨ
çĶ¢ åĵģ
ÙĬÙĨØ¯ ÙĬØ³
ĠØ³ÙĦ Ø³ÙĦ
use t
ĠØ¹Ø³ ÚªØ±ÙĬ
Ġpid anud
ĠØ·Ø¨ Ø¹
ĠØ°ÙĩÙĨ ÙĨ
Ø± Ø§Ø¯ÙĪ
ĠÙħÙĪ ÚĻÙĬ
Ġan na
ĠØ¯ÙĪ Ø§Ø¦ÙĨ
çİ» çĴĥ
ĠT amm
ĠÙĦ Ù¿ÙĪ
iv idu
ĠØ¯Ø´Ùħ ÙĨÙĬ
Ġhul k
o ga
å¥³ ç¥ŀ
åĴĮ è°Ĳ
ĠÙģÙĬÚª Ù½Ø±ÙĬ
Ġp last
ĠØ²ÙĬØ§Ø¯ Ùĩ
ĠÙħ Ù½Ø§Ø¦ÙĬ
Ġp ann
ĠÙħÙĪØ¬ÙĪØ¯ Ûģ
ĠØµÙĪÙģ ÙĬÙĨ
Ġ çĻ¾åº¦
ä¸į çŁ¥
ĠØ¨ Ø±ÙĨ
è¿ Ī
ÙĬÙĪ ÙĦØ±
ĠØ§ÙĪ ÙĪØ±
Ġå¤©å¤©å½©ç¥¨ ç«Ļ
Ġide e
ĠÙ¾ÚĩÙĬ Ø§Ø¦ÙĬÙĨ
à´µ à´Ń
Ġå¤©å¤©å¼Ģå¥ĸ çļĦå½©ç¥¨
v ent
Ġk re
éĤ Ģ
ĠPe ale
ĠÙĦ ÛĮÙĨÚĪ
ise ad
ĠÙĩØ¦ÙĬÙĨ Ø¡
i ega
éĢı æĺİ
çļĦ éĤ£
éĥ½ åľ¨
Ġ å¿«
et el
Ø§Ø³ ÛĮÙħ
ĠØ´Ùħ Ø´ÙĬØ±
Ġå¤§åıĳæīĳåħĭ å®ĺç½ĳ
Ã¼ lg
æŁ ľ
Ġà´İ àµ»
Ġspetsi alist
Ġomak orda
Ġr att
te en
Ġå¹¸è¿Ĳ é£ŀèīĩ
Ġæ¬¢ä¹Ĳ å½©å¤§åıĳå¿«ä¸ī
åİ» åĵª
Ġà´İ à´¡
Ġäºº å¦»
k se
ĠØ¬Ûģ ÙĨØ§Úº
Ġeri al
ÙĦÙĬ Ùĩ
äºĨ ä¸Ģä¸ª
Ġ æĺŁ
ĠØ¯ÛĮ Ø±
ÛĮÙĨ Ø§
ĠÚ¦ Ø§ÙĩÙĬ
18 80
ĠÙĪØ±Ùĩ Ø§Ø³Øª
ĠØ§Ø± Ø¬ÙĨ
em as
éĶ ¡
ĠØ§Ø³Ù¾ ÙĬÙĨ
åĴª åĴª
ĠÙħØ´ Ú¾ÙĪØ±
éĺŁ ä¼į
seis u
ĠtÃ¤iskas van
à´¸ à´°à´Ļ
åĵ ĩ
uu gi
Ġkoos kÃµ
çŃĶ æ¡Ī
aal ia
ĠØ±Ø´ ØªÙĬ
ĠØ¢Ù¾Ú¯Ùĩ Ø§ØªÙĬ
uslik ud
Ġæ·« èį¡
ä¸Ģ å¸¦
åĽ½åĬ¡ éĻ¢
ĠØ³ Ø®ÙĬ
Ãµ na
æ¬£ èµı
ĠØ¨ Ø§Ø®
ĠÙĪÙĬ ÚĬÙĬÙĪ
è¿ĺ è¦ģ
ĠØ§Ø³ ÛĴ
ik ad
ise ga
Ġte id
ĠØ¨Ø¬ ÙĦÙĬØ¡
ĠØ³Ùº ÙĨ
ĠÙħÙĨØ¬Ùĩ Ø³
ĠÙħÙĦ Ù½Ø±ÙĬ
åĮ ¹
ĠØ§Ù¿ ÙĪ
ĠØ±ÙĪÙħ ÙĨ
Ø² ÙĪØ±
ĠØŃ ÙĨÙĬÙģ
ĠØ¬Ø§ Ù¾
ĠÙĪÙĬ ÚĻÙĩÙĬ
ĠÙĪØ³ Ø¹Øª
u ul
çĿ Ľ
é¢Ħ ç®Ĺ
å¤© åľ°
çĸ «
ÙĩÚª ÚĻÙĬ
æĢ» ä»£
é±¼ åĦ¿
Ġä¸ºä»Ģä¹Ī å¤©å¤©ä¸Ńå½©ç¥¨
ĠØ§ÙĪ Ù¾ÙĨ
ä¿ º
Ġæ »
è´« åĽ°
ĠØ¯ Ø§ÙĦ
11 5
ä½ £
ĠÙĪÙĬ Ú¾ÙĬ
æ³¨åĨĮ éĵ¾æİ¥
Ġme he
emise ks
Ġ æ³ķ
å¿ ½
Ġkil omeet
ĠÚĨ Ø§ÙĨØ¯
Ġà´ĩ à´®
ĠI t
Ġ åįĥ
Ġkr ed
å¤© ç©º
åĵ ²
end ile
g ed
èģ ·
ĠØ§ÙĦØŃ Ø³ÙĨ
ĠÙģÙĪ Ø¬ÙĨ
Ġà´¤ à´²à´¯
ĠÙĤØ¨ ÛĮÙĦÛĮØ§Úº
ĠØ§ÙĨÚĬ Ø³Ù½Ø±ÙĬ
ĠØ® ÙĨ
ĠÙĨÙĪ Ø´Ùĩ
Ġå¤©å¤©ä¸Ńå½©ç¥¨ å¤§ç¥ŀ
à´ķ à´¸à´¨
æĦŁ åĪ°
ØŃ ÙĨØ§
ĠÛģ Úĳ
ĠÙ¾ÙĬØ± Ø³ÙĨ
itse er
ĠÙħÙ¿ Ø¦ÙĬÙĨ
çļĦ ç¾İ
ĠÚĨÙĪ Ù¿ÙĪÙĨ
Ġterv ik
ĠØªØ¨Ø¯ÛĮ ÙĦÛĮ
ĠÚĨÙĬÙĨ ÙĦ
æµ Ļæ±Ł
ĠØ¢Ø¨Ø§Ø¯ ÙĬØ¡
ĠØ§Ø³Úª Ø§ÙĦØ±
ĠÚª Ø§Ø³
ĠØ¯ Ø±Ø§ÙĨÙĬ
æ¼ Ĩ
Ġtag ada
ĠØ±Ú©ÙĬ Ø§Ø¦ÙĬÙĨ
Ġæ Ĵ
åĵªéĩĮ çļĦ
åĵªä¸ª åħ¬åı¸çļĦ
ĠØ°Ø§Øª ÛĮ
ĠØŃÙĪØµ ÙĦÙĪ
ĠÚ© Ø§ØªÙĪ
æĭ ¾
ĠØ±Ø§Øª ÙĬÙĪÙĨ
Ġmed itsi
Ø¬ ÙĩØ§ÙĨ
ĠØ¯ÙĪ Ø§Ø¦ÙĪÙĨ
éģ ©
2018 0
çĬ ¬
ĠØ¯Ø§ÙĨØ´ ÙĪØ±ÙĨ
ĠØªÚ¾ Ø§ÙĪØ§Úº
ĠÙħÙĬØ± ÙĨ
ĠÙģØ± Ø³Ù½
ĠØ¬ÙĪ Ø§ÙĨÙĬ
umise ga
éĿ© åĳ½
åħ¬ è·¯
çĶ· åıĭ
ĠØŃÙĦ Ø§ÙĦ
ĠÚĢ Ø§ØªÙĬ
ĠÚĨ ÙĨØ§
ĠØªØ± Ø³ÙĬ
Ġd o
ĠTÃ¤ na
Ġä¸ŃåĽ½ç¦ıåĪ©å½©ç¥¨å¤©å¤© å½©
Ø¯ Ùģ
å½© ä¹Ĳ
Ã¶Ã¶ de
ĠÙĪÚıÙĬ Ø±ÙĪ
ĠÙģ Ùĩ
æĤ ²
ĠF aceb
j el
w e
ĠØ§Ø³ ÛĮÚº
éĢī åı·
ÛģØ± ÛĴ
ĠØ¢ Ø±Ùħ
å¹³ è¡¡
Ø§Ø¨ Ø§
Ġå¤§åıĳda f
è§Ĵ åº¦
ĠØ¯ Ø§Ø¹
é İ
ĠØ¨Ø±Ø§ Ûģ
Ġper son
E O
åģ· çª
è¥¿ çĵľ
éĢĲ æ¸Ĳ
ov e
æĶ¯ æĴĳ
ĠÃµpp ida
ĠÙ¾Ø± Ú³
é£İ æł¼
æĹ ¨
Ġf oor
ĠØ¨Ø§Ø¹ Ø«
åĬĽ åº¦
ĠÙ¾Ø± Ø¯ÙĪ
ĠÚĦØ§Ú» Ø§Ø¦ÙĬ
ĠkÃ¼m ne
ä¸į åģľ
ĠØ¯ÙĬ Ø±ÙĪ
ĠÚ©Ú» Ø§Ø¦ÙĬ
ĠÚıØ§ÚĻ ÙĩÙĬ
ĠÚª Ø¬ÙĪ
Ø§ÙĦ ÙĬØ¡
çļĦ çĶŁæ´»
ĠØ³Ø§ÙĦÙĬ Ø§ÙĨÙĬ
Ġp iiri
ĠØ§Ø¦ ÚĬ
Ġtulev ikus
Ġå¤§åıĳå¿«ä¸ī å¤§å°ı
ĠR ootsi
Ġpalj ude
ĠÙħÙĨ ÙģÙĬ
Ġkas s
ĠÙħÙĨ Ú©ÛĮØ±Ûģ
Ġst ab
ĠØŃØ¬Ø± Ûģ
Ġ å¤ļ
ĠÚĢ Ø§ØªÙĬÙĨ
çĲĨ æĥ³
ĠØ§Ø¯ Ø§Ø¦ÙĬ
ĠØ±ØŃ Ùĩ
ogr am
å¤ ¢
art ner
ĠØ¬Ùĩ Ú³
ĠØ³ Ø§Ø¬Ø¯
em is
ĠØ§Ù¿ Ú»
r Ã¼h
àµº à´Ĺ
Ø ĳ
Ġv ool
ĠØ¬Ùħ ÛģÙĪØ±
ĠØ§ÙĨ Ø§
ĠÚ©Ûģ ÛĮØ§
å°± åľ¨
åľ ¾
Ġpole ks
Ġå¾®ä¿¡éĩĮ çļĦå¤©å¤©ä¸Ńå½©ç¥¨
ĠÙĪÚ©Ú¾ Ø±ÛĴ
Ġpe an
ĠØªØŃ Ø±ÛĮ
Ġå¾®ä¿¡ ä¸Ń
æĽ¾ ç»ı
ĠÙħ Ø¯Ø§Ø±
ĠK ultuur
ä¹ ı
Ú¾ ÙĬÙĪ
N A
Ġ æĸ¯
æľī å¤§åıĳæĹ¶æĹ¶å½©
å°ı ç©´
é©¾ é©¶
æĻ °
ĠÙĪØ²ÙĬØ± Ø§Ø¹
ĠÙĪÙĤ Ùģ
çī¹åĪ« æĺ¯
ĠÚªØ¹ Ø¨ÙĬ
Ġr el
ĠmÃ¤ng ida
ĠØ° Ø®
R A
Ûģ Ø§Ø³
im us
ä¸ĭ ä¸Ģ
Ġjut tu
okra at
Ø§Øª ÙĪÙĨ
ĠÚ¯Ø±ÙĪ ÙĩÙĩ
èµ «
M is
ØŃ Úª
ĠØ¨Ú¾ Ø±Ø§
ĠÙħØ±Ø¶ ÛĮ
K Ã¤
t or
ĠÚıØ³ Ú»ÙĪ
ĠÚ¯ÙĩØ±ÙĪ Ø§Ø±ÙĬ
oo ki
ĠØ± ÙĨÚĬ
ĠÙħÙĦ ÙĩØ§Ø¦Ú»
çĶµå½± éĻ¢
ä¸Ģ èĩ´
è½¯ä»¶ å¤©å¤©ä¸Ńå½©ç¥¨
ĠÙĦÚ© ÙĬÙĪÙĨ
ĠÙĢÙĢÙĢ ÙĢ
ĠA s
ĠÚĨØ§Ùĩ ÙĬÙĨØ¯ÙĪ
ur d
ĠØ²ÙħÙĬÙĨ ÙĪÙĨ
ĠØ³ÙĪØ´ÙĦ Ø²Ùħ
ĠÚĨÙĪ Ø§Ú»ÙĬ
ĠA ll
ĠØŃØ§ÙĦØ§ÙĨÚª Ùĩ
Ø§Ø±ÙĬ ÙĨØ¯ÚĻ
ra amat
Ġåħ¨æ°ĳ å½©ç¥¨
ĠÙ¾Ø§ÙĦÙĬØ³ ÙĬÙĨ
åĪĨ ç±»
Ġå¤©å¤©å½©ç¥¨ å®ĺæĸ¹ç½ĳç«Ļ
ĠÚ©ÙĨ ÚĢ
ĠØ¨Ø® Ø´ÙĬ
àµģ ..
ĠÙĨÙĩ Ø§Ø±ÙĬÙĪ
U T
éĽ ²
adi o
æĮĩ æķ°
ĠØ³Ø§ ÚĻÙĬ
ĠØ²ÙĬ Ø±ÙĪ
ĠÙħÚ¯ Ø³ÙĬ
ĠØ²Ø¨Ø§ÙĨ ÙĨ
g en
ĠÙ¾ Ø§ØªÙĦ
ĠÚĨ ØªØ±
ÙĬØ¯ Ø±ÙĬ
æĬ ļ
ĠØ¹Ø´ Ø±Øª
ĠInd ia
åľ¨åĵªéĩĮ é¢Ĩåıĸ
ĠmÃ¶Ã¶ b
åĴ ĸ
kk ond
ĠÙģ Ø§Ø¶
ç»Ļ äºĪ
ĠÃ¼h est
ÙĪØ§ÙĦ Ø§
ĠBalt i
si b
ĠÙĨØ´ Ø±
ĠÙĨÚ© ÛĮØ§Úº
à´ĸ à´²à´ķà´³
ĠØ§Ùħ ÛĮØ±
ĠÙĪ Ø§Ø¦Ø±
Ġte emad
p ing
ĠØ§Ø±Ø¨ ÙĬÙĨ
æ¥¼ çĽĺ
Ã¤ gi
à´ªà´± à´ŀ
å¥³ çİĭ
æĺ¯ åĲĪæ³ķçļĦåĲĹ
å¤§å°ıåįķåıĮ åı£è¯Ģ
ĠØ±ÙĬ Ù»
çĸ ¼
ĠØŃÙĤÙĬÙĤØª ÙĪÙĨ
ĠÙģØ±Ø§ÙĨ Ø³ÛĮØ³ÛĮ
èĻĲ å¾ħ
èĥ¸ éĥ¨
ĠÙĨØ¹ Ø±ÙĬØ¨
ĠÚª Ø³Ù½Ùħ
è¯ļ ä¿¡
ĠØ¢Ø³ Ù¹Ø±ÛĮØ§
ĠÙ¾ÙĨÙĩÙĨØ¬ÙĬ Ø¡
ĠÙĪÙĪ Ù½ÙĨ
Ġj ms
ĠØ¯Ø§Ø¦ Ø±ÙĪ
ĠØ¬ Ø¬ÙĨ
Ġ åĪ©
ĠÙĪÚı ÙĬØ±Ø§
ĠØ¨ÙĨØ¯ ÙĨ
Ø¨ ÙĬÙĪÙĨ
ÚĬØ± ÙĨÚ¯
Ġna iste
Ġæµ Ļæ±Ł
åįı è°ĥ
Ġtek sti
f e
ad uste
ĠØ³ÙĨÚĢØ§ÙĦ Ú»
ĠÙĩ ÙĬØª
æº¶ è§£æ°§
ä»¥ ä¸º
çĮľ å¤§å°ı
çī ¢
æĪĳ æĺ¯
Ġma ante
Ġà´ļ àµ¼à´ļ
ĠØ¨Ø§Ø± ÚĬØ±
ĠÚĢ ÙĪÙĨ
ĠÚį Ø§ÙĨ
ĠØ¨ÙĪ Ù½
ĠÙħØª ÙĦ
Ġsag ed
okk u
or ite
ĠM in
ĠÙħØ± ÚªÙĬ
èĳ¡ èĲĦ
åĲĮ äºº
Ġne w
ĠØ¨ ÙĬØ¯
Ú¾ ÙĬÙĦ
à´µ à´Ļ
Ġ åı¯ä»¥
on ia
ĠÙ¾ÙĨ ÙĨ
198 7
àµįâĢį ...
195 8
le mise
Ġus aldus
ĠØªÚªØ± Ø§Ø±ÙĬ
ĠØ² ÙĬØ¨
ĠM iks
ĠØ¯ Ø±Ø§ÙĨÛĮ
um id
Ġing lise
å¨±ä¹ĲåŁİ ä¿¡èªī
aal is
ĠÙ¾Ø±Ø³Øª ÛĮ
éĻ¢ æł¡
ĠÙ½ Ø§Ø³
and ed
ÙĪÙģ Ø§ÙĤÙĬ
æĬĢå·§ åĲĹ
ĠA b
éģĵ å¾·
ĠtÃµ sta
à´® à´µ
åŃ ¤
çĶŁ ç´ł
ĠØ± ÙħØ§ÙĨÚĬ
ĠÙ½ Ø§Ù¾
ĠÙĦ ÙĬÙĦ
196 8
ĠØ§ÙĬØ¬ÙĨ ÚĬØ§
ĠÚªÙĪ ÚĬ
iid i
ĠØ¯ ÚĻ
åŁº äºİ
Ġriig is
ĠÙĩÙ¿ Ø±Ø§Ø¯ÙĪ
n ad
ĠØ³ÙĪ ÚĻ
ĠÙĦØ§ Ù¿ÙĪ
æĲ º
Ġmaks um
ĠÙĪ ÙĩÚª
çĲª çĲª
st ud
Ġsell iseid
ĠvÃ¤lt ida
çļĦ æĹ¶éĹ´
ĠØ§ÙĬ Ø§ÙĨ
ĠÛģ Ø±Ø§
ĠA ut
ĠÙĪØ§Ù¾Ø³ ÙĬØ¡
ä¸ĵçĶ¨ è¾ħåĬ©åĻ¨
Ġka u
ĠØ¯ÛĮ ÙĨØ§
åıĳ è¡¨
oo ts
ĠsÃ¼Ã¼ a
Ġalkoh oli
Ġå¤§åıĳå¿«ä¸ī çĮľ
ĠÚªÚį ÙĬØ§
m est
ĠØ²ÙĬÙĨ Ø¨
àµģ ...
ĠØ§Ø³Ù½ Ø§Ù¾
ĠlÃµp uni
ĠJ ees
ĠP o
ĠÙħØ§Ø± Ø¦ÙĬ
em ata
or ti
åĽŃ åĮº
âĢ İ
å¤ļä¹ħ åĪ°è´¦
Ġp aks
æ³¨åĨĮ å®ĺç½ĳ
Ġrahul d
Ø§Øª Ø±
å» ł
ĠØ§Ø³Ù½ÙĬ ÚĬÙĬÙħ
Ġj umal
Ġkontse rd
Ġpe eg
ĠØ± Ø¹
ç²¾ å½©
àµĩ ?
Ġju uk
ÙĪÙĨ Ø³
ä»į çĦ¶
Ġku kk
ĠØ¹Ø¨Ø¯Ø§ÙĦÙħ Ø¬ÙĬØ¯
åĴĮ å°ļ
ĠØ± Ø³ÙĨØ§
t is
Ø§ Ú¾Ø±
Ġå¤©å¤©å½©ç¥¨ è®¡åĪĴ
ĠÙĪÙĤØª ÙĨ
æıĲ éĨĴ
ĠÙ»ÙĩØ± Ø§ÚĻÙĬÙĨ
ĠØ¢Ùħ Ø±ÙĬØª
ĠÙ¾Ø§Ø± Ú©
Ø¯ Ø§Ø±ÙĬØ¡
é¡ ¯
å¾®ä¿¡ æıĲçİ°
ĠÙĪØ± Ø«
ĠØ¹ÙĦ ÙħÙĨ
ĠÚªØ±Ø§ ÙĬÙĦ
Ġr olli
ĠØº Ø§Ø±
ĠÙħØ¨ Ø§ØŃ
ĠRiig ikogu
li in
çļ® èĤ¤
ĠÙ» ÙĨÙĬ
Ġà´¶ à´®
ç»ĵ è¡£
ĠÙ¿ Ø±ÙĬ
le mine
Ø¸ Ø§ÙĩØ±
ĠÚ©ÙĨ ÚĢÙĬ
ĠÙħ Ø¯ÙĪ
ĠÙĪ ÙĬÙĦÙĨ
ĠÙĦØ§Ú³ ÙĬØªÙĪ
ĠÚª Ø¨ÙĬ
Úĩ Ø±
ç² ®
Ġel ada
ĠØ§Ø³Ù½ ÙĬÙĦ
Ġ ä¸īçº§
ĠÚ©ÙĪ ÙĩÙĩ
Ġkirjut ada
èĩ £
ç¢ ĳ
ĠØªÙĤØ±ÙĬØ± ÙĪÙĨ
ĠÙ¾ ÚĻØ§
ç¤¾ æľĥ
Ù½ÙĬÙĨ ÙĨÙ½
Ġmuud ab
ĠÙ¿ÙĪØ± Ø§Ø¦ØªÙĪ
ÚĢ Ø±ÙĬ
ĠÙĪÙĬ Ø¬Ú¾
ĠÙ¾ÙĨ ÙĪ
Ġsoov ib
Ġe k
ĠØ§ÙĨØ³Ù¾ ÙĬÚªÙ½Ø±
Ġulat uses
Ġ ÝĻ
Úı ÙĬÙĪÙĨ
ĠÙħÙĦ Ø§ÙĬØ§
ĠÙ¾ÙĬ Ø¯Ø§Ø¦Ø´
asut us
é¼ »
åŀĭ çļĦ
Ø³ ÙĪØ±
ĠÙħØ³ÛĮØŃ ÛĮØ§Úº
Ú© ØªÛĴ
Ġm on
Ġå¤§åıĳæĹ¶æĹ¶å½© ä¸Ńå¥ĸ
ĠÙģÙĨ ÚªØ§Ø±ÙĨ
ĠÙ¾Ø±ÙĪÚ¯Ø±Ø§Ùħ ÙĨ
ĠÙħÙĦ Ø§Ø¦
Ġtas and
æ¸¸æĪı ä¸ĭè½½
ĠjÃµu ab
ĠNa gu
ĠØ¢ Ú¾ÙĬÙĨ
ĠØ¨Ø¬ Ø§Ø¦ÛĴ
è®© äºº
ĠÙĨÚªØ± ÙĨØ¯ÚĻ
ĠÚª ÚªÚĻ
ĠÚĨ Ú©ÛĮ
ĠØ· Ø±ÛĮÙĤÛģ
ĠÙĪ Ø§Ø¯ÛĮ
ĠvÃ¤ike se
ĠÚ¯ Ø§Ø±ÙĬÙĪÙĨ
ĠÙħÙĦ Ø¯Ø§
ĠØ§Ú© ÙĪ
ĠØ³Ø§ÙĨ Ú¯ÙĬ
Ġb ussi
èĢĮ è¨Ģ
ĠÚ¯ÙĦ Ø´ÙĨ
ĠÚ© ÙĦÛĮ
C D
åľ¨åĵªä¸ª å¹³åı°
Ġtemp erat
ĠÚª ÙĦÙĬÚªÙ½Ø±
ĠÚ© ÚĳÛĮ
ĠA w
ĠØ³Ø§Ùħ Ú¾ÙĪÙĨ
Ø±Ø² Ø§ÙĤ
ĠØ´Ø§Ø¹ Ø±ÛĮ
Ġkool is
ĠØ¬ÙĪ ÛĮÚº
Ġab ika
ov i
Ġolul ise
el ised
ĠØ¨Ú¾ Ø§ÙĪÛĮÚº
ĠÙħØ§ÙĦ Ú©
å£ ¹
æľĢé«ĺ èµĶçİĩ
ĠÃ¼his kond
av as
Ġmit me
Ġà´İ à´¯à´°
mag net
è§Ĩé¢ĳ åľ¨çº¿
ĠÙĨØ³ ÙĦÙĨ
ĠØ¯Ø± Ø¬Ûģ
æŃ£ æĺ¯
gi le
ĠÚĢÙĬ Ù½Ø§
ĠØ§Ø´ Ø§Ø±ÙĬ
um as
ĠØ±Ø§Ø¨ Ø·ÙĨ
ĠØ§Ø®Ø¨Ø§Ø± ÙĪÙĨ
ĠÙħÙĩÙħØ§ÙĨ ÙĨ
ĠØ¢ ÚĨØ±
d f
ĠÙĪØ§Ú© Ø§Ú»
ĠÚ³Ø§ÚĻ ÙĩÙĪ
Ø§Ø± Ú©
Ġ åĽ½å¤ĸ
ab el
ĠØ³Ú¯ Ú¾ÙĪ
ĠIn stit
prot ses
uslik e
ĠØ§Ù½ ÙĦÙĬ
is mi
ĠÚªØ§Ø± Ø®
çĭ Ģ
ĠÚĢÚĥ ÙĬ
ĠlÃ¤hed al
èĤ¡ä»½ æľīéĻĲåħ¬åı¸
ĠP eet
æĪĲäºº å°ıè¯´
ç©º æ°Ķ
æĿ¥ åĪ°
éļ ª
ĠD e
al lik
ç»ĵ å©ļ
Ġp ension
è½¯ä»¶ åĲĪæ³ķåĲĹ
Ġpar ema
ĠØ³Ø¯ÙĪØ² Ø¦ÛĮ
Ġå¤©å¤©ä¸Ńå½©ç¥¨ èº«ä»½è¯ģ
ĠØ¬ÙĨ ÙĪØ¨ÛĮ
Ġval las
ĠØ§ÛĮØ³ Ø±Ø§Úº
Ġin spir
ĠÙ¾ÛģØ§ ÚĳÛĮ
ĠÚ¯ Ø§ÙĨØ¯Ú¾ÛĮ
ĠÙģØ¶ ÙĪÙĦ
ĠH ii
ĠØªØ±Ø¬ ÙħÛģ
å¯¹ æīĭ
åĲĦ é¡¹
ĠlÃµ ig
æī¿ æĭħ
å²³ æ¯į
Ġå¤§åıĳå¿«ä¸ī ç½ĳç«Ļ
Ġå¤§åıĳæĹ¶æĹ¶å½© å½©
ĠÃ¼hte gi
as ia
ot i
198 3
Ġtag ant
æīĵ åį°
ĠÙĨ ÙĨØ¯
ï¼Į ãĢĮ
çĸ ı
ĠØ· ÙĨ
æĪ¿ å±ĭ
ĠØ¨ÙĨÛĮØ§Ø¯ ÛĮ
Ġå¤©å¤©ä¸Ńå½©ç¥¨ æĶ¹
è§£ éĩĬ
ä¸Ń ä¸ĢçŃīå¥ĸ
ĠØ§ÙĬ Ø¬ÙĪ
Ġæ¯ Ķ
Ć Ĉï¼Į
èģ ŀ
ĠÙ» Ø§ÙĦÚª
ĠØ®Ø§ÙĨ Ø¯Ø§ÙĨÙĬ
ĠÙĦÚ³Ø§ ÙĬØ§
ĠÙħÙĪÚª ÙĦÙĬØ§
or ts
Ġc on
ĠÙħØ·Ø§ÙĦ Ø¨ÙĨ
é£Ł çī©
ĠÙĨØ¹Ø±ÙĬØ¨ Ø§Ø²ÙĬ
Ġt ing
ĠØ§Ø³Úª ÙĪØ±
Ġtu ule
ĠÙħ ÚĨÙĬ
ĠØ¬Ûģ ÚĳÛĴ
å¤ļ ç§į
å½¢ è±¡
ĠÙ½ÚªØ± Ø§Ø¡
ĠØ§ÙĬÙĪÙĨ Ù½
Ø§Ùģ ÙĬØ§
ĠÛģ ÙĨØ¯ÛĴ
ĠØ³ Ø§Ø¦ÙĪ
ĠØ§ÙĬÙħØ§ÙĨ Ø¯Ø§Ø±
ĠkÃ¤ is
ĠÙĪÙĬÚĨ Ø§Ø±ÙĬ
éĳ «
ä¸Ń åħ±
ĠØªØ¨Ø¯ÙĬÙĦ ÙĬÙĪÙĨ
ĠØ³ Ø§Ø²ÙĬ
Ù¾ Ø§Ø³ÙĬ
ĠÙĦØ§ÙĨ ÚĬØ±ÙĨÚ¯
Ġots ustas
ĠÙħÙĨØ¬Ú¾ Ø§ÙĨ
Ġp ag
ĠØ¯Ø§Ø¦ ÙħÙĬ
h er
Ø§ÙĨ ÙĬØª
ĠÚªÙĦ Ø§Ø±Úª
ĠNe w
ĠÙħÙĪ Ø³ÙħÙĬ
ĠÚ¯Ú¾ Ø±ÙĪ
ĠØ¹Ø¨Ø¯Ø§ÙĦ ÚªØ±ÙĬÙħ
ĠÙ¾ÙĩÚĨ ÙĨØ¯ÙĪ
ĠÙ½ ÚªÙĬ
å¯ Ħ
Ġenergi at
ĠS eetÃµttu
lik kuse
ĠÙ¾Ø±ÙĬ Ùħ
ĠlÃµ un
çĲĥ åĳĺ
ç» ³
ĠØ§Ù¿ ÙĬÙĪ
ĠØ³ÙĪ Ø§Ø±ÙĬ
å¥³ æĺŁ
äºĭ å®ŀ
èŀį èµĦ
ç¼ĸ è¾ĳ
ĠØ±Ùĩ Ø§ÙĨ
Ġloom ulikult
è£ħ é¥°
ĠØ³Ø§Ùģ Ù½
àµįâĢ Ļ
çĻ¾ åĪĨ
ĠÙĦ Ø³Ø§ÙĨÙĬ
Ġt el
M P
ĠÙĪ ÙĨØ¯Ø±
Ġl ask
åŀ ĥ
Ġå¤©å¤©ä¸Ńå½©ç¥¨å®ŀåĲį è®¤è¯ģ
å¤§ å°ºåº¦
å®ĺæĸ¹ çļĦåĲĹ
àµģ âĢĭâĢĭâĢĭ
ĠP Ã¤ev
Ø¯ Ø¨
Ġo tsi
in ete
é»Ħ å¤§ä»Ļ
xx oo
Ġeb am
j Ã¤Ã¤r
ĠÙģ ÙĨØ§
æ¡Ī ä»¶
çļĦ äºĭæĥħ
ĠØ³Ø± Ø®
ĠØ¨Ø± Ø§Ø¹Ø¸Ùħ
æĺİ çĻ½
ä¸į åĩºæĿ¥
Ġkoht u
et u
å¡« åĨĻ
Ġå¤©å¤© ç¦ıåĪ©å½©ç¥¨
éģ µ
Ġeel misel
ĠÚªÚĻ Úĩ
Ġå¤§åıĳ çľŁéĴ±
ĠÚ©ÙĪÙĨ Ø³ÙĦ
ĠéŃĶ åħ½
æĢ§ åĴĮ
à´´ à´ª
ĠØ§Ú»ÚĦ Ø§ØªÙĦ
ĠØªØ¹ ØµØ¨
ĠÙ¾ÚĻÙĩÙĬ Ø§
ÙĪÙħ ÛĮ
ĠØ° ÙĬ
æ²³ åįĹ
ĠÙĩØ§Ø± ÙĪÙĨ
ÚĦ Ø§Ùħ
ĠÙ½Ø±Ø¨ ÙĬÙĪÙĨÙĦ
ĠI lm
Ġ åı¸
ĠÚ¯ ÙĦÛĮ
ĠÙħÙĨ Ø´ÙĪØ±
åĪĨéĴŁ ä¸ĢæľŁ
Ø³ ÙĬØ±
ĠØ²Ø¨Ø§ÙĨ Ø§Úº
ä¾ ¯
æĻ ĭ
ĠÚ³ ÚĨ
ĠÚĦ ÙħÚ»
ĠÙħÙĦØ§Ø² ÙħØª
ĠØªØ¬Ø±Ø¨ Ø§
Úª ÙĨØ¯ÙĬ
ĠhÃ¼ vit
ĠÚ¯ÙĦ Ú¯Øª
ĠÚĩ ÙĨ
ĠÙ½Ø¦ ÚªØ³
ĠÙĨÚªØ± ÙĨØ¯Ø§
Ġliik mete
Ùĩ Ø§Ø±ÙĨ
Ġde f
ĠÚ©Ú» ÙĨØ¯ÙĪ
å¹¿ åľº
Ġe lem
Ġå¤§åıĳå¿«ä¸īæľĢéķ¿ è¿ŀ
ĠÚ³Ø§ÙĦÙĩ Ø§Ø¦ÙĬÙĨØ¯ÚĻ
ĠÙ½ÙĪ Ù¾ÙĬ
kt ori
åŃ Ŀ
à´¹ à´Ļ
æ¸¸ å®¢
é£ ¯
ĠÃ¼mbr itse
Ġtoo ted
ĠÙ¾ Ø§Ø¯Ø±ÙĬ
ĠÙģ Ø±ØŃ
Ġh aar
ĠçĻ½ å°ıå§Ĳ
ĠÙħØ¬ Ø§ÙĩØ¯
Ġå°ıè¯´ éĺħè¯»
ĠÙĩØ± Ú»
Ġhakk avad
ĠÚ¯ ÙĨÚ¯Ø§
åĩº ç§Ł
ib a
èĴĻ åı¤
Ġprotses s
et o
ĠØ¹ÙĬØ³ Ø§Ø¦ÙĬÙĨ
å¥ ı
Ġtutv uda
T art
éĿ¢ ä¸´
å¤© æ°Ķ
ĠÙĦØ§Úı Ø§Ú»ÙĬ
èħ ¹
èµ· ä¾Ĩ
äºĮ æīĭ
Ø±ÙĬØ² Ø±ÙĬ
è³ £
ks id
ĠØ§ÙĬ Ø³ØªØ§Ø¦ÙĬÙĨ
è§Ĩé¢ĳ åľ¨çº¿è§Ĥçľĭ
æł· çļĦ
Ġà´Ĳ à´ķ
ind ows
Ú¯ Ø³
ĠØ³ÙĪ Ø²
æĹ¥ åŃĲ
Úª Ø§Ø´
ĠÙĪØ± ÙĩØ§Ø¦Ú»
Ġà´Ĭ à´°
Ġlast a
ĠkÃ¤ib emaks
çī §
ĠØªÙģ Ø±ÙĬØŃ
ĠÙ¾Ø±Ø§Ø¬ ÙĬÚªÙ½
ÙĬ Ø±ÙĬ
åľ° ä½į
ĠØ¬Ùĩ Ø§ÙĦØª
à´³ à´°
ĠÚ¯ÙĩÙ½ Ø¬ÙĬ
ç¦ģ æŃ¢
à´¯ à´Ł
ĠÙħÙĪÙ½Ø± Ø³Ø§Ø¦ÙĬ
è¿Ķ éĴ±
ĠÙ¿ ÙĪØ±ÙĨ
ĠÙĦ Ø§ÙĩÚ»
am alt
Ġà´ī à´Łà´®
ĠØµ Ø¯ÙĬÙĪÙĨ
Ø§Ø±Ø§Ø¬ Ø§
ĠØ§ÙĬÙħØ§ÙĨØ¯ Ø§Ø±ÙĬ
å®¾ é¦Ĩ
Ġsuun atud
å°ı åŃ©
Ø± Ø³Øª
ä¸» å®°
Ã¼m ne
K Ã¼
g un
æ¤ ħ
ĠØ³ Ù¾ÙĨ
Ú» Ø§Ø¦ÙĬ
àµįâĢį âĢĭ
æĢ» å½©
ĠÙħØ°Ûģ Ø¨
ĠØ³ÙĪ Ø¦ÙĬ
ĠÚ¯ÙĩÙĪ Ù½
æī¶ è´«
ĠÙĦ ÙħÛĮ
Ù¹ Ú¾ÛĮ
Ġæ ¾³
æĹ¥ æĹ¥
Ġv or
ĠØ§ÛģÙħ ÛĮØª
ç»Ħ åĲĪ
ĠÙĩÙĪÙ½ÙĦ ÙĪÙĨ
an c
Ġn al
ĠkÃ¤ ia
ĠØµÙģØŃ Ø§
ÛĮ ÛĴ
ĠÛ Ĵ
èħ ³
Ø¬ Ø§Úº
Ġv ood
à´§ à´¨à´¯
ĠØ§ÛĮÙ¹ Ùħ
ĠæĲ ľ
ĠÙĨØ§ Ú¾ÙĬ
ber g
ĠÚ¯ ÛĮØ³
ĠÙģØ± ÙĪØ±ÛĮ
èĦ ī
ç§ĳæĬĢ æľīéĻĲåħ¬åı¸
ĠÚ¾ÙĪ Ø§
Ġå¤©å¤©ä¸Ńå½©ç¥¨æĺ¯ èħ¾è®¯
ÙħÙĦÚª ØªÙĬ
åºĬ æĪı
in ts
ĠØ§ÙħÙĬØ± ÙĨ
ĠÙĨ Ø§Ø±ÙĪ
am in
æĪĳ å°±
ĠpÃµr and
ĠØ´Ø§ ÙĩÙĨ
à´¸ à´ª
Ġsur ma
ust ust
Ġ å¹´
åŃ Ł
æį¢ å¦»
p l
Ġh om
åĸľ æŃ¡
ĠÙĦ Ú¾
çĩ ķ
ĠØ¬Ø³Øª Ø¬ÙĪ
ĠØ§ÙĨ ÚĬÙĬØ²
ĠØ§Ùĩ ÚĥØ§Ú»
ĠÙĦÙĪ ÚªÙĦ
me ga
ig r
ĠØ± Ú¾ÙĨ
ĠEest ist
up a
ĠÚĦØ§ÙħØ´ ÙĪØ±ÙĪ
æ» ©
Ġnoor ed
Ú© Ø±Ø§
Ġv esi
el am
ĠØªÙĪ Ø§Ø²ÙĨ
ĠÙħ ÙĩÙĨ
ĠØ³ ÙĪØ±Øª
ĠØ³Ø§Úĥ Ø§ÙĩÙĩ
èĪ Į
ĠC ont
ĠÚĨÙĪ Ù½ÙĬ
Ġna er
ĠVÃµ ib
ĠØ¬Ùĩ Ø§Ø¯
24 0
ĠØ§ÙĦÙĬÚª Ù½Ø±Úª
Ġood ata
ĠM ust
ĠØµÙĪ Ø¨ÙĪ
ek ond
h es
Ć ãĢģ
Ġvajal ikud
åŀĥ åľ¾
ĠÙ¾Ø§Ú»ÙħØ± Ø§Ø¯ÙĪ
ĠØ³ÙĪ Ú©
ĠçĪ± å½©ä¹Ĳ
E V
Ø± Ø§Ú»ÙĬ
Ù¾ Ø´Ø§ÙĪØ±
Tall inna
ĠÚ¦ÙĬ Ø±ÙĬ
è» Ł
uv at
é¢Ħ è®¡
Ġå®ī åºĨ
å¿į èĢħ
v Ã¤l
19 24
19 39
Ġkokkule pp
à´² à´¬
... !
12 5
ĠkÃ¼l ge
eri oodi
ĠÙĦ ÙĦ
ĠÙĨØ§ Ù½Úª
Ø¨ Ú©
ĠÙ»ÚĮ Ø§ÙĬØ§Ø¦ÙĬÙĨ
çļĩ å®¶
r n
ĠØ§ÙĨ Ø§Ø¬
Ġar m
ÙħÙĦ Ø§Ø¦ÙĬ
âĢ¦ âĢľ
è¿½ æ±Ĥ
çį ²
ĠØ¬ÛĮÛģ Ø¯ÛĮ
Ø¹Ø¯ Ø§ÙĦØª
ĠØºØ± Ø¶
Ġpika ajal
ĠØ¬ÙĨÚ¯ ÙĦ
æ¦Ĥ å¿µ
O len
å®¶ æĹı
é¦Ļæ¸¯ åħŃåĲĪå½©
ç¢ ¼
åĪ© äºļ
ĠØ³ÙĪØ´ÙĦ Ø³Ù½
ĠÙĦ Ø§ÙĦÙĬ
en ov
åıį æĺł
Ġ çİī
ä¼ļ ä¸Ĭ
é»Ħéĩĳ çīĪ
ĠkÃ¤ inud
ĠØ¬ÙĪ Ú©
m ad
Ġs iir
Ø§ÙĪ ÛĴ
Ġ åĲį
ĠØ±ÛĮÚ© Ø§Ø±ÚĪ
or k
Ùħ ÛĮÚº
ç´ Ģ
åįģ ä¸Ģ
ĠE R
åıĤ æķ°
ĠjÃ¤ l
ĠÙħØ±ØŃ ÙĦÙĪ
ĠØ§ÙĨÚªÙĪ Ø§Ø¦Ø±ÙĬ
ĠÙĪÙĨÚĪ Ø§Úº
Ġlep ing
ĠØ³ÙĬÙĨ Ø¦Ø±
Ø¦ Ùģ
k op
èī³çħ§ éĹ¨
Ġme hed
Ø³ ÙĬÙĨÙĬ
ĠØ® ÙĦÙĬÙĦ
åľĭ å®¶
ĠÚ¯ ÙĦÙĬ
ĠØªÙĬ Ø³ÙĬÙĨ
ĠØ« ÙĪØ§Ø¨
ĠÙĨÙģØ³ÙĬ Ø§ØªÙĬ
ĠØ´Ø§ÙĩØ± Ø§ÙĩÙĩ
Ø° Ø±ÙĬ
ÙģÙĬ Ø¹
å¨±ä¹Ĳåľº å®ĺç½ĳ
ĠÙĨØµ Ø§Ø¨
ÙĤ ÙĨØ¯
Ġà´ķ à´ķ
aks id
ĠÙģÙĦ ÙħÙĬ
ĠØ±ÙĪÙĨ ÙĤ
ĠÙ½ØªÙĪ Ù½
ĠØ³ ÙĪØ±ÙĨ
ĠÙ¾ ÙħÙ¾
çļĦ å¹³åı°
ĠÙĬØ§Ø¯ ÙĨ
ĠÙĨÙĬØ§ Ù¾ÙĪ
ĠØ± ÚªÙĨ
ĠÚĬ ÙĪÙĦ
Ġliik lus
Ø¨ Ø§Ø¦ÙĬ
Ġjag ada
æŃ Ĳ
Ġå½©ç¥ŀäºīéľ¸ ç½ĳé¡µçīĪ
åĲ ¾
Ø§Ø³ ÙĪ
èĤ¡ ç¥¨
ĠÚ¾ÙĨØ¯ Ø³ØªØ§ÙĨ
åĵģ ç§į
ĠØ§ÙĨÚ¯ ÙĦÙĨÚĬ
è² Į
çĥŃçĶµ å®ĺç½ĳ
Ġal al
ĠØ± Ø¶ÙĪ
id uk
ĠÙģØ±Ø¯ ÙĨ
ĠÚ³ ÚĻÙĩÙĬ
ĠØµØ¯Ø§ ÙĤØª
æīĭæľº ä¸ĭè½½
QQ ç¾¤
Ú¯ ÙĬØ±ÙĨ
åİ ¨
ĠÚĬÙĪ ÚĻÙĬ
èĩª è¡Į
ĠØ³Ø± Ø§Ø¦ÙĬ
ä¸Ńå¤§å¥ĸ åĲĹ
Ġmot iv
aja st
ç¾İ åĽ¾
èĥ½ éĩı
Ġà´Ĺ à´¤
Ġpil te
Ġmiljon i
ä¸į åĨį
Ġå¤§åıĳå¿«ä¸īæĢİä¹Ī ä¹°
Ġà´ķà´¥ à´ķà´³
Ġkon f
Ù½Ø±ÙĪ ÙĦÙĬÙħ
ä¾¿ å®ľ
Ġs ool
å¼Ģå¥ĸ ä¹Ī
ĠÙħÙĨØ³ÙĪ Ø®
ÙħÙĬ Ø§Ú»ÙĬØ¡
ĠØ§ÙĨØªØ®Ø§Ø¨ Ø§Øª
Ġar t
iv ers
ç»¼åĲĪ ç½ĳ
V ir
Ù¾ÙĦ Ø§Ú»
ĠÙ¾Ø§Ú©Ø³ØªØ§ÙĨ ÛĮ
Ġkoh as
é¹ ¤
åĽŀ å®¶
æ¶ Ľ
Ãľ ks
é¹ ħ
ĠØ¨Ùĩ Ø§Ø¯Ø±ÙĬ
ĠÚĩÚı Ø¬ÙĬ
ä»İ äºĭ
Ø¨Ú¾ Ú¯
è¿Ĳ çĶ¨
ĠÙ¾ÛĮ Ø§Ø±
ĠÙ¾Ú¾ ØªÙĪ
ĠÙĤÙĨ ÙĪÙĨ
ĠÚªÙĪÙ½ ÚĻÙĬ
ĠÙ¾Úĩ Ø§Ú»ÙĪ
Úĥ ÙĬ
Ġvast ava
æİĴ åĪĹä¸ī
ĠØ¨Ø§ Ú¾
ĠM Ã¼Ã¼
ĠÙĬÙĩÙĪ Ø¯ÙĬ
èĬ± åĽŃ
ĠÙ½ÙĪ ÚĻÚ»
æ¨¡ æĭŁ
ÚĬ ÙĬØ¡
ĠØ¢Ùģ ØªØ§Ø¨
Ġkun sti
ĠÙĪÚĦ Ø§Ø¦ÙĬ
Ø¬ Ø±ÙĬ
Ø¦ ÚĻÙĨ
ĠØ¯ÙĬÙĪ Ø§Ø±
çŃī çº§
ĠØ´ÙĪÙĤ ÙĬÙĨ
àµįâĢ ¦
ĠØ§Ø³ ÙĬ
ĠØ³Úı Ø¨ÙĪ
ÙĨ ÙĬØ¡
çŃ ±
Ġæĸ° èĳ¡äº¬
ÙĬ Ø§Ø¯
ĠØ³ Ù½ÙĨ
ar iik
ÙĪ Ù½
Ġå¤©å¤©ä¸Ńå½©ç¥¨ åħħåĢ¼
ĠÚªØ§ Ù½ÙĬ
Ø Ĵ
ĠÚĮÙĨ ÚĮÙĬ
ÙĪØ±ÙĨ ÙĬØ§
Ġre aal
ĠÚ³ Ø§ÙĬÙĪ
ĠØ§Øª ÛģØ§Ø³
å§ĭ ç»Ī
com www
ĠØ±Úª Ø´Ø§
ĠØ³ÙĪÙĪ ÛĮØª
ĠvÃ¤lja s
pal li
Ġse ga
Ø³ÙĨ ÚĮÙĪ
ane ma
à´¿ -
èŀ º
Ġr ea
å¤©å¤© èµ¢
Ġ èĮĥ
ĠØ¬Ù¾ Ø§ÙĨÙĬ
åħ¨ å¸Ĥ
Ġkasut ab
ĠC on
çļĦ åĽ¾çīĩ
f er
ĠÙ¾Ø± Ø§ÙħÙĨ
Ġsoov ite
à´¤ à´ķà´¨
Ø¨ ØªÙĨ
ĠLÃµ una
Ġkasv u
Ġà´¸ àµ¼à´µ
è° ľ
ĠÙ½ Ø±ÙĬØ²Ø±ÙĬ
ĠjÃ¤rg misel
a ine
Ġ å¤ª
196 7
æ²Ł éĢļ
ist es
ĠÙħØŃ Ø§ÙģØ¸
æĢİä¹Ī åħĳå¥ĸ
à´°à´ķ à´Ł
ord selt
ind lasti
ĠØ³Ø§ÙĨ Øª
ç¾İ äºº
st arb
å¸Ĥ å§Ķ
Ø§ÙĤ ÙĦ
ä¼Ļ ä¼´
å¯ º
ĠÙĤØ±Ø¨Ø§ÙĨ ÙĬÙĪÙĨ
Ġselg elt
P K
Ø± Ø¬ÙĨ
Ġå¤§åıĳ å®Ŀ
Ø§ÙĦ Ø±ÙĨ
ĠÚ³ ÚĻÙĩÙĩ
Ġsa amiseks
ÙĨÚ¯ ÙĨ
ĠÙħØ¹ Ø¬Ø²
Ġkindla ks
Ø¬ Ø³
ĠØ³ ÙĦÛĮÙħØ§ÙĨ
ĠÚ© Úı
ĠØ¯Ûģ ÙĦÛĮ
ĠÙ¾ÙĨÙĩÙĨØ¬ ÙĬÙĪÙĨ
ĠØŃØ§Ø¯Ø« ÙĨ
çļĦ ä½ľçĶ¨
à´¥ à´²à´Ļ
ĠØªÚªÙĦÙĬÙģ ÙĪÙĨ
ĠØ³ ÙĩÙĪ
ĠØ´ ÚªÙĬ
ĠØ³ÙĪÚĨ ÙĬÙĨØ¯ÙĬ
Ġsu us
è·ĳ çĭĹ
ĠÙģ Ø±ÙĬØ¯
ÙĩØ§ÙĨ Øª
ä¼ģä¸ļ çļĦ
Ġk ast
ĠÙĨØ§ÙĦ ÛĴ
ĠØ®Ø² Ø§ÙĨÙĪ
Ġmak sta
ĠÙĦÛģ ÙĪ
Ú¯Ø² ÙĬÙĨ
ĠØ³ÙĪ Ù½
ĠP Ã¼
ĠÙħØ¦ÙĨÙĬ Ø¬Ø±
ĠÙĤØ¨ Ø§Ø¦ÙĦÙĬ
è§Ħå¾ĭ åĲĹ
Ġæł ¡
Ġma il
ilise st
ĠØ³Úı ÙĬÙĨ
ĠØ¯ÛĮ ÙĪÛĴ
åįļ å£«
Ġmin ut
ĠØ¬Ø§ÙĨ ÚĨ
ĠvÃµt ma
ĠP aldiski
åĽ½éĻħ å¨±ä¹Ĳ
å¥ ĳ
ĠâĢ İ
å¤ļ æ¬¡
åĲİ éĿ¢
ĠÚ³ÙĪÙĦ ÙĩÙĬ
ĠÙ¾ÙĪÚĻ ÙĩÙĪ
ĠØ¯ÛĮ ÙĨØ¯ÛĮ
ĠÙģØ² Ú©Ø³
Ġà´µ à´Ł
Ġh all
æĭ Ĵ
Ġeel ist
197 5
ĠÙģØ§Ø¶ ÙĦ
éĢļ å¸¸
èĤ Ŀ
Ġend iselt
Ġs uper
Ġperekon na
Ġå¤©å¤©å½©ç¥¨ ä¸ºä»Ģä¹Ī
h te
ĠÙĪÙĬ Ú¾
ĠR ap
hh h
Ġå¤§åıĳæ£ĭçīĮ æ¸¸æĪıå®ĺç½ĳ
ĠØ§ÙĦ ÙĪØ¯
Ġliik med
å¡ ĺ
æĬķæ³¨ ç«Ļ
ĠmÃµlem ad
ç®¡ éģĵ
ç»Ŀ å¯¹
Ġ åı¯
ĠvÃ¤ id
ĠØ±Ø´ ØªÙĨ
imise le
ĠkÃµig il
ĠØ¢ Ø´
ĠÙ¾ÙĬ Ø§Ø±Ø§
ĠvÃµ ime
å¤©å¤© å¤§å¥ĸå½©ç¥¨ç«Ļ
çĻ½ èī²
ĠØ²Ø® ÙħÙĨ
» ĳ
ĠÙħÙĨÙĩÙĨ Ø¬ÙĨ
uk u
Ġig at
çĶ ¸
Ã¶Ã¶ k
Ġka its
ĠÚĩÙ¾ Ø§Ø¦ÙĬ
uma al
ĠØ¬ ÚĻ
à´¤ à´µà´£
ĠØ¬Ú¾ ÚĻØ§
se p
ĠÙĪÙº Ø¬ÙĬ
ĠÙ¾ÙĬØ± Ø§
Ġvah epeal
ĠØ§ Ù½ÙĦ
é«ĺ èĢĥ
Ù¾ÙĬ Ø´
Ġv iit
Ġo t
ĠÚĢ Ù½Úª
ĠEuroop as
Ġå¤§åıĳå¿«ä¸ī åİĭ
ĠÚĨÙĪ Ú»ÙĬ
ĠÙĪ ÙĬÙĨØ¯Ø§Ø³ÙĬÙĨ
ĠP ak
eg atiiv
æ§ ½
ĠÙħÙĪ ÚĬ
ĠÙħØ³ ÚªØ±
Ġse k
g it
Ì Ī
Ġ å®ľ
ĠÙħÙĨØ´ÙĬ Ø§Øª
ĠØ± ØªÙĨ
Ú¾ Ùħ
S c
ĠÚª ØªÙĨ
æ¬² æľĽ
Û±Û ³
Ġomaval its
Ġà´ĵ àµºà´²
æľĢ å¥½çļĦ
ĠÃľ le
as h
çİ¯ èĬĤ
196 9
ÙĬÙĨ Ø¦Ø±
15 00
çŀ ¬
ĠØ¬ÛĮ Ø³
ĠÚĨÚ¾ ÚĪÛĮØ§
G B
ä¹ĭéĹ´ çļĦ
ĠØª ÛĮÙĨÙĪÚº
Ġvas ak
å°± åĥı
ĠØ§ÛĮÙĨ ÛĴ
Ġklass ik
ut ama
çĺ ¦
it atud
à´¾à´Ĥ ,
ĠÙ¹ ÙĪØ±
ä¹° å¤§å°ı
ĠØ³ÙĨ Ø³Ú©Ø±Øª
Ø« ÛĮØª
and use
Ġkli endi
å¤© çļĦ
ik est
é¼ĵ åĬ±
ç Ģ
ĠØ´ ÛĴ
ĠØ¬Ø² ÛĮØ±Ûģ
Ù½Ø± ÙĨÚ¯
Ø¨ÙĦÙĪÚĨ Ø³ØªØ§ÙĨ
ĠÙĦÚı Ù¾ÙĦØ§Ú»
æ½ ĺ
Ġaval iku
Ø³Ùħ ÙĬÙĨ
p c
jut i
åŁº åĽł
æŁı èĬĿ
ĠØ« ÙĨØ§Ø¡
Ø´ÙĬ Ø®
äº§åĵģ çļĦ
Ú¯ ÙĪØ±
Ġen n
Ù» ÙĬÙĨ
ĠÙ¾ Ú³
ä¹Ł å°±æĺ¯
ĠØ² Ø¨ÙĬØ±
ĠØ§ÚĨ Ú»ÙĪ
Ã¼ rit
åį³ åı¯
ĠÚĨÙĨ Ø¨
Ġarhitekt uur
ĠÙ¾ÙĬ Ø±ÙĬÙĨ
ĠØ³ Ø§Ø¯ÙĪ
Ġpr uugi
ĠØ³ÚĨ Ø§Ø¦ÙĬØ¡
ĠÚĨ ÙħÙĬ
Ġå½©ç¥ŀäºīéľ¸ æĹ¶æĹ¶å½©
èĩ³ å°ĳ
Ġma i
å¤§ éĥ¨åĪĨ
Ġç¥ŀå½©äºīéľ¸ éĤĢè¯·çłģ
Ġkonkur entsi
um ised
ĠE n
Ġener gia
Ġvide o
U U
Ġs ulg
atav ate
Ø® Ø§Ø±
ÙħØ® Ø¯ÙĪÙħ
Ġå¤§åıĳå¿«ä¸ī è§Ħå¾ĭ
ĠØ¯ÙĬ Ú³
org anis
ĠØ¹Ø¨Ø¯Ø§ÙĦÙĪ Ø§ØŃØ¯
om b
çĶŁ æĪĲ
åĲĮ äºĭ
Ġå¥³ æĢ§
äºĶ åĪĨå½©
è§Ĵ èī²
åĴĮ æĪĳ
jat el
ĠØ³Ø± Ø³
Ġs Ã¤Ã¤st
Ġà´ª à´²à´¤
Ġab s
ä¿ Ĭ
çģ« è½¦
Ġkat set
si oone
å¤§åıĳå¿«ä¸ī æĬĢå·§
Ø¹ ÙĤÙĪØ¨
l Ãµ
èĤ ¿
ĠØ´Ø§Ùĩ Ø¯ÙĬ
Ġkasv anud
Ġ éĤ
ĠØ³Ø±Ùħ Ø§ÙĬÙĪ
ĠÚ©Ûģ Ø§ÙĨÛĮØ§Úº
Ġtih ed
ä¾Ŀ æį®
çĬ¶ åĨµ
é¾ĻèĻİ æĸĹ
ć Ćï¼Į
ĠØ§ØªØŃ Ø§Ø¯ÙĬ
åįĬ å¹´
h y
ĠØ¬Ø§ÙĨ ÛĮØ§
ÛĮØ± ÛĮØ§Úº
éł Ī
æĮ ¡
Ġç½ĳ ä¸ĬçļĦ
ÙħÙĬ Ø´ÙĨ
Ø« Ø§ÙĨÙĬ
ĠÙ¾ÚĨÚ¾ ÙĦÛĴ
ĠÙħ Ú»
çĽ¸ åĲĮ
ĠØ§Ú³ Ø¦ÙĬÙĨ
Ġk ard
ĠtÃµ lg
ĠÙĦÚª Ø§Ø¦Ú»
Ġ ä¿Ħç½Ĺæĸ¯
ĠÚĮÙħ ÚªÙĬÙĪÙĨ
ĠÙĩÙĦ ÚĨÙĦ
ĠÚªÙħÙĬ Ù½ÙĬØ¡
ĠÚªØ± Ø§Ø¦ÙĬÙĨØ¯ÙĪ
Ġå¤©å¤©ä¸Ńå½©ç¥¨ä¸Ń äºĨä¸ĢçŃīå¥ĸ
ĠØ²Ø§ÙĦ ÙĨ
åĲį ç§°
ç¾¤ äº¤
ĠÙ»ÙĪ ÚĻÙĬ
ĠÚªÙĬÙħ Ù¾
å°¤åħ¶ æĺ¯
ï¼ ħ
ĠØ§ÙĨ Ú¯ÙĬØ²
æĺ¯ çĶ±
Ø§Ø¦ÛĮ Ú©ÛĮ
å½©ç¥¨å¤©å¤© éĢģ
Ġà´īà´ª à´¦
ĠØ±Ø§Øª ÙĬÙĨ
ĠÙħÙĬÙĦ Ø§Ù¾
ĠÚª ÚªØ±
ad is
O T
Ġ ä¿Ŀ
SSSS SSSS
ĠØ³Ø§ØŃ ÙĦ
ĠKa itse
ĠÙĦÙĪ ÙĩÙĩ
æĲ¬ å®¶
çĻ» è®°
ĠÙģØ§Ø¦ Ø¯Ø§
ĠÚ¯Ø± Ø¬Ø§
àµ¼ à´¥
ĠÙħØ³ Ø²
ÙħÙĦØ§Ø¦ÙĬ Ø´ÙĬØ§
åŀ «
ĠÙĦ Ù¾
çĵ £
ĠØ¬Ø§Ø¨ ÙĦÙĪ
ĠÚ¯ÙĩÙ½ ÙĬØ¡
çºª å½ķ
Ġæ¯ į
è¶ħ å¸Ĥ
ĠmÃµ tt
ĠJÃ¤r g
ĠÙħØ§Ø± ÚªØ³
æľįåĬ¡ åĻ¨
ĠØºÙĪ Ø«
ÙĪÙħ Ø¯Ø§Ø±
æľŁ çļĦ
æ·« èį¡
Ġå½©ç¥ŀäºīéľ¸ çĻ»éĻĨ
196 2
èªį çĤº
çķ¶ çĦ¶
ĠÙ½ÙĬ Ù¾
Ã¤Ã¤r t
ĠK re
ĠÙĨØ¬ ÙĪÙħÙĬØ¡
Ġå¤§åıĳæīĭæ¸¸ å®ĺç½ĳ
ĠÚĢ Ø§Ú»
èĩªåĬ¨ åĮĸ
Ġå¤§åıĳå¿«ä¸īç²¾åĩĨ è®¡åĪĴ
Ġb t
äºļæ´² èī²åĽ¾
ĠØ¨Ø¹ Ø¶
çĽĳ æİ§
Ġà´± à´·
åľĭ çĶ£
ï¼ģ ãĢį
ä¸Ńè¿ĩ å¤§å¥ĸ
ĠØ±ÙĪ Ù¾ÙĬÙĩ
Ġaast aks
å°ģ éĿ¢
p Ãµh
Ù½ÙĬ ÙĦÙĬ
Ġla ev
ĠØ²Ø¨Ø±Ø¯ Ø³ØªÙĬ
ĠØ§Ø±Ø¨ Ø¹
ÙĬ Ø§Ø¨
ĠÙĪØ³ Ø§Ú»
ĠØ± ØªÙĪ
ĠØ¬ Ú¾ÙĬ
æľī çĿĢ
ĠØ³ÙħØ¬ Ú¾Ùĩ
Ġà´¶ à´¶
ĠØ´ Ø¹ÙĪØ±ÙĬ
ĠØ²Ø§ÙĦ ÙĪÙĨ
ĠØ¬Ø± Ø§Ø³ÛĮÙħ
Ø§Ùħ ÙĬØ¯
Ġà´µ à´Łà´ķ
ĠØ¬ÙĨÚ¯ ÛĮ
ĠØ¨ÚĨ ÙĬÙĪ
å°ı ç»Ħ
ĠØ¨ÙĪ ØªÙĦ
Ãµ iv
ÛĮÛģ Ûģ
ĠÚªØ§Ø±Ø±ÙĪ Ø§ÙĬÙĨ
Ġ åĵª
ĠÙ¾Ø± Ùħ
ĠØ¹Ø¨Ø¯Ø§ÙĦ Ø±ØŃ
å¤§ æķ°æį®
ĠS est
è¡¨ è¾¾
éĢĤ åºĶ
ust avad
ĠØŃØµ Ø§
ar ja
Ġå¤©å¤©ä¸Ńå½©ç¥¨ çĶµèĦĳ
ĠØ±ÙĪ Ø¨Ø±ÙĪ
u es
ĠÙ¾ Ù¹
à´· à´ķà´¨
atsioon is
å¿ĥæ°´ è®ºåĿĽ
ĠÙģØ±ÙĬÙĨ ÚĨ
è½¬ åŀĭ
ĠØ³Ù» Ø§Ø¬
ĠÙħÙĤØ§Ø¨ ÙĦØ§
Úª Ø§Ø±ÙĪ
æĬķèµĦ èĢħ
N ii
æĺ¯çľŁ å®ŀ
çĤ ī
åı¬ å¼Ģ
Ø±Ø¨ Ø§Ø¦ÛĮ
Ø±Ø¨Ø§Ø¦ÛĮ Ø¬Ø§ÙĨ
ĠÙĪØ±Øª ÙĪÚº
èĲ¥ ä¸ļ
g an
Ġå¾®ä¿¡ ä¸Ĭå¤©å¤©ä¸Ńå½©ç¥¨
åĩ ī
ĠvÃ¤r ske
å¨±ä¹ĲåŁİ å®ĺç½ĳ
Ġpresid ent
e i
é© °
éĽ ¾
ĠÙħ ÙħÙĦÚªØªÙĬ
ĠE nam
è² ¨
Ã¤h k
Ġ åı°æ¹¾
Ø¢ Ø±
Ġå¤©å¤©å½©ç¥¨ä¸Ńå¥ĸ äºĨ
å®ĺç½ĳ å¼Ģ
idu gi
Ġva ata
èı© èĲ¨
m ev
Ú© Ø´
ĠÙĦØ¹ÙĨ Øª
ar st
A nd
ä¹ Ķ
' s
ÙĪ Ø¦
Ġå½©ç¥ŀäºīéľ¸ æĢİæł·
åľ¨ æŃ¤
åĩ ¸
ĠØ¹ÙĤÙĬØ¯ ÙĨ
à´Ĥ âĢĭ
ĠØª ÛĮÙĨ
åĲ ķ
å¥½ åıĭ
éħį å¥Ĺ
ĠØ¨Ø§Ø¦ÙĬ ÚªØ§Ù½
h ele
èª °
p ort
us ika
Ø¨ Ø§Ø²ÙĬ
Ġå½©ç¥ŀäºīéľ¸ åľ¨çº¿
ĠØ¬Ú¾ ÙĦÙĬ
ĠÅ ł
ÚªØ± Ø³Ù½ÙĪÙģØ±
ĠØ¨ÙĦ Ø¨
ĠÙºØ§ÙĩÙĬ ÙĦ
un sti
ĠÚªØ§Ø±ÙĨ Ø§ÙħÙĪ
ĠÙĦÙĬ Ú©ÙĬ
Ġå½©ç¥ŀäºīéľ¸ èµ¢
äºº å¦ĸ
è¤ ²
Ġå½©ç¥ŀäºīéľ¸ è´¦åı·
um ata
Ġå¤§åıĳæĹ¶æĹ¶å½© è®¡åĪĴè½¯ä»¶
äº¤ éħį
ĠÚª ÙģØ±
ÙħØ§ ÙĬÙĪÙĨ
Ġà´¨ à´ķ
ĠÙĪÙĬ ÙĩÙĨØ¯ÙĪ
ĠÙ»ÚĮ Ø§ÙĬÙĦ
åĶ¯ ç¾İ
ĠÙĨØ¯ ÙĬÙħ
ĠÚĬÙĪÙĨ Ø§ÙĦÚĬ
æħ¢ æħ¢
Ġpe etakse
ĠØ¬Ùħ ÙĦØ§
å¸Ĳ åı·
ĠÚĨ Ø§ÙĩÙĩ
ĠØ¬Ùĩ ÚĻÙĬÙĨ
ĠÙĬØ§Ø¯ ÙĪÙĨ
ĠÙħØ´ÚªÙĦ Ø§ØªÙĨ
ĠtÃµ mm
ĠØ´ÙĬ Ø´ÙĬ
ĠØ³Ú¯Ú¾ ÙĨØ¯ÙĪ
ĠØ§ Ù½ÙĬ
Ø¯ ÙĬÙĪ
ĠØ§ÙĦÙĬÚªÙ½Ø± Ø§ÙĨÚª
ÙĪ Ù¾
ĠÙĨÙĨÚį ÚĻØ§
Ġtulem used
g id
à´¶ à´¨à´¤
å¾ĭ å¸Ī
ĠÚĩÙ¾ Ø§ÙĬÙĪ
i as
in er
Ġr ev
æ® ¿
åħ¶ å¯¦
æĺ¯ ä¸ª
ĠØ³ÙĪ Ø§ÙĨ
op e
ĠÚĨØ§ÙĨ ÚĬÙĪ
ĠÚª Úı
ĠÙ¾ ÙĨÙĬ
Ġæ¬¢ä¹Ĳé¢Ĥ å°ıè¯´
Ġå½©ç¥ŀäºīéľ¸ ios
Ġmit med
å¤§ æĪĺ
ĠÚ©Ø¹ Ø¨Ûģ
Ġal ustada
Ġå½©ç¥ŀäºīéľ¸å¤§åıĳå¿«ä¸ī æĢİä¹Īä¹°
ĠØªÛģØ° ÛĮØ¨
ĠØ§ÚĨ ÙĬÙĪ
ĠØ³ÙĪÚĨ ÙĬÙħ
åŀ Ĥ
Ġà´ħ à´Łà´Ļ
åĩł ä¹İ
è¦º å¾Ĺ
æĥ ľ
ĠØ±Ø§Ø¬ ÛĴ
ĠØ¢Ø¦ÛĮ ÙĨ
ĠØ®ÙĦÛĮ ÙģÛģ
ĠØ®ÙĨ Ø¬Ø±
Ġte eme
Ù¾ÙĪÙĦ ÛĮÙĨ
Ġ àµ½
åĳ Ģ
ÙĦØ§ Ú¯
ĠÚ© Ø§Ø±ÛĮ
ĠÙ¾Ø§Ø± ÙĦÛĮ
ĠÚ©ÛĮ ÙĪÛĮÚº
ĠÙĦÚĳ ÙĨ
ĠÙ¾Ø§Ø±ÙĦÛĮ ÙħÙĨÙ¹
Ø±ÙĪ ØŃ
Ġå¤©å¤©ä¸Ńå½©ç¥¨ å¹³åı°
çĲĥ éĺŁ
Ú¾ ÙĪÚº
Ùģ ÛĴ
m Ã¤Ã¤r
ĠÚ¾Ù¿ ÙĨ
Ġk Ã¤r
ĠØ¯Ø§Ø± ÙĪÙħØ¯Ø§Ø±
å¾®ä¿¡ å¤©å¤©ä¸Ńå½©ç¥¨
ĠnÃ¤dal at
ĠØ¨ Ø¬Ø§
Ø¯ÙĬ Ù¾
ĠÚ©Ûģ ÙĨØ§
Ġehit atud
æľ µ
æīĢ è°ĵ
ĠÙħØ§Ø¯ Ûģ
f or
ĠÙĪÙģØ§ÙĤ ÛĮ
Ġkahju ks
ĠØ³ÙĪÚĨ Ø§Úº
Ġå¤©å¤©ä¸Ńå½©ç¥¨ç½ĳ å®ĺç½ĳ
ak ter
ĠØ±ÙĪÙħ ÙĬ
åī Ľ
ĠsÃµn as
åľ¨ ä¸ŃåĽ½
ĠØº ÙĨÙĬ
ĠÙĩÙħØ±Ø§ ÙĩÙĨ
Â °
Ġ åįļå½©
ĠÚĨ Ú©Ø±
ĠjÃ¤rg nev
çĽĳ æµĭ
Ø¹ ÙĦÙĪÙħ
ĠØ§Ø¯Ø§Ø± ÛĴ
èĢ½ ç¾İ
sim ene
ĠÙħ ÙĬØ³Ø±
ĠÙĩ ÙĦØ§
ig n
ĠØ§ÙħØªÙĬ Ø§Ø²
ĠÙģÙ½ Ø¨Ø§ÙĦ
ĠØªØ± Øª
Ġs k
ĠÙĪØ§ÙĦ Ø§Ø±ÙĬÙĦ
Ġå½©ç¥ŀäºīéľ¸ åľ¨åĵª
ĠJ ust
ĠÙ»ÙĬ ÚĻÙĬØ¡
Ġpu id
ĠØªØŃØ±ÙĬÚª ÙĨ
Ù¿ ÙĬÙĪ
ĠÙĤØ¨Ø¶ Ø§
ĠØ¨Ø³Øª Ø±ÙĬ
ĠÙĦÙĬÙģ Ù½ÙĬÙĨÙĨÙ½
ĠØ´ ÙĬØ¯
ĠÙĪÙĬ Ø§Ø¬
å¼Ģå¥ĸ çĽ´æĴŃ
ĠØ³ ÙĦÙĩ
ĠØ®ÙĪ Ø¨ÙĬ
ĠØ´ÚªØ§ÙĬØª ÙĪÙĨ
Ġà´µàµ¼ à´·
Ġ å¾®
Úı ÙĬÙĨ
ĠE h
ĠÚªÙĦ ÙĬÙĨ
è¨ İ
Ġteat as
Ġ çĨŁå¥³
ĠÚĩÚı Ø§Ø¦ÙĬ
Úª ØªØ§Ø¨
ĠØ§Ù¿ Ø§Ø±ÙĬ
pÃ¤Ã¤ s
ÚĬ Ùħ
ĠÚıÙĬÚ©Ø§Ø±ÙĬ Ø§
Ġka jast
é¼ ł
Ġ åĶĲ
ĠÚĩÚı Ø§Ø¦Ú»
æ²³ åĮĹ
Ġ æ³¢
Ø¬ÙĬ Øª
ĠÃµpp ek
Ø¬ ØªÙĬ
ĠØ§ÙħÙĬØ¯ ÙĨ
ĠÙĩÚ» ÙĨØ¯ÙĪ
os id
Ġé»Ħ å¤§ä»Ļ
åıĹ å®³
14 0
ĠØ§Ø° ÙĬØª
Ġet t
19 17
åĩł æľŁ
Ġal lik
ĠØ± ÙĬØ³
èĤ¡ ä¸ľ
d r
ilise s
æ£ĭçīĮ æ¸¸æĪıå®ĺç½ĳ
196 4
Ãµig use
ĠÙħÙĪ Ø«Ø±
10 5
à´¤ à´Ł
Ø§Ø¯ Ùĩ
æ·± åº¦
ĠkÃ¼p set
äº Ń
åĭ ¾
åŁİ åİ¿
àµģ àµį.
è³ĩ æĸĻ
äºİ æĺ¯
ĈĈ ãĢĤ
p unkt
Ø· Ø±Ùģ
à´°à´³ à´¯
Ġå½©ç¥ŀäºīéľ¸ çĻ»å½ķ
Ġå¤©å¤©ä¸Ńå½©ç¥¨ æ²¡æľī
ĠÚ¾ Ø¦Ø³
p un
ĠÛ¾ -
Ġrahvusvahel ise
åŃ¦ ç§ĳ
ĠØ¯ÛĮÛģØ§ ÚĳÛĴ
r iigi
Ġ ä¹Į
åĢŁ æ¬¾
ĠÚ©Ú¾ÛĮØª Ø±
å®³ æŃ»äºº
ĠÙĦÙĬ ÚĬÙĬ
ge er
Ġaval ik
Ġor ig
Ġæ ¶
Ø§Ø¯ Ûģ
ĠÙĦ Ø§Ø¦ÙĬÙ½
ĠÚĪ ÚĨ
Ġkomm enteer
C C
åľº æ¯ĶèµĽ
Ù¹Ø±ÙĪ ÙĦ
æľī å¤ļ
ĠÙĨÙĬ Ú»
ĠØª Ø§Úª
Ġterrit oorium
ĠÙ»ÚĮ ÙĨØ¯ÙĪ
Ø§Ø¦ÛĮ Ù¹
um isi
atsioon ide
å®īè£ħ å½©ç¥ŀäºīéľ¸
ĠØ§Ú¾ Ùħ
Ú© Ø¯Ø§
åĪ© æ¶¦
à´ĸ à´²
ĠkÃ¤ est
à´¦ à´°à´¨
av ar
éĢļ éģĵ
Ġigas ug
en et
éĶ ħ
å¼Ģå¥ĸç»ĵæŀľ æŁ¥è¯¢
ĠØ¸ÙĦ ÙħÙĨ
Ġà´ħà´¯ à´ļ
Ġmill al
çº µ
èº« é«Ķ
ĠÚ©Ø±Ø¯ ØªØ§
ĠP ol
ç»Ħ éĢī
ĠÚĨØ§ ÚĨÙĪ
ĠÚĢØ± Ù¾Ø§Ø³ÙĬ
ur ite
åħĥ ç´ł
ĠØ³Ø§Ø¯ Ú¯ÙĬ
197 6
Ġå¤©å¤©ä¸Ńå½©ç¥¨ çĻ»å½ķ
oo re
æ±Ł è¥¿
çĶµåŃĲ ä¹¦
åĬ³ åĬ¨
ĠØ³ Ø§ÙĩÙĬ
ĠÙħÙĦÙĬ Ø³
Ġå¤©å¤©ä¸Ńå½©ç¥¨ æ²¡
19 18
Ġ éĤ£ä¸ª
ĠÙĪÙĬØ³ Ø§ÙĩÙĩ
ĠÚĮÙħ ÚªÙĬ
æĬ «
ĠÚª ÚĨÙĪ
ć Ĉć
ĠØ² Ø¨
ĠÙĪÙĩ ÚªØ±ÙĬ
ĠÙĨØ¸ Ø§Ø±ÙĪ
Ġaut ot
äºĭ æķħ
ĠÙ¾ÙĦØ§Ø³ Ù½Úª
Ġà´ĵ à´¸
ĠVÃ¤ ga
ool d
Ġmo el
èĸ ª
ĠtÃ¤ht is
Ø³Ùħ Ø¬Ú¾
v ju
x i
ĠØ¯ Ú³
Ġà´ķ à´·
ĠØ¨Ø§Ø´ Ø¹ÙĪØ±
Ġm p
èĥ½ å¤ł
ĠØ±Ø¯ Ø¹ÙħÙĦ
å¤© æ¶¯
åĵģ èī²
å¤§åıĳ æ¸¸æĪıå®ĺç½ĳ
ul ised
æ° Ľ
éĽ ŀ
ĠPa ul
Ġå½©ç¥ŀäºīéľ¸ ä¸Ńå¥ĸ
å°ģ å¤©
ĠéŃĶåħ½ äºīéľ¸
Ġb log
å°į æĸ¼
194 6
Ġlenn uk
åĽ Ĭ
ÙĤ Ø¹
Ġå¤§åıĳå¿«ä¸īæĺ¯ å®ĺç½ĳ
ĠkÃ¤es ole
ĠåįĹäº¬ å¤§åıĳ
Ġà´ħà´ª à´ķà´Ł
ç¬¬äºĮ åŃ£
æŃ¦ åĻ¨
Ġæ± ī
Ø¬ÙĪ Ø§Ø¨
èĻļ æĭŁ
Øµ Ø±ÙĨ
ut ust
Ġarv an
å¹³æĸ¹ ç±³
ow n
ĠÙĪØ± Úĩ
ĠØ¬ÙĦØ§ÙĪ Ø·ÙĨ
ĠØ± Ø¹ÙĬØª
or y
ä¸ŃåĽ½ çī¹èī²
ĠØ´Ùħ Ø§Ø±ÙĬ
ĠØ¯Ø§Ø¹ Ø´
z y
Ġteise s
Re ad
Ġtav apÃ¤r
ĠØ®Ø§ÙĨ ÙĪ
è£¸ çħ§
å¿ħ ä¸Ń
å¦ Ĩ
ĠÙħ Ø§ÙģÙĬØ§
ĠØ² ÛĮØ±
ĠØ§Ú© Ø§ÙĪÙĨ
å¸Ĥ æ°ĳ
ĠÚªØ§Ùģ Ø±
si le
ĠØ§Ù¿ ÙĦ
çĶµè§Ĩ åı°
Ġvii e
Ġsuut nud
è¬ Ľ
æ¡ ĳ
Ġkogem us
Ġh amb
ĠÙĦ Ø¨ÙĨ
Ġk ang
ÚĨ Ú¾ÛĴ
Ġà´Ĵ à´®
äºº ä¸İ
ĠÙ»ÚĮ Ø§
ĠÚ¯ÙĪ Ø¯
ĠÙĤÙĦ Ø¹Ûģ
Ù» ÙĬÙĪ
ĠØ¯ÙĬ Ø±ÙĬ
ĠØ³Ú¯Ùĩ Ø§Ø±ÙĪ
aalse id
ĠØº Ø±ÛĮ
ÙĦÙģ Ø¸
ÙĪÙĦ ÛĴ
åĲĮ æŃ¥
ĠÙĬÙĤÙĬÙĨ Ø§
ĠØ¬ Ø§Ø¦ÛĴ
ĠÙħ ÙºØ§
11 11
ĠØ·ÙĪ Ø§Ùģ
ĠT Ãµn
æŁ ¯
æ²» çĻĤ
ĠØ²ÙĬÙĨ Øª
ĠvÃµ l
Ġna ise
ĠÙħØ§ ÚĬØ±ÙĨ
æľ ´
ĠØ¬Ø§ ÙĩÙĦ
Ġh ald
Ġtekk is
è¥¿ å®ī
èĦ± è´«
å¸ ½
Ø® Ø§ÙĦ
ĠtÃµenÃ¤ol iselt
Ø¬ Ø³Ù½
ĠÙħÛĮ Ø²
ĠkÃµik ide
oo ma
Ġse d
pa ani
Ġv is
à´ľ à´¯à´ª
Ġma ak
ĠØ¢Ú¾ ÙĬÙĪ
Ġà´Ķ à´¦
ĠØ¬ Ø¯ÛĮØ¯
çĶµ åķĨ
æĬĢ è¡ĵ
èĬ ¯
Ġs ub
ĠØ¨Ø± ÙĪÙĨ
C h
Û±Û ¸
M u
m Ãµ
ĠØ¢Ø³ Ø±ÙĪ
ĠØ¹Ø¨Ø± Øª
Ġsaad aval
ĠØ¨ÙĬ Ú¾ÙĬ
ĠC ar
åł Ĩ
ĠØµØŃ Ø±Ø§
æµ ı
Ġrest or
19 55
ĠÚ¯ÙĪÙĨ Ø¬
åıĳ å½©ç¥¨
éĩĩ è®¿
Ã¼m n
èī² ç½ĳ
å¿ĺ è®°
éŁ ¿
ja na
æĪĳ åľ¨
m ust
ĠÚª ÙĦØ§
ĠÙħØŃ Ø±ÙĪ
ç½ĳ æĬķ
en u
åĽŀ æĶ¶
ĠØ¬Ø§Ú¯ÙĬØ± Ø¯Ø§Ø±
ĠR ak
åħ³ éĹŃ
éļı åĲİ
ĠØ¢ ÙĦÙĪ
ĠØ¯ Ù¾
Ġr etse
à´µà´¸ à´®
Ġtun ni
ĠjÃµ uda
f lex
å°º å¯¸
æĸ ĳ
ĠØ®ÙĪØ´ Ú¯ÙĪØ§Ø±
ĠkÃ¼ sit
éĵģ è·¯
åģļ åĩº
è¿Ľ åİ»
pe alt
Ø± Ø¬ÙĬ
ĠÙĪ ÚªØ±ÙĬ
çĪ µ
ä¹Ł åľ¨
Ø± ÙĪØ±
å¤ĸ éĢģ
Ġkr oon
ç»Ļ æĪĳ
æŃ ·
æĬķæ³¨ è®°å½ķ
ĠØ³Ú¯Ú¾ ÙĬØ§
ĠÙģØ¶ ÙĬÙĦ
Ġn egatiiv
ĠÚ¯Úı ÙĪ
ĠØ§ ÙĩÙĨ
ĠÚ¯ ÙĬØªÙĨ
ĠÙ¾ÙĬØ±ÙĪ ÙĬ
ç¼ Ĩ
ĠF ilm
çľ¼ çĿĽ
æ¦Ĥ çİĩ
ĠØ³ Ù¾ÙĪØ±Ù½
Ġkaas as
ĠØ®ÙĪÙģ ÙĨØ§Úª
ute en
ĠØµØ§Ø±Ùģ ÙĬÙĨ
ĠÙħÙĪ Ø±ÙĬ
ĠÙ¾Ù½ ÙĬÙĪ
ĠÙħØ§ÙĦ Ø§
ĠÚªÙĨ ÙĪÙĦ
ĠÛĶ ÛĶÛĶ
ĠÙĩ Ø§ÙĨ
Ø¯ÙĪ Ø±ÙĬ
èĴ ¸
ĠÚ¾Úª ÚĻÙĬ
Ø§Ù¾ Ø±
ade ks
Ġoleks id
ĠÛģ ÙħØ§
ĠM TÃľ
ĠÙħÙĪÙĤ Ø¹ÛĴ
vÃµ rd
ĠØ³ÙĦØ³ÙĦ Ûģ
çĤº äºĨ
Ø¦ÛĮ Ø±
Ñ ĭ
Ø« ÙĪÙħ
ĠÙº Ú³
ĠØ³ÙĨ ÙĪ
ĠØ³ Ø§ÙĪ
ÙħÙĪ Ø¬ÙĪØ¯
Ġkir jal
ĠØ±Ú¾ ÙĨØ¯ÙĪ
ĠjÃµud is
Ġà´ħà´µ à´¸à´°
Ġå¤©å¤©ä¸Ńå½©ç¥¨æĢİä¹Ī çľĭ
ĠÙ¾ÛĮØº Ø§Ùħ
Øµ ÛĴ
eer imine
à´ħ à´ª
ĠÙĦÚ¯ Ø¨Ú¾Ú¯
æķ´ åĲĪ
ĠVa ata
à´¤à´² à´¤
ministeeri umi
ĠÛģ Ø¬
ĠØ¹ÙĦÙħ Ø§Ø¡
ä¼Ĺ å¤ļ
ĠØª Ø§ÚĻÙĬ
ĠØµ Ø¯ÛĮØ§Úº
f irma
Û± Û±
ĠØ¨Ø§Ø¬ ÙĪÚº
ĠÙĪØ± Ú¯ÛĴ
å¯¹ å¤ĸ
à´· à´¯à´Ļ
ĠØ¹Ø«ÙħØ§ÙĨ ÛĮ
æŁ´æ²¹ æľºå®ĺç½ĳ
ĠÙĦÚ© Ú¾ÛĴ
æĿĤ å¿Ĺ
Ġkol le
ĠØ±ÙĪ Ø§
æ¬² å°ģå¤©
ik um
ä¸Ģ æĺ¯
Ġamm u
v ust
le vad
æ¯ ģ
å¯ ¡
ĠÃ¼ likool
å¤§åıĳå¿«ä¸ī å®ĺç½ĳ
ĠÙĩØ§Ø± Ø§Ø¦ÙĬ
A n
w eb
å© ¶
éª °
ĠÙĨØ§ÙĦ ÙĬÙĪØ§Ø±ÙĬ
éĿŀ æ³ķ
æĿ¥ äºĨ
ĠÃ¼his konna
ĠÙħÙĬ Ú¯
ĠÙĨ ØµØ±
Ø¬ ÙĩÙĪ
ĠØªÙĤ Ø³ÙĬÙħ
ĠS ch
ĠØº Ø¯Ø§Ø±
é«ĺ ç«¯
ĠØ§ÙĬØ± Ø§Ø¶ÙĬ
ĠØ¨Ø±Ø§Ø¨ Ø±ÙĬ
ĠØ¯ Ú©Ú¾
Ġa jale
åĪ° å¾®ä¿¡
ĠØµØŃ ØªÙħÙĨØ¯
ĠØ§Ø®ØªÙĦØ§Ùģ ÙĨ
ĠÙĨÙĪØ§Ø² ÙĬÙĪ
ĠØ¨Ø§Ø¨ ÙĪ
ĠØ¬Ø³ ÙĤÙħ
ç¾İ çļĦ
ä½ĵèĤ² å®ĺç½ĳ
ĠÚ¯Ùĩ Ø±ÙĬÙĪ
ĠM ill
ĠØ¹ ÙĦÙĪÙĬ
ĠØ§ØŃ ØªÙĬ
ik oht
Ġ éĻĪ
ĠÙĦ ÚĦ
ĠÃ¼li Ãµpil
ĠØ§ÙĨ ÙĪØ§Ø±
ĠØ´ Ø±Ùģ
ĠÙħØ· ÙĦÙĤ
Ø´ÙĬ Ø§Ø¦ÙĬ
Û±Û µ
Ġpal un
åħ¬ çĽĬ
Ø² ÙĬØª
à´¹ à´¨à´Ļ
ĠØ¸ Ø§ÙĦ
Ù¾ÙĬ Ø¦Ø±
ĠÙĪÚª Ú»
ĠØ¨Ø±Ùħ Ø§
æĬ¥ å½©åĽ¾
æ¸ł éģĵ
çī¹ å¾ģ
ĠæĪĳ æ¬²å°ģå¤©
60 4
at uur
Ġå¤§åıĳ åľ°äº§å®ĺç½ĳ
ĠÚ¯Ø±Ø¯ Ø´
Ġà´ħ à´³à´µ
çĽ ¤
ĠØ±ÙĬØ³Ù½ÙĪØ±ÙĨ Ù½
Øª Ø¹
Ġà´¸ à´µ
ä¸ī ç´ļ
ĠsÃ¼ mb
Øº ÙĦØ§Ùħ
195 7
R E
ĠÚª ÙĦÙĬØ³
à´µ à´¤à´¨
ç² ĺ
Ġsob ivad
çŃ Ĵ
ĠØªØŃ Øµ
ĠØ²ÙĪØ± Ø¯Ø§Ø±
ĠmÃ¤Ã¤r atud
ĠÙģØ§Ø± Øº
Ãµ us
åģļ äºĨ
Û ĥ
ĠØ³Ø§Ø¦ÙĨØ³ Ø¯Ø§ÙĨ
Ã¤ ht
å¥³ çļĦ
min ister
ik i
å°ıè¯´ å®Įæľ¬
ĠD a
ĠØªØ§Ø±ÛĮØ® ÛĮ
Ø§Ø´ ÛĮ
ĠØ§Ø® ÛĮØ±ÛĮ
ĠØ¨Ûģ Ø§Ø¯Ø±
ĠÙ¾ Ø®Øª
Øµ ÙĪÙĦ
ä¸ĥ å½©ç¥ŀçŁ³
åŁº å±Ĥ
ĠØ³ÙĪÙĨ ÙħÙĬØ§Ú»ÙĬØ¡
ĠvÃ¤lj end
ĠÛģ ÙĦØ§
å·¥ åķĨ
è´Ń çī©
ov er
Ġlap si
koh al
Ġå½©ç¥ŀäºīéľ¸ ç¾¤
ĠØ§ÛĮ ÚĪ
ĠMe il
ĠÙĦÚ¯ ÛĮØ§
ĠØ³Ùħ ÙĪÙĨ
ĠI l
æĢ» ç»ĵ
ĠØ²ÙĬ Ø§Ø¯Øª
è¿Ľ æŃ¥
Ù¹ Ø¨Ø±
uv i
ĠØªØ¨Ø¯ÛĮ ÙĦ
ĠÙ¾Ø± ÙĩÙĬ
ĠÙħØ¯ ÛĮÙĨÛģ
ĠÙ»ÙĩØ± Ø§ÚĻÙĬ
Ã ĸ
ÙħØ§ÙĨ ÛĮ
3 50
ĠØ¢Ú¯ ÛĮØ§
ĠØªØµÙĪ ÙĬØ±ÙĨ
ĠÚ©Ùĩ ÚĻÙĪ
Ġpil di
ĠØ§ÙĨ ÚĮ
ĠØ¨Ø± Ø§Ø²
æľī åĪ©
Ù½Úª Ø§Ø±ÙĪ
ĠsÃ¼g isel
ĠÚĨ Ù½Ø§
ĠÚĦØ§Ú» Ø§ÙĨ
Ġè¶³çĲĥ å½©ç¥¨å¤©å¤©
ÙĦ Ú©
ĠÙħÙĨØ¬ ÙĩÙĨ
v ise
ĠÙĪØ¬ ÙĪÚº
ĠÙħÙģ ÙĬØ¯
ĠØ¨Ø§Ø²ÙĬ Ø§Ø¨
åĳĪ çİ°
ä¹ł æĥ¯
à´¥ à´µ
ĠØ¢Ø³Ø§ÙĨ ÙĬØ¡
à´Ĥ )
ĠO ne
Ġtund us
Û² Û°
ĠÚĮÙĪ ÚĻ
ĠØ±Ùĩ ÙĪÙĨ
Ġtehn ika
Ġä¸ĥ ä¹Ĳå½©
ĠÚĦ ÙħÙĬ
ĠØ¬Ø§Ø± ØŃ
Ġaadress il
ĠÚ³ ÚĻ
amise s
ĠÚ© ÙĦØ§Ùħ
ĠØ³Úı ÙĬÙĨØ¯Ø§
ĠÙĨ Ø«
ĠÚ©ÛĮÙĪÙĨ Ú©Ûģ
ĠÚ¦ Ù½ÙĪ
G A
à´® à´Ļ
Ġm ere
ĠÙ» Ø§Ø¦ÙĬ
Ġosal eda
åħ± äº§
Ġâ ĺħ
ï¼Į ãĢĬ
Ġeel nevalt
æıĲä¾Ľ äºĨ
å¼Ł å¼Ł
åĪ° çļĦ
æĦı åĳ³
Ġå¤§ ä¸»å®°
æ·· åĲĪ
ĠÙ¾ÙĨØ¬ÙĪ ÙĬÙĩÙĩ
æĸ ·
ĠØ³ÙħØ¬ Ú¾ÙĪ
ä¾¿ åĪ©
ĠÙħØ§Øª Ø±
Ġdokum ent
Ġkoh apeal
ĠÙĨØ§Ø² ÛĮ
Ġå¤§åıĳå¿«ä¸īæĢİä¹Ī çİ©
m alt
Ġe ra
Ø® ÙĨ
ä¸ĩ äºº
å³ ¡
é¸¡ é¸¡
ĠvÃµ is
åĽŀ åĪ°
Ġpane b
Ġ å®ļ
Ġà´İ à´±à´£
Ø¶ Ùħ
è£ħ ç½®
æ´» åĭķ
ĠvÃµit is
ĠØ¨Ø¯ÙĪ Ø´
ĠViljand i
Ġan t
ĠK ool
Ġå½©ç¥ŀäºīéľ¸ ç½ĳé¡µ
ĠØ³ÙĪØ± ÙĩÙĬÙĩ
æ¶Ī éĻ¤
ĠØ¸ Ø§Ú¾Ø±
or a
çĶµ æ°Ķ
d u
æĢ» ç»Ł
ĠlÃ¤h evad
ĠkÃ¼Ã¼ n
Ø¹ÙĬ Ø¨
æĺ¯ åĵª
ĠØ§ÙĦ Ûģ
å¾Ī å¿«
or id
æ¸ ¡
Ġmill ised
197 8
ĠÙĩØ¯Ø§ ÙĬØªÙĨ
éĨ« éĻ¢
vÃµ ime
æº «
Ġproov ida
Ã¼ les
åĳ µ
ĠÙĪ Ø¶ÙĪ
Ùģ ÙĬÙĨ
ĠØº Ø¯Ø§Ø±ÙĬ
ĠØªØ± Ø¯ÙĬØ¯
Ø¨ Ø§ÙĦÙĬ
ĠØ±Ú© ÙĬÙĪÙĨ
ĠÙ¾Ø¦ ÙħØ§ÙĨÙĬ
oo f
ust egev
ĠØ§ÙĨØ³Ø§ÙĨ Ø§Úº
Ġm as
ĠÙĩÚ» ÙĨØ¯ÙĬ
ĠØ±ÙĬ ÚĬ
Ġkon verents
ĠÙħØ·Ø§ÙĦ Ø¨Ø§
Ú¯Ø§ Ú¾
ab le
éģ ł
Ø®ÙĬØ± Ù¾ÙĪØ±
ĠÙħØ³ Ø¬
ĠvÃµist lus
Ġood atud
ĠÙĦ ÙĨÙĪ
ĠØ± Ú³
ĠÙ» ÚĨØ§
Ġà´¤ à´¤
ĠØ³ÙħØ¬Ú¾ ÛĮØ§
ĠØ¹ Ø§Ø¯ÙĬ
ĠÚ¯Ø±Ùħ ÙĬØ¡
Ø¨ ÛĮØ§Úº
ĠØ±Ø§Ø¬ Ù¹Ø¨Ø±
ĠØ¯ÙĩØ´ØªÚ¯Ø±Ø¯ ÙĬØ¡
196 1
å¼Ģåıĳ çļĦ
ĠvÃµ ta
ĠÃµig use
ÛĮ Ø³ÛĮ
å½ °
ut t
s ad
Ġajal ugu
ĠØ¹ÙĦØ§ÙĤÛĴ Ø¢Úº
ĠØ¯Ø³ Ø¯Ø§
æļ´ åĬĽ
ĠØ³ÙħØ¬ ÙĩØ§Ø¦Ú»
ĠÙĬØ§Ø± ÙĩÙĬÙĨ
äººäºº ä¸Ńå½©ç¥¨
ĠkÃ¼l as
àµĨ ...
æĹ¶æĹ¶å½© å¹³åı°
èµ¢ å¾Ĺ
ĠÚıØ§Úª Ú»
æĸ¹ çļĦ
åıĬ åħ¶
Ġlah endus
ĠØ¯ Ø§Ø±ÛĮ
æĪĸ æĺ¯
èī¯ å¥½
Ø¨Ø§Ø¨ Ø§
Ġku upÃ¤ev
ĠÙĦØªØ§ ÚĻÙĬ
ä¸Ī å¤«
ĠÙĬØªÙĬ Ùħ
ĠÙĪÚĨ ÙĨ
Ġu j
Ġæľī å£°å°ıè¯´
ĠÙħØŃÙĨ ØªÙĬ
Ġl ille
ĠØªÛĮ Ø²ÛĮ
è¯Ģ çªį
ut est
ĠÙ¾ÙĨ ÙĩØ¬ÙĬ
k ool
è¢ Ń
èĤ ļ
ĠV e
ç¶² è·¯
har id
ilise ks
Ġ çľŁ
eld akse
à´¯à´® à´ª
Ġéĩĳ æ²Ļ
ĠØ¨ Ø³Ùħ
Ġsoo ja
å®ī åİ¿
åķĨ åŁİ
en gu
Ġkomm unik
Ġlihts am
ĠK od
ĠrÃ¤Ã¤ gi
æĭ ¨
ĠL oom
Ġkorral ikult
åľ¨ äºİ
Ġåı¤ é£İ
å¤©å¤© å¼Ģ
æĪĲ çļĦ
ĠØ§Ø³ ÙĦÙĪØ¨
æľ¬ ç«Ļ
åĮħ åĲ«
Ġloo ma
E K
ĠØº Ø³ÙĦ
vah end
Ġå¤§åıĳäºĳ å½©ç¥ŀäºīéľ¸
å± ł
åĵ ¦
an es
V iim
å¤§ å¤§
çº ł
it ar
ĠØ§ÙĪÙĩØ§ÙĨ Ø¬ÙĬ
æĹ¶ çļĦ
ĠÚ¯Ø§ÙĨ ÚĮÙĬ
ĠÙħØ¹Ø§Ø´ Ø±ØªÙĬ
Ġà´ħà´µ àµ»
ÙĬÙĦ ÙĬÙĨ
ĠæŃ¦ æ±ī
Ùĩ Ø§Ø±ÙĪ
ii a
Ġtun net
ev ah
éĩı çļĦ
ĠØ¨Ø¯ÙĦ Ø§Ø¦Ú»
åĿĳ äºº
ĠØ¨Ø¯ÙĤØ³Ùħ ØªÙĬ
å°ı çļĦ
æĮĩ æłĩ
Ġkla as
ĠÙº ÙĦ
ĠÙĨØ³ Ø¨
ĠÙħÙĪÚª ÙĦÙĬÙĦ
ĠÙħ ÚĻÙĩÙĬ
me es
ĠØªÙĪ Ù¾
ĠØ¯Ø± Ø¬Ø§
ÙģØª ÙĬÙĪØ§Ø±
ĠØ§ Ú±
ĠØ²ÙħÙĬÙĨ ÙĬ
åİĨåı² è®°å½ķ
g al
ÚĢ ÙĨ
åĲĽ åŃĲ
ĠØ¹ ÙĬØ¨
ÙĦÙĩ Ø§
åı¯ä»¥ ä¹°å½©ç¥¨
Ġd igit
à´¬ à´Ļ
Ġel ab
ĠÚĨÙħÚª ÙĨØ¯ÚĻ
ĠØ§Ø¯ Ø±
ĠÚªÙħÙ¾ÙĪ Ø²
Ġà´ļ à´ķ
ĠÙ¾Ø±ÙĪ ÚĬÙĬÙĪ
ĠØ§Ú©Ø§ÙĪÙĨ Ù¹
! "
ist an
Ġme edi
æ»¡ æĦı
ĠÙĪØ§ÙĤØ¹ Ø§Øª
ç¾ ŀ
ØªÙĪ Ú©ÙĬ
ĠØ²ÙĨ Ø§ÙĨÛĮØ§Úº
å§ĳ å¨ĺ
ĠÙħÙĨØ³ÙĦ Ú©
à´¨ à´µà´¨
Ġkaup a
Ġm oot
ç¬¬ äºĶ
ĠL u
Ú¯ Ø±ÙĪ
Ġei le
Ġå¤©å¤© å¹»æĥ³
Ġl ig
ĠØ¨Ø± Ù¾Ø§
Ġä¸ĭè½½ å¤©å¤©ä¸Ńå½©ç¥¨
å¤©å¤©å¥½ å½©
f r
ĠÚª ÙģÙĨ
Ġs o
Ø³ Ø§Ùħ
ak ti
te hn
Ú¯ Ø§Ûģ
Ġh etke
è´ º
à´¿ ...
æľĢ å¾Į
j ooks
ĠØ§ÛĮ ÙĨÚ¯
ĠÙĪØ¯ ÛĮØ§
æī Ĵ
ĠÙ¹ Ø±ÛĮ
ĠØ±Ø§Ø¬ Ú¯Ú¾Ø±
åį ¸
ĠØ¨Ø± ÙĦÙĨ
å» ·
ag r
à´¤à´ķ à´Ļ
Ġr es
ĠA meerika
Ġaja kir
Ġkirjut atud
Ø±Ø¯ ÛĮ
Ġà´² à´³
ĠmÃ¶Ã¶d unud
é©± åĬ¨
im iste
umise le
Ġå¤§è¿ŀ å¤§åıĳçĶµ
Ġå¤©å¤©ä¸Ńå½©ç¥¨ ä¿®æĶ¹
ĠÙ¾ÙĬ Ù½Ø±ÙĪÙĦÙĬÙħ
å¼ ¯
ĠPal jud
Ġand me
Ġla ek
ĠP la
ĠÚªØ±Ø§ ÙĬÙĪÙĨ
ĠØ³ ÙĩØ±
Ġå¤©å¤©ä¸Ńå½©ç¥¨ æīĭæľºçīĪ
ĠÙħÙĦ ÛĮÙĨ
Ġrahv as
om an
ĠØ´Ø§ ÛĮØ¯
ĠÙ¾ Ø§Ø±ÙĪ
æķ´ æĶ¹
Ġalg as
ik og
é¡ į
ä¸į åİ»
ĠÙ½ÙĬÙħ ÙĪÙĨ
Ġ Å¾
Ġe x
æĬ ¼
çº¿ è·¯
Ġà´° à´¹à´¸
åĵ Ń
ĠÙĪØ± Ú¾
Ġtulem usi
ĠkÃ¤ s
æĦŁ è°¢
ĠØªØ¨Ø¯ÙĬÙĦ ÙĬÙĨ
alt h
ĠÚ¯ÙĪ ØªÙħ
ĠæĪĳ çļĦ
ĠÙħÙĩÙĦ Øª
ĠÚĢÙ½ Ø§Ø¦ÙĬØ¡
ÙĨÙĬ Ø¨
çķ °
Ø³Øª Ø§Ø¯
v iis
ĠØ§ÙĨ Ø³Ù½ÙĬ
à´¹ à´µ
ĠØªØŃ ÙģÙĪ
åº¦ çļĦ
Ø³ Ø§Ø²
ĠtÃ¤nav u
ĠÙĩÙĨÚ¯ Ø§ÙħÙĬ
Ġ æī¾
Úª Ù¿ÙĬ
ĠØ±Ø´ ØªØ§
ĠsuurepÃ¤r ane
ĠT V
ÙģØª Ûģ
ĠÙ¾Ø® ØªÙĪ
ĠÙħÚª Ø§ÙĨ
ĠÙħØŃ ÙĦÙĬ
ĠÙĦØ§Ø´ ÙĨ
Øµ ØŃ
ĠÙħÙĪ Ù½Ø§Ø¦ÙĬ
ĠÙĬ Ø§Ø±ÙĨ
ĠØªØ¹ Ø¨ÙĬØ±
ĠÙĪØ³ Ø§Ø±Ú»
ĠÚĨÙĪ Ù½ÙĬØ¡
ĠØ³Ø§ÙĦ Ø§Ø±
à´ħ à´²
ç¬¬ä¸Ģ åŃ£
èĳĹ åĲį
ĠÙħÙĬØ± Ù½
ĠSaar emaa
åĪĩ å®ŀ
inu e
ĠÚ©ÙĦ ÙĬÙĪ
ĠÙħ Ø²ÙĬ
å» Ĭ
åīį å¾Ģ
ĠØ¨Ø§Ø² ÙĨ
ĠÙħÙĪÙĨ Ú©Ø§ÙĨ
è½¬ è½½
éĿ¢ åīį
Ġtoo teid
m v
Ġloom ing
å¯ ¨
S am
ĠÙ¾Ø±ÙĨ Ø³Ù¾Ø§ÙĦ
æ°§ åĮĸ
at ult
æīĭ æľ¯
à´°à´¦ à´°
à´ª àµ¼
å¤§åıĳ æĺİ
ĠE ttevÃµt
å¹² åĺĽ
Ġkeer uline
Ġv ang
èĿ ´
å¯« çľŁ
Ġker ala
ĠLÃ¤ ti
k er
ust r
la ck
ĠØ¹Ø± Ø³
Ġå½©ç¥ŀäºīéľ¸ åĲĪæ³ķåĲĹ
ç¶ľ åĲĪ
åĢ ¡
Ġteav et
Ġmit mes
Ġkelle ga
Ġå¾®ä¿¡éĩĮ å¤©å¤©ä¸Ńå½©ç¥¨
Ġà´ħ à´Ĺ
ĠT ar
ĠÙĨÛģ Ø±
ÙĪ ÚĪ
ĠÙ¾ÙĪÙĦ ÛĮØ³
ĠÙħÙĪ Ø³ÛĮ
ĠvÃ¤h endada
Ġind ividu
åĪĨ åŃĲ
åģ¥ èº«
ĠtÃ¼Ã¼ pi
ĠØ´Ø§ÙĩÙĨ ÙĪØ§Ø²
ĠØ¬Ùħ ÛĮØ§
èĬ ¬
åħ· å¤ĩ
Ġaasta ga
ĠH il
æĪĺ äºī
ä¸ĭè½½å®īè£ħåĪ° æīĭæľºçīĪ
Ġjur iid
Ú¯ ÛĮØ§Úº
ç»ĳå®ļ éĵ¶è¡Įåį¡
ĠØ§ÙĨ Ù¹
èª ĺ
Ġkeel t
çļĦ ä¸»è¦ģ
ĠØ¹Ø¶ Ø¨
ä¸Ģå¸¦ ä¸Ģè·¯
Ø¬ ÙĪÚº
ä¹ ¾
Ġnim ekirja
ĠØ§ÙĦ ÙĨ
Ġes ma
ĠØ®ÙĪØ¨ ÙĬÙĨ
ĠÚĬ Ø§ÙĦØ±ÙĨ
ĠÃ ĸ
ĠÙ¾Úª ÚĻ
ĠØ³Ø¦ÙĨ ÙĬÙħØ§
à´¯ à´¶
ĠØ¬ÙĪ Ú³Ø§
åı¯ä»¥ ä¹°åĲĹ
ÚªÙĪ Ø¦ÙĬ
Ġ åıĮ
ĠØ¨ ÙĬØ³
ĠÙ»ÙĪ Ù½ÙĬ
ĠØ¬Ûģ ÚĳÛĮ
ÙĤ Ø§ÙĨ
ĠÚ¯Ùĩ ÚĻÙĬØ¡
å¿ĥ ä¸Ń
èĢģ å¤´
Ø´Ùħ ÙĨØ¯
ĠØ¢ ÚĻ
éĦ ī
ĠS u
ä¿ ±
ĠTÃ¤ p
ĠØ§ØŃØªÙĬ Ø§Ø·
å¤ª å¤ª
çļĦ ä¼ģä¸ļ
ĠÚĨØ± Ù¾Ø±
ĠÙĤØ§Ùģ ÙĦÙĪ
é¢Ĩ åħĪ
ĠØ´ ÚªØ§Ø±ÙĬ
ĠÚ³ Ø±ÙĬ
Ġsis set
ĠÙĦ Ø¦Ùĩ
ĠØ³ÙĪ ÚĢÙĬ
à´ķà´³ à´¯
ĠØ±Ø¶ÙĪ Ø§ÙĨ
K on
Ġt ol
Ġb e
ĠÚĨÚª Ø§Ø³
ĠÚªØ¦ ÙħÙĬØ±
ĠØ§Ø³ÚªØ± Ù¾Ù½
ĠØ±Ú© ÙĪÙĨ
Ġm Ã¼Ã¼d
r k
æĿ ī
Ġæ² Ļ
ĠÙħÙĦ Øª
åĴ ±
Ġtehn oloogi
Ġal useks
æĸ° èĥ½æºĲ
ĠÙħ ÙĪØ±ÙĪ
æĸ¯ çī¹
Ġpan ga
æľŁ å¾ħ
194 2
æ· ĩ
Ġà´ħà´Ł à´ļ
Ġots us
Ġå¾®ä¿¡å¤©å¤©ä¸Ńå½©ç¥¨ æĢİä¹Ī
Ġ å½©ç¥¨å¹³åı°
Ġaadr essi
åĲĦ çº§
ĠØ¹Ø¨Ø¯Ø§ÙĦ Ø±Ø²Ø§ÙĤ
ç¡ ħ
ĠhÃ¤ id
ç»ıæµİ åıĳå±ķ
è¾¾ äºº
htt ps
k at
on a
v ale
Ġna ab
à´¨ à´£
lik um
ĠØ³ÙĪØ± Ø§Ø®
ä¸Ģ æ¨£
å¤ļå°ĳ ç»Ħ
ä¸Ńæĸĩ çīĪ
çľĭ æĿ¥
Ùħ Ø³ÙĦÙħØ§ÙĨ
ĠØŃÙĪ Ø§Ø³
ĠÙħÙĨØ¯ Ø±ÙĨ
çļĦ åĩł
çļĦ åİŁåĽł
æľ¬ åľ°
ĠØ¨ÙĨ Ú¾
èģ ĸ
à´´ à´¤
iv Ãµ
ĠpÃ¤ev as
à´ª à´µ
æľº åľº
æľī ä¸ª
ä¸Ģ çĻ¾
or ld
ĠE nne
E M
à´Ł à´ļ
Ġval itsus
ĠÙĤÙĪ ØªÙĪÙĨ
Úª Ø´ÙĨÙĦ
ĠÙĩØ± ÙĩÚª
éĩĩ è´Ń
Ø¹ ÛĮ
åķªåķª åķª
Ø°Ø±ÙĬ Ø¹ÙĨ
Ġå¤© é©¬
ĠÙĩ Ø³ØªÙĬ
ĠØ®ÙĪ Ø§Ûģ
Ġmu jal
Ø§Ú© ÛĮ
ĠÙħØŃØ¨Øª ÙĪÙĨ
Ġ æ³
Ø¬ÙĬ ØªÙĪÚ»ÙĬÚª
ĠÚĨØ§Ùĩ ÙĬÙĨØ¯ÙĬ
ĠÙħÙĬ Ù½Ø±Úª
ĠÃ¼le jÃ¤Ã¤nud
ĠØ±Ø¶ Ø§Ùħ
éĩĳ çĵ¶æ¢ħ
èĬ Ĵ
ĠÙħÙĨ ÙĨ
ĠØ±ÙĨØ¬ ÛĮØª
ĠÙĨÙĨÚį ÙĬÙĨ
ĠØ§Ø´ ÙĪ
ĠmÃ¤ng ud
Ø¦ÙĬ Ø±
åĪĨ ä¸º
çłĶç©¶ çĶŁ
APP è½¯ä»¶
ĠØ§ÙĨ ÚĪÛĮØ§
ĠÚªØ± Ø§Ø¦ÙĬÙĨØ¯ÙĬ
ĠÚ©ÙĪØ± Ù¹
ĠvÃ¤lja sp
è£¸ èģĬ
d id
ĠÙĦ ÙħÛĴ
ĠÚª Ø§Ú»
Úª ÚıÙĩÙĨ
Ġv iin
ĠØ§Ø¨ÙĪØ¨ ÚªØ±
Ø§ÙĨ Ø¯ÛĴ
ĠÙĪÙĬÚĨ Ø§Ø±ÙĪ
ĠØŃØ§Ø¯Ø« ÙĪ
ĠÙĨ Ú©Ø§
ĠÙħÙĬÙĪ ÙĪ
ĠÙĪ Ù¿
ĠÚ©ÛĮ Ùħ
n it
çī© è´¨
ĠÙĪØ¯Ú¾ ÛĮØ§
ĠJ Ã¼ri
ØµÙĬ Ø¨
ĠÚ©Ø§Ø± Ø¨ÙĨ
ĠØ¨ÛĮÙ¹ Ú¾
Ġ åĽ¾çīĩ
ik eel
Ġpuuv il
te gr
Ø§ÙĨÙĪ Ø³
ĠÚ©ÙĪ Ù½Ø§Ø¦ÙĬ
ĠÙĪ ÙĩØ§Ø¦ÙĬ
ä¸Ģ çłģ
åħ¬ å¯ĵ
ĠÚªÙĦ Ø«ÙĪÙħ
ĠÙĨÙĤ Ø·Ùĩ
ÚĻ Øª
22 2
ĠØ¢Ùħ Ø±
ĠØ¨Ú¾ Ø§Ø±ÛĮ
ĠÙĨ ÙĬØ±ÙĨ
Ġà´ļ à´¤
ĠÚ¯ ÚĬÙĪ
èĦ ı
å®ī å¾½
ÙħÙĨ ÚĬÙĪ
] .
è¥¿æ¸¸ è®°
Ġ åĽ½
à´¤ à´£
Ġp imed
Ġv iir
ĠØ´ÙĨ Ø§Ø®Øª
Ġle pp
br is
çļĦ åħ³ç³»
èĤ ł
å± ¤
ä¾ ¦
ane b
ç¡ ķ
Ø¹Ùħ Ø±Ø§ÙĨ
çľģ å§Ķ
ä¸ĭ åİ»
ĠØŃÙĤ ÙĪÙĤ
juh ul
ĠL ast
Ġen net
Ġr essur
ĠsÃ¼d ame
Ġol gu
M ar
é»Ħèī² ç½ĳç«Ļ
äº¿ ç¾İåħĥ
180 20
å°½ ç®¡
æıĲ ç¤º
ä½ľ ä¸ļ
ĠSelle st
èĹ į
ĠvÃ¤h en
èĤī æ£Ĵ
ĠØ¨Ø§Ø¯Ø´ Ø§Ùĩ
Ã¼r oo
X X
197 9
è¯Ħ ä¼°
ĠÙ¾ Ø§Ø¯
éĶ Ī
æĭĽ çĶŁ
ĠØ¨Ø§Ø¯Ø´ Ø§ÙĩØª
Ġed aspidi
åĪ· æ°´
àµĩ à´Ĥ
Ġk en
à´ľ à´®
æ³¨ éĩį
Ġk ald
Ġà´® à´´à´¯
æ§ ĭ
Ġk Ã¶
ĠÚªØ¬ ÙĨ
ĠØ¨Ø§ÙĨ Ø¯Ø±
éªĳ å£«
çīĪ æĿĥ
Ġd u
ĠÃľh end
ä¸ī è§Ĵ
ä¼ĺ è´¨
ann ete
al gu
ä¸Ģ ä»£
à´°à´® à´£à´¤
ĠÙħ ÙĩÙĬ
ĠØ³ÚĦ Ø§Ú»
åĤ ħ
Ġ ww
ĠØ³Ø± Ù¾Ø±
ä¼ļ æīĢ
Ġkasut us
Ġå¤©å¤© å¨±ä¹Ĳå½©ç¥¨
ĠØ§Ú¯ ÙĩÙĨ
ĠÙĪÚ¯ ÙĩÙĬ
l ist
ĠÙĦ Ø§Úª
ĠÙĪØ§Ø¬ Ø¨
ĠØ· Ø¦Ùĩ
ĠÙħØ§Ø± Ù½Ùħ
èĢĮ ä¸į
æİ¥ è¿ĳ
ÙħÙĬØ± Ù¾ÙĪØ±
ĠÙĤØ§Ø¨ ÙĦÙĬØª
ĠÚı Ø§Ú©
ä¹ĭ å¾Į
os s
is us
å¸Ĥ åł´
ĠØ³Ø±ØŃ Ø¯ÙĨ
Ġkas u
Ø¯Ùħ ÙĪ
E i
ĠØ§ Ù»ÙĪ
ĠÙĪÚĥ Ø§Ø¦Ú»
Ù¾ÙĪ Ø±ÙĬ
iv ate
ĠE UR
Ġarv uti
ĠØ§ÚĩÙĦ Ø§Ø¦ÙĬ
ĠÚ¯ÙĨØ§ ÙĩÙĨ
Ð ²
åİ ī
ĠØ¢Ú» ÙĬÙĨØ¯ÙĪ
ĠÙħØ¬Ø¨ÙĪ Ø±ÙĬ
ĠØ¨ Ø§Ùĩ
ĠÚªÙĬ Ù¾Ù½ÙĨ
Ġju uni
èµ¢éĴ± åĲĹ
ĠØªÙĦ Ø§Ø¡
ĠØ¢ÙħØ±ÙĬÚª ÙĨ
a jale
â ĺħ
ĠÙģ Ø¦Ùħ
ĠØ§ÙĬ Ø±ÙĬØ§
ĠU us
ĠÙģØ± Ø´Øª
s ki
ĠØ§ ÙĪÚº
ÛĶ âĢĺâĢĺ
Ġt um
in isteeri
æĺ¯ æĪĳ
ä¸ī å¹´
ĠÙ¾Ú¯ ÙĩØ±
ĠÙħØ§Ú»Ú¾ÙĪ Ø¡
Ġdir ektiiv
Ġ é£İ
ĠØ§Ù¿ Ø§Ø¦ÙĬÙĨ
ĠÙħÙĨØª Ø¸Ø±
çİ¯å¢ĥ ä¿ĿæĬ¤
ĠSoom es
ĠÚ¯ Ø¦
ĠÙĦÙĪ ÙĩÙĬ
Ġl in
ĠÙĪØ³Ø· ÛĮ
E el
ĠÙĪ ÙĬØ¯
Ø³Øª ÙĪ
ĠØ³Ø± Ø¨
åıĺ å¾Ĺ
ç§° ä¸º
ĠØ³Ø± Ø§
Ġa g
[...]
