{
  "version": "1.0",
  "truncation": null,
  "padding": null,
  "added_tokens": [
    {
      "id": 0,
      "content": "[UNK]",
      "single_word": false,
      "lstrip": false,
      "rstrip": false,
      "normalized": false,
      "special": true
    }
  ],
  "normalizer": null,
  "pre_tokenizer": {
    "type": "Sequence",
    "pretokenizers": [
      {
        "type": "Digits",
        "individual_digits": false
      },
      {
        "type": "ByteLevel",
        "add_prefix_space": false,
        "trim_offsets": true,
        "use_regex": true
      }
    ]
  },
  "post_processor": null,
  "decoder": null,
  "model": {
    "type": "BPE",
    "dropout": null,
    "unk_token": "[UNK]",
    "continuing_subword_prefix": null,
    "end_of_word_suffix": null,
    "fuse_unk": false,
    "byte_fallback": false,
    "ignore_merges": false,
    "vocab": {
      "[UNK]": 0,
      "!": 1,
      "\"": 2,
      "#": 3,
      "$": 4,
      "%": 5,
      "&": 6,
      "'": 7,
      "(": 8,
      ")": 9,
      "*": 10,
      "+": 11,
      ",": 12,
      "-": 13,
      ".": 14,
      "/": 15,
      "0": 16,
      "1": 17,
      "2": 18,
      "3": 19,
      "4": 20,
      "5": 21,
      "6": 22,
      "7": 23,
      "8": 24,
      "9": 25,
      ":": 26,
      ";": 27,
      "<": 28,
      "=": 29,
      ">": 30,
      "?": 31,
      "@": 32,
      "A": 33,
      "B": 34,
      "C": 35,
      "D": 36,
      "E": 37,
      "F": 38,
      "G": 39,
      "H": 40,
      "I": 41,
      "J": 42,
      "K": 43,
      "L": 44,
      "M": 45,
      "N": 46,
      "O": 47,
      "P": 48,
      "Q": 49,
      "R": 50,
      "S": 51,
      "T": 52,
      "U": 53,
      "V": 54,
      "W": 55,
      "X": 56,
      "Y": 57,
      "Z": 58,
      "[": 59,
      "\\": 60,
      "]": 61,
      "^": 62,
      "_": 63,
      "`": 64,
      "a": 65,
      "b": 66,
      "c": 67,
      "d": 68,
      "e": 69,
      "f": 70,
      "g": 71,
      "h": 72,
      "i": 73,
      "j": 74,
      "k": 75,
      "l": 76,
      "m": 77,
      "n": 78,
      "o": 79,
      "p": 80,
      "q": 81,
      "r": 82,
      "s": 83,
      "t": 84,
      "u": 85,
      "v": 86,
      "w": 87,
      "x": 88,
      "y": 89,
      "z": 90,
      "{": 91,
      "|": 92,
      "}": 93,
      "~": 94,
      "¡": 95,
      "¢": 96,
      "£": 97,
      "¤": 98,
      "¥": 99,
      "¦": 100,
      "§": 101,
      "¨": 102,
      "©": 103,
      "ª": 104,
      "«": 105,
      "¬": 106,
      "®": 107,
      "¯": 108,
      "°": 109,
      "±": 110,
      "²": 111,
      "³": 112,
      "´": 113,
      "µ": 114,
      "¶": 115,
      "·": 116,
      "¸": 117,
      "¹": 118,
      "º": 119,
      "»": 120,
      "¼": 121,
      "½": 122,
      "¾": 123,
      "¿": 124,
      "Â": 125,
      "Ã": 126,
      "Ä": 127,
      "Å": 128,
      "Æ": 129,
      "Ç": 130,
      "È": 131,
      "É": 132,
      "Ê": 133,
      "Ë": 134,
      "Ì": 135,
      "Î": 136,
      "Ï": 137,
      "Ð": 138,
      "Ñ": 139,
      "Ò": 140,
      "Ó": 141,
      "Ô": 142,
      "Õ": 143,
      "Ö": 144,
      "×": 145,
      "Ø": 146,
      "Ù": 147,
      "Ú": 148,
      "Û": 149,
      "Ý": 150,
      "à": 151,
      "á": 152,
      "â": 153,
      "ã": 154,
      "ä": 155,
      "å": 156,
      "æ": 157,
      "ç": 158,
      "è": 159,
      "é": 160,
      "ê": 161,
      "ë": 162,
      "ì": 163,
      "í": 164,
      "î": 165,
      "ï": 166,
      "ð": 167,
      "Ā": 168,
      "ā": 169,
      "Ă": 170,
      "ă": 171,
      "Ą": 172,
      "ą": 173,
      "Ć": 174,
      "ć": 175,
      "Ĉ": 176,
      "ĉ": 177,
      "Ċ": 178,
      "ċ": 179,
      "ď": 180,
      "Đ": 181,
      "đ": 182,
      "Ē": 183,
      "ĕ": 184,
      "Ė": 185,
      "ė": 186,
      "Ę": 187,
      "Ě": 188,
      "ě": 189,
      "ĝ": 190,
      "Ğ": 191,
      "ğ": 192,
      "Ġ": 193,
      "ġ": 194,
      "Ģ": 195,
      "ģ": 196,
      "Ĥ": 197,
      "ĥ": 198,
      "Ħ": 199,
      "ħ": 200,
      "Ĩ": 201,
      "ĩ": 202,
      "Ī": 203,
      "ī": 204,
      "Ĭ": 205,
      "ĭ": 206,
      "Į": 207,
      "į": 208,
      "İ": 209,
      "ı": 210,
      "Ĳ": 211,
      "ĳ": 212,
      "Ĵ": 213,
      "ĵ": 214,
      "Ķ": 215,
      "ķ": 216,
      "ĸ": 217,
      "Ĺ": 218,
      "ĺ": 219,
      "Ļ": 220,
      "ļ": 221,
      "Ľ": 222,
      "ľ": 223,
      "Ŀ": 224,
      "ŀ": 225,
      "Ł": 226,
      "ł": 227,
      "Ń": 228,
      "à´": 229,
      "ĠØ": 230,
      "ÙĬ": 231,
      "Ø§": 232,
      "ÙĨ": 233,
      "ÙĪ": 234,
      "àµ": 235,
      "ĠÙ": 236,
      "Ø±": 237,
      "ĠÚ": 238,
      "Ùĩ": 239,
      "àµį": 240,
      "ÙĦ": 241,
      "ĠØ§": 242,
      "ĠØ¬": 243,
      "Ġà´": 244,
      "Ø§Ø": 245,
      "Ø¯": 246,
      "Ùħ": 247,
      "Øª": 248,
      "ÛĮ": 249,
      "ĠÙħ": 250,
      "Ø§ÙĨ": 251,
      "ĠØ³": 252,
      "à´¿": 253,
      "ĠÛ": 254,
      "Ø³": 255,
      "ĠØª": 256,
      "ĠÚª": 257,
      "å¤": 258,
      "ĠÙĪ": 259,
      "ĠÙ¾": 260,
      "Úª": 261,
      "ä¸": 262,
      "à´¨": 263,
      "ĠØ¬ÙĬ": 264,
      "ĠÙĩ": 265,
      "âĢ": 266,
      "ĠÚ©": 267,
      "àµģ": 268,
      "à´ķ": 269,
      "Ø±ÙĬ": 270,
      "ĠØ¢": 271,
      "Ú»": 272,
      "ĠÙĨ": 273,
      "ĠØ¨": 274,
      "à´¤": 275,
      "à´¾": 276,
      "ÙĬÙĪ": 277,
      "Ø¬": 278,
      "å¤©": 279,
      "ØĮ": 280,
      "ÙĩÙĨ": 281,
      "å½": 282,
      "ÛĴ": 283,
      "ÙĬÙĨ": 284,
      "Ø¨": 285,
      "à´°": 286,
      "ÙĩÙĬ": 287,
      "Ø¦": 288,
      "å½©": 289,
      "à´¯": 290,
      "ĠØ¯": 291,
      "Ø§Ø±": 292,
      "ĠÛ¾": 293,
      "ç¥": 294,
      "äº": 295,
      "å½©ç¥": 296,
      "ĠØ±": 297,
      "se": 298,
      "à´Ł": 299,
      "Ø§Ø¦": 300,
      "ĠÛ½": 301,
      "ÙĪÙĨ": 302,
      "st": 303,
      "Ġk": 304,
      "Úº": 305,
      "Ù½": 306,
      "Ú¾": 307,
      "Ø§ÙĦ": 308,
      "åı": 309,
      "ĠÙĦ": 310,
      "à´²": 311,
      "Ú©": 312,
      "Ú¯": 313,
      "Ùģ": 314,
      "ÙĤ": 315,
      "ĠÙ¿": 316,
      "àµĨ": 317,
      "àµįâĢ": 318,
      "ï¼": 319,
      "ĠØ¬ÙĪ": 320,
      "ÙĨØ¯": 321,
      "ÚĻ": 322,
      "à´Ĥ": 323,
      "å½©ç¥¨": 324,
      "ĠØªÙĩ": 325,
      "ĠØ¢ÙĩÙĬ": 326,
      "Ûģ": 327,
      "Ø¹": 328,
      "ĠÚ©ÙĬ": 329,
      "Ø´": 330,
      "àµįâĢį": 331,
      "çļ": 332,
      "ĠÚ¯": 333,
      "å¤©å¤©": 334,
      "ÚĨ": 335,
      "ï¼Į": 336,
      "çļĦ": 337,
      "ĠØ§ÙĨ": 338,
      "ÙĪØ±": 339,
      "ĠÚĨ": 340,
      "al": 341,
      "Ã¤": 342,
      "Ġt": 343,
      "Ù¾": 344,
      "Ø¡": 345,
      "ä¸Ń": 346,
      "ĠØ´": 347,
      "æľ": 348,
      "à´±": 349,
      "in": 350,
      "Ãµ": 351,
      "à´ª": 352,
      "ãĢ": 353,
      "Úı": 354,
      "ÙĲ": 355,
      "le": 356,
      "à´®": 357,
      "ØŃ": 358,
      "Ùİ": 359,
      "ÙĨÙĩÙĨ": 360,
      "å¤§": 361,
      "ĠØ¹": 362,
      "Ø²": 363,
      "à´³": 364,
      "Ø¦ÙĬ": 365,
      "Ø§Ùħ": 366,
      "à´µ": 367,
      "åħ": 368,
      "ĠØ®": 369,
      "ja": 370,
      "å®": 371,
      "ĠÚı": 372,
      "Ġå¤©å¤©": 373,
      "Ġv": 374,
      "à´£": 375,
      "Ġo": 376,
      "Ø§Ú»": 377,
      "ä¹": 378,
      "Ġm": 379,
      "Ġp": 380,
      "Ø¬ÙĬ": 381,
      "ĠØŃ": 382,
      "id": 383,
      "ÚĮ": 384,
      "åĲ": 385,
      "ÙĦÙĬ": 386,
      "Ø§Úº": 387,
      "ĠØªÙĬ": 388,
      "Ġe": 389,
      "ĠÙ»": 390,
      "à´ļ": 391,
      "ä»": 392,
      "ĠØ¨Ùĩ": 393,
      "åıĳ": 394,
      "ÙĬØ§": 395,
      "at": 396,
      "Ġs": 397,
      "æĹ": 398,
      "Ġà´ª": 399,
      "ĠÙģ": 400,
      "ä¸Ńå½©ç¥¨": 401,
      "is": 402,
      "ik": 403,
      "ĠØ§Ø³": 404,
      "å¥": 405,
      "Ø§Ø¯": 406,
      "Ø§Ø±ÙĬ": 407,
      "àµĭ": 408,
      "à´¸": 409,
      "Ø§Ø¨": 410,
      "à´Ļ": 411,
      "Ġà´ķ": 412,
      "it": 413,
      "àµĩ": 414,
      "åĪ": 415,
      "as": 416,
      "å¤§åıĳ": 417,
      "Ø®": 418,
      "Ùı": 419,
      "oo": 420,
      "ad": 421,
      "ĠÙĩÙĪ": 422,
      "æĺ": 423,
      "åľ": 424,
      "ĠÙĤ": 425,
      "Ø§Ø¡": 426,
      "Ã¼": 427,
      "an": 428,
      "ud": 429,
      "Ú³": 430,
      "ÙĬÙĪÙĨ": 431,
      "ĠØ³Ø§ÙĨ": 432,
      "çĶ": 433,
      "ĠÚ©Ø§ÙĨ": 434,
      "ÚĬ": 435,
      "Øµ": 436,
      "īé": 437,
      "ĠÙ¿ÙĬ": 438,
      "åĽ": 439,
      "ĠÚªØ±ÙĬ": 440,
      "Ø±ÙĪ": 441,
      "ÙĬÙĨØ¯": 442,
      "ç½": 443,
      "ÙĩÙĩ": 444,
      "us": 445,
      "àµģà´Ĥ": 446,
      "Ġå¤©å¤©ä¸Ńå½©ç¥¨": 447,
      "ãĢĤ": 448,
      "ĠÙĨÙĩ": 449,
      "å°": 450,
      "Ø§Ø³": 451,
      "å¿": 452,
      "Ø§Ø¦ÙĬ": 453,
      "ĠØ§Ùĩ": 454,
      "ÙĬØ±": 455,
      "ç½ĳ": 456,
      "æĪ": 457,
      "ÙĪÚº": 458,
      "Ġja": 459,
      "Ġà´µ": 460,
      "el": 461,
      "ľ¸": 462,
      "äºīé": 463,
      "ä½": 464,
      "äºīéľ¸": 465,
      "ÛĶ": 466,
      "Ġn": 467,
      "ĠâĢ": 468,
      "å½©ç¥ŀ": 469,
      "ØªÙĬ": 470,
      "Ø·": 471,
      "å½©ç¥ŀäºīéľ¸": 472,
      "Ġà´¸": 473,
      "am": 474,
      "ĠÚªØ±": 475,
      "ar": 476,
      "æĸ": 477,
      "æĹ¶": 478,
      "ĠØµ": 479,
      "im": 480,
      "ĠÙ¾Ø±": 481,
      "Ġl": 482,
      "Ùº": 483,
      "Ġå¤§åıĳ": 484,
      "è¿": 485,
      "ĠÙĩÙĨ": 486,
      "ÙĬØ¡": 487,
      "Ġà´ħ": 488,
      "æĺ¯": 489,
      "Ġà´®": 490,
      "en": 491,
      "ĠÛģ": 492,
      "ĠÚĩ": 493,
      "ise": 494,
      "æĢ": 495,
      "ga": 496,
      "ks": 497,
      "Ġà´¨": 498,
      "äºº": 499,
      "åĬ": 500,
      "il": 501,
      "Ù¿": 502,
      "ĠØ³ÙĨ": 503,
      "ÙĪÙĦ": 504,
      "er": 505,
      "çī": 506,
      "è¯": 507,
      "es": 508,
      "..": 509,
      "Ġå½©ç¥ŀäºīéľ¸": 510,
      "ĠÙĩÚª": 511,
      "å¹": 512,
      "ĠØ¬Ø§": 513,
      "ut": 514,
      "Ø§Øª": 515,
      "Ø¸": 516,
      "å¿«": 517,
      "Ø³Øª": 518,
      "ĠØ¯ÛĴ": 519,
      "å¼": 520,
      "ÙĬÙĦ": 521,
      "ä¸ī": 522,
      "Ġon": 523,
      "ĠØ¢ÙĩÙĨ": 524,
      "ĠÙĦØ§Ø¡": 525,
      "ÙĬØª": 526,
      "åį": 527,
      "è®": 528,
      "ç»": 529,
      "ÙĩØ±": 530,
      "Ø¯Ø§": 531,
      "ĠØªÛĴ": 532,
      "àµĢ": 533,
      "et": 534,
      "ul": 535,
      "ĠØ¯ÛĮ": 536,
      "Ġ(": 537,
      "ĠÙħÙĦ": 538,
      "Ġa": 539,
      "use": 540,
      "ist": 541,
      "ÛĮØ§": 542,
      "ast": 543,
      "ĠÚĢ": 544,
      "ÙĨÙĩÙĨØ¬ÙĬ": 545,
      "æī": 546,
      "âĢľ": 547,
      "åľ¨": 548,
      "ĠØ·": 549,
      "Ġse": 550,
      "è§": 551,
      "ĠØ²": 552,
      "è½": 553,
      "ĠÙ½": 554,
      "Ø§Ø²": 555,
      "à´¦": 556,
      "ä¸Ģ": 557,
      "Úĥ": 558,
      "åŃ": 559,
      "ĠÚ³": 560,
      "Ø§Úª": 561,
      "ĠÚ¾": 562,
      "çİ": 563,
      "ust": 564,
      "å¾": 565,
      "ĠØ§ÙĪ": 566,
      "Ġte": 567,
      "ĠÙ¾ÙĪ": 568,
      "à´·": 569,
      "ĠÙħÙĪ": 570,
      "ĠÙħØ§ÙĨ": 571,
      "ĠØ§ÛĮ": 572,
      "å¿«ä¸ī": 573,
      "ÙĬÙħ": 574,
      "Ã¶": 575,
      "ä¼": 576,
      "ÙĪÙħ": 577,
      "ãĢģ": 578,
      "Ġko": 579,
      "éĩ": 580,
      "èµ": 581,
      "ma": 582,
      "ä¸į": 583,
      "ä¹Ī": 584,
      "ÙĬÚª": 585,
      "éĢ": 586,
      "ĠØ¬ÙĬÚª": 587,
      "Ġr": 588,
      "ÚĻÙĬ": 589,
      "Ġà´¤": 590,
      "ÚıÙĩÙĨ": 591,
      "ÙĨÚ¯": 592,
      "Ġj": 593,
      "ĠÙĪÚĨ": 594,
      "æľī": 595,
      "ĠÚªÙĬÙĪ": 596,
      "av": 597,
      "Ø§Ùģ": 598,
      "Ø§Ø¦ÙĬÙĨ": 599,
      "est": 600,
      "àµĤ": 601,
      "ur": 602,
      "ĠÙ¿ÙĪ": 603,
      "ÙĬØ³": 604,
      "æ³": 605,
      "Ø¬ÙĪ": 606,
      "å·": 607,
      "Ù¹": 608,
      "ÛĮÚº": 609,
      "¦ÙĬ": 610,
      "ĠØ³ÙĨÚĮ": 611,
      "åĲĹ": 612,
      "Ġh": 613,
      "ĠØ¦ÙĬ": 614,
      "Ġà´İ": 615,
      "un": 616,
      "å¸": 617,
      "çľ": 618,
      "ĠØ³Ùħ": 619,
      "ĠÙ¾ÙĬ": 620,
      "äºĨ": 621,
      "âĢĭ": 622,
      "æĬ": 623,
      "ĠÚĬ": 624,
      "ĠÚªØ±Ú»": 625,
      "20": 626,
      "âĢĿ": 627,
      "Ø±ÙĨ": 628,
      "Ø¯ÙĬ": 629,
      "ĠÙħØŃ": 630,
      "ĠÙ¾ÙĨÙĩÙĨØ¬ÙĬ": 631,
      "Ã¤r": 632,
      "ĠØ³ÙĨØ¯": 633,
      "Ø§ÙĤ": 634,
      "ĠØ§ÙĦ": 635,
      "åĮ": 636,
      "ÙĩÙĪ": 637,
      "ĠÙĪÙĬÙĪ": 638,
      "Ø§Ø¬": 639,
      "è´": 640,
      "ak": 641,
      "å¥ĸ": 642,
      "çº": 643,
      "ĠÚªÙĪ": 644,
      "ĠvÃµ": 645,
      "æĿ": 646,
      "å®ĺ": 647,
      "ÛĮØ§Úº": 648,
      "èī": 649,
      "ä¿": 650,
      "à´ŀ": 651,
      "åĨ": 652,
      "ĠØ§ÛĴ": 653,
      "ĠÙĪÚĥ": 654,
      "ÙĨÙĬ": 655,
      "ÚĨÙĬ": 656,
      "Ø§Ú»ÙĬ": 657,
      "åº": 658,
      "ä¸ĭ": 659,
      "ah": 660,
      "ç¾": 661,
      "ab": 662,
      "é¢": 663,
      "ii": 664,
      "ĠØ±ÙĪ": 665,
      "ĥ½": 666,
      "em": 667,
      "ĠØ§Ø³Ø§ÙĨ": 668,
      "ĠØ¬ÙĨÙĩÙĨ": 669,
      "ĠØ³ÙĪ": 670,
      "Ø¨Ø±": 671,
      "ÚĪ": 672,
      "Ù½ÙĬ": 673,
      "ĠØ§ÙĩÙĪ": 674,
      "ÚĢ": 675,
      "on": 676,
      "Ú¾ÙĨ": 677,
      "ĠÚªÙĨØ¯": 678,
      "ÙĬØ¯": 679,
      "ing": 680,
      "åĩ": 681,
      "te": 682,
      "Ø§Ùĩ": 683,
      "çĪ": 684,
      "ĠØ³Ú¯": 685,
      "è¡": 686,
      "åĽ½": 687,
      "å¥³": 688,
      "Ġå¤§åıĳå¿«ä¸ī": 689,
      "à´§": 690,
      "Ø¶": 691,
      "èĢ": 692,
      "ĠÚĨÙĬÙĪ": 693,
      "ĠÚªÙħ": 694,
      "Úĳ": 695,
      "Ø±Ø¯": 696,
      "à´¶": 697,
      "Ġà´ļ": 698,
      "æĢİ": 699,
      "ĠK": 700,
      "ĠÙħØ§Ú»": 701,
      "å°ı": 702,
      "Ø´ÙĨ": 703,
      "å¦": 704,
      "Ġku": 705,
      "åĵ": 706,
      "åĴ": 707,
      "Ġka": 708,
      "à´ķà´³": 709,
      "ĠØ¯Ø§": 710,
      "å±": 711,
      "å¼Ģ": 712,
      "çĽ": 713,
      "Ġà´ĩ": 714,
      "ine": 715,
      "ĠÃ¼": 716,
      "ÚıÙĬ": 717,
      "à´Ĺ": 718,
      "gi": 719,
      "Ġæ": 720,
      "ÚĦ": 721,
      "åİ": 722,
      "or": 723,
      "ĠÙħÙĨ": 724,
      "ĠØ¬ÙĨ": 725,
      "ĠS": 726,
      "ä¸Ĭ": 727,
      "ĠÙĨØ§ÙĦ": 728,
      "Ø³ØªØ§ÙĨ": 729,
      "ç«": 730,
      "ĠÙĪÙĬ": 731,
      "ÙĤØª": 732,
      "ĠÙħÙĪÙĨ": 733,
      "çĲ": 734,
      "ÙĦÙĪ": 735,
      "å®ĺç½ĳ": 736,
      "àµįâĢĮ": 737,
      "Ø°": 738,
      "Ø«": 739,
      "ĠÙĨÙĪÚº": 740,
      "Ġà´Ĩ": 741,
      "Ø§ÙĩÙĩ": 742,
      "Ġet": 743,
      "àµ½": 744,
      "æĢİä¹Ī": 745,
      "àµĬ": 746,
      "ht": 747,
      "éĻ": 748,
      "Ø±Ùħ": 749,
      "åĴĮ": 750,
      "àµį.": 751,
      "ed": 752,
      "éĿ": 753,
      "æķ": 754,
      "Ø¯ÙĪ": 755,
      "ĠØ§Øª": 756,
      "um": 757,
      "æĹ¶æĹ¶": 758,
      "ĠâĢĿ": 759,
      "å¯": 760,
      "ÙĬÙĨØ¯ÙĪ": 761,
      "æĥ": 762,
      "ĠÙĩØ¦": 763,
      "ĠØº": 764,
      "ĠØ§Ú³": 765,
      "Ø§Ø±ÙĨ": 766,
      "æł": 767,
      "èī²": 768,
      "Ø¦ÙĨ": 769,
      "æĹ¶æĹ¶å½©": 770,
      "Ø§Ø¹": 771,
      "ÙħØ§ÙĨ": 772,
      "çł": 773,
      "ĠØªÙĪ": 774,
      "ĠØ§Ú©": 775,
      "àµ¼": 776,
      "ĠÚ³Ø§ÙĦ": 777,
      "çĪ±": 778,
      "à´´": 779,
      "ĠØ³ÙĨØ¯Ø³": 780,
      "end": 781,
      "si": 782,
      "ĠØ³ÛĮ": 783,
      "ĠÙĨÙĪ": 784,
      "çĶµ": 785,
      "Ø§ØŃ": 786,
      "Ú»ÙĬ": 787,
      "æµ": 788,
      "ç§": 789,
      "æı": 790,
      "ĠÚ¯Ùĩ": 791,
      "ĠØ¨ÙĬ": 792,
      "æŃ": 793,
      "ĠÙħØ¹": 794,
      "à´¹": 795,
      "ĠØ±Ú©": 796,
      "æĶ": 797,
      "à´¨à´¤": 798,
      "ÚªÙĬ": 799,
      "Ø±Ùģ": 800,
      "ĠÙĪØ±": 801,
      "ĠÙħØ³": 802,
      "ĠØ§ÙĬ": 803,
      "Úį": 804,
      "19": 805,
      "åĽ¾": 806,
      "ĠØ§ÙĨÙĩÙĨ": 807,
      "æŀ": 808,
      "ĠØ±Ùĩ": 809,
      "èĥ½": 810,
      "ĠÙĩØ¦ÙĬ": 811,
      "Ø¦ÛĮ": 812,
      "ç¾İ": 813,
      "ĠÚĮ": 814,
      "æİ": 815,
      "ev": 816,
      "æ¸": 817,
      "ĠØ³Ø±": 818,
      "Øº": 819,
      "Ø§ÙĩÙĬ": 820,
      "ĠÙ¾Ùĩ": 821,
      "ĠÙĬØ§": 822,
      "à´Ļà´³": 823,
      "ĠØ°": 824,
      "ĠT": 825,
      "ĠÙ¿Ø§": 826,
      "Ø±ÛĮ": 827,
      "æľº": 828,
      "ĠÚªØ¦ÙĬ": 829,
      "li": 830,
      "ĠØ®ÙĪ": 831,
      "æĪĳ": 832,
      "àµģ.": 833,
      "ĠÙĪØ§Ø±ÙĬ": 834,
      "ĠÙĦÚ©": 835,
      "è¦": 836,
      "ÙĦØ§Ùħ": 837,
      "ÛĮØª": 838,
      "ĠM": 839,
      "åģ": 840,
      "ĠØ³ÙĬ": 841,
      "ĠÙĦÚ³": 842,
      "çİ°": 843,
      "ĠØ±ÙĩÙĬ": 844,
      "¯ä»": 845,
      "çīĩ": 846,
      "Ġsa": 847,
      "ĠÙ¾ÙĪØ¡": 848,
      "ÙĩØ§ÙĨ": 849,
      "10": 850,
      "ĠÙ¾ÙĨ": 851,
      "åħ¨": 852,
      "èĩ": 853,
      "éĹ": 854,
      "æ°": 855,
      "Ġå¤©å¤©å½©ç¥¨": 856,
      "ĠÙĩÙĬ": 857,
      "ÙĬÙĨØ¯ÙĬ": 858,
      "ä¿¡": 859,
      "æĭ": 860,
      "Ø±ÙĬÙĨ": 861,
      "åħ¬": 862,
      "ÙħØ¯": 863,
      "à´ľ": 864,
      "ĠE": 865,
      "Ù½Ø±": 866,
      "ĠvÃ¤": 867,
      "ØªÙĪ": 868,
      "æīĭ": 869,
      "ap": 870,
      "æĸ°": 871,
      "ĠÙĪÚĥÙĬ": 872,
      "ÙĪØ±Øª": 873,
      "ÛĮÙĨ": 874,
      "æĪĲ": 875,
      "ĠÚªÙĨÙĩÙĨ": 876,
      "ĠÙĪÚĮ": 877,
      "Ġà´İà´¨": 878,
      "ĠÙĩÙĪÙĨ": 879,
      "éĽ": 880,
      "da": 881,
      "ÙĤÙĬ": 882,
      "Ã¶Ã¶": 883,
      "å½±": 884,
      "è½½": 885,
      "ÚĻÙĪ": 886,
      "æ³ķ": 887,
      "æ²": 888,
      "çĶŁ": 889,
      "ä¹Ĳ": 890,
      "Ø³Ø§ÙĨ": 891,
      "Ø§Øµ": 892,
      "Ø§ÙĬÙĪ": 893,
      "ĠÙĨÛĮÚº": 894,
      "å¤ļ": 895,
      "åĿ": 896,
      "Ø³ÙĬ": 897,
      "ä¸ª": 898,
      "ĠØ¬ÚıÙĩÙĨ": 899,
      "ĠØ§Ùħ": 900,
      "å®¶": 901,
      "ä¸ĭè½½": 902,
      "ĠÙĪÙĤØª": 903,
      "ĠÙ»ÚĮ": 904,
      "Ø§Ø¦Ú»": 905,
      "Ú¾ÙĬ": 906,
      "å¹´": 907,
      "æıĲ": 908,
      "ÙħÙĬ": 909,
      "ĠØ¶": 910,
      "Ø§Ø±ÙĪ": 911,
      "ĠÚªÙĬ": 912,
      "æ´": 913,
      "ĠØ¹ÙĦ": 914,
      "ä¸º": 915,
      "ĠØ¹Ùħ": 916,
      "åĲĪ": 917,
      "ĠÚıÙĬ": 918,
      "201": 919,
      "å¤©å¤©ä¸Ńå½©ç¥¨": 920,
      "Ø§ÙĦÙĬ": 921,
      "Ġei": 922,
      "åĢ": 923,
      "Ø¨ÙĬ": 924,
      "ĠÙĪÛĮ": 925,
      "ig": 926,
      "æĹ¥": 927,
      "Ø±Ø§ÙĨ": 928,
      "ÙĨØ¯ÙĪ": 929,
      "Ġà´Ĵ": 930,
      "Ø±Ø§": 931,
      "ĠÚ¯ÙĩØ±": 932,
      "ele": 933,
      "Ø¯ÛĴ": 934,
      "å¹³": 935,
      "ï¿": 936,
      "ĠØªØ¹": 937,
      "ï¿½": 938,
      "ĠÛģÙĪ": 939,
      "è¾": 940,
      "ĠÙ¾Ø§Ú»": 941,
      "ĠÙĩØ¦Ø§": 942,
      "Ø§Ù¾": 943,
      "ĠØ®Ø§ÙĨ": 944,
      "ub": 945,
      "ĠÚĨÙĪ": 946,
      "çĶ¨": 947,
      "ĠP": 948,
      "ĠØªÙĪÚº": 949,
      "Ø®Øª": 950,
      "à´¬": 951,
      "uur": 952,
      "æĸ¹": 953,
      "Ø§ÙĪ": 954,
      "åĪ°": 955,
      "ĠØ¯ÙĪ": 956,
      "ĠÙ¾Ø§Ø±": 957,
      "é«": 958,
      "ĠØ³ÚĢ": 959,
      "æ¯": 960,
      "éģ": 961,
      "åŁ": 962,
      "00": 963,
      "ĠØ§ØªÛĴ": 964,
      "åŃĲ": 965,
      "æĢ§": 966,
      "Ø¦ÙĬÙĨ": 967,
      "ĠÙħÙĦÚª": 968,
      "éĤ": 969,
      "ĠÙĨØ¸": 970,
      "Úĩ": 971,
      "çĻ": 972,
      "Ġà´ī": 973,
      "Ġà´°": 974,
      "ĠÚıÙĬÙĨ": 975,
      "ĠÚªØ¬": 976,
      "and": 977,
      "ir": 978,
      "åĩº": 979,
      "åı°": 980,
      "ĠÚªÙĨ": 981,
      "ĠÚĩÚı": 982,
      "Ú¯Ø±": 983,
      "è¯´": 984,
      "ĠÛĶ": 985,
      "à´µà´°": 986,
      "ada": 987,
      "ĠÚĦ": 988,
      "è¡Į": 989,
      "ĠÙ¾Ø§Úª": 990,
      "ĠØ§ÙĪÛģ": 991,
      "ot": 992,
      "éĺ": 993,
      "Ġma": 994,
      "à´¡": 995,
      "çľĭ": 996,
      "ĠÙħØ±": 997,
      "æľ¬": 998,
      "ĠØ¬Ø§ÙĨ": 999,
      "ĠØŃÚª": 1000,
      "à´Ń": 1001,
      "éĴ": 1002,
      "è¦ģ": 1003,
      "ĠØªØ§Ø¦ÙĬÙĨ": 1004,
      "è§Ĩ": 1005,
      "ĠÙĪÙº": 1006,
      "ĠA": 1007,
      "lt": 1008,
      "ĠØ¨ÙĨ": 1009,
      "åĳ": 1010,
      "Ø¨ÙĪ": 1011,
      "om": 1012,
      "ĠÙĩØ±": 1013,
      "Ø¹ÙĬ": 1014,
      "àµ»": 1015,
      "åľ°": 1016,
      "na": 1017,
      "ĠÙº": 1018,
      "Ġà´¬": 1019,
      "æĥħ": 1020,
      "Ø¨Ø§Ø¯": 1021,
      "ĠÙħÙĤ": 1022,
      "Ø¯Ø§Ø±": 1023,
      "ĠØªØ±": 1024,
      "çº¿": 1025,
      "Ø¯ÛĮ": 1026,
      "çłģ": 1027,
      "Ġsel": 1028,
      "ä¼ļ": 1029,
      "åĪĨ": 1030,
      "la": 1031,
      "ne": 1032,
      "é«ĺ": 1033,
      "Ù¾ÙĨ": 1034,
      "ä½ľ": 1035,
      "ĠØ§ÚĨÙĬ": 1036,
      "ÙĦØ§": 1037,
      "ĠØ¬Ùĩ": 1038,
      "ĠÚ¯Úı": 1039,
      "àµ¾": 1040,
      "çŃ": 1041,
      "æ¬": 1042,
      "à´¥": 1043,
      "ĠvÃµi": 1044,
      "ĠÚ¯Ú¾": 1045,
      "ĠÙĬ": 1046,
      "Ø¬ÙĨ": 1047,
      "ĠØ§ÙĩØ§": 1048,
      "Ġå¤§åıĳæĹ¶æĹ¶å½©": 1049,
      "ĠÙĪØ²": 1050,
      "èĤ": 1051,
      "ĠØ¬ÙĪÙĨ": 1052,
      "ĠØ±ÙĩÙĬÙĪ": 1053,
      "å¨": 1054,
      "gu": 1055,
      "ç«Ļ": 1056,
      "ä½ĵ": 1057,
      "ol": 1058,
      "ek": 1059,
      "alt": 1060,
      "ĠØ³Ø§ÙĦ": 1061,
      "è®¡": 1062,
      "Ġà´ľ": 1063,
      "ĠØĮ": 1064,
      "çīĪ": 1065,
      "àµĪ": 1066,
      "ÙĨØ¯ÙĬ": 1067,
      "çĲĨ": 1068,
      "Ġkui": 1069,
      "à´¯à´¤": 1070,
      "ÙĨØ¯Ø±": 1071,
      "ĠØ§ØŃ": 1072,
      "Ø§Ø´": 1073,
      "çľŁ": 1074,
      "æĦ": 1075,
      "Ù¿ÙĬ": 1076,
      "åŃ¦": 1077,
      "æľĢ": 1078,
      "ÚªØ§Ø±": 1079,
      "Ø³ÙĨ": 1080,
      "ĠL": 1081,
      "ÚªØ±": 1082,
      "èĩª": 1083,
      "æĮ": 1084,
      "ĠÚıÙĬÙĨÙĩÙĨ": 1085,
      "è°": 1086,
      "ida": 1087,
      "Ø¢": 1088,
      "Ġme": 1089,
      "ĠÙ¿ÙĬÙĪ": 1090,
      "Ġole": 1091,
      "ĠÙħØ§Ú»ÙĩÙĪ": 1092,
      "ĠÚ©ÛĮØª": 1093,
      "Ø³ÙĪ": 1094,
      "ĠØ¬ÙĬÚªÙĪ": 1095,
      "Ø³Ùħ": 1096,
      "é»": 1097,
      "Ġta": 1098,
      "ĠÚıÙĨ": 1099,
      "ĠØ¨Ø±": 1100,
      "å¾®": 1101,
      "Ø§Ûģ": 1102,
      "è¶": 1103,
      "ä¸ļ": 1104,
      "iis": 1105,
      "...": 1106,
      "ĠÙħÙĬ": 1107,
      "ØŁ": 1108,
      "Ø¬ÙĪØ¯": 1109,
      "ØªØ§": 1110,
      "ä¾": 1111,
      "ule": 1112,
      "uk": 1113,
      "oon": 1114,
      "ÛĮØ±": 1115,
      "ĠØ³Ø¨": 1116,
      "ÙĩÙĬÙĨ": 1117,
      "aja": 1118,
      "ide": 1119,
      "Ø³Ù½": 1120,
      "ÙĬÙĨØ¯Ø§": 1121,
      "ĠÙħØ´": 1122,
      "ĠØ¯ÙĪØ±": 1123,
      "Ġpe": 1124,
      "ĠÙ¾Ø§ÚªØ³ØªØ§ÙĨ": 1125,
      "æ±": 1126,
      "atud": 1127,
      "ĠØ·ÙĪØ±": 1128,
      "ä¹°": 1129,
      "å§": 1130,
      "ĠÚªØ¬ÙĩÙĩ": 1131,
      "ĠV": 1132,
      "Ø§Ú³": 1133,
      "Ġning": 1134,
      "åī": 1135,
      "Ù¾ÙĪØ±": 1136,
      "çĪ±å½©ç¥¨": 1137,
      "ÙĦÛĮ": 1138,
      "ĠkÃµ": 1139,
      "Ø±Ø¨": 1140,
      "Ø§ÙĨÙĬ": 1141,
      "è£": 1142,
      "ĠÙ¾ÙĨÙĩÙĨ": 1143,
      "Ġal": 1144,
      "ç®": 1145,
      "å¸Ĥ": 1146,
      "Ú©ÙĬ": 1147,
      "åĬ¨": 1148,
      "ĠØ§Ø¯": 1149,
      "lik": 1150,
      "åı·": 1151,
      "ÙĦÙĨ": 1152,
      "ÚªØ±ÙĬ": 1153,
      "é¢ĳ": 1154,
      "uv": 1155,
      "å®ī": 1156,
      "å·¥": 1157,
      "ww": 1158,
      "çĤ": 1159,
      "å¥½": 1160,
      "ĠÙģÙĪ": 1161,
      "ĠØ³ÙħØ¬": 1162,
      "Ġà´¶": 1163,
      "Ġar": 1164,
      "ĠtÃ¤": 1165,
      "æĿ¥": 1166,
      "Ú»ÙĪ": 1167,
      "ØªÙĨ": 1168,
      "è¿Ļ": 1169,
      "èģ": 1170,
      "ĠØ§ÛĮÛģ": 1171,
      "é¡": 1172,
      "ĠØ§ÙĩÙĬ": 1173,
      "ĠÚ³Ø§ÙĦÙĩÙĩ": 1174,
      "ØªØ§Ø¨": 1175,
      "nd": 1176,
      "ĠâĢľ": 1177,
      "Ø§Ø³ÙĬ": 1178,
      "ĠÚĩÙĪ": 1179,
      "ĠÙĪØ²ÙĬØ±": 1180,
      "ÙħÙĨ": 1181,
      "ĠÚ©Ûģ": 1182,
      "ĠÃµ": 1183,
      "ĠØ¬ÙĬÚªÙĬ": 1184,
      "à´°à´¤": 1185,
      "å¼Ģå¥ĸ": 1186,
      "ĠÙĪÚı": 1187,
      "ĠØ§ÙĨØ³Ø§ÙĨ": 1188,
      "æĻ": 1189,
      "éĩĮ": 1190,
      "éĩĳ": 1191,
      "ĠÙĪÙĬØ§": 1192,
      "iv": 1193,
      "Ú¯ÙĬ": 1194,
      "ÚªÙĦ": 1195,
      "Ø§ÙħÙĬ": 1196,
      "ÙĦØ§Ùģ": 1197,
      "Ġkas": 1198,
      "ĠÙħØŃÙħØ¯": 1199,
      "ĠÚ©ÙĬØ³": 1200,
      "ç¨": 1201,
      "Ø§Ø¦ÛĮ": 1202,
      "Ø¯Ø±": 1203,
      "å¾®ä¿¡": 1204,
      "ĠØ¯ÙĨ": 1205,
      "ale": 1206,
      "å¹³åı°": 1207,
      "å°ĳ": 1208,
      "ĠØ§Ø¹": 1209,
      "ÛĮÛģ": 1210,
      "éĴ±": 1211,
      "æīĭæľº": 1212,
      "Ġin": 1213,
      "à´¿.": 1214,
      "ÙĨØ¯Ø§": 1215,
      "é¦": 1216,
      "ç©": 1217,
      "åĪĴ": 1218,
      "Ø§Ø³Øª": 1219,
      "éĥ": 1220,
      "è½¯ä»": 1221,
      "è½¯ä»¶": 1222,
      "ĠØ¯ÙĦ": 1223,
      "ĠÙĦÙĪ": 1224,
      "è¢": 1225,
      "amise": 1226,
      "ĠÙħØ§Ú»ÙĩÙĨ": 1227,
      "ee": 1228,
      "âĢĺ": 1229,
      "è§Ĩé¢ĳ": 1230,
      "åĵª": 1231,
      "Ø¹Ø¯": 1232,
      "æŀľ": 1233,
      "Ú©Ú¾": 1234,
      "æĴ": 1235,
      "ä»Ģ": 1236,
      "Ø±ÙĬÚª": 1237,
      "æ³¨": 1238,
      "ĠÙĪÙ½": 1239,
      "ÙĨÚĬ": 1240,
      "ĠØ¯Ø±": 1241,
      "è§Ħ": 1242,
      "à´ķà´°": 1243,
      "ĠØ§Ø³Øª": 1244,
      "ç¦": 1245,
      "ÚĻÙĨ": 1246,
      "ĠÚ©ÙĪ": 1247,
      "Ġà´Ĵà´°": 1248,
      "åľ¨çº¿": 1249,
      "aks": 1250,
      "ĠÚ©Ø±": 1251,
      "ĠÙĪÚĮÙĬÚª": 1252,
      "Ġå¤©å¤©çĪ±å½©ç¥¨": 1253,
      "ÚĻØ§": 1254,
      "Ù¾ÙĪ": 1255,
      "çķ": 1256,
      "uh": 1257,
      "åı¯": 1258,
      "ĠÚªÙĩ": 1259,
      "å°±": 1260,
      "ä»¥": 1261,
      "ÚªÙĪ": 1262,
      "ĠÙĪØ¦ÙĬ": 1263,
      "ÙĦÛĴ": 1264,
      "Ø§Ø¦ÙĨ": 1265,
      "ĠN": 1266,
      "èĭ": 1267,
      "ÙĦÙħ": 1268,
      "Ø±ÙĪØ¹": 1269,
      "ĠmÃµ": 1270,
      "ri": 1271,
      "ĠØªØŃ": 1272,
      "ÙĪÙħØª": 1273,
      "ä»Ģä¹Ī": 1274,
      "ØªØ±": 1275,
      "ĠÚªØ§Ø±": 1276,
      "ĠÚªÙĬØª": 1277,
      "è·": 1278,
      "æıĲçİ°": 1279,
      "Ø§Ø¯ÙĬ": 1280,
      "ĠØ´Ø±ÙĪØ¹": 1281,
      "Ġpr": 1282,
      "å°ıè¯´": 1283,
      "ĠØ®ÙĦØ§Ùģ": 1284,
      "åĲĮ": 1285,
      "ĠÚ¦": 1286,
      "å®ŀ": 1287,
      "äºİ": 1288,
      "ĠÙ¾ÚĻ": 1289,
      "Ġoma": 1290,
      "çĲĥ": 1291,
      "Ã¤Ã¤": 1292,
      "ç¬": 1293,
      "ØµÙĪ": 1294,
      "Ø¯Ø§ÙĦ": 1295,
      "ĠÙĪÚıÙĬ": 1296,
      "æľĪ": 1297,
      "åĪ©": 1298,
      "Ġà´²": 1299,
      "éķ": 1300,
      "å¿ĥ": 1301,
      "ĠØ´Ø§": 1302,
      "å¯¹": 1303,
      "åı¸": 1304,
      "ç½ĳç«Ļ": 1305,
      "çİ©": 1306,
      "è®¡åĪĴ": 1307,
      "ĠÙĤÙĪÙħ": 1308,
      "ä¸»": 1309,
      "å¦Ĥ": 1310,
      "ĠØ¨Ø¯": 1311,
      "ĠØ§ÚĦ": 1312,
      "åĲİ": 1313,
      "ĠÙĩÙĦ": 1314,
      "Ġol": 1315,
      "Ø¹ÙĪ": 1316,
      "ĠÚªÙĨØ¯ÙĬ": 1317,
      "ĠR": 1318,
      "éª": 1319,
      "±ä¹Ĳ": 1320,
      "ite": 1321,
      "ÙĦÙĩ": 1322,
      "ĠØ¨Ø¹Ø¯": 1323,
      "çŁ": 1324,
      "æĬĢ": 1325,
      "Ù»": 1326,
      "åĵģ": 1327,
      "ĠØ§ÚĨ": 1328,
      "ime": 1329,
      "Ø±Øª": 1330,
      "ĠØ¨Ú»": 1331,
      "ĠØ²ÙĨØ¯": 1332,
      "ĠÚĨÙĪÙĨ": 1333,
      "Ø§ÙĩØ±": 1334,
      "æĽ": 1335,
      "çĶµå½±": 1336,
      "Ø±ØŃ": 1337,
      "æĸĩ": 1338,
      "Ø§Ø¦ÙĪÙĨ": 1339,
      "Ã¼Ã¼": 1340,
      "ä¹ĭ": 1341,
      "Ø§ÚĻ": 1342,
      "ĠØ¨Ø§Ø¨": 1343,
      "Ø¯Ùħ": 1344,
      "Ġselle": 1345,
      "éĿ¢": 1346,
      "ĠÙħØ·": 1347,
      "ĠÚªØªØ§Ø¨": 1348,
      "ĠØ´ÙĩØ±": 1349,
      "ĠÚªÙĦ": 1350,
      "åķ": 1351,
      "ØªÙħ": 1352,
      "ĠÙ½ÙĬ": 1353,
      "ald": 1354,
      "18": 1355,
      "ĠØªÙĪÙĩØ§ÙĨ": 1356,
      "Ø§ØªÙĬ": 1357,
      "å¤§åıĳå¿«ä¸ī": 1358,
      "esti": 1359,
      "à´°à´®": 1360,
      "å¨±ä¹Ĳ": 1361,
      "Ġmis": 1362,
      "ĠÙĨÙħ": 1363,
      "ç¤": 1364,
      "éĥ¨": 1365,
      "äº¤": 1366,
      "ĠÙĨØ§ÙĩÙĬ": 1367,
      "à´Łà´¤": 1368,
      "ÙĢ": 1369,
      "Ø§Ø¶": 1370,
      "à´¯à´®": 1371,
      "Ġmu": 1372,
      "Ù°": 1373,
      "ä¹Ł": 1374,
      "Ġ-": 1375,
      "Ùĳ": 1376,
      "ä¸İ": 1377,
      "ĠÙħÙĨÙĩÙĨØ¬ÙĬ": 1378,
      "è´¹": 1379,
      "ÙĬÙĨØ¯ÚĻ": 1380,
      "ĠØ³ÙĨÚĮÙĬ": 1381,
      "ult": 1382,
      "Ġaast": 1383,
      "ÙĬØ§ÙĨ": 1384,
      "ç»ı": 1385,
      "ate": 1386,
      "ĠÙ¾ÙĨØ¬": 1387,
      "aal": 1388,
      "ĠØ¨ÙĦ": 1389,
      "Ú¾ÙĪ": 1390,
      "å»": 1391,
      "èĪ": 1392,
      "ĠnÃ¤": 1393,
      "ĠÙĨÛĴ": 1394,
      "ĠØ§ÙĨÙĩÙĬ": 1395,
      "ĠØ¢Ùģ": 1396,
      "ĠÙĪØ±ÙĬ": 1397,
      "ĠØ¬Ùħ": 1398,
      "Ø§ØŃØ¨": 1399,
      "Ø§ØµÙĦ": 1400,
      "ĠØ¹ÙĦÙĬ": 1401,
      "æ¸¸": 1402,
      "ĠÙ¾Ú»": 1403,
      "ç³": 1404,
      "ĠØ¢Ú¾ÙĬ": 1405,
      "èĢģ": 1406,
      "ä»ĸ": 1407,
      "ĠÙģÙĬ": 1408,
      "çŃī": 1409,
      "à´ķà´¯": 1410,
      "ĠØ³ÙĦ": 1411,
      "åħ¬åı¸": 1412,
      "äº§": 1413,
      "ĠÙ¿ÙĬÚ»": 1414,
      "11": 1415,
      "akse": 1416,
      "ĠØ¢Ø¨Ø§Ø¯": 1417,
      "èĬ": 1418,
      "âĢ¦": 1419,
      "ind": 1420,
      "me": 1421,
      "ï¼ļ": 1422,
      "ĠÙ»ÙĬ": 1423,
      "ØªÚ¾": 1424,
      "ĠØ§Ø¬": 1425,
      "Ġà´¦": 1426,
      "ĠØµØ§ØŃØ¨": 1427,
      "åĬĽ": 1428,
      "èį": 1429,
      "ood": 1430,
      "ĠØ§ÙĨÚ¯": 1431,
      "æľŁ": 1432,
      "Ġto": 1433,
      "Ø¦Ø±": 1434,
      "ĠÚĩÚıÙĬÙĪ": 1435,
      "ĠÚĨÙĬ": 1436,
      "ĠÙ¾ÙĬÙĪ": 1437,
      "æ¼": 1438,
      "åĮĹ": 1439,
      "æŃ£": 1440,
      "ĠØ´Ø§Ø¹": 1441,
      "è¿ĩ": 1442,
      "è¿Ľ": 1443,
      "Ġà´ħà´¤": 1444,
      "ÙĨØ¯ÚĻ": 1445,
      "ĠtÃ¶Ã¶": 1446,
      "è½¦": 1447,
      "ĠÙĪØ§Ø±": 1448,
      "Ġsee": 1449,
      "ĠÙ»Ø¦ÙĬ": 1450,
      "Ġval": 1451,
      "Ġva": 1452,
      "ĠØ³Ú¯ÙĩÙĬ": 1453,
      "ĠÙĨØ¸Ø±": 1454,
      "æŁ": 1455,
      "Ø¨Øª": 1456,
      "ĠÙ¾Ø¦ÙĬ": 1457,
      "ĠÚ³ÙĪ": 1458,
      "ĠÚªØ§": 1459,
      "Ù½ÙĪ": 1460,
      "åħį": 1461,
      "Ù½ÙĨ": 1462,
      "ÙĪØ±ÙĨ": 1463,
      "kk": 1464,
      "avad": 1465,
      "ĠØ³Ø¨Ø¨": 1466,
      "ĠØŃÚªÙĪÙħØª": 1467,
      "è§£": 1468,
      "ĠØ¯ÙĨÙĬØ§": 1469,
      "ĠØ±ÙĩÙĬØ§": 1470,
      "ĠØ§ÙĬÙħ": 1471,
      "ĠØ¢Ø¡": 1472,
      "ĠÙĩÙ¿": 1473,
      "ĠØ§ÛĮØ³": 1474,
      "ĠÙħØ§Ø±": 1475,
      "he": 1476,
      "Ø§ÙĨÙĩÙĨ": 1477,
      "ĠÚ¯Ø°": 1478,
      "ĠkÃ¼": 1479,
      "éĩį": 1480,
      "ĠÚªØ±Ø§": 1481,
      "æĴŃ": 1482,
      "æł·": 1483,
      "âĢĭâĢĭ": 1484,
      "éģĵ": 1485,
      "éĥ½": 1486,
      "åº¦": 1487,
      "Ø¦ÙĪÙĨ": 1488,
      "Ø§Ú©": 1489,
      "ĠØŃØ§ØµÙĦ": 1490,
      "Ġsiis": 1491,
      "88": 1492,
      "ĠØ±ÙĩÙĨ": 1493,
      "àµĥ": 1494,
      "Ùĵ": 1495,
      "ĠJ": 1496,
      "å¾Ĺ": 1497,
      "âĢĻ": 1498,
      "ç³»": 1499,
      "ĠÙ»ÙĨ": 1500,
      "ÚªÙĨ": 1501,
      "ts": 1502,
      "åĿĢ": 1503,
      "ä¸Ńå¥ĸ": 1504,
      "ĠØ¬ÙĬØ¦ÙĨ": 1505,
      "ĠØ§Ú³ÙĪ": 1506,
      "Ġà´ªà´±": 1507,
      "ĠÚ³Ø§ÙĦÙĩ": 1508,
      "äº¬": 1509,
      "èµĦ": 1510,
      "Ú¾ÛĮ": 1511,
      "¯ä»¥": 1512,
      "å¤ĸ": 1513,
      "inn": 1514,
      "ĠÙħÙĪØ¬ÙĪØ¯": 1515,
      "ĠØ´Ø§Ùħ": 1516,
      "ĠØ³ÙĨØ¯ÙĨ": 1517,
      "ĠÛĮ": 1518,
      "åĮĸ": 1519,
      "Ġ.": 1520,
      "ĠÙ»ÙĬÙĨ": 1521,
      "ase": 1522,
      "åı¯ä»¥": 1523,
      "ĠÙĪÙĬÙĨØ¯ÙĪ": 1524,
      "à´¾à´Ĥ": 1525,
      "åŁİ": 1526,
      "ĠØ§ÙĨØª": 1527,
      "ĠÙĦÙĬ": 1528,
      "ç´": 1529,
      "Ġle": 1530,
      "ĠØ·Ø±Ùģ": 1531,
      "com": 1532,
      "ÙºÙĪ": 1533,
      "ĠØ§ÙĨØ¯Ø±": 1534,
      "ĠØ§Ù¾ÙĨ": 1535,
      "ĠÙ¾Ø±ÙĪ": 1536,
      "ĠI": 1537,
      "é£": 1538,
      "ä½ł": 1539,
      "åĻ": 1540,
      "åľº": 1541,
      "å®ļ": 1542,
      "æį": 1543,
      "ge": 1544,
      "ĠÙħÙĨÙĩÙĨ": 1545,
      "åĮº": 1546,
      "ÙħÙĪ": 1547,
      "Ġkor": 1548,
      "ĠH": 1549,
      "Ġli": 1550,
      "app": 1551,
      "ĠØŃØ§ÙĦ": 1552,
      "çī¹": 1553,
      "Ġd": 1554,
      "à´ĸ": 1555,
      "æģ": 1556,
      "åĽ¾çīĩ": 1557,
      "Ø¬Ø§": 1558,
      "Ġà´Ń": 1559,
      "12": 1560,
      "äºĭ": 1561,
      "Ø§Ø³ÙĬÙĨ": 1562,
      "....": 1563,
      "iga": 1564,
      "jal": 1565,
      "ç¥ŀ": 1566,
      "åĬł": 1567,
      "Ġkoo": 1568,
      "ĠØ³Ú©": 1569,
      "sioon": 1570,
      "ĠvÃ¤l": 1571,
      "ĠÙ¹": 1572,
      "æľį": 1573,
      "Ø¸Ùħ": 1574,
      "ĠØ®Ø·": 1575,
      "ĠÙģØ±": 1576,
      "Ø±ÙĬÙĪÙĨ": 1577,
      "ĠÙħÙĦÙĬ": 1578,
      "Ġf": 1579,
      "ĠÚĩØ§": 1580,
      "Ġà´ħà´µ": 1581,
      "ĠÚıÙĨÙĪ": 1582,
      "ĠÚĩÚıÙĬ": 1583,
      "æ°´": 1584,
      "åĲį": 1585,
      "ÙĬÙĪØ±": 1586,
      "Ã¤ev": 1587,
      "os": 1588,
      "ç²": 1589,
      "ĠØ§Ø®": 1590,
      "ĠÙĪÙºÙĬ": 1591,
      "Ø§Ø±Øª": 1592,
      "ĠØ±ÙĬ": 1593,
      "éŁ": 1594,
      "ĠÙĩØ¬ÙĬ": 1595,
      "ĠØ¹ÙĪ": 1596,
      "ÙħÙĦ": 1597,
      "Ø´Øª": 1598,
      "up": 1599,
      "ä»¬": 1600,
      "à´İ": 1601,
      "ĠØ§Ùģ": 1602,
      "çĶ·": 1603,
      "ĠlÃ¤": 1604,
      "ĠØ¶Ø±": 1605,
      "ç»ĵ": 1606,
      "çļĦåĲĹ": 1607,
      "Ġkes": 1608,
      "Ø±ÙĬÙģ": 1609,
      "ĠØ§Ø³ÙĦØ§Ùħ": 1610,
      "åģļ": 1611,
      "ÙĩÚ»": 1612,
      "ĠØ¢ÙĬÙĪ": 1613,
      "åĻ¨": 1614,
      "ĠÚ¾ÙĪ": 1615,
      "ĠØµÙĪ": 1616,
      "ile": 1617,
      "ĠÙħØ®Øª": 1618,
      "ÙĨÚį": 1619,
      "è¯·": 1620,
      "ĠkÃ¤": 1621,
      "Ġen": 1622,
      "Ø¨ÙĦ": 1623,
      "ĠÚªÚıÙĩÙĨ": 1624,
      "ÙĦÙģ": 1625,
      "Ø³ÛĮ": 1626,
      "ama": 1627,
      "ç¾İå¥³": 1628,
      "ĠØ§ÙĩÚĻÙĬ": 1629,
      "à´«": 1630,
      "éĢļ": 1631,
      "ĠÛģÛĴ": 1632,
      "ä»£": 1633,
      "è¢«": 1634,
      "èĦ": 1635,
      "æĬķ": 1636,
      "ĠØªÙĨ": 1637,
      "ĠØ³Ú¯Ùĩ": 1638,
      "ju": 1639,
      "ç¬¬": 1640,
      "å±ķ": 1641,
      "åīį": 1642,
      "ĠÚ©ÛĴ": 1643,
      "Ø¦ÛĴ": 1644,
      "ÙĪÙĬ": 1645,
      "ç¾¤": 1646,
      "æīĢ": 1647,
      "Ġoli": 1648,
      "ĠÙ¾ÙĪØ±": 1649,
      "eer": 1650,
      "ĠÚıØ¦ÙĬ": 1651,
      "çĦ": 1652,
      "nud": 1653,
      "å£": 1654,
      "é©": 1655,
      "éĢī": 1656,
      "ÙħØ§ÙĦ": 1657,
      "Ø²ÙĬ": 1658,
      "ata": 1659,
      "mise": 1660,
      "Ġsuur": 1661,
      "ĠØ¸": 1662,
      "ĠÙĪØ§Ø±ÙĪ": 1663,
      "åĨħ": 1664,
      "ĠØ´Ø§ÙĩÙĩ": 1665,
      "éĶ": 1666,
      "èĥ": 1667,
      "ĠsÃµ": 1668,
      "ĠÙģÙĤ": 1669,
      "èĢħ": 1670,
      "Ø§Ø®": 1671,
      "éļ": 1672,
      "ia": 1673,
      "ĠÙĩÙĪÙĨØ¯ÙĪ": 1674,
      "Ø¬Ø¨": 1675,
      "ÙħÙĬÙĨ": 1676,
      "éķ¿": 1677,
      "ĠâĢĻ": 1678,
      "ra": 1679,
      "15": 1680,
      "eg": 1681,
      "ĠØ®Ø¨Ø±": 1682,
      "ega": 1683,
      "Ãµt": 1684,
      "Ġà´Ĺ": 1685,
      "æķĻ": 1686,
      "éĵ": 1687,
      "oh": 1688,
      "åħ³": 1689,
      "è¥": 1690,
      "Ø´ÙĬ": 1691,
      "æ·": 1692,
      "ĠØ³Ø§": 1693,
      "ĠâĢĵ": 1694,
      "ĠØ¬ÙĪØ§Ø¨": 1695,
      "ĠÚıØ³": 1696,
      "Ø¨ÙĨ": 1697,
      "ĠØ§ÙĪÙĨ": 1698,
      "æ¶": 1699,
      "çĤ¹": 1700,
      "ĠØªÙħ": 1701,
      "ç¦ı": 1702,
      "æĹł": 1703,
      "çĭ": 1704,
      "ĠÃ¼le": 1705,
      "éĽĨ": 1706,
      "Ġes": 1707,
      "ĠÙħØª": 1708,
      "ĠÙĦØ¦ÛĮ": 1709,
      "ĠÙĨÛģ": 1710,
      "ĠØ³Ø§Ùħ": 1711,
      "æĪĲäºº": 1712,
      "Ġtule": 1713,
      "å®¢": 1714,
      "ti": 1715,
      "ĠÙĪØ§ÙĦ": 1716,
      "ĠÙĨÙĬ": 1717,
      "Ġmil": 1718,
      "ĠÚ³ÙĪÙº": 1719,
      "èĢĮ": 1720,
      "äºĮ": 1721,
      "ĠØ§ÙĦÙĦÙĩ": 1722,
      "Ġ|": 1723,
      "Ġne": 1724,
      "ĠpÃµ": 1725,
      "ä¸ŃåĽ½": 1726,
      "Ġos": 1727,
      "éĹ¨": 1728,
      "ĠØ¹Ø¨": 1729,
      "äºļ": 1730,
      "å¼ı": 1731,
      "åįķ": 1732,
      "ÙĦÙĬØ³": 1733,
      "ĠØ¬ÙĬÚªÚıÙĩÙĨ": 1734,
      "æĪ·": 1735,
      "ÙģØ±": 1736,
      "ĠÙ¿Ø¦ÙĬ": 1737,
      "ĠÚªÙĨØ¯ÙĪ": 1738,
      "èµ°": 1739,
      "æĪı": 1740,
      "Ø§Ø¬ÙĬ": 1741,
      "Ġà´¯": 1742,
      "åİ¿": 1743,
      "ĠÙħØ®": 1744,
      "ĠØ³ÚĦ": 1745,
      "å»º": 1746,
      "Ġà´ªà´°": 1747,
      "æĺİ": 1748,
      "ĠÚ¯ÛĮØ§": 1749,
      "ĠØªØ¨": 1750,
      "ÙĦÙĬÙħ": 1751,
      "ĠØŃÙĪ": 1752,
      "ĠÙ¾ÛĮ": 1753,
      "ĠØ¢ÙĩÙĬØ§ÙĨ": 1754,
      "æ²¡": 1755,
      "ĠØ¬ÛĮ": 1756,
      "Ġpo": 1757,
      "ip": 1758,
      "ĠØ¨Ø§Ø¨Øª": 1759,
      "Ù¾ÙĪØ¡": 1760,
      "ĠØ¨ÙĨØ¯": 1761,
      "Ø³ÙĦ": 1762,
      "ĠÙ¾Ø±ÙĬ": 1763,
      "Ġå¾®ä¿¡": 1764,
      "ĠØ³ÙĨÚ¯": 1765,
      "Ø§ÙĤÙĬ": 1766,
      "å¤©å¤©å½©ç¥¨": 1767,
      "Ù¾ÙĬ": 1768,
      "åĪ¶": 1769,
      "ĠØ®Ø§Øµ": 1770,
      "Ø±ÙĬØ¡": 1771,
      "ĠØµØŃ": 1772,
      "é¦Ļ": 1773,
      "ĠÙĪØ³": 1774,
      ".âĢľ": 1775,
      "è¥¿": 1776,
      "Ġvast": 1777,
      "çĿ": 1778,
      "ĠØ§Øµ": 1779,
      "ĠØ«": 1780,
      "æİ¨": 1781,
      "åħįè´¹": 1782,
      "å¢": 1783,
      "ÙĩØ§": 1784,
      "ĠØ¹ÙĪØ±Øª": 1785,
      "ĠØ·Ø±ØŃ": 1786,
      "èĲ": 1787,
      "ĠØ¬ÙĬÚªØ§": 1788,
      "éľ": 1789,
      "ÙģØ¸": 1790,
      "ĠØ¢Ùĩ": 1791,
      "ĠÙĩÙĨÙĨ": 1792,
      "éĻ¢": 1793,
      "ĠÙ¾ÙĬØ´": 1794,
      "ĠÙħØ¯": 1795,
      "åįģ": 1796,
      "ĠØ®ÙĬ": 1797,
      "Ġà´±": 1798,
      "Ø³ØªÙĬ": 1799,
      "ç±": 1800,
      "ĠØªÙĨÙĩÙĨ": 1801,
      "à´°à´£": 1802,
      "Ú³ÙĪ": 1803,
      "æ¯Ķ": 1804,
      "ç®¡": 1805,
      "äºĶ": 1806,
      "Ġà´ĩà´¤": 1807,
      "iku": 1808,
      "ĠÛģÙĪÙĨ": 1809,
      "Ġà´µà´°": 1810,
      "ĠÚ©ÛĮØªØ§": 1811,
      "ØªÛĮ": 1812,
      "æ°ĳ": 1813,
      "Ø§Ø±ÙĬØ®": 1814,
      "ĠÙĪØ§ÙĤ": 1815,
      "Ø§Ø¦Ùħ": 1816,
      "Ġ\"": 1817,
      "ki": 1818,
      "ĠÙ»Ùĩ": 1819,
      "ĠØ¢Ø²": 1820,
      "va": 1821,
      "ĠØ§ÙĨÙĩÙĬØ¡": 1822,
      "200": 1823,
      "ha": 1824,
      "à´Ĥ.": 1825,
      "2018": 1826,
      "ÚĬÙĬ": 1827,
      "ĠO": 1828,
      "ĠÚĨÙĪÚ»": 1829,
      "åħ¶": 1830,
      "ĠÚªÙĪÙĨ": 1831,
      "ĠÙħÙ¿": 1832,
      "Ú±": 1833,
      "ĠÙĤØ¨": 1834,
      "Ġteg": 1835,
      "ie": 1836,
      "ĠÙĨØ§": 1837,
      "è®¾": 1838,
      "ĠÙħØ®ØªÙĦÙģ": 1839,
      "ÙģÙĬ": 1840,
      "ĠÚ©ÙĨ": 1841,
      "ool": 1842,
      "Ġkasut": 1843,
      "Ù¾Ø±": 1844,
      "ĠØ¹ÙħÙĦ": 1845,
      "é¢Ĩ": 1846,
      "ĠØ¬ÙĨÚ¯": 1847,
      "æĭį": 1848,
      "ĠÚĪ": 1849,
      "Ġà´«": 1850,
      "åĬ¿": 1851,
      "æµ·": 1852,
      "ĠØ¯ÙĪØ±Ø§ÙĨ": 1853,
      "ĠØ´Ø§ÙħÙĦ": 1854,
      "ÙĬÙĨÙĬ": 1855,
      "æľ¯": 1856,
      "ä¸ľ": 1857,
      "æº": 1858,
      "èµ¢": 1859,
      "ĠvÃµim": 1860,
      "èª": 1861,
      "ĠÙģÙĪØ¬": 1862,
      "ĠÙĨÙĨÚį": 1863,
      "è¡¨": 1864,
      "ĠÙ¾ÙĪÙĦÙĬØ³": 1865,
      "ØªÙĦ": 1866,
      "Ġà´ħà´¨": 1867,
      "ĠÚ©Ø±ÙĨ": 1868,
      "ĠÙħØ³ÙĦ": 1869,
      "ĠØ¢Ø®": 1870,
      "ĠÚıÙĬÚ»": 1871,
      "eel": 1872,
      "ĠÙ¾ÙĨÙĩÙĨØ¬ÙĪ": 1873,
      "ug": 1874,
      "ĠB": 1875,
      "Ġer": 1876,
      "ĠÚ©Ø§ÙĨÙ¾ÙĪØ¡": 1877,
      "ikk": 1878,
      "ĠØ§Ø³ØªØ¹": 1879,
      "iir": 1880,
      "Ú¯Ø±Ø¯": 1881,
      "çĽ´": 1882,
      "æ¸¸æĪı": 1883,
      "åħ¥": 1884,
      "ĠØ§Ù¿": 1885,
      "å½©ç¥¨å¤©å¤©": 1886,
      "ĠÚıØ§": 1887,
      "æµģ": 1888,
      "ĠØ¬ØªÙĬ": 1889,
      "ĠtÃµ": 1890,
      "ĠÙĪØ§Ù¾": 1891,
      "ĠØªØ§Ø±ÙĬØ®": 1892,
      "ĠØªÙħØ§Ùħ": 1893,
      "Ø¨Ø§ÙĨ": 1894,
      "ĠØ¹Ø§Ùħ": 1895,
      "ä¿Ŀ": 1896,
      "ĠÚ©Ú»ÙĬ": 1897,
      "Ģè¯·": 1898,
      "Ġel": 1899,
      "ĠØ¯ÙĪØ³Øª": 1900,
      "ĠÙ¾ÙĬØ¯Ø§": 1901,
      "ĠÙ¿ÙĬÙĨØ¯ÙĪ": 1902,
      "ĠØªØ§ÙĨ": 1903,
      "Ġnii": 1904,
      "æĬ¥": 1905,
      "ĠØ¹ÙĪØ§Ùħ": 1906,
      "éĹ´": 1907,
      "uste": 1908,
      "ĠÙ¾ÙĨØ¬Ø§Ø¨": 1909,
      "ĠlÃµ": 1910,
      "åĬ¡": 1911,
      "ĠÙĩØ§": 1912,
      "ĠÚ¯ÙĪ": 1913,
      "ĠÙ¾Ûģ": 1914,
      "Ø«Ø±": 1915,
      "ĠØ³ÙĪÚĨ": 1916,
      "ĠØ¨Ú¾": 1917,
      "www": 1918,
      "ĠØµÙĪØ±Øª": 1919,
      "ĠÙĨÙĪØ§Ø²": 1920,
      "ĠØ®ÙĪØ´": 1921,
      "éĤ£": 1922,
      "und": 1923,
      "Ġla": 1924,
      "åİ»": 1925,
      "ÙĨØ§Úº": 1926,
      "ĠÙĩÙĪÙĨØ¯ÙĬ": 1927,
      "pp": 1928,
      "à´µà´¨": 1929,
      "çº§": 1930,
      "ä½ķ": 1931,
      "Ġà´ĩà´¨": 1932,
      "ĠÚĢØ±": 1933,
      "ĠÙ¾ÙĪÙĨ": 1934,
      "Ġu": 1935,
      "Ø§Ø±ÛĮ": 1936,
      "ib": 1937,
      "Ø±ÙĬÙĦ": 1938,
      "æĹ¥æľ¬": 1939,
      "ĠØ§Úª": 1940,
      "ĠÚ¯ÙĦ": 1941,
      "éħ": 1942,
      "Ø´Ø´": 1943,
      "à´²à´¯": 1944,
      "è£ħ": 1945,
      "æĦı": 1946,
      "ĠØ§Ø¦ÙĬÙĨ": 1947,
      "ent": 1948,
      "ĠØŃØ³": 1949,
      "anud": 1950,
      "ĠÙħØ§ÙĦ": 1951,
      "Ġà´¸à´®": 1952,
      "ï¼ī": 1953,
      "ĠÚĬØ§Úª": 1954,
      "åĸ": 1955,
      "Ġaga": 1956,
      "åıĮ": 1957,
      "ï¼Ī": 1958,
      "åħĥ": 1959,
      "ç§ĳ": 1960,
      "ĠØ§ÛĮÛģÛģ": 1961,
      "Ġas": 1962,
      "æ¡": 1963,
      "è¿ĺ": 1964,
      "èº": 1965,
      "ĠÚĦÚ»": 1966,
      "è®°": 1967,
      "kt": 1968,
      "ĠÙ¾ÙĬØ§": 1969,
      "è¨": 1970,
      "ĠØŃÙĤ": 1971,
      "kon": 1972,
      "ĠØ§Ø³ØªØ¹ÙħØ§ÙĦ": 1973,
      "çģ": 1974,
      "éĿł": 1975,
      "ĠÙ»ÙĪ": 1976,
      "Ġb": 1977,
      "èħ": 1978,
      "ĠÚªØ±Ø§ÚĨÙĬ": 1979,
      "aar": 1980,
      "å¾Ī": 1981,
      "ä¸ĩ": 1982,
      "åĽĽ": 1983,
      "iks": 1984,
      "àµģà´Ĥ.": 1985,
      "ĠÙĦÙģØ¸": 1986,
      "ç§į": 1987,
      "å©": 1988,
      "à´Łà´¨": 1989,
      "ĠÙĪÚıÙĪ": 1990,
      "çĥ": 1991,
      "Ø§ÙĬØª": 1992,
      "ĠÙĤØ±": 1993,
      "æ¨": 1994,
      "åĮĹäº¬": 1995,
      "ÙĩÙĪÙĨ": 1996,
      "Ø§ÙģÙĬ": 1997,
      "ĠØ§Ø³Úª": 1998,
      "ati": 1999,
      "Ġà´Ī": 2000,
      "åĢ¼": 2001,
      "ĠÙħÚª": 2002,
      "ĠÙħÙĩ": 2003,
      "åıĬ": 2004,
      "ĠvÃ¤lja": 2005,
      "ç¨ĭ": 2006,
      "Ġà´¹": 2007,
      "Ø§ÙĨÙĪ": 2008,
      "è¶³": 2009,
      "ĠÙģÙĬØµ": 2010,
      "çī©": 2011,
      "Ø¨Ø§Ø±": 2012,
      "Ø§ÙĨÙĪÙĨ": 2013,
      "éĤĢè¯·": 2014,
      "ĠC": 2015,
      "ob": 2016,
      "used": 2017,
      "ĠØµØ±Ùģ": 2018,
      "Ø·ÙĨ": 2019,
      "å±±": 2020,
      "Ø®Øµ": 2021,
      "åĬ©": 2022,
      "åįĹ": 2023,
      "Ġpar": 2024,
      "å¼º": 2025,
      "ĠÚ¯ÙĩÙ½": 2026,
      "ĠÚªÙĨØ¯Ø§": 2027,
      "ĠØ¹ÙĦØ§Ø¦": 2028,
      "Ġà´Ł": 2029,
      "ĠÙ¾Ø¦": 2030,
      "ç½ĳåĿĢ": 2031,
      "é»ĳ": 2032,
      "ĠØ§ØªÙĬ": 2033,
      "ade": 2034,
      "ĠØ¢Ø±": 2035,
      "å½ķ": 2036,
      "ĠÙĪØ¬": 2037,
      "ĠmÃ¤": 2038,
      "sed": 2039,
      "ÙĦÙĤ": 2040,
      "ĠØ¢Ùħ": 2041,
      "ĠÙ»Ø§Ø±": 2042,
      "éĢģ": 2043,
      "æİ¥": 2044,
      "ĠÙħØ°": 2045,
      "æĽ´": 2046,
      "ĠØ§Úĥ": 2047,
      "æ¬¡": 2048,
      "ĠØ°Ø±ÙĬ": 2049,
      "ĠÚªÙĬØ§": 2050,
      "ĠØ®ÙĬØ§ÙĦ": 2051,
      "èº«": 2052,
      "çĽ®": 2053,
      "éĩı": 2054,
      "ä½į": 2055,
      "ĠØ¬Ø§Ø±ÙĬ": 2056,
      "Ø²Ø§Ø±": 2057,
      "ĠØ¨ÚĨ": 2058,
      "äºĽ": 2059,
      "30": 2060,
      "ĠÚĨÙĪÙĨÚĬ": 2061,
      "ĠØªÙĪÙĨ": 2062,
      "ÛĮÚ©": 2063,
      "ĠØ¹Ø§ÙĦ": 2064,
      "è±": 2065,
      "ĠØ±Ø§Øª": 2066,
      "çĦ¶": 2067,
      "Ġà´ı": 2068,
      "Ø§Ø±ÙĬÙĨ": 2069,
      "æķ°": 2070,
      "ui": 2071,
      "Ġpal": 2072,
      "ĠØ´Ø®Øµ": 2073,
      "é»Ħ": 2074,
      "val": 2075,
      "17": 2076,
      "ĠÙĨÙ¿": 2077,
      "ÙĤÙĦ": 2078,
      "åĭ": 2079,
      "ĠÚĬÙĬ": 2080,
      "ĠÙĤØ³Ùħ": 2081,
      "Ġà´¡": 2082,
      "æĶ¾": 2083,
      "ĠÙĩØªÙĬ": 2084,
      "ĠØŃÚªÙħ": 2085,
      "è®º": 2086,
      "od": 2087,
      "ĠØ¹Ø¯Ø§ÙĦ": 2088,
      "Ø¬Ú»": 2089,
      "Ġna": 2090,
      "ika": 2091,
      "å·§": 2092,
      "åı£": 2093,
      "ĠEesti": 2094,
      "Ġà´¤à´¨": 2095,
      "å°Ĩ": 2096,
      "Ø§ÙĨÚ¯": 2097,
      "ĠÙĪÙģ": 2098,
      "ĠØ´ÙĬ": 2099,
      "ĠÙĬÙĪÙĨ": 2100,
      "åħŃ": 2101,
      "æ´²": 2102,
      "ĠÙĪØ§Ø±ÙĨ": 2103,
      "ĠØ³ÙĬÚª": 2104,
      "16": 2105,
      "ĠØ§ÙĩÙħ": 2106,
      "èĻ": 2107,
      "å®ĺæĸ¹": 2108,
      "çŁ¥": 2109,
      "çĽ¸": 2110,
      "æľīé": 2111,
      "ĠÙĩØ§Ú»ÙĬ": 2112,
      "ĠÙĩÙĬÙº": 2113,
      "à´°à´ķ": 2114,
      "ĠÚªÙĬØ³": 2115,
      "æµĭ": 2116,
      "usi": 2117,
      "Ġju": 2118,
      "ĠÙĨØ§ÙĦÙĪ": 2119,
      "Ø·ÙĬ": 2120,
      "Ø±Ø§Ø¦ÙĬ": 2121,
      "ĠÙĤØ§Ø¦Ùħ": 2122,
      "ĠØ¨ÙĪ": 2123,
      "Ġà´ĵ": 2124,
      "Ø§ÙĨÛĮ": 2125,
      "eld": 2126,
      "iiv": 2127,
      "æĦŁ": 2128,
      "ĠØ³ÙĬØ§Ø³ÙĬ": 2129,
      "ĠÙħÙĪÙĤ": 2130,
      "ä¸ĸ": 2131,
      "å²": 2132,
      "ĠÚıÙĨÙĬ": 2133,
      "ilm": 2134,
      "ĠÙ¾Ù½": 2135,
      "æĥ³": 2136,
      "ĠÙĪÙĬÙĨØ¯ÙĬ": 2137,
      "æīĵ": 2138,
      "qq": 2139,
      "ĠØ´Ø±ÙĬÙģ": 2140,
      "ÙºÙĬ": 2141,
      "ĠÙ¾Ø§Ø±Ø§ÙĨ": 2142,
      "ĠÙĪØ±ØªÙĪ": 2143,
      "ĠØ¯Ùĩ": 2144,
      "ĠÚ©ÙĬÙĨ": 2145,
      "ĠÙĩÙĬÙĪ": 2146,
      "éĤĢè¯·çłģ": 2147,
      "àµĩà´¾": 2148,
      "Ġmida": 2149,
      "ĠØ³Ø§Ø±": 2150,
      "Ġkoh": 2151,
      "çĻ¾": 2152,
      "åĲĪæ³ķ": 2153,
      "ĠØ´Ø±": 2154,
      "åĨĮ": 2155,
      "ĠÚıØ§ÙĨÙĩÙĨ": 2156,
      "åįļ": 2157,
      "ĠÚªÚį": 2158,
      "ĠÚ¾ÙĨ": 2159,
      "Ġsu": 2160,
      "ĠÙĦØ§": 2161,
      "ĠÙĤØ§ÙĨÙĪÙĨ": 2162,
      "à´ķàµ¾": 2163,
      "æĬĢå·§": 2164,
      "æ´»": 2165,
      "14": 2166,
      "æ£": 2167,
      "ĠÙ¾Úĩ": 2168,
      "èµ·": 2169,
      "Ġrah": 2170,
      "ĠÙĬØ§Ø¯": 2171,
      "ØµÙĬ": 2172,
      "Ø¬Ú¾": 2173,
      "ĠØªÚ¾": 2174,
      "ç²¾": 2175,
      "ĠÙ»ÙĬÙĪ": 2176,
      "ĠØ§ÙĬØª": 2177,
      "ĠÙ¿ÙĬÙĦ": 2178,
      "ĠÙħØ³ÙĦÙħØ§ÙĨ": 2179,
      "ĠÙħÙĪØ¬Ø¨": 2180,
      "re": 2181,
      "èµĽ": 2182,
      "Ġseda": 2183,
      "Ġmit": 2184,
      "ĠØ±Ûģ": 2185,
      "ĠØ¢ÙģÙĬØ³": 2186,
      "ç¶": 2187,
      "çħ": 2188,
      "Ø§Ø¦ÙĪ": 2189,
      "ç©º": 2190,
      "é©¬": 2191,
      "æ¸¯": 2192,
      "å±Ģ": 2193,
      "ĠjÃ¤r": 2194,
      "å®Į": 2195,
      "æĵ": 2196,
      "Ù¹ÛĮ": 2197,
      "å¤§å¥ĸ": 2198,
      "itse": 2199,
      "è§Ĥ": 2200,
      "à´¯à´¨": 2201,
      "åıĸ": 2202,
      "Ġkir": 2203,
      "Ø³ÙĪØ³": 2204,
      "ĠÚıØ§Úį": 2205,
      "ĠÚªÙĪØ´Ø´": 2206,
      "ĠØ®ØªÙħ": 2207,
      "à´°à´¸": 2208,
      "all": 2209,
      "æĺ¯çľŁ": 2210,
      "ĠÙĦÚ³ÙĬ": 2211,
      "ä¸ĵ": 2212,
      "ĠØ³ÚĢÙĨÙĬ": 2213,
      "ĠØ®Ø±": 2214,
      "ÚĬÙĬØ§": 2215,
      "à´Łà´ķ": 2216,
      "åģĩ": 2217,
      "ĠÙ¾ÙĬØ±": 2218,
      "ĠØŃÙħ": 2219,
      "Ø§ÙĨØ§": 2220,
      "ĠØ§ÙĪÙĩØ§ÙĨ": 2221,
      "ĠÚ¾Úª": 2222,
      "ĠÚĢÙĬ": 2223,
      "Ãľ": 2224,
      "ĠÚ©Ø±Ø¯": 2225,
      "ĠÚĬØ§ÚªÙ½Ø±": 2226,
      "æ³¨åĨĮ": 2227,
      "ĠÙ¾Ø§Ú»ÙĬ": 2228,
      "Ú¯ÙĬØ¡": 2229,
      "Ġan": 2230,
      "åķĨ": 2231,
      "å¾ĭ": 2232,
      "Ġkon": 2233,
      "ÙĪØ±ÙĬ": 2234,
      "ĠÃ¼h": 2235,
      "Ø¤": 2236,
      "ÙģØª": 2237,
      "ĠÚªÙĪØ±": 2238,
      "Ø¬Ø±": 2239,
      "çĸ": 2240,
      "ÙĩØ§Ø±": 2241,
      "ĠØ±Ú©ÙĬ": 2242,
      "åĽŀ": 2243,
      "iste": 2244,
      "oov": 2245,
      "ĠØ¬ÙĦ": 2246,
      "ä¸Ģä¸ª": 2247,
      "ä¼¦": 2248,
      "Ø²Ø§": 2249,
      "uses": 2250,
      "èİ": 2251,
      "çł´": 2252,
      "ĠÂ": 2253,
      "åĽł": 2254,
      "ĠØ±Ø§Ø¬": 2255,
      "ĠsÃ¼": 2256,
      "Ġkun": 2257,
      "ĠÚĮØ±": 2258,
      "Ġette": 2259,
      "ÚªØ§": 2260,
      "ĠØ§Ø¯Ø§": 2261,
      "çĿĢ": 2262,
      "à´¯à´ķ": 2263,
      "ĠØ±Ø³": 2264,
      "ÛģØ±": 2265,
      "ĠÙĦÙĪÚ©": 2266,
      "ĠâĢ¦": 2267,
      "asi": 2268,
      "à´°à´µ": 2269,
      "ĠÚıØ³ÙĬ": 2270,
      "Ø§ÙĨÙĨ": 2271,
      "ĠÚıÚ©": 2272,
      "Ġkuid": 2273,
      "åĶ": 2274,
      "ç»Ł": 2275,
      "99": 2276,
      "éł": 2277,
      "50": 2278,
      "èĬ±": 2279,
      "ĠØ±Ú³ÙĪ": 2280,
      "inna": 2281,
      "ane": 2282,
      "ÛģØ§Úº": 2283,
      "ĠÙĪØ§ÙĨ": 2284,
      "ĠØ´Ùĩ": 2285,
      "Ù¾Ø±ÙĬ": 2286,
      "ä½¿": 2287,
      "æĶ¿": 2288,
      "ÙĨØ§": 2289,
      "ĠØ¢Ø¦ÙĪÙĨ": 2290,
      "è¯Ŀ": 2291,
      "ç¤¾": 2292,
      "çĻ»": 2293,
      "å½ĵ": 2294,
      ".âĢĿ": 2295,
      "Ġà´ķà´£": 2296,
      "ĠØªØ¹ÙĦÙĬÙħ": 2297,
      "ete": 2298,
      "æĺĵ": 2299,
      "ĠØ³Ø§ÙĦÙĨ": 2300,
      "ĠØ¨ÙĨÙĬ": 2301,
      "ĠØŃÙĪØ§ÙĦÙĬ": 2302,
      "Ġmille": 2303,
      "ĠØ³Ú¯ÙĩÙĨ": 2304,
      "Ø§Ø¹Ø¸Ùħ": 2305,
      "å¤ļå°ĳ": 2306,
      "ĠØ§ØŃØª": 2307,
      "å¸Ī": 2308,
      "æĸĻ": 2309,
      "ĠØ§ÙĨØ¯": 2310,
      "ike": 2311,
      "ä½Ĩ": 2312,
      "jut": 2313,
      "ĠÙ¾ÙĩØ±ÙĬÙĨ": 2314,
      "è·¯": 2315,
      "ĠØ§ÙĬØ³": 2316,
      "ĠÙĦÚ³ÙĪ": 2317,
      "13": 2318,
      "Ù¾ÙĦ": 2319,
      "éĻħ": 2320,
      "ÚıÙĪ": 2321,
      "tt": 2322,
      "Ø³ÙĨØ¯": 2323,
      "æĺŁ": 2324,
      "vad": 2325,
      "Ø§Ø·": 2326,
      "ÙĦØ¨": 2327,
      "itud": 2328,
      "Ù¾ÙĪØ±Ù½": 2329,
      "ä¹ħ": 2330,
      "à´¤à´®": 2331,
      "ĠØ¬Ø§ÙĨØ¯Ø§": 2332,
      "ĠÙĨØ§ÙĦÙĬ": 2333,
      "Ú¾ÙĨØ¬ÙĬ": 2334,
      "ĠÙħÙĬØ±": 2335,
      "ĠØ³ÚĦÙĬ": 2336,
      "ĠØ³ÚĨ": 2337,
      "ç¼": 2338,
      "Ġarv": 2339,
      "å·ŀ": 2340,
      "ä»Ĭ": 2341,
      "Ù¾Øª": 2342,
      "ĠØªÙĤ": 2343,
      "ĠÚ¯ÙĩÚ»ÙĪ": 2344,
      "åºĶ": 2345,
      "ĠØ¯ÛĮØ§Úº": 2346,
      "åĮħ": 2347,
      "selt": 2348,
      "å¹¿": 2349,
      "Ġvah": 2350,
      "ĠÙģÙĦ": 2351,
      "åŁº": 2352,
      "ĠÙħØ³Ø¦": 2353,
      ").": 2354,
      "ĠØ²ÙĨØ¯Ú¯ÙĬ": 2355,
      "ä»»": 2356,
      "ÙħØª": 2357,
      "ĠØ¹Ø¨Ø¯Ø§ÙĦ": 2358,
      "ĠÙĪØ§": 2359,
      "ĠÙĩÙĬÙĪÙĨ": 2360,
      "åıĭ": 2361,
      "og": 2362,
      "ĠÙĨÙĤ": 2363,
      "ÙĦØ§ÙĨ": 2364,
      "åħĪ": 2365,
      "Ø±ÙģØª": 2366,
      "æĢ»": 2367,
      "èģĶ": 2368,
      "ĠÙ¿ÙĬÙĨØ¯ÙĬ": 2369,
      "ĠÙ»Ø§ÙĩØ±": 2370,
      "nn": 2371,
      "Ø§Øº": 2372,
      "ÙĪØ±ÙĪ": 2373,
      "æºĲ": 2374,
      "åĬŀ": 2375,
      "ĠkÃ¼l": 2376,
      "åĳĺ": 2377,
      "ĠÙĪÚĥÙĨ": 2378,
      "ĠØ¹Ø±": 2379,
      "ÛĮÙ¹": 2380,
      "ĠÙ¾Ø§Ø³": 2381,
      "ĠÙ¿ÙĬÙĪÙĨ": 2382,
      "ä¹°å½©ç¥¨": 2383,
      "ãĢĢ": 2384,
      "ĠÙĤÙĪÙħÙĬ": 2385,
      "ĠÚ¯Ø§": 2386,
      "åİŁ": 2387,
      "ĠÙ¾Ú¾": 2388,
      "à´ĺ": 2389,
      "ÙĪØ§Ø²": 2390,
      "Ø±ÙĬØ²": 2391,
      "iselt": 2392,
      "atsioon": 2393,
      "Ġà´ŀ": 2394,
      "ĠÙħØµ": 2395,
      "amine": 2396,
      "èµ°åĬ¿": 2397,
      "æ»": 2398,
      "ĠÚ¯Ú¾Ø±": 2399,
      "Ġà´®à´¨": 2400,
      "Ú©Ø§Ø±": 2401,
      "ĠÚªÙĬÙĦ": 2402,
      "æĶ¹": 2403,
      "ised": 2404,
      "ØŃØ§ÙĦ": 2405,
      "ĠØ§Ú³ÙĪØ§Ú»": 2406,
      "å¸¸": 2407,
      "ĠØºÙĬØ±": 2408,
      "Ġkoht": 2409,
      "ĠÙ»ÚĮØ§ÙĬÙĪ": 2410,
      "ĠØ¨Ø§Ø±": 2411,
      "ÚĪÛĴ": 2412,
      "ï¼Ľ": 2413,
      "ĠØ¹Ø¯Ø§ÙĦØª": 2414,
      "é¢Ħ": 2415,
      "à´Ļàµ¾": 2416,
      "ĠØ¨Ø§Ø¯": 2417,
      "iin": 2418,
      "ÙĦÙĬØ¡": 2419,
      "ĠvÃµimal": 2420,
      "elle": 2421,
      "Ø±ÙĬÚªØ§": 2422,
      "ĠÚ¯ÙĩØ±Ø¬ÙĬ": 2423,
      "à´Łà´Ļ": 2424,
      "ãĢĬ": 2425,
      "ĠÛĮØ§": 2426,
      "ÚĳÛĴ": 2427,
      "å¯¼": 2428,
      "Ġà´ªà´±à´ŀ": 2429,
      "ãĢĭ": 2430,
      "å¦Ĥä½ķ": 2431,
      "ĠØŃÙĬ": 2432,
      "ĠÚ©Ùħ": 2433,
      "ÙĪØ§ÙĦ": 2434,
      "åŀ": 2435,
      "åł": 2436,
      "å®Ŀ": 2437,
      "åħī": 2438,
      "ÚªØ§Ø±ÙĬ": 2439,
      "ĠØºÙĦØ§Ùħ": 2440,
      "çķĮ": 2441,
      "Ø®ÙĪ": 2442,
      "Ã¼h": 2443,
      "ĠÙħØ¹Ø§Ùħ": 2444,
      "ĠØŃÙĤÙĬ": 2445,
      "ĠÙĨØ¦ÙĬÙĨ": 2446,
      "uba": 2447,
      "åĦ": 2448,
      "æŁ¥": 2449,
      "ÙĦÙĪÙħ": 2450,
      "æĸ¯": 2451,
      "akk": 2452,
      "ord": 2453,
      "æĤ": 2454,
      "ÙħÙĪÙĨ": 2455,
      "ĠÚªÙĨØ¯ÚĻ": 2456,
      "Ġkorr": 2457,
      "ĠÙĩØ§Ú»": 2458,
      "ÚĮÙĬ": 2459,
      "ĠØ¯Ùģ": 2460,
      "ĠÚ¾ÛĴ": 2461,
      "æŃ¤": 2462,
      "ĠÚ©ÛĮ": 2463,
      "ĠØ¯Ø§Ø®": 2464,
      "ĠÙĨØ´": 2465,
      "24": 2466,
      "ĠÙĨØ§Úº": 2467,
      "æ¸ħ": 2468,
      "ç¦ıåĪ©": 2469,
      "ØªÙĪÙĨ": 2470,
      "ĠÚ©Ú¾": 2471,
      "è¿Ĳ": 2472,
      "Ġà´¨à´²": 2473,
      "èīº": 2474,
      "çĻ½": 2475,
      "æ¼«": 2476,
      "å¹²": 2477,
      "åĲĦ": 2478,
      "ĠjÃ¤": 2479,
      "ĠØµØ¯Ø±": 2480,
      "Ġise": 2481,
      "åĲ§": 2482,
      "ĠØ§Ù¾ÙĨÛĴ": 2483,
      "ÙħØ¨": 2484,
      "ĠÙ¾ÙĩÚĨ": 2485,
      "è¯ģ": 2486,
      "art": 2487,
      "Ø±ÙĦ": 2488,
      "éªĹ": 2489,
      "çĹ": 2490,
      "ä»İ": 2491,
      "ĠØ§ÙĨØªØ¸": 2492,
      "é¾": 2493,
      "ĠpÃµh": 2494,
      "Ø¹ÙĨ": 2495,
      "èĤ²": 2496,
      "ĠÚªÙħÙĬ": 2497,
      "ĠØ¨Ø®": 2498,
      "Ù½ÙĦ": 2499,
      "ĠÙģÙĤØ·": 2500,
      "bi": 2501,
      "imise": 2502,
      "ĠÚĦØ§Ú»": 2503,
      "ĠØ±ÙĨÚ¯": 2504,
      "à´ļà´¤": 2505,
      "ĠØ¢Ø²Ø§Ø¯": 2506,
      "ç»Ļ": 2507,
      "ÚĪÛĮ": 2508,
      "à´³à´¤": 2509,
      "ÙĨØ¯ÛĴ": 2510,
      "ÙĦÛģ": 2511,
      "ĠÙ¾Ø§Ø±Ù½ÙĬ": 2512,
      "Ġà´ķà´´": 2513,
      "å¦ĩ": 2514,
      "åľ¨åĵª": 2515,
      "çı": 2516,
      "ĠØ¯ÙĩØ´Øª": 2517,
      "ene": 2518,
      "25": 2519,
      "Ø§Ø¨ÙĤ": 2520,
      "æ¢": 2521,
      "ØĽ": 2522,
      "ĠÚªÙĪØ±Ù½": 2523,
      "ea": 2524,
      "ĠØ³ÙħÙĬØª": 2525,
      "æħ": 2526,
      "çħ§": 2527,
      "ĠÃ¤r": 2528,
      "à´ªà´¤": 2529,
      "ÚĪØ§": 2530,
      "ke": 2531,
      "Ø¬Ùĩ": 2532,
      "ÚĳÚ¾": 2533,
      "ĠØ§Ø³ÚªÙĪÙĦ": 2534,
      "ic": 2535,
      "çīĮ": 2536,
      "ĠÙĨØªÙĬ": 2537,
      "ĠâĢĺ": 2538,
      "å§Ĳ": 2539,
      "ç¡": 2540,
      "ÚĻÙĩÙĬ": 2541,
      "é¦Ļæ¸¯": 2542,
      "èĮ": 2543,
      "Ġæīĭæľº": 2544,
      "æĳ": 2545,
      "à´¿âĢĭ": 2546,
      "Ø±ÙĬØ¨": 2547,
      "ĠØ¶ÙĦ": 2548,
      "ä¼ĺ": 2549,
      "ĠÙħÙĪÙĦ": 2550,
      "æ²¡æľī": 2551,
      "è¾ĵ": 2552,
      "Ø§ÙĬ": 2553,
      "ĠÙģØ§Ø¦": 2554,
      "æ¿": 2555,
      "ĠkÃµik": 2556,
      "ĠØ³Úı": 2557,
      "Ġà´Ĩà´°": 2558,
      "ĠÙ¿ÙĬØ§": 2559,
      "ÚĳÛĮ": 2560,
      "à´¨à´Ļ": 2561,
      "atakse": 2562,
      "Ø¯ÙĬÙĨ": 2563,
      "ĠÙĨÙĪØ¬ÙĪ": 2564,
      "ĠÚ¯Ø±ÙģØª": 2565,
      "inud": 2566,
      "ĠØªÚıÙĩÙĨ": 2567,
      "ä»¶": 2568,
      "ĠD": 2569,
      "ĠØ³Ø§Ú³": 2570,
      "ÙĪÙĨÙĬ": 2571,
      "ĠØ¢ÙĩÙĬÙĪÙĨ": 2572,
      "ĠØ§ÙĩÚĻÙĪ": 2573,
      "à´¤à´°": 2574,
      "ĠÙĨÛģÛĮÚº": 2575,
      "ĠG": 2576,
      "àµį,": 2577,
      "ĠÙħØ²": 2578,
      "ĠØ¹Ø±Ø¨": 2579,
      "ĠÙĩÙĦÙĬ": 2580,
      "Ø§Ø¦ÙĬÙĨØ¯ÙĬ": 2581,
      "åĩł": 2582,
      "ĠÙħØ«": 2583,
      "Ġeh": 2584,
      "Ø¯ÙĨ": 2585,
      "ĠØ§Ø¯Ø¨": 2586,
      "æľĢæĸ°": 2587,
      "ĠØ³Ùĩ": 2588,
      "ĠØ¨Ø§Ø¯Ø´": 2589,
      "Ú¾Ø§": 2590,
      "ÙĪØ§Ø±": 2591,
      "unud": 2592,
      "å·²": 2593,
      "ĠÙħÙĬÙħ": 2594,
      "ĠØ¨Ûģ": 2595,
      "ige": 2596,
      "ç»Ħ": 2597,
      "uda": 2598,
      "ĠØ§ÙĬÙĨ": 2599,
      "ĠØ¶Ø±ÙĪØ±Øª": 2600,
      "å¦»": 2601,
      "Ġke": 2602,
      "ÚªÙĬÙ½": 2603,
      "Ġ:": 2604,
      "æģ¯": 2605,
      "ÙĢÙĢ": 2606,
      "ĠÚĨØ§Ø±": 2607,
      "æĪ¿": 2608,
      "ĠÚªØ§ÙħÙĬ": 2609,
      "æĮģ": 2610,
      "çİĭ": 2611,
      "ĠØ§ÙĨØ¯Ø§Ø²": 2612,
      "ĠÙħØ¯Ø¯": 2613,
      "ÙĦØ§ØŃ": 2614,
      "ĠÙħØ°Ùĩ": 2615,
      "idu": 2616,
      "pa": 2617,
      "ĠÙħØ¸": 2618,
      "à´¯à´ª": 2619,
      "ĠØ§ÙĨØµ": 2620,
      "ĠØ¹ÙħØ±": 2621,
      "jad": 2622,
      "é£İ": 2623,
      "å®īåħ¨": 2624,
      "ĠØ³ÙĪØ§ÙĦ": 2625,
      "ĠØ¨ÙĨØ§": 2626,
      "ĠØ¢Ø¦ÙĬ": 2627,
      "çĮ": 2628,
      "ä¸Ŀ": 2629,
      "ame": 2630,
      "é¢ĺ": 2631,
      "Ġå¤©å¤©ä¸Ńå½©ç¥¨æĢİä¹Ī": 2632,
      "ĠØ®Ø¯Ø§": 2633,
      "ĠØ¨ÙĪÙĦ": 2634,
      "ĠF": 2635,
      "ĠØªØŃØ±ÙĬÚª": 2636,
      "è²": 2637,
      "ĠØŃØ¶": 2638,
      "ala": 2639,
      "its": 2640,
      "ĠØ§Ú¯": 2641,
      "éĿĴ": 2642,
      "oom": 2643,
      "ĠÙĪÙĦ": 2644,
      "oot": 2645,
      "à´ħ": 2646,
      "ĠØ´Ø§Ø¹Ø±": 2647,
      "àµĹ": 2648,
      "Ù½Ø±ÙĬ": 2649,
      "br": 2650,
      "ĠØ¢ÙĪØ§Ø²": 2651,
      "çº¢": 2652,
      "ĠØ¬Ú¾": 2653,
      "ÙĦÙĪÚĨ": 2654,
      "ĠÚªØ§ÙĨ": 2655,
      "ĠÃ¼ks": 2656,
      "ÚĮÙĪ": 2657,
      "Ú¾Ùĩ": 2658,
      "å¦¹": 2659,
      "å·±": 2660,
      "ĠØ¶Ø±ÙĪØ±": 2661,
      "å¤´": 2662,
      "ina": 2663,
      "ell": 2664,
      "ĠÙĪØ§ÙĨÚ¯Ø±": 2665,
      "ĠØ§Ù¾": 2666,
      "amat": 2667,
      "ĠÙ¾Ø§": 2668,
      "ç®Ĺ": 2669,
      "ĠØ¨Ø¬": 2670,
      "æĪĸ": 2671,
      "åıª": 2672,
      "å¤Ħ": 2673,
      "ÙĬØ¯Ø±": 2674,
      "æ±Ĥ": 2675,
      "å·¥ä½ľ": 2676,
      "ĠÙħØ·Ø§Ø¨ÙĤ": 2677,
      "æ®": 2678,
      "ĠØ´Ø¹": 2679,
      "Ġkus": 2680,
      "Ġà´®à´±": 2681,
      "å¹¶": 2682,
      "çĶ±": 2683,
      "ĠÙĩÙĪÙĨØ¯Ø§": 2684,
      "ĠÙħØŃØ³ÙĪØ³": 2685,
      "ĠÙħØ¬": 2686,
      "Ġre": 2687,
      "ĠØ¡": 2688,
      "æĪĳä»¬": 2689,
      "à´µà´¸": 2690,
      "ĠpÃ¤r": 2691,
      "ØºÙĬØ±": 2692,
      "éŁ³": 2693,
      "ĠÙ½ÙĪ": 2694,
      "ĠØ§ÚĥØ§": 2695,
      "åŃĹ": 2696,
      "ĠÙħÙĦÚªÙĨ": 2697,
      "èī²æĥħ": 2698,
      "Ù½Ø§": 2699,
      "ĠØ²ÙĨØ¯Ú¯ÙĬØ¡": 2700,
      "ØªÚ¾ÛĴ": 2701,
      "Ġsaab": 2702,
      "ĠØªÚ©": 2703,
      "ä¼ł": 2704,
      "ima": 2705,
      "åħħ": 2706,
      "ç¤º": 2707,
      "ä¸¤": 2708,
      "Ø§Ø«": 2709,
      "à´·à´£": 2710,
      "ĠÙĪØ§Ø±Ø§": 2711,
      "åĽ½éĻħ": 2712,
      "rg": 2713,
      "ĠÚªÙĪÙĨÙĩ": 2714,
      "ava": 2715,
      "Ø¸ÙĬÙħ": 2716,
      "ĠØ¬Ø¯": 2717,
      "æį®": 2718,
      "ĠØ±ÙĪØ²": 2719,
      "ĠØµÙĪØ¨": 2720,
      "Ø´ÙĬØ§": 2721,
      "ĠØ§ØŃØªØ¬": 2722,
      "è¶ħ": 2723,
      "ÙĦÙĬÚª": 2724,
      "ĠØ§ÚĨÚ»": 2725,
      "usega": 2726,
      "ĠÙħØŃØ¨Øª": 2727,
      "ÚĻÙĬÙĪÙĨ": 2728,
      "èĭ¹": 2729,
      "ĠÛģÛĮ": 2730,
      "çłĶ": 2731,
      "ĠØ´ÙĪ": 2732,
      "ĠØ³Ø®Øª": 2733,
      "ä¹±": 2734,
      "èĭ¹æŀľ": 2735,
      "ĠÙĪÚĥÚ»": 2736,
      "èĦĳ": 2737,
      "mm": 2738,
      "ĠÙĦÚ¯": 2739,
      "æł¼": 2740,
      "ç¯": 2741,
      "èĩªå·±": 2742,
      "åĪĽ": 2743,
      "Ġav": 2744,
      "ĠØ¨ÙĬØ§ÙĨ": 2745,
      "ĠvÃµib": 2746,
      "éĹ®": 2747,
      "çĨ": 2748,
      "ĠvÃ¤ga": 2749,
      "æļ": 2750,
      "Ú©ÛĮ": 2751,
      "22": 2752,
      "ĠØ²Ø¨Ø§ÙĨ": 2753,
      "isi": 2754,
      "ï¼Ł": 2755,
      "Ø¹Ø§": 2756,
      "Ú¾Ø±": 2757,
      "ĠÛģÙĨ": 2758,
      "éĸ": 2759,
      "ç«ĭ": 2760,
      "ÙĩÙĪØ±": 2761,
      "ĠÙħØ§": 2762,
      "ØªØ§ÙĨ": 2763,
      "Ø¹ÙĨÙĬ": 2764,
      "ĠØ±Ú¾": 2765,
      "Ø§Ø²ÙĬ": 2766,
      "ĠØ·Ø±ÙģØ§ÙĨ": 2767,
      "Ġpoo": 2768,
      "ĠU": 2769,
      "ĠØ§Ø±": 2770,
      "ĠÙĪÙĬØ¬": 2771,
      "ĠÙĤØªÙĦ": 2772,
      "ĠØ´Ø§Ú¯Ø±Ø¯": 2773,
      "ĠÙĪØ§Ù¾Ø³": 2774,
      "à´°à´¨": 2775,
      "äºļæ´²": 2776,
      "åħ·": 2777,
      "ÙĩØ§Ø¦ÙĬ": 2778,
      "èĳ": 2779,
      "ĠÙĪØ²ÙĬØ±Ø§Ø¹Ø¸Ùħ": 2780,
      "Ø¦Ø§": 2781,
      "Ġà´ħà´±": 2782,
      "Ġæĸ°": 2783,
      "ĠØ¹ÙħØ±Ø§ÙĨ": 2784,
      "pet": 2785,
      "ç»ĵæŀľ": 2786,
      "Ø´Ùħ": 2787,
      "ĠØ³Ø§Ø¦ÙĬÙĨ": 2788,
      "ĠÙĨÙ¿ÙĪ": 2789,
      "à´¤à´²": 2790,
      "Ġtoim": 2791,
      "åıĹ": 2792,
      "ekt": 2793,
      "Ø¯Ø§ÙĨ": 2794,
      "Ġwww": 2795,
      "ĠÙĩÙĬØ¡": 2796,
      "elt": 2797,
      "ĠØ³ÙĦØ³": 2798,
      "Ø¯ÛĮØ§Úº": 2799,
      "ĠØ§ÙħÙĬØ¯": 2800,
      "æ¬¾": 2801,
      "Ġ)": 2802,
      "Ø´Ùĩ": 2803,
      "å¥³äºº": 2804,
      "ĠÙĨÚª": 2805,
      "ĠÚ©ÛĮØªÛĮ": 2806,
      "åıĳå±ķ": 2807,
      "é¡µ": 2808,
      "ĠÙĨÙĬÙĪ": 2809,
      "åį¡": 2810,
      "æŃ£è§Ħ": 2811,
      "ĠÙĪÚª": 2812,
      "ÙħØ±": 2813,
      "Ø¦ÙĪ": 2814,
      "åģ·": 2815,
      "Ġter": 2816,
      "ĠnÃµ": 2817,
      "set": 2818,
      "åĽ½å®¶": 2819,
      "ĠØ¹ÙĦÙħ": 2820,
      "Ġand": 2821,
      "ĠØ®Ø¯Ùħ": 2822,
      "à´ķà´£": 2823,
      "Ġpole": 2824,
      "ä¼ģ": 2825,
      "ĠÙħÙĤØ±": 2826,
      "ĠÙĨØ§Ùħ": 2827,
      "ĠÚıÙºÙĪ": 2828,
      "ĠÙĪÙĬÙĨØ¯Ø§": 2829,
      "ĠÚªØ§ÙħÙĬØ§Ø¨": 2830,
      "è®¤": 2831,
      "ĈĈ": 2832,
      "è¦ĸ": 2833,
      "ØªÙĬØ§Ø±": 2834,
      "ï¼ģ": 2835,
      "è®¯": 2836,
      "ĠØ³ÙĬØ§Ø³Øª": 2837,
      "oor": 2838,
      "ĠØ¨ÙĦÙĪÚĨ": 2839,
      "ĠØ¨ÛĮ": 2840,
      "àµįâĢį,": 2841,
      "ku": 2842,
      "ĠÙĦØ§Ú³": 2843,
      "60": 2844,
      "ĠØ²ÙħØ§ÙĨ": 2845,
      "çĥŃ": 2846,
      "ĠÙħÛĮ": 2847,
      "à´¤à´¨": 2848,
      "ĠØ°Ø±ÙĬØ¹ÙĬ": 2849,
      "Ġpu": 2850,
      "åĲĳ": 2851,
      "ĠØ²ÙħÙĬÙĨ": 2852,
      "å¸¦": 2853,
      "è´Ń": 2854,
      "éº": 2855,
      "Ø·Ø§ÙĨ": 2856,
      "ĠØ³ÙĬØ¯": 2857,
      "àµ¼à´¤": 2858,
      "à´¤à´¤": 2859,
      "ĠÙĨÛĮ": 2860,
      "ĠÙħØ±ÙĬ": 2861,
      "æĶ¶": 2862,
      "èĢĥ": 2863,
      "åŀĭ": 2864,
      "ä¼Ĺ": 2865,
      "åĦ¿": 2866,
      "å¤ľ": 2867,
      "ÙĦØ§Ø³": 2868,
      "ĠjÃµ": 2869,
      "ç±»": 2870,
      "ĠØ§ÙĪÙĦ": 2871,
      "à´¯à´Ļ": 2872,
      "ĠÙħÚªÙħÙĦ": 2873,
      "ÙĩÙĬÙĪ": 2874,
      "åįİ": 2875,
      "inu": 2876,
      "ĠØ¯Ø§Ø®ÙĦ": 2877,
      "éĢł": 2878,
      "Ġaasta": 2879,
      "ØªÛĴ": 2880,
      "éľĢ": 2881,
      "ute": 2882,
      "ĠØ³Ú¯ÙĩØ¬ÙĬ": 2883,
      "ang": 2884,
      "è§Ħå¾ĭ": 2885,
      "ĠÙħÙ¿Ø§ÙĨ": 2886,
      "æĬĬ": 2887,
      "usel": 2888,
      "pr": 2889,
      "ĠØªØ±ÙĤÙĬ": 2890,
      "ĠÚªÙĬÙĪÙĨ": 2891,
      "âĢ¦âĢ¦": 2892,
      "çł´è§£": 2893,
      "ude": 2894,
      "ter": 2895,
      "ä¹¦": 2896,
      "ĠÙģÙĦÙħ": 2897,
      "Ø§ÙĨØ¯": 2898,
      "ĠØ¨Ú»Ø¬ÙĬ": 2899,
      "2017": 2900,
      "èŃ": 2901,
      "ĠÙģÙĬØµÙĦÙĪ": 2902,
      "æīį": 2903,
      "åĩĨ": 2904,
      "ĠÙħÙĨÙĩÙĨØ¬ÙĪ": 2905,
      "Ø¢Ø¨Ø§Ø¯": 2906,
      "æĲ": 2907,
      "æ¿Ģ": 2908,
      "çİĩ": 2909,
      "ĠØ¨Ø§ÙĤÙĬ": 2910,
      "æł¡": 2911,
      "Ġkah": 2912,
      "à´¯à´°": 2913,
      "è¿ŀ": 2914,
      "ä¸įèĥ½": 2915,
      "ĠÙħÙĪÙĨÚ©ÙĬ": 2916,
      "ĠØŃÙĬØ¯Ø±": 2917,
      "ĠØ´ÛģØ±": 2918,
      "mist": 2919,
      "tle": 2920,
      "ĠåĮĹäº¬": 2921,
      "ØŃØ¯": 2922,
      "ĠØ§Ø³ÙĬÙĨ": 2923,
      "ĠØ´Úª": 2924,
      "ĠØ¹ÙĦØ§ÙĤ": 2925,
      "ĠØ¬ÙĩØ§Ø²": 2926,
      "ĠÚªØ±Ø¯Ø§Ø±": 2927,
      "ÚĳØ§": 2928,
      "ĠÙ¾Ø³ÙĨØ¯": 2929,
      "ĠÙħÙĨØ¸": 2930,
      "ĠÙ½ÙĬÙħ": 2931,
      "sti": 2932,
      "ĠØ³ÙĬÙĨ": 2933,
      "ĠÚªÙĬØ¦ÙĨ": 2934,
      "åİĨ": 2935,
      "pk": 2936,
      "ĠÙ¾Ø§Ø³ÙĬ": 2937,
      "à´Łà´ª": 2938,
      "Ġtun": 2939,
      "ĠØªÚª": 2940,
      "Ġinim": 2941,
      "Ø³Ø±": 2942,
      "åĪĹ": 2943,
      "æİĴ": 2944,
      "ï¿½ï¿½": 2945,
      "ĠÙĬÙĪÙĨÙĬÙĪØ±": 2946,
      "ĠÙĪÙĪ": 2947,
      "iim": 2948,
      "ĠØ³ÙĪÙĨ": 2949,
      "ĠØ³ÙģØ±": 2950,
      "ĠØ¬ÛĴ": 2951,
      "ĠÚªÙ¿ÙĬ": 2952,
      "ĠØ¨ØŃ": 2953,
      "ov": 2954,
      "é¾Ļ": 2955,
      "æĬķæ³¨": 2956,
      "è®©": 2957,
      "è°ĥ": 2958,
      "åľĭ": 2959,
      "æ¥": 2960,
      "Ġeest": 2961,
      "¾³": 2962,
      "ĠâĢŀ": 2963,
      "ĠØŃÙĤÙĬÙĤØª": 2964,
      "ĠÙħÚĻ": 2965,
      "ĠØ§ÙĨØµØ§Ùģ": 2966,
      "Ġtag": 2967,
      "Ġà´īà´£": 2968,
      "ĠØªÙĪÚĻÙĬ": 2969,
      "Ġkol": 2970,
      "ende": 2971,
      "ÙĤÙĨ": 2972,
      "Ø±ÙĬÙĪ": 2973,
      "ĠÚªÙĬØªØ±Ø§Ø¦ÙĬ": 2974,
      "ĠÚĨØ§Ùĩ": 2975,
      "vÃµt": 2976,
      "ĠÚ¯ÙĨ": 2977,
      "èı": 2978,
      "Ġvar": 2979,
      "æķ´": 2980,
      "jand": 2981,
      "éĢĻ": 2982,
      "ĠØ¬ÛĮÛģ": 2983,
      "Ġra": 2984,
      "çµ": 2985,
      "ĠØ§Ú³ØªÙĬ": 2986,
      "Ø§Ú»ÙĪ": 2987,
      "Ø§Ø¦ÙĬØ¡": 2988,
      "ĠÚį": 2989,
      "ka": 2990,
      "çľģ": 2991,
      "Ø§Ø¯ÙĪ": 2992,
      "ĠØ§ÛĮÙĨ": 2993,
      "ĠØ§Ø¨": 2994,
      "è´¨": 2995,
      "000": 2996,
      "ĠÙħÙĤØ§Ø¨": 2997,
      "æĵį": 2998,
      "èĩ³": 2999,
      "amiseks": 3000,
      "åĿĽ": 3001,
      "Ġveel": 3002,
      "Ġsis": 3003,
      "ole": 3004,
      "ades": 3005,
      "ĠÙħÙĩÙĬÙĨ": 3006,
      "æłĩ": 3007,
      "ÙĪØ±Ø§": 3008,
      "æĺ¯ä»Ģä¹Ī": 3009,
      "last": 3010,
      "éĢŁ": 3011,
      "è°±": 3012,
      "Ø§Ø¤": 3013,
      "Ø§ÙĤØ§Øª": 3014,
      "åĽ¢": 3015,
      "çĶµèĦĳ": 3016,
      "ĠÚĨÙĬÙģ": 3017,
      "ĠØ¨Ø³": 3018,
      "ĠØ§Ø´": 3019,
      "ĠÙħÙ¿ÙĬ": 3020,
      "ĠØºÙĦ": 3021,
      "Ġjuba": 3022,
      "ĠÚ©ÙĪÙĦ": 3023,
      "ĠÙħÙĪØª": 3024,
      "å¤ª": 3025,
      "ÚªØ±Ø§": 3026,
      "æĪĺ": 3027,
      "Ø§Ø±Ø§": 3028,
      "Ú©Ø±": 3029,
      "ĠØ®ÙĪØ¯": 3030,
      "ĠØ¢ÙĬØ§": 3031,
      "ĠÙĨØ¦": 3032,
      "ĠÙħØ¶": 3033,
      "ĠÙĦÛĮ": 3034,
      "à´Ĺà´¤": 3035,
      "æ¯ı": 3036,
      "à´·à´¨": 3037,
      "å¥¹": 3038,
      "Ã¤Ã¤r": 3039,
      "æĢĿ": 3040,
      "ä»·": 3041,
      "æ¶Ī": 3042,
      "ĠÙħÙĬÚĬÙĬØ§": 3043,
      "ĠÚıÙĪ": 3044,
      "ĠØ¢Ø³": 3045,
      "Ø·ÙĬÙģ": 3046,
      "ä¸ĸçķĮ": 3047,
      "de": 3048,
      "ĠØ¢Ú¾ÙĨ": 3049,
      "uma": 3050,
      "Ġc": 3051,
      "à´°à´Ļ": 3052,
      "ä¾Ľ": 3053,
      "å¸ĥ": 3054,
      "Ġà´¨à´Łà´¤": 3055,
      "ĠÚ©ÛĮØªÛĴ": 3056,
      "ĠÙĬØ¹ÙĨÙĬ": 3057,
      "ĠTe": 3058,
      "Ø¶ÙĪ": 3059,
      "ĠKui": 3060,
      "ĠÙħÙĦØ§ÙĤØ§Øª": 3061,
      "Ù¾ØªØ§ÙĦ": 3062,
      "ĠØ§ÙĪØ³": 3063,
      "ĠØ§Ú»": 3064,
      "ĠjÃ¤Ã¤": 3065,
      "è¿ĳ": 3066,
      "ag": 3067,
      "åĪ«": 3068,
      "ĠÙĦÚ©ÙĬ": 3069,
      "Ġsam": 3070,
      "æ¨¡": 3071,
      "ĠÙĪØ§Ø³": 3072,
      "ĠØ´Ø§ÙĬØ¯": 3073,
      "ĠÙ»ÙĨÙĩÙĬ": 3074,
      "ÙºØ§": 3075,
      "ĠÚĨØ§ÙĨ": 3076,
      "Ġà´ħà´Ł": 3077,
      "äºĳ": 3078,
      "ĠØ§ØŃÙħØ¯": 3079,
      "ÚĬØ±": 3080,
      "Ø§Ø±ÙĬØ¡": 3081,
      "æ¯į": 3082,
      "ĠÚ©ÙĦ": 3083,
      "ĠØ±ÙĪÙħ": 3084,
      "ĠÙ¾ÙĨÚ¾ÙĨØ¬ÙĬ": 3085,
      "à´²à´¤": 3086,
      "æľīéĻ": 3087,
      "è°ģ": 3088,
      "ĠØªØ¹ÙĦÙĤ": 3089,
      "å£«": 3090,
      "Ġots": 3091,
      "Ġå¤©å¤©ä¸Ńå½©ç¥¨æĺ¯": 3092,
      "ĠØ§ÛĮÚº": 3093,
      "Ø±ÙħÙĬÙĨ": 3094,
      "ÙĩÚª": 3095,
      "äººä½ĵ": 3096,
      "Ġ,": 3097,
      "Ġà´ªà´±à´¯": 3098,
      "æľįåĬ¡": 3099,
      "ĠÚ©Ø§": 3100,
      "Ġjuh": 3101,
      "Ø§Ø¸": 3102,
      "é¡¹": 3103,
      "ĠÙħÙĪÚªÙĦ": 3104,
      "ĠÂ·": 3105,
      "ĠØªÙĨÙĩÙĨØ¬ÙĬ": 3106,
      "ĠÙħØº": 3107,
      "Ġlah": 3108,
      "æľīéĻĲ": 3109,
      "èªª": 3110,
      "åħ±": 3111,
      "ĠÙħÙĤØ±Ø±": 3112,
      "Ġå¤§": 3113,
      "à´¨à´®": 3114,
      "ĠØŃØ³ÙĬÙĨ": 3115,
      "è®ºåĿĽ": 3116,
      "ve": 3117,
      "åĥ": 3118,
      "ØªØŃ": 3119,
      "ĠâĢĻâĢĻ": 3120,
      "ĠØ±Ø§": 3121,
      "Ø¨Ùĩ": 3122,
      "Ú¯Ø§Ø±": 3123,
      "èīºæľ¯": 3124,
      "199": 3125,
      "å®īè£ħ": 3126,
      "æ°Ķ": 3127,
      "åģļçĪ±": 3128,
      "ĠÙĨÙĪØ¬ÙĪØ§ÙĨ": 3129,
      "Ø¨ØŃ": 3130,
      "è§Ĥçľĭ": 3131,
      "Ù½ÙĬØ¡": 3132,
      "uks": 3133,
      "Ø³ÙĨÚĮ": 3134,
      "åħĭ": 3135,
      "ni": 3136,
      "Ġlis": 3137,
      "ĠØªØµ": 3138,
      "ä¸įæĺ¯": 3139,
      "Ú¾ÛĴ": 3140,
      "ĠØªÙĬØ§Ø±": 3141,
      "ĠØ¬Ø³": 3142,
      "ÙĬØŃ": 3143,
      "ĠØ®ÙĪØ¨": 3144,
      "Û±": 3145,
      "40": 3146,
      "ćć": 3147,
      "ĠpÃ¤ev": 3148,
      "ĠÙĪÙĬÙĪÙĨ": 3149,
      "ĠØ§Ø«Ø±": 3150,
      "èįĲ": 3151,
      "å¾·": 3152,
      "Ã¼Ã¼d": 3153,
      "ĠÙĩÙĨØ¯": 3154,
      "Ġis": 3155,
      "ĠØ§ØµÙĦ": 3156,
      "ĠØµÙģ": 3157,
      "å¦Ī": 3158,
      "Ø¬ÛĮ": 3159,
      "ÙĨÙĪ": 3160,
      "Ġ...": 3161,
      "ĠÚ¯Ø±ÙģØªØ§Ø±": 3162,
      "åĢĭ": 3163,
      "Ġsoov": 3164,
      "éĿŀ": 3165,
      "ĠØ§Ø¸": 3166,
      "Ġg": 3167,
      "ÚĻÙĬØ¡": 3168,
      "rit": 3169,
      "å¤ĩ": 3170,
      "Ġkog": 3171,
      "Ġed": 3172,
      "ĠØªÛģ": 3173,
      "Ø§Ø¯Ø±": 3174,
      "ĠÛ¾ØĮ": 3175,
      "iig": 3176,
      "ĠÚ©ÙĪØ¦ÛĮ": 3177,
      "Ø§Ø¦ÙĬÙĨØ¯ÙĪ": 3178,
      "ĠÙħØ´ÙĩÙĪØ±": 3179,
      "Ú¾Ø§ÙĨ": 3180,
      "æ²»": 3181,
      "ÙĬØ³Úª": 3182,
      "ĠØ§Ø³Ù¾ØªØ§ÙĦ": 3183,
      "mas": 3184,
      "Ú»Ú»": 3185,
      "æĬ¤": 3186,
      "ĠØ·Ø§ÙĤ": 3187,
      "ĠØ§Ø³Ù½": 3188,
      "éŁ©": 3189,
      "åıĺ": 3190,
      "ĠØŃØ¶Ø±Øª": 3191,
      "ĠØµÙĦØ§ØŃ": 3192,
      "ÙĬØ²": 3193,
      "æ·±": 3194,
      "Ø§Ø³ÙĦØ§Ùħ": 3195,
      "ĠØ¢ÙħØ±ÙĬÚªØ§": 3196,
      "ÙĨÛĮ": 3197,
      "80": 3198,
      "ng": 3199,
      "èħ¾": 3200,
      "Ø³Ø§Ø³": 3201,
      "Ú©ÛĴ": 3202,
      "æİ¨èįĲ": 3203,
      "ÙĤÙĪ": 3204,
      "Ú»ÙĨ": 3205,
      "å¢ŀ": 3206,
      "ĠÙ»ÙĬØ§": 3207,
      "æľª": 3208,
      "ĠÚ¾Ø¦ÙĬ": 3209,
      "è¾¾": 3210,
      "ÚªØª": 3211,
      "Ġmeie": 3212,
      "æ¹": 3213,
      "Ø±ÙĪØ±ÙĬ": 3214,
      "ĠÙħØ®Ø§ÙĦ": 3215,
      "å®¤": 3216,
      "ĠØŃØµÙĪ": 3217,
      "ĠÚ¯Ø¦ÛĮ": 3218,
      "ĠØ±Ú©ÙĬÙĪ": 3219,
      "ĠØ±Ø³Øª": 3220,
      "ĠØ§Ø®ØªÙĬØ§Ø±": 3221,
      "Ġà´īà´ª": 3222,
      "Ø¨Ø§": 3223,
      "Ú¯ÙĪ": 3224,
      "éĿłè°±": 3225,
      "ĠSee": 3226,
      "ĠÙģØ§Ø±": 3227,
      "ilma": 3228,
      "77": 3229,
      "ĠÙºØ§Ùĩ": 3230,
      "Ø¯Ø§Ø¯": 3231,
      "å®¹": 3232,
      "ĠØ²Ø®": 3233,
      "ĠØ§Ú³ÙĬØ§ÙĨ": 3234,
      "à´°à´¯": 3235,
      "Ġå¤©å¤©ä¸Ńå½©ç¥¨ä¸Ń": 3236,
      "ĠÚªÙĬØªØ±ÙĨ": 3237,
      "umise": 3238,
      "ĠØ§Ø¯Ø¨ÙĬ": 3239,
      "ĠÙĦÙĬÚ¯": 3240,
      "vat": 3241,
      "ih": 3242,
      "à´µà´¤": 3243,
      "à´ķà´²": 3244,
      "èµļ": 3245,
      "æķĪ": 3246,
      "ĠØ¬ÙĨØ±ÙĦ": 3247,
      "ĠØ§ÙĨÚ¯Ø±ÙĬØ²": 3248,
      "æ±Ł": 3249,
      "Ġå½©ç¥ŀäºīéľ¸æĢİä¹Ī": 3250,
      "Ø¬ÛĴ": 3251,
      "ĠÙĪÙĬØ¦ÙĬ": 3252,
      "Ġvan": 3253,
      "ç¶²": 3254,
      "ÙĦØ§Úº": 3255,
      "ĠØ´ÙĬØ®": 3256,
      "ĠÙ½ÙĨ": 3257,
      "ĠØªÙĪÚ©ÙĬ": 3258,
      "Ġeel": 3259,
      "ĠÙĨØ¸Ø§Ùħ": 3260,
      "ĠÙĩØ²Ø§Ø±": 3261,
      "ç¢": 3262,
      "ĠÙ¾ÙĪØ±ÙĬ": 3263,
      "çĶµè¯Ŀ": 3264,
      "ĠØ§Ø³ØªØ§Ø¯": 3265,
      "ĠÚĨØ¦ÙĬ": 3266,
      "Ġst": 3267,
      "åŃ©": 3268,
      "à´Łà´°": 3269,
      "ĠÚĨÚ¾": 3270,
      "ä¼ģä¸ļ": 3271,
      "ok": 3272,
      "à´¯à´¯": 3273,
      "eb": 3274,
      "uslik": 3275,
      "ides": 3276,
      "ĠØ§ÙĬÙĨØ¯ÚĻ": 3277,
      "ÚªØ³": 3278,
      "Ġà´İà´¤": 3279,
      "Ġà´µà´¨": 3280,
      "ĠÙħÙģ": 3281,
      "è¢ľ": 3282,
      "Ġaut": 3283,
      "hts": 3284,
      "åĪĻ": 3285,
      "Ú¯Ø±Ø§Ùħ": 3286,
      "op": 3287,
      "é¢Ħæµĭ": 3288,
      "ĠÚĬÙĬØ³Úª": 3289,
      "ÙĬÙĨÚĬ": 3290,
      "ĠÙĩØ¬Ú»": 3291,
      "),": 3292,
      "Ø³Ù½Ø³": 3293,
      "ĠØ±ÙĪØŃ": 3294,
      "ÙĬÙĨØ¯ÙĬÙĪÙĨ": 3295,
      "Ø±ÙĬØ§": 3296,
      "Ġvaja": 3297,
      "é¦ĸ": 3298,
      "ç·": 3299,
      "éĺ³": 3300,
      "à´®à´¯": 3301,
      "åĺ": 3302,
      "ĠØ§Ø¬ÙĦØ§Ø³": 3303,
      "ĠÚªÙĩØ§Ú»": 3304,
      "å¤§å°ı": 3305,
      "ĠØŃØ§ÙĦØª": 3306,
      "åıį": 3307,
      "ÙĦÙĬÙĦ": 3308,
      "Ġend": 3309,
      "Ø§ÙĦØ§": 3310,
      "ĠÙħØ±Ø¯": 3311,
      "æŃ¥": 3312,
      "æĢģ": 3313,
      "ÚıÚ¾ÙĨ": 3314,
      "ĠÙĨØ¦ÛĮÚº": 3315,
      "ÚĻÙĬÙĨ": 3316,
      "è¿½": 3317,
      "Ġkoos": 3318,
      "åºĨ": 3319,
      "ĠØŃÚ©": 3320,
      "Ø¯Ø§Ø±ÙĨ": 3321,
      "ĠØ³Ø§ÙħÙĩÙĪÙĨ": 3322,
      "åĬŁ": 3323,
      "ØªÙĬØ¡": 3324,
      "ĠØ¹ÙĦØ§Ø¦ÙĤÙĬ": 3325,
      "ĠÚªØ±Ø§Ø¦ÙĬ": 3326,
      "ĠÙĪØºÙĬØ±": 3327,
      "ÚĨØ±": 3328,
      "à´¿à´Ĥ": 3329,
      "uti": 3330,
      "100": 3331,
      "à´ķà´¤": 3332,
      "ĠØ§Ú©ÙĬÙĨ": 3333,
      "usk": 3334,
      "ĠØ±ÙĪÙ¾": 3335,
      "ÙĮ": 3336,
      "åĲĪæ³ķåĲĹ": 3337,
      "Ú©Ûģ": 3338,
      "ĠØ²ÙĪØ±": 3339,
      "ĠÃľ": 3340,
      "ĠØ°ÙĩÙĨ": 3341,
      "ĠÚªØ§ÙģÙĬ": 3342,
      "ĠØ³Ø¬": 3343,
      "å¼ł": 3344,
      "æľīéĻĲåħ¬åı¸": 3345,
      "Ġkuul": 3346,
      "Ú©ÙĪ": 3347,
      "ĠØ¨Ø®Ø´": 3348,
      "Ġees": 3349,
      "ĠØ±Ù¾": 3350,
      "ste": 3351,
      "ld": 3352,
      "å¤§åħ¨": 3353,
      "ĠØ¯Ø¹ÙĪ": 3354,
      "ĠØ·Ø¨": 3355,
      "èĹ": 3356,
      "ĠØ§ØŃØ³Ø§Ø³": 3357,
      "ĠØ¬ÙĬØ§ÙĨ": 3358,
      "ĠØ§Ø®Øª": 3359,
      "ĠÙģÙĤÙĬØ±": 3360,
      "ØµÙģ": 3361,
      "sem": 3362,
      "Ġà´°à´£": 3363,
      "èĤ¡": 3364,
      "ep": 3365,
      "ĠØ·Ø±ÙĬ": 3366,
      "Ù¾ÙĦØ²": 3367,
      "ĠÙ¾ÚĻÙĩÙĬ": 3368,
      "Ġpa": 3369,
      "ĠØ±Ú©Ú¾": 3370,
      "Ġmitte": 3371,
      "ÚĨÙĪ": 3372,
      "ĠæĪĳ": 3373,
      "ØµØ¯": 3374,
      "ÙĪÛĴ": 3375,
      "æĹ¶éĹ´": 3376,
      "æŀĹ": 3377,
      "ĠtÃ¶Ã¶t": 3378,
      "ĠÙĩÙħÙĬ": 3379,
      "888": 3380,
      "ĠØ¨Ø§ÙĪ": 3381,
      "æ¡Ī": 3382,
      "é¸": 3383,
      "ĠÚıØ³Ú»": 3384,
      "æĮĩ": 3385,
      "ĠÙ¾ÙĨÙĩÙĨØ¬ÙĨ": 3386,
      "éªĮ": 3387,
      "ĠØ§Ø³Ù½ÙĬ": 3388,
      "ĠÚ¯Ø±": 3389,
      "ĠØ§Ø³ÙĬÙħ": 3390,
      "éĵ¶": 3391,
      "Ġtuleb": 3392,
      "ĠvÃ¤h": 3393,
      "Ġvaid": 3394,
      "ĠÙ¾Ø§ÙĦ": 3395,
      "ĠØ¢Ø®Ø±": 3396,
      "ĠØ·Ø§ÙĤØª": 3397,
      "ĠÙ¾ÙĦ": 3398,
      "ĠØ§ÙĦÙĬÚª": 3399,
      "ÙħÛĮ": 3400,
      "ä¹³": 3401,
      "ĠÙ¾ÙĩØ±ÙĬÙĪÙĨ": 3402,
      "ĠÙħÙĦØ§Ø¦ÙĬ": 3403,
      "è£¸": 3404,
      "Ø§Ø¨Øª": 3405,
      "Ø³ÛĴ": 3406,
      "Ø§Ø±ÙĬÙĪ": 3407,
      "ÙĬØ§Ø±ÙĬ": 3408,
      "ĠÙħØ³Øª": 3409,
      "ĠÙĦÚ©ÙĬÙĪ": 3410,
      "æīĭæľºçīĪ": 3411,
      "ĠÙħØ¹Ø§Ø´": 3412,
      "ĠØ¸Ø§ÙĩØ±": 3413,
      "ÙĩÙĨØ¯": 3414,
      "ç¨³": 3415,
      "å¿ħ": 3416,
      "ĠÙĩØ§Ø¡": 3417,
      "èµ°åĬ¿åĽ¾": 3418,
      "çİ¯": 3419,
      "ĠÙĩÙĨÚĮ": 3420,
      "eda": 3421,
      "ilise": 3422,
      "ĠØ³ÙĪØ§Ø¡": 3423,
      "Ġliik": 3424,
      "ĠÙħØ·Ø§ÙĦ": 3425,
      "Ġtul": 3426,
      "ĠÙħØ±Úª": 3427,
      "ĠØ³Ùģ": 3428,
      "ĠØ¬Ø±Ùħ": 3429,
      "Ġkod": 3430,
      "ĠÚ³Ø§ÙĦÙĩÙĬÙĪÙĨ": 3431,
      "çĬ": 3432,
      "ØµØ±": 3433,
      "à´ķà´¨": 3434,
      "ĠÙĪØºÙĬØ±Ùĩ": 3435,
      "ini": 3436,
      "ĠØŃØµ": 3437,
      "eri": 3438,
      "ĠÚĨÚªÙĪ": 3439,
      "ĠØ¨ÙĩØªØ±": 3440,
      "ann": 3441,
      "ĠØ³ÙĪØ±": 3442,
      "eid": 3443,
      "ãĢĮ": 3444,
      "æĢİæł·": 3445,
      "ĠÚĨÚ±": 3446,
      "ĠÙĦÚĳ": 3447,
      "ĠÙģØ±Ùħ": 3448,
      "æİ§": 3449,
      "çª": 3450,
      "àµįâĢį.": 3451,
      "ä¾Ĩ": 3452,
      "ãĢį": 3453,
      "ĠÙĩÙĪØ¡": 3454,
      "ĠØ³Úĥ": 3455,
      "ĠØ´Ø§Ùĩ": 3456,
      "ĠØ±ÙĪÚĬ": 3457,
      "Ø§Ø¹Øª": 3458,
      "ĠØ¨ÙĨÙĬØ§Ø¯": 3459,
      "mine": 3460,
      "ĠØ§Ø¹ÙĦØ§ÙĨ": 3461,
      "ses": 3462,
      "è³": 3463,
      "Ġtas": 3464,
      "å®¢æľį": 3465,
      "ĠÙ¾ÙĩÚĨÙĬ": 3466,
      "ĠÚªÙĬØ±": 3467,
      "ĠÚªÙĬØ§Ø¦ÙĬÙĨ": 3468,
      "ikult": 3469,
      "ani": 3470,
      "Ġæ¬": 3471,
      "çĶ»": 3472,
      "Ø³Ø§": 3473,
      "éĺŁ": 3474,
      "ĠÙĦÚ³Ø§": 3475,
      "å¡": 3476,
      "Ġpalju": 3477,
      "23": 3478,
      "ĠØ¬Ø³Ù½Ø³": 3479,
      "ĠØ§ÙĬÚª": 3480,
      "å¨±ä¹ĲåŁİ": 3481,
      "å§Ķ": 3482,
      "ĠÙĩÙĬØ§": 3483,
      "Ġà´ħà´µà´°": 3484,
      "å½¢": 3485,
      "Ø¢ÙĨ": 3486,
      "à´±à´¤": 3487,
      "ĠØªØ±Ø¬": 3488,
      "é¥": 3489,
      "Ġnagu": 3490,
      "ĠØ¬Ø¯ÙĪÚº": 3491,
      "ä¸įäºĨ": 3492,
      "åĮ»": 3493,
      "ĠØ´ÙĩÙĬ": 3494,
      "è¶³çĲĥ": 3495,
      "Ø§ÙĩÙĪØ±": 3496,
      "ĠÙĤØ¯Ø±": 3497,
      "ĠÙĦÚ©Ú»": 3498,
      "ÚĬÙĬÙĪ": 3499,
      "ĠÙ¾Ùº": 3500,
      "ĠÛģÙĪØ¦ÛĴ": 3501,
      "ç¥¨": 3502,
      "àµ¼à´ķ": 3503,
      "åĳ¨": 3504,
      "ĠØ±Ú©Ú»": 3505,
      "ÙĬÙĦÙĨ": 3506,
      "ĠÙĬÙĪ": 3507,
      "Ø§Ø¶ÙĬ": 3508,
      "ä¿®": 3509,
      "Ġajal": 3510,
      "tr": 3511,
      "ĠÛģÙĪÛĮØ§": 3512,
      "Ġpuh": 3513,
      "Ġtah": 3514,
      "ĠØ³ÙħØ§Ø¬": 3515,
      "ĠØªÛĮ": 3516,
      "åĽŃ": 3517,
      "ĠØ§ÙħÙĨ": 3518,
      "èµĮ": 3519,
      "ĠØ±ØŃ": 3520,
      "Ø§Ø¨ÙĦ": 3521,
      "ĠØ§Ù¾ÙĨÛĮ": 3522,
      "tu": 3523,
      "ĠÙĬÙĤ": 3524,
      "ĠtÃ¤h": 3525,
      "Ġmuut": 3526,
      "Ġnende": 3527,
      "Ġaja": 3528,
      "è´¦": 3529,
      "ØºØ§ÙĨ": 3530,
      "Ġå¤§åıĳå¿«ä¸īæĺ¯": 3531,
      "èħ¾è®¯": 3532,
      "ï·": 3533,
      "ĠØ§ÙĩÚĻØ§": 3534,
      "Ġiga": 3535,
      "æĺ¯çľŁçļĦåĲĹ": 3536,
      "ĠØŃØ¯": 3537,
      "ä»£çĲĨ": 3538,
      "Ġerine": 3539,
      "Ø¨ÙĦÙĬ": 3540,
      "åľ°åĿĢ": 3541,
      "ĠÙ¾Ø±ÙĪÚ¯Ø±Ø§Ùħ": 3542,
      "ĠÙĪÙºÚ»": 3543,
      "ä¸Ŀè¢ľ": 3544,
      "Ø¯Ú¾": 3545,
      "ĠØ¨Ø§ÙĦ": 3546,
      "Ġjoo": 3547,
      "ĠÙħÚĥ": 3548,
      "ĠÚªØ§ÙĦ": 3549,
      "Ø§Ø¦ÛĴ": 3550,
      "ĠÙ¾ÙĬØ§Ø±": 3551,
      "ÙºÙĦ": 3552,
      "å°±æĺ¯": 3553,
      "è½¬": 3554,
      "ĠÙģÙĨ": 3555,
      "lus": 3556,
      "ĠÙħØ«Ø§ÙĦ": 3557,
      "ĠÙ»ÚĮÙĬ": 3558,
      "å¥¸": 3559,
      "ĠØªÙģ": 3560,
      "éĻ¤": 3561,
      "ĠØ³Ú¯Ú¾": 3562,
      "ant": 3563,
      "Ø§ÙħÙĨ": 3564,
      "vÃµ": 3565,
      "ates": 3566,
      "ÙĨÛĴ": 3567,
      "à´²à´ª": 3568,
      "ç©¶": 3569,
      "21": 3570,
      "ĠÚĨØ§ÙĩÙĬ": 3571,
      "ĠÚªÙ¾": 3572,
      "Ġqq": 3573,
      "åĳĬ": 3574,
      "à´¾âĢĭ": 3575,
      "Ø§ÙħÙĪ": 3576,
      "ĠØ¯ØªØ§": 3577,
      "à´®à´¤": 3578,
      "ch": 3579,
      "ĠÙ¾Ø§Ú©": 3580,
      "ĠÙĩÙħÙĬØ´Ùĩ": 3581,
      "¾³éĹ¨": 3582,
      "amist": 3583,
      "ÙħÙĬØ±": 3584,
      "Ġkokk": 3585,
      "ĠØ®ÙĬØ±": 3586,
      "Ø§Ø¯Øª": 3587,
      "ĠØŃÙĬØ¯Ø±Ø¢Ø¨Ø§Ø¯": 3588,
      "ĠØ®Ø¯ÙħØª": 3589,
      "Ø´Ø§": 3590,
      "ä¸Ńå¿ĥ": 3591,
      "Ġenam": 3592,
      "à´ķà´®": 3593,
      "à´ĩ": 3594,
      "ä¹Ŀ": 3595,
      "ÙħØ§": 3596,
      "ĠÚ¾Ø¦Ø§": 3597,
      "ĠÙħØ¹ÙĦÙĪÙħ": 3598,
      "Ġà´İà´²": 3599,
      "ber": 3600,
      "èĬĤ": 3601,
      "ĠÚĢÙ½ÙĪ": 3602,
      "ĠÚıÙĬÚ©": 3603,
      "28": 3604,
      "Ø¹Øª": 3605,
      "ĠØ¢Ø®Ø±ÙĬ": 3606,
      "åħĳ": 3607,
      "ĠÚªÙĩÚĻÙĬ": 3608,
      "ĠÙĨÙģ": 3609,
      "ĠÙ¾ÙĪÙĨØ¯ÙĪ": 3610,
      "Ø²ÙĦ": 3611,
      "å¼Ģå¥ĸç»ĵæŀľ": 3612,
      "usest": 3613,
      "éĽ»": 3614,
      "æĮĤ": 3615,
      "ĠØ³Ø±Ø¯": 3616,
      "Ġà´ħà´ª": 3617,
      "Ø§Ø¦Ø±": 3618,
      "isk": 3619,
      "Ø³Ù½ÙĬ": 3620,
      "Ġjuht": 3621,
      "ĠØ±Ø´": 3622,
      "Ġtal": 3623,
      "ĠØ«Ø§Ø¨Øª": 3624,
      "ĠÙĦØ§ÚĻ": 3625,
      "å°Ħ": 3626,
      "ĠØ³ÙħØ§Ø¬ÙĬ": 3627,
      "Ø·ÙĨØª": 3628,
      "ĠØ§ÙĬÙĨØ¯ÙĪ": 3629,
      "ĠÙħØ·ÙĦØ¨": 3630,
      "ĠØ³Øª": 3631,
      "Ġmaa": 3632,
      "Ø±ÙĬØª": 3633,
      "iti": 3634,
      "ĠØ´ÚªØ§Ø±": 3635,
      "ĠÙĨÚªØ±ÙĬ": 3636,
      "è¶Ĭ": 3637,
      "ĠØºÙĦØ·": 3638,
      "27": 3639,
      "ĠØ¹Ø²": 3640,
      "æıĴ": 3641,
      "ĠÙħÙĪÙĤØ¹ÙĬ": 3642,
      "å°Ķ": 3643,
      "ÚªØ§ÙĨ": 3644,
      "ĠÙĪÛĮÙĦÛĴ": 3645,
      "åºĹ": 3646,
      "ä¸ĬçļĦ": 3647,
      "à´Łà´¯": 3648,
      "èĭ±": 3649,
      "ĠØ§Ø¸ÙĩØ§Ø±": 3650,
      "åı·çłģ": 3651,
      "çĤº": 3652,
      "Ġkaas": 3653,
      "ĠÙĤØ¯": 3654,
      "Ġom": 3655,
      "çĻ»å½ķ": 3656,
      "Ø¶ÙĬ": 3657,
      "ĠØµØŃÙĬØŃ": 3658,
      "Ġà´ķà´°": 3659,
      "åı²": 3660,
      "à´Ĥ,": 3661,
      "ĠÙĦØ·ÙĬÙģ": 3662,
      "of": 3663,
      "ĠØ¬Ø°": 3664,
      "akt": 3665,
      "éĺ¿": 3666,
      "amm": 3667,
      "éĶĢ": 3668,
      "Ġroh": 3669,
      "ema": 3670,
      "à´ªà´¨": 3671,
      "Ġå¤©å¤©ä¸Ńå½©ç¥¨æıĲçİ°": 3672,
      "Ø«ÙĬØª": 3673,
      "ess": 3674,
      "ĠÃµig": 3675,
      "ĠØ§ÙĨØ³Ø§ÙĨÙĬ": 3676,
      "ĠÃ¤ra": 3677,
      "uu": 3678,
      "ç®¡çĲĨ": 3679,
      "ĠØ¨ÙĬÙĨ": 3680,
      "ĠØ§ÙĬØªØ±ÙĪ": 3681,
      "ä¿¡æģ¯": 3682,
      "ĠÚªÚįÙĬ": 3683,
      "æī¾": 3684,
      "ĠÙ¾ÙĪÙĬ": 3685,
      "ĠÙħÙĤØµØ¯": 3686,
      "ĠÚ¯ÙĩÚ»ÙĬ": 3687,
      "èĲ¥": 3688,
      "las": 3689,
      "ĠØ³ÙĦØ·ÙĨØª": 3690,
      "ĠØ¨Ø§ÙĪØ¬ÙĪØ¯": 3691,
      "éŃ": 3692,
      "çīĽ": 3693,
      "ĠÚªØ§Ùħ": 3694,
      "Ġnim": 3695,
      "ĠØ¬Ûģ": 3696,
      "Ø±ÙħÙĬ": 3697,
      "ĠÚ©Ø±Ø¯ÛĴ": 3698,
      "æĬĢæľ¯": 3699,
      "ç³»ç»Ł": 3700,
      "à´µà´¶": 3701,
      "çĨŁ": 3702,
      "ĠØ§ÙĪÛģÙĨØ§Úº": 3703,
      "åĶ®": 3704,
      "ĠØ³ÙĦØ§Ùħ": 3705,
      "æĿĳ": 3706,
      "net": 3707,
      "å¼Ĭ": 3708,
      "Ø§Ø«Ø±": 3709,
      "ç¾İåĽ½": 3710,
      "ÙģÙĪ": 3711,
      "ä¸ĥ": 3712,
      "ĠØ³Úª": 3713,
      "Ġjuur": 3714,
      "Ø³Ù¹": 3715,
      "Ġå¾®ä¿¡å¤©å¤©ä¸Ńå½©ç¥¨": 3716,
      "Ġà´ħà´¦": 3717,
      "éł»": 3718,
      "ĠØ³Ø±Ø¨Ø±": 3719,
      "Ø·ÙĪ": 3720,
      "ÙĪØ§": 3721,
      "à´¿,": 3722,
      "ĠÙĨÙĪÚªØ±ÙĬ": 3723,
      "å¤«": 3724,
      "è¯ķ": 3725,
      "Ġain": 3726,
      "æ½": 3727,
      "Ġtema": 3728,
      "âĢĶ": 3729,
      "ĠÙħÙĦÚ»": 3730,
      "ost": 3731,
      "æĭĽ": 3732,
      "åĨį": 3733,
      "Ġoleks": 3734,
      "ĠÚªØ±ÙĬÙĪ": 3735,
      "åħļ": 3736,
      "æŀģ": 3737,
      "Ġsell": 3738,
      "uvad": 3739,
      "Ġuu": 3740,
      "ÚªØ±Ø§ÚĨÙĬ": 3741,
      "ĠÚ¯Ø±ÙĪ": 3742,
      "ĠÛģÙĪØ±": 3743,
      "Ġà´¨à´®": 3744,
      "éħį": 3745,
      "Ú¯Ø§": 3746,
      "ĠØ¯Ø±Ø®ÙĪ": 3747,
      "Ú³ÙĬ": 3748,
      "ĠØ¯ÙĬØ±": 3749,
      "åľĸ": 3750,
      "Ġç½ĳ": 3751,
      "èįī": 3752,
      "ĠÙĦÛĮØ§": 3753,
      "ç¬¬ä¸Ģ": 3754,
      "è¿Ķ": 3755,
      "Ġà´ħà´®": 3756,
      "è¿Ľè¡Į": 3757,
      "Ø´ÙĦ": 3758,
      "æ©": 3759,
      "orm": 3760,
      "ÙĪÛĮÚº": 3761,
      "ĠØ¬ÙĩÚĻÙĬ": 3762,
      "ĠÙĦÚ©Ú¾": 3763,
      "ÙĨØª": 3764,
      "ĠÙºØ§ÙĩÙĬ": 3765,
      "ĠØŃÙĬØ«ÙĬØª": 3766,
      "mp": 3767,
      "lust": 3768,
      "ĠØ§ÙĨØ¬": 3769,
      "æľĥ": 3770,
      "Ú»Ø§": 3771,
      "å½©ç¥¨å¹³åı°": 3772,
      "ĠÚĬÚ¯": 3773,
      "ĠØ§ÙĦØ²": 3774,
      "çĽ´æĴŃ": 3775,
      "rd": 3776,
      "à´¯à´±": 3777,
      "ĠÙĪÚıØ§": 3778,
      "ĠmÃ¤r": 3779,
      "ĠÙĪØ§ÙĤØ¹ÙĬ": 3780,
      "ĠØ³ÙħÙĨÚĬ": 3781,
      "Ûĵ": 3782,
      "åįĩ": 3783,
      "çĶŁæ´»": 3784,
      "33": 3785,
      "ĠÙ¾ÙĨÙĩÙĨØ¬Ø§": 3786,
      "Ø§Ú»ÙĨ": 3787,
      "Ø§ÙĦÙĪ": 3788,
      "aa": 3789,
      "ĠÙĨØªÙĬØ¬ÙĬ": 3790,
      "ĠÙħÛģ": 3791,
      "ĠhÃ¤": 3792,
      "Ú©Ú¾ÛĮØ§": 3793,
      "ÙĪØ±ÚĬ": 3794,
      "æĶ¯": 3795,
      "ĠÙĪÙĨ": 3796,
      "è¿Ļä¸ª": 3797,
      "ĠØ³Ø§Ø¦ÙĬ": 3798,
      "Ġà´¸à´°": 3799,
      "ĠØ²Ø±Ø¯": 3800,
      "ÛĮØ¯": 3801,
      "Ġteen": 3802,
      "ard": 3803,
      "Ġà´ķà´®": 3804,
      "iik": 3805,
      "æł¹": 3806,
      "Ù¾Ø§Ø±": 3807,
      "ĠÙĪÙĬØ¬ÙĩÙĪ": 3808,
      "Ġsest": 3809,
      "Ġà´ħà´²": 3810,
      "åĢĻ": 3811,
      "Ù½Ø±ÙĨ": 3812,
      "ĠÙ¾ÙĬÙ¾ÙĦØ²": 3813,
      "Ù½Ø±ÙĪ": 3814,
      "Ø±Ø§Úº": 3815,
      "ç»´": 3816,
      "Ġà´ıà´±": 3817,
      "ĠØ°ÚªØ±": 3818,
      "Ġ/": 3819,
      "ĠÚıÙĬÙĨØ¯ÙĬ": 3820,
      "ĠØ´ÙĬØ¡": 3821,
      "ĠØ§ÙģØºØ§ÙĨ": 3822,
      "éĽ·": 3823,
      "å¤§åŃ¦": 3824,
      "ĠÙĪÚĮÙĬ": 3825,
      "åģ·æĭį": 3826,
      "ĠØ´Ø§Ø¹Ø±ÙĬ": 3827,
      "ĠÙħØ§Ø¡": 3828,
      "ĠØ¬Ø§Ø¡": 3829,
      "ä¸īé": 3830,
      "ond": 3831,
      "àµģà´Ĥ,": 3832,
      "Ġà´Ĵà´¨": 3833,
      "ĠØµÙĪØ±ØªØŃØ§ÙĦ": 3834,
      "ingu": 3835,
      "Ġpid": 3836,
      "à´ªà´°": 3837,
      "ĠØ§ÚĮ": 3838,
      "aval": 3839,
      "ĠÚĨÙĬØ¦": 3840,
      "ĠØ¨Ø¯Ø±Ø§ÙĨ": 3841,
      "ÙħØ§Ø±": 3842,
      "çĶ·äºº": 3843,
      "å§ĭ": 3844,
      "Ġkohta": 3845,
      "Ġaastal": 3846,
      "ĠØ¢Ú¯": 3847,
      "ĠÙĤØ±Ø§Ø±": 3848,
      "ĠØ§Ú³ÙĪÚ»ÙĬ": 3849,
      "ĠØ§ÙĤ": 3850,
      "ÙĨÙĪÚº": 3851,
      "26": 3852,
      "Ø´ÙĨÙĦ": 3853,
      "ĠØŃÙĦ": 3854,
      "è¾ħ": 3855,
      "ĠØ³Ù¾": 3856,
      "æ¦": 3857,
      "ÙĤÙĦØ§Ø¨": 3858,
      "åĤ": 3859,
      "ĠÙĦÙĪÚ©Ø§Úº": 3860,
      "ÙĬØªÙĨ": 3861,
      "Ø³ÙĬÙĨ": 3862,
      "åħ«": 3863,
      "ĠØ±ÛĮ": 3864,
      "ç±³": 3865,
      "èĪª": 3866,
      "à´¨à´¯": 3867,
      "å·´": 3868,
      "ĠÙĨÙħØ¨Ø±": 3869,
      "kem": 3870,
      "Ø§Ø¦Ø´": 3871,
      "ĠÙĦÚ©ÙĬÙĦ": 3872,
      "ĠÚ¯Ø°Ø±ÙĬÙĦ": 3873,
      "ĠÚ³ÙĪÙĦ": 3874,
      "åª": 3875,
      "ĠæĹ¥æľ¬": 3876,
      "Ú¯Ø±Ø¯ÙĬ": 3877,
      "èĩªæĭį": 3878,
      "æĸ½": 3879,
      "æĿĥ": 3880,
      "Ġmul": 3881,
      "ä¹±ä¼¦": 3882,
      "Ġkind": 3883,
      "ĠÙħØ±ØŃ": 3884,
      "Ġtead": 3885,
      "ĠÙ¿ÙĬÙĨØ¯Ø§": 3886,
      "ĠØ¶Ø±ÙĪØ±ÙĬ": 3887,
      "aste": 3888,
      "ç¿": 3889,
      "æķħ": 3890,
      "ĠØªØ§Úº": 3891,
      "æ²³": 3892,
      "Ø§Ø¦ÙĦ": 3893,
      "Ġolla": 3894,
      "ĠÙĩØ¬ÙĨ": 3895,
      "çģ«": 3896,
      "ä½ľå¼Ĭ": 3897,
      "åıĪ": 3898,
      "ÚĨÙĬØ¡": 3899,
      "ĠÙĤÙĬ": 3900,
      "ĠÙħÙĩØ±": 3901,
      "Ġtr": 3902,
      "Ø§ÚªØ§Ú»": 3903,
      "ç«¯": 3904,
      "ç»Ń": 3905,
      "ĠØªØ®": 3906,
      "Ø§Ø³Ø§ÙĨ": 3907,
      "å¼ķ": 3908,
      "ØªØ±ÙĬÙĨ": 3909,
      "asid": 3910,
      "ÙĬØ±Ø§ÙĨ": 3911,
      "umi": 3912,
      "å¤į": 3913,
      "åĨĽ": 3914,
      "à´²à´ķ": 3915,
      "Ø²ÙĨ": 3916,
      "ĠØ¬ÙĩÚĻÙĪ": 3917,
      "Ġteha": 3918,
      "Ġà´ªà´¤": 3919,
      "èµĽè½¦": 3920,
      "à´ł": 3921,
      "ĠØ®Ø±Ø§Ø¨": 3922,
      "ä½¿çĶ¨": 3923,
      "ĠW": 3924,
      "æĻĤ": 3925,
      "500": 3926,
      "Ġç¥ŀ": 3927,
      "Ú©Ø§": 3928,
      "æŀĦ": 3929,
      "Ġpan": 3930,
      "ĠØ´ÙĩÙĬØ¯": 3931,
      "una": 3932,
      "ĠØ³ÙħØ¬Ú¾": 3933,
      "ĠÙĪØ¬ÙĪØ¯": 3934,
      "ĠØ§ÙĨÙĤÙĦØ§Ø¨": 3935,
      "ĠØ§ØŃØªØ¬Ø§Ø¬": 3936,
      "ĠØ¯Ø±Ø®ÙĪØ§Ø³Øª": 3937,
      "nev": 3938,
      "ĠÙħÙĪÙĦØ§ÙĨØ§": 3939,
      "ĠÚıÙĬØ¦ÙĬ": 3940,
      "æĺ¥": 3941,
      "ĠØ¬ÙĬØª": 3942,
      "èµĦæĸĻ": 3943,
      "197": 3944,
      "Ġà´¸à´¹": 3945,
      "ĠØ¬ÙĨÙħ": 3946,
      "ĠÚ¯Ø¦ÛĴ": 3947,
      "åı¤": 3948,
      "usele": 3949,
      "è¦ĸéł»": 3950,
      "ĠØ±ÙĩÙĨØ¯ÙĪ": 3951,
      "ÙĪØ§Úº": 3952,
      "Ø¨ÛĮ": 3953,
      "åĨľ": 3954,
      "æĭī": 3955,
      "è¯Ń": 3956,
      "Ġtur": 3957,
      "ĠÙ»Ø§Ø±ÙĨ": 3958,
      "ĠØ³Ø±ÚªØ§Ø±ÙĬ": 3959,
      "ĠÚıØ§ÚįÙĪ": 3960,
      "Ġkiir": 3961,
      "åŃĺ": 3962,
      "ĠÙĨÙĬÙĪØ²": 3963,
      "ĠÚĨÙĬØ¦Ø±ÙħÙĬÙĨ": 3964,
      "âĢĺâĢĺ": 3965,
      "ĠÙĪÚ»": 3966,
      "ĠÙĦÙĬÚ©": 3967,
      "Ġlap": 3968,
      "44": 3969,
      "Ø¯ÙĬØ¯": 3970,
      "åģľ": 3971,
      "ĠettevÃµt": 3972,
      "æ¸¸æĪıå®ĺç½ĳ": 3973,
      "çłĶç©¶": 3974,
      "hn": 3975,
      "ĠÚªØ§Ø±Ø±ÙĪ": 3976,
      "åİĭ": 3977,
      "ÙħØ¨Ø±": 3978,
      "ä»½": 3979,
      "36": 3980,
      "Ø¬Ø¯": 3981,
      "ĠÚªÙħÙĬØ´ÙĨ": 3982,
      "ĠÚĩØ§ÚªØ§Ú»": 3983,
      "çĹħ": 3984,
      "Ġtund": 3985,
      "ĠØ¯ÙĬÙĪ": 3986,
      "ĠØ¬ÙĨÚ¾ÙĨ": 3987,
      "ĠÙĢ": 3988,
      "éĹ®é¢ĺ": 3989,
      "ĠÙĪÙĬØ³": 3990,
      "åħħåĢ¼": 3991,
      "ĠÚĨÙĬÙĨ": 3992,
      "à´°à´¦": 3993,
      "Ġä¸ŃåĽ½": 3994,
      "è¯»": 3995,
      "è§ģ": 3996,
      "ÙĪÙĬØ¨": 3997,
      "ĠÙĦÙĬÚª": 3998,
      "åıĮèī²": 3999,
      "å¤§åıĳæĹ¶æĹ¶å½©": 4000,
      "ĠØ®Ø±ÚĨ": 4001,
      "ĠØ§ÙĦÙĬÚªØ´ÙĨ": 4002,
      "å¯Ĩ": 4003,
      "ĠÚªÙĩØ§Ú»ÙĬ": 4004,
      "ĠJa": 4005,
      "ÙĨØ¯ÛĮ": 4006,
      "Ġå½©ç¥ŀäºīéľ¸æĺ¯": 4007,
      "Ġkinn": 4008,
      "ĠØ§Ø¯ÙĬ": 4009,
      "å£°": 4010,
      "ĠÙ¾ÚĨ": 4011,
      "ĠÙ½ÙĬÚª": 4012,
      "Ġæľī": 4013,
      "ĠÙħÙĦØ§Ø¦ÙĬØ´ÙĬØ§": 4014,
      "ÙĦÙĬÙģ": 4015,
      "éĻĨ": 4016,
      "à´Ļà´¨": 4017,
      "ĠØ³ÙħØ¬ÙĩÙĬ": 4018,
      "Ø±Úª": 4019,
      "Ġmaks": 4020,
      "éĺ²": 4021,
      "æĴŃæĶ¾": 4022,
      "è¼": 4023,
      "ĠÃ": 4024,
      "imese": 4025,
      "æµİ": 4026,
      "Ġå½©ç¥ŀäºīéľ¸éĤĢè¯·çłģ": 4027,
      "ĠØ®ÙĪØ¨Øµ": 4028,
      "ĠØ±Ø§Ø¨": 4029,
      "è´£": 4030,
      "ikud": 4031,
      "ĠØ°Ùħ": 4032,
      "ikka": 4033,
      "ĠÙ¿ÙĬÙĨØ¯ÚĻ": 4034,
      "Ġalg": 4035,
      "ĠÚªØ§Ø±ÙĪ": 4036,
      "pÃ¤ev": 4037,
      "ĠÙħØ³ÙĦÙħ": 4038,
      "Ĉï¼Į": 4039,
      "ĠÙĤØ±Ø¢ÙĨ": 4040,
      "è¯¥": 4041,
      "Ġå¤§åıĳå½©ç¥¨": 4042,
      "ĠÛģÙĪØ¦ÛĮ": 4043,
      "ÚªØ§Ú»ÙĬ": 4044,
      "ĠÙħÙĦÙĬÙĪ": 4045,
      "Ø¦Ú»": 4046,
      "ĠØªØ¬": 4047,
      "ĠÙĨÙĤØµ": 4048,
      "ĠØ¨ÙĬÙħ": 4049,
      "Ġà´Ĩà´¦": 4050,
      "ĠØ§Ø·": 4051,
      "Ø´ÙĪ": 4052,
      "55": 4053,
      "iteks": 4054,
      "ĠØ¨Ø§": 4055,
      "à´¯à´µ": 4056,
      "èĽ": 4057,
      "iigi": 4058,
      "ll": 4059,
      "àµĨ.": 4060,
      "äº²": 4061,
      "Ù¾Ø±ÙĬÙħ": 4062,
      "âĢĭâĢĭâĢĭ": 4063,
      "çĵ": 4064,
      "ĠÙĩÙ¿ÙĬ": 4065,
      "Ú©ÙĦ": 4066,
      "ĠÙ¿Ø±": 4067,
      "ĠÚĩÙĪÚªØ±ÙĬ": 4068,
      "ĠÚĨÙĬØ§Ø¦ÙĬÙĨ": 4069,
      "ĠØ±ÙĩÚ»": 4070,
      "à´±à´µ": 4071,
      "ÛĮÙħ": 4072,
      "ÙĪØª": 4073,
      "ĠØ¯Ú¾": 4074,
      "æ¼Ķ": 4075,
      "ĠØªØ´": 4076,
      "æ´¾": 4077,
      "ĠÚĨØ¦": 4078,
      "ĠÚĨÙĪÚĮ": 4079,
      "åıĮèī²çĲĥ": 4080,
      "ĠÚĩÙ¾": 4081,
      "ĠÙ¾ÙĬØ¡": 4082,
      "ĠØªØµÙĪ": 4083,
      "æŀĲ": 4084,
      "Ġpk": 4085,
      "è¾ħåĬ©": 4086,
      "æ³¢": 4087,
      "jate": 4088,
      "ta": 4089,
      "ĠØ³Ø§Ø±ÛĴ": 4090,
      "å¼ĢæĪ·": 4091,
      "ĠÙĨÚ¯": 4092,
      "å¸Ĥåľº": 4093,
      "ÙĩØ±ÙĬ": 4094,
      "ĠÚĬØ±": 4095,
      "uroo": 4096,
      "éĺ´": 4097,
      "ĠÙģÛĮØ±": 4098,
      "Û½": 4099,
      "ĠvÃ¤r": 4100,
      "91": 4101,
      "ĠÙĩØ¦Ú»": 4102,
      "ĠÚĨØ§": 4103,
      "tte": 4104,
      "è©": 4105,
      "Ù½Úª": 4106,
      "Ġà´ħà´Ń": 4107,
      "ĠÚªØ¦": 4108,
      "Ġper": 4109,
      "Ù½ÙĬÙĨ": 4110,
      "ĠØ±Ø¨": 4111,
      "ĠØ²Ø§ÙĦ": 4112,
      "ä¾¿": 4113,
      "ĠØ²Ùħ": 4114,
      "sa": 4115,
      "Ø³ØªØ§Ø¦ÙĬÙĨ": 4116,
      "oks": 4117,
      "å°ĳå¦ĩ": 4118,
      "èģĬ": 4119,
      "ĠØ§Ø³ÙĬÙħØ¨ÙĦÙĬ": 4120,
      "ĠØ³Ø±ÚªØ§Ø±": 4121,
      "å½±éĻ¢": 4122,
      "æ¿Ģæĥħ": 4123,
      "ĠÚ¯ÙĪØ±ÙĨ": 4124,
      "å¢ĥ": 4125,
      "ĠØ±ÙĬØª": 4126,
      "mis": 4127,
      "è®°å½ķ": 4128,
      "ĠØ³ÙĬÙĨÙĬ": 4129,
      "Ġà´·": 4130,
      "ä½İ": 4131,
      "ĠÙħÚ©": 4132,
      "ÙģÙĤ": 4133,
      "ĠÙĤØ¨ÙĪÙĦ": 4134,
      "!âĢľ": 4135,
      "ĠÙĬÙĪÙĨÙĬÙĪØ±Ø³Ù½ÙĬ": 4136,
      "å¿Ĺ": 4137,
      "ĠØ±Ù¾ÙĪØ±Ù½": 4138,
      "Ù½Ø³": 4139,
      "Ø§Ø¦ÙĬÙĨØ¯Ø§": 4140,
      "ĠØ¶ÙĦØ¹ÙĬ": 4141,
      "æ²¹": 4142,
      "Ø§Ø±Ú»": 4143,
      "éĩįåºĨ": 4144,
      "ĠÙĦØ§Ø´": 4145,
      "æĿİ": 4146,
      ".....": 4147,
      "åıĤ": 4148,
      "Ġà´µà´²": 4149,
      "ĠÚªÙĦØ§Úª": 4150,
      "Ġå¤§åıĳå¿«": 4151,
      "ĠÙħØ®Ø§ÙĦÙģ": 4152,
      "àµº": 4153,
      "ä½ı": 4154,
      "ro": 4155,
      "Ġpil": 4156,
      "è·Ł": 4157,
      "ĠØ¨ÙĦÚªÙĦ": 4158,
      "ĠÙĪÙģØ§ÙĤÙĬ": 4159,
      "å±ŀ": 4160,
      "ÙĪØ³": 4161,
      "åľ¨åĵªéĩĮ": 4162,
      "ĠØ²Ø±Ø¯Ø§Ø±ÙĬ": 4163,
      "Ġå½©ç¥¨": 4164,
      "esk": 4165,
      "åĵªéĩĮ": 4166,
      "ĠØ¹Ø§ÙĦÙħ": 4167,
      "Ø§Ø¯Ø±ÙĬ": 4168,
      "--": 4169,
      "å®¢æĪ·": 4170,
      "ä¸Ĭæµ·": 4171,
      "Ø§Ú»ÙĬØ¡": 4172,
      "ĠØ´Ø§Ø¯ÙĬ": 4173,
      "§ç¾İ": 4174,
      "çŁ³": 4175,
      "Ø´Ø§ÙĨ": 4176,
      "les": 4177,
      "ĠTall": 4178,
      "æĻº": 4179,
      "éĩĩ": 4180,
      "ĠÙ¿ÙĬÙĨ": 4181,
      "ï·º": 4182,
      "à´£à´®": 4183,
      "Ġtar": 4184,
      "ĠØ¯ÙĩØ´ØªÚ¯Ø±Ø¯": 4185,
      "Ø¯ÙĬÙĪÙĨ": 4186,
      "Ùī": 4187,
      "å®ĥ": 4188,
      "ĠØ¯Ø§ÙĨ": 4189,
      "ĠØ¨ÙĨÚ¯": 4190,
      "ĠØ³ÙĬÚªØ±ÙĬ": 4191,
      "ĠÛģØ±": 4192,
      "Ġsead": 4193,
      "ĠØ§ÙĬÙĪ": 4194,
      "ort": 4195,
      "ĠØ³ÙĦØ³ÙĦÙĬ": 4196,
      "ĠÚ©Ø§Ø±": 4197,
      "ä¹ī": 4198,
      "à´¹à´¤": 4199,
      "ä¸ºä»Ģä¹Ī": 4200,
      "ĠØ§Ø¯Ø§Ø±ÙĨ": 4201,
      "ĠØ¯Ø±ÙĪ": 4202,
      "å«": 4203,
      "æĿ¡": 4204,
      "äº§åĵģ": 4205,
      "ba": 4206,
      "Ø¨Ø§ÙĦ": 4207,
      "ç¡®": 4208,
      "ĠØ¬Ø§ÚĨ": 4209,
      "ĠÙĨÙĤØµØ§ÙĨ": 4210,
      "åĵ¥": 4211,
      "ĠÙĩÙĨØ¯Ø³ØªØ§ÙĨ": 4212,
      "Ġneed": 4213,
      "ĠØ§ÙĤØª": 4214,
      "ĠlÃ¤bi": 4215,
      "ĠØ¢ØµÙģ": 4216,
      "Ġå¤©å¤©ä¸Ńå½©ç¥¨ä¸Ńå¥ĸ": 4217,
      "çİ©æ³ķ": 4218,
      "ĠØºØ±ÙĬØ¨": 4219,
      "Ġkesk": 4220,
      "åĵªä¸ª": 4221,
      "è¡£": 4222,
      "æĿ¿": 4223,
      "Ġæ¾³éĹ¨": 4224,
      "ĠÙħÙĬÙĨ": 4225,
      "å¥Ĺ": 4226,
      "Ãµh": 4227,
      "Ĉć": 4228,
      "Ø±Ø§ÙĨØ³": 4229,
      "åģĩçļĦ": 4230,
      "ĠÙ¾ÚĻÙĩÚ»": 4231,
      "çļĦäºº": 4232,
      "ç½®": 4233,
      "ĠØ¹Ø´": 4234,
      "åĥı": 4235,
      "å»ºè®¾": 4236,
      "ĠÚ©Ø§ØªÙĬ": 4237,
      "ĠØ§ÚĨÙĨ": 4238,
      "èģĮ": 4239,
      "è¨Ģ": 4240,
      "Ù½Ø§Ø¦ÙĬ": 4241,
      "Ú¯ÛĮ": 4242,
      "sim": 4243,
      "Ġà´®à´¤": 4244,
      "Ø§Ø¦Ø²": 4245,
      "35": 4246,
      "Ġab": 4247,
      "æĺ¾": 4248,
      "ĠMa": 4249,
      "ĠØ§ÙĬØ¦ÙĨ": 4250,
      "Ø¬Ø§ÙĨ": 4251,
      "ĠØ¹ÙĦØ§ÙĪ": 4252,
      "Û±Û": 4253,
      "Ø¯ÙĬÙĦ": 4254,
      "ÛĮØ§Ø¯": 4255,
      "ĠÚĢØ§Ø±Øª": 4256,
      "ç¯®": 4257,
      "ĠØ¯Ø³Øª": 4258,
      "jon": 4259,
      "sp": 4260,
      "ĠØ¢ÚıÙĪ": 4261,
      "ĠÙĩÙĪØ³": 4262,
      "ĠtÃ¤n": 4263,
      "Ġlihts": 4264,
      "ĠÙ»ÙĪÙĦ": 4265,
      "ĠØªØ§Ø¬": 4266,
      "ÙģØ±ÙĨ": 4267,
      "åįķåıĮ": 4268,
      "à´İà´¸": 4269,
      "Ġkr": 4270,
      "ĠÙĩØ¯Ø§": 4271,
      "itus": 4272,
      "90": 4273,
      "ĠÚªÙĪØ¨Ùĩ": 4274,
      "åĲĥ": 4275,
      "Ġolul": 4276,
      "ĠØ³Ø±ÙĪ": 4277,
      "åľ¨çº¿è§Ĥçľĭ": 4278,
      "ĠØ§Ø¹Ø¸Ùħ": 4279,
      "ÚĨØ§Ø±": 4280,
      "97": 4281,
      "æĢİä¹Īæł·": 4282,
      "ĠÚªØ±Ù¾": 4283,
      "ĠØ±Ø¯": 4284,
      "Ġpeale": 4285,
      "ĠkÃµr": 4286,
      "ĠtÃ¤i": 4287,
      "ĠÙ¾Ø§Ú©Ø³ØªØ§ÙĨ": 4288,
      "asin": 4289,
      "ĠÚªØ§ÙĦÙĬ": 4290,
      "Ġkogu": 4291,
      "ĠØ±ÙĨ": 4292,
      "ĠÙ»ÙĬÙĩØ±": 4293,
      "àµģâĢĭ": 4294,
      "æĿĲ": 4295,
      "ĠæĪĲäºº": 4296,
      "åĨĻ": 4297,
      "ĠØ¹ÙĦØ§ÙĤÛĴ": 4298,
      "Ø§ÚªÙĬ": 4299,
      "ÙĬØ³ÙĬ": 4300,
      "è®®": 4301,
      "àµįâĢĮ.": 4302,
      "ÙĤÛĮ": 4303,
      "ĠlÃ¤h": 4304,
      "ĠØŃØ³ÙĨ": 4305,
      "Ġkelle": 4306,
      "åŃ¦çĶŁ": 4307,
      "vah": 4308,
      "Ġà´ħà´§": 4309,
      "Ġolnud": 4310,
      "useks": 4311,
      "ç»ľ": 4312,
      "ĠØªØ¨Ø¯ÙĬÙĦ": 4313,
      "ÙĬØ±Ø§": 4314,
      "ä¾Ŀ": 4315,
      "æĸ¹æ³ķ": 4316,
      "Ġikka": 4317,
      "Ġå¤©å¤©ä¹°å½©ç¥¨": 4318,
      "èĲ½": 4319,
      "Ġrohkem": 4320,
      "Ø§Ø±ØªÙĬ": 4321,
      "à´ķà´ª": 4322,
      "Ġà´²à´Ń": 4323,
      "ĠØ¹ÙĪØ±ØªÙĨ": 4324,
      "ĠEest": 4325,
      "å¥ĩ": 4326,
      "ĠØ¬Ø³Ùħ": 4327,
      "à´Ńà´µ": 4328,
      "åĨ³": 4329,
      "ĠÙħÛĮÚº": 4330,
      "ĠkÃµige": 4331,
      "Ø¯Ùĩ": 4332,
      "ĠÙĬÙĤÙĬÙĨ": 4333,
      "Ú©Ú¾ÙĨ": 4334,
      "ĠØ§ÙĨØªØ¸Ø§Ùħ": 4335,
      "Ø±ÙĬÚĬ": 4336,
      "ĠÙ¾Úª": 4337,
      "iline": 4338,
      "Ø±Ø§Ø±": 4339,
      "Ġå½©ç¥ŀäºīéľ¸å¤§åıĳ": 4340,
      "Ø§Ø²Øª": 4341,
      "Ġ....": 4342,
      "à´µà´¯": 4343,
      "ĠØ³Ú¯ÙĩÙĬÙĪ": 4344,
      "äºĶæľĪ": 4345,
      "ĠÚ©Ø¦ÛĮ": 4346,
      "åħŃåĲĪ": 4347,
      "Ġnad": 4348,
      "åĸľ": 4349,
      "äº¤æµģ": 4350,
      "ĠØ§ÙħÙĬØ±": 4351,
      "Ø§ÙħØ§": 4352,
      "åľŁ": 4353,
      "æ±½": 4354,
      "åŁŁ": 4355,
      "eti": 4356,
      "ĠÙĦØ¨": 4357,
      "å¤©å¤©çĪ±å½©ç¥¨": 4358,
      "åĬ¨æ¼«": 4359,
      "itab": 4360,
      "ç»ıæµİ": 4361,
      "ĠØ§ÛĮØªÚ¾ÛĴ": 4362,
      "eli": 4363,
      "ĠØ¯ÙĪØ³ØªÙĨ": 4364,
      "æį¢": 4365,
      "ĠÙĦÙģØ¸ÙĨ": 4366,
      "oloo": 4367,
      "ç»Ī": 4368,
      "ĠØ²Ø®ÙħÙĬ": 4369,
      "ä¹ł": 4370,
      "ĠÚªÙĪÙĨÙĩÙĬ": 4371,
      "è¿ħ": 4372,
      "èŀ": 4373,
      "Ġhakk": 4374,
      "ĠÙĪÙĬØ¨": 4375,
      "ĠØ¬ÙĬÙĦ": 4376,
      "è®¡åĪĴè½¯ä»¶": 4377,
      "ä¼¦çĲĨ": 4378,
      "åįĥ": 4379,
      "Ġkuidas": 4380,
      "ÛĮÙĦ": 4381,
      "ĠÙĤØ¯Ùħ": 4382,
      "æł¸": 4383,
      "ĠØ§Ø¹ÙĦÙĬ": 4384,
      "ĠØ®ÙĪØ¨ØµÙĪØ±Øª": 4385,
      "Ġjooks": 4386,
      "ĠÙĦØ§Ú³Ø§Ù¾": 4387,
      "äººçļĦ": 4388,
      "æľĽ": 4389,
      "ĠØ¨Ø§Ø±ÙĬ": 4390,
      "Ø³Ù¾": 4391,
      "ĠÙ¾ÙĪØ±ÙĪ": 4392,
      "åı¯éĿł": 4393,
      "åĪĨæŀĲ": 4394,
      "per": 4395,
      "ĠØ§Ø¬Ø§Ø²Øª": 4396,
      "Ø§ÛģÛĮ": 4397,
      "Ø´ÙħÙĨ": 4398,
      "Ġpiir": 4399,
      "ĠÙĪØ§Ø¶": 4400,
      "ĠØ§ÙĬØªØ±ÙĬ": 4401,
      "Ġneid": 4402,
      "ĠØ§ÙĬØ§Ø²": 4403,
      "à´¸à´°": 4404,
      "à´Ĩ": 4405,
      "ĠØ³Ø§Ù¿": 4406,
      "ĠÙģÙĪÙĨ": 4407,
      "ĠÚªÚĨ": 4408,
      "ç§°": 4409,
      "é¤": 4410,
      "ĠØªØŃØª": 4411,
      "Ġvab": 4412,
      "ÙĬÙĦØ§": 4413,
      "ä¸ĭè½½å®īè£ħ": 4414,
      "ĠØ³ÙĬÚªØ±ÙĬÙ½Ø±ÙĬ": 4415,
      "ç«ŀ": 4416,
      "istr": 4417,
      "ĠÙĩÙĪÙ½ÙĦ": 4418,
      "Ġà´ľà´¨": 4419,
      "å©Ĩ": 4420,
      "ÙĬÙĦÙĪ": 4421,
      "tse": 4422,
      "ĠÙĦØ§Ø¦": 4423,
      "èŃ¦": 4424,
      "Ø³ÙĪØ§Ø¡": 4425,
      "ĠÚªØ§Ø±ÚªÙĨ": 4426,
      "ĠÙĪØ·ÙĨ": 4427,
      "ä¸¾": 4428,
      "Ġ[": 4429,
      "ĠÙĨÙħÙĪÙĨÙĬ": 4430,
      "æıĲçİ°åĲĹ": 4431,
      "Ġtegev": 4432,
      "ĠmÃµn": 4433,
      "åħ¸": 4434,
      "Ġlood": 4435,
      "ç³»åĪĹ": 4436,
      "Ġåħ¨": 4437,
      "imine": 4438,
      "ĠØ¨Ø¯ÙĦ": 4439,
      "ç½Ĺ": 4440,
      "Ãµr": 4441,
      "ĠÃ¼ld": 4442,
      "ĠØ³Ø§Ø¦ÙĨ": 4443,
      "åį³": 4444,
      "çļĦå¤©å¤©ä¸Ńå½©ç¥¨": 4445,
      "ÚĦÙĬ": 4446,
      "45": 4447,
      "etud": 4448,
      "2016": 4449,
      "ĠØ¢ÙĬÙĦ": 4450,
      "ĠÛĮÙĪÙĨ": 4451,
      "Ġrahv": 4452,
      "Ġà´īà´³": 4453,
      "ÙĪÙĦØª": 4454,
      "ĠØ¨ÙĪØ±ÚĬ": 4455,
      "ĠØ²ÙħØ§ÙĨÙĬ": 4456,
      "ĠÙħÙĨØµÙĪ": 4457,
      "æķĻèĤ²": 4458,
      "oll": 4459,
      "ĠrÃ¤Ã¤": 4460,
      "Ġterv": 4461,
      "å²ģ": 4462,
      "ĠØµØ§Ùģ": 4463,
      "ĠØ§ÙĦÚ³": 4464,
      "çŁ¥éģĵ": 4465,
      "ç»¼": 4466,
      "Ġhuv": 4467,
      "æĢİä¹Īé¢Ĩ": 4468,
      "èĮĥ": 4469,
      "ĠØ³ÙĪÙĦ": 4470,
      "ĠØ§Ø±Ø¨": 4471,
      "ĠØ³Ø²Ø§": 4472,
      "Ġvastu": 4473,
      "ÙħÚªÙĨ": 4474,
      "ĠÙĪÙĬÙĩÙĬ": 4475,
      "Ø§ÙĬÙĦ": 4476,
      "ĠÙģØ±ÙĤ": 4477,
      "å¤±": 4478,
      "ĠÙħÙĨØª": 4479,
      "ĠØ¹Ø¸ÙĬÙħ": 4480,
      "åºľ": 4481,
      "ĠØ±ÙĪØ´ÙĨ": 4482,
      "Ġæ±": 4483,
      "iid": 4484,
      "ĠÚªÙĬÙħ": 4485,
      "Ø¯Ø³": 4486,
      "ä»ĭ": 4487,
      "uga": 4488,
      "ç´ł": 4489,
      "ç½ĳé¡µ": 4490,
      "ÙĲØĮ": 4491,
      "ĠØ¢ÙģÙĬØ³Ø±": 4492,
      "ĠÃ¼he": 4493,
      "ÚĢØ±": 4494,
      "ĠÙģÙĪØª": 4495,
      "ĠÙĨØ¦ÙĪÙĨ": 4496,
      "ĠØ³Ø§ÙħØ§ÙĨ": 4497,
      "ÙĩÙĬÙĦ": 4498,
      "ĠÙĩÙĬÙĨ": 4499,
      "ç¤¾ä¼ļ": 4500,
      "åłĤ": 4501,
      "29": 4502,
      "ĠØ¯ÛĮØ³": 4503,
      "ĠØ¢Ù¾Ø±ÙĬ": 4504,
      "ç·ļ": 4505,
      "äºĴ": 4506,
      "à´°à´µà´°": 4507,
      "ĠØµØ¨ØŃ": 4508,
      "ĠØªØµÙĪØ±": 4509,
      "ÙĪØ±ÛĮ": 4510,
      "å°¼": 4511,
      "éľĢè¦ģ": 4512,
      "ĠÙ¾Ø±ÚıÙĬ": 4513,
      "çľ¼": 4514,
      "ĠÙĪØ±ØªÙĬ": 4515,
      "Ġé¦Ļæ¸¯": 4516,
      "ĠØ¯ÙĩØ´ØªÚ¯Ø±Ø¯ÙĬ": 4517,
      "Ø§Ø¨Ø±": 4518,
      "Ġà´Ĩà´¯": 4519,
      "ĠØ¬ÙĦØ¯": 4520,
      "è¯¢": 4521,
      "ç§ĺ": 4522,
      "Ġ'": 4523,
      "ĠÙĨÙ¿ÙĬ": 4524,
      "æ®µ": 4525,
      "avalt": 4526,
      "èİ·": 4527,
      "åŃ¸": 4528,
      "æ»¡": 4529,
      "ĠÙģÚªØ±": 4530,
      "ĠØ§Úı": 4531,
      "Ġpak": 4532,
      "ÚĻÙĬÙĦ": 4533,
      "asut": 4534,
      "æĻļ": 4535,
      "ĠÙĨÙħØ§Ø²": 4536,
      "Ġå½©ç¥ŀäºīéľ¸å¤§åıĳå¿«ä¸ī": 4537,
      "ĠÙ»ÚĮØ§Ø¦ÙĬ": 4538,
      "ĠØ¨ÙĦÚª": 4539,
      "Ø±ÙĬÚªÙĬ": 4540,
      "ĠØ§ÚªØ«Ø±": 4541,
      "åĭķ": 4542,
      "å¾Į": 4543,
      "Ġmidagi": 4544,
      "é»Ħèī²": 4545,
      "ĠÚĨÙĪÙĨÚĬÙĨ": 4546,
      "ogu": 4547,
      "ĠÚıÙĬÙĨØ¯ÙĪ": 4548,
      "ĠØ¢ÙĩÙĬÙĨ": 4549,
      "ĠØ³Ø±Ø¯Ø§Ø±": 4550,
      "ĠsÃµn": 4551,
      "ĠÙĦÙĨÚ¯": 4552,
      "à´²à´µ": 4553,
      "Ġvee": 4554,
      "Ġha": 4555,
      "ita": 4556,
      "ĠØ¨ÙĪÙĦÛĮ": 4557,
      "å¹¼": 4558,
      "ĠÚĢØ±ÙĬ": 4559,
      "ĠÙĩØ¯Ø§ÙĬØª": 4560,
      "Ø²ÛĮ": 4561,
      "198": 4562,
      "ĠÙĪØ±Øª": 4563,
      "ĠÚªØ±Ø§Ø¦Ú»": 4564,
      "åĢĳ": 4565,
      "ĠØ±Øª": 4566,
      "éľ²": 4567,
      "ĠÙ¾Ø§ÚªØ³ØªØ§ÙĨÙĬ": 4568,
      "ÙģØ±ÙĨØ³": 4569,
      "ĠÙħØ§ØŃ": 4570,
      "éŁ©åĽ½": 4571,
      "ĠÙħØ¦": 4572,
      "Ġà´µà´³": 4573,
      "è¾ĥ": 4574,
      "ĠÙħØ¸Ø§Ùĩ": 4575,
      "ĠÙĨÙĨÚįÙĬ": 4576,
      "ØŃÙĬ": 4577,
      "ĠØ±ÙĤ": 4578,
      "æıĲä¾Ľ": 4579,
      "ĠØ³ÙĪÙħ": 4580,
      "å¥¶": 4581,
      "àµ½à´ķ": 4582,
      "æ©Ł": 4583,
      "åħ»": 4584,
      "éĵ¾": 4585,
      "çļĩ": 4586,
      "Ġkoost": 4587,
      "ĠÚ©Ø§ÙĨØ³ÙĪØ§Ø¡": 4588,
      "ĠÙħÚĻØ³": 4589,
      "Ġpoolt": 4590,
      "ĠØ°Ø§Øª": 4591,
      "à´±à´ķ": 4592,
      "æĦĽ": 4593,
      "Ġhea": 4594,
      "å¦Ĥæŀľ": 4595,
      "ws": 4596,
      "tud": 4597,
      "éªĹå±Ģ": 4598,
      "ÙĬÙĨÚ¯": 4599,
      "Ø§Ø±ÙĬÙĪÙĨ": 4600,
      "ĠØ³ÙĨÚ¯Ú¾": 4601,
      "å¯Į": 4602,
      "å½©äºīéľ¸": 4603,
      "ĠÚĢØ§Ø¡": 4604,
      "ĠÙħØ°ÙĩØ¨": 4605,
      "ĠÚ³Ø§ÙĦÙĩØ§Ø¦ÙĬÙĨØ¯ÙĬ": 4606,
      "ĠjÃ¤rg": 4607,
      "Ġhe": 4608,
      "ĠØ§ÙĦØ²Ø§Ùħ": 4609,
      "ä¸Ķ": 4610,
      "ĠÙĤÙĦ": 4611,
      "äºĨä¸Ģ": 4612,
      "ĠÙģÙĦØ³": 4613,
      "Ġkat": 4614,
      "ĠØ¹ÙĦØ§Ø¦ÙĤÙĨ": 4615,
      "ĉĊ": 4616,
      "ĠØ³Ø§Ú»": 4617,
      "ĠÙ»ÙĪÙĦÙĬ": 4618,
      "ĠÚ¯ÚıÙĬÙĦ": 4619,
      "ĠÙĨØ³": 4620,
      "å½©åĽ¾": 4621,
      "ill": 4622,
      "ĠØ§ÙĪÙĨÛģØ§Úº": 4623,
      "Ġkuna": 4624,
      "Ġhoo": 4625,
      "ĠÙħÙĨØ¬": 4626,
      "å³": 4627,
      "ĠÚ©Ø±Ø¯Ø§": 4628,
      "196": 4629,
      "ĠØ´ÙĬÙĨ": 4630,
      "ÙĬØ¨": 4631,
      "ĠØ¨ÙĨÙĬØ§Ø¯ÙĬ": 4632,
      "ps": 4633,
      "Ø§Ù½": 4634,
      "ĠÙħÚ¾": 4635,
      "Ġkuni": 4636,
      "çº¦": 4637,
      "Ø¦Ø³": 4638,
      "ĠØ±Ø³ØªÙĬ": 4639,
      "ĠpÃ¤rast": 4640,
      "å®īåħ¨åĲĹ": 4641,
      "Ġig": 4642,
      "ĠÚªÙħÙ¾": 4643,
      "ĠÙħØ¹Ø§ÙħÙĦÙĬ": 4644,
      "ĠÚªØ§Ø¨": 4645,
      "éĿłè°±åĲĹ": 4646,
      "ĠØ³ÚĥØ§Ú»": 4647,
      "ĠØ³ÚĮ": 4648,
      "ĠÙħØ§ÙĦÚª": 4649,
      "ÚĬÙĨ": 4650,
      "ĠØ¯Ø´ÙħÙĨ": 4651,
      "mÃ¤r": 4652,
      "ĠÙħØ°ÙĩØ¨ÙĬ": 4653,
      "ĠØ±Ú©ÙĨØ¯ÚĻ": 4654,
      "ĠØ¢Ù¾": 4655,
      "å°ĳå¥³": 4656,
      "ÙĩÙĬØ¡": 4657,
      "çŁŃ": 4658,
      "ÙĤØ§": 4659,
      "ÚĬÙĪ": 4660,
      "ÙħÙĬÙĨÙ½": 4661,
      "åįĵ": 4662,
      "ĠÙĦØ§ÙĦ": 4663,
      "è¯Ĩ": 4664,
      "Ġost": 4665,
      "åĴĮåĢ¼": 4666,
      "evad": 4667,
      "ØªÙĪÚ»": 4668,
      "à´®à´¨": 4669,
      "Ø¦ÛĮØ§Úº": 4670,
      "Ġesit": 4671,
      "Ø²Ø±": 4672,
      "Ø«Ø§Ø±": 4673,
      "oht": 4674,
      "Ø±ÙĬØ¯": 4675,
      "çĭĹ": 4676,
      "à´¯à´²": 4677,
      "Ġainult": 4678,
      "Ćć": 4679,
      "æĸŃ": 4680,
      "ĠØ¢ÙĨ": 4681,
      "ĠÙĨØ¹": 4682,
      "steem": 4683,
      "ĠÛģÙĪÙĨØ¯Ø§": 4684,
      "ĠØ¹Ø§ÙĦÙħÙĬ": 4685,
      "à´·à´¤": 4686,
      "æĻ®": 4687,
      "ĠØ§Ú¾": 4688,
      "ä¸ĵä¸ļ": 4689,
      "Ġà´Ĩà´ķ": 4690,
      "ĠØªÚ¾Ø§Úº": 4691,
      "ĠØ¹Ø²Øª": 4692,
      "ĠØ¬ÙħÙĩÙĪ": 4693,
      "ĠÙħÚ¯": 4694,
      "ØªÙĪÚ»ÙĬÚª": 4695,
      "ĠÙ¾ÙĬØº": 4696,
      "Ø¦ÛĮØ§": 4697,
      "Ġloo": 4698,
      "è´¢": 4699,
      "åĲ¦": 4700,
      "ÙĪØ±Ø³": 4701,
      "è¯Ħ": 4702,
      "ĠØ¬Ø§ÙĨØ¯ÛĮ": 4703,
      "ÙĨØ¯ÙĨ": 4704,
      "æŃ»": 4705,
      "åºĬ": 4706,
      "ĠMe": 4707,
      "ĠØ¨ÙĩØªØ±ÙĬÙĨ": 4708,
      "èĳĹ": 4709,
      "å¿«æĴŃ": 4710,
      "ĠØ®ÙĪØ§Ùĩ": 4711,
      "ĠÙĪÚĨÙĪÚº": 4712,
      "Ø¯ÙĪÙħ": 4713,
      "åĢį": 4714,
      "ĠÚĢÙĬØ±ÙĪ": 4715,
      "ĠmÃ¤Ã¤r": 4716,
      "Ġilm": 4717,
      "ĠÃµpp": 4718,
      "Ġå¤©å¤©ä¸Ńå½©ç¥¨æľī": 4719,
      "Ġmah": 4720,
      "ĠØ§ÙĩÚĻÙĨ": 4721,
      "éĻĲ": 4722,
      "Ġseal": 4723,
      "ĠÚ¯ÙĩØ±ÙĪ": 4724,
      "ĠÚªØ§ÙĦÙĬØ¬": 4725,
      "ĠÚ¯ÙĪÙĦ": 4726,
      "Ġkorral": 4727,
      "åºķ": 4728,
      "éĢļè¿ĩ": 4729,
      "ĠØ¹ÙĪØ§ÙħÙĬ": 4730,
      "æĹ¶åĢĻ": 4731,
      "åģ¥": 4732,
      "Ġèī²": 4733,
      "é£Ł": 4734,
      "ĠÚªØ±Ù¾Ø´ÙĨ": 4735,
      "Ø³Ù½Ø±ÙĬ": 4736,
      "ĠØ¹ÙħÙĦÙĬ": 4737,
      "adi": 4738,
      "ĠØ®Ø§ÙĨØ¯Ø§ÙĨ": 4739,
      "ĠæĢ§": 4740,
      "ÛĮØ³": 4741,
      "iit": 4742,
      "ĠØ±Ø§Ø¡": 4743,
      "ĠÙģØ¶": 4744,
      "Ġå¤©å¤©ä¸Ńå½©ç¥¨app": 4745,
      "ÙĬÚªÙĦ": 4746,
      "ĠØ§Úĩ": 4747,
      "éļ¾": 4748,
      "ç«ł": 4749,
      "Ø¹Ø§Ùħ": 4750,
      "ĠÙħØ³ÙĦÙħØ§ÙĨÙĨ": 4751,
      "é¢Ŀ": 4752,
      "æ·«": 4753,
      "ĠØ±ÙĩÙĬÙĪÙĨ": 4754,
      "ĠÃ¼tle": 4755,
      "ĠlÃµp": 4756,
      "ÚĨÙĨ": 4757,
      "Ø²Ùħ": 4758,
      "ĠÙĦØ§ÚĻÚªØ§Ú»ÙĬ": 4759,
      "ĠÙĩÙħ": 4760,
      "Ø§ÙĦÙħ": 4761,
      "çĽĳ": 4762,
      "ĠØ¯ÙĬ": 4763,
      "åĨµ": 4764,
      "kond": 4765,
      "Ġehk": 4766,
      "Ġkirjut": 4767,
      "ĠÙĬÙĪØ±": 4768,
      "ĠØ§ÙħØ§ÙĨ": 4769,
      "çķ¥": 4770,
      "Ġç¥ŀå½©äºīéľ¸": 4771,
      "ĠØ¯Ø±ÙĬ": 4772,
      "Ġåľ¨": 4773,
      "ĠØ´Ø§Ø¹Ø±ÙĬØ¡": 4774,
      "ÛĮÙ¹Ø±": 4775,
      "ĠÚªØ±ÙĪ": 4776,
      "uroopa": 4777,
      "ĠØŃÚ©ÙĪÙħØª": 4778,
      "ĠÙĤØ±Ø¨": 4779,
      "ĠØ®Ø§ÙĦ": 4780,
      "70": 4781,
      "uid": 4782,
      "å¨ģ": 4783,
      "ĠØ´Ø§ÙĨ": 4784,
      "Ġà´®à´£": 4785,
      "ĠÙ¾Ø§Ø¨": 4786,
      "Ġho": 4787,
      "ĠØ¹Ùĩ": 4788,
      "Ġinimest": 4789,
      "Ø¬ÙĪÙĨ": 4790,
      "ĠØ¨Ø§Øº": 4791,
      "ĠÙĩÚ»ÙĬ": 4792,
      "atsiooni": 4793,
      "Ġall": 4794,
      "èµĦæºĲ": 4795,
      "ĠØ´Ø§Ú¯Ø±Ø¯ÙĨ": 4796,
      "çŃīå¥ĸ": 4797,
      "ĠØ³Ø¯": 4798,
      "ĠÚĨÙĨ": 4799,
      "ĠØ¯Ùħ": 4800,
      "Ġhar": 4801,
      "ĠÙħØ¸Ø§ÙĩØ±ÙĪ": 4802,
      "Ú©ÙĨ": 4803,
      "ÛĮØ±ÛĴ": 4804,
      "pan": 4805,
      "ĠÚªÙĩÚĻÙĪ": 4806,
      "äººä½ĵèīºæľ¯": 4807,
      "éļı": 4808,
      "éĢ¼": 4809,
      "ĠvÃµt": 4810,
      "åİĨåı²": 4811,
      "ĠÙĩÙĦÙĬÙĪ": 4812,
      "å°į": 4813,
      "ĠÛģØªÚ¾": 4814,
      "ver": 4815,
      "Ù¹Ø±": 4816,
      "ÚıØ§ÙĨÙĩÙĨ": 4817,
      "é¡¹çĽ®": 4818,
      "ĠÙĪÚ©Ú¾": 4819,
      "ØŁâĢľ": 4820,
      "ĠØ§ÙĪÚĨ": 4821,
      "é²": 4822,
      "ĠÚ¾ÙĬ": 4823,
      "åĨł": 4824,
      "à´ļà´¯": 4825,
      "ĠÚıÙĨØ§": 4826,
      "é«Ķ": 4827,
      "éĵ¶è¡Į": 4828,
      "ĠØªÙĨØ¸ÙĬÙħ": 4829,
      "Ġtagasi": 4830,
      "Ġviim": 4831,
      "äº¿": 4832,
      "Ø§Ø±Ùģ": 4833,
      "ĠÙĨÙ¿Ø§": 4834,
      "ĠØ§ÙĪÛģØ¯ÛĴ": 4835,
      "ulg": 4836,
      "31": 4837,
      "çĶµèĦĳçīĪ": 4838,
      "æĹħ": 4839,
      "ĠÚªØ¬ÙĬ": 4840,
      "ĠØ¨Ø§Ø²": 4841,
      "ĠØ®ÙĪØ±": 4842,
      "emise": 4843,
      "ĠØ´ÙĬØ±": 4844,
      "ÙĩÙĨØ¯ÙĪ": 4845,
      "ÙĬØ§Ø±": 4846,
      "æľ¨": 4847,
      "ÙĤÙĬØ¯": 4848,
      "Ġà´Ĩà´£": 4849,
      "ĠvÃµimalik": 4850,
      "Ġlast": 4851,
      "ĠkÃ¼ll": 4852,
      "ĠØ¢Ù¾Ø±ÙĬØ´ÙĨ": 4853,
      "Ġaastat": 4854,
      "ĠØ¯Ø±Ø¯": 4855,
      "ÙĦÛĮÙħ": 4856,
      "éħĴ": 4857,
      "ĠØ§ÙĬÙĨØ¯ÙĬ": 4858,
      "ÙĪÙĨØ§Úº": 4859,
      "ĠæĹ¶æĹ¶å½©": 4860,
      "ĠØ¯ÙĨÛĮØ§": 4861,
      "ĠØ´ÙĩØ±ÙĨ": 4862,
      "åºĵ": 4863,
      "ĠØ±ÙĬÙĦ": 4864,
      "ĠØŃÚªÙħØ±Ø§ÙĨ": 4865,
      "ç»¼åĲĪ": 4866,
      "ĠØ³Ø§Ø²": 4867,
      "Ġsai": 4868,
      "ĠÙĪØ§Ø¶ØŃ": 4869,
      "ĠÚ³Ø§ÙĦÙĩÙĬÙĨ": 4870,
      "Ø¨ÙĪØ·": 4871,
      "ĠØ¯ÙĦÚĨ": 4872,
      "ĠØ§ÙĬÙĨØ¯Ø§": 4873,
      "èŀį": 4874,
      "Ġæµ": 4875,
      "çľŁçļĦ": 4876,
      "lekt": 4877,
      "ivad": 4878,
      "isse": 4879,
      "ĠØ¨Ú»Ø§Ø¦ÙĬ": 4880,
      "ç§¯": 4881,
      "ä¸°": 4882,
      "èµ¢å½©ç¥¨": 4883,
      "Ġmuud": 4884,
      "ĠÙĨØ§ÙĪÙĦ": 4885,
      "ĠØªÛģØ§": 4886,
      "Ġsellest": 4887,
      "ĠÚ¯ÚıØ¬ÙĬ": 4888,
      "ĠØ±ÙĪØ§ÙĬØª": 4889,
      "ĠØ§Ú¾ÙĪ": 4890,
      "ç½ĳç»ľ": 4891,
      "ĠØ§ÙĨÚĬ": 4892,
      "Ġve": 4893,
      "éģİ": 4894,
      "ĠÙĪÙĬÙĦ": 4895,
      "ĠØ¨ÙĦØ§": 4896,
      "èĩ´": 4897,
      "oj": 4898,
      "Ġsaad": 4899,
      "Ã¶Ã¶d": 4900,
      "Ġà´¸à´¨": 4901,
      "ĠØ³Ø§Ú³ÙĬ": 4902,
      "ĠØ¨Ø§Ø¯Ø´Ø§ÙĩÙĩ": 4903,
      "ĠØµÙĪØ¨Ø§Ø¦ÙĬ": 4904,
      "Ġçİ©": 4905,
      "Ġï·º": 4906,
      "æĩ": 4907,
      "ĠØ§Ø±Ø¯": 4908,
      "èĵ": 4909,
      "ä»ĸä»¬": 4910,
      "Ġæ·": 4911,
      "ĠÚªÙĨÚ¾ÙĨ": 4912,
      "ĠÙĦØ§ÙĩÙĪØ±": 4913,
      "ĠØ³Ù¾Ø±ÙĬÙħ": 4914,
      "Ø§ÙĦÙĨ": 4915,
      "ĠÚªØ±Ø§ÚĨÙĬØ¡": 4916,
      "ĠÙĪØ³ÙĬ": 4917,
      "é¸¡": 4918,
      "ĠÙħÙĪØ§Ø¯": 4919,
      "isa": 4920,
      "å¤§ç¥ŀ": 4921,
      "ÛĮØŃ": 4922,
      "ĠØ³ÚĦÙĪ": 4923,
      "å±ħ": 4924,
      "ĠAr": 4925,
      "ĠØ®Ø§Øª": 4926,
      "ç¯®çĲĥ": 4927,
      "ÚĻÚ»": 4928,
      "ĠÙħØ¹ÙĨÙĬ": 4929,
      "ãĢĤâĢĿ": 4930,
      "Ġà´§": 4931,
      "ĠØ§ÚĥØ§ÙĨ": 4932,
      "Ġtoo": 4933,
      "Ø§Ø¯ÙĤ": 4934,
      "ĠØ¢Ø¦ÙĬÙĨ": 4935,
      "ĠÙĨØ³ÙĦ": 4936,
      "æĻ¯": 4937,
      "Ġpeab": 4938,
      "Ġmin": 4939,
      "Ġjust": 4940,
      "ĠÙĦÚĳØ§Ø¦ÛĮ": 4941,
      "Ø§Ú¾": 4942,
      "æ¯Ľ": 4943,
      "è¡Ģ": 4944,
      "Ġjaoks": 4945,
      "med": 4946,
      "usid": 4947,
      "èĥĨ": 4948,
      "âĢ¢": 4949,
      "çļĦä¸Ģ": 4950,
      "åįı": 4951,
      "é£ŀ": 4952,
      "ĠØ®ÙĪØ§Ø¨": 4953,
      "à´±à´Ļ": 4954,
      "ĠÚªØªØ§Ø¨ÙĨ": 4955,
      "ĠØ°Ø§ØªÙĬ": 4956,
      "åº·": 4957,
      "Ġå½©ç¥¨å¤©å¤©": 4958,
      "Ø§ÚĻÙĬ": 4959,
      "è»": 4960,
      "ĠØ¯ÙĪØ¬ÛĴ": 4961,
      "ĠÚªØ§Ø±Ø±ÙĪØ§Ø¦ÙĬ": 4962,
      "ĠØ¨ÙĪÛģ": 4963,
      "æĺ¯çľŁçļĦ": 4964,
      "ç¦ıåĪ©å½©ç¥¨å¤©å¤©": 4965,
      "èĤī": 4966,
      "ĠØ³Ø·": 4967,
      "ĠÙ¾ÙĩØªÙĪ": 4968,
      "Ġkokku": 4969,
      "ĠØ³Ø±Ø¨Ø±Ø§ÙĩÙĩ": 4970,
      "Ø±ÙĬØ±": 4971,
      "ĠÙ»ÚĮÚ»ÙĬ": 4972,
      "ĠÙħØ§ÙĨÙĬ": 4973,
      "ĠØ¹Ø´ÙĤ": 4974,
      "å¹¸": 4975,
      "ĠÚªØ±ÚªÙĬÙ½": 4976,
      "Ú©Ø³": 4977,
      "ĠØ±ÙĬØ§Ø³Øª": 4978,
      "æĸĩåĮĸ": 4979,
      "ĠÚĨÙħ": 4980,
      "ĠÙĨÚªØ±": 4981,
      "avat": 4982,
      "å¾Īå¤ļ": 4983,
      "ĠÙ¾ÙĩØ±ÙĬ": 4984,
      "enud": 4985,
      "pt": 4986,
      "Ø±ÙĪÚº": 4987,
      "æŃ¦": 4988,
      "ĠØ¢Ø²Ø§Ø¯ÙĬ": 4989,
      "ĠØªØ¹Ø¯Ø§Ø¯": 4990,
      "æ´»åĬ¨": 4991,
      "ĠØ¨Ø¬ÙĦÙĬ": 4992,
      "ĠØ§Ø³ÙĦØ§ÙħÙĬ": 4993,
      "ĠØŃØ±": 4994,
      "ĠØªÙĬØ²": 4995,
      "ä¸īçº§": 4996,
      "ĠØ®Ø·Ø§Ø¨": 4997,
      "eks": 4998,
      "konna": 4999,
      "æľĭ": 5000,
      "ĠÙĩÚªÚĻÙĬ": 5001,
      "ĠÙģÙĪØ¬ÙĬ": 5002,
      "ĠÚıØ§ÚįÙĬ": 5003,
      "èĤĸ": 5004,
      "à´°à´³": 5005,
      "à´¯à´¸": 5006,
      "åĳ½": 5007,
      "à´ķà´±": 5008,
      "æĮī": 5009,
      "ĠÙħØ§ØŃÙĪÙĦ": 5010,
      "Kui": 5011,
      "ĠØ§Ú©ÙĬÙĪÙĨ": 5012,
      "Ġming": 5013,
      "åı«": 5014,
      "ĠÙħÙĬØ¯": 5015,
      "Ø§ÛģØ±": 5016,
      "ĠÙ¾ÛģÙĦØ§Úº": 5017,
      "çŃĸ": 5018,
      "ĠØ°ÙħÙĬÙĪ": 5019,
      "çĻ¼": 5020,
      "åı¯èĥ½": 5021,
      "ĠÙħØ§Ø¦": 5022,
      "ĠÙĨØ§Úª": 5023,
      "Ù¿Ø±": 5024,
      "Ø¬ÙĬØ¨": 5025,
      "ĠØ¨Ø§ÙĩÙĩ": 5026,
      "Ġå¤§åıĳå¿«ä¸īæĢİä¹Ī": 5027,
      "ÙĬÙĨØ§": 5028,
      "ĠÚªØ±Ú»ÙĪ": 5029,
      "ĠØŃØ§ÙĦØªÙĨ": 5030,
      "åħ°": 5031,
      "ĠØªØŃÙĤÙĬ": 5032,
      "aalse": 5033,
      "ĠØ³Ø±Ùħ": 5034,
      "à´¨à´²": 5035,
      "ĠÚªØ¬Ú¾": 5036,
      "ĠÙħØªØ§Ø«Ø±": 5037,
      "Ġà´Ĩà´µà´¶": 5038,
      "sit": 5039,
      "vest": 5040,
      "ĠÚĢØ±Ø³Ø§ÙĨ": 5041,
      "Ġâ": 5042,
      "éĨ": 5043,
      "åŃ£": 5044,
      "Å¡": 5045,
      "ÙĬÙĨÙ½": 5046,
      "ĠØ¬ÙĬØªÙĪÚ»ÙĬÚª": 5047,
      "ĠÙģØªØŃ": 5048,
      "åı¦": 5049,
      "Ø³Ù½Ø±": 5050,
      "ĠÙĩÙĨØ¯ÙĪ": 5051,
      "ĠÙĤÙĬÙħ": 5052,
      "è±¹": 5053,
      "ç©¿": 5054,
      "ĠÚıÙĬÚ©Ø§Ø±ÙĬ": 5055,
      "ĠÙ¾Ú©": 5056,
      "Ġà´¬à´¨": 5057,
      "ĠØ§ÙĦØŃ": 5058,
      "anis": 5059,
      "66": 5060,
      "Ġkli": 5061,
      "å®ģ": 5062,
      "ĠÚĨØ±": 5063,
      "ÚªÚ»": 5064,
      "lg": 5065,
      "æ£ĭ": 5066,
      "ĠÙģØ·": 5067,
      "ali": 5068,
      "ÙĬØ³Ù½": 5069,
      "ĠÙ»ÙĪÙĦÙĬØ¡": 5070,
      "Ġà´Ĩà´¶": 5071,
      "äº«": 5072,
      "ĠÚĢÙĦÙĬ": 5073,
      "Ġà´īà´ªà´¯": 5074,
      ")ØĮ": 5075,
      "ĠÙħÙĪÙ½": 5076,
      "Ġpoole": 5077,
      "à´ªà´ķ": 5078,
      "à´Łà´±": 5079,
      "emalt": 5080,
      "è®¸": 5081,
      "ÛĮÙĨÛĮ": 5082,
      "Ġå¤©å¤©ä¸Ńå½©ç¥¨çļĦ": 5083,
      "ç£": 5084,
      "ĠØ³ÙºÙĪ": 5085,
      "ĠÙħØ§Ú»ÙĩÙĪØ¡": 5086,
      "Ġpeaks": 5087,
      "æĢİä¹ĪåĬŀ": 5088,
      "Ġuur": 5089,
      "ÙħØ¨Ø¦ÙĬ": 5090,
      "ĠIn": 5091,
      "orr": 5092,
      "è®¾è®¡": 5093,
      "ĠØªØ®ÙĦÙĬ": 5094,
      "ç§ĳæĬĢ": 5095,
      "ä½ĵèĤ²": 5096,
      "ÙĬØ±ÙĨ": 5097,
      "è¿Ŀ": 5098,
      "Ġpuud": 5099,
      "à´¾à´Ĥ.": 5100,
      "è½®": 5101,
      "ĠØ¨ÙĦÙĪÚĨØ³ØªØ§ÙĨ": 5102,
      "ĠÙĦÛĴ": 5103,
      "æ£Ģ": 5104,
      "ĠØ±Ø¶": 5105,
      "à´°à´¶": 5106,
      "Ġinf": 5107,
      "idele": 5108,
      "Ġà´®à´¨à´¸": 5109,
      "pe": 5110,
      "åĲī": 5111,
      "éĴŁ": 5112,
      "ĠØ³Ú³": 5113,
      "çĽĺ": 5114,
      "ĠØ§Ø®ÙĦ": 5115,
      "amisel": 5116,
      "çĳ": 5117,
      "ĠØ§Ø®Ø¨Ø§Ø±": 5118,
      "èĴ": 5119,
      "Ġà´ķà´³": 5120,
      "Ġkul": 5121,
      "é±": 5122,
      "æķ°æį®": 5123,
      "åį°": 5124,
      "asti": 5125,
      "Ø§ÙģØª": 5126,
      "èĭı": 5127,
      "Ġraamat": 5128,
      "Ġolid": 5129,
      "ç§ģ": 5130,
      "ĠØ§ÙĬÙģ": 5131,
      "Û²": 5132,
      "Ġsob": 5133,
      "Ġà´¨à´Łà´¨": 5134,
      "let": 5135,
      "194": 5136,
      "ÛĮÙĨÚĪ": 5137,
      "éĢı": 5138,
      "ĠÙĩØ¦Ø³": 5139,
      "ĠÚ¯Ø°Ø§Ø±ÙĬ": 5140,
      "æ¬¢": 5141,
      "idega": 5142,
      "irja": 5143,
      "ĠØ¨Ø±Ø·Ø§ÙĨ": 5144,
      "ss": 5145,
      "è±¡": 5146,
      "Ãµttu": 5147,
      "ĠÙĪØ§ÙĦÛĴ": 5148,
      "Ġtoet": 5149,
      "ĠØ¬Ú³": 5150,
      "ä¸»è¦ģ": 5151,
      "ĠÚ©Ø¬Ú¾": 5152,
      "ÙģÙĪØ¸": 5153,
      "esse": 5154,
      "ÛĮØ²": 5155,
      "ĠÙħØ¶ÙħÙĪÙĨ": 5156,
      "ĠÚªØ§ÙĪ": 5157,
      "æĺ¯å¤ļå°ĳ": 5158,
      "è¾¹": 5159,
      "èĽĭ": 5160,
      "ĠÚĢØ§Ø±ØªÙĬ": 5161,
      "çĽĬ": 5162,
      "ĠØ§ÙĩÙħÙĬØª": 5163,
      "è´Ł": 5164,
      "ĠnÃ¼Ã¼d": 5165,
      "à´ķà´°à´£": 5166,
      "ç©´": 5167,
      "Ġà´ĩà´ª": 5168,
      "Ø§ÙĪØª": 5169,
      "æľĭåıĭ": 5170,
      "Ø´ÛĮ": 5171,
      "gia": 5172,
      "ck": 5173,
      "é±¼": 5174,
      "éĩİ": 5175,
      "ĠÙ¾ÚĩÙĬÙĪ": 5176,
      "ĠÙħÙĦØ§Ø²": 5177,
      "æĶ¿åºľ": 5178,
      "Ġtunn": 5179,
      "è¿ħéĽ·": 5180,
      "ĠØ§ÙģØºØ§ÙĨØ³ØªØ§ÙĨ": 5181,
      "2015": 5182,
      "ĠØµÙĨ": 5183,
      "ĠØ§ÙħØ§Ùħ": 5184,
      "æ¸©": 5185,
      "Ø§Ø±ÚĬ": 5186,
      "ĠmÃ¼Ã¼": 5187,
      "ĠKa": 5188,
      "ÙĦÙĬØª": 5189,
      "ooli": 5190,
      "å®³": 5191,
      "ĠÙħØ¶Ø¨ÙĪØ·": 5192,
      "elda": 5193,
      "Ġkolm": 5194,
      "endi": 5195,
      "Ġå¤©å¤©å½©ç¥¨ç½ĳ": 5196,
      "ĠÙħØŃÙĨØª": 5197,
      "ä¸ŃçļĦ": 5198,
      "ĠÙĩÙ¿ÙĬØ§Ø±": 5199,
      "åĪĩ": 5200,
      "ĠØ§ÙĩÙĦ": 5201,
      "maa": 5202,
      "æĸ¹å¼ı": 5203,
      "å½±éŁ³": 5204,
      "ÙĬØ¯Ø§Ø±": 5205,
      "ĠÙħÙĬÙħÚ»": 5206,
      "Ġà´ªà´ķ": 5207,
      "ultuur": 5208,
      "ĠØ§Ø¨Øª": 5209,
      "ĠØ³ÙħÙĪØ±ÙĬ": 5210,
      "ĠØ¬ÙħØ¹": 5211,
      "ÙĩØ§Ø±ÙĬ": 5212,
      "âĢĵ": 5213,
      "ĠÙĩØ²": 5214,
      "ĠÙĤØ§Ø¨ÙĦ": 5215,
      "ĠØ³ÙºÙĬ": 5216,
      "ĠØ³Ú¯Ú¾ÙĬ": 5217,
      "å¾Ģ": 5218,
      "ĠÃ¼les": 5219,
      "ĠÙĩØ§Ø¦ÙĪ": 5220,
      "æ¬²": 5221,
      "ÙĬÙĪØ±Ù½ÙĬ": 5222,
      "ĠØªØ³": 5223,
      "ĠØ¨Ø±Ø§Ø¨Ø±": 5224,
      "Ġw": 5225,
      "åķĬ": 5226,
      "âĢĮ": 5227,
      "ĠÙĨÙĪØ±": 5228,
      "Ġå¤§åıĳå¿«ä¸īé": 5229,
      "è§ī": 5230,
      "âĢĿï¼Į": 5231,
      "Ġras": 5232,
      "ĠâĢĺâĢĺ": 5233,
      "Ġlinn": 5234,
      "æĪĳçļĦ": 5235,
      "èī³": 5236,
      "Ø§ÙĪÙĨ": 5237,
      "ĠÙĨÙĪÙ½": 5238,
      "ĠÙħÙĪØ¶ÙĪ": 5239,
      "ĠÚĮÙħ": 5240,
      "ĠÙħØ®Ø¯ÙĪÙħ": 5241,
      "Ġelu": 5242,
      "jale": 5243,
      "ÙĬØ³Ø±": 5244,
      "à´¨à´µ": 5245,
      "xt": 5246,
      "Ġsiin": 5247,
      "åĪĿ": 5248,
      "æĸ¼": 5249,
      "Ġà´ĩà´°": 5250,
      "ĠTa": 5251,
      "ÙĩÙĨØ¯ÙĬ": 5252,
      "Ø¨Ø§Ø²": 5253,
      "å¹ķ": 5254,
      "Ġå¤©": 5255,
      "umine": 5256,
      "ĠØ´Ø±ÙĪØ¹Ø§Øª": 5257,
      "åī§": 5258,
      "ĠÙħØ³Ø¬Ø¯": 5259,
      "ĠÙģØ±Ø§ÙĨØ³": 5260,
      "ĠÙħØŃÙģÙĪØ¸": 5261,
      "ä»Ĭå¤©": 5262,
      "Ġeks": 5263,
      "ÙĨØ¯ÙĬÙĪÙĨ": 5264,
      "konn": 5265,
      "ĠÙĪØ§Ø±Ø«": 5266,
      "æķħäºĭ": 5267,
      "Ġolen": 5268,
      "æĶ»": 5269,
      "ĠØ¨Øº": 5270,
      "éĻ©": 5271,
      "è´´": 5272,
      "Ø§ÚªØ§": 5273,
      "éĺħ": 5274,
      "kkon": 5275,
      "Ġå¥³": 5276,
      "ĠØ²ÙĬ": 5277,
      "Ġenne": 5278,
      "ç»ĩ": 5279,
      "å·²ç»ı": 5280,
      "ĠÚªÙĬÙĨ": 5281,
      "ĠØ§ØŃØªØ¬Ø§Ø¬ÙĬ": 5282,
      "ĠÙĨØ´Ø§ÙĨ": 5283,
      "Ø¬ÚıÙĩÙĨ": 5284,
      "ç¦»": 5285,
      "Ùĭ": 5286,
      "ĠÙĢÙĢÙĢ": 5287,
      "ĠÙĪÙĬÙºÙĪ": 5288,
      "ĠØ´ÙĪÙĤ": 5289,
      "ĠØªÙĦ": 5290,
      "æĸ¹éĿ¢": 5291,
      "à´°à´§": 5292,
      "ĠØ·ÙĪ": 5293,
      "à´²à´®": 5294,
      "Ġå¤©å¤©ä¹Ĳ": 5295,
      "ĠÙ¾Ø§Ú»ÙĬØ¡": 5296,
      "å¼ºå¥¸": 5297,
      "Ġà´īà´¦": 5298,
      "ants": 5299,
      "ĠØµØ§Ø¯ÙĤ": 5300,
      "ÛĶÛĶ": 5301,
      "å·¨": 5302,
      "ĠÙħÙĬÙħØ¨Ø±": 5303,
      "Ġå¤©å¤©èµ¢å½©ç¥¨": 5304,
      "ĠØ¯Ø¤": 5305,
      "Ù»Ø¦ÙĬ": 5306,
      "ĠÙħÙħÚªÙĨ": 5307,
      "è²»": 5308,
      "ĠeesmÃ¤r": 5309,
      "à´§à´¤": 5310,
      "ĠÙħÙĪÚª": 5311,
      "ĠØ¬ÙħØ§Ø¹Øª": 5312,
      "ĠÙĪÚĻ": 5313,
      "ä½Ĩæĺ¯": 5314,
      "ĠSelle": 5315,
      "ĠÙĨØ¸Ùħ": 5316,
      "Ġtaga": 5317,
      "âĢľ.": 5318,
      "Ġà´Ĳ": 5319,
      "åħ¨éĽĨ": 5320,
      "vi": 5321,
      "é«ĺæ¸ħ": 5322,
      "äººæ°ĳ": 5323,
      "ĠTart": 5324,
      "à´²à´¨": 5325,
      "ĠØ¯Ù»": 5326,
      "ĠÙħØ±Ø§Ø¯": 5327,
      "ĠÙģØ±Ø§Ùĩ": 5328,
      "ĠÙħØ¬Ø¨": 5329,
      "ĠÙĦÙĬÚ©Úª": 5330,
      "ĠÙħØ³Ø§Ùģ": 5331,
      "sion": 5332,
      "lit": 5333,
      "ĠÙĪØ§ÚĮ": 5334,
      "ĠÙħØªØ¹": 5335,
      "ĠÚ¾Ø±": 5336,
      "ĠØ¨ØŃØ«": 5337,
      "éĢĢ": 5338,
      "ĠØªØ§Ø±ÙĬØ®ÙĬ": 5339,
      "ĠÚĩÚıÙĬØ§": 5340,
      "ä¸įä¸Ń": 5341,
      "è§Ĵ": 5342,
      "98": 5343,
      "à´ªà´±": 5344,
      "à´ľà´¨": 5345,
      "Ġtulem": 5346,
      "ĠÚ¯Ùħ": 5347,
      "ari": 5348,
      "195": 5349,
      "pil": 5350,
      "æĹ©": 5351,
      "æŃ¢": 5352,
      "ÙħØŃ": 5353,
      "ĠØ¢Ø¯Ùħ": 5354,
      "ĠÙħÚ¯Ø±": 5355,
      "ikus": 5356,
      "ĠÙ¾ÙĪÙĦ": 5357,
      "ĠÙ¾Ø¦Ø¬ÙĬ": 5358,
      "ĠpÃµhj": 5359,
      "ĠØ®Ø±ÙĬØ¯": 5360,
      "mb": 5361,
      "ĠØ®Ø§Ø·": 5362,
      "Ġvii": 5363,
      "ĠÙĬØ§Ø±": 5364,
      "ĠÙħØŃØª": 5365,
      "Ġsuht": 5366,
      "à´¬à´¨": 5367,
      "Ġkasv": 5368,
      "æ²Ļ": 5369,
      "Ø±ÙĬØ²ÙĬ": 5370,
      "Ġteise": 5371,
      "åĸĦ": 5372,
      "Ġselg": 5373,
      "ÙĪÚ¯": 5374,
      "éĩįè¦ģ": 5375,
      "ĠÙħÙĬØ§ÙĨ": 5376,
      "Ø§Ú»Ø§": 5377,
      "umist": 5378,
      "ĠØ§ØµÙĪÙĦ": 5379,
      "äººå·¥": 5380,
      "Ġker": 5381,
      "ĠÙĤØ¨Ø±": 5382,
      "ĠØªÙģØµ": 5383,
      "ÙĬÙĨØ¯Ø³": 5384,
      "ĠÚ¯Ø±Ùħ": 5385,
      "ogr": 5386,
      "ÙĦÛĮØ§Úº": 5387,
      "ĠÚ¯Ø§Úı": 5388,
      "ĠØ¬Ø¯ÙĬØ¯": 5389,
      "ĠÙĨÙĬÚª": 5390,
      "iht": 5391,
      "éĽĨåĽ¢": 5392,
      "ĠØ¬ÙĪØ§ÙĨ": 5393,
      "ĠØ²ÛĮØ§Ø¯": 5394,
      "å½©éĩĳ": 5395,
      "usa": 5396,
      "ĠÚªÙħÙĬÙ½ÙĬ": 5397,
      "æ£ĭçīĮ": 5398,
      "Ġminu": 5399,
      "Ø§Ø¯ÙĨ": 5400,
      "ÙĪÛĮ": 5401,
      "ara": 5402,
      "Ġà´®à´²à´¯": 5403,
      "Ġjooksul": 5404,
      "ĠÚ©Ø³ÛĴ": 5405,
      "ĠØ±Ø§ÙĨ": 5406,
      "ĠÙ¾Øª": 5407,
      "Ġèħ¾è®¯": 5408,
      "ĠmÃ¤ng": 5409,
      "Ġosa": 5410,
      "jÃ¤r": 5411,
      "æ¼ı": 5412,
      "ÙħÙĪØ¯": 5413,
      "ĠØ§Ø¨ÙĪ": 5414,
      "??": 5415,
      "æĸĹ": 5416,
      "ĠÚ©Ø±ÙĪ": 5417,
      "ĠEuroopa": 5418,
      "éĽ¶": 5419,
      "ĠÙĪÚıÙĨ": 5420,
      "ĠØ¹ÙĦØ§ÙĪÙĩ": 5421,
      "eta": 5422,
      "åŁ¹": 5423,
      "ĠÐ": 5424,
      "ĠÙ¾Ø±ÙĬØ³": 5425,
      "ĠÙħØ±Ø²Ø§": 5426,
      "!!": 5427,
      "ĠÙħÙĬÚĨ": 5428,
      "å·¥ç¨ĭ": 5429,
      "å©ļ": 5430,
      "à´¤à´ª": 5431,
      "å¤§çļĦ": 5432,
      "ĠÃ¼m": 5433,
      "æĬķèµĦ": 5434,
      "Ġsaa": 5435,
      "ĠÚ¯ÙĪØ±ÙĨØ±": 5436,
      "Ġà´¨à´Łà´ª": 5437,
      "ĠjÃ¤t": 5438,
      "Ù½ÙĪÙĨ": 5439,
      "ĠÚĨÙĪÙĬ": 5440,
      "asse": 5441,
      "ĠØ§ÙĦÙĦÛģ": 5442,
      "ĠØ§Ú³ÙĪØ§Ú»ÙĨ": 5443,
      "ĠØ¨ÙĬØª": 5444,
      "ĠØ¨ÛģÙĪÚº": 5445,
      "ä¼Ĭ": 5446,
      "ĠÙ¿ÙĪØ±ÙĪ": 5447,
      "Ø§Ø¦ÙĬÙĨØ¯ÚĻ": 5448,
      "è¿½åı·": 5449,
      "æĪĲä¸º": 5450,
      "å®ĺæĸ¹ç½ĳç«Ļ": 5451,
      "ÚĻÚª": 5452,
      "Ġnoor": 5453,
      "Ġå°ıè¯´": 5454,
      "ana": 5455,
      "sid": 5456,
      "å¸Į": 5457,
      "ater": 5458,
      "ĠØ«ÙĤ": 5459,
      "ĠÚĢØ±Ù¾ÙĪØ±": 5460,
      "Û°": 5461,
      "Ø¹ÛĴ": 5462,
      "æī¿": 5463,
      "ĠÙ¾ÙĩÙĦÙĪ": 5464,
      "Ġà´īà´¤": 5465,
      "Ø§ØªÙĪ": 5466,
      "ĠÙħØ¬ÙħÙĪ": 5467,
      "éĩįåºĨæĹ¶æĹ¶å½©": 5468,
      "ç¼ĸ": 5469,
      "äºĶæľĪå¤©": 5470,
      "ĠØ§ÙĨØªØ¸Ø§Ø±": 5471,
      "egu": 5472,
      "æĭ¿": 5473,
      "æĢİä¹Īçİ©": 5474,
      "ĠÚ¯ÙĩÙĪ": 5475,
      "ĠØ¨Ú©": 5476,
      "ĠvÃµtt": 5477,
      "Ġà´®à´°": 5478,
      "ØµÙĪÙħ": 5479,
      "åħ´": 5480,
      "ĠØ®ÙĪØ§Ø¬": 5481,
      "ĠÙ¾Ø§ÙĨ": 5482,
      "ĠØ³Ú©Ú¾": 5483,
      "ĠØ³ÙĨÚ¯Øª": 5484,
      "ĠÚªÙĦØ§Ø³": 5485,
      "ĠÙħØ³ÛĮØŃ": 5486,
      "ĠÚĮØ§Ø±": 5487,
      "Ù¾ÛĮ": 5488,
      "Ġà´ķà´²": 5489,
      "ĠÙ¾Ø±ÚıÙĬÙĩÙĬ": 5490,
      "ĠØ³Ø·ØŃ": 5491,
      "ĠØ³ÙĨÚĮÙĪ": 5492,
      "ĠØ§Ù½": 5493,
      "Ġehit": 5494,
      "ajate": 5495,
      "Ġà´ħà´µà´¸": 5496,
      "ÚĨØ§": 5497,
      "ç¦ıåĪ©å½©ç¥¨": 5498,
      "Ġà´²à´ķ": 5499,
      "ĠØ±ÙĩÙĨØ¯": 5500,
      "ĠÚªØ±Ø§ÙĬÙĪ": 5501,
      "ĠnÃ¤d": 5502,
      "éªļ": 5503,
      "emist": 5504,
      "ĠÚĨØ¦ÙĨ": 5505,
      "luse": 5506,
      "ĠØ¯ÚªØ§ÙĨ": 5507,
      "ĠÙħÙĪØ±": 5508,
      "lu": 5509,
      "mete": 5510,
      "åķª": 5511,
      "ç®Ģ": 5512,
      "è«": 5513,
      "Ú¯Ùĩ": 5514,
      "ĠØ§ÙĨÚ¯Ø±ÙĬØ²ÙĨ": 5515,
      "è¯ī": 5516,
      "Ġaeg": 5517,
      "2014": 5518,
      "esi": 5519,
      "min": 5520,
      "ĠØ¹ÙħØ§Ø±Øª": 5521,
      "ĠÚĦØ§Ùħ": 5522,
      "Ø¨Ø±ÙĨ": 5523,
      "Ġseis": 5524,
      "ĠØ¬ÙĪØ§Ø¨Ø¯Ø§Ø±": 5525,
      "ĠØ¬Ø§Ø¦Ø²": 5526,
      "ĠØ§Ùº": 5527,
      "å®īåįĵ": 5528,
      "amet": 5529,
      "ĠÙĩØ§Ø¦ÙĪØ³": 5530,
      "Ġolema": 5531,
      "ĠØ±ÙĪØ³": 5532,
      "åºŃ": 5533,
      "Ø§Ø¤ÙĨ": 5534,
      "38": 5535,
      "å¥½çļĦ": 5536,
      "ĠØ¢ÙħØ±ÙĬÚªÙĬ": 5537,
      "ĠÙħÙĬØ¯Ø§ÙĨ": 5538,
      "ĠØ®Ø§ÙħÙĪ": 5539,
      "ç»Ĩ": 5540,
      "ĠÚĨÚªØ§": 5541,
      "ĠØ±Ù¾ÙĬØ§": 5542,
      "ĠÙĨÙĬØ¨": 5543,
      "ĠØ§ØªØ±": 5544,
      "htud": 5545,
      "ĠØ°ÙĪØ§ÙĦ": 5546,
      "ĠÚ¯ÛĮ": 5547,
      "ĠÚ¾ÙĪÙĨ": 5548,
      "ĠÙħØ§Ø±ÚĨ": 5549,
      "ĠØ´Ùħ": 5550,
      "ç»ĳ": 5551,
      "åľĸçīĩ": 5552,
      "éĽ»å½±": 5553,
      "ĠØ¬Ø¯ÙĪ": 5554,
      "åİĤ": 5555,
      "ĠØ³Ø±Ú¯": 5556,
      "ĠØ§ÙħØ±ÛĮ": 5557,
      "ÙħÚ»": 5558,
      "ĠÙĨØ¬": 5559,
      "Ġä¸Ģ": 5560,
      "ĠØ±Úª": 5561,
      "à´¤à´¯": 5562,
      "ÛģÙĪØ±": 5563,
      "Ø¯Ø¯": 5564,
      "ĠØ®ÙĪÙģ": 5565,
      "æĺ¯ä¸Ģ": 5566,
      "èĻİ": 5567,
      "ĠÙĨÙħØ§Ø¦": 5568,
      "Ġà´ĩà´µ": 5569,
      "ĠÙħØ§ÙĩØ±": 5570,
      "Ġå¤©å¤©ä¸Ńå½©ç¥¨å¾®ä¿¡": 5571,
      "ĠØªÚªÙĦÙĬÙģ": 5572,
      "ĠÚıÚ©Ú»": 5573,
      "ÙģÙĤØ§Ø±": 5574,
      "ĠÚĮØ±ØªÙĬØ¡": 5575,
      "ĠÚĨÚªÙĬ": 5576,
      "å°ģ": 5577,
      "Ġäºļæ´²": 5578,
      "à´°à´ŀ": 5579,
      "çĻ»éĻĨ": 5580,
      "Ã¤n": 5581,
      "ç¶ĵ": 5582,
      "Ġkar": 5583,
      "ajad": 5584,
      "ĠÚªÙĬØªØ±Ø§": 5585,
      "ĠØ§Ø¯Ø§ÚªØ§Ø±": 5586,
      "Ø´Ø§ÙĩÙĩ": 5587,
      "2013": 5588,
      "Ġç¾İå¥³": 5589,
      "èģĬå¤©": 5590,
      "çı¾": 5591,
      "ÙĦÙĬØ§": 5592,
      "ĠØ±Ø³Ùħ": 5593,
      "Ãµn": 5594,
      "ĠØ§ÙĬØ¦Ø±": 5595,
      "ĠØªØ¨Ø¯ÙĬ": 5596,
      "å§¨": 5597,
      "aeg": 5598,
      "åĲĮæĹ¶": 5599,
      "ĠÙħÙĤØ§Ùħ": 5600,
      "ĠØ³ÙĬÚªÚĻÙĪ": 5601,
      "æīĢä»¥": 5602,
      "éĵ¾æİ¥": 5603,
      "Ú¯ÙĨ": 5604,
      "æĤ¨": 5605,
      "Ø§ØŃØª": 5606,
      "åĿļ": 5607,
      "ĠÚĮÙĬØ§ÙĨ": 5608,
      "ilt": 5609,
      "æ±½è½¦": 5610,
      "ĠÙ¾ÙĪÙĨØ¯ÙĬ": 5611,
      "Ġtek": 5612,
      "ĠÙħØ¹ØµÙĪÙħ": 5613,
      "Ġvaat": 5614,
      "ori": 5615,
      "ĠØ´Ø±Ø·": 5616,
      "oble": 5617,
      "åħŃåĲĪå½©": 5618,
      "Ġeur": 5619,
      "ĠØ´Ø®ØµÙĬØª": 5620,
      "åı¯éĿłåĲĹ": 5621,
      "å¤®": 5622,
      "ĠØ§ØªØŃ": 5623,
      "ho": 5624,
      "ĠÙĪÚĪØ§": 5625,
      "à´Ĺà´Ļ": 5626,
      "ĠÙħØ¬Ø¨ÙĪØ±": 5627,
      "ÙĨÚ¯ÙĬ": 5628,
      "34": 5629,
      "à´Łà´®": 5630,
      "æĹı": 5631,
      "imist": 5632,
      "ĠØ±Ø§ÙĨØ¯": 5633,
      "ĠÙĪÙĪÙ½": 5634,
      "ĠÙĤØ·": 5635,
      "çĸĨ": 5636,
      "éĶĭ": 5637,
      "éĹ»": 5638,
      "Ú¾ÙĬÙĨ": 5639,
      "ä¾ĭ": 5640,
      "eet": 5641,
      "ĠØ§ØªØ§ÙĨ": 5642,
      "ĠÙĨÙĪØ§Ø¨": 5643,
      "ä¼¼": 5644,
      "ÙĬØ¹": 5645,
      "ĠÙħÙĩÙĦ": 5646,
      "Ġæ¬§ç¾İ": 5647,
      "æŁ¥è¯¢": 5648,
      "à´±à´ª": 5649,
      "endada": 5650,
      "ä»¥åıĬ": 5651,
      "Ø§ÙĩÙĪ": 5652,
      "Ø¨ÙĨØ¯": 5653,
      "ĠÚĬØ§Ø¦": 5654,
      "ĠØ§Ø·ÙĦ": 5655,
      "ĠÙħØŃÙħÙĪØ¯": 5656,
      "ĠØ¹ÙĦØ§Ø¬": 5657,
      "åŃ©åŃĲ": 5658,
      "ĠØ§ÙĪÚ¾Ø§ÙĨ": 5659,
      "Ġéĩĳ": 5660,
      "à´µà´²": 5661,
      "Ġsp": 5662,
      "à´¨à´µà´°": 5663,
      "ĠØŃØ¬": 5664,
      "ĠØ¸ÙĦÙħ": 5665,
      "Ã¤h": 5666,
      "å¿µ": 5667,
      "ĠØ±ÙĬÙĨ": 5668,
      "åĽłä¸º": 5669,
      "ĠØ¢Ú»ÙĬ": 5670,
      "ĠØ³ÙĨÚĢ": 5671,
      "Ġà´İà´´": 5672,
      "ĠÚĬÙĪ": 5673,
      "ĠØªØµÙĪÙĬØ±": 5674,
      "ĠÙĪÚĩ": 5675,
      "ĠSam": 5676,
      "ĠæĢİä¹Ī": 5677,
      "lo": 5678,
      "èµļéĴ±": 5679,
      "Ø®ÙĬ": 5680,
      "ĠØ´ÙĬÙĪÙĨ": 5681,
      "ĠÚ¯Ø°Ø±ÙĬ": 5682,
      "æľīéĻĲåħ¬åı¸å®ĺç½ĳ": 5683,
      "ĠÙħØ³Ø¦ÙĦÙĨ": 5684,
      "ĠØ³Ø¯Ø§Ø¦ÙĬÙĨ": 5685,
      "æĥħèī²": 5686,
      "èķ": 5687,
      "å®ŀåĲį": 5688,
      "åįĪ": 5689,
      "ĠÚ©Ú»": 5690,
      "ĠØ¨Ø§ÙĤ": 5691,
      "ĠØ²ÛĮØ§Ø¯Ûģ": 5692,
      "Ġà´İà´¸": 5693,
      "Ġloom": 5694,
      "Ø§ÚĦ": 5695,
      "Ø¨ÙĪØª": 5696,
      "ĠØ§ÙĨÚ¾ÙĨ": 5697,
      "ĠÙ¾Ø±ÙĬØ´Ø§ÙĨ": 5698,
      "utse": 5699,
      "å¤ļä¹ħ": 5700,
      "åħĳå¥ĸ": 5701,
      "ĠØ¯ÙĬÙĨ": 5702,
      "Ġsisse": 5703,
      "Ġlii": 5704,
      "åħ¨åĽ½": 5705,
      "ĠÙĪØ§ÙĦØ¯": 5706,
      "Ġà´ħà´¯": 5707,
      "ĠÙģØ§Ø¦Ø¯ÙĪ": 5708,
      "ĠØ·ÙĦØ¨": 5709,
      "kur": 5710,
      "Ú¯Ø²": 5711,
      "è¿ĺæĺ¯": 5712,
      "Ġann": 5713,
      "Ġsaada": 5714,
      "éĥ½æĺ¯": 5715,
      "ĠÙģØ§Ø¦Ø±": 5716,
      "ĠØ§ÙĨØªÙĩØ§Ø¦ÙĬ": 5717,
      "Ġà´ĵà´°": 5718,
      "à´ļà´°": 5719,
      "ÙħÙ¾": 5720,
      "æĴ¸": 5721,
      "ĠÙºØ§ÙĩÚ»": 5722,
      "çķĻ": 5723,
      "ĠÚĬÙ¾": 5724,
      "ĠÙĨØ«Ø§Ø±": 5725,
      "ĠØ§ÙĬÙĦ": 5726,
      "Ćï¼Į": 5727,
      "è¦ģæ±Ĥ": 5728,
      "ĠÙ¾Ø§Ø±ÙĦÙĬ": 5729,
      "åĪ°äºĨ": 5730,
      "ĠØ±Ø§ÚĦ": 5731,
      "ĠØ¯Ø§Ø±": 5732,
      "ĠsÃ¤": 5733,
      "ĠÙ¾Ø±ÙĪÙģ": 5734,
      "ä¸½": 5735,
      "ä¸Ńæĸĩ": 5736,
      "ĠØ§ÛĮÛģÙĨØ§Úº": 5737,
      "åı¯ä¿¡": 5738,
      "miseks": 5739,
      "ĠØ±Ø³ÙĪÙĦ": 5740,
      "à´±à´¨": 5741,
      "liit": 5742,
      "ä¹¡": 5743,
      "ĠvÃ¤Ã¤r": 5744,
      "unkt": 5745,
      "ç§Ģ": 5746,
      "ä¸Ńå¤§å¥ĸ": 5747,
      "Ú¯ÙĬØ±": 5748,
      "Ġpakk": 5749,
      "Ġmet": 5750,
      "Ø¬ÙĩÙĩ": 5751,
      "Ø±ÙĪØ²": 5752,
      "ÚªØ§Ø±ÙĨ": 5753,
      "Ġà´µà´³à´°": 5754,
      "ĠNe": 5755,
      "endab": 5756,
      "ĠØ¬Ø§ÙĨØ¯ÛĴ": 5757,
      "ased": 5758,
      "æĹłæ³ķ": 5759,
      "ĠÙĩÙĦÙĨØ¯ÚĻ": 5760,
      "çĮľ": 5761,
      "Ġkeht": 5762,
      "æ½®": 5763,
      "åįĬ": 5764,
      "ĠØ®Ø§ÙĦÙĬ": 5765,
      "ĠnÃ¤iteks": 5766,
      "ÙħØ§ÙĨÙĬ": 5767,
      "ç¦ģ": 5768,
      "ï»": 5769,
      "ÚªÙĬÙĨ": 5770,
      "imesed": 5771,
      "ĠØ§ÙĨÚ¯Ø±ÙĬØ²ÙĬ": 5772,
      "ĠÙħÙĤØ§Ø¨ÙĦÙĬ": 5773,
      "è±¹åŃĲ": 5774,
      "çĶŁäº§": 5775,
      "æĥħåĨµ": 5776,
      "à´İà´¨": 5777,
      "çıŃ": 5778,
      "åĲ¬": 5779,
      "ĠÚªØ§ÙĨÙĩ": 5780,
      "éĺħè¯»": 5781,
      "éĸĭ": 5782,
      "lan": 5783,
      "Ø²Ø§Ø¯": 5784,
      "omm": 5785,
      "ĠÙ¾ÙĦÙĬ": 5786,
      "37": 5787,
      "ĠÙĩÚªÚĻÙĪ": 5788,
      "ĠÙħØ§Øª": 5789,
      "Ã¤l": 5790,
      "oos": 5791,
      "åĵį": 5792,
      "Ġparem": 5793,
      "ĠÚĨÙĨÚ¯": 5794,
      "ĠÚªÙĪÙ½": 5795,
      "Ú¯Ø§ÙĩÙĩ": 5796,
      "obleem": 5797,
      "ĠÙ»ÚĮÙĦ": 5798,
      "àµ¼à´¨": 5799,
      "ĠØªØŃÙĤÙĬÙĤ": 5800,
      "ĠÙħÙĨØ¸ÙĪØ±": 5801,
      "ĠØ¯Ø³": 5802,
      "Ø§ÚªÙĪ": 5803,
      "ĠÙ¾ÙĪÙĬØ§ÙĨ": 5804,
      "ĠØ¹Ø±ØµÙĬ": 5805,
      "åħ½": 5806,
      "Ø·Ø§": 5807,
      "ĠØ±ÙĩÙĨØ¯Ø§": 5808,
      "Ġå½©ç¥ŀäºīéľ¸æľī": 5809,
      "Ġà´µà´´": 5810,
      "ĠÚ©Ø§Ø¦ÙĬ": 5811,
      "åĵĪ": 5812,
      "ĠÙĤÙĬØ¯": 5813,
      "Ġå¤§åıĳæĹ¶æĹ¶å½©æĺ¯": 5814,
      "ĠÚıÙĬÙĨØ¯Ø§": 5815,
      "ation": 5816,
      "Ãµl": 5817,
      "ĠÙħØ¯Ø±": 5818,
      "åĽ´": 5819,
      "ĠØ§ÙĨÚªØ§Ø±": 5820,
      "ĠjÃµud": 5821,
      "åĲ¸": 5822,
      "idest": 5823,
      "è¡Ĺ": 5824,
      "ÙĬØ±Øª": 5825,
      "Ġtoot": 5826,
      "ĠÙĨÙĨÚĬ": 5827,
      "Ġim": 5828,
      "å¼Ģå§ĭ": 5829,
      "mast": 5830,
      "ĠØ¨ÙĬÙĪ": 5831,
      "ï»¿": 5832,
      "ÚĻÙĬÙĪ": 5833,
      "æĢ§çĪ±": 5834,
      "ĠÚ©ÙĪÙ½": 5835,
      "ĠkÃµrg": 5836,
      "è´§": 5837,
      "ĠØ¹Ø¬ÙĬØ¨": 5838,
      "à´·à´®": 5839,
      "åĵģçīĮ": 5840,
      "jas": 5841,
      "ÚĬØ§": 5842,
      "çİ°åľ¨": 5843,
      "ĠØ¬ÙĩÙĨ": 5844,
      "ĠØ´Ûģ": 5845,
      "ĠØ°ÙĪØ§ÙĦÙģÙĤØ§Ø±": 5846,
      "Ġkohal": 5847,
      "Ø±ØŃØ§ÙĦ": 5848,
      "Ġäºº": 5849,
      "ĠÙĩÙģ": 5850,
      "ĠÚĨÚĻ": 5851,
      "ĠÙĨÙĩØ§ÙĬØª": 5852,
      "ĠØ®ÙĬØ§ÙĦÙĨ": 5853,
      "ĠØ´Ø±ÚªØª": 5854,
      "Ġvahel": 5855,
      "éĿ©": 5856,
      "Ġtood": 5857,
      "Ġtut": 5858,
      "Ġà´ªà´²": 5859,
      "ĠÙĩØ§Ø±": 5860,
      "Ġisik": 5861,
      "ĠØ¨Ø§Ø±ÛĴ": 5862,
      "éķĩ": 5863,
      "æĦıæĢĿ": 5864,
      "ĠØ³Ø¹ÙĪ": 5865,
      "ĠÙĩØ¦Ø§Ø³ÙĬÙĨ": 5866,
      "åħ³ç³»": 5867,
      "ĠÚĨÙĪÚĮØ±ÙĬ": 5868,
      "ĠÙ»ÚĮÚ»": 5869,
      "Ġpuhul": 5870,
      "èĢģå¸Ī": 5871,
      "ÚªÙ½": 5872,
      "å©·": 5873,
      "à´Ĳ": 5874,
      "Ġå°ı": 5875,
      "ĠØ³Ø¦ÙĪ": 5876,
      "Ġà´İà´Ł": 5877,
      "ĠÙĦØŃ": 5878,
      "ĠØ³Ø§Ø¦ÙĨØ³": 5879,
      "è½»": 5880,
      "ĠØ§ÙĪÙĦØ§Ø¯": 5881,
      "åĿĩ": 5882,
      "Ú¯ÙĦ": 5883,
      "ĠØ§ÙĪÚĨØªÙĪ": 5884,
      "hu": 5885,
      "ĠåĮĹäº¬èµĽè½¦": 5886,
      "ĠÙħÚ¯Ø±ÙĪÚº": 5887,
      "à´ļà´¨": 5888,
      "ĠÙħØ§Ø±ÙĬ": 5889,
      "ĠâĢ¢": 5890,
      "Ġà´ķà´¥": 5891,
      "Ġosal": 5892,
      "ÙĩÙĨØ¯ÚĻ": 5893,
      "çĩ": 5894,
      "ĠØ¨Ø§Ø¯Ø´Ø§Ûģ": 5895,
      "ĠÙħØ´ÚªÙĦ": 5896,
      "èģĶç³»": 5897,
      "ĠØµØ¯ÙĬ": 5898,
      "ÛĮØ±Ûģ": 5899,
      "ç´¢": 5900,
      "Ġå¹¿": 5901,
      "éĢĤ": 5902,
      "ØµÙĪØµ": 5903,
      "otsi": 5904,
      "ĠØ®ÙĪØ´ÙĬ": 5905,
      "å·Ŀ": 5906,
      "ĠÚ©Ú¾ÛĮ": 5907,
      "ĠmÃ¤n": 5908,
      "ĠØªÙĩØ°": 5909,
      "Ġun": 5910,
      "ĠØ§Ø¯ÙĬØ¨": 5911,
      "ĠØ§ÙĨÚĬÙĬØ§": 5912,
      "Ġkur": 5913,
      "ĠØ¢ÙĩÙĬÙĪ": 5914,
      "à´¸à´®": 5915,
      "ĠÃ¶": 5916,
      "ros": 5917,
      "uta": 5918,
      "èĪŀ": 5919,
      "Ø§ÙĬÙĪÙĨ": 5920,
      "ĠÚ¾ÙĬÙĪ": 5921,
      "ĠØ§ÛĮÙĨØ§Úº": 5922,
      "Ġtug": 5923,
      "ĠÙħØ§Ø±Ø¬ÙĬ": 5924,
      "ĠÚĨÚĻÙĩÙĬ": 5925,
      "ĠÙĦÛĮÛģ": 5926,
      "ĠnÃ¤it": 5927,
      "Ġlihtsalt": 5928,
      "à´°à´¹": 5929,
      "åĲĪä½ľ": 5930,
      "elikult": 5931,
      "Ġriik": 5932,
      "ĠØµØŃØª": 5933,
      "ĠØ¯Ø¤Ø±": 5934,
      "ĠØ¬ÙĩÚĻØ§": 5935,
      "å¯¼èĪª": 5936,
      "ĠÙ¾Ø³": 5937,
      "ĠØªÙģØµÙĬÙĦ": 5938,
      "ĠØµÙĪØ¨ÙĬ": 5939,
      "à´ªà´£": 5940,
      "PP": 5941,
      "ĠÚ©ØªØ§Ø¨": 5942,
      "åĪ·": 5943,
      "ĠEestis": 5944,
      "Ãµik": 5945,
      "çĪ¶": 5946,
      "à´¯à´®à´¨": 5947,
      "48": 5948,
      "ĠØ³Ø§Ú»Ø³": 5949,
      "æ´ŀ": 5950,
      "esid": 5951,
      "äº®": 5952,
      "æĥł": 5953,
      "æĿĢ": 5954,
      "ĠØªÙĨÙĩÙĨÚªØ±ÙĬ": 5955,
      "ĠÚªØ§ÙħÙĬØ§Ø¨ÙĬ": 5956,
      "ĠØ³ÙĦØ·Ø§ÙĨ": 5957,
      "ĠÙħØ³Ø¦ÙĦÙĪ": 5958,
      "é¹": 5959,
      "Å¾": 5960,
      "ĠØ¨Ø±Ø¯": 5961,
      "jat": 5962,
      "ĠØ³ÚĥØ§Ú»Ù¾": 5963,
      "ĠÙ¾Ø¦Ø³Ø§": 5964,
      "ĠÚªØ§Ø¨Ùĩ": 5965,
      "ÛĮÙĨÙĪÚº": 5966,
      "åĽ½äº§": 5967,
      "aat": 5968,
      "ĠÚ³Ú»": 5969,
      "æ¹ĸ": 5970,
      "ume": 5971,
      "ĠÚ©Ø§Ø¦Ú»": 5972,
      "Ġà´¶à´°": 5973,
      "ĠÚıÙĬÙĨÚ¾ÙĨ": 5974,
      "Ù½Ø±ÙĪÙĦ": 5975,
      "Ù¹Ú¾": 5976,
      "å²Ľ": 5977,
      "à´¤à´ķ": 5978,
      "åŁİå¸Ĥ": 5979,
      "ĠØ±ÙĤÙħ": 5980,
      "èĪĩ": 5981,
      "éĻį": 5982,
      "à´Łà´²": 5983,
      "ĠØ§ÙĨØ¹Ø§Ùħ": 5984,
      "Ø§ÙĨÛĴ": 5985,
      "Ġprot": 5986,
      "ĠØ§Ø³Ù¾": 5987,
      "ĠØ§ÙĨÚ¯Ø±ÛĮ": 5988,
      "ç¤¾åĮº": 5989,
      "à´°à´³à´¤": 5990,
      "imis": 5991,
      "atiiv": 5992,
      "ĠØµØ¯": 5993,
      "ĠÛĮÛģ": 5994,
      "æīĢæľī": 5995,
      "ĠØ±Ù¿": 5996,
      "ÚĳÛĮØ§Úº": 5997,
      "å®¢æĪ·ç«¯": 5998,
      "çºª": 5999,
      "ĠØ´ÚªÙĦ": 6000,
      "Ġjal": 6001,
      "ĠØŃØ§Ø¬ÙĬ": 6002,
      "èĸ": 6003,
      "ĠØ´ÛĮ": 6004,
      "igi": 6005,
      "è¡¨ç¤º": 6006,
      "vahel": 6007,
      "ĠØ²Ø±": 6008,
      "ĠÙºÙĬÚª": 6009,
      "uud": 6010,
      "ĠÚ¯Ø°Ø±": 6011,
      "ä¸¥": 6012,
      "ĠØ¢ÙĩØ³ØªÙĬ": 6013,
      "ĠØ¬Ø±ÙħÙĨ": 6014,
      "ĠØ´Ø§Ûģ": 6015,
      "ĠØ³Ú¯ÙĩÙĪ": 6016,
      "Ø§Ø²ÙĪ": 6017,
      "Ø±ÛĮÙĤ": 6018,
      "ĠØ³ÙĦØ³ÙĦÙĪ": 6019,
      "æī¹": 6020,
      "ĠÙĨØ§ÙĩÙĨ": 6021,
      "çħ§çīĩ": 6022,
      "å¼Ģåıĳ": 6023,
      "çİĦ": 6024,
      "åľ¨ç·ļ": 6025,
      "ĠØ¨ÙĪÛģØª": 6026,
      "ĠÙĦØŃØ§Ø¸": 6027,
      "xx": 6028,
      "Ø¢Úº": 6029,
      "ĠÚªØ§ÙĨÙģØ±ÙĨØ³": 6030,
      "ÙĬÙ½": 6031,
      "å¾ħ": 6032,
      "Ø§Ø¦Ø¬ÙĬ": 6033,
      "ĠØ¨Ø¬Ø§Ø¡": 6034,
      "äº§ä¸ļ": 6035,
      "ĠØ§Ø±Ø¯ÙĪ": 6036,
      "ÚĬÙĨÚ¯": 6037,
      "é¼": 6038,
      "ĠØ§Ø¶": 6039,
      "ĠØªÙĤØ±ÙĬØ¨": 6040,
      "ĠØ®ÙĪØ§ÙĩØ´": 6041,
      "Ø±ÙĪÙģ": 6042,
      "Ġkaks": 6043,
      "æĥĳ": 6044,
      "Ġà´¨à´Łà´ķ": 6045,
      "ĠÚĨÚĳÚ¾": 6046,
      "ĠØ¬ÚıÚ¾ÙĨ": 6047,
      "ĠØ§Ø³Ù½ÙĬØ´ÙĨ": 6048,
      "Ġhinn": 6049,
      "ĠÙ¾ÙĬÙĦ": 6050,
      "è¿·": 6051,
      "eni": 6052,
      "çļ®": 6053,
      "ĠØ±ÙĪØ´": 6054,
      "ĠØ§Ù¿Ùħ": 6055,
      "ĠkÃ¼sim": 6056,
      "æ¼«çĶ»": 6057,
      "Ġenda": 6058,
      "ĠØ¨Ø§Ø¨Ø§": 6059,
      "usse": 6060,
      "ä»ħ": 6061,
      "ilist": 6062,
      "çĽ®åīį": 6063,
      "Ġmeeld": 6064,
      "Ø§Ú»ÙĬÙĨ": 6065,
      "Ġæĥ": 6066,
      "ĠÚªØ§ÙħØ±ÙĬÚĬ": 6067,
      "ĠØ¹ÙĦØ§Ùħ": 6068,
      "ĠÙĦÚª": 6069,
      "è¿ľ": 6070,
      "ĠÚªØ§Ø±ÚªÙĨÙĨ": 6071,
      "ĠØ´ÚªØ³Øª": 6072,
      "Ø®Ø±": 6073,
      "ĠÚ³Ø§ÙĦÙĩØ§Ø¦Ú»": 6074,
      "ç´§": 6075,
      "çľŁå®ŀ": 6076,
      "åĩºç¥¨": 6077,
      "ä½Ľ": 6078,
      "ĠØ¨ÛĮØ§ÙĨ": 6079,
      "ĠÙĨØ§Ø±": 6080,
      "ĠÙĩÙ¿ÙĨ": 6081,
      "atav": 6082,
      "Ġkorrald": 6083,
      "ĠØ±Ø³ØªÙĪ": 6084,
      "cc": 6085,
      "ÛģÙħ": 6086,
      "Ġsise": 6087,
      "å¤§å®¶": 6088,
      "è¯±": 6089,
      "ĠØ§Ø¹ØªØ±": 6090,
      "ĠÙħÙĪØ¶ÙĪØ¹": 6091,
      "ĠØ³Ú©Ø¯Ø§": 6092,
      "ĠMar": 6093,
      "ĠÙĬÙĪÙĨÙĬÙĪØ±Ø³Ù½": 6094,
      "ĠpÃ¼": 6095,
      "ĠlÃ¤b": 6096,
      "Ø²ÙĬØ´ÙĨ": 6097,
      "ĠØ³ÙħÙĪØ±ÙĨ": 6098,
      "ĠÙ¾Ú¯": 6099,
      "ĠÚıÙĨÙĦ": 6100,
      "èģļ": 6101,
      "ĠØ§ÙĤØ¨Ø§ÙĦ": 6102,
      "ĠØºÙĪØ±": 6103,
      "éĵģ": 6104,
      "ĠÙĨØµ": 6105,
      "Ġèĭ¹æŀľ": 6106,
      "à´Ĺà´®": 6107,
      "ĠÚĢÚ³": 6108,
      "çĻ¾åº¦": 6109,
      "ĠÙħÙĪØ¬ÙĪØ¯Ùĩ": 6110,
      "ĠØ¨Ú»Ø§ÙĬÙĪ": 6111,
      "Ú©Ø§ÙĨ": 6112,
      "nt": 6113,
      "ç»Ħç»ĩ": 6114,
      "ä¸´": 6115,
      "Ġjuurde": 6116,
      "Ġà´ªà´Ļ": 6117,
      "Ġlu": 6118,
      "ĠvÃµr": 6119,
      "oori": 6120,
      "ĠPr": 6121,
      "ÙĪÙĦÛĮ": 6122,
      "åĨ°": 6123,
      "Ġå¤§åıĳå®ĺç½ĳ": 6124,
      "ĠØµØ¯Ø§Ø±": 6125,
      "Ġsoo": 6126,
      "Ġreg": 6127,
      "Ġà´ªà´ł": 6128,
      "aid": 6129,
      "Ġproj": 6130,
      "ĠØ³ÙĪÚĨÙĬ": 6131,
      "à´®à´°": 6132,
      "ØªÙĩ": 6133,
      "çĪĨ": 6134,
      "ãĢĳ": 6135,
      "ĠmÃµist": 6136,
      "ĠØ¢Ø³Ø§ÙĨ": 6137,
      "met": 6138,
      "Ġus": 6139,
      "éĤĦ": 6140,
      "meid": 6141,
      "ĠÙĨØ§Ø²": 6142,
      "teer": 6143,
      "liku": 6144,
      "ÚĢÙĬ": 6145,
      "ĠÚ©Ù½": 6146,
      "à´·à´¯": 6147,
      "ĠÙģØ±Ø¯": 6148,
      "ĠØ´Ø§ÙĬØ¹": 6149,
      "Ġakt": 6150,
      "è®²": 6151,
      "è§ĦåĪĻ": 6152,
      "Ø¬ÙĩØ¯": 6153,
      "Ø±ÙĪØ´": 6154,
      "åįĸ": 6155,
      "ĠØ¢ÙĦÛĴ": 6156,
      "åĳ³": 6157,
      "ĠØ§Ø¯Ø§Ø±ÙĬ": 6158,
      "Ġega": 6159,
      "ĠæŃ": 6160,
      "æ²Ĵ": 6161,
      "ĠÙħØ±ØŃÙĪÙħ": 6162,
      "ĠÙģØ±Ø§ÙĩÙħ": 6163,
      "å±Ĥ": 6164,
      "æ´¾å¥ĸ": 6165,
      "ĠØ¨ÙĨØ¯ÙĪ": 6166,
      "Ġà´ªà´£": 6167,
      "ĠØ§ÙĪØ±": 6168,
      "ĠÙħÙĨØ¸Ø±": 6169,
      "Ù»ÙĬ": 6170,
      "umis": 6171,
      "ĠÙĬÙĪØ±Ù¾": 6172,
      "ĠÙĪØ¯Ú¾": 6173,
      "ĠØ§Ø·ÙĦØ§Ø¹": 6174,
      "ĠØ¬Ø¬": 6175,
      "ĠØ·Ø§ÙĦ": 6176,
      "ä¹İ": 6177,
      "ĠÙĦÚ³ÙĦ": 6178,
      "ĠØŃØ§Úª": 6179,
      "ĠÚªÙĨÚĮ": 6180,
      "ĠÚªØ§ÙĪÚĻ": 6181,
      "ĠÚĦÚ»Ø§": 6182,
      "Ø§ÙĬØ§": 6183,
      "ĠØ§ÙĨÚ¯ÙĦ": 6184,
      "å¸Ŀ": 6185,
      "ĠÙ¾ÙºÙĬØ§ÙĨ": 6186,
      "ĠtÃ¼": 6187,
      "ĠNE": 6188,
      "uts": 6189,
      "ĠKT": 6190,
      "ĠØ¨ÙĩØ±ØŃØ§ÙĦ": 6191,
      "ÙĬÚªØ§Ø±": 6192,
      "ĠÙħØ§Ú»Ú¾ÙĪ": 6193,
      "ä¹Łæĺ¯": 6194,
      "Ġà´ħà´¸": 6195,
      "ĠØ¬ÙĩØ§ÙĨ": 6196,
      "Ġlo": 6197,
      "ĠØ±Ø¬": 6198,
      "Ġolemas": 6199,
      "ĠØ¬ÙĪØ§Ø¨Ø¯Ø§Ø±ÙĨ": 6200,
      "à´¦à´°": 6201,
      "åĪĽæĸ°": 6202,
      "ĠÙħØŃØ¨ÙĪ": 6203,
      "åĪĨéĴŁ": 6204,
      "ĠÚ³Ø§ÙĦÚ¾": 6205,
      "ĠÙħÙĦÙĩÙĩ": 6206,
      "Ġsaanud": 6207,
      "ĠØ¬ÛĮÚĪØ§": 6208,
      "ĠÙĤØ§ÙĨÙĪÙĨÙĬ": 6209,
      "ĠÙĤÙĦÙħ": 6210,
      "ĠÙĪØ¬Ûģ": 6211,
      "ĠÚªÙ¿": 6212,
      "äºī": 6213,
      "Ġà´ļà´°": 6214,
      "Ġà´ĩà´²": 6215,
      "åĵªäºĽ": 6216,
      "æ¥¼": 6217,
      "ç§ĳåŃ¦": 6218,
      "ĠØ¨ÙĨØ¯Ø±": 6219,
      "ĠØ±ÙĩÙĨØ¯ÙĬ": 6220,
      "Ġaega": 6221,
      "Ø§ÙĦØ±": 6222,
      "ĠØ¹ÙĨ": 6223,
      "ua": 6224,
      "ĠÚªØ±ÙĬØ§ÙĨ": 6225,
      "è£¸ä½ĵ": 6226,
      "ĠÚªÙħØ²": 6227,
      "ĠÚªØ§Ø±ÙĬ": 6228,
      "åĲĮè¡Į": 6229,
      "åħ¬å¼ı": 6230,
      "95": 6231,
      "ÙģØ§Ø¸": 6232,
      "Ø§Ø´Øª": 6233,
      "WS": 6234,
      "è´µ": 6235,
      "ĠØ¨ÛģØª": 6236,
      "ÚĬÙĦ": 6237,
      "lle": 6238,
      "ç¨®": 6239,
      "ĠØ³ÙĨÚĮÙĬÙĨ": 6240,
      "Ø§Ø¦ÙĨØ§Øª": 6241,
      "ĠØŃØ³Ø§Ø¨": 6242,
      "iil": 6243,
      "ĠØ§Ø³Ùħ": 6244,
      "àµĨà´¾": 6245,
      "Ø²Ø¯": 6246,
      "ĠØ´Ø¹Ø±": 6247,
      "åħ¬ä¼Ĺ": 6248,
      "æ¦ľ": 6249,
      "ĠØµØ¯ÛĮ": 6250,
      "ä¸įåĲĮ": 6251,
      "à´µà´ķ": 6252,
      "à´ķà´£à´®": 6253,
      "ena": 6254,
      "ĠÙ¾ÚĳÚ¾": 6255,
      "ingim": 6256,
      "ĠÙ¾Ø§Ø±ÙĦÙĬØ§Ùħ": 6257,
      "ĠÙĤØ¯ÙĬÙħ": 6258,
      "ĠØ³Ú©Ø±": 6259,
      "Ġæ²": 6260,
      "ĠØ¨ÙĦØ§ÙĪÙĦ": 6261,
      "ÙĤØ¨ÙĦ": 6262,
      "ĠÛĮÙĪØ±": 6263,
      "Ġtehn": 6264,
      "ÙĩÙĨØ¯Ø§": 6265,
      "çİ¯å¢ĥ": 6266,
      "ĠÙĪÙĬÙºÙĦ": 6267,
      "oodi": 6268,
      "ĠÙħÙĨØ¯Ø±": 6269,
      "ĠÙģÛĮ": 6270,
      "ĠÙħØµØ±": 6271,
      "ĠÙĦØ§Ú³ÙĪ": 6272,
      "ĠØ¯Ú©Ú¾ÙĨ": 6273,
      "Ð°": 6274,
      "ĠØ¯Ø¹Ø§": 6275,
      "ãĢĲ": 6276,
      "ÙģØ§ÙĤ": 6277,
      "Ġå½©ç¥ŀäºīéľ¸app": 6278,
      "ĠÙĩÙĬØ³": 6279,
      "æİ§åĪ¶": 6280,
      "ĠÙħÙĬÙĦ": 6281,
      "çĦ¡": 6282,
      "Ø¨Ú¾": 6283,
      "å®£": 6284,
      "misel": 6285,
      "ĠØ§Ù¿Ø³": 6286,
      "ĠÙĪÚĪÛĮ": 6287,
      "ĠØ¨Ø¦ÙĨ": 6288,
      "ĠØ±Ø®": 6289,
      "çĭł": 6290,
      "Ù½ÙĨÚ¯": 6291,
      "ted": 6292,
      "ĠÙ¾Ø±Ø³Øª": 6293,
      "ĠÚªØ¬Ú¾Ùĩ": 6294,
      "Ġalla": 6295,
      "èĥ¸": 6296,
      "ĠØ®Ø§Ø·Ø±": 6297,
      "à´µà´¦": 6298,
      "ĠØ§ÙĨØ³Ø§ÙĨÙĨ": 6299,
      "ç»Ŀ": 6300,
      "ĠÛĮÛģÙĪ": 6301,
      "ĠÙģØ§Ø±Ùħ": 6302,
      "çĨŁå¥³": 6303,
      "ä»ª": 6304,
      "à´¸à´¨": 6305,
      "hit": 6306,
      "ÚªØ´": 6307,
      "ä½ľä¸º": 6308,
      "æĹĹ": 6309,
      "èį¯": 6310,
      "ĠvÃ¤ik": 6311,
      "åĪĺ": 6312,
      "ĠÙ¾ÙĬÙ½": 6313,
      "èĩªå·±çļĦ": 6314,
      "ĠØ¬Ø¯ÙĪØ¬ÙĩØ¯": 6315,
      "ĠÙħØ¨": 6316,
      "ĠØ¯ÙĩØ´ØªÚ¯Ø±Ø¯ÙĨ": 6317,
      "eal": 6318,
      "ä¸İä½ł": 6319,
      "ÂŃ": 6320,
      "åħ¶ä»ĸ": 6321,
      "ĠÙħÙĨÙĩÙĨØ¬Ø§": 6322,
      "ĠØ§Ø¯Ø§Ø±": 6323,
      "Ù¹ÛĴ": 6324,
      "ĠØ§Ø³ÙĦØ§ÙħÛĮ": 6325,
      "Ġé«ĺ": 6326,
      "åĩı": 6327,
      "Ġä¸Ĭæµ·": 6328,
      "à´±à´¯": 6329,
      "éĸĵ": 6330,
      "Ġä¸ĭè½½": 6331,
      "èĢģå©Ĩ": 6332,
      "Ø¬Ø±Ø²": 6333,
      "ĠÚ¾Ù¿": 6334,
      "Ġleid": 6335,
      "ass": 6336,
      "ĠØ·Ø¨ÙĬ": 6337,
      "ĠÚĮØ±ØªÙĬ": 6338,
      "ĠÙħØ¹ÙĦÙĪÙħØ§Øª": 6339,
      "ĠØ¢ÙĨØ¯ÙĪ": 6340,
      "32": 6341,
      "Ø§Ø³Ø¨": 6342,
      "ĠØ§ÛĮØ¯ÛĴ": 6343,
      "ĠÙĪØ±ÙĩÙĬÙĨ": 6344,
      "ĠÙħÙĦÚªÙĬØª": 6345,
      "ĠØ§ÙħØ¯": 6346,
      "ÙĪÙħÙĬ": 6347,
      "ĠÙ¾ÙĩÚĨÚ»": 6348,
      "ĠØ§ÙĬÙħØ§ÙĨ": 6349,
      "ĠØ§ØªØŃØ§Ø¯": 6350,
      "gr": 6351,
      "ÚªØ±ÙĬÙĨ": 6352,
      "èī¯": 6353,
      "å·®": 6354,
      "ĠÙºÙĩÙĬÙĦ": 6355,
      "ĠåĮĹäº¬pk": 6356,
      "ĠÃµpet": 6357,
      "ustada": 6358,
      "èĥľ": 6359,
      "ĠØ±ÙĩÙĨØ¯ÚĻ": 6360,
      "Ø¯Ø§Ø±ÙĬ": 6361,
      "Ġà´ĵà´«": 6362,
      "Ø§Ø¦Ø¨": 6363,
      "ĠØªØ³ÛĮ": 6364,
      "ĠTallinna": 6365,
      "çİī": 6366,
      "Ġà´ħà´°": 6367,
      "ĠÚªØ´Ùħ": 6368,
      "Ġil": 6369,
      "å¤ĦçĲĨ": 6370,
      "å®¶åºŃ": 6371,
      "ĠÙĨØ±": 6372,
      "Ġà´ħà´Ļ": 6373,
      "Ġsur": 6374,
      "ä»Ļ": 6375,
      "å¤Ł": 6376,
      "åĨ»": 6377,
      "ĠØ¯Ø±ÛĮØ§": 6378,
      "äºķ": 6379,
      "Ø¨Ø±ÙĬ": 6380,
      "à´§à´¨": 6381,
      "ä½Ļ": 6382,
      "Ø§Ù¾ÙĪØ±": 6383,
      "å¿«ä¹Ĳ": 6384,
      "ĠØ³ÙħÙĪ": 6385,
      "ĠØ±ÚªØ§Ø±": 6386,
      "Ø±Ø§Ø¬": 6387,
      "hi": 6388,
      "Ġof": 6389,
      "à´¬à´°": 6390,
      "Ġå½©ç¥ŀäºīéľ¸èĥ½": 6391,
      "ĠØ±Ø§Ú³": 6392,
      "è¡Įä¸ļ": 6393,
      "ĠÙħÙĪÙĤØ¹ÙĪ": 6394,
      "ont": 6395,
      "ĠÙĪÚªÙĬÙĦ": 6396,
      "à´®à´¸": 6397,
      "ĠÚªÙħØ±ÙĬ": 6398,
      "ÙĬÙĨØ¯Ø§Ø³ÙĬÙĨ": 6399,
      "ikku": 6400,
      "ÚıØ§": 6401,
      "éĶĻ": 6402,
      "çļĦæĺ¯": 6403,
      "ĠÙĦÚ³Ø§Ø¦ÙĬ": 6404,
      "ĠÛģÙĪÙĪÛĴ": 6405,
      "è¿ĻäºĽ": 6406,
      "Ġmill": 6407,
      "ĠØ´Ø§Ø¯": 6408,
      "ĠÙ¾Ø§Ø¦ÙĬ": 6409,
      "Ù¾Ø§Úª": 6410,
      "ĠÙĪØ§ÙĤØ¹": 6411,
      "jud": 6412,
      "Ġlapse": 6413,
      "åħĪéĶĭ": 6414,
      "ĠØ§ÙĬÚĬÙĬ": 6415,
      "ĠÙ¾ÙĨÚ¾ÙĨ": 6416,
      "ĠÙĩÙĪØ§": 6417,
      "èĥ½åĬĽ": 6418,
      "Ù¾Ù½": 6419,
      "aalne": 6420,
      "ÙĪØ§ÙĨ": 6421,
      "ustatud": 6422,
      "oni": 6423,
      "Ġoot": 6424,
      "çªģ": 6425,
      "ĠÚĮØ§Ø±ÙĬ": 6426,
      "çº³": 6427,
      "ĠÙ¿ÙĪØ±ÙĬ": 6428,
      "apÃ¤ev": 6429,
      "ĠVÃµ": 6430,
      "ĠÙĦØ§Ø²": 6431,
      "å¯Ł": 6432,
      "ĠØ±ÙĩÙĪ": 6433,
      "Ġà´ħà´µà´³": 6434,
      "ĠØ³ÙħÙĪØ±Ø§": 6435,
      "åİħ": 6436,
      "ĠKTN": 6437,
      "ĠØªØ¨Ø¯ÙĬÙĦÙĬ": 6438,
      "ĠNEWS": 6439,
      "àµ¼à´®": 6440,
      "ĠÙħØ®ØªØµØ±": 6441,
      "æ¯Ĵ": 6442,
      "ĠØ·Ø±ÙĬÙĤÙĬ": 6443,
      "ĠØ¯ÛĮÙĨ": 6444,
      "ĠÙģÙĬØµÙĦÙĬ": 6445,
      "etk": 6446,
      "ĠØ¨ÛĴ": 6447,
      "Ġkasutada": 6448,
      "Ġisegi": 6449,
      "ä¸ĢçĽ´": 6450,
      "lasti": 6451,
      "Ø¨Ûģ": 6452,
      "ĠÙĪÙĬÚĻ": 6453,
      "ĠÙħØ·Ø§ÙĦØ¨ÙĪ": 6454,
      "ÙĩØ§Ø¦Ú»": 6455,
      "æħ°": 6456,
      "Ġà´¤à´®": 6457,
      "å½©ç½ĳ": 6458,
      "Ġedasi": 6459,
      "æĶ¯æĮģ": 6460,
      "Ġriigi": 6461,
      "ĠØ¬ÙĪÙĦ": 6462,
      "ĠÙģØ±Ø¶": 6463,
      "ĠÙĩØ²Ø§Ø±ÙĬÙĨ": 6464,
      "ĠÙħØ¹Ø§ÙħÙĦÙĨ": 6465,
      "ĠÙ¾Ø±ÙĪÙĬØ²": 6466,
      "ä½³": 6467,
      "ĠÙĤÙĪÙħÙĨ": 6468,
      "ĠÚªÙĬØªØ±ÙĬÙĪÙĨ": 6469,
      "Ø²ÙĬØ²": 6470,
      "å®¡": 6471,
      "ĠÚĨÙĦ": 6472,
      "Ø±ÛĴ": 6473,
      "txt": 6474,
      "ĠØ§ÙĤØªØ¯Ø§Ø±": 6475,
      "ĠØªØ´Ø¯Ø¯": 6476,
      "æĿ¾": 6477,
      "åĿĹ": 6478,
      "à´±à´°": 6479,
      "gav": 6480,
      "çĸĨæĹ¶æĹ¶å½©": 6481,
      "ÚĪÛĮØ§": 6482,
      "ĠØ§ÙģØ³ÙĪØ³": 6483,
      "ÙĨÚĬÙĨ": 6484,
      "Ġnimet": 6485,
      "ĠØ³Ø§Ø¦ÙĬÙ½": 6486,
      "ç»į": 6487,
      "Ġaren": 6488,
      "ĠØ´ÙĩØ±ÙĬ": 6489,
      "Ġauto": 6490,
      "ce": 6491,
      "ĠÚĮÙĬØ¡": 6492,
      "çĽ¸åħ³": 6493,
      "éĥ¨åĪĨ": 6494,
      "èĨ": 6495,
      "çĶ°": 6496,
      "Ġmajand": 6497,
      "sin": 6498,
      "ĠØ³Ø¹ÙĪØ¯ÙĬ": 6499,
      "ĠÚ¯ÙĩØ±ÙĨ": 6500,
      "ĠÙħÙĩÙĬÙĨÙĬ": 6501,
      "ĠÚªÙĦØ§Ùħ": 6502,
      "valite": 6503,
      "ĠÛģÙĨØ¯ÙĪ": 6504,
      "é¡º": 6505,
      "Ø³Ø§Ø¨": 6506,
      "ĠÙħÙĪØ³Ùħ": 6507,
      "éŃĶ": 6508,
      "ÙĦØ³": 6509,
      "æĭ©": 6510,
      "Ġlai": 6511,
      "maks": 6512,
      "ĠÙĪÙĤ": 6513,
      "çķ¶": 6514,
      "æ±ī": 6515,
      "åįĢ": 6516,
      "ĠØ±Ú¾ÙĬÙĪ": 6517,
      "éº¼": 6518,
      "è¿ĩç¨ĭ": 6519,
      "ĠÚĨÙĨØ¯": 6520,
      "ore": 6521,
      "ĠÙħØ³ØªÙĤØ¨ÙĦ": 6522,
      "Ġkord": 6523,
      "Ġhil": 6524,
      "ĠÛģÙĪÙĨØ¯ÛĮ": 6525,
      "ĠÙĨÙĪÙĨ": 6526,
      "endus": 6527,
      "à¤": 6528,
      "Ø´ÙĬØ¯": 6529,
      "ç«¥": 6530,
      "lem": 6531,
      "Ġorg": 6532,
      "ĠÙ¾Ø±Ø§Ú»ÙĬ": 6533,
      "Ã¼r": 6534,
      "éº»": 6535,
      "å®ŀçİ°": 6536,
      "å®¢æľįçĶµè¯Ŀ": 6537,
      "ĠÙħÙĨÚ¾ÙĨØ¬ÙĬ": 6538,
      "Ġlug": 6539,
      "oft": 6540,
      "Ø§ÙĪØ§Úº": 6541,
      "çĸĹ": 6542,
      "ĠÙħÙĨØ²ÙĦ": 6543,
      "sk": 6544,
      "ï¼ļâĢľ": 6545,
      "ĠSa": 6546,
      "éĿŀå¸¸": 6547,
      "ĠØ³Ø¹": 6548,
      "ĠÚĮÙĪ": 6549,
      "è¿Ļæł·": 6550,
      "koh": 6551,
      "åį«": 6552,
      "Ġkaasa": 6553,
      "ĠÚ©Ù¾ÙĬ": 6554,
      "ĠØ²ÙħÛĮÙĨ": 6555,
      "ĠÃķ": 6556,
      "æīįèĥ½": 6557,
      "çĬ¯": 6558,
      "Ġteist": 6559,
      "Ã¼Ã¼s": 6560,
      "ĠÙĪÙĬÙºØ§": 6561,
      "ruk": 6562,
      "ãģ": 6563,
      "Ù¾Ø§ÙĨ": 6564,
      "ĠØ¨Ø²Ø±": 6565,
      "ĠØŃØ§Ø¶": 6566,
      "61": 6567,
      "é½": 6568,
      "stit": 6569,
      "åĹ": 6570,
      "ĠÙĪÚĪÛĴ": 6571,
      "aast": 6572,
      "Ġhul": 6573,
      "isel": 6574,
      "Ġpea": 6575,
      "ç§»": 6576,
      "ĠÙħÙĦÙĪ": 6577,
      "ĠØ³ÙħØ¬ÙĩÙĩ": 6578,
      "Ġà´ħà´ķ": 6579,
      "çľŁäºº": 6580,
      "éĢ²": 6581,
      "à´Ĵ": 6582,
      "æ¬§": 6583,
      "ĠØ´ÙĩØ¨Ø§Ø²": 6584,
      "æĽ¾": 6585,
      "à´±à´±": 6586,
      "ĠRa": 6587,
      "Ã¤rast": 6588,
      "Ġà´¤à´Ł": 6589,
      "ĠØ§ÙĦØ¯ÙĬÙĨ": 6590,
      "SS": 6591,
      "Ø§ÙĬÙĨ": 6592,
      "ĠÙħÙĨØªÙĤÙĦ": 6593,
      "å¼Ł": 6594,
      "att": 6595,
      "Ġà´ĩà´Ł": 6596,
      "ĠØ¨ÙĬÙĩÙĬ": 6597,
      "Ġä¸Ń": 6598,
      "ĠÙ½ÚªØ±": 6599,
      "åºı": 6600,
      "Ø¹ÙĦ": 6601,
      "ĠØ´Ø§ÙĩØ¯": 6602,
      "çīĪæľ¬": 6603,
      "ĠÙºÙĩØ±": 6604,
      "ĠÚĢØ§Ø¦": 6605,
      "èµĶ": 6606,
      "çģµ": 6607,
      "ĠØŃÙĤÙĨ": 6608,
      "ĠTartu": 6609,
      "ĠÙĪØ§ÙĦÛĮ": 6610,
      "ĠÚ¯ÙĩÚ»Ø§": 6611,
      "çĭ¬": 6612,
      "çĶ¨æĪ·": 6613,
      "å¹»": 6614,
      "çĭĤ": 6615,
      "ĠÚĢÙĪ": 6616,
      "Ġalati": 6617,
      "ĠÚĨØ§ÙĩÙĬÙĪ": 6618,
      "éĻĪ": 6619,
      "ĠvÃµiks": 6620,
      "ĠØ±Ø§Ûģ": 6621,
      "æ¤": 6622,
      "ç¤¼": 6623,
      "ç¬¬äºĮ": 6624,
      "ÙĦÙĬÙħÙĬ": 6625,
      "è¨Ĭ": 6626,
      "Ġpla": 6627,
      "ĠØ§ÚªÙĬ": 6628,
      "é¥°": 6629,
      "ä¸įåĪ°": 6630,
      "ĠÙĩÙĦÚ»": 6631,
      "èĦ±": 6632,
      "ere": 6633,
      "ĠÙ¾ÙĬØºØ§Ùħ": 6634,
      "ÙĪØ²": 6635,
      "Ø³ÙħØ¨Ø±": 6636,
      "ĠÚ¯ÙĩÚ»": 6637,
      "åĳ¢": 6638,
      "siooni": 6639,
      "ĠØ¹Ø«": 6640,
      "à´ŀà´¤": 6641,
      "Ġprobleem": 6642,
      "ä¸İä½łåĲĮè¡Į": 6643,
      "ĠÙ¾ÙĦØ§ÙĨ": 6644,
      "ĠÚ©Ú»Ú»": 6645,
      "ĠØ±ÙĬÙĨØ¬Ø±Ø²": 6646,
      "æ³°": 6647,
      "ĠØ¯ÙĪÙĦØª": 6648,
      "å°ıèªª": 6649,
      "Ġkorda": 6650,
      "Ø§ÙĦÛĴ": 6651,
      "æĢ§äº¤": 6652,
      "ĠRe": 6653,
      "æĢ§æĦŁ": 6654,
      "è®Ń": 6655,
      "ĠØ§ÙĪÙĨØ§Úº": 6656,
      "itakse": 6657,
      "çĬ¶": 6658,
      "ĠØŃÙĬØ§Øª": 6659,
      "ĠØŃÙħÙĦÙĬ": 6660,
      "Ġä¸ľ": 6661,
      "ĠØ¯ÙĪØ³ØªÙĬ": 6662,
      "å¸®": 6663,
      "ĠÙĨØ§ÙĦØ§": 6664,
      "ĠØ³Ø§ÙĩÙĩ": 6665,
      "ĠØŃÙħÙĦÙĪ": 6666,
      "æĻºèĥ½": 6667,
      "èĤ¥": 6668,
      "ĠØ¨ÙĦÚªÙĩ": 6669,
      "Ġhind": 6670,
      "ĠÚ©ÙĪÙĦÙĬ": 6671,
      "ÛĮØ§Øª": 6672,
      "ĠØ§ÙĨØ¬ÙĨÙĬ": 6673,
      "Ġmuus": 6674,
      "ĠMic": 6675,
      "Ø¬ÙĨÙĩÙĨ": 6676,
      "è®¾å¤ĩ": 6677,
      "ĠAga": 6678,
      "åī¯": 6679,
      "emad": 6680,
      "ikul": 6681,
      "2012": 6682,
      "75": 6683,
      "å³°": 6684,
      "ĠÚ¦Ø±": 6685,
      "à´ªà´¯": 6686,
      "ĠÙħÙĦÚªÙĬ": 6687,
      "Ø³ÙĬØ¡": 6688,
      "Û³": 6689,
      "æ³½": 6690,
      "akon": 6691,
      "Ú¾ÙĬØ¡": 6692,
      "Ø«ÙĬ": 6693,
      "ç¬Ķ": 6694,
      "ĠØ§ÙħÙĬØ¯ÙĪØ§Ø±": 6695,
      "ãĢĤï¼Į": 6696,
      "ĠÙĨÙģØ±Øª": 6697,
      "ĠhÃ¤sti": 6698,
      "ĠÙĪÙģØ§Øª": 6699,
      "ĠØ¢Úª": 6700,
      "å½©ç¥¨ç½ĳ": 6701,
      "ĠÙĪØ§Ø±ÛĮ": 6702,
      "æĪĲåĬŁ": 6703,
      "Ø¯Ûģ": 6704,
      "Ġà´°à´ķ": 6705,
      "ÙĩØ¬ÙĬ": 6706,
      "é¤Ĳ": 6707,
      "ogramm": 6708,
      "åħįè²»": 6709,
      "etakse": 6710,
      "è¯¾": 6711,
      "ĠÙģØ§Ø¦Ø±ÙĨÚ¯": 6712,
      "ĠÙ¾ÛĮØ´": 6713,
      "Ġå¤§åıĳå½©ç¥¨å®ĺç½ĳ": 6714,
      "ĠÙĨÙĪÙ½ÙĬØ³": 6715,
      "ĠØ§ÙĬØ±Ø§ÙĨ": 6716,
      "ĠÙħÙĤØ§Ø¨ÙĦÙĪ": 6717,
      "å¦Īå¦Ī": 6718,
      "ĠØ¢Ø±ÙħÙĬ": 6719,
      "po": 6720,
      "ĠØªØ±Ùħ": 6721,
      "ĠÙĪÚĮÙĪ": 6722,
      "ĠÙħØ¨Ø§Ø±": 6723,
      "ĠÙħÙĪÙ½ÙĬ": 6724,
      "uke": 6725,
      "Ø§ØºØ°": 6726,
      "ĠØ°Ø±ÙĬØ¹ÙĨ": 6727,
      "ĠÚĨÚª": 6728,
      "åį´": 6729,
      "à´ľà´¯": 6730,
      "ĠÙħÙĨÚ¯": 6731,
      "ĠÙĨÙĪØ§ÙĨ": 6732,
      "Ø§Ø³ÙĪÙĨ": 6733,
      "æĺ¯åĲ¦": 6734,
      "ĠÙĪØ§ÙĤÙģ": 6735,
      "ĠÙĩÙĬÙĨØ¦Ø±": 6736,
      "ĠÚªÙĬÙģ": 6737,
      "Ġå½©ç¥ŀäºīéľ¸å®ĺç½ĳ": 6738,
      "ç¬ĳ": 6739,
      "ĠÚĢÙĦ": 6740,
      "Ø´Ø±": 6741,
      "seid": 6742,
      "ĠØ¢Ø±Ø§Ùħ": 6743,
      "ĠÙĪÙ½Ø§ÙĨ": 6744,
      "ĠÙħØ±Øª": 6745,
      "ask": 6746,
      "ĠÙ¾Ø§ÚĻÙĬ": 6747,
      "èĪ¬": 6748,
      "à´¡à´¨": 6749,
      "éĽĦ": 6750,
      "åĩ»": 6751,
      "Ã¼steem": 6752,
      "ĠØ§Ú¯Ø±": 6753,
      "ç½ĳä¸Ĭ": 6754,
      "ĠØ¹Ø¨Ø§Ø¯": 6755,
      "Ø¬ÙĬÙĨ": 6756,
      "æıĲé«ĺ": 6757,
      "umb": 6758,
      "ĠÚ©Ø±ÙĨØ§": 6759,
      "ÙĪØ¯": 6760,
      "æ¢ħ": 6761,
      "ĠØŃØµÙĬ": 6762,
      "ĠÙĩÙĪÙĨØ¯ÙĬÙĪÙĨ": 6763,
      "uni": 6764,
      "ĠØ®Ø§ÙħÙĪØ´": 6765,
      "ĠÙħÙ½": 6766,
      "aselt": 6767,
      "ĠÚ¯Ú¾ÙĪ": 6768,
      "isid": 6769,
      "ĠØªØ®ÙĦÙĬÙĤ": 6770,
      "ĠÚĨÙĪÙĨØ¯Ø§": 6771,
      "ĠÚªÙħÙ¾ÙĨ": 6772,
      "ĠØ®Ø¯": 6773,
      "ĠØªÙĤØ±ÙĬØ±": 6774,
      "ĠØ¢Ú»": 6775,
      "ä¸ģ": 6776,
      "sete": 6777,
      "ĠÚªØ±ÙĬÙĪÙĨ": 6778,
      "2010": 6779,
      "Ġà´ŀà´Ļ": 6780,
      "è®¤è¯ģ": 6781,
      "èľ": 6782,
      "Ġsuv": 6783,
      "ĠØ¬ÙĬØ¦": 6784,
      "æģĭ": 6785,
      "ĠØ±ÚªØ§Ø±ÚĬ": 6786,
      "æĸ¹æ¡Ī": 6787,
      "ä¸ĵå®¶": 6788,
      "ĠØ§Ø¨Ø±": 6789,
      "ĠÙĤØ±ÙĬ": 6790,
      "Ġvalmist": 6791,
      "Ġviis": 6792,
      "ĠLa": 6793,
      "ĠÙħÙĩÙħØ§ÙĨ": 6794,
      "Ġvajal": 6795,
      "Ø§ØªÙĦ": 6796,
      "åįķä½į": 6797,
      "Ġà´ıà´¤": 6798,
      "èĭ¥": 6799,
      "æħ¢": 6800,
      "ĠØŃÚ©Ùħ": 6801,
      "åĺĽ": 6802,
      "æİĴè¡Į": 6803,
      "ĠØ±Ù¾ÙĬÙĨ": 6804,
      "Ġsamuti": 6805,
      "2011": 6806,
      "Ġtugev": 6807,
      "æľĢé«ĺ": 6808,
      "ĠØŃÙĬØ±Øª": 6809,
      "è·ĳ": 6810,
      "ĠØ¯ÛĮØªØ§": 6811,
      "ĠÙĨÚªØªÙĪ": 6812,
      "ĠØ¯ÙģØ¹ÙĪ": 6813,
      "ĠÚ¯Ø§ÚıÙĬ": 6814,
      "Ġpeal": 6815,
      "ĠrÃ¤Ã¤k": 6816,
      "ĠÚĨÙ¾": 6817,
      "åĪļ": 6818,
      "ĠÛģÙĨØ¯": 6819,
      "ĠØ±Ú©ÙĨ": 6820,
      "åħ³äºİ": 6821,
      "æĳ©": 6822,
      "ĠØ³ÙħØ¬ÙĩÙĬÙĪ": 6823,
      "ĠjÃ¤rgi": 6824,
      "ĠÙ¾ÙĪØ±ÙĩÙĬ": 6825,
      "ĠpÃ¤eva": 6826,
      "ĠØ¬ÙħÙĩÙĪØ±ÙĬØª": 6827,
      "ĠØ§ÙĪÚĢØ±": 6828,
      "Ø´ÙĬØ±": 6829,
      "Ø¯ÙĪØ¯": 6830,
      "ĠÙħØ±ÚªØ²": 6831,
      "æľºæŀĦ": 6832,
      "Ġilma": 6833,
      "ru": 6834,
      "èĦļ": 6835,
      "ĠØ¬ÙĨÛģØ§Úº": 6836,
      "ÙĩÙħ": 6837,
      "ĠØ§ÙħØªØŃ": 6838,
      "æĺ¾ç¤º": 6839,
      "ĠvÃ¤ike": 6840,
      "ĠÙħÙĩÙĬÙĨÙĨ": 6841,
      "ÙĬÙħÙĨ": 6842,
      "ä¸ªäºº": 6843,
      "ĠÚ¯Ú¾Ù½": 6844,
      "Ġpool": 6845,
      "ĠÚĨÙĬÙĨÙĬ": 6846,
      "ĠØ³ÙĪÚĨÙĬÙĪ": 6847,
      "ĠÙħÙĦØ¦ÙĬ": 6848,
      "rosoft": 6849,
      "ĠØ¬Ø±": 6850,
      "Ġseot": 6851,
      "ÙİØĮ": 6852,
      "Ġasja": 6853,
      "çĪ¸": 6854,
      "ÚĪÚ¾": 6855,
      "ĠÙħØŃØªØ±Ùħ": 6856,
      "ĠØ§ØŃÙĪØ§ÙĦ": 6857,
      "ĠØªÙĩØ°ÙĬØ¨": 6858,
      "ĠÙĩÙĪØ§Ø¦ÙĬ": 6859,
      "æĺİæĺŁ": 6860,
      "ede": 6861,
      "æŃ£è§ĦåĲĹ": 6862,
      "ÚĻØ§Ø¦ÙĬ": 6863,
      "Ġteh": 6864,
      "åĲ«": 6865,
      "Ġesim": 6866,
      "æļĸ": 6867,
      "Ġmaailma": 6868,
      "åĬ©æīĭ": 6869,
      "æī§": 6870,
      "ĠÚ©Ú¾ÛĮÚĪ": 6871,
      "Ø´Úª": 6872,
      "ĠØ´Ùģ": 6873,
      "åħ¬ä¼Ĺåı·": 6874,
      "Ø§ÙĦÙĦÙĩ": 6875,
      "Ġç¾İ": 6876,
      "Ø§ØªÙĨ": 6877,
      "ĠÚĢØ±ÙĬÙĦ": 6878,
      "Ġà´ĸ": 6879,
      "ä½ľåĵģ": 6880,
      "ĠØªØ¨Ø§ÙĩÙĩ": 6881,
      "seks": 6882,
      "iseer": 6883,
      "ĠÚªÙħÙ¾ÙĨÙĬ": 6884,
      "ĠÚ¯ÚıÙĪÚ¯": 6885,
      "39": 6886,
      "Ġà´ªà´¦": 6887,
      "Ġtu": 6888,
      "ĠÚĨÙĨÚĬ": 6889,
      "ĠØªÙĨÙĩÙĨØ¬ÙĪ": 6890,
      "ä»ĭç»į": 6891,
      "¯ä»ĺ": 6892,
      "ĠÚ¯ÚıÙĪÚ¯Úı": 6893,
      "ĠÙħØªØŃØ¯": 6894,
      "Ġkuj": 6895,
      "è¿°": 6896,
      "mat": 6897,
      "æľīäºº": 6898,
      "ĠÙ¾ÙĬØ±ÙĨ": 6899,
      "å®Įç¾İ": 6900,
      "ĠØ³Ø±ÙĬ": 6901,
      "ĠÙĪØ¬ÙĩÙĬ": 6902,
      "å°ļ": 6903,
      "sel": 6904,
      "æľīä¸Ģ": 6905,
      "ĠÙĦÙĬÚªÙĨ": 6906,
      "ĠÚªÙĪØ¦ÙĬ": 6907,
      "af": 6908,
      "ĠØªÙĬØ¦ÙĨ": 6909,
      "ÚªØ±Ø¯": 6910,
      "èı²": 6911,
      "Ġteat": 6912,
      "utada": 6913,
      "nast": 6914,
      "ĠØŃØ§Ø¯": 6915,
      "ĠvÃµtta": 6916,
      "æľĿ": 6917,
      "ĠÚªØ§Ø¦ÙĨØ§Øª": 6918,
      "ĠnÃ¤dal": 6919,
      "ĠÚĮÙĨ": 6920,
      "Ġmeele": 6921,
      "Ġåħįè´¹": 6922,
      "ĠÚªØ±ÙĪÚĻ": 6923,
      "ĠÙĪÙĬÙĨØ¯ÙĬÙĪÙĨ": 6924,
      "æŁĲ": 6925,
      "ĠØ¨ÙĬÙºÙĦ": 6926,
      "Ġå¥½": 6927,
      "ĠÙ¾ÛģÙĦÛĴ": 6928,
      "å¯¦": 6929,
      "ÙĴ": 6930,
      "ĠØ¨Ú»Ø§Ø¦Ú»": 6931,
      "Ġvaad": 6932,
      "ĠÚĬØ±Ø§Ø¦": 6933,
      "kus": 6934,
      "ĠÚĨÙĪÙĨØ¯ÙĪ": 6935,
      "Ġà´ªà´Ł": 6936,
      "ä½ľå¼ĬåĻ¨": 6937,
      "ĠØ¢Ø²Ø§Ø¯ÙĬØ¡": 6938,
      "ĠÙ¾ÙĩØ±ÙĬØ§ÙĨ": 6939,
      "ĠÙĪØ²Ø§Ø±Øª": 6940,
      "ĠØ¢Ø³ÙħØ§ÙĨ": 6941,
      "ØªØ§Úº": 6942,
      "ÃµÃµ": 6943,
      "Ġlei": 6944,
      "Ø¨Ø§ÙĨÙĬ": 6945,
      "è°¢": 6946,
      "ĠÙħÙĨØ§Ø³Ø¨": 6947,
      "à´£à´¤": 6948,
      "à´ķàµ¾à´ķ": 6949,
      "åĬŁèĥ½": 6950,
      "ĠÙħÙĦÙĨ": 6951,
      "à´ªà´Ł": 6952,
      "éĽª": 6953,
      "æ¢¦": 6954,
      "çļĦå½©ç¥¨": 6955,
      "ĠÙ¾ØªÚ¾": 6956,
      "éĢīæĭ©": 6957,
      "å½±åĵį": 6958,
      "åĨ»ç»ĵ": 6959,
      "å»¶": 6960,
      "ä¿ĿæĬ¤": 6961,
      "ĠvÃµist": 6962,
      "çĽŁ": 6963,
      "ĠØªØ¹ÙĦÙĬÙħÙĬ": 6964,
      "ĠØ§Ø®ØªÙĦØ§Ùģ": 6965,
      "ĠØ¬ÙĬØ³ØªØ§Ø¦ÙĬÙĨ": 6966,
      "ÙĦØ§ÙĩÙĪØ±": 6967,
      "ĠØ¬ÙĩÚĻÙĨ": 6968,
      "Ø§ÙĨÛĮØ§Úº": 6969,
      "Ġkohe": 6970,
      "ĠØ¬Ø§Ùħ": 6971,
      "Ø§Ù¾ÙĬ": 6972,
      "äººå¦»": 6973,
      "Ø§ÙĨØ¡": 6974,
      "une": 6975,
      "inda": 6976,
      "Ø§ÙĨÚ¾ÙĨ": 6977,
      "çĶµè§Ĩ": 6978,
      "ĠÙ¾Ù¿Ø±": 6979,
      "å¤ı": 6980,
      "Ø³ÙĪÙĨ": 6981,
      "ĠÚªÙĦØ¨": 6982,
      "ĠÙħÙĬØ²": 6983,
      "Ġmees": 6984,
      "æ´Ĺ": 6985,
      "Ġrav": 6986,
      "å¼Ĥ": 6987,
      "//": 6988,
      "çķª": 6989,
      "å¹¸è¿Ĳ": 6990,
      "vate": 6991,
      "ĠÙĤØ§Ø¶ÙĬ": 6992,
      "ĠÙĨØ¨ÙĬ": 6993,
      "ĠØ¹Ø¨Ø§Ø³ÙĬ": 6994,
      "Ġavald": 6995,
      "ĠÃµnn": 6996,
      "å¤§åıĳå±ķ": 6997,
      "æĭ¬": 6998,
      "âĢľØĮ": 6999,
      "ĠØµÙĪÙģÙĬ": 7000,
      "çĽĪ": 7001,
      "ĠtÃ¤na": 7002,
      "æī£": 7003,
      "eme": 7004,
      "SA": 7005,
      "äººåĳĺ": 7006,
      "ĠÙ¾ÛģÙĦÛĮ": 7007,
      "ĠØ§ÙĬØ¬ÙĨ": 7008,
      "ĠÙħØªØ¹ÙĦÙĤ": 7009,
      "ĠØ±ÙĪØ´ÙĨÙĬ": 7010,
      "à´¨à´¨": 7011,
      "ĠØ§ØŃØªØ³Ø§Ø¨": 7012,
      "çº¸": 7013,
      "idi": 7014,
      "ĠØªØ±Ø¬ÙħÙĪ": 7015,
      "àµ¼à´Ł": 7016,
      "è»Ĭ": 7017,
      "ĠÙ¾ÙĪØ¦": 7018,
      "ÙĦØª": 7019,
      "ĠØ³ÙĪØ´ÙĦ": 7020,
      "mu": 7021,
      "ĠØªØ¹ÙħÙĬØ±": 7022,
      "Ġkultuur": 7023,
      "ĠÙĤØµ": 7024,
      "Ġselles": 7025,
      "ĠØ´Ø±ÙĬÚª": 7026,
      "é¬": 7027,
      "ĠÚ©ÙĬØ±": 7028,
      "mi": 7029,
      "ĠØ§Ø¹Øª": 7030,
      "åŃ¦æł¡": 7031,
      "Ġå¤§åıĳå¿«ä¸īå¼Ģå¥ĸ": 7032,
      "ç¨İ": 7033,
      "ĠÚıÙº": 7034,
      "ĠÚ©ÙĨÙĬÙĪ": 7035,
      "Ãĥ": 7036,
      "Ġå¤©å¤©ä¸Ńå½©ç¥¨èĥ½": 7037,
      "åĪ¸": 7038,
      "ĠØªÙĬÙĦ": 7039,
      "éĤ£ä¸ª": 7040,
      "åı¯ä¿¡åĲĹ": 7041,
      "Ø¨ÙĪÙĦ": 7042,
      "éĽ¨": 7043,
      "åªĴ": 7044,
      "Ġpol": 7045,
      "æ´¥": 7046,
      "ĠØ¨Ø±Ø³": 7047,
      "sus": 7048,
      "isaks": 7049,
      "ĠØŃØµÛģ": 7050,
      "ĠØŃÙĤÙĬÙĤÙĬ": 7051,
      "ĠÚªØ§ÙĨÚ¯": 7052,
      "Ø§ÙĦÛĮ": 7053,
      "å±ģ": 7054,
      "ÙĩÙĦ": 7055,
      "ĠØ¹Ø«ÙħØ§ÙĨ": 7056,
      "ĠvÃµit": 7057,
      "laneer": 7058,
      "ĠØ¢Ú»Ú»": 7059,
      "åįģåĪĨ": 7060,
      "ĠØŃÙħØ§ÙĬØª": 7061,
      "ĠÙĨØµÙĬ": 7062,
      "ner": 7063,
      "ĠØ³ÙħØ¬ÙĩÚ»": 7064,
      "åĨħå®¹": 7065,
      "ĠØ¨Ø¬ÙĬ": 7066,
      "Ø§ÙĦØŃ": 7067,
      "Ø´ÙĨØ±": 7068,
      "ĠØ¯Ø¹ÙĪØª": 7069,
      "é¦Ĩ": 7070,
      "Ø§ÙĨÙĩ": 7071,
      "ĠØ§ÙĨØ³Ø§ÙĨÙĬØª": 7072,
      "Ġpik": 7073,
      "å¥´": 7074,
      "æķĻå¸Ī": 7075,
      "ĠÚ©ÛĮÛģ": 7076,
      "vit": 7077,
      "ĠKas": 7078,
      "ÚªÙĬØ´ÙĨ": 7079,
      "ĠÚ¯Ú¾Ú»ÙĪ": 7080,
      "Ġsal": 7081,
      "à´®à´²": 7082,
      "ĠÚªØ§Ø±ÙĨ": 7083,
      "Ġà´Ĵà´´": 7084,
      "ĠØ³Ø§Ûģ": 7085,
      "Ù¾Ø§ÚªØ³ØªØ§ÙĨ": 7086,
      "è¶³å½©": 7087,
      "åº§": 7088,
      "Ġkeel": 7089,
      "APP": 7090,
      "ct": 7091,
      "ĠØ³ÙħÙĨØ¯Ø±": 7092,
      "éģĩ": 7093,
      "Ø±ÙĬØ³": 7094,
      "ĠÚªÚ¾": 7095,
      "Ġvahet": 7096,
      "ĠÙĬÚª": 7097,
      "Ġmeil": 7098,
      "éķ·": 7099,
      "udu": 7100,
      "ç²ī": 7101,
      "å¨±ä¹Ĳå¹³åı°": 7102,
      "ĠØ§Ø¦": 7103,
      "Ġkaitse": 7104,
      "ĠÚıÙĬÙĪ": 7105,
      "è±Ĩ": 7106,
      "ĠÙħÙĤØ§ÙħÙĬ": 7107,
      "ĠØ«Ø¨ÙĪØª": 7108,
      "ç¹": 7109,
      "ĠÙĪØ§Ø±Ø«ÙĨ": 7110,
      "Ġseotud": 7111,
      "ĠpÃ¶Ã¶": 7112,
      "ĠÙ½Ø±": 7113,
      "å¨ĺ": 7114,
      "alist": 7115,
      "ĠÙ¾ÙĨØ¬Ø§Ø¨ÛĮ": 7116,
      "ĠÙ¾Ø§Ø¨ÙĨØ¯ÙĬ": 7117,
      "Ġà´¨àµ½à´ķ": 7118,
      "Ġsul": 7119,
      "Ø¨Ø²": 7120,
      "sta": 7121,
      "ĠÙħØ¹ÙĬØ§Ø±": 7122,
      "Ú¦": 7123,
      "ĠåįĹ": 7124,
      "âĢĿãĢĤ": 7125,
      "ĠÙħÙĪÚªÙĦÙĬÙĪ": 7126,
      "Ø§Ú»ÙĬÙĪÙĨ": 7127,
      "åĽ½åĨħ": 7128,
      "Ø§Ø³ÛĮ": 7129,
      "ĠØ§ÙĨØ¬ÙĨÙĬØ¦Ø±": 7130,
      "udel": 7131,
      "Ġtutv": 7132,
      "ĠÚıØ³ÙĨØ¯ÙĬ": 7133,
      "ç»¿": 7134,
      "ustega": 7135,
      "ĠØ§Ù¿ÙĬ": 7136,
      "if": 7137,
      "åıĳå¸ĥ": 7138,
      "ĠKr": 7139,
      "ÙĪÙĨØ¯": 7140,
      "Ġå¤§åıĳå¿«ä¸īå½©ç¥¨": 7141,
      "Ġinimesed": 7142,
      "49": 7143,
      "ĠÙĨØ§ÚªØ§Ùħ": 7144,
      "ÚĩØ§": 7145,
      "è´¦åı·": 7146,
      "ÚªÙĬÙĪ": 7147,
      "ĠÙĪØ§Ø³Ø·ÙĪ": 7148,
      "ĠÙ»Ø§ÙĩØ±Ø§ÙĨ": 7149,
      "ĠÙĨÚ¯Ø±Ø§ÙĨ": 7150,
      "hh": 7151,
      "eegi": 7152,
      "ĠØ¨Ø±Ø§Ø¯Ø±ÙĬ": 7153,
      "ĠÙħØºÙĦ": 7154,
      "éĢģéĴ±": 7155,
      "Ġide": 7156,
      "ĠÙĪÛĮÚ©Ú¾": 7157,
      "ĠÙħØ³Ø§ÙģØ±": 7158,
      "ĠØ¨Ú¾Ø§Ø±Øª": 7159,
      "çĶµåŃĲ": 7160,
      "imiseks": 7161,
      "Â»": 7162,
      "ĠÛģÙĪÙĨØ¯ÛĴ": 7163,
      "aga": 7164,
      "Ù½ÙĬÙĪÙĨ": 7165,
      "ÚªØ±ÙĨ": 7166,
      "Ù¿ÙĪ": 7167,
      "Ġru": 7168,
      "å«©": 7169,
      "Ġæµ·": 7170,
      "ĠØ¬Ø¯Ø§": 7171,
      "ĠÙħÚĩ": 7172,
      "Ġåľ¨çº¿": 7173,
      "ĠØ³Ú¯ÙĩÙĪÙĨ": 7174,
      "ĠÙħØ¹Ø§Ø´Ø±ÙĬ": 7175,
      "ĠÙħØŃØ¨ÙĪØ¨": 7176,
      "ĠÙĩÚ»": 7177,
      "ĠÚ©Ù¾": 7178,
      "Ġhaig": 7179,
      "ĠØ§Ú³ÙĪØ§Ú»ÙĬ": 7180,
      "ĠÚ¯ÙĩØ±ÙĬ": 7181,
      "ĠÚ¦ÙĦ": 7182,
      "ĠØ§ÙħØ±": 7183,
      "Ø¸ÙĬØ±": 7184,
      "åŃ¦ä¹ł": 7185,
      "ÚĨÛĮ": 7186,
      "ĠØ¨Ø±Ø¯Ø§Ø´Øª": 7187,
      "Ø³Ùģ": 7188,
      "78": 7189,
      "Eesti": 7190,
      "ĠÙĪØŃ": 7191,
      "ĠØ³Ú¯ÙĩÙĨØ¯ÙĪ": 7192,
      "ÚĪÛĮØ§Úº": 7193,
      "ĠÙĩØªØ§ÙĨ": 7194,
      "ĠØ³Ú¯ÙĩØ§ÙĨ": 7195,
      "ĠÚıÙĨÙĬÙĪÙĨ": 7196,
      "Ġtekk": 7197,
      "iliselt": 7198,
      "ĠØ¹ÙĬØ³": 7199,
      "ĠÙħÙĪØ³ÙĬ": 7200,
      "èĳ¡": 7201,
      "ĠØ¢ÙĦ": 7202,
      "ĠØ§ÙĬÚĩ": 7203,
      "èĩªæħ°": 7204,
      "pi": 7205,
      "ĠØ¨Ø±ÙĤ": 7206,
      "æĳ¸": 7207,
      "é»ŀ": 7208,
      "Ø§ÙģØ¸": 7209,
      "èµĮåľº": 7210,
      "Ø¬Ûģ": 7211,
      "Ġsiiski": 7212,
      "ĠØ¯ÙģØ¹ÙĬ": 7213,
      "ĠÙĪÙĪÚĬ": 7214,
      "ĠÙĩÚĻ": 7215,
      "Ø¨ÙĬØ±": 7216,
      "Ġinter": 7217,
      "æĬĵ": 7218,
      "Ø±Ø²": 7219,
      "ĠvÃ¤Ã¤rt": 7220,
      "è®ĵ": 7221,
      "ĠÙħØŃÙĦ": 7222,
      "çİ°åľº": 7223,
      "ĠÙĤØ¨Ø¶": 7224,
      "åįļå½©": 7225,
      "Ø§Ø¯Ø§": 7226,
      "Ġqqå¤©å¤©ä¸Ńå½©ç¥¨": 7227,
      "oog": 7228,
      "Ú©Ø§Úº": 7229,
      "ĠÚ³Ø§ÚĻ": 7230,
      "ĠÙ¾ÙĬØ³": 7231,
      "ØªØ±ÙĬ": 7232,
      "ĠÙ¾Ø§ÙĨÛĮ": 7233,
      "åĢŁ": 7234,
      "ĠØ§ÛĮÙĨÛģØ§Úº": 7235,
      "çĭ¼": 7236,
      "à´±à´²": 7237,
      "ĠØ±ÙĩØ¬ÙĬ": 7238,
      "èĥĮ": 7239,
      "èĹı": 7240,
      "Ġvald": 7241,
      "Ġà´¨à´Łà´ªà´Ł": 7242,
      "ĠÙħØ±Ø¶": 7243,
      "çĶ³": 7244,
      "åħ¶ä¸Ń": 7245,
      "ĠØ¬Ø¨ÙĦ": 7246,
      "Ġmaailm": 7247,
      "Ø´ÙĪØ±": 7248,
      "äº¤æµģç¾¤": 7249,
      "åĮħæĭ¬": 7250,
      "å¯¹äºİ": 7251,
      "Ġkeele": 7252,
      "ĠÙħÙĩÙħ": 7253,
      "ĠØ¬Ø¹": 7254,
      "Ġkeskkon": 7255,
      "ĠØ§Ø²": 7256,
      "èĮ¶": 7257,
      "ç¦ıå½©": 7258,
      "æ°¸": 7259,
      "ä¸ŃäºĨ": 7260,
      "Ġæĸ°çĸĨæĹ¶æĹ¶å½©": 7261,
      "ĠÙ¾ÙĪØ±Ø§": 7262,
      "Ġinimese": 7263,
      "ØµÙĦ": 7264,
      "ćï¼Į": 7265,
      "åĩºçİ°": 7266,
      "ustus": 7267,
      "ĠØ¯ÙĦÚĨØ³Ù¾": 7268,
      "Ø§ÛĮØ§": 7269,
      "å®¾": 7270,
      "ä»·æł¼": 7271,
      "Ø±ÙĪÙħ": 7272,
      "ĠÙĩÚªÙ»Ø¦ÙĬ": 7273,
      "Ġlub": 7274,
      "Ø·Ø§Ùģ": 7275,
      "ĠÚĢÙ½ÙĬ": 7276,
      "Ø§Ø³Ù½": 7277,
      "ĠÙĪØ§Ù½": 7278,
      "ĠÚĢØ§": 7279,
      "Ø§ÙħØª": 7280,
      "ĠÙ½Ø§Ø¦ÙĬ": 7281,
      "ĠÙ¾ÚĮ": 7282,
      "ikut": 7283,
      "ĠØ§ÙĦÙħ": 7284,
      "Ġesimese": 7285,
      "ĠØ®ÙĪÙĨ": 7286,
      "ĠØ³Ø¤": 7287,
      "ĠÙħØ³Ø¦ÙĦØ§": 7288,
      "à´°à´Ł": 7289,
      "ĠMicrosoft": 7290,
      "Ġrak": 7291,
      "ĠÙģØ·Ø±Øª": 7292,
      "èģĺ": 7293,
      "ä¹ħä¹ħ": 7294,
      "ç»§": 7295,
      "à´µà´£": 7296,
      "ĠØ¬ÙĬØªØ±ÙĪ": 7297,
      "ĠØ§ÙĪÛģØ¯ÛĮ": 7298,
      "ĠÙĤØ±Ø¨Ø§ÙĨ": 7299,
      "Ø³ÙĦØ§Ùħ": 7300,
      "ĠçĪ±": 7301,
      "ĠÙĪØ§ÙĦØ§": 7302,
      "Ø®Ø§ÙĨ": 7303,
      "Ġveeb": 7304,
      "ĠØ³Ø§Ù¿ÙĬ": 7305,
      "ä¸įä¸Ńè¿Ķ": 7306,
      "ĠØ¬Ø§ÙĪÛĴ": 7307,
      "ĠØ±Ù¾ÙĪØ±": 7308,
      "è¯±æĥĳ": 7309,
      "Ġkontr": 7310,
      "ÙħÙĪÙĦÙĬ": 7311,
      "ĠØ®Ø·Ø±ÙĨ": 7312,
      "ĠÚªØ§ØºØ°": 7313,
      "ĠØ³ÙĨÚĮÙĬØ¡": 7314,
      "Ãµig": 7315,
      "ĠÚªØ§Ø±ÙĪØ¨Ø§Ø±": 7316,
      "è¾ĵäºĨ": 7317,
      "ĠÙħÚªØ§ÙĨÙĬ": 7318,
      "ĠÙħØ¹Ø§Ø´ÙĬ": 7319,
      "Ã¼m": 7320,
      "Ġpaar": 7321,
      "ĠÚªØ§Ø±ÚªØ±Ø¯": 7322,
      "å°ıå§Ĳ": 7323,
      "ooni": 7324,
      "ĠÙ¾Ø§Ø³ÛĴ": 7325,
      "ĠÙĦÛģ": 7326,
      "æĶ¯ä»ĺ": 7327,
      "ĠØ¹Ø¨Ø§Ø¯Øª": 7328,
      "ĠÚªÙĨØ¯Ø§Ø³ÙĬÙĨ": 7329,
      "ĠÙħØ´Ø±Ùģ": 7330,
      "ĠÚªÙĩØ§Ú»ÙĬÙĪÙĨ": 7331,
      "Ġå¿«ä¸ī": 7332,
      "æ¥Ń": 7333,
      "Ġsama": 7334,
      "ĠØ§ÙĩÚĻÙĬÙĪÙĨ": 7335,
      "ĠÙħÙĦÙĨØ¯ÙĪ": 7336,
      "ĠØ§ÙħØ¯Ø§Ø¯": 7337,
      "è¿Ŀæ³ķ": 7338,
      "à´²à´Ļ": 7339,
      "65": 7340,
      "ĠØ§Ø¹ØªÙħ": 7341,
      "éĩĮéĿ¢": 7342,
      "ĠØ·Ø¨ÙĤÙĬ": 7343,
      "ĠÚ¯Ø±ÙĪÙ¾": 7344,
      "ä»¤": 7345,
      "Ġnah": 7346,
      "Ø¯ÙĦ": 7347,
      "ĠØ·Ø±Ø§Úº": 7348,
      "ĠØ¶ÙĦØ¹": 7349,
      "ĠÚıÙĬØ§Ø±ÙĬ": 7350,
      "Ù¾Ø§ÙĦ": 7351,
      "ĠÙĪØ³Ø§Ø±ÙĬ": 7352,
      "ĠÙĨÙĬÙº": 7353,
      "àµ»à´¸": 7354,
      "2008": 7355,
      "åĪł": 7356,
      "ĠØŃÙģØ§Ø¸": 7357,
      "Ġkand": 7358,
      "ĠÙ¾ÙĪØ³Ù½": 7359,
      "ĠÙĩÙĦØ§Ø¦Ú»": 7360,
      "ĠØ¢Øº": 7361,
      "Ġelekt": 7362,
      "Ø§Ø¦ÛĮÚº": 7363,
      "Ġaval": 7364,
      "Ġeri": 7365,
      "Ġkomm": 7366,
      "ĠÚıÙĪÙĩÙĩ": 7367,
      "eeri": 7368,
      "à´ķà´Ł": 7369,
      "ĠÙħÙĨØ¹": 7370,
      "ä¸²": 7371,
      "Ġç¦ıåĪ©å½©ç¥¨å¤©å¤©": 7372,
      "Ġvajad": 7373,
      "ĠÙħØ§Ø±ÚªÙĬÙ½": 7374,
      "Ø´Ø§ÙĪØ±": 7375,
      "itav": 7376,
      "è´´åĲ§": 7377,
      "ÙĪÙĦØ§": 7378,
      "ĠÙĪÚĦ": 7379,
      "ĠØ¹ÙĪØ±ØªÙĪÙĨ": 7380,
      "ĠÚªØ§Ø¦ÙĪÙĨ": 7381,
      "ä¸Ńå¥ĸå½©ç¥¨": 7382,
      "vaid": 7383,
      "Ġç½ĳæĺĵ": 7384,
      "300": 7385,
      "ĠÙ¾ÙĨÚĮ": 7386,
      "æłĩåĩĨ": 7387,
      "Ġlahend": 7388,
      "ĠØ±ÙĬÙĦÙĪÙĬ": 7389,
      "aldab": 7390,
      "ĠÙĨÙĪØ¬ÙĪØ§ÙĨÙĨ": 7391,
      "ĠØ³ÙĨÚ¯Ø§Ù¾ÙĪØ±": 7392,
      "Ġkan": 7393,
      "ĠÚªÙ½": 7394,
      "ÙĪÙħØ¨Ø±": 7395,
      "ÚªÙĪÙ½": 7396,
      "ue": 7397,
      "ĠÙ¾ÛĮÙĪ": 7398,
      "ÙĨÚĬÙĬ": 7399,
      "ĠÙħØ§Ø³": 7400,
      "àµģ,": 7401,
      "Ġà´İà´Ļ": 7402,
      "æĿ¥çļĦ": 7403,
      "Ġå½©ç¥ŀäºīéľ¸å¿«": 7404,
      "ustele": 7405,
      "æł¹æį®": 7406,
      "à´ĺà´Łà´¨": 7407,
      "ĠØ§Ø®Ø¨": 7408,
      "aterjal": 7409,
      "æŃ£è§ĦçļĦåĲĹ": 7410,
      "arv": 7411,
      "é¡»": 7412,
      "ÙĤØ±": 7413,
      "ĠÙĨØ¸Ø±ÙĬ": 7414,
      "180": 7415,
      "ers": 7416,
      "ĠØ´Ø±Ùħ": 7417,
      "ĠÙħØ§ÙĬÙĪ": 7418,
      "ĠÚĢÙĬÚ»": 7419,
      "æ¹¾": 7420,
      "ĠØ§ÙĪÛģÙĨÙĪÚº": 7421,
      "ĠØ¹Ø§ÙĦÛĮ": 7422,
      "ĠØ¯ÙħØ§Øº": 7423,
      "Ø§ÚªÙĨ": 7424,
      "Ġkl": 7425,
      "ç»Īäºİ": 7426,
      "ahv": 7427,
      "ĠØ§ØªÙģØ§ÙĤ": 7428,
      "éĤĵ": 7429,
      "ustest": 7430,
      "useid": 7431,
      "æĳĦ": 7432,
      "åģ¥åº·": 7433,
      "ĠØ§Ø³Ø§ÙĨØ¬ÙĬ": 7434,
      "Ġå½©ç¥ŀäºīéľ¸èĭ¹æŀľ": 7435,
      "ĠØ®ÙĬØ±Ù¾ÙĪØ±": 7436,
      "Ġrahvus": 7437,
      "à´¹à´®": 7438,
      "ĠæľĢæĸ°": 7439,
      "å°½": 7440,
      "å¹´çļĦ": 7441,
      "Ġæŀ": 7442,
      "Ġtehtud": 7443,
      "è´¨éĩı": 7444,
      "ĠÙ½ÙĬÙĨ": 7445,
      "ĠØ±Ú©Ú¾ÛĮØ§": 7446,
      "å±ŀäºİ": 7447,
      "ĠÚĪÛĮ": 7448,
      "ĠØ³ÙĬÙĨÙ½Ø±": 7449,
      "ï¼ĮâĢľ": 7450,
      "ĠÙ½Ø§ÙĦ": 7451,
      "å¤«å¦»": 7452,
      "éĶĢåĶ®": 7453,
      "ĠÙĦÙĩÙĬ": 7454,
      "amis": 7455,
      "ĠÙħØ±Ú©": 7456,
      "ĠÛĮØ±ÙĪØ´": 7457,
      "åĪ»": 7458,
      "ĠØ¯Ø±Ø³Øª": 7459,
      "èªī": 7460,
      "ĠØ¨ÙĬÚ¯": 7461,
      "ĠÙĤÙĬØ§Ø¯Øª": 7462,
      "å®ľ": 7463,
      "Ø§ÙĦØª": 7464,
      "Ġhool": 7465,
      "qqç¾¤": 7466,
      "ĠÛģÚ©": 7467,
      "Ġkvalite": 7468,
      "ĠÚ³ÙĪÙĦØ§": 7469,
      "sest": 7470,
      "ĠØ¹ÙĦÙħÙĬ": 7471,
      "è®°èĢħ": 7472,
      "à´Ļàµ¾à´ķ": 7473,
      "Ø§ÙĨÛģ": 7474,
      "Ãµige": 7475,
      "éĵ¶è¡Įåį¡": 7476,
      "Ø§Ø¨ÙĬ": 7477,
      "Ġåħ¨æ°ĳ": 7478,
      "ĠØ¹Ø±Ø¨ÙĬ": 7479,
      "ĠÙ¾Ø±ÙĪÙģÙĬØ³Ø±": 7480,
      "ĠØ§ÙĩÚĻÙĬØ¡": 7481,
      "ustab": 7482,
      "ĠØ±Ø§Ø¬Ø§": 7483,
      "è¯Ģ": 7484,
      "Ġmag": 7485,
      "ĠlÃµpet": 7486,
      "æĸ°éĹ»": 7487,
      "Ù¹ÙĨ": 7488,
      "ĠSt": 7489,
      "ĠØ±Ø¶Ø§": 7490,
      "ĠÙĨØªÙĬØ¬ÙĪ": 7491,
      "ĠÃ¼mber": 7492,
      "ĠØ¹ÙĦÙĬÙĩ": 7493,
      "lm": 7494,
      "ĠØ¹ÙĤÙĦ": 7495,
      "ĠtÃ¶Ã¶d": 7496,
      "è¾ĵéĴ±": 7497,
      "ÚĪØ±": 7498,
      "ĠÙħÙĦÙĬÙĦ": 7499,
      "Ø±ÙĬØ¨ÙĨ": 7500,
      "ĠØ³Ú³ÙĪØ±ÙĨ": 7501,
      "ĠÚ¾ÙĦ": 7502,
      "ĠØªØ±ÙħÙĬÙħ": 7503,
      "åĨ·": 7504,
      "2000": 7505,
      "ĠÃµigus": 7506,
      "å¥³åŃ©": 7507,
      "org": 7508,
      "Ġå¦Ĥä½ķ": 7509,
      "èĵĿ": 7510,
      "ĠØªØ¹Ø§ÙĦÙĬ": 7511,
      "ekti": 7512,
      "å¤§åıĳå®ĺç½ĳ": 7513,
      "ĠØºØ²ÙĦ": 7514,
      "ĠÙħØ®Ø§ÙĦÙģØª": 7515,
      "ĠØ±ÙĬÚĬÙĬÙĪ": 7516,
      "éļľ": 7517,
      "Ø¨Ø±Ø¯": 7518,
      "ĠÙ»Ø§Ø±ÚĻÙĨ": 7519,
      "ĠÚ¯ÙĪÙĨ": 7520,
      "ĠØ¨ÙĬÙĨØ¸ÙĬØ±": 7521,
      "è£¤": 7522,
      "à´µàµ¼": 7523,
      "å¤§å°ıåįķåıĮ": 7524,
      "ĠQ": 7525,
      "ĠÚ©ÛĮÙĪÚº": 7526,
      "æļ´": 7527,
      "Ġæ¸": 7528,
      "fa": 7529,
      "ett": 7530,
      "æĶ¿çŃĸ": 7531,
      "ĠØªØ±Ø¬ÙħØ§ÙĨ": 7532,
      "ĠØ´Ø§Ø¹Ø±ÙĨ": 7533,
      "Ġæĥħ": 7534,
      "ĠÚĢÚĥ": 7535,
      "å¥¥": 7536,
      "ĠØ³ÙĨÚĢØ§ÙĦ": 7537,
      "å¼ĢæĮĤ": 7538,
      "éĴ¢": 7539,
      "ĠÚªÙĨØ§Ø±ÙĬ": 7540,
      "olli": 7541,
      "Ġå¤©å¤©ä¸Ńå½©ç¥¨åı¯ä»¥": 7542,
      "ĠÚĢÙ½": 7543,
      "ĠÙ¾ÙĬØ¦Ú»": 7544,
      "åıĳçİ°": 7545,
      "ĠØ¨Ø¯ÙĨ": 7546,
      "çĽ´æİ¥": 7547,
      "ĠØ¹Ø°": 7548,
      "ĠÚ¯ÛĴ": 7549,
      "Ġkindlasti": 7550,
      "Ø±ÙĬÚªÙ½Ø±": 7551,
      "ĠØ³ÙĦØ§ÙħØª": 7552,
      "ĠÙĦØ§Ú³Ø§Ù¾ÙĬÙĦ": 7553,
      "å¼Ģå±ķ": 7554,
      "Ġannab": 7555,
      "ĠØ§ÙĦØ§Ø¦ÙĬ": 7556,
      "128": 7557,
      "ĠÙĩØ¦ÙĪ": 7558,
      "éĮ": 7559,
      "åħµ": 7560,
      "ĠÙ¾ÙĬÙĨ": 7561,
      "ĠÃ¼tles": 7562,
      "ĠØ´Ø§ÙĨØ¯Ø§Ø±": 7563,
      "àµĨâĢĭ": 7564,
      "ĠØŃØ§ÚªÙħ": 7565,
      "ï¼ļãĢĮ": 7566,
      "ĠÚĨÙĪØ±": 7567,
      "çº¢åĮħ": 7568,
      "é¡¶": 7569,
      "ĠØ±Ú©ÙĬÙĦ": 7570,
      "ĠØ§ÙĨØ¯Ø§Ø²ÙĪ": 7571,
      "èº«ä»½": 7572,
      "ĠØ¹ÙĬØ¯": 7573,
      "åºĶçĶ¨": 7574,
      "ĠÙĪØ¯": 7575,
      "vod": 7576,
      "Ġå¤©å¤©ä¸Ńå½©ç¥¨ä¸Ńå¤§å¥ĸ": 7577,
      "ĠÚ©ÙĬÚı": 7578,
      "å®ĺæĸ¹ä¸ĭè½½": 7579,
      "ĠÙĬÙĪÙĨÙĬÙĪØ±Ø³Ù½ÙĬØ¡": 7580,
      "ä¸Ńçī¹": 7581,
      "è´£ä»»": 7582,
      "Ġpaig": 7583,
      "çĪ½": 7584,
      "ĠØ¬ØªØ§ÙĨ": 7585,
      "å°Ĭ": 7586,
      "ĠÙħØ±Ú»": 7587,
      "ikas": 7588,
      "ÛĶ[": 7589,
      "æĭħ": 7590,
      "ĠØ§ÚªØ¨Ø±": 7591,
      "ĠØ¢ÙģØ±ÙĬÚªØ§": 7592,
      "ĠØ§ÚĢ": 7593,
      "à´ķà´µ": 7594,
      "hel": 7595,
      "Ø±ÛĮÙĨ": 7596,
      "ç²¾åĩĨ": 7597,
      "ĠÚªØ´ÙħÙĬØ±": 7598,
      "å¦¹å¦¹": 7599,
      "ĠlÃ¤he": 7600,
      "à´¤àµ½": 7601,
      "ĠÚıÙĩÙĩ": 7602,
      "Ø§ØŃØ¯": 7603,
      "ĠÙħÙĪÚªÙĦÙĬ": 7604,
      "ĠÚ©ÙĨÚĬ": 7605,
      "çį": 7606,
      "æĪĳåĢĳ": 7607,
      "ĠÙħØ§Ú»Ú¾ÙĨ": 7608,
      "Ġtee": 7609,
      "ĠÙĪØ¶": 7610,
      "unn": 7611,
      "à´¸à´¤": 7612,
      "Ġjuhul": 7613,
      "Ġuue": 7614,
      "ĠØ§ÙħØªØŃØ§ÙĨ": 7615,
      "ĠTallinn": 7616,
      "Ù¾Ø§": 7617,
      "ĠÚªÙĨØ¯ÚĻÙĨ": 7618,
      "ĠØ±Ø§Ø²": 7619,
      "ĠØ¬Ø²": 7620,
      "æ¶Īè´¹": 7621,
      "Ø§Ø¦ÙĬÙĦ": 7622,
      "Ø³ÙĦÙħØ§ÙĨ": 7623,
      "ĠØ¢Ú©Ú¾ÛĮØ§": 7624,
      "å½±çīĩ": 7625,
      "ekord": 7626,
      "ow": 7627,
      "ÙĬÚªØ±": 7628,
      "ark": 7629,
      "ĠvÃ¤rv": 7630,
      "Ø¬ÙĬØ¯": 7631,
      "seis": 7632,
      "ĠØ§ÙĪØ¯ÛĴ": 7633,
      "ä¸ĢäºĽ": 7634,
      "mes": 7635,
      "ĠÚ©Ø±Ú©ÛĴ": 7636,
      "à´£à´¨": 7637,
      "di": 7638,
      "ĠÚĨÚ±ÙĬ": 7639,
      "à´¶à´¨": 7640,
      "Ú¯ÚĳÚ¾": 7641,
      "ĠØ³ÚĢØ¦ÙĬ": 7642,
      "ingi": 7643,
      "Ġäºļ": 7644,
      "ĠØ³ÙĬÚªÙĬÙĪØ±Ù½ÙĬ": 7645,
      "ĠØ¢ÙģÙĬØ³Ø±ÙĨ": 7646,
      "Ø¦Ùĩ": 7647,
      "åħ¨çĲĥ": 7648,
      "çľĭçļĦ": 7649,
      "ç¸": 7650,
      "ĠØ§Ø¨ÚĻÙĪ": 7651,
      "ä¸Ģèµ·": 7652,
      "ĠÙģØ±ÙĬ": 7653,
      "æĿ±": 7654,
      "ĠVal": 7655,
      "ĨĴ": 7656,
      "ĠØ¹ÙĩØ¯ÙĬ": 7657,
      "ĠØ®ÙĪØ´ÙĬØ¡": 7658,
      "amb": 7659,
      "ÚįÙĬ": 7660,
      "à´®à´±": 7661,
      "èķī": 7662,
      "åĨ²": 7663,
      "ĠÚªÙĨÚĬ": 7664,
      "éĥ¨éĹ¨": 7665,
      "Ġeriti": 7666,
      "æıĲæ¬¾": 7667,
      "ĠÙĦÙĨ": 7668,
      "ĠLi": 7669,
      "ÙĦÚĬ": 7670,
      "ÙħÙĪÙĦ": 7671,
      "ĠØ§Ø¨ÙĨ": 7672,
      "å®¶çļĦ": 7673,
      "Ġtuli": 7674,
      "Ù¾Ø§Ø±Ù½ÙĬ": 7675,
      "ä¸ĢæŃ¥": 7676,
      "ĠÙĪØ§Øª": 7677,
      "ĠÚ©ÙĪÙĦÙĪÚº": 7678,
      "Ġkaup": 7679,
      "ä¸įæĸŃ": 7680,
      "lest": 7681,
      "ä½ľçĶ¨": 7682,
      "é»ĳå¹³åı°": 7683,
      "ĠØ´Ú©": 7684,
      "Ġà´Ĩà´¨": 7685,
      "ĠØ³ÚĢØ§Ú»ÙĬ": 7686,
      "åįł": 7687,
      "ĠhÃ¼": 7688,
      "æ´ĭ": 7689,
      "ĠÙĪØ³ÙĬÙĦÙĬ": 7690,
      "maal": 7691,
      "ĠØŃÚªÙħØª": 7692,
      "åľ°äº§": 7693,
      "Ġak": 7694,
      "æİĪ": 7695,
      "ĠÙħÙº": 7696,
      "à´²à´°": 7697,
      "ĠØ§Ù¾ÙĨØ§": 7698,
      "ĠØ³ÚĮÙĪ": 7699,
      "Ø¬ÙĬÚª": 7700,
      "ĠÙħÙĬÚĬ": 7701,
      "ms": 7702,
      "åľ°æĸ¹": 7703,
      "ĠÚĨÙĪÚº": 7704,
      "ĠÙħØ¨Ø§Ø±Úª": 7705,
      "è³ĩ": 7706,
      "Ġpra": 7707,
      "one": 7708,
      "ÙģÙĨ": 7709,
      "ĠÃ¼his": 7710,
      "ĠØªÛĮÚ©": 7711,
      "ĠØ¨Ø±ÙĤØ±Ø§Ø±": 7712,
      "ĠmÃ¤rk": 7713,
      "tik": 7714,
      "ĠÙ¾Ú©ÙĬ": 7715,
      "Ġtaot": 7716,
      "Ġtoimub": 7717,
      "ĠÚªØ´": 7718,
      "ĠÚ¾ÙĨÙĨ": 7719,
      "Ġuus": 7720,
      "Â·": 7721,
      "ĠØ«ÙĤØ§ÙģØª": 7722,
      "æİĴè¡Įæ¦ľ": 7723,
      "ĠÙĩÙ½": 7724,
      "à´³à´³": 7725,
      "æłĳ": 7726,
      "ingut": 7727,
      "æĽ´å¤ļ": 7728,
      "Ġkell": 7729,
      "alam": 7730,
      "Ġà´ķà´¯à´±": 7731,
      "ÙĦÙĪÙħÛĮÙ¹Ø±": 7732,
      "ĠØ¹Ø§Ø´": 7733,
      "äº¤æĺĵ": 7734,
      "ĠØŃÚªÙĪÙħ": 7735,
      "ukoh": 7736,
      "Ġà´¨à´¨": 7737,
      "atuse": 7738,
      "åŁºæľ¬": 7739,
      "ĠØªØ§Ø±": 7740,
      "ĠØ¯Ø¹ÙĪÙĬ": 7741,
      "ĠÙħÙĪÙ½Ø±": 7742,
      "Ġvalg": 7743,
      "Ġsuurem": 7744,
      "://": 7745,
      "ĠØªØŃÙģØ¸": 7746,
      "ĠØ³Ø§Ú³Ø¦ÙĬ": 7747,
      "ĠØ¨Ú¾ÛĮ": 7748,
      "Ġå¤©å¤©ä¸Ńå½©ç¥¨è¶³çĲĥ": 7749,
      "ĠØªØ¬Ø±": 7750,
      "Ġsuun": 7751,
      "ĠÙħÙĦØªØ§ÙĨ": 7752,
      "å·¦": 7753,
      "ä»ĺ": 7754,
      "Ú±ÙĬ": 7755,
      "ĠÙħØ±ÚªØ²ÙĬ": 7756,
      "ises": 7757,
      "sen": 7758,
      "Ð¾": 7759,
      "ĠÙĤØ¨Ø¶ÙĪ": 7760,
      "ĠØ¨ÙĬÙºÙĪ": 7761,
      "idel": 7762,
      "Ġjuures": 7763,
      "edi": 7764,
      "ĠØ´Ø§Ú¾": 7765,
      "ĠÚªØ§Ø±ÚªØ±Ø¯Ú¯ÙĬ": 7766,
      "Ġæ°": 7767,
      "å®«": 7768,
      "ÚĨÚ¾": 7769,
      "ä¿Ħ": 7770,
      "ĠØ²ÙĨ": 7771,
      "ĠÚĨÙĬÙħ": 7772,
      "Ù¾ÙĪØ±Ù½Ø³": 7773,
      "Ġmulle": 7774,
      "èĩªåĬ¨": 7775,
      "å±±å¤§åıĳ": 7776,
      "ÙĦÙĨÚĬ": 7777,
      "ĠØ§Øº": 7778,
      "ĠØ¢Ú±": 7779,
      "à´¯àµ»": 7780,
      "ĠØ¢ÙħØ¯": 7781,
      "ĠÚ³ÙĪÙºÙĨ": 7782,
      "èī²åĽ¾": 7783,
      "æĲľ": 7784,
      "ĠÙĪØ§Ø³Ø·": 7785,
      "è¡¥": 7786,
      "Ġsuh": 7787,
      "å½±è§Ĩ": 7788,
      "ĠÚªÙĬØ§Ø¦ÙĪÙĨ": 7789,
      "Ù¹Ø§": 7790,
      "æĹħæ¸¸": 7791,
      "à´§à´®": 7792,
      "ä¸įä¼ļ": 7793,
      "ĠØ³Ø¨Ú¾": 7794,
      "åħ·æľī": 7795,
      "ĠÚ¯Ø±ÙħÙĬ": 7796,
      "Ġtele": 7797,
      "ÙĦÙĬÙĨ": 7798,
      "ĠÙ¿ÙĬÙĨØ¯ÙĬÙĪÙĨ": 7799,
      "ĠpÃ¤Ã¤": 7800,
      "ĠÃ¼hend": 7801,
      "æŃĮ": 7802,
      "ĠÙ¾Ø¦ÛĮ": 7803,
      "ĠÙħÙĬÙħØ¨Ø±ÙĨ": 7804,
      "ĠÙħØŃØ¯ÙĪØ¯": 7805,
      "Ġå¤©å¤©ä¸Ńå½©ç¥¨è½¯ä»¶": 7806,
      "ĠØªØ®Øª": 7807,
      "å¤§ç¥ŀæİ¨èįĲ": 7808,
      "ĠØ§Ø³ÙħØ§Ø¹": 7809,
      "ikat": 7810,
      "Ø§ÙĩØ§": 7811,
      "oone": 7812,
      "ĠØµÙĪØ¨ÙĨ": 7813,
      "ä¸Ģå®ļ": 7814,
      "ektiiv": 7815,
      "Ġkomp": 7816,
      "juht": 7817,
      "è®¡ç®Ĺ": 7818,
      "ÙĪÚªÙĬ": 7819,
      "ĠÚªÙħØ§ÙĦ": 7820,
      "ĠÙħÙ¿Ø³": 7821,
      "ĠÚªÙħØ²ÙĪØ±": 7822,
      "ĠÙ¾ÙĬÙĪÙĨ": 7823,
      "ĠÙĦØ§Ø¦ÙĬÙĨ": 7824,
      "Ð¸": 7825,
      "ĠØ¨Ø±Ø·": 7826,
      "ĠÛģÙĪÚ¯": 7827,
      "ĠÚ³ÙĨÚį": 7828,
      "ĠØ¬Ø§ÙĪ": 7829,
      "ĠÚ©ÙĦÙĪÙħÛĮÙ¹Ø±": 7830,
      "æĽ²": 7831,
      "éĽħ": 7832,
      "ĠÚ¯Ø§ÙĦ": 7833,
      "Ġpiis": 7834,
      "Ø§ÙģÙĪ": 7835,
      "Ú¾Ú»": 7836,
      "ĠÙĤÙĬÙħØª": 7837,
      "åħ¨éĿ¢": 7838,
      "Ġteada": 7839,
      "ĠÙģØ¶ÙĦ": 7840,
      "ĠÙĪÚ©": 7841,
      "é¦Ļèķī": 7842,
      "ĠÙĩÙĨÙĬÙĪ": 7843,
      "åĽłæŃ¤": 7844,
      "æ¯ĶèµĽ": 7845,
      "!âĢĿ": 7846,
      "å®Ī": 7847,
      "è´Ńå½©ç¥¨": 7848,
      "ĠÚªÙĨÙ½Ø±ÙĪÙĦ": 7849,
      "ĠØ§Ø¹ØªÙħØ§Ø¯": 7850,
      "jast": 7851,
      "àµĨ,": 7852,
      "Me": 7853,
      "èĢĮä¸Ķ": 7854,
      "Ġkool": 7855,
      "æľĢå¤ļ": 7856,
      "ĠØ§Ø®ÙĦØ§ÙĤ": 7857,
      "à´±à´ļ": 7858,
      "ĠØ§Ø¨ØªØ¯": 7859,
      "ĠÙĩÙħØ±": 7860,
      "uar": 7861,
      "Ø±Ø§ÙĨÛĮ": 7862,
      "ĠlÃµpp": 7863,
      "æĶ¹éĿ©": 7864,
      "ĠØ¯ÙĪÙĨ": 7865,
      "Ġsotsi": 7866,
      "ĠÚĢØª": 7867,
      "ĠØ¢Ø¨": 7868,
      "Ġà´¶à´ķ": 7869,
      "ĠtÃ¤p": 7870,
      "Ġlenn": 7871,
      "å¥³çĶŁ": 7872,
      "ĠLe": 7873,
      "Ù¾ÙĨÛĴ": 7874,
      "ÙĤÙĬØ¡": 7875,
      "ĠØ¨Ø¯ÙĬÙĨ": 7876,
      "Ġå¤©å¤©å½©ç¥¨ä¸Ńå¥ĸ": 7877,
      "ç¡Ģ": 7878,
      "ĠÚªÙħØ´ÙĨØ±": 7879,
      "Ġà´ħà´µà´¨": 7880,
      "ĠvÃ¤hemalt": 7881,
      "ĠÚªÙħÙĨ": 7882,
      "ĠÙĨÙĪÙħØ¨Ø±": 7883,
      "ç²¾ç¥ŀ": 7884,
      "ç§įåŃĲ": 7885,
      "ĠØ¬Ø§Ø¦Ø²ÙĪ": 7886,
      "Ġriig": 7887,
      "96": 7888,
      "ÙĦØŃ": 7889,
      "lased": 7890,
      "ĠØ¬Ø§ÙĨÙĪØ±": 7891,
      "ĠpÃ¤": 7892,
      "åľ°åĮº": 7893,
      "ĠØµØ¯Ø§Ø±Øª": 7894,
      "Ø³Ù½Ùħ": 7895,
      "ĠÚĨØ§ÚĻ": 7896,
      "è´Łè´£": 7897,
      "Ġmur": 7898,
      "190": 7899,
      "ĠØ¨ÙĨØ§ÙĨ": 7900,
      "ĠØ¯ÛĮÙĪ": 7901,
      "ÚĮØ§": 7902,
      "ĠØ§ÙħØ±ÛĮÚ©Ûģ": 7903,
      "åŁºç¡Ģ": 7904,
      "ĠÙ¾Ø±ÙĨ": 7905,
      "ĠØ¹Ø²ÙĬØ²": 7906,
      "amata": 7907,
      "è®¨": 7908,
      "ĠÚĢÙĬØ±ÙĬ": 7909,
      "çĽĽ": 7910,
      "ĠÙ»ÚĮÙĪ": 7911,
      "ĠÙĦØº": 7912,
      "ĠÙ»ÙĬÙĪÙĨ": 7913,
      "Ø§Ø±ÙĬÙĦ": 7914,
      "ĠÙ¾ÙĬØ¦ÙĬ": 7915,
      "Ġhetk": 7916,
      "ĠØŃÙħÙĦ": 7917,
      "ĠÙħØ®ØµÙĪØµ": 7918,
      "Ø§ÙĨÚª": 7919,
      "åĪĨå½©": 7920,
      "Ġkont": 7921,
      "Ġjag": 7922,
      "ÙĪÙĨÚĬÙĬ": 7923,
      "ĠÙĨÙĪÛĮÚº": 7924,
      "æ¶²": 7925,
      "ĠVene": 7926,
      "Ø§Ø³Ùħ": 7927,
      "ĠØ±Ú¾ÙĬ": 7928,
      "åľ¨çº¿è§Ĩé¢ĳ": 7929,
      "èħ¿": 7930,
      "æŀ¶": 7931,
      "ĠÚĢÙĬØ±Ø§": 7932,
      "å®Įæķ´": 7933,
      "ĠØ±ÛĮØ§Ø³Øª": 7934,
      "ĠØªØ¬ÙĪ": 7935,
      "adr": 7936,
      "è¼ī": 7937,
      "ç¢°": 7938,
      "à´¿:": 7939,
      "à´Ĥ:": 7940,
      "Ġnews": 7941,
      "Ġkeer": 7942,
      "Ġå¤©å¤©ä¸Ńå½©ç¥¨å¦Ĥä½ķ": 7943,
      "uuri": 7944,
      "æĤ£": 7945,
      "ĠØ³Ø§Ø±ÛĮØ§Úº": 7946,
      "Ġq": 7947,
      "ĠØ³Ùº": 7948,
      "ĠØ¹ÙĤÙĬØ¯": 7949,
      "ĠØ³Ø§Ú³ÙĬÙĪ": 7950,
      "ĠÚĬÙĬÙĪ": 7951,
      "æľīä»Ģä¹Ī": 7952,
      "ĈĆ": 7953,
      "Ø´Ø±ÙĬÙģ": 7954,
      "ØªÙĪÙĬ": 7955,
      "ä½ĵçİ°": 7956,
      "Ġoluk": 7957,
      "Ø³ÙĨÚĮÙĬ": 7958,
      "Ġà´ħà´ŀ": 7959,
      "inf": 7960,
      "ĠÛĮÙĪØ±Ù¾": 7961,
      "Ġà´ķà´Ł": 7962,
      "Ġlep": 7963,
      "æĿ¨": 7964,
      "Ġaru": 7965,
      "Ġeurot": 7966,
      "èıľ": 7967,
      "ç«Ł": 7968,
      "çļĦå°ı": 7969,
      "à´¦à´¨": 7970,
      "ĠØ±ÙĪØ§Ø¬": 7971,
      "àµįâĢĭ": 7972,
      "äºĴèģĶ": 7973,
      "ĠØ§ÙĪÛģÙĨÛĴ": 7974,
      "Ġkunst": 7975,
      "ĠØªØ±Ø¨": 7976,
      "olu": 7977,
      "ĠÚªÙĬØªØ±ÙĪ": 7978,
      "ĠÙĦÙĨÚĬÙĨ": 7979,
      "56": 7980,
      "Ø§ÛĮÛģ": 7981,
      "åł´": 7982,
      "Ġpun": 7983,
      "Ġà´¤à´¯": 7984,
      "ĠÚ©Ø³ÛĮ": 7985,
      "Ġà´Ĩà´³": 7986,
      "ĠÙ¾Ø§Ø±Ù½ÙĬÙĨ": 7987,
      "ÙĩÙĬØ§": 7988,
      "ç¯ĩ": 7989,
      "ĠvÃµivad": 7990,
      "ĠÙ¹ÛĮ": 7991,
      "Ġå½©ç¥ŀäºīéľ¸çļĦ": 7992,
      "ĠÚĩÚıÚ»": 7993,
      "ĠÚ©Ø§Ùħ": 7994,
      "æŃ£åľ¨": 7995,
      "Ø§Ø¦ÛĮØ§Úº": 7996,
      "Ma": 7997,
      "ĠÙĩØ§ÙĦ": 7998,
      "ĠjÃ¤tk": 7999,
      "ĠçĶ·": 8000,
      "ĠØªØ±ØªÙĬ": 8001,
      "åŃķ": 8002,
      "æİ¢": 8003,
      "å¤©åłĤ": 8004,
      "æķ°åŃĹ": 8005,
      "57": 8006,
      "Ġkal": 8007,
      "Ġfilm": 8008,
      "Ù½Ø±Úª": 8009,
      "äºŀ": 8010,
      "Ġjut": 8011,
      "ĠØ±ÙģØª": 8012,
      "ĠØ±Ø§ÙĨØ¯ÙĬ": 8013,
      "ÙĪØ¯ÛĴ": 8014,
      "ĠØ¨ÙĨØ§ÛĮØ§": 8015,
      "âĢĿ.": 8016,
      "ĠÙ¾ÙĩØ±": 8017,
      "ĠØ¨ÙĦÙĨØ¯": 8018,
      "çľĭåĪ°": 8019,
      "ĠÙĤØ§Ø¨": 8020,
      "ä»Ĭå¹´": 8021,
      "ĠØ²Ø¨Ø±Ø¯": 8022,
      "ister": 8023,
      "ĠÙĪÙĬÚĨ": 8024,
      "Ġarvest": 8025,
      "Ġä¹Ĳ": 8026,
      "46": 8027,
      "ĠÙ¾Ø¨ÙĦ": 8028,
      "Ġå¤©å¤©ä¸Ńå½©ç¥¨ä¸ŃäºĨ": 8029,
      "Ø§ÙģÛĮ": 8030,
      "ĠÙĪÙģØ§ÙĤ": 8031,
      "Ġå¤©å¤©ä¹Ĳå½©ç¥¨": 8032,
      "åĪ¤": 8033,
      "à´°à´ª": 8034,
      "à´Ĺà´¸": 8035,
      "ĠØ§Ú¯ÛĴ": 8036,
      "ĠØ±Ø´ÙĬØ¯": 8037,
      "ĠØ¬ÙĪÚĻ": 8038,
      "ĠÚªÙĩØ§Ú»ÙĬÙĨ": 8039,
      "ĠØªÙĨÚ¯": 8040,
      "æĪª": 8041,
      "ĠØ³ÚıÙĬÙĪ": 8042,
      "ĠÚ©Ú¾ÙĪ": 8043,
      "ĠØ´Ø¹ÙĪØ±": 8044,
      "ĠØ§ÚªÙĬÙĦÙĪ": 8045,
      "à´¶à´¤": 8046,
      "ĠÚıÙĩ": 8047,
      "ĠÚĢÙĬÙ½": 8048,
      "ĠmÃµtle": 8049,
      "å¸ĮæľĽ": 8050,
      "Ġalates": 8051,
      "ĠØ®Ø²": 8052,
      "Ġå¤©å¤©ä¸Ńå½©ç¥¨è¿½åı·": 8053,
      "çŃĶ": 8054,
      "ĠØ±Ø§Ø´": 8055,
      "ĠpÃ¤ris": 8056,
      "Ġà´ĩà´µà´°": 8057,
      "ĠÙħØ¹Ø§ÙħÙĦÙĪ": 8058,
      "ÚªÙħ": 8059,
      "Ø²Ø§Ø²": 8060,
      "è°Ī": 8061,
      "ĠÙĤÙĪØª": 8062,
      "ĠÙħØ³ÙĦØ³ÙĦ": 8063,
      "emine": 8064,
      "æĬ½": 8065,
      "ĠÙ¿ÙĪØ±": 8066,
      "åĿĲ": 8067,
      "juh": 8068,
      "ĠÚªØ±Ú»ÙĬ": 8069,
      "Ġtell": 8070,
      "ĠÙħÙĬÙĪ": 8071,
      "Ø§Ø¦Ø¯": 8072,
      "ĠÚĮØ±ÙĬÙĨ": 8073,
      "ÙĦÙĤÙĬ": 8074,
      "è¿Ľåħ¥": 8075,
      "ĠØ®ÙĪØ§Ø¬Ùĩ": 8076,
      "Ø³Ú©": 8077,
      "ĠÙħØ±ÙĬÙħ": 8078,
      "è´Ńä¹°": 8079,
      "Ġist": 8080,
      "ĠØ¬ÛĮÛģÚĳØ§": 8081,
      "ĠØ§Ú¾Ø§": 8082,
      "ios": 8083,
      "ÛĮØ§Ø±": 8084,
      "ĠØ¯Ø¨": 8085,
      "æĬĹ": 8086,
      "à´¹à´¨": 8087,
      "Te": 8088,
      "àµĭ.": 8089,
      "à´¶à´Ļ": 8090,
      "Ġkogem": 8091,
      "ĠØ¶ÙħØ§ÙĨ": 8092,
      "ĠÙģØ®Ø±": 8093,
      "é¢Ĩå¥ĸ": 8094,
      "à´ħà´¤": 8095,
      "ĠÙħÙĤØ¯Ø³": 8096,
      "å®Ĺ": 8097,
      "ĠÙħÙĨÚ¾ÙĨ": 8098,
      "ĠØ³ÙĪØ§Ø±": 8099,
      "ĠÚ¯ÙĨØ¯": 8100,
      "è¿İ": 8101,
      "Ġç½ĳä¸Ĭ": 8102,
      "ĠÛģÙĪØ¦ÛĮØ§": 8103,
      "éĩĮçļĦ": 8104,
      "åħ¬åı¸çļĦ": 8105,
      "ĠÙħÙĦÙĪØ«": 8106,
      "ĠsÃ¼nd": 8107,
      "Ø±ØŃÙħØ§ÙĨ": 8108,
      "çĶļ": 8109,
      "ĠØªÙĨÙĤÙĬØ¯": 8110,
      "ĠÙĨØ§ÙħØ²Ø¯": 8111,
      "Ġà´¨à´Ł": 8112,
      "ĠÚıØ³ÙĪ": 8113,
      "Ġkinnit": 8114,
      "ĠÙºÙ½ÙĬ": 8115,
      "Ù¾ÙĨÛĮ": 8116,
      "çĴ": 8117,
      "ĠØ±Ù½": 8118,
      "ĠÃ¼ht": 8119,
      "ĠØ§ÙĤØªØµ": 8120,
      "ĠØ¢Ø¦ÛĮ": 8121,
      "ĠØ³ÙĬÙ½": 8122,
      "ĠØ³Ú©Ø¯ÛĴ": 8123,
      "ĠäºĮ": 8124,
      "ØªÙħÙĦ": 8125,
      "ĠØªÛģØ§ÚĪÛĴ": 8126,
      "iss": 8127,
      "188": 8128,
      "æľĢå¤§": 8129,
      "ĠÙĦÙĪÚĬ": 8130,
      "ĠÚ³Ø§ÙĦÙĩØ§Ø¦ÙĬ": 8131,
      "ĠÃµh": 8132,
      "ĠØ¢ÛĮØ§": 8133,
      "æķĳ": 8134,
      "ĠØ¨ÚĨØ§Ø¡": 8135,
      "udes": 8136,
      "Ù¹Ø§Úº": 8137,
      "Ĉą": 8138,
      "Ġendale": 8139,
      "Ġhal": 8140,
      "Ġteeb": 8141,
      "ĠØ¬Ø§Úº": 8142,
      "ĠØ¨ÛĮÙ¹": 8143,
      "Ġå¤©å¤©çĪ±å½©ç¥¨æĺ¯": 8144,
      "ĠØ¬Ø§Ú³": 8145,
      "è¿Ļç§į": 8146,
      "ĠÙ¾ÛĮØ§": 8147,
      "ĠØ±Ø§Ùħ": 8148,
      "Ø§Ø¦Ù¾": 8149,
      "ĠØ°ÙĩÙĨÙĬ": 8150,
      "ĠØªØ±ÙĬÙĨ": 8151,
      "åı³": 8152,
      "è±ª": 8153,
      "ĠÙ½ÙĬÚªÙĨ": 8154,
      "à´ķà´ļ": 8155,
      "ĠØ¯ØªÛĮ": 8156,
      "Ġà´¸à´¤": 8157,
      "à´±à´ŀ": 8158,
      "çļĦå¤§": 8159,
      "ÛĮØ§Ûģ": 8160,
      "ÙĩØ§ÙĬÙĪ": 8161,
      "ĠÚªÙħÙĬÙĪÙĨ": 8162,
      "ØªØ§ÙĦ": 8163,
      "Û´": 8164,
      "van": 8165,
      "uss": 8166,
      "ĠéĩįåºĨæĹ¶æĹ¶å½©": 8167,
      "ĠÛģÙĪØ¦ÛĮØ§Úº": 8168,
      "æīĺ": 8169,
      "ĠÙħÙĦÚ©": 8170,
      "ĠØ³ÙĩÙĬ": 8171,
      "See": 8172,
      "ĠØ¨Ø±ÙĪ": 8173,
      "ä»£è¡¨": 8174,
      "tel": 8175,
      "Ġlaul": 8176,
      "ĠÙħØ´ØªÙħÙĦ": 8177,
      "ĠÚĨÙĪÚĮØ§Ø±ÙĬ": 8178,
      "ĠÙĨÙĨÚįÚĻÙĬ": 8179,
      "Ø§Ø±ÛĮØ®": 8180,
      "58": 8181,
      "Ø§ÙģÙĬÙĨ": 8182,
      "å®ĮæĪĲ": 8183,
      "Ġmuidu": 8184,
      "ive": 8185,
      "Ġotse": 8186,
      "æĪĸèĢħ": 8187,
      "ĠÙ¾ÚĨÚ¾": 8188,
      "Ø¯Ø§ÙĨÙĨ": 8189,
      "è§Ģ": 8190,
      "ĠnÃµu": 8191,
      "Ġçİ©å¤§åıĳå¿«ä¸ī": 8192,
      "Ġthe": 8193,
      "ĠØ®ÙĪØ±Ø´ÙĬØ¯": 8194,
      "Ġ!": 8195,
      "ille": 8196,
      "å¸«": 8197,
      "à´§à´ª": 8198,
      "ĠÚĨÚ±ÙĪ": 8199,
      "ĠØ®ÛĮ": 8200,
      "å¾ģ": 8201,
      "ĠØ±ÙĦ": 8202,
      "ĠØ¬Ø±ÙħÙĨÛĮ": 8203,
      "ĠØ¨Ø²Ø±Ú¯": 8204,
      "iseid": 8205,
      "è¶£": 8206,
      "ç£ģ": 8207,
      "ĠÙ½ÙĬØ³Ù½": 8208,
      "åľ£": 8209,
      "èĶ": 8210,
      "ç±į": 8211,
      "Ø§ÙĩØ¯": 8212,
      "ï¼īï¼Į": 8213,
      "ĠÚªÚįÚ»": 8214,
      "jÃµ": 8215,
      "ĠØ±ÙĪØ§ÙĨÙĪ": 8216,
      "ĠÚ¯Ø±Ø¯": 8217,
      "æıĲåįĩ": 8218,
      "ĠÙĪÚĨÚ©Ø§Ø±": 8219,
      "ĠØ±Ø§Ø¨Ø·ÙĪ": 8220,
      "ĠÚĬÚ¯ÙĩÙĬ": 8221,
      "ĠØ´Ø±Ø§Ø¨": 8222,
      "ÙĦÙĬÙ½": 8223,
      "ĠKÃ¼": 8224,
      "æĹłçłģ": 8225,
      "ĠØ§ÙĦØŃÙĤ": 8226,
      "ĠØªØ¬Ø±Ø¨": 8227,
      "çĳŀ": 8228,
      "æµª": 8229,
      "ĠÙĪÙĬÙºÙĬ": 8230,
      "ĠÙħØ´ÙĬÙĨ": 8231,
      "lane": 8232,
      "lass": 8233,
      "har": 8234,
      "ĠÙ¾Ø¯": 8235,
      "ĠØŃÙģØ§Ø¸Øª": 8236,
      "àµĢà´Ĥ": 8237,
      "Ġliig": 8238,
      "èĻĲ": 8239,
      "ĠØ¬ÙĪØ´": 8240,
      "ĠØ§ÙĨÙĪØ±": 8241,
      "imal": 8242,
      "alay": 8243,
      "ĠØªØ±ØªÙĬØ¨": 8244,
      "ÙĬØªÙĪÙĨ": 8245,
      "ĠØ§ÙĦØ·Ø§Ùģ": 8246,
      "ĠsÃµid": 8247,
      "ĠKuid": 8248,
      "çĻ¾å®¶": 8249,
      "ustas": 8250,
      "ĠØ§ÙĪÙĦÙĩÙĩ": 8251,
      "à´¨à´ª": 8252,
      "ĠØ¯Ø§Ø¦": 8253,
      "usp": 8254,
      "åľ³": 8255,
      "Ġselleks": 8256,
      "å¼Ģå¥ĸåı·çłģ": 8257,
      "ĠjÃ¤Ã¤b": 8258,
      "ĠØ´ÙĩÙĨ": 8259,
      "47": 8260,
      "èĩªçĦ¶": 8261,
      "çıł": 8262,
      "Ġå¤©å¤©ä¸Ńå½©ç¥¨ä¸įèĥ½": 8263,
      "ĠØ¬ØªÚ¾ÛĴ": 8264,
      "Ù¾Ù½ÙĨ": 8265,
      "æĭĽèģĺ": 8266,
      "à´´à´¯": 8267,
      "ĠÙ¾ÚĻÙĩÙĬÙĪ": 8268,
      "maat": 8269,
      "ĠØ¹ÙĦÛĮ": 8270,
      "ĠÙĦØ§ÙĨ": 8271,
      "osit": 8272,
      "ĠÙ¾Ú¯ÙĩØ§Ø±": 8273,
      "Ġkeegi": 8274,
      "ilised": 8275,
      "neb": 8276,
      "Ðµ": 8277,
      "à´¨à´ķ": 8278,
      "Ġkuts": 8279,
      "ĠÙĦØ§Ú©ÙĬ": 8280,
      "ĠÙĪÙĦÙĪÚº": 8281,
      "å»ºç«ĭ": 8282,
      "Ġsaavad": 8283,
      "æĢİä¹Īçľĭ": 8284,
      "ĠØ§ÙĨÙ½Ø±ÙĨ": 8285,
      "è´¥": 8286,
      "Ġeesti": 8287,
      "Ġmeet": 8288,
      "ĠØµÙģØŃ": 8289,
      "ĠØ§Ø³ØªØ§Ø¯ÙĨ": 8290,
      "ĠÙ¾ÛĮØ±": 8291,
      "ä¸ĢçŃīå¥ĸ": 8292,
      "ç»ıåħ¸": 8293,
      "ĠÚĨØ§ÙĩÙĬØ§ÙĨ": 8294,
      "ĠØ§Ú³ÙĬ": 8295,
      "test": 8296,
      "çº¿ä¸Ĭ": 8297,
      "ĠÙĪØ§Ù¾Ø§Ø±": 8298,
      "ĠÙ¾Ø§Ø±ÙĦÙĬØ§ÙħÙĬÙĨÙ½": 8299,
      "çĿ£": 8300,
      "äºĨè§£": 8301,
      "ĠÙħØ²Ø¯": 8302,
      "ĠÙĪÙĬÙĨØ¯ÚĻ": 8303,
      "Ø§ÙĦÙħÙ¾ÙĪØ±": 8304,
      "çľŁçļĦåģĩçļĦ": 8305,
      "Ġà´Ńà´°à´£": 8306,
      "åĩºæĿ¥": 8307,
      "ĠÚ¦Ø§": 8308,
      "Ø³Ù¾ÙĬ": 8309,
      "ĠØ³ÙĪÚĨÚ»": 8310,
      "ĠÚªÙĨØ¯Ø³": 8311,
      "ĠØµÙĪØ¨ÛĴ": 8312,
      "ĠØ§ÙĨÚ¯Ø±ÛĮØ²": 8313,
      "Ġteie": 8314,
      "à´µà´¨à´¨": 8315,
      "ĠØ¢Ø¦": 8316,
      "ĠAl": 8317,
      "Ġhilj": 8318,
      "ĠkÃµigi": 8319,
      "æĢ¥": 8320,
      "Ġhak": 8321,
      "ĠsÃ¶Ã¶": 8322,
      "å¤©å¤©ä¹°å½©ç¥¨": 8323,
      "ĠØ§ÙĦØ³ÙĦØ§Ùħ": 8324,
      "ĠÙħØµØ±ÙĪÙģ": 8325,
      "Ø§ÙĩÙĬÙĨ": 8326,
      "ĠÙħØ´Ø±": 8327,
      "èµĮåįļ": 8328,
      "ĠÙħÙĦÙĬØ§": 8329,
      "iseks": 8330,
      "ĠØªØ¹ÙĦÙĤÙĬ": 8331,
      "ĠÙĨÙĬØ´ÙĨÙĦ": 8332,
      "ĠÙĬÙĪØ³Ùģ": 8333,
      "è¾ħåĬ©åĻ¨": 8334,
      "ĠØ´ÙĩØ±ÙĬÙĨ": 8335,
      "èİ·å¾Ĺ": 8336,
      "Ġà´Ńà´ķ": 8337,
      "ĠØ¨Ø¦ÙĨÚª": 8338,
      "je": 8339,
      "ĠÚªØ§Ùº": 8340,
      "nu": 8341,
      "ĠÙħØ§Ø³Øª": 8342,
      "Ġmood": 8343,
      "æĦ¿": 8344,
      "Ø¨ØŃØ±": 8345,
      "Ġè°ģ": 8346,
      "kirja": 8347,
      "ĠÙħØ³Ø¦ÙĦÙĬ": 8348,
      "endid": 8349,
      "å½©å½©ç¥¨": 8350,
      "ĠÙħÙĪÙĤÙģ": 8351,
      "ĠpÃ¼h": 8352,
      "è®¤ä¸º": 8353,
      "ÙħØ§Ø¦ÙĬ": 8354,
      "ĠÙ¾Ø§Ø±Ù½ÙĬØ¡": 8355,
      "Ġtingim": 8356,
      "ĠØ¬ÙĪÚĻÙĬ": 8357,
      "Ġå¤©å¤©ä¸Ńå¥ĸå½©ç¥¨": 8358,
      "ĠÙĪÚ³ÙĬ": 8359,
      "ĠØ¨ÙĬØŃØ¯": 8360,
      "Ġ*": 8361,
      "Ġraha": 8362,
      "ĠÙħØ¹Ø§Ùĩ": 8363,
      "ĠÙ¾ØªÙĪ": 8364,
      "Ý¨": 8365,
      "ĠåĴĮ": 8366,
      "ĠtÃ¤it": 8367,
      "æ¼ıæ´ŀ": 8368,
      "å¤ļå°ĳéĴ±": 8369,
      "ĠÙ»Ø§ÙĨ": 8370,
      "999": 8371,
      "æĹ¶ä»£": 8372,
      "ĠX": 8373,
      "ĠØ³Ù½": 8374,
      "ĠØ³Ø§ÙħÙĪÙĨÚĬÙĬ": 8375,
      "ĠtÃ¤hele": 8376,
      "Ø§ÙĨØ³": 8377,
      "Ġæ¬¢": 8378,
      "ĠØ±Ú©ÙĨØ¯ÙĬ": 8379,
      "ĠvÃ¤lis": 8380,
      "Ø±ÛĮÙĤÛģ": 8381,
      "ĠÚªØ§Ø¦ÙĪÙĨØ³ÙĦ": 8382,
      "Ø§ÙĩÙĬØ¡": 8383,
      "ÙģÙĬÙĤ": 8384,
      "Ġver": 8385,
      "ĠØ³ÙĪÙĬÙĨ": 8386,
      "ĠÂ«": 8387,
      "Ġvalmis": 8388,
      "ĠØ¶ÙħØ§ÙĨØª": 8389,
      "ĠØ§ØºÙĪØ§": 8390,
      "Ġå¤§åıĳæ¸¸æĪıå®ĺç½ĳ": 8391,
      "gema": 8392,
      "ĠsÃµnul": 8393,
      "ÚªØ±ÙĪ": 8394,
      "ĠØ¬ÙĩÙĬ": 8395,
      "ĠØ±Ø³ØªÙĨ": 8396,
      "Ġå½©ç¥ŀäºīéľ¸æıĲçİ°": 8397,
      "é²ģ": 8398,
      "istreer": 8399,
      "kir": 8400,
      "Ġeb": 8401,
      "ĠPÃ¤r": 8402,
      "ĠÃ¼rit": 8403,
      "Ġkaug": 8404,
      "ĠY": 8405,
      "Ġsoovit": 8406,
      "ĠÙħÙĨØ¯": 8407,
      "Ġà´¤à´Ļ": 8408,
      "400": 8409,
      "Ú¯ÛĴ": 8410,
      "ĠÚ¯ÙĨØªÛĮ": 8411,
      "åį±": 8412,
      "Ġsilm": 8413,
      "ĠØ³ÙĩÙĪÙĦ": 8414,
      "ĠØ§Ø´Øª": 8415,
      "ĠÚ¯ÙĬØª": 8416,
      "ĠØ§ÙĬØ´ÙĬØ§": 8417,
      "ĠØ³ÙħÙĪØ±ÙĪ": 8418,
      "éĩĳèŀį": 8419,
      "ĠNÃ¤": 8420,
      "ãĢĤãĢĤ": 8421,
      "Ġèī²æĥħ": 8422,
      "Ġå¤©å¤©ä¸Ńå½©ç¥¨ç½ĳ": 8423,
      "ĠØ´Ú¾": 8424,
      "èĢ³": 8425,
      "èģĬå¤©å®¤": 8426,
      "å´": 8427,
      "Ġamet": 8428,
      "ĠÙ»Ø§": 8429,
      "ĠÚ¯Ú¾Ù¹": 8430,
      "ÙĦØ²": 8431,
      "ĠÚ©Ø±Ø¯ÛĮ": 8432,
      "ĠÙĪØ§Ø±ÙĬÙĪÙĨ": 8433,
      "å¸Ń": 8434,
      "ĠØ³Ø§Ø±ÙĬ": 8435,
      "Ø³Ù½ÙĨ": 8436,
      "ĠØ³Ø±Ú¯Ø±Ùħ": 8437,
      "Ûµ": 8438,
      "Ú©Ø§Ø±ÛĮ": 8439,
      "reen": 8440,
      "à´Ľ": 8441,
      "Ġsaav": 8442,
      "ĠÚĢÚĦ": 8443,
      "éģĬ": 8444,
      "ĠØªØ§Ø¦ÛĮÚº": 8445,
      "ĠÙħÙĦØ§Ø²ÙħÙĨ": 8446,
      "Ġnel": 8447,
      "åħ§": 8448,
      "ä¿ĥ": 8449,
      "åĮ»éĻ¢": 8450,
      "ĠÙĦÚ³ÙĨØ¯ÙĪ": 8451,
      "åĬ¨æĢģ": 8452,
      "ĠØ§ÙĦØ¹": 8453,
      "ĠèĢģ": 8454,
      "itu": 8455,
      "Ġorganis": 8456,
      "èĻ½": 8457,
      "åĶĲ": 8458,
      "çľŁåģĩ": 8459,
      "ĠÙħÙĩÙĬÙĨØ§": 8460,
      "Ø§Ø±Ø´": 8461,
      "ä¸ĢèĪ¬": 8462,
      "Ø§ÙĦØ§ÙĦÙħÙ¾ÙĪØ±": 8463,
      "Ġæ·«": 8464,
      "ukogu": 8465,
      "æ¨¡å¼ı": 8466,
      "æĿĲæĸĻ": 8467,
      "__": 8468,
      "æľīæķĪ": 8469,
      "Ø§ÚªØ±": 8470,
      "atus": 8471,
      "ĠÙħÚĨ": 8472,
      "ĠØ§ÙĬÚıÙĪ": 8473,
      "ĠÚĬØ³ÙħØ¨Ø±": 8474,
      "Ġarmast": 8475,
      "ØªØ±Ø§Ùħ": 8476,
      "ĠÙ»ÙĪÚı": 8477,
      "Ø§ÙĬØ§ÙĨ": 8478,
      "ĠÙĩÙĬÙºØ§ÙĨ": 8479,
      "ä¸Ńå¤®": 8480,
      "æģ¶": 8481,
      "ĠÙħØ±ÙĬØ¶": 8482,
      "ĠÙ¾Ø§ÙĦÙĬØ³ÙĬ": 8483,
      "ĠÚªÙĪÙº": 8484,
      "è¸": 8485,
      "eline": 8486,
      "ĠÙħØ´ÛģÙĪØ±": 8487,
      "à´³à´µà´°": 8488,
      "ĠØ§ÙĪÙĨÛĴ": 8489,
      "ĠØ§Ø´Ø§Ø±ÙĪ": 8490,
      "ĠnÃ¤ha": 8491,
      "era": 8492,
      "éªĹäºº": 8493,
      "æĲŀ": 8494,
      "ĠÚªÙĪÙĦ": 8495,
      "é¢Ĩå¯¼": 8496,
      "è¿Ļä¸Ģ": 8497,
      "utab": 8498,
      "Ġæīĭæľºå¤©å¤©ä¸Ńå½©ç¥¨": 8499,
      "ĠØ¨ØºØ§ÙĪØª": 8500,
      "å¥³æĢ§": 8501,
      ",âĢĿ": 8502,
      "ĠØ§Ø³ÛĮ": 8503,
      "ĠÙĦØ´": 8504,
      "èį¡": 8505,
      "ĠØŃØ¶ÙĪØ±": 8506,
      "ĠÙ¾ÙĩÙĦÙĪØ§ÙĨ": 8507,
      "ĠÚıÚ©ÙĬÙĪ": 8508,
      "Ġoleme": 8509,
      "eeg": 8510,
      "ĠÙĦØ§Ø¦ÙĤ": 8511,
      "oe": 8512,
      "ĠÚıÙĨØ§Ø¦ÙĬÙĨ": 8513,
      "ĠØ§ÙĬÙĪØ§Ø±ÚĬ": 8514,
      "Ġsaaks": 8515,
      "ĠÙĦÛĮÙĨØ¯ÛĴ": 8516,
      "Ġlisaks": 8517,
      "ĠØ±ØŃÙħ": 8518,
      "ĠØ¬Ú³ÙĩÙĩ": 8519,
      "ĠÚªØ§Ø±Ú»": 8520,
      "Ġå¤§åıĳæĹ¶æĹ¶å½©è®¡åĪĴ": 8521,
      "à´®à´¦": 8522,
      "oloogia": 8523,
      "ç½ĳé¡µçīĪ": 8524,
      "ä¹ĭåĲİ": 8525,
      "èį£": 8526,
      "ĠãĢģ": 8527,
      "é©¬ä¼ļ": 8528,
      "åºĦ": 8529,
      "ĠØ³ÙĬÙĦ": 8530,
      "èİī": 8531,
      "ĠÙħØ¹ÙĨ": 8532,
      "ĠØ³ÙħØ¬Ú¾ÙĬ": 8533,
      "ĠØªØ¬ÙĪÙĬØ²": 8534,
      "Ġteiste": 8535,
      "ĠÙĦÙĬÚĬØ±": 8536,
      "ĠØ¨ÚĨØ§Ø¦Ú»": 8537,
      "èĭį": 8538,
      "ĠØ³ÙĬØ±ÙĬØ²": 8539,
      "Ġsellele": 8540,
      "åħ©": 8541,
      "ĠØ§Ø®Ø¨Ø§Ø±ÙĨ": 8542,
      "è°·": 8543,
      "ĠÙ»ÙĬÙ½": 8544,
      "ĠĊ": 8545,
      "ĠÚªÙĦØ§ÚªÙĨ": 8546,
      "Ġà´īà´¯à´°": 8547,
      "ĠØ³ÛĮÙĨ": 8548,
      "ĠØŃØ§ÙĦØªÙĪÙĨ": 8549,
      "à´Ńà´¯": 8550,
      "ĠØ·Ø±ÙĬÙĤÙĪ": 8551,
      "Ø§Ø´ÙĬ": 8552,
      "åĸľæ¬¢": 8553,
      "çŃĳ": 8554,
      "ä¸ºäºĨ": 8555,
      "ä¸¤ä¸ª": 8556,
      "ĠÚĢÚĦÙĬ": 8557,
      "ØŃØ§ÙĤ": 8558,
      "ĠØªÚªØ±": 8559,
      "åĽ°": 8560,
      "éľĢæ±Ĥ": 8561,
      "ĠSe": 8562,
      "Ġå¿«ä¸īå¤§åıĳ": 8563,
      "ĠÙħØŃØ±ÙĪÙħ": 8564,
      "este": 8565,
      "åľĪ": 8566,
      "Ġà´µà´ķ": 8567,
      "ĠÙĪØ¶Ø§ØŃØª": 8568,
      "itsi": 8569,
      "ÙģØ§Ø±": 8570,
      "Ġè¥¿": 8571,
      "ĠØ§ÙĨØªØ¸Ø§ÙħÙĬ": 8572,
      "ĠØ¢Ú¯Ø³Ù½": 8573,
      "Ġà´Ĩà´¤": 8574,
      "send": 8575,
      "ĠNii": 8576,
      "ents": 8577,
      "ĠØ¢Ø¨Ø§Ø¯ÙĬ": 8578,
      "ĠØ¨Ú¯": 8579,
      "Ø¨Ø³Øª": 8580,
      "æĺ¯ä»Ģä¹ĪæĦıæĢĿ": 8581,
      "ĠØ³ÙĪØ³": 8582,
      "ĠØ§ØŃØªØ±Ø§Ùħ": 8583,
      "utus": 8584,
      "å¢ŀéķ¿": 8585,
      "å®Įç¾İä¸ĸçķĮ": 8586,
      "ĠÚªÙĪÚĻ": 8587,
      "nne": 8588,
      "ĠÚĬØ§Ø¦Ø±ÙĬÚªÙ½Ø±": 8589,
      "ĠØ§ÛĮÛģØ¯ÛĴ": 8590,
      "Ø§Ø¹ÙĬ": 8591,
      "èĥ½å¤Ł": 8592,
      "ä½ĵéªĮ": 8593,
      "ĠPe": 8594,
      "anik": 8595,
      "ans": 8596,
      "oloog": 8597,
      "ĠÙĦÛĮÙĨ": 8598,
      "1000": 8599,
      "à´³à´µ": 8600,
      "Ġrahul": 8601,
      "Ġèħ¾è®¯å¤©å¤©ä¸Ńå½©ç¥¨": 8602,
      "ĠØ§Ù¹": 8603,
      "ĠÙħÚªÙĬ": 8604,
      "ĠÙĨÚ¾": 8605,
      "ĠØ³Ú¯ÙĩÙĬØ§": 8606,
      "enÃ¤": 8607,
      "ĠØŁ": 8608,
      "çŃ¾": 8609,
      "Ø§ÙĤÙĪ": 8610,
      "II": 8611,
      "åĽº": 8612,
      "ĠØ¯Ûģ": 8613,
      "ÙĪÙĦÙĪ": 8614,
      "ĠÙ¾ÙĨØ¬ÙĨ": 8615,
      "ÙĪÙĨÛĴ": 8616,
      "ĠØ§Ø¯Ø§Ø±Ø§": 8617,
      "å¤©ä¸ĭ": 8618,
      "ĠØ¬ÛĮÙĨ": 8619,
      "ĠØ³Ø±ÙĪØ³": 8620,
      "ÙĩØ§Ú»ÙĬ": 8621,
      "ĠØ³Ø±Ø§Ø¬": 8622,
      "ĠÙĤØ±Ø¶": 8623,
      "ĠÃµht": 8624,
      "aalselt": 8625,
      "ĠÙĩÙĪÙĨØ¦ÙĨ": 8626,
      "Ġrahvusvahel": 8627,
      "ĠØ§ÙĨÙĤÙĦØ§Ø¨ÙĬ": 8628,
      "ĠÙĪÙĦÙĬ": 8629,
      "ĠØ´ÚªØ§ÙĬØª": 8630,
      "Ġgr": 8631,
      "ĠØ§ÙĤØªØµØ§Ø¯ÙĬ": 8632,
      "ĠlÃ¤ks": 8633,
      "ĠÙĨÙĪØ§Ø²Ø´Ø±ÙĬÙģ": 8634,
      "bb": 8635,
      "Ġtaval": 8636,
      "ØªÙĪØ¦ÙĬ": 8637,
      "ĠØ®Ø§ØªÙħÙĬ": 8638,
      "ĈãĢĤ": 8639,
      "ç¨³å®ļ": 8640,
      "å°ĩ": 8641,
      "Ġà´µàµ¼": 8642,
      "ĠØ¬ÙħÙĩÙĪØ±ÙĬ": 8643,
      "Ø±Ø¨Øª": 8644,
      "ĠÙħÙĩØ§ÙĨ": 8645,
      "ĠhÃ¤Ã¤": 8646,
      "éŀ": 8647,
      "è´·": 8648,
      "ĠØŃÙĬØ±Ø§ÙĨ": 8649,
      "52": 8650,
      "ĠØ¹Ø±Ùģ": 8651,
      "ĠÙĪØ´": 8652,
      "ĠØ³ÚĨÙĦ": 8653,
      "ĠÙĪØ§ÙĤØ¹ÙĪ": 8654,
      "ĠØ§Ú¾ÙĬ": 8655,
      "ĠØ®Ø·Ø±ÙĨØ§Úª": 8656,
      "ĠÙħØ§ÙĦÙĬ": 8657,
      "è¦ĸè¨Ĭ": 8658,
      "ĠØ¯ÙģÙĨ": 8659,
      "ĠÙĩÙĦÙĬØ§": 8660,
      "ĠÙ½Ø§Ø¦ÙĪÙĨ": 8661,
      "ĠÙ¾ÙĬØ§Ø±ÙĬ": 8662,
      "ĠÚĢÙĦØ§": 8663,
      "æ£®": 8664,
      ".)": 8665,
      "æĸĩç«ł": 8666,
      "ĠÙħÙĨØ¬ÙĩØ§ÙĨ": 8667,
      "ç®±": 8668,
      "ĠÙĨÚ©": 8669,
      "å¸ģ": 8670,
      "ĠMu": 8671,
      "Ù¾Ú»": 8672,
      "à´¦à´®": 8673,
      "ä¸¹": 8674,
      "ĠÙħØ§Ø¶ÙĬ": 8675,
      "æĬķè¯ī": 8676,
      "ĠØªØ§Ø±ÛĮØ®": 8677,
      "Ġsellega": 8678,
      "å±ĭ": 8679,
      "ĠÚĩÚıÙĬÙĨØ¯ÙĪ": 8680,
      "çĤ®": 8681,
      "ãĥ": 8682,
      "ĠØ´Ø§Ø®": 8683,
      "ĠØ¯ÙĪØ¬ÛĮ": 8684,
      "Ġoluline": 8685,
      "hv": 8686,
      "ÙģÙĦ": 8687,
      "imet": 8688,
      "ĠØ¬ÙĪÙĦØ§Ø¡": 8689,
      "çī¹åĪ«": 8690,
      "likult": 8691,
      "åıĳçĶŁ": 8692,
      "ĠØ·Ø¨ÙĬØ¹Øª": 8693,
      "å±ı": 8694,
      "Ġå¿«æĴŃ": 8695,
      "æ±¡": 8696,
      "à´·à´ª": 8697,
      "Ù¾ØªØ§ÙĨ": 8698,
      "Ġlinna": 8699,
      "Ġnat": 8700,
      "ĠØ³Ø±ØŃØ¯": 8701,
      "èĳ¡äº¬": 8702,
      "konnas": 8703,
      "ĠØ¬ÛĮØ¯ÛĴ": 8704,
      "ĠÙĩÙħØª": 8705,
      "ĠÙ¾ÙĬØ¯Ø§ÙĪØ§Ø±": 8706,
      "ĠÙħÙģØª": 8707,
      "ĠÚªÙĬØªØ±ÙĬ": 8708,
      "ĠÙħÙĬØ±Ø¨ØŃØ±": 8709,
      "ĠÙħØ¹ÙħÙĪÙĦÙĬ": 8710,
      "Ø§Ù¾ÙĪ": 8711,
      "ä»»ä½ķ": 8712,
      "åŃĺåľ¨": 8713,
      "à´·à´Ļ": 8714,
      "ĠÙ¾ÚĦ": 8715,
      "ĠØ¨ÙĬÙħØ§Ø±ÙĬ": 8716,
      "ĠÙ¾ÚĻÙĩÙĬÙĦ": 8717,
      "äºĴèģĶç½ĳ": 8718,
      "åı¶": 8719,
      "æĸ°çļĦ": 8720,
      "èµĦéĩĳ": 8721,
      "ong": 8722,
      "Ġä¸ī": 8723,
      "bo": 8724,
      "Ġviimase": 8725,
      "æ¡ĥ": 8726,
      "ĠkÃ¤sit": 8727,
      "ĠÃ¼ldse": 8728,
      "Ø§Ø¶ÙĬØ¡": 8729,
      "ĠÙħØ¦ÙĬ": 8730,
      "ĠÙĪØ²ÛĮØ±": 8731,
      "Ġà´ħà´¬": 8732,
      "åĬłå¼º": 8733,
      "ĠÃ¶Ã¶": 8734,
      "éĢīåĽĽ": 8735,
      "andi": 8736,
      "é»ĥ": 8737,
      "ĠÚ¯Ú¾Ø±Ø¬ÙĬ": 8738,
      "ĠÙħÙ½ÙĬØ¡": 8739,
      "ĠåħŃ": 8740,
      "adel": 8741,
      "ä¸ĭè¼ī": 8742,
      "åĶ¯": 8743,
      "ĠÙĩØ§Ø±ÙĬ": 8744,
      "Ø§ØªØ§Ø±": 8745,
      "ØªÚ¾ÙĪÚº": 8746,
      "ĠØ¯ÙĦÙĬ": 8747,
      "Ġmust": 8748,
      "æŁĵ": 8749,
      "ĠØ§Ø¯ÙĬØ¨ÙĨ": 8750,
      "æįķ": 8751,
      "ĠkoostÃ¶Ã¶": 8752,
      "çŀ": 8753,
      "Ġä¸ĥ": 8754,
      "ĠkÃ¼last": 8755,
      "ç¨³èµļ": 8756,
      "ĠØ³Ø§Ù¿ÙĬÙĨ": 8757,
      "ĠÚ©ÙĦÙĬÙĦ": 8758,
      "è¯Ĺ": 8759,
      "isin": 8760,
      "ĠÙħØ³ÙĦÙħØ§ÙĨØ§Úº": 8761,
      "ĠØ¯ÙĦÚĨØ³Ù¾ÙĬ": 8762,
      "ĠÚ³ÙĪÚĻ": 8763,
      "ä»ĸçļĦ": 8764,
      "ĠÚĩÚıÙĬÙĪÙĨ": 8765,
      "Ø§ÙĩØ±ÙĬ": 8766,
      "ĠAnd": 8767,
      "ĠÙĪØ§Ø¦ÙĬ": 8768,
      "ival": 8769,
      "Ġmiljon": 8770,
      "ĠÚĬÙĬÙħ": 8771,
      "ÙĬÙĨØ¯ÚĻÙĨ": 8772,
      "ĠØ®Ø§ÙĦØ¯": 8773,
      "ĠæĢİæł·": 8774,
      "ĠØŃØ§Ùħ": 8775,
      "Ġà´®à´¹": 8776,
      "Ġ+": 8777,
      "ttes": 8778,
      "uua": 8779,
      "Ġtegele": 8780,
      "ĠÙħÙĪØ¨": 8781,
      "ĠkÃ¤es": 8782,
      "ĠÙħÙĦÙĨØ¯ÙĬ": 8783,
      "ĠkÃµrv": 8784,
      "Ġsar": 8785,
      "ĠÚıÙĬÙĨØ¯ÚĻ": 8786,
      "ĠÙĪÙĦØ¯": 8787,
      "Ġesi": 8788,
      "ĠÙ¾Ø´Ø§ÙĪØ±": 8789,
      "æ¨£": 8790,
      "æ¬§ç¾İ": 8791,
      "æŁ±": 8792,
      "ĠÙĪØ±ÛĴ": 8793,
      "Ġener": 8794,
      "ulgas": 8795,
      "Ø©": 8796,
      "Ú©Ú¾ÛĮ": 8797,
      "Ø´Ø¯": 8798,
      "ÙĩÙĬÙĪÙĨ": 8799,
      "å¾®ä¿¡ç¾¤": 8800,
      "ĠÙ¾ÙĩØª": 8801,
      "éĹľ": 8802,
      "ĠÙĦØ§Ø²ÙħÙĬ": 8803,
      "iliste": 8804,
      "ĠØµØŃØ§ÙģÙĬ": 8805,
      "åŃ¦éĻ¢": 8806,
      "ĠÚĬØ§ÙĦØ±": 8807,
      "ĠØ®ÙĪØ´Ø¨ÙĪ": 8808,
      "aad": 8809,
      "ĠLisaks": 8810,
      "à´¨à´±": 8811,
      "ä»į": 8812,
      "ĠÙ¾ÙĪÙĨØ¯Ø§": 8813,
      "èĹ¥": 8814,
      "ĠÙ¿Ø§Ú»ÙĬ": 8815,
      "ä¸įè¦ģ": 8816,
      "ĠÙĨÚĢ": 8817,
      "eldud": 8818,
      "ĠjÃ¤rj": 8819,
      "æİ¨è¿Ľ": 8820,
      "ĠÛĮÙĪÙĨÛĮ": 8821,
      "Ġliiga": 8822,
      "Ġosk": 8823,
      "ĠÃ¤Ã¤r": 8824,
      "ĠÙ¾ØªÚ¾Ø±": 8825,
      "Ú¾Ø§Ø±": 8826,
      "Ġmaha": 8827,
      "ĠsÃ¼steem": 8828,
      "Ġà´ħà´ļ": 8829,
      "ĠÙĦÚ©ÙĬØ§": 8830,
      "avate": 8831,
      "ĠØ§ÙħÚªØ§ÙĨ": 8832,
      "ĠÙģØ±ÙħØ§ÙĬÙĪ": 8833,
      "Ġkunagi": 8834,
      "Ġkonkur": 8835,
      "ÛģØ§": 8836,
      "Ġå¤§åıĳå¿«ä¸īçļĦ": 8837,
      "ĠÙħØ³ÚªÙĬÙĨ": 8838,
      "ĠØ¨Ø±Ø·Ø§ÙĨÛĮÛģ": 8839,
      "Ù½Ú»": 8840,
      "ĠØ§ÙĬØ±": 8841,
      "Ġå½©ç¥ŀäºīéľ¸æĢİä¹Īæł·": 8842,
      "ÚĩÙĪ": 8843,
      "æ¯Ķè¾ĥ": 8844,
      "nÃµ": 8845,
      "Ġå¤§åıĳæĹ¶æĹ¶å½©å¼Ģå¥ĸ": 8846,
      "2009": 8847,
      "Ġå¤©å¤©ä¸Ńå½©ç¥¨å¤§å¥ĸ": 8848,
      "ĠØ¬Ø§ÙĪÙĬØ¯": 8849,
      "ĠÙ¾ÙĬÙ¾ÙĦØ²Ù¾Ø§Ø±Ù½ÙĬ": 8850,
      "Ġabi": 8851,
      "embr": 8852,
      "Ġor": 8853,
      "à´³à´¯": 8854,
      "à´°à´µàµ¼à´¤": 8855,
      "ĠÚĨÚ¾ÚĪ": 8856,
      "ç´ļ": 8857,
      "Ġå¤©å¤©ä¸Ńå½©ç¥¨ç¯®çĲĥ": 8858,
      "ĠØ¯Ø³ØªØ§ÙĪ": 8859,
      "åĪ°è´¦": 8860,
      "Ġkooli": 8861,
      "ĠVab": 8862,
      "ĠÙĪØµ": 8863,
      "okum": 8864,
      "å½¢æĪĲ": 8865,
      "365": 8866,
      "ÙĤØ¯": 8867,
      "ĠØ³Ø§Ø²Ø´": 8868,
      "ĠÙħÛĮÙ¹Ø±": 8869,
      "è§ĦåĪĴ": 8870,
      "à´¥à´¯": 8871,
      "æĿ¯": 8872,
      "åħ³æ³¨": 8873,
      "line": 8874,
      "à´³à´ķ": 8875,
      "67": 8876,
      "å·¥ä¸ļ": 8877,
      "æ¨Ĥ": 8878,
      "42": 8879,
      "ĠÙĪÚıÙĬÙĪÙĨ": 8880,
      "Ġteine": 8881,
      "Ġsamas": 8882,
      "Ġà´¨à´·": 8883,
      "nik": 8884,
      "ĠÙĪØ§Ø¹": 8885,
      "ĠÚıØ§ÙĨÚ¾ÙĨ": 8886,
      "ĠØªØ³ÙĦÙĬÙħ": 8887,
      "æ³ķå¾ĭ": 8888,
      "ĠØ³ÙĬÙĨÙĬÙ½": 8889,
      "amisega": 8890,
      "ĠØ¬ØªÙĪØ¦ÙĬ": 8891,
      "è§£åĨ³": 8892,
      "atsi": 8893,
      "aku": 8894,
      "å¢ŀåĬł": 8895,
      "Ġleida": 8896,
      "ç¬¬ä¸ī": 8897,
      "å½©å¤§åıĳå¿«ä¸ī": 8898,
      "ÙĪÙĨÚ¯": 8899,
      "Ù¾ÙĨØ¬": 8900,
      "å¤§åıĳå±ķæľīéĻĲåħ¬åı¸å®ĺç½ĳ": 8901,
      "ats": 8902,
      "è´¸": 8903,
      "åıªæľī": 8904,
      "æ®ĸ": 8905,
      "ĠâĨĴ": 8906,
      "ĠÙĩÚªØ¯Ùħ": 8907,
      "ĠÚĨØ§ÙĨÙĩÙĩ": 8908,
      "æĭ¥": 8909,
      "ĠØ±Ø§Ø¦": 8910,
      "ä¸Ģæ¬¡": 8911,
      "okk": 8912,
      "Ġparim": 8913,
      "Ġselline": 8914,
      "ĠØªÛĮÚ©Ø±": 8915,
      "ĠÙ¾ÙĨÙĩÙĨØ¬ÙĪÙĨ": 8916,
      "æĢĢ": 8917,
      "ĠØ§ÛģÙħ": 8918,
      "Ġæ¬¢ä¹Ĳ": 8919,
      "ÛĮÙĨÛģ": 8920,
      "ĠØ¬ÙĦØ¯ÙĬ": 8921,
      "ĠØ³Ø®": 8922,
      "å±Ĭ": 8923,
      "ĠÙĩÙħØ±Ø§ÙĩÙĩ": 8924,
      "à´¹à´°": 8925,
      "ĠÙħØµØ·": 8926,
      "ĠØ³ÙĪÙĨÙĩÙĨ": 8927,
      "Ġ.....": 8928,
      "ĠÚ©Ø§ÚĮÙĬ": 8929,
      "åĴĮå¤©å¤©ä¸Ńå½©ç¥¨": 8930,
      "ä¸Ģæł·": 8931,
      "ç»ıéªĮ": 8932,
      "à´ªà´®": 8933,
      "petsi": 8934,
      "43": 8935,
      "ĠØ¯ÙĪØ±ÙĪ": 8936,
      "ĠØŃÙĬØ§ØªÙĬ": 8937,
      "ĠTÃ¤": 8938,
      "ĠÚĨÙĪØ±ÙĬ": 8939,
      "ĠØ¨Ø±Ø³Ø§Øª": 8940,
      "Ù¹ÛĮØ§Úº": 8941,
      "ĠØ±Ø§ÙĩÙĩ": 8942,
      "ĠØ¹Ø·Ø§": 8943,
      "ĠÙĪØ§Ø¦": 8944,
      "ĠØ±Ú¾ÙĬØ§": 8945,
      "ç¼º": 8946,
      "pis": 8947,
      "eldes": 8948,
      "ĠÙĩÙĦØ§Ø¦ÙĬ": 8949,
      "ĠÙģÙĦØ³ÙģÙĬ": 8950,
      "ĠØ¬Ø°Ø¨": 8951,
      "åª³": 8952,
      "é¬¼": 8953,
      "ĠØ¯ÙĦÙĬÙĨ": 8954,
      "åŁ¹è®Ń": 8955,
      "ĠÙĦØ§ÙĩÙĬ": 8956,
      "ĠÙħØ¬ÙħÙĪØ¹ÙĬ": 8957,
      "ÚĢØ§": 8958,
      "åĢĴ": 8959,
      "å¨±ä¹Ĳåľº": 8960,
      "ĠÚªØ§Ø±ÚĬ": 8961,
      "çĶ²": 8962,
      "æįŁ": 8963,
      "entsi": 8964,
      "ĠÚªÙ¿Ø§ÙĨ": 8965,
      "ĠØ³Ø¹ÙĬØ¯": 8966,
      "ĠÚ¯Ø¬Ø±": 8967,
      "alu": 8968,
      "ĠÙħØºØ±Ø¨": 8969,
      "Ii": 8970,
      "Ø§ØµØ±": 8971,
      "çĸĳ": 8972,
      "éĩĩçĶ¨": 8973,
      "è´«": 8974,
      "ĠØªÙĨÚ¾ÙĨ": 8975,
      "ĠPar": 8976,
      "ĠØ±ÙĪÙ¾ÙĬØ§": 8977,
      "ĠØ¯ÙĪØ±ÙĬ": 8978,
      "å®Ŀå®Ŀ": 8979,
      "ĠÙħØ§Ú³": 8980,
      "Ù¿ÙĬÙĨ": 8981,
      "ĠØ¹Ø°Ø§Ø¨": 8982,
      "ĠØ§Ú©Ø±": 8983,
      "ĠØ§Ø³ÙĨÙĪÚº": 8984,
      "âĢĻâĢĻ": 8985,
      "ĠsÃµlt": 8986,
      "ĠÙĪÙĨÚĪ": 8987,
      "ĠÙĦØ§Ø¦ÙĨ": 8988,
      "ĠÚĦÚ»ÙĨ": 8989,
      "ĠÙ¾Ú¾ÛĮ": 8990,
      "èī²èī²": 8991,
      "ĠÙĩÙģØªÙĬ": 8992,
      "Ġveid": 8993,
      "ĠÙģÙĪØ¬Ø§Úº": 8994,
      "Ġsood": 8995,
      "ĠØ³Ø§Ø¦": 8996,
      "ĠÚĨÚĳÚ¾Ø¯ÛĴ": 8997,
      "ĠÙ¾Ø±Ø§ÙĨÛĴ": 8998,
      "Ġæ¿": 8999,
      "ĠØ§Ø¹ØªØ±Ø§Ø¶": 9000,
      "ĠØ§ÙĬÚĬ": 9001,
      "iva": 9002,
      "çĽĹ": 9003,
      "ĠÙģÙĪØ±Ø³": 9004,
      "ĠÙĤØ§Ùģ": 9005,
      "æ±ł": 9006,
      "à´ļà´ª": 9007,
      "ĠØ§ÙĨÚ¯ÙĦÙĬÙĨÚĬ": 9008,
      "ĠØ§Ù¾Ø±ÙĬÙĦ": 9009,
      "ÚĨÙĦ": 9010,
      "è®¿": 9011,
      "ĠØªØ±Ø¨ÙĬØª": 9012,
      "ugust": 9013,
      "Ġpoliit": 9014,
      "elu": 9015,
      "Ø´ÙĪØ¨Ø²": 9016,
      "ĠÚ©ÙĦÙĬ": 9017,
      "ĠØ§ÙģØ³Ø§ÙĨ": 9018,
      "Ø§Ø¯ÛĮ": 9019,
      "ĠÚªÙĬØ¦ÙĬ": 9020,
      "ose": 9021,
      "uvÃµt": 9022,
      "ĠÙĩÙĦÙĨØ¯ÙĪ": 9023,
      "ÛģÙĪÚº": 9024,
      "Ġhel": 9025,
      "vÃ¤Ã¤r": 9026,
      "çĻ¾å®¶ä¹Ĳ": 9027,
      "Ù¿ÙĦ": 9028,
      "ĠØ¨ÙĨØ¯ÙĪØ¨Ø³Øª": 9029,
      "ĠØ¹ÙĦØ§ÙĤÛģ": 9030,
      "å°º": 9031,
      "ĠØ±Ø§Ú»ÙĬ": 9032,
      "ĠØ¨Ø§ÛģØ±": 9033,
      "ĠØ§Ø®ÙĦØ§ÙĤÙĬ": 9034,
      "âĢ¦âĢ¦âĢ¦âĢ¦": 9035,
      "ĠÚĩÙĪÚªØ±ÙĬØ¡": 9036,
      "æ±ĩ": 9037,
      "vast": 9038,
      "é¢ĨåŁŁ": 9039,
      "ØªØ¨": 9040,
      "æīĳ": 9041,
      "ĠeesmÃ¤rk": 9042,
      "ĠsÃ¼nn": 9043,
      "ĠÙĩÙĦÙĨØ¯ÙĬ": 9044,
      "ĠÙĨØ§Ù¾": 9045,
      "ç¶²ç«Ļ": 9046,
      "ÙħÛĴ": 9047,
      "ä»Ģä¹ĪæĹ¶åĢĻ": 9048,
      "Ø®ØªÙĪÙĨ": 9049,
      "ĠØ¹ÙĤ": 9050,
      "Ġà´ĩà´ķ": 9051,
      "åħĴ": 9052,
      "ĠØªØ§Ø²ÙĪ": 9053,
      "uline": 9054,
      "ĠØ±ÙĪÚªÚ»": 9055,
      "ĠPa": 9056,
      "ä¼¤": 9057,
      "ĠÙĪÙĩ": 9058,
      "æ°´å¹³": 9059,
      "Ø¬ÙĩÙĬ": 9060,
      "Ġumb": 9061,
      "ĠvÃµimalus": 9062,
      "ĠØ±ÛģÙĨ": 9063,
      "ĠÚĬØ±Ø§Ø¦ÙĬÙĪØ±": 9064,
      "ĠÙĦÙĪÚª": 9065,
      "len": 9066,
      "åĨĻçľŁ": 9067,
      "èĦ¸": 9068,
      "ĠÚ¾ÙĬÙĪÙĨ": 9069,
      "éĢļçŁ¥": 9070,
      "Ġalusel": 9071,
      "ĠÙħØ§Úº": 9072,
      "suse": 9073,
      "ĠæĹ¥": 9074,
      "å¾ŀ": 9075,
      "Ġtegelikult": 9076,
      "ĠØ¨Ùħ": 9077,
      "Ġåħ¬": 9078,
      "ĠØµÙĪØ¨Ûģ": 9079,
      "Ġvaim": 9080,
      "åĵ¡": 9081,
      "ĠØ³ÙĬÙħ": 9082,
      "69": 9083,
      "ĠØ·Ø§ÙĦØ¨Ø§ÙĨ": 9084,
      "ÙħØ³": 9085,
      "èĩĢ": 9086,
      "ook": 9087,
      "ff": 9088,
      "èĲ¨": 9089,
      "ĠÚªÙ¾ÚĻØ§": 9090,
      "ĠÙ¿Úª": 9091,
      "çĵ¶": 9092,
      "teid": 9093,
      "ĠØ§ÙĪÙĨÙĪÚº": 9094,
      "51": 9095,
      "ĠÙħÛĮÙĨÙĪÚº": 9096,
      "Ġjne": 9097,
      "Ġproov": 9098,
      "hed": 9099,
      "åħ¼": 9100,
      "éĤ£éĩĮ": 9101,
      "æļĤ": 9102,
      "avaid": 9103,
      "uvalt": 9104,
      "ĠØ¯ÙĦÙĬÙĦ": 9105,
      "ĠØ¨ÚĨÙĬ": 9106,
      "ÚıÙĨ": 9107,
      "ĠØ§ÙĬÚªØ³": 9108,
      "laste": 9109,
      "ç²¾åĵģ": 9110,
      "èĪ¹": 9111,
      "Ø¨ÙĬÙĪ": 9112,
      "ĠÙ½Ø±ÙĬÙĨ": 9113,
      "th": 9114,
      "ÚĻÙ¾": 9115,
      "ĠÙĤØ¯Ø±Øª": 9116,
      "Ø³Ù½ÙĪ": 9117,
      "éłŃ": 9118,
      "ĠÙĨØ´Ø§ÙĨÙĪ": 9119,
      "01": 9120,
      "ĠÙħØ§Ø¦ÙĬ": 9121,
      "ĠØ·ÙĪÙģ": 9122,
      "jÃ¤Ã¤": 9123,
      "ĠÛĮØ±ÙĪØ´ÙĦÛĮÙħ": 9124,
      "ç©ºéĹ´": 9125,
      "éħ·": 9126,
      "360": 9127,
      "ĠØ¢ÙĬØ³": 9128,
      "ĠØ±ÙĩØ§Ø¦Ø´": 9129,
      "ĠÚıÙĪØ±": 9130,
      "ä¹°åĲĹ": 9131,
      "ĠØ§ÚªØ§Ø¦ÙĪÙĨ": 9132,
      "æ··": 9133,
      "æĿĤ": 9134,
      "ĠØºÛĮØ±": 9135,
      "ĠØ°ÙħÙĬÙĪØ§Ø±ÙĬ": 9136,
      "ĠvÃµid": 9137,
      "Ã¼k": 9138,
      "ĠØ®Ø§Ø±": 9139,
      "è¯ļ": 9140,
      "ĠØ³ÚªÙĪÙĨ": 9141,
      "ÙģØ§": 9142,
      "ĠÚĨØ§ÙĨÚĬÙĬÙĪ": 9143,
      "è¯į": 9144,
      "Ù½ÙĪØ¨Ø±": 9145,
      "ĈĈï¼Į": 9146,
      "ĠØ±Ùħ": 9147,
      "atel": 9148,
      "éĽ¶éĴ±": 9149,
      "Ø§ÙĨÙĪÚº": 9150,
      "ĠÚĦØ§Ú»ÙĬ": 9151,
      "ĠÙħÙĪÙĦÙĪÙĬ": 9152,
      "ĠÙ¿ÙĬØ³": 9153,
      ".\"": 9154,
      "Ø¹ÙĬØª": 9155,
      "éĴĪ": 9156,
      "ĠÚ©Ø±ÛĮ": 9157,
      "Ú¯Ø±ÙĨ": 9158,
      "ÚĨÙĨØ¯": 9159,
      "Ø§ÙĩÙĬÙħ": 9160,
      "è«ĸ": 9161,
      "zz": 9162,
      "isteeri": 9163,
      "ÚĢØ±ÙĪ": 9164,
      "ĠÙĤØ±Ø§": 9165,
      "ĠÚ©Ø§ÚĮÙĪ": 9166,
      "ÚªÙĦÙĩÙĩ": 9167,
      "ĠÙ¾ÙĪØ¦ØªÙĬ": 9168,
      "ä¸¦": 9169,
      "ĠSuur": 9170,
      "ĠÙĩØ§ÙĦØ§": 9171,
      "ĠÙħÙ½ÙĬ": 9172,
      "Û¹": 9173,
      "ÙĩÚĻÙĬ": 9174,
      "å®¹æĺĵ": 9175,
      "ĠØ§Ø³Ù¾ÙĬÚªØ±": 9176,
      "ÚĻÙĩÙĬÙĦ": 9177,
      "Ġà´ķà´£à´ķ": 9178,
      "ĠØ¢Ú¾": 9179,
      "ĠØŃØ§ÙģØ¸": 9180,
      "ÑĢ": 9181,
      "ekon": 9182,
      "æĢİä¹Īé¢Ĩå¥ĸ": 9183,
      "ĠÙĨÛĮÚĳÛĴ": 9184,
      "à´·àµ»": 9185,
      "éĸĢ": 9186,
      "ĠÚ©Ø§ÙĨØ¦Ø³": 9187,
      "ĠØ´ÙħØ§Ø±": 9188,
      "åĩºäºĨ": 9189,
      "ĠlÃ¤heb": 9190,
      "oet": 9191,
      "ĠÚĨØ§ÙĦ": 9192,
      "Ġà´ĩà´¸": 9193,
      "Ú©Øª": 9194,
      "åĲ»": 9195,
      "lase": 9196,
      "ĠÙ½Ø§ÙĦÙ¾Ø±": 9197,
      "åĪ©çĶ¨": 9198,
      "ĠÙģÙĪØ±ÙĬ": 9199,
      "ĠtÃµttu": 9200,
      "ili": 9201,
      "ĠØ¨Ø§Ø²Ø§Ø±": 9202,
      "ĠÚĬÙ¾Ù½ÙĬ": 9203,
      "ĠØ¯Ø§Ø¯": 9204,
      "ĠÚ¯Ø±ÙģØªØ§Ø±ÙĬ": 9205,
      "æ¶Īæģ¯": 9206,
      "ĠÙħØ¹Ø§Ùģ": 9207,
      "ĠØ¢Ø±Ù½": 9208,
      "åĩłçĤ¹": 9209,
      "Ġkaub": 9210,
      "ĠÙºØ§ÙĩÙĬÙĪ": 9211,
      "essi": 9212,
      "oc": 9213,
      "ĠØ§ÙĪÙĨØ¯Ø§": 9214,
      "ĠÙ¾Ù½ÙĬ": 9215,
      "Ø¶ÙĦ": 9216,
      "ustes": 9217,
      "Ø§ÛĮ": 9218,
[...]
