#version: 0.2
à ¸
à ¶
à ·
à º
à ¹
Ġ à¶
à¸ ²
à¸² à¸
à¸ Ļ
à »
à· Ĭ
à¹ Ī
à¸ Ń
à¸ £
à¹ Ģ
à· Ĵ
à¸ ģ
à¹ ī
à¶ ±
à¸ ±
à¸ ĩ
à¹Ģ à¸
à· Ģ
à¸ ¡
à¸ µ
n g
à· ı
s a
àº ²
àº Ļ
à¸ §
à¶ º
à¸ Ķ
à¸ ¥
à¸ ¢
à¸ ´
à¶ »
à¸ Ĺ
â Ģ
à¶ Ń
à¸ ļ
à· Ķ
à¸ ª
Ġ sa
à¶ ¸
à¶ ļ
à· ĥ
à¸ ķ
à¸ °
6 6
à¸ «
à¸ Ħ
a n
à¹ ģ
àº ģ
à» Ī
à· Ļ
à¹ Ħ
Ġ k
àº² àº
à· ļ
à· Ħ
à¸ Ī
à¶ ½
àº ±
à¸ Ľ
à¶ §
a ng
à» ī
à¹ ĥ
Ġ m
à¸ ·
àº °
à¸²à¸ £
à¸ ¸
àº Ķ
àº ĩ
à¸Ń à¸ĩ
âĢ ĭ
à¶ ¯
3 3
à¸µ à¹Ī
Ġà¶ ļ
Ġ à·Ģ
àº Ń
à» Ģ
à¹ Į
à¸ ¹
à· Ĳ
i n
à¹ ĩ
à¸ Ĥ
a g
Ġ àº
àºĻ àº
Ġà¶ ´
à¸ ŀ
à»Ģ àº
ng a
à¸ Ĭ
66 66
Ġ à·ĥ
Ġ nga
à¹ Ĥ
. .
àº µ
à¸ ³
Ġ p
Ġà¶ ¸
o n
à· ĵ
a l
àº §
à¸²à¸ Ļ
Ġ u
à¸ģ à¸²à¸£
àº »
à¶ ľ
Ġk a
Ġ n
Ġà¶ ħ
à¸²à¸ ¢
à¸²à¸ ĩ
âĢ į
à¶ ´
à¸£ à¸°
àº ļ
àº ¡
à¸²à¸ ¡
à¸²à¸ ģ
àº ¥
g a
Ġà¶ ¯
a t
Ġà¶ ±
à» ģ
à·Ĭ âĢį
à¹ģ à¸¥
à· ľ
Ġ ang
Ġ à¹Ģà¸
33 33
àº ´
àº ª
à¸ ĸ
à¸ ľ
i l
à¸· à¹Ī
à¸ ¶
a y
àº Ĺ
à¹ĥ à¸Ļ
Ġà¶ Ń
à¸Ń à¸Ļ
à¶ «
àº² àºĻ
Ġ à·Ħ
à¹Ģà¸ Ľ
i t
Ġà¶ ľ
Ġ A
e r
a d
a s
à¹ģà¸¥ à¸°
à¹ĥ à¸«
à» ĥ
à¹Ħ à¸Ķ
à¸Ń à¸¢
Ġ d
Ġm ga
6666 6666
àºŃ àºĩ
àº «
i m
àº ·
a h
Ġ t
Ġà¶ ĳ
Ġ s
à¶ ¶
a b
à¹Ģ à¸£
a k
à¸± à¹ī
Ġà¶ ¶
Ġ b
Ġu g
.. .
a r
à¸ ĭ
à¸Ĥ à¸Ńà¸ĩ
à¸ ĵ
à¸« à¸Ļ
à· ħ
à» į
u l
àº ķ
Ġ (
à¶ ©
à¹Ħ à¸¡
à» Ħ
à¹Ģ à¸ģ
r o
Ġ g
àº² àºĻàº
a w
àº Ľ
à¹Ģà¸ ¥
àº į
o d
à¸Ń à¸ģ
à¸ ¨
à¸Ħ à¸§
à¸Ħ à¸£
à· ģ
o ng
Ġp ag
à¸Ľ à¸£à¸°
Ġ S
Ġà¶ ½
àº Ĥ
u n
àº Ħ
à¸²à¸ §
a m
à¸ ł
e n
à· Ŀ
à¸ į
Ġ ...
à¸Ī à¸°
à¸§ à¸¢
o r
Ġà¶ º
àº ¹
i s
Ġ à¸ª
à¸µ à¹ī
à¶º à¶ļ
e s
à¶ Ĥ
à¸Ļ à¸Ĺ
àºµ à»Ī
Ġ l
à¶ °
à¸ ©
àº Ĭ
à¸ ĺ
àº ¸
3333 3333
. [
àº¥ àº°
à¸ Ł
à¸Ħà¸§ à¸²à¸¡
àº ŀ
i y
à¸« à¸¥
Ġk in
à¹Ħ à¸Ľ
à¸¹ à¹ī
i ng
Ġà¶ ĩ
e t
Ġ à¸Ĺ
Ġà¶ļ à¶»
Ġ P
àº Ī
o t
i b
Ġ à¹ģ
Ġà¶ »
àº²àº ĩ
a p
0 0
u t
Ġ à¸ģ
Ġ C
à¸£ à¸²à¸
àº²àº į
àº²àº ¡
à¹Ģà¸ ŀ
à¹Ģà¸ Ĺ
à¹ Ĩ
à¸Ń à¸£
Ġ à»ģ
ĠA ng
à¹Ģà¸ Ķ
à¸« à¸£
Ġ M
àº ½
i d
à¸Ń à¸¡
i g
o s
Ġ à¹ģà¸¥à¸°
à¸Ń à¸ļ
à¹Ģà¸ Ĥ
à· Ĥ
Ġà¶ ī
à¸Ī à¸²à¸ģ
à· ĸ
o m
àºģ àº²àºĻàº
àºģ àº²àºĻ
Ġ à¸¡
Ġ h
à¸ģ à¸£
à¸²à¸ Ĺ
r e
à¹Ģà¸ «
66666666 66666666
i k
à¸¹ à¹Ī
à» Ĥ
à¸²à¸ ª
à·Ĵ .
à¹Ģà¸ ª
Ġ D
à¸ģ à¸¥
Ġ B
à¶ ¢
Ġ à¸Ħ
y o
à¸ļ à¸£
à¸ĩ à¸²à¸Ļ
à¶º à¶±
Ġ à¸£
à¸´ à¹Ī
Ġ Ã
h an
à¸ķ à¸£
. -
Ġ à¹Ĥ
à¸§ à¸Ļ
à¸¢ à¸Ļ
o l
àº ®
Ġ âĢ
Ġn i
à¸Ń à¸Ķ
t o
à¸± à¹Ī
Ġà¶ Ĩ
Â °
à¶ ³
Ġ -
2 0
u g
à»Ħ àºĶ
à¸· à¹ī
Ġu sa
Ġà¶ ¢
Ġ à¸Ļ
Ġ à»Ģàº
o g
àº²àº Ķ
Ġ N
à¸²à¸ Ī
Ġ à¸Ń
à¹ĥ à¸Ĭ
Ġà¶ Ķ
àº ³
Ġm a
à¸Ĺ à¸³
à¸²à¸ Ķ
à¸²à¸ Ħ
i p
à¸²à¸ ķ
.- .-
Ġà¶ĳ à¶ļ
Ġà¶ĩ à¶Ń
à¸ļ à¸ļ
à¸²à¸ ŀ
Ġ H
Ġà¶ Ĵ
àºĽ àº°
à·Ģ à¶±
Ġ à¸ŀ
u s
o p
à¹Ģà¸ ¡
e l
àº· à»Ī
à·Ģ à¶Ń
à¹Ģà¸ §
à¹Ģà¸ Ħ
Ġ T
à¸¢ à¸§
Ġ G
Ġà»ģ àº¥àº°
u b
à¸£ à¸¡
à¸¸ à¹Ī
à¹Ģà¸ ķ
à¶± à¶º
à¸²à¸ «
et ro
à¸Ľ à¸£
à¸¶ à¹Ī
à¸Ĺ à¸¢
à¸« à¸¡
Ġ à¸ķ
à¹Ģ à¸Ļ
àº² àºģ
u ng
sa y
Ġà·ĥ à¶¸
à¶± à·Ģ
Ġ K
à»į à»Ī
Ġà¶ ĭ
àº ¼
à¸Ķ à¸¢
iy a
àº²àº §
àº± à»ī
u m
Ġn ag
àº» à»ī
i c
- -
Ġàº Ĺ
à¹Ģ à¸Ń
à¹Ģà¸ Ĭ
Ġ E
Ġ L
à»ĥ àº«
à¸Ļ à¸ª
à·ı .
à¶º à¶§
33333333 33333333
à¸ģ à¸©
à¹ĥ à¸Ī
àº ĸ
à¶ ł
à¸¡ à¸²à¸ģ
âĢ Ŀ
à¹ģ à¸ķ
àºª àº°
à¸§ à¸ĩ
Ġàº ª
à¶Ń à¶»
ah im
Ġà¶ħ à¶´
à·Ģ à¶»
Ġ à¸Ī
à¸ĩ à¸ª
à¹Ģà¸ Ī
à¸§ à¸¡
à¸Ļ à¸Ļ
i h
à¶¸ à¶§
Ġ R
à»ĥ àºĻ
à¸²à¸ ¥
à»Ģàº Ľ
à¸¢ à¸ĩ
Ġ à¸Ķ
àºĤ àºŃàºĩ
àº ¶
à» ľ
e m
à¸ª à¸¡
à¸ľ à¸¥
a sa
e d
à¸Ħ à¸Ļ
al a
Ġ à¸ĭ
à¸ł à¸²à¸ŀ
à¸¶ à¹ī
Ġ I
àº ľ
à· ĳ
al ib
20 1
a c
Ġà¹Ģà¸ ŀ
à¸£ à¸ĩ
Ġ à¸§
2 5
Ġ à¸ļ
àºĻàº Ĺ
in i
l an
à¸ģ à¸§
à¸Ń à¸¥
à¸ª à¸³
u k
Ġ U
àº° àºĻ
à¸Ļ à¸ķ
Ġ c
Ġà¶ļà¶» à¶±
y on
à·Ģ à¶ļ
Ġma o
Ġka sa
Ġ àºģ
Ġ w
à¹Ģ à¸ĩ
l o
ĠâĢ ľ
à¸¥ à¸ĩ
Ġ Â°
Ġ à¸Ľ
alib ot
à¶ ®
6666666666666666 6666666666666666
un ay
il a
ut ang
1 0
à¸ģ à¸£à¸°
à¸¡ à¸²
Ġ Ġ
à·Ģ à¶½
àº ¢
à¸²à¸£ à¸ĸ
Ġn as
u r
à¸²à¸ Ń
Ġp alibot
Ġà¶ħ à·Ģ
à¹ģ à¸ļà¸ļ
à¹Ħ à¸Ĺà¸¢
Ġ à¸Ĭ
A ng
àºŃ àºĻ
àº§ àº²àº¡
àºµ à»ī
ul an
u d
Ġk an
Ġm il
u h
en t
at ag
Ġà¶ħ à¶±
à¸Ħ à¸¥
à¸²à¸¡ à¸²à¸£à¸ĸ
à¶» à¶¸
Ġ F
Ġà¹Ģà¸ Ľ
Ġ à¸Ĥ
Ľ àº°
Ġà¹ģ à¸ķ
Ġà¶¸ à·Ħ
Ġà·ĥ à·Ħ
àº¹ à»ī
à¹ Ĭ
à¸²à¸ Ĭ
à¸ĩ à¸Ĺ
à¶ļ à¶»
à¶´ à¶Ń
Ġà¶¶ à·Ģ
à¸« à¸§
l e
à»ĥ àºĻàº
à¹Ģà¸ ¢
à¸Ń à¸ª
o k
àºŃ àºģ
à¸Ń à¸Ńà¸ģ
à¶º à¶½
Ĥ àºŃàºĩ
il i
à¸Ĺ à¸²à¸ĩ
Â Ń
àº¹ à»Ī
Ġ J
im etro
Ġmil imetro
Ġ ad
à¸ Ĳ
p an
à¸§ à¸ģ
Ġ à¸ģà¸²à¸£
Ġ à¸¥
Ġà·Ģ à¶±
à»Ģàº Ĥ
à¸ Ŀ
ag at
1 1
à¸ŀ à¸£
i a
» ¿
ï »¿
à·ļ .
à¸¢ à¸¡
à¸Ļ à¸Ķ
à¶ ·
à¶» à¶º
ad o
.-.- .-.-
Ġnas od
Ġ W
à¹Ģà¸ ļ
i on
Ġ à¹ĥà¸Ļ
u p
Ġà¶ļ à·ħ
à¶¸ à¶ļ
Ġ âĢĭ
à¹Ĥ à¸¥
àº§ àºģ
àº§ àºĩ
à¸Ļ à¸ģ
ah in
y a
à¸Ļ à¸Ħ
à¸Ī à¸³
Ġàº ŀ
ahim utang
à¸£ à¸Ħ
à¸Ļ à¸§
ĠÃ Ń
Ġ O
à¸£ à¸ģ
à¸ĩ à¸Ħ
1 9
Ġ à¸ľ
Ġ /
à¶¸ à¶±
à¸²à¸ Ĥ
Ġàº «
Ġ à¸«
à¶« à¶º
à¸ŀ à¸£à¸°
à¸Ļ à¸¡
à¶» à¶ļ
Ġk m
Ġ im
Ġà¹Ĥ à¸Ķà¸¢
Ġm ak
à¶¸ à¶º
in it
Ġ o
Ġ à¸¢
Ġkin ab
à¸£à¸²à¸ °
à¸£à¸²à¸ Ħ
à¸Ļ à¸Ń
Ġn a
à¸ĩ à¸ģ
b an
Ġ à·ģ
à¹Ģà¸Ħ à¸£
à¸´ à¹ī
Ġ in
à¸²à¸ ļ
Ġà¶± à¶¸
Ġàº Ħ
à¸ķ à¸²à¸¡
à» Ŀ
aw o
an d
ap it
r ang
à¸Ľ à¸¥
à»Ģàº ®
à¹Ģà¸Ĺ à¸¨
i r
Ġà¶º à¶±
à¸ ī
is t
Ġ à¸«à¸£
àºĦ àº§àº²àº¡
à»Ģàº Ĺ
à¸²à¸ ¨
à¹Ģà¸ ĭ
à¸ĩ à¸Ļ
s t
à¹Ģà¸ģ à¸¡
Ġàº ¡
à·Ģ à¶º
Ġ am
à·Ĭ ,
à¸²à¸ °
à¸Ĭ à¸Ļ
àº²àº Ĺ
à¹ĥà¸« à¸į
à¹ģ à¸ģ
Ġkasa rang
à¶½ à¶º
à¸¥ à¸°
Ġkin a
à¸ª à¸°
à¹Ħ à¸¥
c h
à¹ģ à¸¡
à¸ª à¸£
Ġt awo
1 2
à»Ģàº ŀ
Ġkin i
Ġb ulan
Ġ "
Ġm ag
à¸ª à¸Ļ
à¸Ĺ à¸£
o b
à¸ ®
Ġ à¹Ħà¸¡
à¹ĥà¸« à¸¡
à»Ģàº ¥
Ġ à¹Ģà¸£
Ġp a
say say
Ġ à¸ĸ
à¹Ĥ à¸Ķà¸¢
Ġàº ¥
à¶¸ à¶Ń
o v
àºĶ àºĹ
3333333333333333 3333333333333333
1 5
àºŃ àºļ
Ġ ga
an an
Ġ re
Ġkasarang ang
àº²àº ¥
Ġka y
àº° àº«
à·Ħ à¶±
es t
à»ģ àº¥àº°
Ġà¹Ģà¸ ¡
in e
à·Ģ à¶§
1 8
Ġ al
à¸²à¸Ī à¸°
àº´ à»Ī
Ġ :
ay o
Ġka h
it a
à¶ľ à¶Ń
à·Ĭ .
à¶ Ł
à¸ª à¸²à¸¡à¸²à¸£à¸ĸ
Ġu n
iy ang
Ġ |
àº· à»ī
à¹Ģà¸¥ à¸¢
Ġ à¸Ľà¸£à¸°
Ġà¶¶ à¶½
à¹Ģ à¸Ńà¸ĩ
à¸ĩ à¸¡
à¹ĥà¸Ļ à¸ģà¸²à¸£
Ġb ahin
à¸Ķ à¸ª
à¸Ĺ à¸ĺ
àº» à»Ī
Å ¡
à¸ļ à¸ģà¸²à¸£
à¸Ī à¸£
Ġà¶ļ à¶½
à¸Ļ à¸³
à¸ ¤
m a
àº§ àº¡
à¹ģ à¸Ĺ
à·Ģ à·ĥ
Ġg i
Ġà¶¢ à¶±
à¸Ķ à¸Ļ
à¹Ħ à¸£
à»ģ àº¡
àº²àº ļ
à¶± à¶§
Ġ V
i han
à¸ģ à¸ķ
Ġ àºŃ
Ġpag p
à»Ģàº Ĭ
àº§ àº½
à¸Ļ à¸¢
àº £
àºĪ àº°
à¹Ģà¸ ĺ
à·Ĭ âĢ
Ġ iyang
Ġàº ļ
à¸Ķ à¸ķ
Ġ f
à¸ģà¸£ à¸£à¸¡
Ġ ,
à¹Ģà¸§ à¸¥
in a
Ġ à¸«à¸Ļ
i v
Ġàº Ī
Ġni ini
1 4
l ak
ĠÃ ¶
àºĻ àºĶ
àºĻàº ķ
à¸ļ à¸Ļ
Ġà¶ĳ à·Ħ
à¸ģ à¸Ĺ
Ġk on
àº§ àºį
à¶» à¶Ń
à¸ªà¸³ à¸«à¸£
1 6
Ġà¶´ à¶»
àºĻàº ª
àº²àº ª
r a
à»Ģàº ¡
Ġà¶´ à·ĥ
à¸ª à¸Ķ
à¸²à¸ģ à¸²à¸£
à»Ģàº «
Ġà¶ħ à¶Ń
âĢį à·ĬâĢį
à¸ĵ à¸°
à¸¡ à¸ŀ
à¶± à¶¸
3 0
Ġà¶ħ à¶Ńà¶»
à¸ĩ à¸Ĥ
i sa
Ġd ili
Ġ à¹Ħà¸Ķ
Ġka m
à»Ħ àºĽ
àº²àº Ĭ
à»Ĥ àºĶ
à¹Ħ à¸§
à¸£ à¸£à¸¡
à¸ģ à¸³
Ġà·ĥ à¶³
à¹Ģà¸« à¸¥
Ġt u
Ġs i
àºĶ àºķ
à¸«à¸¥ à¸²à¸¢
à¸¡ à¸Ļ
j e
u ga
à»Ģàº Ī
à»Ģàº ª
à¸Ń à¸§
àº± à»Ī
9 9
à·ĬâĢ Į
à·Ĵ à¶Ĥ
à¸Ľà¸£à¸° à¹Ģà¸Ĺà¸¨
à¸²à¸ Ľ
Ġ àºĻ
Ġà¶ ·
à¸ļ à¸Ńà¸¥
Ġ og
à¸Ķ à¸Ĺ
à»ī âĢĭ
im a
ing on
à¸²à¸« à¸²à¸£
Ġà¶ ł
e k
Ġ ak
à¹ģ à¸Ĥ
Ġà¶Ķ à·Ħ
1 7
Ġ à¹Ĩ
à¶ļ à¶º
h e
Ġim ong
à»Ģàº §
Ġà¶ħ à¶¯
ab agat
àºĸ àº°
er o
as yon
à¹ģ à¸«
Ġ il
e b
à· ĺ
àºĻ àºģ
à¸Ļ à¸°
Ġà¶ħ à¶º
à¸ļ à¸Ĺ
Ġg ih
à»Ģ àºģ
Ġ à»ĦàºĶ
Ġà¶ī à¶±
à»ĢàºĹ àºĶ
àºŃ àº¡
ung s
t a
Ġg ik
à¸Ĭ à¸²à¸ķ
à¸Ń à¸°
Ġàº ķ
d a
à¸ Ĵ
à¸Ļ à¸ģà¸²à¸£
1 3
à·Ħ à·ĥ
e p
Ġh abagat
Ġp an
id lak
à¸ŀ à¸¥
Ġà¶ĳ à¶º
Ġal ang
Ġà¶ľ à¶Ń
Ġà¶ľ à¶±
ungs od
-- --
Ġ i
à¸ĩ à¸ķ
à¹Ħà¸¥ à¸Ļ
66666666666666666666666666666666 66666666666666666666666666666666
à¸£à¸²à¸ Ĭ
à¸£ à¸²à¸¢
Ġp ro
Ġtu ig
Ġà¶½ à¶¶
Ġà·Ģ à¶ľ
Ġ ar
à¹Ģà¸« à¸¡
à¸ĺ à¸£à¸£à¸¡
ĠĠ ĠĠ
à¸§ à¸£
à¸§ à¸Ķ
àºŃ àºĻàº
) ,
2 4
Ġk l
à¶ ħ
à¸²à¸ ĵ
à¸Ĥ à¸²à¸¢
à¹Ĥ à¸£à¸Ħ
âĢ ²
t e
à»ĤàºĶ àºį
à¸Ń à¸ķ
Ġs iya
à¶ļ à¶§
à¸£ à¸ĸ
Ġà·Ģ à¶½
Ġk al
im o
ab aw
âĢ ³
à¸ľ à¸¡
ĠS a
Ġà¶ §
à¹Ħ à¸Ł
à¶ ¹
àº²àº «
Ġu lo
t er
à¹Ģà¸ķ à¸Ńà¸£
00 0
à¸Ļ à¹ģ
ug n
à¸Ńà¸Ļ à¹Ħà¸¥à¸Ļ
à¹Ģà¸£ à¸²
à¸ļ à¸ª
Ġ à¸Īà¸°
àºĶ àºĸàº°
à¸ģ à¸ª
à¸ģà¸© à¸²
u sa
à¸Ń à¸Ĺ
à¶ľ à¶±
àºĻàº §
Ġpag k
à¹Ĥ à¸¡
à¸Ĵ à¸Ļ
an a
Ġ at
à¶Ń à¶º
à¸ĩ à¹ģ
à¶½ à¶±
Ġ y
Ġ à¸Ĥà¸Ńà¸ĩ
à¸Ńà¸ĩ à¸ģà¸²à¸£
r an
d pan
l a
à¸Ńà¸ĩ à¸Ħ
Ġà¶» à¶§
ag i
Ġad unay
Ġ ib
à·ģ à¶º
Ġn ahimutang
à¸¸ à¹ī
à» Ĩ
Ġà¶ħ à¶¸
à¸¢ à¸ģ
Ġà¶¸ à¶¸
Ġu ban
àºģ àºª
à¹Ģà¸Ľ à¸¥
aw an
à¸Ļà¸Ĺ à¸²à¸ĩ
à¸Ľà¸£à¸° à¸ģ
al ay
à¸Ļ à¸²à¸Ķ
àºµ âĢĭ
àºĻàº Ħ
Ġà¶ī à¶Ń
ah an
h i
àº°àºĻ àº°
Ġ ap
à¶» à·Ģ
àºĩ àºģ
à¸³ à¸Ļ
à¸ĩ à¸ģà¸²à¸£
Ġàº Ľàº°
à¶½ à¶ļ
à¶» à¶¯
à¸Ĺà¸³ à¹ĥà¸«
Ġw ala
à·ĥ à¶±
à¸ ı
5 0
Ġà¹Ģà¸ŀ à¸£à¸²à¸°
àºĩ àºĹ
Ġà¶¸à·Ħ à¶Ń
Ġ v
Ġm atag
à¸ ¯
à¸ģ à¸Ķ
Ġka b
Ġm ol
àºĪ àº²àºģ
à¸ģ à¸Ħ
à¶º à¶¸
à¸£à¸° à¸ļà¸ļ
ĠU n
Ġà¶´ à¶Ń
Ġm etro
àº¶ à»Ī
àº²àº Ħ
à¶ļ à¶¸
Ġ à¸«à¸¥
Ġam ihan
à¶ľ à¶¸
à¸¢à¸§ à¸ģ
ut a
6 0
à¸ķ à¸¥
à»ģ àºĤ
.. ..
à»ģ àºķ
Ġà·ĥà¶³ à·Ħ
à¸Ļ à¹Ħà¸Ľ
àº° àº¥
ung od
Ġà¹Ģà¸ Ĭ
Ġil ang
Ġàº Ĭ
à¹Ģà¸ ¨
Ġà¶Ķ à·Ģ
Ġàº ĤàºŃàºĩ
à¸ŀ à¸¢
à¸ļ à¸Ħ
er s
à¹Ĥ à¸£à¸ĩ
Ġkl ima
Ġà¶¸ à¶ľ
Î µ
à¹ ĭ
2 2
Å¡ t
Ġà¸Ĺ à¸³
à¶± à¶Ń
Ġpag t
Ġ à¸Ħà¸£
Ġàº §
Ġà¶Ķ à¶¶
ab o
à¶§ à¶Ń
à¸¢ à¸ļ
Ġk il
à»į à»ī
Ġà¹Ģà¸ ¥
à¸² à¹ģ
Ġ à¸Ńà¸¢
Îµ Îµ
Ġgik an
à»Ģ àºĶ
r on
.-.-.-.- .-.-.-.-
à¸²à¸ ĸ
Ġ op
uh a
Ġd ak
Ġ Å
Ġs ila
à¶± à¶ļ
à¸Ļ à¸ĺ
up yo
à»ĥ àºĬ
à¸Ń à¸Ħ
âĢ Ļ
Ġà¶ļ à¶Ń
àºĽàº° àºĬ
à¸Ł à¸£
à¸ĩ à¹Ģà¸Ľ
in o
à¹Ĥ à¸Ļ
Ġà¶¸ à¶Ń
Ġn al
e g
à¸§ à¸Ī
ad r
Ġàº Ľ
à¸Ľà¸£à¸° à¸ª
à¸Ń à¸²à¸«à¸²à¸£
or t
Ġd apit
à¸«à¸¡ à¸²à¸¢
h a
Ġulo han
Ġà¶ļ à¶§
Ġà¸ŀ à¸£
Ġib abaw
ĠN ahimutang
Ġà·Ħ à¶»
à¸Ńà¸ĩ à¸Ĺ
em b
d to
à¸Ķ à¹Ģà¸ĩ
Ġm ay
Ġmol upyo
àºģàº²àºĻàº ª
à¸²à¸¢ à¸Ļ
à¸²à¸ĩ à¸ģ
Ġà¸ģ à¸¥
à¸Ļ à¸Ńà¸¢
Ġà¶ĳ à¶¸
Ġà¶¸ à¶§
Ġk ag
201 8
Ġà¹Ģà¸ §
à¸Ļ à¹Ħà¸Ķ
init on
àºĩ àº²àºĻ
à¸Ļ à¹ĥà¸Ļ
Ġgi initon
init an
ugn awan
à»Ģ àºŃ
Ġkinab ugnawan
Ġkina initan
à¸ ĳ
Ġn ak
à»Ģ àºĻ
àºŃ àºį
Ġà¶¯ à¶ļ
à¶» à¶«
à¸ªà¸° à¹Ģà¸ģ
iy on
Ġk w
Ġhabagat an
àºĶ àºĻ
à¸³ à¸«à¸£
à·Ħ à¶½
Ġà¸Ħ à¸¥
àº° àºŀ
Ġkil om
Ġka t
àºµà»Ī âĢĭ
Ġamihan an
Ġkilom etro
à¹ĥ à¸ª
à¹Ģà¸ª à¸£
ĠD i
àº Ł
à¸ĸ à¸²à¸Ļ
àºĻàº «
à¶Ń à¶±
à¸²à¸ ĺ
r es
isa n
ĠâĢ ĵ
Ġàº ¢
à¸²à¸Ħ à¸¡
Ġà¶ħ à¶»
à¸Ķ à¸³
à¹Ģà¸ ī
âĢ ¦
at ion
ar t
d as
o w
ah ang
Ġar on
à¸Ľà¸£ à¸ª
à¹Ĥà¸¥ à¸ģ
Ġl ang
Ġm an
à¸¢ à¸£
àº½ àºĩ
à¸Ļ à¸Ĭ
Ġ à¸Īà¸²à¸ģ
à¸«à¸¡ à¸Ķ
Ġà»Ģàº ŀ
adr ado
à¶º à¶º
à¹Ħ à¸ĭ
k a
Ġ à¹ĥà¸«
à¸« à¸²à¸£
à·ĥ à¶»
Ġnga dto
idlak an
à¶¯ à¶±
o un
Ġkw adrado
8 8
Ġk om
à¹Ĥ à¸Ľà¸£
à¸²à¸ ©
Ġd e
Ġà¹Ģà¸ Ħ
à¸ĩ à¸«à¸§
à¸Ļ à¸£
das das
à¹Ĥ à¸Ľ
à¸Ķ à¸ģ
Ġm as
à»Ģàº Ħ
Ġà¶ ķ
à¸į à¸į
à¸Ĳ à¸²à¸Ļ
a v
à¸ª à¸²à¸£
àº§ àºĻ
à¹Ĥ à¸ķ
Ġà·Ģ à¶»
à¸²à¸Ĥ à¸Ńà¸ĩ
Ġy uta
Ġsa ng
àº²àº¡ àº²àºĶ
à¸² à¹Ģà¸Ľ
à»ĥ àºĪ
àº½ àºĻ
à¹Ĥ à¸Ń
2 00
2 3
à»ģ àº«
à¹ģ à¸ŀ
Ġg ip
Ġ à¸ļà¸£
Ġre h
à¶¸ à¶«
Ġàº ®
2 8
à¸Ń à¸²à¸Ī
àº²àº ŀ
à¸Ļ à¹Ģà¸Ľ
à¸ģà¸£ à¸ĵ
Ġà¶ħ à¶°
ab og
Ġà¶ī à¶¯
Ġà¹Ģà¸ Ĥ
à¸ļ à¸ķ
àº¶ à»ī
ĠI n
à¸Ļ à¸ŀ
âĢ ľ
à¸¥ à¸Ķ
k asa
Ġ #
à¸² à¹Ħà¸Ľ
Ġs t
ar d
Ġà¶Ń à¶»
Ġd i
Ġ à»ĥàºĻ
à¸Ńà¸ĩ à¸ģ
Ġd agat
ĠE n
à¸Ħà¸§à¸²à¸¡ à¸£
à¸Ļ à¸Ńà¸Ļ
à·Ģà¶» à¶º
à¸Ķ à¸Ĥ
Ġà¹Ģà¸ Ķ
à¹Ģà¸« à¸ķ
Ġreh iyon
àºĻàº ³
Ġt anan
Ġà¹Ģà¸ ª
i an
àºĶ àºª
à¸Ĭ à¸¡
à¸²à¸ĩ à¹Ĩ
6 1
ahim o
Ġusa b
Q O
à¸£à¸° à¸Ķ
Ġ àºģàº²àºĻàº
Ġà¸ª à¸¡
en s
à¸ĵ à¸ĳ
à¸ĩ à¹Ħà¸¡
à¸ĩ à¹ĥà¸Ļ
c e
à¶ ĳ
Ġ à¹ģà¸¥
Ġk o
à¸Ļ à¸«
à¶ľ à¶º
à¸Ļ à¸ļ
à¸Ļ à¸Ĥà¸Ńà¸ĩ
à¸¡ à¸«
Ġu lan
Ġà·ĥ à¶Ń
à¸ł à¸²à¸¢
Ġ Ä
àºªàº° àº«
ahang lan
ĠH ul
à¸¡ à¸Ĺ
à¹Ħ à¸Ĥ
à¶¯ à¶»
Ġà¶¸ à¶±
Ġpag h
Ġap an
ĠDi os
à¹Ĥ à¸Ķ
Ġ à¹Ģà¸Ń
Ġn iya
à¶¶ à¶±
àºģ àº°
àºĻ àº°
Ġm o
à¸£ à¸ĵ
2 6
x x
Ġà¶ĭ à¶´
Ġàº Ĥ
Ġ à¹Ģà¸Ļ
Ġl al
à¸ĩ à¸Īà¸²à¸ģ
] [
à¶¶ à¶³
à¸Ļ à¹ĥà¸Ī
àº¼ àº·
5 5
c t
Ġà»Ģàº Ľ
at e
à¸£à¸²à¸Ħ à¸²
asa an
àº½ àº§
à¶§ à¶¸
Ġkinab asaan
Ġkina uga
Ġkinauga han
ay on
à¸Ľà¸£à¸° à¸Ĭ
àºŀ àº§àºģ
à»ģ àº¥
àºĻàº ¥
2 7
à· Ĩ
àºĬ àº²àºĶ
à¸Ń à¸Ńà¸Ļà¹Ħà¸¥à¸Ļ
Ġà·Ħ à¶¸
emb re
33333333333333333333333333333333 33333333333333333333333333333333
ĠHul yo
s o
à¸ģà¸¥ à¸²à¸ĩ
is ip
àº½ àº§àºģ
Ġ àºĶ
à¸ļ à¸²à¸ĩ
1 00
à¸´ à¹Į
al ag
Ġd ih
s k
àºģ àº§
t ong
in d
ig an
Ġà¶Ń à¶¸
à¶¯ à¶º
à»Ģàº ķ
àºļ àºļ
e w
Ġà¶ Ĭ
Ġp op
à¸ĩ à¸§
à¸Ķ à¸ģà¸²à¸£
Ġ an
uh at
Ġat ong
Ġp ang
l aw
p es
à¸ĩ à¸Ķ
Ġà¹Ģà¸ «
à¸ İ
Ġ Y
à¸Ļ à¸Ĥ
à¸Īà¸° à¸¡
àºģ àº³
à¸ģà¸³ à¸¥
à¸Ń à¹ĥà¸«
à¸¡ à¸²à¸ĵ
3 4
à¶º à¶Ń
à¸ª à¸ķ
ĠP ro
ĠA d
à¸¢ à¸Ķ
àºŃ àºĶ
à¹ĥ à¸Ħà¸£
Ġd ag
Ġsa k
à¸Ħ à¸³
t i
à¹Ģà¸Ĥ à¸²
àº° àºļ
c om
à¹Ĥ à¸Ħà¸£
Ġm at
àº¥ àº²àºį
Ġo f
e x
à¸Ńà¸Ļ à¸Ĺ
à¸²à¸Ħ à¸²à¸£
Ġkam o
à¸ĩ à¸£
àº¸ à»Ī
2 1
à¸ļ à¸ģ
Ġu b
à¸Ń à¸Ľ
à¸Ļ à¸ľ
à¸¡ à¸ķ
Ġà¶´ à¶¸à¶«
4 0
Ġl ungsod
àº° àºį
Ġmetro s
ik a
Ġà¶¯ à¶»
à¸Ń à¸ģà¸²à¸£
m it
y e
à¸¨ à¸²à¸ª
à¸ĩ à¹ģà¸ķ
ĠEn ero
ul o
ĠU g
ĠâĢ ĺ
2 9
u w
à¹Ĥ à¸£
Ġàº ľ
à·ĥ à¶ļ
à¹ģ à¸Ħ
ĠS t
Ġka ron
à¸ģ à¸ģ
am b
ĠE st
à¸Ńà¸ĩ à¹Ģà¸Ĺ
Ġ .
à¸Ī à¸Ļ
Ġka da
Ġ à¹Ģà¸ģ
à¸Ńà¸ĩ à¸£
Ġ àºģàº²àºĻ
àº²àº °
à¸Ĥ à¸Ļà¸²à¸Ķ
àºĻàº į
à¶ľ à¶½
Ġ à»ĥàºĻàº
à· ŀ
à·ĥ à¶º
Ġà¶ħ à¶©
à¸ª à¸§à¸¢
abo ga
Ġà¶ħà·Ģ à·ĥ
à»ģ àºģ
à¸²à¸¢ à¸Ĺ
Ġà¶´ à·ħ
àºĩ àºĦ
l as
à·Ĥ à¶º
à¹Ĥà¸£à¸Ħ à¸ªà¸°à¹Ģà¸ģ
ĠC h
Ġà¶» à¶¢
à¸Ń à¸Ń
Ġb isan
Ġ à¸Ħà¸§à¸²à¸¡
Ġ X
s ub
àºĩ àº²àºĻàº
t y
à¸Ļ à¹Ĩ
à¸ł à¸²à¸©
à¹Į ,
at o
à¸¢ à¸°
à¸Ļà¸Ĺ à¸£
Ġà¶Ĵ à¶ļ
àºĻàº ¡
or e
à»ģàºĤ àº§àºĩ
Ġm ah
à¸²à¸ ľ
Ġà¶ °
kasa dpan
à¸¢à¸Ļ à¸ķ
Ġà¶ĳà¶ļ à¶ļ
Ġà¶ĭ à¶±
à¹Ģà¸ ł
w ay
à¸ģ à¸ĩà¸²à¸Ļ
à¸ł à¸²à¸Ħ
Ġop Å¡t
à¸Ļ à¹Ģà¸¥
Ġkah aboga
Ġà¶Ķ à¶º
à¸ĩ à¸«
Ġàº į
Ġun sa
à¸į à¸«
à¹Ĥ à¸¢
à¶ Ľ
! !
à¸Ńà¸ĩ à¸Ļ
25 5
Ġpop ul
à¸ļ à¸¥
) )
à¸¤ à¸©
um an
àºĩ àºª
à· Ľ
â Ĥ
Ġà¶ħ à·ĥ
àºŃ àºŃàºģ
Ġ je
i o
6 7
t on
à¸Ĺà¸³ à¸ĩà¸²à¸Ļ
à¹ģ à¸ªà¸Ķ
Ġg in
à¶» à·ĥ
er n
Ġà¶ħ à¶½
à¸Ńà¸ĩ à¸¡
Ġ =
à¹ģ à¸ľ
à¸ŀ à¸§à¸ģ
âĤ ¬
à¸²à¸Ń à¸¢
àºģ àºĦ
Ġpag b
àº²àº Ī
à¹Ģà¸§à¸¥ à¸²
uk op
à·ı ,
à¸ĩ à¸Ĥà¸Ńà¸ĩ
à¸ĩ à¸Ń
Ġà¶ĭ à¶Ń
à¸ª à¸²à¸§
à¸Ļ à¸Ī
Ġà·Ģ à¶©
o y
à¹ģ à¸Ļ
à¸ļ à¸¡
à¸Ħà¸§ à¸£
Ġpag s
in yo
à¸Ļ à¹Ģà¸Ķ
Ġà¶ķ à¶±
à¶± à·ĥ
à¹Ģà¸¨ à¸©
ĠK ini
ĠA n
ï ¿
à¸Ļ à¸«à¸Ļ
à¸Ļ à¸Ħà¸£
àºĶàºĻ àº²àº¡
àº¥ àº²
à¹ĥ à¸ķ
ang k
à»Ħ àº¥
à¹Ģà¸ģà¸¡ à¸ª
4 4
Ġ à¸«à¸¡
al i
Ġ à¸¨
ï¿ ½
Ġ ï»¿
à¸ĩ à¸Ĭ
à¶± à¶ºà¶ļ
àº§àº½ àºĶàºĻàº²àº¡
à¸Ļ à¹ģà¸¥à¸°
à¸¡ à¸²à¸¢
Ġà¸ª à¸³à¸«à¸£
à»Ģàº ĸ
à¸Ķ à¸§
Ġak ong
à¸Ī à¸Ī
ac k
à¹Ħ à¸«à¸Ļ
à·ĵ .
à¸¡ à¸Ń
à»Ħ àºĬ
Ġ est
à¸Ļ à¹Ģà¸ŀ
e h
Ġdih a
Ġà¶Ń à¶¸à¶º
Ġà¶ļà¶§ à¶º
à¹Ĥ à¸ģ
al l
à¶» à¶§
à»Ĥ àº¥
à¸ªà¸³ à¸Ħ
c k
à»Ģ àºĩ
er a
Ġpopul asyon
Ġnal ukop
Ġ à»ĤàºĶàºį
Ä į
à·ģ à¶´
àºĻàº Ĭ
à¸ļ à¸ľ
Ġ r
à¸ļ à¸§
Ġà¶½ à¶ļ
àº« àº§
à¸ģ à¸ĭ
un a
Ġà¸ļ à¸²à¸Ĺ
Ġ [
it y
à»Ĥ àºĦ
aw igan
à¶ļ à¶½
3 5
à¸Ĭ à¸²à¸¢
Ġnag p
àº²àº ®
ĠP ag
8 0
àºĶ àºģ
ay an
t h
à·Ĥ à¶«
ung t
à·Ħ à¶»
àºĻ àºĻ
à¸²à¸§ à¸Ļ
i ga
à¸Ľ à¸ı
à¸Ńà¸° à¹Ħà¸£
àºĽàº° à»ĢàºĹàºĶ
à¸ģà¸²à¸£ à¸Ĺ
à¹ĥ à¸ļ
à¸Ķ à¸£
ĠA l
à¸§ à¹Ģà¸Ńà¸ĩ
* *
à¸Ń à¹Ħà¸Ľ
à¸Ļ à¹Ħà¸¡
à¸Ń à¸ľ
Ġà¸£ à¸§à¸¡
Ġà¶Ń à¶¸à¶±
Ġma ong
à¸³ à¸«à¸Ļ
àº¥ àº²àº§
Ġà¶ĭ à¶¯
Ġt ungod
à¸²à¸Ī à¸²à¸ģ
à¸ĩ à¸¢
Ġs ub
à¸Ļ à¹Ģà¸£
àºĹ àº²àºĩ
4 5
à¸ĩ à¸Ńà¸¢
à¹Ģà¸ ľ
à¸« à¸į
à¸²à¸« à¸¥
Ġad law
Ġà»Ģàº Ĭ
t ang
Ġà»ģ àº¡
à¶¢ à¶±
à¸£à¸° à¸«à¸§
à¹Ģ à¸Ńà¸ģ
à¸ķ à¸Ļ
àºĻàº Ī
am a
à¸ĩ à¹Ħà¸Ķ
à·Ĵ ,
à¸³ à¸£
is y
à¸Ńà¸Ļ à¸Ļ
Ġà¶´ à·Ģà¶Ń
à¶° à¶º
à¸ĩ à¸²à¸¡
à¸ª à¸Ńà¸ļ
o j
Ġ Z
us t
Ġà¶ ©
à¶ļ à¶ļ
à¸ŀ à¸²à¸°
à¹ģ à¸Ķ
Ġà¶½ à¶¯
àº® àºĩ
à¸łà¸²à¸¢ à¹ĥà¸Ļ
à»Ŀ àº²àºį
h on
6666666666666666666666666666666666666666666666666666666666666666 6666666666666666666666666666666666666666666666666666666666666666
Ġà¹Ģà¸Ħ à¸£
à¹ģ à¸Ī
ĠN ag
à¸² à¹Ģà¸£
ĠD unay
Ġ ik
à¸ĩ à¸ļ
à¶Ń à¶ļ
à¸ģ à¸Ħà¸£
q u
y ong
Ġg it
à¶» à¶±
àºĶ à»ĥàº«
a e
Ġlal awigan
à¸²à¸ģ à¸²à¸¨
Ġt an
ĠC oun
Ġl ab
ah on
à¸²à¸ĩ à¸§
à¸« à¸¢
à¹ģ à¸ª
âĤ¬ âĤ¬
Ġka ayo
ug al
il l
un isip
à¸ Ĩ
àº¡ àº²
unisip yo
à¸Ńà¸ģ à¸Īà¸²à¸ģ
e v
Ġà¶ĳ à¶±
Ġà¹Ģà¸ Ĺ
ar a
pes ye
à¸ļ à¸²à¸¢
à·Ģ à¶¯
à¸ª à¸ĸà¸²à¸Ļ
à¸ĩ à¸Ī
à¹ĥ à¸Ķ
Ġà¸ģ à¸£à¸°
àº¼ àº±
à¹Ģà¸Ħ à¸¢
à¹Ģà¸ī à¸ŀà¸²à¸°
Ġsak op
à¸ģ à¸Ļ
à¸ķà¸£ à¸§à¸Ī
à¸Ń à¸ĸ
r i
à¸ļ à¸Ħà¸§à¸²à¸¡
à¸² à¹Ħà¸Ķ
à¸²à¸« à¸Ļ
à¸Ńà¸¢ à¸²à¸ģ
à¸ģà¸£ à¸¡
à¸Ķ à¸¥
à¶º à·Ģ
à¹ģ à¸£à¸ģ
ĠA g
ak ig
à¸Ĥà¸Ńà¸ĩ à¸Ħ
Ġà¸Ľà¸£à¸° à¸ģ
it e
Ġg id
àºĽàº° àºģ
à¸²à¸ĩ à¸Ĺ
Ġà¹Ģà¸ Ī
6666 66
] .
à¹ĥ à¸ģà¸¥
id ad
s idlakan
àºĻàº ļ
àºĩ àºĻ
Ġ a
à¸ļà¸£ à¸£
à¸Ļ à¸¥
Ġà¶´ à¶ļ
Ġnahimutang an
à¹Ģà¸Ĺ à¸ŀ
à¸ĩ à¸«à¸¡à¸Ķ
à¹ģ à¸£à¸¡
ĠĠĠĠ ĠĠĠĠ
Ġma ayo
à¶Ń à¶¸
h ang
3 7
à¶» à·Ħ
Ġb at
or m
Ġ à»ĥàº«
Ġà¹ģ à¸¡
ĠM ar
ĠCoun ty
à¸Ń à¸ŀ
Ġga m
à¶§ à¶±
à¸«à¸¥ à¸§à¸ĩ
Ġ à¸Ł
an o
an t
Ġ- ----
F T
. âĢĿ
ul ong
à¸Ńà¸ĩ à¸ª
à¹Ģà¸ŀ à¸£à¸²à¸°
à·Ģ à¶¸
à¹Ĥ à¸Ńà¸ģ
9 0
Ġà¶Ń à¶Ń
à¸ģ à¸Ĥ
â Ĺ
25 61
Ġp atag
ina agi
à¸ĩ à¸Īà¸°
à¶© à¶ļ
Ġub os
or an
or d
à¸²à¸ ĭ
Ġà¶Ĩ à¶«
à¸ķ à¸§
Ġm ed
àºĻàº ŀ
à»ĥ àºª
Ġà¸Ĺà¸³ à¹ĥà¸«
Ġà¶ħà·Ģ à·ģ
Ġt in
à¸Ľà¸£à¸°à¸ģ à¸Ńà¸ļ
à·Ĳ .
Ġ +
à¸Ķ à¸Ķ
à¸Ń à¸Ĥ
à¸£ à¸§à¸¡
Ġw alay
Ġà¸ŀ à¸£à¸°
Ġak o
ahim ong
à¹ģ à¸Ľ
àºĩ àºģàº²àºĻ
ÎµÎµ ÎµÎµ
à¸¥ à¸¥
ĠÃ ¼
ul ag
àº²àº Ń
à¸ĩ à¸ģà¸¥
) .
3 8
id e
uh i
à¸¡ à¸Ĥ
Ġà¶¯ à¶±
à¸Ļ à¸§à¸Ļ
Ġà»Ģàº ¡
Ġh il
Ġm i
àºĶàºĹ àº°àºĻ
à¸²à¸ķ à¸£
7 7
à¸£ à¸©
Ġà»ģ àºķ
àº§àº½ àºģ
Ġà¶¢à¶± à¶Ń
3 1
à¸ģ à¹Ģà¸£
à¶ Ĵ
à¸²à¸Ļ à¸¡
am p
à¸£à¸²à¸ ļ
à¸ĵ à¸łà¸²à¸ŀ
à¸Ĭ à¸²à¸§
à¸Ļ à¸ĭ
à¸Ľ à¸ģà¸£à¸ĵ
Ġà¸ľ à¸¡
ah abog
ahabog ang
in t
alag sa
àºĩ àº«
en d
à¶ºà¶ļ à¶§
à»Ģàº ļ
à¸ļ à¸Ńà¸ģ
n e
à¸²à¸ĩ à¸Ļ
ic e
à¶ Ķ
6666 6
Ġka p
àºĻàº ¢
à¸Ļ à¸Īà¸°
à¹Ģà¸ŀ à¸¥à¸ĩ
à¸Ń à¹Ģà¸Ľ
à¸§ à¸²à¸ĩ
i f
un d
Ġàºª àº°
à¹Ĥà¸Ńà¸ģ à¸²à¸ª
ist a
àºģ àºŃàºĩ
à¸²à¸Ľ à¸£à¸°
à¸§ à¸Ĺ
à¹ģ à¸£à¸ĩ
à¶¯ à¶½
h t
à¸Ńà¸ĩ à¸Īà¸²à¸ģ
à¶´ à¶º
Ġà¶´ à¶¯
à¶» à·ģ
ad os
à¸Ľà¸£à¸° à¸¡à¸²à¸ĵ
àºģ àº¥
Ġpan ahon
ab ay
à¸¨à¸²à¸ª à¸ķà¸£
Ġkin ad
Ġàº ĸ
4 9
àºĻàº ĤàºŃàºĩ
à¸Ĭ à¸Ńà¸ļ
FT QO
Ġt alagsa
à»ĥàº« àºį
à¸Ļà¸° à¸Ļà¸³
r ad
Ġkasa dpan
ab ot
àºĪ àº³
Ġl a
à»ģ àºļàºļ
ar i
à¸° à¹Ģà¸¥
id os
3 6
à¸Ļ à¸Ľ
à¹ģ à¸Ļà¸§
3 9
à¸¥à¸° à¹Ģà¸Ń
Ġ à¹Ħ
à¶¸ à¶»
am at
Ġp inaagi
à¸Ńà¸ĩ à¸ķ
à¹Ģà¸ Ł
Ġà¶ĳ à·ĥ
à¹Ĥ à¸Ĺ
Ġp in
à¸§ à¹Ħà¸Ľ
p ort
ga mit
à¶ ¨
à¸ģ à¸²à¸¥
à¶´ à¶ļ
ulag way
à·ĥ à¶½
à¸ģà¸²à¸£ à¸ª
à¸Ńà¸ĩ à¸Ķ
à¸²à¸ģ à¸¥
ĠUn idos
àº²àº ķ
à¸ĩà¸ģ à¸¤à¸©
Ġà¸£ à¸²à¸¢
à¸²à¸ģ à¸£
à¸ĩ à¹Ĩ
à¹Ģà¸« à¸Ļ
àºĻ àºŃ
àºĻàº Ľàº°
à¸ĺ à¸²à¸Ļ
Ġ on
à¸ĩ à¸«à¸Ļ
à¸² à¹Ħà¸¡
ĠEst ados
Ġi z
à¸Ķ à¸¡
Ġkan iya
à·ı à¶Ĥ
Ġkin ahanglan
ĠAd unay
à¸¢ à¸²à¸¢
an ov
à¸ĸ à¸²à¸¡
Ġà¶ļà¶» à¶¸
à¸Īà¸³ à¸Ļà¸§à¸Ļ
à¹ģ à¸Ł
7 0
Ġ es
àº°àºŀ àº²àºļ
201 7
Ġsa ma
à»ģ àºĶ
Ġà·Ģ à·ĥà¶»
à¹Ħà¸ĭ à¸ķ
à¸ª à¸²à¸¢
ð Ł
à¸© à¸¢
à·Ģà¶½ à¶§
Ġ à¸ĺ
à¹Ģà¸Ħ à¸¥
à¸ĩ à¸Ħà¸§à¸²à¸¡
Ġà¶¶à·Ģ à¶§
à»įà»Ī âĢĭ
ist r
o ok
à¸Ń à¸Ħà¸§à¸²à¸¡
f f
Ġ à»Ĥ
Ġà·ĥà¶¸ à¶ľ
àºŀ àº²àºļ
à¸ŀ à¸Ļ
àºª àº³
el l
à¸Ń à¹Ħà¸¡
al o
Ġtalagsa on
i z
w w
Ġpag d
à¸Ńà¸Ļ à¸ģ
à¸ŀ à¸Ń
n a
àºļ àºģàº²àºĻàº
à¹Ĥà¸Ħà¸£ à¸ĩà¸ģà¸²à¸£
àºļ àº®
os t
à¹ĥà¸Ļ à¸Ĭ
Ġà¸ª à¸²à¸¡à¸²à¸£à¸ĸ
Ġg ib
à¸ķ à¸¢
à¸Ļ à¹Ħ
Ġà¶´ à·Ħ
àºķ àº²àº¡
Ġk ita
à¸Ĺà¸¢ à¸²à¸¥
àº¡ àº°
ul a
r is
Ġà¶Ĩ à¶¯
à¸ĩ à¹Ĥà¸Ľ
dasdas dasdas
ĉ Ċ
ab ang
ul od
Ġ ingon
ĠJ es
à¸Ĭ à¸£
Ġlab ing
Ġà¶Ĩ à¶»
à¸¥ à¸²
en to
Ġm ahimo
Ġ and
à»ģ àºľ
os to
u ro
à»Ħ àº§
àºª àº²àº¡àº²àºĶ
à¹Ĥ à¸Ħ
à¸¨ à¸£
id to
ut an
as h
Ġà¶Ń à·Ģà¶Ń
àºĶàºĸàº° àº¡
à¸Ĺ à¸²à¸Ļ
à¸ļ à¸Ĥ
à¶» à¶«à¶º
à¸³ à¸¡
à¸Ń à¸«
à¸²à¸ĩà¸ģ à¸²à¸¢
à¸ķ à¸ļà¸Ńà¸¥
à¸Ħ à¸°
à¶´ à¶±
Ġà·Ģ à·ģà¶º
u od
j a
à¸³ à¸¥
Ã ©
ent e
àºĶ àºĤàºŃàºĩ
à¶´ à·ĥ
àº¸ à»ī
as t
Ġà¶º à¶¸
0 8
on t
à·ļ ,
Ġn ah
à¸ģà¸£à¸° à¸Ĺ
à¸ķ à¸ł
Ġà¸ģ à¸£
Ġ )
à·ĳ .
e c
àºĽàº° àºķ
à¸ļ à¹Ħà¸ĭà¸ķ
Ġà¶Ĵ à·Ģ
àº²àº ĤàºŃàºĩ
Ġnag t
à¶° à¶±
Ġà¶ĩ à¶º
Ġdak ong
à¸Ķ à¸Ń
á »
l ine
à¸ªà¸¡ à¸ļ
à¸² à¹ĥà¸Ī
à¸Ńà¸ĩ à¸ŀ
Ġst anov
à¸Ļ à¹Ģà¸Ĺ
à¶» à¶°
à¹Ĥ à¸Ĭ
.-.-.-.-.-.-.-.- .-.-.-.-.-.-.-.-
Ġb utang
à¸² à¹ģà¸¥à¸°
à¸Īà¸° à¹Ħà¸Ķ
Ġstanov n
Ġl am
àº Ŀ
à¸Ķà¸³ à¹Ģà¸Ļ
ar k
Ġ Â
à¸ģ à¸¡
5 8
àº§ àºĶ
ĠAg osto
à¶º à¶¯
àºĬ àº§àºĩ
Ġkan ila
Ġà¶´ à·Ģ
àº²àºĻàº ª
3 2
Ġest ado
à¸§ à¸«à¸Ļ
à¸Īà¸° à¸ķ
à¸« à¸²à¸¢
Ġà¶ļà¶» à¶½
Ġ à·Ĩ
à¶§ à¶»
à¸ģà¸²à¸£ à¸ķ
Ġb ag
ad to
/ /
à¸² à¹ĥà¸Ļ
- .-
à¸§à¸¡ à¸ģ
à¸ĩ à¸Ľ
Ġ à¹Ħà¸Ľ
us to
Ġà¶ĳ à¶½
à¸Īà¸° à¹Ģà¸Ľ
Ġka ban
4 6
idlak ang
Ġ à¸ĵ
à¸«à¸¥ à¸Ķ
Ġà¶Ĩ à¶ļ
à¸Ī à¸ģà¸£à¸£à¸¡
à¸ļ à¸²à¸Ĺ
4 8
un od
Ġà¸« à¸²à¸ģ
à¸³ à¹ģ
à¸ļ à¸Ķ
Ġ à¸£à¸²à¸Ħà¸²
àºĩ àºģàº²àºĻàº
ĠH apit
à¸ģà¸²à¸£ à¸£
à¸ĩ à¹ĥà¸«
Ġd idto
àº²àºĻàº Ĺ
à¸į à¸Ĭ
à¸Ļ à¸ĸ
ug ang
àºļ àºķ
à¸£à¸° à¸¢à¸°
or n
à¸³ à¸ķ
c o
à¸ĩ à¸ĸ
Ġhil ab
Ġà¶ļ à¶«
ĠA r
à·Ķ .
à¸ĩ à¹Ģà¸ģ
Ġ à·ħ
à¸Ľà¸£à¸° à¸Īà¸³
ĠPro v
Ġnag h
Ġd unay
à¸¢ à¸Ńà¸Ķ
à¸¡ à¹Ģà¸ķ
àºĩ àºĤ
à¸Ķ à¹ĥà¸Ļ
ĠC om
àºĹ àº²àºĻ
Ġkaban ay
à¸Ľà¸£à¸° à¹Ĥà¸¢
à¶ ¥
à¹Ģà¸§ à¸Ńà¸£
à¸²à¸Ļ à¸Ĺ
à¸Ľà¸£à¸°à¹Ģà¸Ĺà¸¨ à¹Ħà¸Ĺà¸¢
à¶±à¶º à¶§
à¸ķà¸¥ à¸²à¸Ķ
u e
à¸ ¬
à»ĢàºĤ àºĶ
à¹Ĥ à¸Ĺà¸£
5 00
ĠàºĪ àº°
Ġmao y
âĹ ¼
Ġà¶ľ à¶«
on d
Ġka s
] ,
à¸¡ à¸ª
Ġ '
Ġà¶ľ à¶¸à¶±
à¸ģ à¹Ĩ
à¸¢à¸Ļ à¸£
à¸²à¸£ à¸°
m ent
à» Į
à¸ģà¸²à¸£ à¸Ī
es s
Ġhilab ihan
Ġt o
àºĻ àº²
à¸ķ à¸ª
Ġ à¸ľà¸¥
à¸Ļ à¸²à¸¢
Ġà·Ģ à¶Ń
s yon
àºĽàº°àºĬ àº²àºĬ
Ġga y
à¸Ľ à¹ģà¸ļà¸ļ
àº²àºĻàº ¡
à¶ ¬
à¸Ńà¸¡ à¸ģ
u o
Ġà·Ģ à¶§
à¸ģ à¸Ħà¸Ļ
ul at
à¸£ à¸Ńà¸ļ
à¹Ħà¸Ł à¸Ł
à¸Ļ à¹ĥà¸«
àºĻàºĹ àº²àºĩ
àºĹ àº³
Ġà¶´ à¶±
Ġàº¥ àº²àº§
or g
p l
à¶½ à¶ºà¶ļ
Ġt he
iy embre
i e
à¹Ģà¸«à¸¡ à¸²à¸°
it o
as e
à¸¡ à¸¡
à¸Ļ à¹Ģà¸ķ
à¶½ à¶§
à¶Ń à·Ģ
Ġà¹Ģà¸ ĭ
Ġ à¹ĥà¸Ĭ
Ġà¶Ĩ à¶º
à·ĥ à¶Ń
r y
à¹Ģà¸§ à¸ĵ
Ġà¸Ĥ à¸²à¸¢
Ġà¶ļ à¶©
4 1
b o
Ã Ń
Ġà·ĥ à¶¯
ĠJes us
iv e
à¸Ķ à¸Ħ
à¸²à¸ į
ar e
àºŃàºĩ àºĹ
à¹Ĥ à¸ĭ
à¸ļ à¸Ń
Ġs e
Ġm ahimong
à¸³ à¸ģ
à¸ĩ à¸ŀ
Ġà¶¶ à·Ģà¶Ń
Ġà·ĥ à¶·
àº½ àº¡
Ġt ub
à¸ģ à¸ŀ
in ing
Ġà¶ī à¶½
à¸ĺà¸£à¸£à¸¡ à¸Ĭà¸²à¸ķ
E s
à¸Ń à¹Ģà¸£
à»Ħ àºĤ
à¹Ĥà¸£à¸ĩ à¹ģà¸£à¸¡
àºĽàº° àºª
Ġka ugal
Ġà¹Ĥ à¸£à¸ĩ
Ġik aw
à¸Ń à¸Ĭ
Ġà»ģ àºĤ
à¸« à¸²à¸ģ
Ġà¶ļ à¶¸
-.- âĹ¼
4 7
à¶¯ à·Ħà·ĥ
à¶» à¶ºà¶ļ
à¸ģà¸²à¸£ à¸ĵ
ĠÃ º
à¸Ĥà¸Ńà¸ĩ à¸Ĺ
-- -
p ang
à¸ª à¸ģ
à·Ģ à¶ºà¶ļ
Ġgih ulagway
o c
àºĻàº Ĥ
o h
Ġà·Ħ à¶¯
à¹ĥà¸Ļ à¸Ĺ
à¸ķ à¸ķ
Ġdag han
àºį àº°
Ġgam ay
à¸Ħ à¹Ĥà¸Ļ
à¸§ à¸¥
à·ĥ à¶¸
àº´ âĢĭ
à¸²à¸£ à¸ĵ
à¸Ľà¸£à¸°à¹Ĥà¸¢ à¸Ĭà¸Ļ
Ġà¹Ģà¸ ļ
Ġà¶¯ à·Ģà·ĥ
ĠP h
à¸§à¸¢ à¸ģà¸²à¸£
à¹Ĥà¸¥ à¸¢
ad a
ĠProv in
à¸¥ à¸²à¸¢
Ġà¶Ń à¶»à¶¸
Ġin yong
à·ĥ à¶§
à¸Ħà¹Ĥà¸Ļ à¹Ĥà¸¥à¸¢
ran s
à¸Ħ à¸Ħà¸¥
àºŀ àº²
v e
Ġà·Ģà¶½ à¶§
à¶¢ à¶º
à¸Ķ à¸§à¸ģ
b ayan
en era
Ġà¸Ħ à¸Ļ
Ġs idlakan
Ġkah enera
Ġ is
à¸² à¹Ģà¸Ĥ
Ġ à¸£à¸²à¸Ħ
isy embre
à¹Ģà¸ķ à¸£
à¸§à¸¢ à¸ģ
àº« àºĻ
àº²àºĩ à»Ĩ
Ġà¶ĳ à·Ģ
ik o
E T
àºģàº²àºĻàº Ĺ
Ġà¶ħà¶¯ à·Ħà·ĥ
Ġà»Ģàº Ĥ
à¸ĩ à¹Ģà¸Ĺà¸ŀ
àºŃàºĩ àºģ
àºļ àºĹ
lan d
Ġ od
ĠD isyembre
à¸²à¸Ħ à¸§
à»ģ àºĹ
66666666 66
à¸²à¸ ł
w as
l angk
à¹ģ à¸ģà¸£à¸¡
Ġkom on
er m
à¸Ļ à¹Ģà¸Ńà¸ĩ
à¸² à¹Ģà¸¥
Es pesye
à»Ī âĢĭ
àº« àº¥
à¸ļ à¸²à¸¥
à¸²à¸Ļ à¸ķ
Ġà¶ļ à·Ģ
à¶ ī
Ġp ay
à¸²à¸Ĺ à¸³
à¸¤ à¸Ķ
àºģàº²àºĻàº ŀ
à¸¡ à¸ģ
Ġkon d
à¸Ľà¸£à¸° à¸ķ
à¸¢ à¸²
à¶» à¶½
in ahanglan
Ġhabagat ang
à¸«à¸Ļ à¸Ńà¸Ļ
à¸ģ à¸Ńà¸¢
à¸Ńà¸ļ à¸Ħà¸£
t t
àº§àº¡ àº¡
in s
langk ob
à¸Ńà¸Ļ à¸Ķ
-.-âĹ¼ -.-âĹ¼
Ġk ang
abog on
à¸ģ à¸²
Ġà¶ļà¶» à¶±à·Ģ
em a
Ġ à¸ī
àºĻàºĶ àº²
Ġgih abogon
à¸Ķ à¸Ĥà¸Ńà¸ĩ
ĠA pan
Ġkinad ul
à¸²à¸ĩ à¸Ķ
à¹Ĥ à¸ŀ
ĠS an
Ġà¶ħ à·Ħ
à¸²à¸Ļ à¸¡à¸²
Ġà·Ģ à·Ħà¶±
ar u
il e
à»Ĥàº¥ àºģ
ĠA m
Ġà¹Ģà¸ ķ
Ġn ang
an i
ĠàºĦ àº§àº²àº¡
à¸²à¸Īà¸° à¹Ģà¸Ľ
ĠM a
à¶¸ à¶¯
à¸¥ à¸Ľ
à¶´ à¶ºà¶ļ
à¹Ģà¸ķ à¸°
à¸Ŀ à¸£
à¸ĩ à¸¥
Ġkin ahabogang
à¹Ģà¸ª à¸Ļà¸Ń
à¸Ĥ à¸łà¸²à¸ŀ
à¸ĩ à¹Ģà¸£
Ġà¶Ń à·Ģ
Ġ iya
à¸ĩ à¸ĭ
Ġà¶´à¶¸à¶« à¶ļ
àºĻàº ľ
àº²àºŀ àº°
Ġà¹Ĥ à¸£à¸Ħ
à¸² à¹ĥà¸«
Ġà¹Ģà¸ ¢
à¸Ļ à¸²à¸¡
à¸£à¸° à¸ļ
àºļ àºģàº²àºĻ
Ġlam ang
Ġpa agi
àºģ àºķ
Ġkab ungt
à¸ĩ à¸ľ
à¹Ģà¸¥ à¸Ĥ
à¶± à¶±
à¸Ńà¸Ķ à¸Ĥ
à¸Ļ à¸¡à¸²
Ġkabungt oran
Ġà¶ī à·ĥ
Ġà¹Ĥ à¸Ľà¸£
Ġà¶¶à·Ģ à¶º
Ġà·ĥà¶³ à·Ħà¶±
à»ĥ àºĶ
à¶º à·ĥ
4 2
Ġn ila
u yo
à¸¡à¸²à¸ģ à¸Ĥ
Å ¾
à¸£à¸²à¸° à¸«
Ġmed yo
at a
à¸ķà¸¥ à¸Ńà¸Ķ
à¸ŀ à¸Ĺ
ĠI s
àºĩ àº¡
à¸Ļ à¹Ģà¸ģ
à¹Ģà¸ł à¸Ĺ
à¸ģ à¸¨
à¹Ģà¸Ħ à¸£à¸²à¸°à¸«
à¸¡ à¸²à¸£
à¸Ħà¸§à¸²à¸¡ à¸ª
à¶½ à¶±à¶º
àºŀ àº²àºģ
Ġ à¸ĩà¸²à¸Ļ
à¸¡à¸²à¸ģ à¸¡à¸²à¸¢
Ġà»ģàºĤ àº§àºĩ
Ġstanovn ika
à»ĥ à»Ŀ
à¸Ĥ à¸²à¸§
àºļ àº²àºĻ
im b
l i
à¹ģ à¸ļ
Ġb a
: //
à¸¡ à¸ľ
à¸¡à¸²à¸ģ à¸ģà¸§
Ġà·ĥà¶¸ à¶Ł
5 6
à¸ģ à¸Ń
ak ita
Ġnag s
re d
à¸Ļ à¸²
à¸ĩà¸Ħ à¸¡
Ġà¶Ĭ à¶§
à¹ģ à¸Ļà¸°à¸Ļà¸³
4 3
àºģ àº®
Ġkan inyo
25 60
Ġmah it
Ġc h
Ġàºŀ àº§àºģ
à¸Ļ à¹Ĥ
àºĦ àº³
sub a
à¸³à¹ģ à¸«à¸Ļ
ĠN ew
à¶ļà¶» à¶±
ak o
S a
Ġà¸£ à¸ĸ
à¸ģà¸£à¸° à¸Ķ
à¸²à¸Ń à¸ģ
à¸¥à¸ĩ à¸Ĺ
â ĺ
Ġm al
Ġt r
201 6
àºĶ àºªàº°
à¸§à¸Ļ à¸ķ
Ġnag k
Ġ à¹Ģà¸ģà¸¡à¸ª
àºĤàºŃàºĩ àºĹ
b ot
Ġl ong
à¸ĩ à¸ľà¸¥
ic a
Ġà¶¶à¶½ à¶±
à¸Ľà¸¥ à¸Ńà¸Ķ
Ġ j
ul ti
à·ħ à¶¹
Ġ z
Ġl at
f t
à¹ģà¸Ķ à¸ĩ
à¸Ľà¸£à¸°à¸ģ à¸²à¸¨
àº¡ àºĹ
à¸§ à¸ª
d an
à¹ĥà¸Ļ à¸ª
à¸ĵà¸° à¸Ĺ
om e
à¸Ļ à¹Ģà¸ª
à¹ģà¸ŀ à¸Ĺà¸¢
à»ģàºĶ àºĩ
à¸¸ à¹Ĭ
u y
à¸ªà¸³ à¸Ļ
' (
à¶º à¶ľ
3333333333333333333333333333333333333333333333333333333333333333 3333333333333333333333333333333333333333333333333333333333333333
àºĻ à»ĦàºĶ
? ?
7 5
ĠS h
e y
à»Ģ àºŃàºģ
à¸ĩ à¸ĩà¸²à¸Ļ
à»Ģ à»ľ
à¸ĩ à¸Ħà¸£
àºļ àºľ
à¶¶ à¶»
Ġ= '(
r u
A N
àº° àºª
àºĻ àºģàº²àºĻ
à¸ģ à¸«à¸Ļ
à¹Ħà¸Ľ à¸Ķ
à¸¡ à¸Ĭ
ter n
E R
àºĩ àºķ
àºĶ àºĤ
àº²àºĻ àºĻ
Ġà¶ħà¶´ à¶§
Ġ à¸®
Ġà¶ħ à¶·
p er
à¸Ķ à¸«
ĠâĢ ¢
à¸Ļ à¸«à¸¥
à¸¥ à¸Ńà¸Ķ
Ġ à¸Ľà¸£à¸ª
àº§ à»ľ
à¸Ķ à¸²à¸§
à»Ģàºŀ àº²àº°
à¸²à¸Ħà¸§ à¸²à¸¡
à¸² à¹ĥà¸Ĭ
à¸Ń à¸Ĥà¸²à¸¢
à¸µ ,
à¸ķ à¸ģ
ent ro
à¸Ķ à¸ŀ
à¶½ à·Ģ
Ġp r
Ġsa m
Ġà¸ļ à¸²à¸ĩ
à¸² à¹Ħ
Ġdak bayan
Ġà¶ļ à¶±
àºŀàº§àºģ à»Ģàº®
à¸²à¸£ à¸¢
àºģàº²àºĻàº ķ
ak e
à¸Ľ à¸²à¸ģ
àºĻàº ®
à¸Ńà¸Ķà¸Ĥ à¸Ńà¸Ķ
à¸Ńà¸ĩ à¸Ĥà¸Ńà¸ĩ
at i
àº¹à»Ī âĢĭ
Ġkaugal ingon
àº³ àº¥
Ġà¶ ¡
Ġàº« àº§àº½àºĶàºĻàº²àº¡
à¸¥ à¸²à¸Ķ
à¸§à¸¢ à¸Ħà¸§à¸²à¸¡
Ġà¶Ĩ à¶»à¶ļ
à¹ Ĵ
à»ģ àº®àºĩ
Ġd ep
Ġc om
à¹Ģà¸Ĺ à¸Ħà¹Ĥà¸Ļà¹Ĥà¸¥à¸¢
à¸Ńà¸ĩ à¸Ĥ
à¸Ńà¸Ńà¸ģ à¹ģà¸ļà¸ļ
Ġà¹ģ à¸Ĺ
à¸ĩ à¸ļà¸Ńà¸¥
à»Ħ àºŀ
ul t
à¸§ à¸Ńà¸¢
ĠH un
à¸Ńà¸ĩ à¸§
à¹Ģà¸ģ à¸©
ip ila
ã ģ
àº° àºģ
I N
àºŃàºĻàº «
p s
à¹ģà¸Ľ à¸¥à¸ĩ
à¸³ à¸Ĺ
ac e
Ġkinab uhi
àºģàº²àºĻàº Ħ
Ġà¸Ļ à¸²à¸¢
àºģàº²àºĻàº Ľ
id ae
à»Ħ àºŁ
ĠPag ka
Ġà¶± à·Ģ
àº¡ àºĦ
àº¥àº° àºģ
à¶ļ à·Ģ
à¸ªà¸³ à¹Ģà¸£
Ġà¸ķ à¸²à¸¡
à¹Ħ à¸£à¸ģ
Ġka d
àºĶàºĹàº°àºĻ àº²
ag e
Ġà¸Ľà¸£à¸°à¸ģ à¸²à¸¨
à¶ºà¶± à·Ģ
à¸ģà¸²à¸£ à¹ĥà¸Ĭ
ib o
à¸ķ à¸°
ĠopÅ¡t ine
à¶Ń à¶½
à¸Ķ à¹Ģà¸Ķ
ay ong
àºĶàºĸàº° àºģ
Ġm op
à¶ħ à¶´
i al
ĠG i
5 7
à¸ªà¸° à¸Ķà¸§à¸ģ
Ġà¶ī à·Ħ
à¸ŀ à¸ļ
Ġ >
Ġh in
Ġ x
ah o
à¶ļ à¶ºà¶±
à¸Ļ à¸²à¸Ļ
à¶¶ à¶½
à¸ªà¸Ļ à¹ĥà¸Ī
Ġl aw
ĠN ob
ĠL ac
à¸ļ à¸Ī
à¸ģà¸²à¸£ à¸¨
Ġnal ista
àº° àºĶ
à¸Ļ à¸Īà¸²à¸ģ
à¸¡ à¸£
Ġà¶¸ à¶½
ĠNag langkob
5 9
Ġà¶ľ à¶¸
an te
à¹Ģà¸Ī à¸£
à¹Ģà¸ŀ à¸¥
v er
o u
àº´ à»ī
à¸ªà¸¡ à¸²à¸Ĭ
à·Ļ .
àº°àº« àº§
à¹Ģà¸Ń à¸²
ro p
l ungsod
l es
Ġà¶´ à·Ģà·ĥ
aw han
à¸Ńà¸ģà¸Īà¸²à¸ģ à¸Ļ
à¸¢ à¸į
à¸Ńà¸¡ à¸£
àºĻ à»ĢàºĽ
à¸Īà¸³ à¹Ģà¸Ľ
Ġsi ak
Ġd in
Ġà»Ģàº ®
àºļ àºª
à»Ģàº§ àº¥
Ġt a
xx x
u re
à¶§ à¶´
ing k
Ġà¸«à¸¡ à¸§à¸ģ
l ub
àºģ àºĹ
à¸²à¸¢ à¹Ģà¸Ľ
Ġs entro
à¸²à¸ĩ à¸ķ
à¸² à¹Ģà¸Ķ
ĠàºĪ àº²àºģ
àºļ àºĦ
ay ag
à¸Ħà¸§ à¸ļà¸Ħ
à¹ģà¸¥à¸° à¸ª
Ġà¹ģà¸¥à¸° à¸¡
à¸ģà¸³ à¸«à¸Ļ
Ġp ipila
à¶» à¶ºà¶§
àº° à»ģ
ik al
201 5
àºĩ àºĪ
el o
abay e
à¸° à¸Ĺ
à¸ª à¸¥
3 00
ĠT he
à¸ģ à¸Ĭ
Ġ e
à¸ģà¸£à¸° à¸ļ
à¸ķà¸£ à¸ĩ
à¸Ħ à¸Ńà¸Ļ
Ġ Ð
à¸Ľà¸£à¸°à¸Ĭ à¸²à¸Ĭ
à¸Ńà¸ĩ à¹ĥà¸Ĭ
à¹Ĥà¸¡ à¸ªà¸£
Ġg usto
ĠÃ į
Ġpagp ang
à¸²à¸ĩ à¸£
Ġ Q
Ġb al
à¸Ń à¸Ĥà¸Ńà¸ĩ
Ġ &
à¸Ĺà¸³ à¸ģà¸²à¸£
à¹Ĥ à¸«à¸¥à¸Ķ
ĠB r
Ġà¶ĩ à·ĥ
à¸Ĭ à¸²
à¸Ķ à¸Īà¸²à¸ģ
àºģàºª àº²
à¶ļà¶» à¶«
àº« àºį
à¹Ģà¸ĺ à¸Ń
à¸Ħ à¸ĵà¸°
ĠT ag
à¶» à¶´
à¶¢ à¶´à¶ļ
um ala
à¸¡ à¸Ĭà¸Ļ
à¸Ĺ à¸£à¸ĩ
er b
ĠE s
à¸Ľà¸¥à¸Ńà¸Ķ à¸ł
i es
d pang
Ġà¶ĳà¶ļ à¶Ń
Ġun a
Ġm ap
à¸¡ à¸Ķ
ĠHun yo
ag han
or k
àºĸ àº²àºĻ
àºŃ àºĻàºĹ
6 9
àºŃ àº²
Ġà¹ģ à¸ļà¸ļ
99 99
à¸ģ à¸¢
c ia
Ġmag p
à¸Ńà¸ĩ à¸ļ
àº²àº Ĥ
à¸Ńà¸¡ à¸Ĺ
à¸Īà¸° à¹Ħà¸¡
ĠNob iyembre
à¶ ĩ
à¹ģ à¸«à¸¥
à¶½ à¶°
àº¹à»ī âĢĭ
Ġà¶ī à¶©
à¹ĥà¸Ļ à¸£
à·Ĥ à¶«à¶º
à¸§à¸¢ à¹ĥà¸«
ap on
à¸ģà¸£à¸° à¸Ī
à¸Ĥ à¸§
ĠÄ º
à¹Ĥà¸£à¸ĩ à¹Ģà¸£
à¶¶ à¶¯
Ġ âĢį
Ġ à¹Ģà¸ģà¸¡
Ġà¸Ĥ à¸Ļà¸²à¸Ķ
Ġà¹Ģà¸« à¸¡
à¸§ à¸ķ
à¸¨ à¸Ļ
à¸Ļ à¸Ħà¸§à¸²à¸¡
à¸ģ à¸Ľ
. )
à¹Ģà¸« à¸£
àºģ àºĽ
à¶ ¡
Ġà·ĥ à¶±
Ġà¶»à¶¢ à¶º
à¸³ à¹Ģà¸ł
ĠÅ ĳ
àºĶ à»Ŀàº²àºį
ig ht
àº²àºŀàº° à»ĢàºĪ
à¸¢ à¸Ĺ
âĤ¬âĤ¬ âĤ¬âĤ¬
o ur
à¸ķ à¸Ĺ
à¹Ĥ à¸ļ
à¸ļà¸ģà¸²à¸£ à¸ĵ
à¸¡ à¸Ĭà¸²à¸ķ
7 9
à¹ ĳ
à¸ľà¸¥ à¸ĩà¸²à¸Ļ
à¸ģ à¹Ģà¸ģ
à»Ģàºª àºį
ol d
Ġn at
Ä ĩ
am ento
à¸Ļ à¸Ł
à»Ĥ àºķ
ĠA p
ug o
à¸§ à¸Ħà¸£
à¸Ń à¸²à¸Ķ
à¸Ń à¹Ģà¸¡
àºµ ,
àºĩ àºĬàº²àºĶ
à¸Ħà¸§ à¸¢
à¸Ń à¹Ģà¸Ļ
à¸Ķ à¸ĸ
ro m
u ol
ing ton
Ġu t
ĠB l
g e
Ġà¶º à¶§à¶Ń
à¶¸ à¶½
Ġ ip
Ġà¶ħ à¶ļ
Ġà¶´ à¶½
Ġà¶» à¶±
àºĩ àº¢
à¸ª à¸²à¸¡
à¸ ¿
0 9
ug od
àº° àº§
àº¥àº° àºļ
à¸ļ à¸ªà¸Ļ
8 9
à¸Īà¸³ à¸«à¸Ļ
àºļ àºģ
à¸ģ à¸Ī
à¸Ĭà¸¡ à¸Ľ
Ġp am
Ġh ang
àºĻàº° àºĦ
Ġt ag
à¸ģ à¹Ģà¸ķà¸°
à¸¢ à¸²à¸ģ
à¸ģà¸²à¸£ à¸ŀ
201 0
à¸Ķ à¸«à¸Ļ
i j
à¸ª à¸§
àºļ àºĽ
àºĩ àºļ
Ġà¸Ī à¸³à¸ģ
à¸ģà¸© à¸ĵà¸°
ud lo
à¸Ń à¸²à¸ģà¸²à¸£
à¸²à¸£ à¸²
Ã £
E J
Ġb abaye
àºģ àº²
I n
Ġs ulod
à¸ĩ à¹ĥà¸Ī
ah una
à¹Ģà¸ŀ à¸¨
Ġà¶ļà¶» à¶ľ
ur a
ĠG ino
à¸Ńà¸Ļ à¸£
àº² à»ĢàºĪ
àº¡ àºª
à¸ģ à¸ľ
b er
Ġà¶Ĩ à·Ģ
iga yon
àºĻ à»Ĩ
à¶§ à·Ħ
àº²àºĻàº §
àº§ àº²àºĩ
à¸Ļ à¹ģà¸ļà¸ļ
art amento
Ġà¸Ń à¸²à¸Ī
à·Ĳ à¶Ĥ
Ġà¶Ĵ à¶Ń
à»Ħàº¥ àºįàº°
à¶ļà¶» à¶«à¶º
âĢĭ âĢĭ
à¸ķ à¸ĸ
ĠT h
Ġpag l
à¶¶à¶³ à·Ģ
lan an
ug ma
Ġ ðŁ
à¸Ńà¸¢ à¹Ĩ
ac t
à¸²à¸Ļ à¸Ļ
àºĶ àºĬ
Ġà¸ª à¸£
à¹ģ à¸Ľà¸¥
à¸ķà¸£à¸§à¸Ī à¸ªà¸Ńà¸ļ
à¸Ļ à¸Ńà¸Ńà¸ģ
àº¡ àº²àºĻ
Ġ----- ---
à¹ĥà¸Ļ à¸Ľ
à¹Ħ à¸Ń
Ġb ul
ĠA b
it al
à¸Ħà¸£ à¸Ńà¸ļà¸Ħà¸£
Ġm ad
ris to
à¸ĩà¹ģ à¸£à¸ģ
Ġad tong
Ġm ot
k o
Ġm od
ard ia
ay a
à¸Ķ à¹ĥà¸«
à¸¥ à¸ļ
ak a
àºªàº° à»ľ
ga ran
Ã ĸ
Ġn ing
uk id
à¶ľ à¶ºà¶ļ
aw at
à¸Ńà¸ª à¸£
Ġh al
à¹Ĥà¸Ľà¸£ à¹ģà¸ģà¸£à¸¡
à¹Ĥ à¸Ķà¸Ļ
à¸Ħà¸£ à¸ļ
ang an
Ġà¶ĳ à¶¯
à¶ļ à¶Ń
e ar
à¸ªà¸Ļ à¸²à¸¡
Ġg is
à¹ ķ
à¸ķ à¸Ńà¸ļ
àºĩ àº§
àº²àº ¢
à¸²à¸ĩ à¸ª
Ġàºª àº°àº«
à¹ģ à¸ĸ
à·Ħ à¶§
âĺ Ģ
Ġà¸Ń à¸Ńà¸ģ
Ġkan imo
à¸ĩ à¹ģà¸¥à¸°
h ar
à»ĥ àºķ
ide o
à¶° à¶Ń
Ġkond ado
Ġpro d
Ġà¹Ģà¸ ĺ
à¸Ļ à¹ģà¸¥
à¸ģà¸²à¸£ à¸Ħ
à¸Ļ à¹Ģà¸¡
à¸Ńà¸ĩ à¸ĸ
Ġb uhat
Ġà¶± à¶ľ
à¹ĥà¸Ļ à¸ķ
âĺĢ âĺĢ
à¶º à·Ģà¶»
à¸²à¸ļ à¸²à¸¥
ĠS p
M unisipyo
un ahuna
àº« àº§àº½àºĶàºĻàº²àº¡
à¹Ħ à¸«à¸¥
Ġkam i
5 1
à¸²à¸Ļ à¸ģ
à¸Ń à¹Ħà¸Ķ
sa ng
à¶« à¶ºà¶ļ
à¶ļ à¶¯
àº§ àºŀ
er y
à¹Ģà¸¢ à¸Ńà¸°
à¶´ à¶¯
g r
à¸¥à¸° à¸Ħà¸£
à¸° à¹Ģà¸ļ
à»Ħ àº¡
àº²àº Ľàº°
Ġà¹ģ à¸«
à¸Ī à¸²à¸£à¸ĵ
Ġf or
ad tong
o ut
à¸¥ à¸¢
il ip
Ġd uha
Ġt ib
L ungsod
à·Ķ à¶Ĥ
am o
ib alo
Ġan ak
Ã ¡
Ġpagh imo
à¸Ń à¸²à¸¢
à¹ĥà¸Ļ à¸§
à¸Ķ à¸ķà¸²à¸¡
à·Ķ ,
à¹ģà¸ķ à¸ģà¸ķ
à¸Ľ à¸Ķ
à¸¡ à¸§
Ġà»Ģàº ¥
asa ng
à¸Ļà¸Ĺ à¸³
à¸Ļ à¹Ģà¸Ĭ
Ġà·Ħ à¶³
à¸ģ à¸Ĥà¸Ńà¸ĩ
àºĩ à»ĦàºĶ
àº²àºĩ àºģ
à¶´ à¶»
àºģàº²àºĻàº Ľàº°
0 2
àºĶ àºĪ
à¸Ļ à¸Ħà¸Ļ
à¸¥ à¸³
ic k
Ġmahit ungod
à¶ Ĩ
is yon
à¶ Ŀ
sa l
Ġàºª àºĽ
an s
à¸¡à¸²à¸ģ à¸Ĺ
v a
Ġin d
àºĶ àºŀ
ac h
à¸Ļà¸Ń à¸Ńà¸Ļà¹Ħà¸¥à¸Ļ
à¸ļ à¸Ľ
uk od
à¸´ à¹Ĭ
à¶½ à·ĥ
àºģ àºį
àºļ àºŀ
4 00
Ġm ang
àºĦ àº°àºĻàº°
re e
Ġd r
àºģàº²àºĻàº ®
à¹Ģà¸Ľ à¸Ńà¸£
Ġon line
l in
à¶° à¶±à¶º
à¶¯ à¶ļ
à¸²à¸ĩ à¹Ħà¸£
Ġd a
àºģ àºĻ
à¶§ à¶½
apit al
b ahin
à¸Ń à¸³à¸Ļ
ÎµÎµÎµÎµ ÎµÎµÎµÎµ
Ġà¹Ĥà¸Ķà¸¢ à¸¡
à¸²à¸ĩ à¸¡
Ġtan ang
à»Ĥ àºĻ
; ;
Ġà¶» à·ĥ
ĠA s
à¸²à¸Ļ à¸Ħ
à¸Ĭà¸Ļ à¸°
à¸§ à¸§
à¸²à¸ŀ à¸£
ic h
m o
à¸ļ à¸«à¸Ļ
u ok
à¶º à·Ģà·ĥ
l ay
um p
0 1
à»ģ àºĽ
à¸¢ à¸²à¸Ļ
àºĶ àº§àº½àºģ
5 4
Ġà¶ĳ à¶Ń
Ġam ong
à¸Ł à¸Ńà¸£
à¸ĩ à¹Ģà¸Ķ
Ġà¸Ń à¸²à¸«à¸²à¸£
Ġt h
0 7
à¸Ľà¸£à¸°à¸ª à¸ļà¸ģà¸²à¸£à¸ĵ
ĠW ash
66666666666666666666666666666666666666666666666666666666666666666666666666666666666666666666666666666666666666666666666666666666 66666666666666666666666666666666666666666666666666666666666666666666666666666666666666666666666666666666666666666666666666666666
à¹Ħ à¸ķà¸¥
o od
à¸²à¸ķà¸£ à¸Ĳà¸²à¸Ļ
à¶ł à¶±
à¸ģà¸£à¸£à¸¡ à¸ģà¸²à¸£
à¹Ĥà¸Ĺ à¸©
Ä ģ
à¸Ńà¸Ļ à¸Ĥ
à¸ªà¸ĸà¸²à¸Ļ à¸Ĺ
à¹Ģà¸ģà¸© à¸ķà¸£
à¸£à¸²à¸¢ à¸¥à¸°à¹Ģà¸Ń
à¸« à¸²à¸§
Ġ res
à¸Ńà¸ĩ à¸Ī
5 2
à¸Ń à¸²à¸£
ih ang
à¸Ļ à¸ļà¸Ńà¸¥
à¸²à¸ģ à¸«à¸¥à¸²à¸¢
B ET
Ġà¸Ĺ à¸²à¸ĩ
àº² à»ĦàºĶ
âĢ ĺ
à¸Ľ à¸ģà¸ķ
àºĻàº ĸ
u an
Ġnas ud
à»Ģ àºŃàºĩ
Ġg od
Ġim o
Ġni ining
Ġà¶Ĩ à¶»à¶¸
à¸£à¸© à¸Ĳ
ĠGino o
à¶§ à¶º
Ġà¶ĳ à¶»
à¸Ńà¸¡ à¸ŀ
ab il
n o
à¸Ń à¸Ł
Ġà¸ª à¸²à¸§
à»Ĥ àºĹ
à¶½ à¶¸
Ġka um
à»ī .
Ġà¸Ļ à¸²à¸Ĺ
à¸¥ à¸Ńà¸ĩ
66 6
z i
à¸¸ à¹Į
Ġdi in
O N
Ġkaum ahan
à»Ģàº ľ
à¸° à¸Ļ
Ġk alib
à¸Ńà¸Ńà¸ģ à¸¡à¸²
àºĶ àºļ
à¸ģà¸²à¸£ à¹Ģà¸¥
ĠT r
à·Ħ à¶¸
à¸ŀà¸£à¸° à¸£à¸²à¸Ĭ
à¸ģ à¹ģà¸¥à¸°
à¸Ļà¸ª à¸¡
Ġà¶½à¶¶ à¶±
p h
à¹Ģà¸ĭ à¸Ńà¸£
Ġprod uk
àº¼ àºµ
a i
as ino
à¹Ģà¸ŀ à¸Ĭà¸£
à¸Ļ à¹Ģà¸Ĥ
àºĻàº Ľ
à¸Ķ à¸ļ
à¸¢ à¸²à¸§
à¹Ģà¸ļ à¸Ńà¸£
àºĩ àºĤàºŃàºĩ
àºļ à»ĦàºĬ
Ġb ay
Ġpag gamit
à¶¯ à¶ľà¶Ń
à¸¡ à¸Ħ
à¸²à¸Ħ à¸£
Ġkasa garan
aw ag
Ġ à¸ł
à¸ĩ à¹Ħà¸Ľ
ĠÅ ±
àºĩ àºĪàº²àºģ
à¸£ à¸ª
Ð °
an on
à¸¢ à¸ª
Ġt ig
ĠWash ington
is h
5 3
àºĹ àº°àºį
à¹Ħ à¸«à¸¡
à¸Ļ à¸¨
àº² à»ĢàºĽ
Ġà¶ĭ à·ĥ
Ġn ad
à¸ļ à¸Ľà¸£
ub l
Ġtub ig
àºģàº²àºĻàº Ī
à¸Ļ à¸ĩà¸²à¸Ļ
à¶» à¶¢
Ġà¶ħ à¶ľ
à¹ Ĳ
à¶Ńà¶» à¶º
t ag
ĠGi ardia
à¸Ļ à¹Ģà¸Ļ
àºŀ àº²àºį
à¸ģ à¹Ģà¸ª
Ġà·Ģ à·ĥ
à¶§ à·ĥ
or y
à¸ªà¸° à¸Ńà¸²à¸Ķ
à¸Ľà¸£à¸° à¹Ģà¸łà¸Ĺ
à¸Ńà¸ĩ à¸«
à·ģ à¶±
à¶¸ à¶¸
à¸ªà¸§à¸¢ à¸ĩà¸²à¸¡
à¸§ à¹Ĥà¸¡
0 6
à¹Ģà¸ģ à¸¥
à¸§ à¸Ĥ
à¸ĩ à¹Ģà¸ªà¸£
Ġk ung
ĠC ity
à¸Ń à¸²à¸ģà¸²à¸¨
ow n
t ay
àº²àºĩ àºĽàº°à»ĢàºĹàºĶ
Ġ ana
A R
Ġà¶Ķà¶¶ à¶§
à¸¢à¸§ à¸Ĥ
à»ĢàºĬ àºį
àºĬ àº²àºĬ
à¹ į
Ġn inyo
à¸² à¹Ģà¸ª
à¸Ĥà¸Ńà¸ĩ à¸ľ
Ġkat awhan
h in
àºª àº²àºĻ
8 7
à¸²à¸ĩ à¸«à¸Ļ
Ġàº® àºŃàºĩ
Ġà¶¶ à·Ħ
Ġà·ĥà¶¸ à·Ħà¶»
Ġgay od
Ġà¶ĩ à·Ģ
à¸Ļ à¹Ģà¸Ī
ĠP r
à»Ģàºª àºĶàºĸàº°àºģ
al ik
Ġ à¸łà¸²à¸ŀ
Ġdin hi
in at
à¸Ķ à¹Ģà¸«
à¸¥ à¸Ĺ
Ġà¶ħà·Ģ à·ĥà¶±
à¸Ķ à¸Ħà¸§à¸²à¸¡
à¸²à¸¢ à¹Ĩ
à»ģ àºĻ
à¸Ńà¸Ļ à¸ķ
à¸²à¸ĩ à¸Ħ
àº¡ àºķ
Ġà¶´ à¶§à¶±
à¸Ńà¸ļ à¸Ķ
is yo
à¸§à¸Ļ à¹ĥà¸«à¸į
à¸İ à¸«à¸¡à¸²à¸¢
istr ito
à¸²à¹ģ à¸Ł
ĠJ ud
ĠP o
Ġ à¸Ľà¸£
àº¥àº° àºĶ
Ġkalib utan
àº° àºĹ
àºģàºŃàºĩ àºĽàº°àºĬ
à¸§ à¹Ģà¸ķà¸Ńà¸£
Ġà¹Ĥà¸£à¸Ħ à¸ªà¸°à¹Ģà¸ģ
à¸¡ à¸¢
àºĶàºĸàº° àºļàº²àºĻ
g ol
Ġ ng
Ġb alay
hon e
à¸²à¸ĩ à¸Ľà¸£à¸°à¹Ģà¸Ĺà¸¨
0 4
Ġpagk a
ĠK on
ov a
ab aho
à»ģ àºĻàº§
Ġà¶ĳà¶ļ à¶§
à¸¢ à¸²à¸¡
à¸ģ à¸ļ
àºĩ à»ĢàºĽ
ĠP rans
àºģ àºĩàº²àºĻ
19 9
àº² à»ľ
à»Ģàº§ àº¥àº²
à»į âĢĭ
à¸²à¸Ļ à¸ģà¸²à¸£
à¸¡ à¸²à¸Īà¸²à¸ģ
à¸³ à¸Ħ
e e
ĠX Ã£
y un
Ġmi ingon
àº²àºª àº°
à¸Ķ à¹Ģà¸Ī
Ġ à¸£à¸°à¸ļà¸ļ
u c
à¸²à¸ Ŀ
Ġb ar
al an
Ġ----- -
à¶« à¶Ń
à¹ģà¸Ĺ à¸Ļ
res s
Ġg il
à¶½ à¶Ń
Ġtib uok
33 3
l y
à¸ģà¸© à¸ĵ
ir an
Ġà¶ľ à¶½
Ġà¶ĩ à¶¸
à¹Ħ à¸Ļà¹Ģà¸ķ
àº¡ àºĤ
ĠProvin cia
à¶© à¶±
à¶« à¶ļ
à¸Ķ à¹Ģà¸¥
à¸ŀà¸¢ à¸²à¸ļà¸²à¸¥
à¸Ń à¹Ģà¸ª
eb r
à¹Ħà¸Ľ à¸Ĺ
à¸Ńà¸ĩ à¸Ĭ
âĢ ĵ
as s
à¸² à¹Ģà¸ŀ
à¹Ģà¸ľ à¸¢
à¹Ģà¸Ĥ à¸ķ
à¹Ģà¸¨ à¸£à¸©à¸Ĳ
Ġana a
à¸§à¸Ķ à¹Ģà¸£
à¸Ħ à¸Ķ
à¸Ļ à¸ģà¸¥
Ġà¶ļà¶» à¶º
à¸Ńà¸ĩ à¸Ń
Ġà»Ģàº Ī
à¶Ń à¶Ń
sa k
à¸²à¸¢ à¸ģ
à¸Ń à¸Ī
à¸ļ à¸Ĭ
àº® àº½
à¸²à¸Ļ à¸ª
dasdasdasdas dasdasdasdas
à¸§à¸¢ à¸ķ
à¸Ń à¹Ģà¸¥
Ġ ig
ad ayon
à¸Ķ à¸Ĭ
Ġkon t
àºģàº° àºĬàº§àºĩ
à¶ľ à¶½à¶º
ĠS k
à¸²à¸¡ à¸²à¸ģ
à¸²à¸ Ł
Ġdep artamento
O R
à·Ģà¶» à¶«à¶º
j u
Ġà¶´à·ħ à¶¸
à¹ģà¸ļà¸ļ à¸Ļ
à¸¡ à¸Ħà¸§à¸²à¸¡
Ġb ala
Ġkan ako
àºģàº²àºĻàº ¥
Ġà¹ģ à¸ģ
à¸Ń à¹Ģà¸ŀ
à¹Ģà¸ģ à¸²à¸°
à¸Ĺà¸£ à¸§à¸ĩ
à¸Ķ à¸Ī
àºĶ àºŃ
ĠC ar
il and
àº² àºģàº²àºĻ
àº¡ àºļ
akig bahin
à¸ĩ à¸Ħà¸¥
à»ĥ àºĻàºĹ
àº£ àº°
àºŃàºģ àº²àºĶ
Ġut lanan
à¸²à¸ĩ à¸¢
à¸¡ à¸ĵ
à¹Ĥ à¸Ł
à¸ģ à¹ĥà¸Ļ
à¸³à¸Ļ à¸§à¸Ļ
on e
à¸¢à¸Ļ à¹ģà¸Ľà¸¥à¸ĩ
à¸ĩ à¹Ħ
à¸Ńà¸ĩ à¸«à¸Ļ
Ġsa l
Ġà¸£à¸§à¸¡ à¸ĸ
Ġ or
on s
àº²àºį àºĹ
Ġh tt
à¸Ľ à¸Ńà¸£
àº² à»ĥàºĬ
à¸Ļ à¸ķà¸£
à¸§ à¸Ħ
àºŃàºĩ àºģàº²àºĻ
Ġdag hang
à¸ª à¹Ģà¸ķà¸Ńà¸£
Ġmak ap
à¹Ģà¸ª à¸¡à¸Ń
à¸²à¸¢ à¸ķ
à»Ħ àº«àº§
à¶¸ à·ĥ
i re
Ġà¶ī à·Ģà¶Ń
àº²àºĻàº Ľàº°
à¸įà¸į à¸²
p e
à¸¡ à¸°
a z
p ir
m an
àºŃàºĩ àºĽàº°àºĬ
à¶´ à¶±à¶º
à¸Ĥà¸Ńà¸ĩ à¸ª
sa n
à¸Ńà¸ª à¸²à¸£
àºĻàºį àº²
à¸ĸà¸²à¸Ļ à¸Ĺ
à¸Ńà¸ļ à¸Ħ
_ _
Ġ ro
Ġà¶ľà¶« à¶±
à·Ģà¶ļ à¶§
àºµà»ī ,
i nga
ĠM an
---- ----
ĠPrans iya
à¸² à¹Ģà¸ģ
à·Ļ à·Ĭ
d o
al og
àºĩ àºĬ
Ġs idlakang
àºª àº²
201 1
à¸ªà¸£ à¸£
ĠB usa
Ġn imo
ĠL e
à¸Ľà¸Ķ à¸²à¸«
ug ot
ĠR e
Ġkin sa
à¸ŀà¸¥ à¸²à¸Ķ
à»Ĥ àºŃ
ab i
Ġn an
à¸«à¸¥ à¸²à¸ģà¸«à¸¥à¸²à¸¢
à¸²à¸Ļ à¸¥
àºĶ àº¥
à¸Ńà¸ļ à¸£
à¸³à¸£ à¸§à¸Ī
Ġà¸Ļ à¸Ńà¸ģà¸Īà¸²à¸ģà¸Ļ
à¸£à¸ĸ à¸¢à¸Ļà¸ķ
ĠÅ ¾
àº¡ àº²àºĬ
i er
Ġà¶ĳ à¶´
à¸Ħ à¸Ļà¸Ĺ
G QO
ig n
H apit
à¹Ģà¸ ®
à¸§à¸¢ à¹Ģà¸«à¸¥
à¸Ļ à¸²à¸Ĺ
à¸į à¸²à¸ķ
d e
àºŃ àº²àºĶ
Ġ à¸Ŀ
at h
à¸Ļ à¸ľà¸¥
il ing
à¹Ħ à¸«à¸§
àºļ àºĽàº°
0 5
eb ook
ĠUn a
Æ °
en i
Ġà¶ĭ à¶©
à¶Ńà¶» à¶¸
à¹Ī ,
Ġà¶ħà·Ģ à¶°
ĠB e
à¸ģà¸²à¸£ à¸Ļ
à¸ĩà¹ģ à¸£à¸ĩ
à¸Ľ à¹Ĥà¸Ľ
à¸ģ à¹Ģà¸¥
à¸ĩ à¸Ĭà¸²à¸ķ
à¸Ķà¸ª à¸Ńà¸ļ
à¸Ĵà¸Ļ à¸²
à¸¡ à¸Ľ
A T
à¶ļ à¶±
ang ay
6 5
à¶ļ à·ħ
à¸§ à¸Ń
Ã ³
ation al
à·Ĥ à¶ļ
ĠD e
à¸ª à¸ļà¸²à¸¢
à¸Ĥà¸Ńà¸ĩ à¹Ģà¸£à¸²
Ġsub aru
9 00
à¶ļ à¶ł
Ġà¶ĳ à·ħ
ak i
à¸ĩ à¸¨
à¶ł à¶»
à»Ĥ àºį
àºĶ àºľ
àºģ àºªàº°
à¸Ķ à¹Ĩ
Ġà¶ī à¶³
ct ion
àºĻ à»ĦàºĽ
l ag
Ġ ra
u on
à¸įà¸į à¸²à¸ĵ
àº²àºĻ àºģ
à¸²à¸ª à¸ķ
ĠàºªàºĽ àºĽ
usa n
àº¢ àº²àº¡
Ġm is
àº²àº Ľ
à¸ļ à¸ŀ
à¸²à¸ĩ à¸Ĥ
Ġw eb
ar y
àºį àº²àºį
Ġl asang
Ġkan ato
à¸° à¸Ħà¸£
ĠE x
à¸²à¸ª à¸ķà¸£
aw a
ĠIn d
à¹ģà¸¥à¸° à¸¡
à¸²à¸Ļ à¸ŀ
B O
à¸ļ à¸ĭ
Ġmak a
Ġla in
àºģ àºģ
ĠG o
àºĻ à»ĥàºĻàº
à¸²à¸§ à¸§
ĠS er
ub o
à»Ĥ àºŃàºģàº²àºĶ
Ġà¶´ à·Ħà·ĥ
il ya
à¹Ģà¸«à¸¡à¸²à¸° à¸ªà¸¡
à¶Ń à¶§
à¸Ħà¸§à¸²à¸¡ à¸Ħ
Ġg r
à·ı ..
asa n
Ġgod ine
Ġp ulong
uw as
à¸²à¸ĩ à¹Ģà¸Ľ
Ġà¶ħ à¶ľà¶¸
Ġàºģ àº°
à¹Ĥà¸¡ à¸Ĭ
à¸²à¸ª à¸Ļà¹ĥà¸Ī
Ġh ig
Ġà¶¸ à¶°
à¸Ńà¸ģ à¹Ħà¸¡
Ġtin uod
to o
Ġà¶¸à¶Ń à¶ļ
à¹Į -
Ġà¸Ľà¸£à¸° à¹Ģà¸Ĺà¸¨
à¹Ģà¸Ī à¸Ńà¸£
àº²àºĻàº¡ àº²
Ġà¶ļà¶» à¶ľà¶±
à¶ ĭ
à»Ģàºª àºĶ
it an
Ð ¾
àºģ àºĬ
á º
Ġam ihang
à¸ĩà¸²à¸Ļ à¸Ĺ
s h
Ġdak o
Ġni adtong
à¸ľ à¸ªà¸¡
à¸Ĺà¸²à¸ĩ à¸ģà¸²à¸£
à¸ķà¸ª à¸²à¸«
Ġ à¸ķà¸£
ĠC ol
y l
à¶ļ à·ĥ
à¸ķ à¹ĥà¸Ļ
à¹ģ à¸Ļà¸Ļ
à¸¢ à¸ģà¸§
à¸Ķ à¹Ģà¸Ĭ
11 11
Ġà¶īà·Ħ à·ħ
àºķ àº°
à¶± à¶¯
à¸Ńà¸¡ à¸Ķ
à¸Ń à¹Ģà¸Ķ
Ġd el
Ġ ek
ub a
à»ĥàºĻ àºģàº²àºĻ
Ġm unisipyo
à¸Ĥà¸Ńà¸ĩ à¸ģà¸²à¸£
ungt od
à¸£à¸° à¹Ģà¸ļ
à¸Ľà¸¥ à¸²à¸¢
à¸ĩ à¹Ģà¸¥
à¸Ķ à¸²
8 1
àºª àºŃàºĩ
ĠMar so
Ġp os
Ġn eg
d er
ore al
ol og
s idlakang
à¸ģ à¸ĸ
à¸§ à¹Ģà¸£
à¸Ńà¸Ńà¸ģ à¹Ħà¸Ľ
à·Ģ à¶ľ
201 4
ha i
à¸ª à¸ĸ
Ġà¶° à¶»
ĠÅ¾ iv
àºŀ àº½àºĩ
à¸ĵ à¸ªà¸²à¸¡à¸²à¸£à¸ĸ
Ġà¶¶ à·ĥ
Ġà¶¡ à¶±
ĠAn d
ebr ero
8 5
à¸£ à¸¢
ĠG ik
à¹Ĥà¸Ĺà¸£ à¸¨
Ġes pesye
l ens
à¸Ńà¸Ļ à¸§
Ġà¹Ģà¸§ à¸¥à¸²
Ġmak at
àº²àºĻàº Ī
C G
àºĻ à»ģàº¡
ĠU S
à¹Ģà¸¡ à¸ķà¸£
Ð µ
Ġs iy
ut ana
à¸²à¸¢ à¸²à¸¡
Ġà¶ĩ à¶¸à¶Ń
à¶ºà¶ļ à¶º
àºĻàºª àº°
à¸Ļ à¹Ģà¸ģà¸¡
à¸Ľà¸£à¸° à¸§
Ġp h
à¸²à¸ĩ à¹Ħà¸£à¸ģ
amb o
àº²àº ľ
à¸§ à¹ĥà¸Ī
àº« àº²
à¸Īà¸° à¸£
ĠO p
à¸ļ à¹Ħà¸Ľ
ĠàºĦ àº°àºĻàº°
à¶¢ à¶±à¶º
à¹Ĥ à¸ł
Ġà·ģ à¶ļ
Ġà·ĥ à¶»
à¸Ļ à¸¡à¸²à¸ģ
à¸²à¸ ¬
Ġà¸ŀ à¸¥
à¹Ģà¸Ńà¸ģ à¸ªà¸²à¸£
Ġà¶Ńà¶» à¶ľ
Ġkom yun
à¸² à¹Ģà¸Ĭ
Ġà·Ħà¶» à·Ħ
em p
Ġà¶¸ à¶«
àºļ àº²àºį
6 00
l r
Ġ ila
ĠB ar
à»ĤàºĦ àºĩàºģàº²àºĻ
Ġp at
w an
à¸ª à¸§à¸Ļ
àºĩ àºĶ
os s
à¸ŀà¸£à¸° à¸ŀ
8 4
àºĶ àºģàº²àºĻ
Ġà·ĥà¶¯ à·Ħ
àº°àº« àºįàº²àºį
og le
à¸£à¸²à¸ ĵ
ĠP ebrero
un o
Ġà¶¸ à¶»
à¸Ńà¸ģ à¸§
Ġ à»Ģàºģ
à¹Ĥ à¸Ī
0 3
out h
àºĽàº°àºģ àºŃàºļ
à¸Ħà¸§à¸²à¸¡ à¹Ģà¸Ľ
it h
à¶³ à·Ģ
Ġm ob
l at
à»ģ àºĪ
ul og
à¸² à¹ģà¸¥
à¸ļà¸£ à¸ĸ
Ġkat ap
8 6
à·Ģ à¶ºà¶§
i ew
à¸Ļ à¹Ģà¸ķà¸Ńà¸£
à¸Ĺ à¸Ńà¸ĩ
Ġp ar
Ġb u
g o
Ġh uman
iv er
à¸Īà¸²à¸ģ à¸ģà¸²à¸£
r al
à¸² à¹Ģà¸«à¸ķ
Ġà»Ģàº §
Æ° á»
ih ok
à·Ħ à¶Ń
Ġà¹ģ à¸ĸ
à¸Īà¸° à¸Ĺà¸³à¹ĥà¸«
à¸ĩà¸ª à¸£
à»Ĥ àº®àºĩ
201 2
à¸«à¸¥ à¸Ńà¸Ķ
àº« àº¡
à¸Ĥ à¸Ń
Ġkan unay
à¸Ķ à¹Ģà¸Ľ
à¸²à¸¢ à¸ª
Ġga was
à¸ªà¸¡ à¹Ģà¸Ķ
ud ad
à¸Ńà¸ĩ à¹Ģà¸¥
à¸£à¸²à¸Ħ à¸²à¸ĸ
er al
ĠK in
Ġu p
Ġà¶¶ à¶½à¶º
à¹ģà¸ªà¸Ķ à¸ĩ
àº½àº¡ àº¢àº²àº¡
Ġm it
à¸Ļ à¹Ģà¸Ħà¸£
à¹Ģà¸¡ à¸¥
et a
Ġ à¹Ħà¸Ĺà¸¢
Ġà¶¶ à¶§à·Ħ
Ġpro b
àº²àºĩ àºķ
Ġ ex
Ġb ug
ind ow
ep t
àº²àº§ àº§
Ġà¹Ĥà¸Ķà¸¢ à¹Ģà¸īà¸ŀà¸²à¸°
à¸ķà¸ªà¸²à¸« à¸ģà¸£à¸£à¸¡
à¸¢ à¸ļà¸£
à¸Ľà¸£à¸°à¸ª à¸ĩà¸Ħ
Ġpagp akig
ĠA ir
Ġà¶»à¶§ à·Ģà¶½
y aw
à¸£ à¸²à¸¡
à¶¯ à¶±à¶º
le b
à¸²à¸ģ à¸ı
à¸§ à¹Ģà¸¥
à¹Ħà¸¥ à¸Ħ
la ing
à¸ĸ à¸Ļà¸Ļ
har ian
à¸Ńà¸Ļ à¸«à¸Ļ
à¸Ĺ à¸£à¸²à¸ļ
pan ya
Ġmop akigbahin
à¶« à¶±
à¸²à¸¨ à¸²à¸ªà¸ķà¸£
à¸²à¸Ļ à¸Ńà¸²à¸«à¸²à¸£
Ġàº« àº¥
Ġà¶¶ à¶¯
Ġi P
ĠE d
à¶½ à¶¯
Ġà¶Ń à¶¶
ĠK ay
or s
uk iran
à¸ķà¸Ļ à¹Ģà¸Ńà¸ĩ
à¸²à¸Ļ à¹Ħà¸Ķ
à¸¢ à¸Ĭ
àºµà»ī .
à¸± à¹Ĭ
à¸Ń à¸«à¸Ļ
à¸Ĥà¸Ńà¸ĩ à¸ķ
E N
àºĻ à»ĥàºĪ
à¸ŀà¸§à¸ģ à¹Ģà¸Ĥ
ĠC o
àºŃ àº°àºĻ
ar on
à¹Ĥ à¸®
Ġà¸Ī à¸³à¸Ļà¸§à¸Ļ
à·ı ...
Ġta as
n oj
à¸Ħà¸§à¸²à¸¡ à¸ķ
ĠG r
àº² à»ĥàºĪ
Ġà¸ģ à¸§
Ġà¸Ļ à¸³
à¸ŀà¸¢ à¸²à¸¢à¸²à¸¡
Ġd ugang
Ġà¶ħ à¶»à¶¸
à¶¸ à·ħ
Ġch at
à¸ĩ à¹Ģà¸Ĥ
Ġà·ĥ à¶§
um b
à¸Ń à¹ģà¸¡
= =
.. ...
àºµ .
à¸° à¸¥
à¸¥ à¸¡
àºĻàºģ àº²àºĩ
Ġà¶Ń à¶±
à¹Ĥà¸Ĭ à¸§
à¸ģà¸²à¸£ à¸Ķ
âĢ Ķ
Ġt ing
Ġm os
à¸Ī à¸ŀà¸£à¸°
à¸²à¸« à¸£
à¸¡à¸« à¸²à¸§
ĠS am
t ub
à¸Ńà¸ĩ à¸ľ
à¸ĵ à¸ªà¸¡à¸ļ
à¸Ļ à¹ĥà¸«à¸¡
àºĩ àº¥
à¸² à¹Ģà¸¡
àº³ àºĻàº§
àº« àº¥àº²àºį
Ġà¸ģà¸²à¸£ à¸£
Ġà¶¶ à¶»
àº³ àºĻ
w at
Ġà¸Ľà¸£à¸°à¸ģà¸²à¸¨ à¸ĭ
à¸Ńà¸Ļ à¸ª
y ag
Ġà¶º à¶±à·Ģ
àº²àºĪ àº°
re ma
Ġ à¸¿
201 3
Ġà¶ĳà¶ļ à¶¸
Ġ â
Ġà¸ŀ à¸§à¸ģ
à¹ģ à¸¢à¸ģ
à¸ł à¸²à¸§
Ġh em
8 2
à¸Ļ à¹Ģà¸¥à¸¢
A S
à·ħ à¶ļ
àº® àº½àºĻ
ĠI t
à¸§ à¸Ļà¸Ĺ
Ġà¶ī à¶ļ
à¸Ķ à¸§à¸ĩ
à¸Ĳ à¸ļà¸²à¸¥
ek to
Ġà¶ĩ à¶¯
àºģ àº²àºĩ
j ed
Ġkam at
à¸¥ à¸Ħ
Ġd is
àº· âĢĭ
ul l
à¸²à¸¢ à¸£
àºĻàºĦ àº§àº²àº¡
Ġp ara
àº§àº½ àºĩàºĪ
à¸© à¸ĵ
àºģàº²àºĻàº Ĭ
Ġs p
àºļ àº¥
à¸¢à¸ĩ à¹ĥà¸«à¸¡
àº²àºĻàº ķ
Ġ à»ľ
indow s
l u
à»Ħ àºĹ
à¶Ń à¶±à¶º
à¹ģ à¸ĭ
àºĶ àº§
ac ebook
Æ°á» Ŀ
ĠâĢ Ŀ
6666666666 7
à¸²à¸ĩ à¸¡à¸²à¸ģ
à¸Ľ à¸Ĺ
Æ°á»Ŀ ng
à¸¢à¸£ à¸ķ
255 9
Ġà¶¶à¶½ à¶´
àºģàº²àºĻàº ļ
ub an
re en
ung og
6 2
ĠàºĽàº° à»ĢàºĹàºĶ
à¶¯ à¶ºà¶ļ
Ġ as
à¸ĺ à¸Ļ
à¸Ńà¸Ńà¸ģ à¸Īà¸²à¸ģ
àºĶàºķ àº²àº¡
à¸£à¸²à¸¢ à¸ģà¸²à¸£
àºŀàº§àºģ à»ĢàºĤ
à¶ļ à¶ºà¶ļ
à¸§à¸¢ à¸Ĺ
à¸§à¸Ķ à¸¥
à¸Ńà¸ĩ à¹Ģà¸ª
Ġgih atag
à¹Ģà¸ģ à¸²à¸«à¸¥
à¸Ľà¸£à¸° à¸Ĺà¸²à¸Ļ
o us
à¸Ńà¸Ńà¸ģ à¸¡
Ġl abaw
Ġà¸Ń à¸³à¹Ģà¸ł
à¸²à¸ĩ à¸Ń
A M
à¸Ńà¸ĩà¸£ à¸²à¸§
à¸²à¸ª à¸²à¸¡à¸²à¸£à¸ĸ
Ġà¶¸ à·ĥ
ro s
Ġà¸¡ à¸²à¸£
à¸£à¸° à¸§
lo ad
à¸ĩ à¸«à¸¥à¸²à¸¢
Ġà¸£à¸§à¸¡ à¸Ĺ
9 5
ek t
ala zi
àº° àºĦ
Ġhang t
Ġs in
àºļ àº¡
à¸Ńà¸¥ à¸¥
à¸¡ à¸¥
em ent
àºķ àº²
Ġà¸ª à¸²à¸¢
Ġà¸Ń à¸²à¸£
à¸Ńà¸ĩ à¹Ģà¸Ľ
n os
ib oreal
Ġà¶¯ à¶¸
ĠR o
Ġà¶ Ī
ung dan
à¹Ģà¸¨à¸£à¸©à¸Ĳ à¸ģ
àº²àºĻàº ĤàºŃàºĩ
Ġhem iboreal
àºĬ àº²àºį
àºģ àºĤ
Ġà¶´ à¶§
à¶¸ à¶ľ
Ġproduk to
à¸² à¹Ģà¸Ĺ
Ġ ac
à¸¢ à¸Ķà¸Ļ
à¹Ģà¸£ à¸²à¸¡
Y EJ
at too
à¸ģ à¸ģà¸²à¸£
àºĶ àºĦ
à¹Ģà¸Ń à¹Ģà¸Ĭ
Ġà¶ł à¶±
Ġà¶ Ŀ
à¸Ńà¸ĩ à¸«à¸¥
Ġ yo
Ġd istrito
ĠÄ ¾
it u
E C
à¸§ à¸Ĥà¸Ńà¸ĩ
7 1
à¸ĩà¸ª à¸²à¸¡à¸²à¸£à¸ĸ
à¹ģ à¸ŀà¸£
à¸²à¸ĩ à¹Ģà¸ģ
ab le
Ġà¶» à¶Ń
Ġ ag
Ġ à»ĢàºĶ
y al
g an
in k
Ġpagp al
Ġ ok
à¸Ľà¸£à¸° à¸Ķ
Ð ¸
i i
à¸± à¹ĭ
Ġmat ang
Ġà¸«à¸¥ à¸§à¸ĩ
àº³ à»ĢàºĻ
e ga
à¸ļà¸Ńà¸ģ à¸§
m in
en c
à¸Ńà¸ģ à¸¥
à¸Ĺà¸³ à¹Ħà¸Ķ
à¸£ à¸Ķ
àºĻ à»ľ
àºĩ à»ģ
ha iland
à¸¡à¸²à¸ģ à¹Ĩ
Ġ à¸¥à¸ĩ
à¸¡ à¸ĩà¸²à¸Ļ
Ġpagh atag
àºĽàº° àºĹàº²àºĻ
U C
in as
Ġsam tang
al e
à·ĵ ,
à¹ģ à¸¢
Ġ it
àºģ àºĩàº²àºĻàº
à¹Ħ à¸ģà¸¥
Ġà¹ģà¸¥à¸° à¸¢
Ġà¶ħà¶± à¶Ń
6 4
asa bot
Ã ¶
im e
33333333 3333
Ġs ing
à¸¨ à¸Ī
à¸§à¸¡ à¸Ĺ
Ġà¶ħà¶© à·Ģ
Ġn ap
à¸ļà¸£ à¸Ļà¸Ķ
à¹ģà¸¥à¸° à¸ģà¸²à¸£
Ġà¸¡ à¸²à¸ģ
à¹Ģà¸£ à¸²à¸Īà¸°
kasa dpang
I S
w a
à¸¡ à¸ļ
à¸¡à¸Ļ à¸ķà¸£
à¶» à¶§à¶Ń
à¸¥ à¸ª
à¶Ń à¶ºà¶ļ
Ġim p
Ġlaw as
Ġà¸ŀ à¸¤
à¸¥ à¸²à¸Ħà¸¡
à¸²à¸Ĺ à¸²à¸ĩ
ur an
à¹ģà¸Ĺ à¸ĩà¸ļà¸Ńà¸¥
à¸ģ à¹Ģà¸Ľ
I C
e ch
Ġà¶º à·Ħ
à¸ī à¸ļ
à¸ĩà¸Īà¸²à¸ģ à¸Ĺ
à¶º à¶ºà¶±
àºĻ à»ĥàºĻ
à¸ģà¸¥ à¸²à¸ģ
à¸Ń à¸Īà¸²à¸ģ
à¸ĵ à¸ķ
à¸Ķ à¸Ńà¸¢
Ġà¸Īà¸²à¸ģ à¸Ļ
à¸ģ à¹ģà¸ķ
à¸ģà¸¥ à¸²à¸¢à¹Ģà¸Ľ
Ġpin ak
à¸¡ à¹Ģà¸Ľ
à¸ģà¸²à¸£ à¹ģà¸Ĥ
Ġub ang
ĠC an
Ġv ideo
Ġs up
à¶»à¶¸ à¶º
à¸²à¸Ļ à¸«à¸Ļ
Ġ à»ĢàºŃ
Ġkin ing
à¸²à¸Ļ à¸Ħà¸£
à¸Ńà¸ļ à¸£à¸¡
à¸ĩ à¸«à¸¥
Ġà¸Ľ à¸¥
m m
àºģ àºŃ
s e
àº¡ àº°àºĻ
à¸ļ à¸Ĥà¸Ńà¸ĩ
à¸ļ à¹Ģà¸Ķ
Ġnga lan
à»ĥàºĻàº §
y an
ĠĠĠĠĠĠĠĠ ĠĠĠĠĠĠĠĠ
Ġm ab
àºŃàºĻ à»Ħàº«àº§
Ġbat ok
Ġà¹Ĥ à¸Ĺà¸£
Ġ ?
Ġp as
à¸ķ à¸Ńà¸Ļà¸Ļ
à¸Ńà¸ģ à¸ķ
à¸¢à¸Ļ à¸ª
à¹Ĥà¸Ķà¸¢ à¹Ħà¸¡
àºģ àºŃàºļ
ur g
âĢ ¢
à¶ħ à¶±
Ġpag pan
ay tay
Ġc asino
Ġ $
Ġ el
à¸ģà¸²à¸£ à¹Ģà¸£
à¸ªà¸£ à¸£à¸Ħ
Ġà¹ģ à¸ľ
à¸Ńà¹Ģà¸¡ à¸£
ĠP ar
usa b
Ġà»Ģàº Ħ
à¸³ à¸ª
à¸° à¸ģ
ro w
n on
Ġà¹Ģà¸Ń à¸Ł
à¸ģ à¹Ħà¸Ķ
w are
Ġn am
Ġre l
Ġà¶ĩ à¶³
en ce
à¸ĩ à¹ģà¸¥
à¸Ļ à¸Ľà¸£à¸°
àºĻ à»ĥàº«
ww w
Ġbat a
Ġpan ag
Ġmak ita
ĠR eg
à¸¡ à¸²à¸ª
à¸ķ à¸Ńà¸Ļ
à¸Ńà¸ĩ à¹Ģà¸£
i x
ul ar
¥ Ħ
Ġà¹Ģà¸¡ à¸ķà¸£
Ġs il
à·Ħ à¶º
àºĶàºķ àº°
ah i
àºĬ àº²àº§
Ġ à¸Łà¸£
à¸Ń à¸ĭ
à·Ĭ ...
à¸Ĥ à¸ĵà¸°à¸Ĺ
à¶± à¶½
à¸Ļà¸ķ à¸Ńà¸Ļ
Ġà¶Ĩ à·Ħ
p it
à¸ļ à¹Ģà¸Ľ
Ġkab ukiran
à¸³à¸ķ à¸²à¸¥
t an
à¸ª à¸ª
à¸Ľ à¸łà¸²à¸ŀ
à¸Ļà¹ģ à¸£à¸ĩ
à¸Ķ à¸ĭ
àº« àº²àºĻ
à¸ķà¸° à¸§
Ġmak ahimo
à¸ĩ à¹Ģà¸ª
and o
à¹ģà¸¥ à¸Ļà¸Ķ
à¸łà¸²à¸¢ à¹ĥà¸ķ
à¸Ĺà¸¢ à¸²à¸¨à¸²à¸ªà¸ķà¸£
en a
15 0
àº²àºĩ àºª
à¸£à¸²à¸¢ à¸ĩà¸²à¸Ļ
Ġs c
àºļà»ĦàºĬ àºĹ
Ġulo hang
alag ad
à¸į à¸Ĺ
à¸Ĵà¸Ļ à¸ĺà¸£à¸£à¸¡
à¸Īà¸° à¸Ĭ
à¸Ńà¸Ļ à¸²à¸Ħ
à¸£à¸²à¸¢ à¹Ħà¸Ķ
in aw
ĠW indows
Ġà¸ķ à¸Ńà¸ļ
à¸§à¹Ĥà¸¡ à¸ĩ
à¸²à¸¡ à¸²
al ig
à¶½ à¶ľ
ro l
I T
Ġgik inahanglan
ad ala
à¸łà¸²à¸© à¸²à¸Ń
à¸Ńà¸Ļ à¹Ĩ
im an
ĠM ag
Ġm am
à¸²à¸ŀ à¸£à¸°
à¸Ńà¸¡ à¸ķ
àºĸ àº²àºĻàºĹ
Ġà¶ļ à¶®
à¸¢à¸§ à¸Ĺ
à¸¢à¸Ķà¸Ļ à¸²à¸¡
à¸¡ à¹Ħà¸Ķ
à¹Ħ à¸ģ
it abo
ga m
à¹Ģà¸§à¸¥ à¸²à¸Ĺ
à¸Ļ à¸Ńà¸ģ
Ġà¶º à¶§
Ġà¸Ľà¸£à¸° à¸Īà¸³
àºĦàº§àº²àº¡ àºª
Ġà¶Ķ à¶ļ
à¶´ à¶½
à¸¡ à¹ĥà¸Ļ
à¸ª à¸²à¸Ļ
an hi
àºĩ àº§àº½
Ġla ing
Ġpagt an
à¸ļ à¹Ģà¸£
à¸Ļ à¸Ĳà¸²à¸Ļ
à¸ģ à¸«
à¶± à¶ľ
à¸Ķ à¸Ľ
à¸Ķ à¹Ħà¸Ķ
àº²àºĻàº Ħ
Ġpagk uha
Ġà¶ħ à¶ºà¶§
Ġ @
àºĶ àºĶ
ĠàºĹ àº²àºĩ
ala in
à¹Ģà¸¢ à¸²à¸§
Ġàºģàº° àºĬàº§àºĩ
Ġpagk at
à¶»à¶« à¶ºà¶ļ
à¹Ĥ à¸Ļà¸Ńà¸Ńà¸Ļà¹Ħà¸¥à¸Ļ
Ġre g
à¸Ĥà¸Ļà¸²à¸Ķ à¹ĥà¸«à¸į
r il
E D
àº¡àºĦ àºŃàºĩ
et o
àºªàº°àº« àº°àº¥
à¹Ģà¸£à¸² à¹Ħà¸Ķ
à¸ªà¸³ à¸£
à¶¸ à·Ģ
Ġà¸¡ à¸«à¸²à¸§
ĠP ol
Ġà¶ī à¶ľ
al ip
à¸²à¸Ļ à¸²à¸Ļ
à·Ģà¶» à¶«
las e
7 2
-.-âĹ¼-.-âĹ¼ -.-âĹ¼-.-âĹ¼
ik e
Ġ à¸ĩ
7 8
à¸¡ à¸Ĥà¸Ńà¸ĩ
à¸Ĥ à¸ĵà¸°
àº½àº§ àºĤ
e z
à¸§à¸¢ à¸ĩà¸²à¸Ļ
Ġs h
àº½ àºļ
àºŃ àº²àºĬ
Ġà¹ģà¸¥à¸° à¸ª
à¶º à·Ģà¶±
in n
Ġgay ud
à¸ģà¸²à¸£ à¸ļ
à¸Ń à¸²à¸¨
à¹Ħà¸Ł à¸¥
à¸ļ à¹Ħà¸Ķ
à¸Ĥ à¸²à¸Ķ
ic t
àº²àº ĸ
àºĬ àº²
à»ģ à»ľ
àºŃàºļ àºĦ
Ġs ite
ĠS c
Ġàºķ àº²àº¡
à¸Ĭ à¸¢
à¸Ļ à¸²à¸ĩ
ik an
àºĦàº§àº²àº¡ àº®
à¸ģà¸²à¸£ à¸Ń
à¸Ńà¸²à¸Ī à¸Īà¸°
à¸¡à¸² à¹Ģà¸Ľ
à¸ģ à¸²à¸¢à¸Ļ
à¸ĩ à¸ģà¸£
à¹Ģà¸ģ à¸°
à¸Ļ à¸Īà¸£
à¸ª à¸Ńà¸£
à¸«à¸¥à¸²à¸¢ à¸Ħà¸Ļ
à¸ķ à¸Ĥà¸Ńà¸ĩ
àº¼ àº¸
it er
à¸§à¸¢ à¸§
Ġà¸Īà¸° à¸¡
à¸²à¸Ļ à¸ļà¸²à¸Ĺ
rop ikal
à·ģ à¶±à¶º
à¹Ĥà¸¥ à¸«
Ġà¹Ģà¸«à¸¡ à¸²à¸°
Ġà·ĥà·Ħ à¶·
ga y
pir itu
7 3
ĠO k
Ġd es
× Ĳ
O S
ĠP ilip
à¸ļ à¸ªà¸¡
à¸¢à¸Ńà¸Ķ à¹Ģà¸¢
lan o
Ġà·Ģà¶ľ à¶ļ
Ġà¶ĩ à·Ħ
à¶¯ à·Ģ
Ġà»ģ àº«
ĠKin ahabogang
Ġl ib
àºĩ à»Ŀ
à¹ĥà¸Ļ à¸Ń
à¹Ĥà¸ł à¸Ħ
à¸Ń à¹Ģà¸Ĥ
or a
at on
Ġu m
6 8
lo w
ĠGo ogle
amp o
à¸²à¸ĩ à¸Īà¸²à¸ģ
ĠM ayo
ĠIn tern
Ġm in
à¸²à¸¢ à¸łà¸²à¸ŀ
.-.-.-.-.-.-.-.-.-.-.-.-.-.-.-.- .-.-.-.-.-.-.-.-.-.-.-.-.-.-.-.-
à¸¡ à¸Ī
àºµà»ī âĢĭ
ĠU sa
Ġà¶± à¶©
à¸ŀà¸¢ à¸²à¸ĺ
à»ĥàºĻàº ª
à¸§ à¸ļ
I I
àºĩàº« àº¡
àº² à»ĦàºĽ
ĠA c
à¸Ļà¸Ļ à¸³
à¹Ĥà¸£ à¸Ľ
Ġà¸Ħ à¸Ńà¸Ļ
àºĶ àº¢
à¶±à·Ģ à¶½
ĠâĢ ¦
Ġd ayon
is s
à¸¥ à¸Ļ
Ġà¶Ķ à·ĥ
A C
à¸ģà¸³à¸«à¸Ļ à¸Ķ
Ġà·ĥà¶§ à·Ħà¶±
Ġ àºģàº²àºĻàºª
à¶° à·Ģ
ĠM o
à¸ŀ à¸²à¸Ļ
à¸ģ à¹Ħà¸¡
Ġl ak
à¸Ĺà¸³ à¸Ħà¸§à¸²à¸¡
UC N
e a
ĠF or
.... ....
àºĻ à»Ģàºķ
à·ģ à¶ļ
à¹ģà¸¥à¸° à¸£
ĠI UCN
ub ag
Ġn alazi
ĠE l
ĠM ay
à¸įà¸« à¸²
à¸²à¸ļ à¸£
à¸ĩ à¹Ģà¸ŀ
Ġàºŀ àº²àºį
à·Ģ à¶ºà¶±
à¸ļ à¸¢
à¸²à¸£ à¸ģ
à¸ģà¸£à¸° à¸Ĺà¸£à¸§à¸ĩ
à¶» à¶ºà¶±
ic al
Ġà¶Ķ à¶±
à¸Ľ à¸ķ
à¹ģ à¸ģà¸£
d ate
à¸ĩ à¸ģà¸§
à¸ļ à¸«
à¸§à¸¢ à¸ª
à¸ĩ à¹ĥà¸«à¸į
a o
à¶§ à¶ļ
àºĩ àºŀ
ĠJ eh
ek lase
las eklase
BO BET
Ġà¶ħ à¶¸à¶Ń
Ġà¶ħà¶º à¶Ń
Ġmag h
uga r
Ġh igayon
ra el
own load
n i
m er
al ang
ĠGik laseklase
Ġà¶Ĩ à·ĥ
à¹Ģà¸Ń à¸ª
Ġt um
à¸Ħ à¸²à¸ª
Ġmag t
à¸ķ à¸£à¸²à¸
ĠEst ado
à¶ µ
Ġgih imo
1 20
à»Ħ àºª
E S
ot h
ĠâĢĭ âĢĭ
à¸²à¸« à¸¡à¸²à¸¢
Ġà¹ģà¸¥à¸° à¸Ĺ
y ano
à¸³ à¸ļà¸¥
ers on
à¶º à¶ºà¶ļ
à¸ĩ à¹Ģà¸¡
à¸²à¸Ļ à¸£
Ġpam ilya
à¸Ńà¸ĩ à¸¢
og on
Ġnas el
à¸§ à¸«
à¸ļ à¹Ĥà¸£à¸Ħà¸ªà¸°à¹Ģà¸ģ
à¹Ħà¸Ľ à¸¢
à¸ķ à¸³à¹ģà¸«à¸Ļ
Ġ %
. ,
ĠC r
à¸° à¹Ħà¸£
à¸Īà¸³à¸Ļà¸§à¸Ļ à¸¡à¸²à¸ģ
s er
Ġà»Ģàº ª
àºĻàº°àºĦ àºŃàºĻàº«
Ġà¶¸ à·Ģ
à»Ħ à»Ŀ
à¸Ńà¸ģ à¸Ĺ
à·Ĵ ..
àº½ àºĶ
ĠQ u
à¹ģ à¸£
à¹Ģà¸Ńà¸² à¹Ħà¸§
p o
×Ĳ ×Ĳ
à¸Ķ à¸ĩà¸²à¸Ļ
à¸¢ à¸Ļà¸Ĺ
à¹Ħà¸Ľ à¸ģ
àº¥àº° àº«àº§
à¸Ī à¸ī
àº² à»Ģàº¡
à¸«à¸¥à¸§à¸ĩ à¸ŀ
ĠD ili
àºĹ àº°
à¸Ļà¸° à¸Ħà¸£
Ġà¶ļà¶» à¶´
ip on
à¸Ľà¸£ à¸²à¸ģà¸ı
à¸² à¹Ģà¸ĭ
Ġà¶ĭà¶´ à¶¯
O V
un e
Ġà¶» à¶®
à¹ ĵ
à¸³ à¹Ģà¸Ļ
à¸Īà¸³ à¸ģ
à¸ļ à¹Ģà¸¥
à¸ĩ à¹ģà¸¡
à¸Ĭ à¸²à¸ģà¸²à¸£
à¹Ģà¸Ľ à¸£
i Å¡
à¹Ģà¸£ à¸²à¸ģ
Ð ½
àºģàº³ àº¥
k e
Ġun ang
à¸ģ à¸°
à¸Ń à¸ĺ
àº³ àº¡àº°
om a
l d
à¸«à¸¡à¸²à¸¢ à¸ĸ
Ġà¶Ĩ à¶ºà¶Ń
is g
ĠIs rael
à¶ºà¶ļ à¶Ń
ab ut
à¶Ńà¶» à¶ļ
àº¡ àºģ
à¹Ħ à¸®
àº²àºĩ àº§
Ġtan om
p ut
à¹Ĥà¸Ń à¹Ģà¸ģà¸°
à·Ĥ à¶±
ĠðŁ ¥Ħ
à¸Ħ à¸²à¸Ķ
à¸Ļ à¸«à¸£
X X
àº§àºį à»Ģàº«
à»Ĥ àº«àºį
ĠJeh ova
à¸§ à¹Ĥà¸¥à¸ģ
Ġà¹ĥà¸Ļ à¸§
à·Ĵ ...
à¸ŀ à¸¤
àº¡ àº²àºĶ
à»ĥàºĻàº ķ
ig o
ĠIt al
Ġà¶ļà¶» à¶ľà¶Ń
Ġà¶¶ à¶º
o ft
à¸ª à¸²à¸ĺ
an ce
v el
à¶º à·Ģà¶»à¶º
et te
à¸ª à¸Ńà¸ĩ
à¸łà¸²à¸© à¸²
à¶© à¶¸
àºĩ àºĽàº°àºķ
Ġàºŀàº§àºģ à»Ģàº®
Ġà¹Ĥ à¸Ħà¸£
ĠH ill
Ġlal aki
à¸²à¸¢ à¸Ķ
àºĻ à»ģàº¥àº°
e ct
à¸¢ à¸¥
erb isyo
àºģàº²àºĻàº Ĥ
or sk
Ġà¸ŀ à¸Ļ
Ġà¹ģ à¸Ħ
s on
Ġà¸Ħà¸¥ à¸Ńà¸ĩ
Ġh ari
à¹ĥà¸ļ à¸«à¸Ļ
Ġ ed
àºľ àº°àº¥
ĠM on
Ġà¹Ĥà¸£à¸ĩ à¹ģà¸£à¸¡
à¸²à¸Ļ à¸Ķ
Ġ à¸¯
Ñ Ģ
Ġpro gr
Ġm anan
Ġà¶Ĩ à¶ľà¶¸
à¸²à¸£à¸² à¹Ĥà¸Ńà¹Ģà¸ģà¸°
Ġ à»ĦàºĽ
ĠD av
àºĻ àºĻàº°
à·Ħ à¶ļ
ul ay
Â ²
Ã ¼
à¸¢à¸§ à¸°
à¸ļ à¹Ĥà¸ķ
à¸¢à¸Ļ à¸ķà¸£
Ġdih ang
as on
b a
em an
Ġ isip
à¸¨ à¸²à¸¥
Ġà¶ł à¶»
ust om
à»ĥàºĻàº ¥
A L
àºªàº° à»Ģàºŀàº²àº°
à¶ ĥ
à¶ĳ à·Ħ
Ġà¸ŀà¸¤ à¸¨à¸Ī
Ġ xxx
c ol
àºŃàºĻàº ®
à¸ļà¸£à¸£ à¸¢
à¸Ķ à¹ģà¸¥à¸°
ern o
h el
àºªàº° à»ģàºĶàºĩ
à¸¡ à¸Ńà¸ĩ
à¸Īà¸Ļ à¸ĸ
p a
àºĻ àº²àºį
àº§àºĶ àº¥
Ġà¶Ĩ à·ģ
it is
Ġà¶ĩ à¶»
à¸Ĳà¸²à¸Ļ à¸°
9 4
ĠÃ ģ
Ġin ter
àºŃ àºª
ib le
à¹ģ à¸®
Ġà¸Ńà¸¢ à¸²à¸ģ
à¸ļà¸£à¸£à¸¢ à¸²à¸ģà¸²à¸¨
ĠC ent
Ġp art
à¸Īà¸° à¸ĸ
àºĩ àºŃ
Ġà»ģ àº¥
Ġà¶º à¶º
Ġz a
7 4
à¸ĩ à¹Ģà¸¨
Ġà¶ĩ à¶½
Ġan hi
ot o
Ġneg os
âĤ¬âĤ¬âĤ¬âĤ¬ âĤ¬âĤ¬âĤ¬âĤ¬
u z
ig ugma
àºĻ à»Ģàºŀ
9 6
à¹Į )
Ġak on
à¶¸ à¶ºà¶ļ
Ġà¶¢à¶± à¶´
à¸¡ à¸ł
ĠÂ »
Ġà¸Ń à¸²à¸Ĺ
Ġà¶ľ à·ĥ
ah a
9 8
à¸§à¸£ à¸£à¸ĵ
à¸ķ à¸²à¸¢
ĠB er
àº²àºĪ àº²àºģ
Ġt attoo
àº²àº £
à¸Ľ à¸«à¸¥
à¹Ħà¸Ľ à¸ĸ
à¸ļ à¸Ľà¸£à¸°à¸ģ
àºŃ àºĹ
à¸Ĺ à¸§
à¸£à¸²à¸Ĭ à¸ģà¸²à¸£
Ġà·ĥ à¶§à¶±
ur n
àºĶ àºĪàº°
Ġà·Ģ à¶±à·Ģ
à¹Ĥ à¸Ńà¸Ļ
à¸ģà¸£à¸° à¹ģà¸ª
Ġà·ĥ à¶½
à¹Ĥà¸ļ à¸£à¸²à¸ĵ
Ġpro c
U S
im p
Ġanhi anhi
à¸ģà¸£ à¸Ńà¸ļ
ĠÃ ³
88 88
Ġgih apon
à¹Ĥà¸£à¸ĩ à¸ĩà¸²à¸Ļ
Ã ł
à¸Ńà¸ĩ à¸Ĺà¸³
àº²àºģ àº²àºĶ
àºĩ àºĽ
ace ae
le y
à¸§ à¸Ĭ
à¸²à¸ª à¸¡
à¸Ļà¹Ħ à¸ŀà¸£
Ġà¹ģà¸¥à¸° à¹Ģà¸Ľ
à¸² à¹Ĩ
à¸Ńà¸¢ à¸Ĺ
à¸Ī à¸ļ
à¶½ à¶»
Ġp re
asa l
< <
à¸Ľà¸£à¸° à¸¡
à¸Ļ à¸ł
à»Ģ à»Ŀ
à¸Ńà¸¡ à¸ª
àºļ àºŃ
à¸ĵ à¸Ħ
ĠS BOBET
à¸¡ à¸«à¸Ļ
à¸µ .
àºĶàºķ àº°àºŀ
Ġv is
à¹Ģà¸ī à¸¥
à¸Ļà¸« à¸¢
Ġà¶ĳ à¶±à¶¸
à·ĥ à¶³
Ġkl ase
ĠopÅ¡t ina
in es
Ġà¶Ĩ à·ĥà¶±
ĠL a
op h
Ġà¸£ à¸Ńà¸ļ
à¸§à¸Ļ à¸«à¸Ļ
à¸° à¸§
à¸ķà¸²à¸¡ à¸Ĺ
àºģ àºĶ
Ġat ub
y ang
à·ħ à¶³
à¸¢ à¸Ńà¸¢
à¸²à¸Ķ à¹Ģà¸Ī
à¸§ à¹Ģà¸¡
ĠM eh
à¸¡ à¸²à¸ķ
Ġ à·Ĥ
ro ng
à¸³ à¸ļ
à¸Ļà¸³ à¹Ħà¸Ľ
àº§ àº²
Ġà¶¶ à¶±
à¸Ļ à¸ģà¸§
à¸Ķ à¸Ł
à¸²à¸£ à¸²à¸Ĭ
à¸Ń à¸Ńà¸¢
à»ī ,
I D
àºĩ àº²àº¡
àº²àºĻàº ŀ
v an
ap an
z a
à¸Ī à¸²à¸Ļ
ed ia
à¸ļ à¹Ģà¸ŀ
à¸§à¸Ļ à¸ģà¸²à¸£
Ġ asa
Ġkatap usan
ot a
ol o
un ta
ĠM at
à¹ģà¸¥à¸° à¸Ħà¸§à¸²à¸¡
à¸¡ à¸²à¸ķà¸£à¸Ĳà¸²à¸Ļ
à¶° à¶ºà¶ļ
à¸ļ à¹Ģà¸ĩ
à¸ĩ à¸Ĺà¸³à¹ĥà¸«
ĠR ep
A l
à¸Īà¸° à¸ŀ
à¹ĥà¸Ļ à¸«
Ġà¹ģà¸¥à¸° à¸Ń
àºĻàº Ł
à¸¢à¸ĩ à¹ģà¸Ħ
à¶º à¶´
ĠS al
à¸²à¸ĩ à¹Ģà¸Ķ
à¸Ĩ à¸©à¸ĵ
s ite
à¸Ĥ à¸¢à¸²à¸¢
àº²àº« àº°àºģ
Ġkinad ak
àºŃàºĩ àºª
à¸¥ à¸ģ
Ġà¸ª à¸ķ
à¹Ģà¸¡ à¸Ļ
à¸ļ à¸¡à¸²
à¸ª à¸Ĺ
à¸Ń à¹Ģà¸Ĺ
àºļ àºĻ
abil in
ĠB o
u nga
Ġà¶Ĩ à¶¯à¶»
ic ro
Ġà¸ª à¸³à¸Ļ
à¸Ļ à¸Ŀ
à¸«à¸§ à¸²à¸Ļ
àºªàº°àº« àºĻ
àºļ àºĤ
Ġmag s
Ġ à»ĢàºĻ
6666666666 67
à¸§à¸ĩ à¸¨
à¸«à¸¡à¸²à¸¢ à¹Ģà¸¥à¸Ĥ
à¹Ĵ à¹ķ
à¸²à¸ĩ à¸Ħà¸§à¸²à¸¡
à¸Ńà¸Ļ à¸«à¸¥
us yon
Ġà¶Ĩà¶º à¶Ńà¶±
à¶Ńà¶» à·Ģ
à¸²à¸« à¸²à¸ģ
2 000
Ġ Å¡
à¸ĩà¸ģ à¸²à¸¢
à¸¥ à¸¯
Ġ *
Ġà¶ī à¶§
ĠMeh iko
à¸Ħà¸Ļ à¸Ń
âĺĢâĺĢ âĺĢâĺĢ
i um
00 00
à·Ģ à·Ħà¶±
à¸ĩ à¹Ģà¸Ń
à¸«à¸¥à¸Ńà¸Ķ à¹Ģà¸¥
à¸³ à¸£à¸°
à¹ ĸ
à¹Ĥà¸Ľà¸£ à¹Ĥà¸¡à¸Ĭ
à¶» à¶ł
Ġà¸«à¸Ļ à¸Ńà¸Ļ
à¸«à¸¥à¸²à¸¢ à¹Ĩ
Ġgi gamit
org an
à·ģ à¶ºà¶ļ
àº² à»Ģàº¥
ot el
ing harian
àº¡ àº§
à¸Ķ à¸Ĺà¸³
à¸Ļà¸ķ à¸²à¸¡
à»Ģàº§àº¥ àº²àºĹ
à¶¸ à·Ħ
à¹ģà¸¥à¸° à¸ķ
Ġà¶¸ à¶Ł
ĠH D
à·ĥà¶§ à·Ħà¶±
angk on
à·Ģ à¶«
Ġà¹Ĥà¸£à¸ĩ à¹Ģà¸£
Ġà¹Ģà¸ Ł
Ġà¹Ĥ à¸£
if e
àºŃàºģ àºĪàº²àºģ
à¹Ħà¸Ĥ à¸¡
K ini
K apital
àº§àº¡ àºĹ
à¹ģ à¸§
à¸²à¸§ à¸£
à¸Ńà¸²à¸Ī à¸²à¸£à¸¢
Ġ à¸£à¸°à¸«à¸§
à¸§à¸ĩ à¸Ĺ
à¸ĩà¸« à¸²à¸Ħà¸¡
Ġt ali
Ġà¶ĳ à¶ºà¶§
9 7
à·Ĭ ..
33333333333333333333333333333333333333333333333333333333333333333333333333333333333333333333333333333333333333333333333333333333 33333333333333333333333333333333333333333333333333333333333333333333333333333333333333333333333333333333333333333333333333333333
àº²àºĻàºª àº²àº¡àº²àºĶ
à¸ŀà¸£à¸° à¸Ńà¸ĩà¸Ħ
à¶± à·Ħ
Ġà¶ħà¶´ à¶»
Ġm ib
ĠS i
Ġà¹Ĥ à¸Ħ
Ġà¹ģà¸¥à¸° à¸ķ
à¸²à¸ĩ à¸Ĭ
à¸²à¸Ļ à¸Ĥ
àºªàº³ àºĦ
9 1
j i
Ġn ab
àºį àº²àºĶ
à¸ļ à¹Ģà¸ª
à¸Ļ à¹ģà¸ķ
à¸µ à¹Ĭ
à¸Ńà¸ĩ à¹Ħà¸Ķ
y n
à¸Ĭ à¸¡à¸ŀ
à¹Ģà¸§ à¸Ĺ
à¹ĥà¸Ļ à¸ŀ
ĠS w
Ġm ip
ĠG u
l ot
àºª àº½àºĩ
Ġmag d
Ġp res
re k
Ġb y
àº¸ âĢĭ
à¸²à¸Ķ à¸£
à¸ĩ à¸«à¸¡
à¸³ à¸Ķ
à¹Ģà¸ ĸ
à¸ģà¸£à¸° à¸ķ
àº²àºĩ àºĹ
àº° à»ľ
Ġà¹Ĥ à¸«à¸¥à¸Ķ
à¸ģà¸²à¸£ à¸ļà¸£
à¸ŀà¸§à¸ģ à¹Ģà¸Ĥà¸²
à¹Ĥà¸£à¸ĩ à¸ŀà¸¢à¸²à¸ļà¸²à¸¥
à¹Ģà¸¥à¸¢ à¸Ĺ
à¶ļ à¶©
ol a
Ġw ww
à¸ļ à¸ĸ
à¸ĩ à¸Ńà¸Ńà¸ģ
à¸²à¸Īà¸° à¸¡
ht t
8 00
d ing
àºŃàºĩ àº¡
à¸²à¸Ń à¸Ńà¸Ļà¹Ħà¸¥à¸Ļ
à¸ª à¸£à¸°
à¸Ķà¸¢ à¸Ńà¸Ķ
à¸²à¸« à¸¡
àºŃ à»ĥàº«
Ġd ula
Ġàº« àºĩàº§àº½
à¸ª à¸ĭ
à¸Ń à¹Ģà¸Ĭ
à¸Ľ à¸Ľ
àº°àºĻàº° àºĹ
iy os
in sk
à¸ĩà¸Īà¸²à¸ģ à¸Ļ
à¸Ĺà¸²à¸ĩ à¸Ķ
à¸²à¸Ĭ à¸Ļ
à¸²à¸Ń à¸Ńà¸ģ
ĠPo int
àºĶ àº¡
Ġb in
6 3
à¸ģ à¸Ĺà¸£
à¸Ĳ à¸¡à¸Ļà¸ķà¸£
Ġà¶ī à¶»
à¸ģà¸£à¸° à¹Ģà¸Ľ
à¸łà¸²à¸§ à¸°
id a
ag o
à¶® à¶ļ
ĠÃ ī
à¶½ à¶ºà¶§
Ġà¸ķ à¸Ńà¸Ļà¸Ĺ
à¸²à¸Ļ à¹Ģà¸Ķ
à¸²à¸Ļ à¸«à¸¥
à¸Ľ à¸ģà¸Ħà¸£
8 3
ow er
àº²àºĻàº ļ
Ġkah im
H A
à¹Ģà¸ĭ à¸Ļ
à¸¬ à¸²
à¸Ľà¸£à¸°à¸ģà¸Ńà¸ļ à¸Ķ
à¸Ń à¹ģà¸¥à¸°
Ġkont in
Ġsub t
ar an
l em
àºļ àºĽàº°àºģ
s i
à¸ģ à¸¡à¸²à¸ģ
Ġga h
r at
ĠP an
Ġà¶´ à¶«
las s
Ġà¹ģ à¸¡à¸Ļ
à¸ª à¸ĩ
Ġ ab
uga y
Ġs er
à¸Ĺà¸¢ à¸²
à¸Ĥà¸Ļà¸²à¸Ķ à¹Ģà¸¥
à¶Ń à¶§à¶¸
?? ??
à¸Ń à¹ĥà¸Ļ
à¸¢ à¸«à¸²à¸¢
ĠO n
Ġà¶Ĭ à¶º
; .
Ġà·ħ à¶Ł
à¸ģà¸²à¸£ à¹Ģà¸Ķ
à¸Ķà¸²à¸§ à¹Ģà¸Ĺ
Ġp od
à¸Ķ à¸ľ
Ġn ato
e ng
àº°àºĻ àº²
Ġà¶¶à·Ģ à¶¯
on y
g ed
à¸§ à¸ļà¸£
Ġà¹Ģà¸¥ à¸¢
à¸Ĺà¸²à¸ĩ à¸Ĺ
Ġà»Ģàº Ĺ
à¸Ńà¸ª à¸Ńà¸ĩ
Ġà¶ĩ à¶¸à¶»
à¸ļ à¸²à¸£
Ġatub angan
àº²àºĻàº ¥
à¸Ľà¸£à¸° à¸Ĺ
f orm
à»ĦàºŁ àºŁ
Ġkontin ente
ind ot
à¶»à¶´ à¶§
Ġà¹ģ à¸ŀ
à¹Ħ à¸Ĺ
à¹ģ à¸ªà¸Ļ
à¸¢ à¸Ńà¸¡à¸£
à¸¥ à¸ķ
àºĻàº« àº²
à¸§à¸¡ à¸¡
!! !
àº²àºį àºĦ
àºĶàºķàº° àºĽ
ĠM ga
à¶ Ĭ
Ġà¶ļ à¶´
al ad
ĠR es
Ġ à¸Ńà¸Ķ
à¸Ķ à¹Ħà¸Ľ
à¸Ńà¸ĩ à¸¥
à¸Ħà¸£ à¹Ģà¸¥
Ġà¶ĩ à¶ľ
à¶© à·ĥà¶§à·Ħà¶±
ub ud
ro id
à¸ª à¹Ħà¸ķà¸¥
à¸ĩà¸²à¸Ļ à¹Ħà¸Ķ
Ġnag d
;; ;.
ĠàºĽàº° àºĬàº²àºĬ
ag an
Ġnag b
à¸Ń à¹Ģà¸ĩ
à¹ĥà¸Ķ à¹Ĩ
à¸²à¸ĩ à¸Ĥà¸Ńà¸ĩ
ĠItal ya
Ġnagh atag
Ġhig ala
Ġà¶ «
Ġang ay
Ġà¸Ħ à¸²à¸ª
à¸« à¸²à¸Ķ
o ol
âĹ ı
oun t
al t
A G
Ġà¸£à¸²à¸¢ à¸ģà¸²à¸£à¸Ļ
Ġ à¹Ģà¸ĩ
à¸Ń à¹Ģà¸ģ
il le
à¸Ļà¸¢ à¸²à¸¢à¸Ļ
à¸¡à¸² à¹ģà¸¥
Ġà¹Ģà¸« à¸¥
Ġà¸ª à¸°
à¹Ĥ à¸Ļà¸¡
an aw
à¶¯ à¶¸
Ġà·Ģ à·Ħ
ĠS ept
Ġà¶¢ à¶ºà¶ľ
aw on
y s
ĠTag aytay
à¸§ à¹Ģà¸Ħà¸£
à¶»à¶¸ à·ĥ
à¸Ńà¸Ļà¸²à¸Ħ à¸ķ
à¸ĩ à¹Ģà¸Ĺ
àº¡ àºĻ
Ġà¶ĭ à¶¹
ĠJ er
it or
Ġà»Ģàºŀ àº²àº°
aw as
Ġlang it
ĠS iya
ĠD r
iv ers
à·ģ à¶ºà¶§
. "
Ġà¸ģà¸¥ à¸²à¸ģ
Ġkasarang an
àº°àºį àº²àºį
ľ àº°àº¥
ĠO r
ĠPilip inas
à¸¢à¸§ à¸Ĭ
Ġamihan ang
à¸² à¹Ģà¸¢
à¹ģ à¸Ńà¸£
Ġin yo
od e
ot e
àºĶ à»ĦàºĶ
à¸¢ à¸Ńà¸¡
à¸Ļà¸° à¸Ħà¸°
à¸²à¸§ à¸Ĺ
à¸Īà¸° à¸ª
àº°àº« àºĻ
Ġl ugar
àº¼ àº»à»Ī
àºŃàº¡ àºģ
Ġ ep
Ġb an
àºĻàºĪ àº°
Ġg y
Ġà¶Ĩ à¶ł
à¶´ à·Ģ
ĠC on
Ġà¶»à¶§ à¶ļ
ic s
ĠàºĻ àº°àºĦ
à¸¡ à¸Ħà¸£
ÎµÎµÎµÎµÎµÎµÎµÎµ ÎµÎµÎµÎµÎµÎµÎµÎµ
à¹Ģà¸ª à¸¡
Ġàº Ŀ
à¹ Ķ
Ġà¸Ń à¸²à¸Ħà¸²à¸£
à¶· à¶º
à»ģàºľ àºĻ
us h
àºĻàº¡ àº²
Ġmanan ap
à¸ļ à¹Ħà¸¡
à¸² à¹Ģà¸Ī
àº²àº« àº²àºĻ
C lub
Ġà¸ĸ à¸Ļà¸Ļ
à¸ģ à¸İà¸«à¸¡à¸²à¸¢
Ġmak ad
** **
Ġnag ap
à¸¥à¸Ľ à¸°
Ġà¹ģà¸Ĺ à¸ĩà¸ļà¸Ńà¸¥
à¸Ļà¸ª à¸³à¸«à¸£
à¸Ļà¹Ħà¸Ľ à¹Ħà¸Ķ
àºĩ à»ģàº¡
à¸Ńà¸ļ à¸ĸ
Ġunsa ng
Ġà·Ģ à¶»à¶¯
àºĩ à»Ģàºª
àºļàºŀ àº°àºį
Ġà¶¶ à¶«
Ġs erbisyo
Ġb uk
ulong an
Ġg ob
Ġà·Ħ à¶¯à¶±
Ġp al
Ã ¤
at an
Ġà¸ķ à¸Ńà¸Ļà¸Ļ
à¸§à¸Ļ à¸¡
à¸Ńà¸ĩ à¸Ļà¸Ńà¸Ļ
àº½àºĻ à»ģàºĽ
à¶Ķ à¶º
Ġum ogon
Ġsubt ropikal
à¸ļà¸ķ à¹Ģà¸ķà¸Ńà¸£
aw ay
à¸ķ à¸²
Ġà¸Ķ à¸²à¸§
à¸łà¸²à¸ŀ à¸Ĺ
Ġ {
Ġà¶ĩ à¶±
à¸¥ à¸ĭ
à¸¢ à¸²à¸ĩ
à¸Ħ à¸Ńà¸¡
Ġà·ĥ à¶½à¶ļ
à»ģ àº®
à¶» à¶ľ
àºĻ à»ĢàºŃàºĩ
à¶Ń à¶ºà¶§
à¸ĵ à¹Ħà¸Ķ
à¸²à¸§ à¸ģ
à¸ģà¸£ à¸¢à¸²à¸Ļ
Ġka r
y c
Ġpagka on
à¶ħ à¶©
Ġà·ĥ à¶ļà·ĥ
Ġà¹Ģà¸ ľ
Ġà¸ª à¸§à¸¢
à·ħ à¶¯
ĠS ch
àº§àº¡ àºģ
Ġp un
à»Ĥ àºĽ
Ġà¶ħà·Ģ à¶¶
Ä ĳ
Ġàºª àº²àº¡àº²àºĶ
à¸Ħà¸Ļ à¸£
àºŃàºĩ àºĸ
à¸Īà¸° à¸Ĺà¸³
Ġà·ĥà¶¸ à¶Ń
e al
or ld
à¶º à¶»
à¸ļ à¸Ľà¸£à¸°à¸Ĺà¸²à¸Ļ
à¸§à¸¢ à¹Ħà¸Ĺà¸¢
à¸Ļ à¸ļà¸Ļ
à¸ģà¸© à¸²à¸Ħà¸§à¸²à¸¡
à¸ŀà¸¥ à¸²à¸ªà¸ķ
ĠR ome
à»ĥàºĻàº Ĥ
Ġà·ħ à¶¸à¶º
Ġà¹Ģà¸Ńà¸Ł à¸ĭ
à¸ª à¸«à¸£
àºª àº²àº¡
Ġàºŀ àº°
Ġà»Ģàº ĸ
² ãģ
;;;. ;;;.
ing pit
Ġs ist
à¸²à¸Ļ à¸Ń
Ġà¸¯ à¸¥à¸¯
Ġp ul
Ġhtt p
ĠopÅ¡t ini
r abaho
à¸Ńà¸ĩ à¹ĥà¸«
à¸ŀ à¹Ģà¸Ķ
las t
Ġnag l
àºĻ à»ĢàºĪ
Ġs u
b ayon
à¸² à¹Ĥ
àºĶàºĬ àºŃàºļ
à¸Ķ à¸Ĭà¸Ńà¸ļ
àºŀ àº°àºĻ
sub aru
àº°àºįàº²àºį àº²àº¡
Ġsa yon
ĠP ark
Ġp ulo
ion al
à¶ ¤
en yo
ort h
àºĽ àºŃàºĶ
Ġ à¸łà¸²à¸¢à¹ĥà¸Ļ
à¸ª à¹Ģà¸ĭ
à¶± à¶ºà¶±
Ġlang gam
Ġun ya
Ġsiy udad
àºĽàº° àºĹ
à¸Ń à¹ĥà¸Ĭ
à¸§à¸ĩ à¸Īà¸£
Ġbala od
v o
at ib
Ġ âĹı
à¹Į âĢĿ
à¸Ħà¸§à¸²à¸¡ à¸§
à¸Ń à¸²à¸Ĭ
à¸ĵ à¸«
Ġà¹ģà¸¥à¸° à¸£
àºªàº° àºŀàº²
Ġnak ita
à¸ŀ à¸ķ
ugn aw
Å¾ av
Ġkal abot
à¸¡à¸« à¸²à¸Ļà¸Ħà¸£
à¸ģà¸²à¸£ à¸ģ
àºĩ àºľ
à¸²à¸¢à¸Ļ à¸Ńà¸ģ
Ġb ukid
ov er
Ñ Ĥ
ot an
à¹ĥà¸Ļ à¹Ģà¸Ķ
en n
Ġà¹ģ à¸Ī
Ġà¸Ħ à¸²à¸£à¸²à¹Ĥà¸Ńà¹Ģà¸ģà¸°
à¹ī ,
à¸ģà¸£à¸°à¸Ķ à¸²à¸©
à¹Ħà¸ĭ à¸Ļ
ĠÅ º
m p
à¶© à¶½à¶º
A D
R O
66666666 666666
à¸ĩà¹Ģà¸¨ à¸ª
amat ay
Ġm et
uk ad
à¸ģ à¹ĥà¸Ī
à¸Īà¸° à¹ĥà¸Ĭ
Ġà¹Ģà¸ŀ à¸¥à¸ĩ
Ġpagt uo
Ġgib uhat
Ġnad m
à¶ł à¶±à¶º
à¸ģà¸£à¸° à¸Ĺà¸³
à¸²à¸ĩ à¸ªà¸£à¸£à¸Ħ
à¸² à¹ģà¸ģ
Ġ ini
àºĻ à»ĢàºĬ
à»ĥàºĻàº Ħ
à¸Ħ à¸Ń
à¹Ģà¸ŀ à¸²à¸°
à¸ª à¸Ńà¸Ļ
à¸Ħà¸Ļ à¹Ħà¸Ĺà¸¢
Ġà¸Ľà¸£à¸° à¸ķ
A A
A d
Ġmak ab
àºģ àº¢
àºŃàºģ àº«
J C
à¶© à¶º
r in
9 2
Ġma ayong
à¹ģà¸ķ à¸ģ
ĠB u
à·ħ à¶Ń
Ġnadm orsk
àº²àºĻàº «
ah ibalo
à¸¢à¸ļ à¸²à¸¢
orm asyon
à¸ģ à¸Ŀ
à¸¡à¸² à¹ĥà¸«
à»Ĥ àº®
àºĻàº¥ àº°
Ñ ģ
ĠR iver
Ġ ..
à¹Ģà¸ģ à¸£
Ġhin ungdan
Ġà¶Ĩ à¶´
à¶Ķ à¶¶
qu e
Ġà¸ģà¸²à¸£ à¸Ĺ
9 3
à¸«à¸¥à¸§à¸ĩ à¸Ľ
à»Ĥ àº¡
à¶ľ à¶»
Ġga mit
Ġ à¹Ģ
à¸ĸ à¸²à¸ļ
ĠÅ¾iv elo
Äį k
Ġà¹Ĥà¸Ķà¸¢ à¸Ĺ
à¸Ĥà¸Ńà¸ĩ à¸Ļ
à¸¡ à¹ģà¸¥à¸°
à¸Ļ à¹ģà¸¡
à¸Ĥà¸Ńà¸ĩ à¹Ģà¸£
àº²àºĩ à»ľ
Ġà¶Ń à·Ģà¶¯
Ġà¶Ńà·Ģ à¶¸à¶Ń
7 6
Ġs ugal
à¹ĥà¸Ļ à¹Ģà¸£
ag ad
lo k
Ġvis ini
à¸Ĥà¸Ńà¸ĩ à¸£
à¹Ģà¸Ĺ à¸Ħà¸Ļ
àº°à»ģ àºĻàºģ
àº¥ àº²àºĦ
it t
T S
àºĻàºĸ àº²àºĻ
à¸§à¸¢ à¸Ħ
à¸²à¸Ń à¸²à¸Ī
à¸ĩ à¹Ħà¸§
ĠAl eman
es o
à»Ħ àºķ
àº²àºį àºģàº§
à¸ĩ à¹Ģà¸Ĭ
Ġà¸«à¸¡à¸§à¸ģ à¸ģ
à¸Ļ à¹Ģà¸ĩ
Ġnagh imo
Ġà¶ľ à¶»
han an
à¸Ļà¸Ĭ à¸Ńà¸ļ
à¸ķ à¸Ńà¸¥
à¹Ģà¸¥à¸¢ à¸Ħà¸£
k aw
Ġà·Ħ à¶§
Ġnadmorsk oj
à¶± à¶»
à¸Ńà¸Ļ à¸¡
ens ya
à¸ĩà¹ģ à¸§à¸Ķà¸¥
Ġà·Ģ à¶¯
Ġà¶Ĩ à¶°
is e
Ġnag a
Ġl in
Ġà¹ģà¸¥à¸° à¸Ļ
à¸²à¸Ńà¸ģ à¹Ģà¸¥
à¸µ à¹ĭ
ut o
ĠT a
sa gol
à¸¡ à¸Īà¸²à¸ģ
à¹ģ à¸Ķà¸Ļ
à¸²à¸ĩ à¸²à¸Ļ
Ġà¹ģ à¸Ł
Ġà¸£à¸²à¸Ħ à¸²à¸ĸ
à¸ģ à¹Ģà¸Ľà¸¥
ama agi
à¶¸à¶§ à¶Ń
er g
²ãģ ²ãģ
Ġà·ĥ à¶´
Ġà¹Ģà¸£ à¸²à¸ģ
àº²àºĻ à»ĦàºĶ
à¸£ à¸ł
Ġb il
àº²àº« àº²àºģ
er t
Ġà¶± à·Ģà¶Ń
à»ĤàºĦ àºªàº°
isy al
Ġgip ang
255 8
Ġd alan
at ay
Ġà»ĥàºĻàº §
à¸²à¸Ĭ à¸Ļà¸°
à¸Ńà¸Ļ à¹Ħà¸Ĥ
i je
Ġnegos yo
Ġweb site
à»Ģàº £
7 00
à¸Īà¸° à¹Ģà¸Ĥ
Ġà¸Ĥ à¸ĵà¸°à¸Ĺ
à¸ĩà¹Ģà¸Ĺà¸ŀ à¸¯
ĠO b
um d
p le
à¸Ńà¸ģ à¸ĭ
à¸Ķ à¹Ģà¸£
à¶±à·Ģ à¶¯
à¹Ģà¸Ń à¸Ł
ĠV al
S an
Ġbay bayon
àºģ àº²àºį
i ja
Ġiz nos
oft ware
à¸ļ à¹Ģà¸§
à¹Ĥ à¸Ĥ
Ġà¹ģ à¸Ĥ
à¸ģ à¸Ł
à¶ĳ à¶¸
jed n
àºĻàºĦ àº§
u a
ub e
Ġ en
àºļ àº§
à¸ĩà¸Ħà¸£ à¸²à¸¡
à¸²à¸¢ à¸¡
à¸Ĺ à¸Ĺ
Ġà»Ģàº «
Ġpagpang ita
Ġà¶ĭà·ĥ à·ĥ
à·Ģ à·Ģ
àº²àºĦ àº§àº²àº¡
ĠC risto
Â »
Ġac c
à¹Ģà¸ª à¸Ļ
à¸²à¸¢ à¹Ħà¸Ľ
à¸²à¸¢ à¹ĥà¸Ļ
Ġà¸ģ à¸¡
u al
in al
àºĩ à»ģàºķ
Ġà¶´à¶¯ à¶±à¶¸
ĠP l
à¸Īà¸° à¹ĥà¸«
à¸ķ à¸³à¸£à¸§à¸Ī
à»ĥàºĻàº Ľ
àºĶ àº³à»ĢàºĻ
à»Ģàº¥ àºĤ
Ġsa ve
ul i
alibot an
Ġà¸ª à¸Ľà¸Ńà¸£
à¸²à¸ª à¸³à¸«à¸£
à¸ĩà¹Ģà¸Ĺà¸ŀ à¸¡à¸«à¸²à¸Ļà¸Ħà¸£
à¸ŀ à¸ª
à¹ģ à¸Ń
et t
àºģàºĦ àºŃàºĩ
Ġà¶ħà¶´ à¶ľ
am ot
Ġl u
ig uro
à¸§à¸£ à¸£à¸Ħ
à¸ĩà¸ļ à¸Ľà¸£à¸°à¸¡à¸²à¸ĵ
T ag
à¶º à·ħ
I L
ĠM C
y st
à»Ŀ àº²àºģ
àº°à»ģ à»ľ
Ġmakat abang
à¸ª à¹Ĥà¸¡à¸ªà¸£
à¸ļ à¸ģà¸¥
Ġà¹Ģà¸¥ à¸Ļà¸ª
à¸¢ à¸ĩà¸ª
ĠI S
Ġsa la
ĠY ot
à¸ģà¸²à¸£ à¸Ĺà¸³
à¸ģà¸²à¸£ à¸Ĥ
Ġ à¹ĥà¸Ħà¸£
à¸ģà¸²à¸£ à¸Ĺà¸³à¸ĩà¸²à¸Ļ
à¸Ĺ à¸°à¹Ģà¸¥
àºĩ àº®
a a
ĠOp Å¡t
àº²àºĩ à»ĢàºĽ
Ġ !
Ġpin ulongan
K on
Ġà¸ķ à¸¥à¸Ńà¸Ķ
àºĹàº°àºį àº²
à¸Ļ à¸²à¸¢à¸Ļ
ĠW alay
àºĩ àºĪàº°
ĠK an
sa b
àºŃàº¡ àºĶ
Ġpagb uhat
à¸²à¸ĩà¸£ à¸§à¸Ķà¹Ģà¸£
à¶§ à·Ģ
Ġkasa dpang
à¸²à¸Ļ à¸§
Ġà¹ģà¸¥à¸° à¸ģ
Ġsa gol
Ġg rad
ic es
Ġà¸ģ à¸£à¸ģ
à¸¡ à¹Ģà¸¥
à¸Ńà¸Ńà¸ģ à¸ģà¸³à¸¥
à¸ĩ à¸Ĺà¸³
àºĶ àºĽ
gay gay
en o
alig ya
à¸² à¹Ģà¸Ń
à¸ļ à¹ĥà¸Ī
à¹Ĥ à¸Ĩà¸©à¸ĵ
à¸§ à¹Ģà¸Ľ
à¸Ń à¸²à¸Ħà¸²à¸£
en e
àºŃàºĻ à»Ħàº¥
dasdasdasdasdasdasdasdas dasdasdasdasdasdasdasdas
àºĻàºĻ àº°àºŀàº²àºļ
tub re
ĠN or
à¸Ŀ à¸²à¸ģ
àºŃàºĻàº ļ
Ġim port
Ġà¸Ń à¸²à¸ģà¸²à¸£
à¸£ à¸Ńà¸¢
à¸¥à¸ĩ à¹Ħà¸Ľ
à¸Ńà¸ĩ à¹ģà¸¥à¸°
Ġp amaagi
Ġh unahuna
àº¡ àºŃ
ĠR us
à»ģ àºŀ
à¸ķ à¸ģà¸£à¸£à¸¡
à¹ģ à¸ľà¸¥
àº§ àºĹ
O T
àºĻ àºŃàºŃàºģ
à¶ħ à¶¯
Ġtr abaho
à¸²à¸ĩ à¸Ī
à¸Īà¸²à¸ģ à¸Ļ
Ġà¹Ĥ à¸Ĭ
uk an
à¹Ģà¸¥ à¸¢à¸§
àºĩ à»ĥàºĻ
à¶¸à¶ļ à¶§
Ġb as
ĠA w
àºĻ à»ĢàºĶ
ĠS up
à¸§à¸ļà¸£ à¸§à¸¡
à¸Ńà¸ĩ à¹Ħà¸¡
à¸Ńà¸ĩ à¹Ħà¸Ľ
Ġm id
66666666 6666
Ġnags ugod
at s
à¸´ ,
àºŃ àº§
à¸§ à¹ĥà¸«
àºģàº²àºĻ àºģ
i Äĩ
Ġà¶¯ à·Ħ
so on
à¸²à¸ļ à¸Ļ
à¸Ļ à¹Ĥà¸Ķà¸¢
à¸¡ à¹ĥà¸«
à¸²à¸§ à¸ªà¸²à¸£
Ġà¶¸ à¶¯
àºģàº° àºķ
àºģàº²àºĻàº «
à¸Ľà¸£à¸° à¹Ģà¸¡
ip ay
àºģàº²àºĻàºĽàº° àºķ
ex t
ĠC ast
Ġà¸Ķ à¸²à¸§à¸Ļ
àº°àº« àº²àºĻ
6666666666666666666666666666666666666666666666666666666666666666666666666666666666666666666666666666666666666666666666666666666666666666666666666666666666666666666666666666666666666666666666666666666666666666666666666666666666666666666666666666666666666666 6666666666666666666666666666666666666666666666666666666666666666666666666666666666666666666666666666666666666666666666666666666666666666666666666666666666666666666666666666666666666666666666666666666666666666666666666666666666666666666666666666666666666666
ĠG am
er k
as ing
à¸ķ à¸Ĭ
à¹ģ à¸ļà¸£à¸Ļà¸Ķ
s c
Ġok r
ĠiP hone
à»į à»īâĢĭ
à» ĭ
à¸£ à¸²
à¹Ħ à¸ŀ
à¸Ńà¸Ļ à¹Ħà¸«à¸§
à¸Īà¸²à¸ģ à¸Ĺ
Ġ à¸Ħà¸§à¸£
à¸¡ à¸²à¸¥
àº¥ àº²àºĶ
Ġp ol
il la
s to
Ġàºŀ àº²àºģ
Ġw alog
ĠP CG
Ġà¶»à¶§ à¶§
Ġsist ema
à¸ģ à¸Īà¸°
ĠOk tubre
Ġs unod
y erno
à·ĥ à¶ºà¶ļ
an ka
Ġdr Å¾av
ĠD iyos
ĠSept iyembre
à¸ģà¸²à¸£ à¸§
Ġà¸Ľà¸£à¸°à¸Īà¸³ à¸Ľ
à¸Ńà¸ĩ à¸Ľ
a j
ma il
ap ad
àº²àºĻàºĻ àº²àºĩ
ar ong
Ġà¶ľ à·Ħ
Ġop er
àºļ àºĦàº§àº²àº¡
à¸Ńà¸ĩ à¸Ĺà¸²à¸ĩ
à¸ļ à¸ļà¸£
Ġà¶¯ à¶Ń
ĠW h
àºģ à»ĤàºĻ
ĠB el
à¸Ľà¸£à¸° à¸ģà¸§
à¸§à¸ĩ à¸«à¸Ļ
à¸²à¸ĩ à¹Ħà¸¡
Ġà¹ģà¸¥à¸° à¹Ħà¸Ķ
à¸ĺà¸Ļ à¸²à¸Ħà¸²à¸£
àºĻàºĪ àº²àºģ
ek syon
àºĻàº¥ àº²àº§
à¸ŀ à¸ļà¸ģ
à¸Ń à¸Ħà¸£
à¸ģ à¹Ģà¸Ĥ
à¸ĩ à¸¡à¸²à¸ģ
à¸²à¸£ à¸²à¸ĩ
à¸² à¹Ģà¸Ļ
àº²àºį àºĤàºŃàºĩ
àº²àºĻàº ®
id er
Ġà¶ļ à¶³
à¶ī à¶Ń
àºģ àºĤàºŃàºĩ
Ġ à¸Ńà¸ĩà¸Ħ
à¸Ń à¸Īà¸°
ĠG Club
? âĢĿ
o x
à·ļ ...
àº² à»ĥàºĻ
Ġpang h
Ġrel asyon
P S
àºģà»ĤàºĻ à»Ĥàº¥
m e
Ġni ana
ĠAb ril
àºģàº²àºĻ à»Ģàº¡
Ġf ree
k apital
34 66666
Ġàº Ł
àºĩà»ģ àº§àºĶàº¥
Ġà¶¶ à¶©
àº¹ âĢĭ
à¸²à¸§ à¸ļ
Ġà¶Ĩà¶ºà¶Ń à¶±à¶º
à»ĥ àºĶàºģ
200 9
àº²àºĩ àºĤ
à¸§ à¸Ľà¸£à¸°à¹Ģà¸Ĺà¸¨
Ġà¸Ń à¸²à¸¢
à¸ļ à¹ĥà¸Ĭ
A B
Ġnak o
un ang
Ġà·Ģ à¶ºà·ĥ
Ġà¶¸ à¶»à¶«
ĠP al
à»ĥàºĻàº ļ
Ġà¶´ à¶»à¶¸
ĠK as
y r
à¸° à¸Ħ
à¸Ķ à¹Ģà¸ŀ
à¸Ńà¸ĩ à¸¨
à¸¢à¸ĩ à¸£à¸²à¸¢
Ġà·ĥà·Ħ à¶º
h od
Ġ ih
or ta
à¸ļ à¸ľà¸¥
ĠAleman ya
ï ¼
à»Ĥàºį àºļàº²àºį
U n
à»ĤàºĹ àº¥àº°
Ġ organ
àºĽàº° àºĪàº³
à¸ģ à¸²à¸¢
à¸¢à¸§à¸Ĭ à¸²à¸į
à¸Ńà¸¢ à¸Ķ
à¸²à¹Ħ à¸«à¸£
Ġind i
Ġw h
à¸¥ à¸²à¸Ļ
à¸Ļà¸ª à¸²à¸¡à¸²à¸£à¸ĸ
à¸¤ à¸Ĺà¸ĺ
Ġh atag
ĠÂ ·
Ġt ek
à¸§ à¹Ħà¸¡
à¸ĵ à¸¡
Ġà¶¯à·Ģà·ĥ à¶ļ
at or
ĠC at
Ġnagk alain
à¶½ à¶´
Ġar t
à¶º à·Ħ
Ġh ingpit
Ġà¸Ħ à¸Ńà¸£
à¸¢à¸ĩ à¸Ĺ
à¸ģ à¸«à¸¥
à»ĥàºĻàº ŀ
Ġ **
os e
àºķ àº°àº«
Ġkam ot
à¸Ļà¸§ à¸²à¸Ħà¸¡
à¸Ńà¸³à¸Ļ à¸²à¸Ī
à¸ļà¸£à¸£ à¸Ī
Ġ à¸łà¸²à¸Ħ
à¸ķ à¹Ĥà¸Ļà¸¡
.- .
àºĶ àº²
à¶¯ à¶§
àºŃàºĩ àº§
lan t
à¸¡ à¹Ħà¸¥à¸Ħ
Ġà¶´ à¶¸
à¸¨ à¸§
à¸ª à¹Ģà¸ķ
à¸§ à¹ģà¸¥à¸°
à¸ŀ à¸²à¸£
àºĩ àºį
Ġkahim tang
Ġkal idad
ĠM i
Ġm en
àº²àºĩ àºĦ
à¹Ģà¸Ł à¸Ńà¸£
ĠM as
Ġ <
up Å¡t
à»Ģàº« àºĶ
à¹ģ à¸Ĭà¸¡à¸Ľ
à¸¢à¸Ļ à¸Ĭ
à¸ģà¸²à¸£ à¹Ģà¸Ľ
à¸²à¸ĩ à¹Ģà¸Ĭ
à¸ĩà¸ª à¸Ļà¸²à¸¡
à¸¡ à¸²à¸Ĺ
Ġà¸Ħ à¸ĵà¸°
Ġà¹Ĥ à¸ķ
àºĽ àº²
à¸§à¸¢ à¸Ķ
Ġkon s
Ġà¹Ģà¸Ĥ à¸ķ
Ġà¶ĭà¶¯ à·Ģ
àºŃàºĩ àºĻ
Ġpagk ab
ĠS ol
à¸Ħà¸§à¸²à¸¡ à¸ªà¸²à¸¡à¸²à¸£à¸ĸ
à¸Ķà¸Ļ à¸ķà¸£
à¹Ħ à¸ª
à¸ĩ à¸«à¸£
à¸ķà¸£ à¸ĩà¸Ļ
u oran
ed eral
us og
àºĻ à»ĢàºĤ
Ġs um
âĢ¦ .
Ġ à¹Ħà¸£
à¶» à¶®
50 5
ad lok
Ġc on
àºŀ àº°
Ġd o
E O
ad uol
à¸Ńà¸ª à¸Ńà¸ļ
à¸¢à¸§à¸° à¹Ģà¸ŀà¸¨
à¸Ħ à¸Ńà¸¡à¸ŀ
à¸Ī à¸Ĺ
Ġà¹Ģà¸¥ à¸Ĥ
at er
Ġkalabot an
ĠC al
ĠW ala
Ġb ato
l og
à¸ĩ à¸Ľà¸£à¸°à¹Ģà¸Ĺà¸¨à¹Ħà¸Ĺà¸¢
à¸¢ à¸ķ
Ġsave z
Ġga b
à»Ĥ àºŀ
Ġà¹ģà¸¥à¸° à¹Ħà¸¡
ib l
à¶º à¶ºà¶§
t or
Ġà¶ĭ à¶«
àºªàº° àº¡àº²àºĬ
P ag
à¸² à¹Ģà¸ļ
à¸§ à¸Īà¸£
à¸łà¸²à¸ŀ à¸¢à¸Ļà¸ķà¸£
.... ..
à¶»à¶ļ à¶§
à¸§à¸¡ à¸ĩà¸²à¸Ļ
à¹Ģà¸Ħà¸£ à¸Ķ
à¸§ à¸²à¸¢
à¸£à¸²à¸Ħ à¸¡
Ġà¸¡ à¸ģ
ĠF acebook
ĠB i
ĠNew s
C C
àºĩ à»ĥàº«
Ġ à¸Ńà¸Ļ
à¸ŀà¸£ à¸£à¸ĵ
àºģ àºŀ
w ork
àº² à»ĢàºĻ
ĠRep ubl
ta in
à·Ħ à·Ģ
àºŃàº¡ àºĹ
àºŃàºĻàº ¡
à¸İ à¸²à¸Ħà¸¡
Ġà¸Ħ à¸³
àºªàº°àº« àºĩ
Ġs imb
w ala
Ġà¸¨ à¸£
à¸ķ à¹ģà¸¥à¸°
à¸Īà¸° à¸¢
à¸²à¸§ à¸Ķ
à¸ŀà¸Ń à¹ĥà¸Ī
à¸Ľà¸¥ à¸²
Ġàº¥ àº²àºį
amb al
à¸Ļ à¸²à¸Ħà¸¡
à¸ķà¸ģ à¹ģà¸ķ
à¸Ī à¸ģà¸²à¸£
t r
E L
ĠdrÅ¾av i
ay ad
à»ĥ àºģ
ar yong
Ġàº¥ àº°àº«àº§
à¹Ģà¸ĺ à¸ģ
Ġà¶´à·Ħ à·ħ
un idad
ĠD ep
p unta
à·ļ ..
à¸ģà¸²à¸¥ à¸Ĺ
b urg
49 666666
Ġin tern
Ġà¸ķ à¸Ńà¸Ļ
à¸Ļà¸Ĺà¸²à¸ĩ à¸ģà¸²à¸£
à¸Īà¸²à¸Ļ à¸Ķà¸²à¸§à¹Ģà¸Ĺ
à¹Ĥà¸Ķà¸¢ à¸ªà¸²à¸£
b ungtod
ĠBl ack
re am
Ġg ugma
Ġsavez noj
ul ang
ap i
à¸²à¸ ī
à¸Ķ à¸«à¸¥
à¸Ńà¸ĩ à¸ĭ
à¸Ĭà¸¡ à¹Ģà¸Ľ
àºģàº²àºĻàº ĤàºŃàºĩ
àº§àºĩ àº§àº½àºĩàºĪ
àº²àºĹ àº²àº¥
usa lem
àº· :
àºĤ àº²àºį
200 8
àº² à»Ģàº§
à¸¡ à¹Ĩ
à¸Ļà¹ģ à¸«à¸¥
à¸ł à¸²à¸¢à¸Ļà¸Ńà¸ģ
l ema
Ġhangt od
ĠM ac
à¶» à·ħ
à·Ģ à¶·
à¸Ķ à¹Ħà¸¡
à¸Ķ à¹Ģà¸Ĥ
am it
ĠL ake
or ya
ĠN i
inat ian
r Å¡
Ġà¶ Į
Ġà¹ĥà¸Ļ à¸Ĭ
Ġà¶« à¶º
Ġl ok
3333 33
àºŃàº¡ àºķ
Ġà¹Ĥ à¸Ķ
à¸Ńà¸Ļ à¸Ĥà¸Ńà¸ĩ
à¸Ķ à¹Ģà¸ª
à¸ļà¸ģà¸²à¸£ à¸£
et s
Ġk alibotan
àº¡ àºĬ
Ġà¶Ķà¶¶ à¶ľ
U N
Ġsagol sagol
àºĻàºģ àº°àºĹ
à»ĤàºĦ àºĩàºģàº²àºĻàº
Ġw ith
à»ģ àºļ
à¸¡ à¸Ńà¸ļ
à¸§ à¹Ģà¸Ĥ
à¸£à¸²à¸ Ł
à¸ģà¸© à¸°
eh o
à¸ĩ à¹ĥà¸Ĭ
à¸Ļà¹Ģà¸ª à¸²à¸£
Ġk ol
Ġkin am
9999 9999
er e
ov e
ah atag
Ġk r
àºģàº§ àºĶàºģ
à·Ĭ )
Ġo b
Ġgit awag
ĠàºĦ àº³
à¶¶ à·Ģ
s p
à¶¯ à¶ºà¶§
ĠH JC
à¸Ļà¹ģ à¸£à¸ģ
à¸Ħà¸ĵà¸° à¸ģà¸£à¸£à¸¡à¸ģà¸²à¸£
Ã ¨
om b
ĠAnd roid
w ag
ĠT hailand
is ita
à·Ļ à¶Ĥ
ĠM icro
ĠN o
o ck
à¸¢ à¹ģà¸¥à¸°
à¸ķ à¹ĥà¸Ī
à¸ł à¸²à¸Ħà¸¡
à¸ľà¸¡ à¸ģ
à¸ļà¸Ħà¸§à¸²à¸¡ à¸ªà¸³à¹Ģà¸£
à¸Ļà¸Ĺà¸³ à¹ĥà¸«
Ġkamat uoran
Ġhtt ps
à»Ĥ àºĪ
n er
ĠProvin ce
oun d
à¹Ģà¸¢à¸²à¸§ à¸Ĭà¸Ļ
à¸¥ à¹Ģà¸¥
Ġà¹ģ à¸ļ
u x
Ġàºģ àº§
à·Ĥ à¶ºà¶ļ
à¸ĩà¸ª à¸Ńà¸ĩ
à¸Ńà¸¢ à¸ģà¸§
ul ta
Ġà¶±à¶ľ à¶»à¶º
ar ta
Ġàº £
Ð¾ Ð
Ġà¶ħà¶¸à¶Ń à¶ļ
àºļ àºĬ
à¸¥ à¸Ń
Ġà¹ģà¸¥à¸° à¸ģà¸²à¸£
ĠY EJ
àºĶ à»ĥàºĻ
ugn a
on om
à¸² à¹ģà¸ķ
àºŀ àº£àº°
Ġmag b
Ġp lay
àº« àº²àºį
Ġà¶ħà¶¸ à¶Ńà¶»à·Ģ
Ġprogr ama
à¸²à¸¢ à¹Ħà¸Ķ
àºļàºŀàº°àºį àº²àºģ
ic i
al it
Ġà¹Ģà¸« à¸£
à¸£ à¸¨
à¸²à¸¢à¸Ĺ à¸Ńà¸Ķ
ustom er
Ġp er
àºĩ à»ľ
ĠSt ate
àºĶàºĸàº° àºļ
àºªàº° àºŀàº²àºļ
h am
Ġà¹ģ à¸Ļà¸§
à¸ŀà¸£à¸° à¹Ģà¸Ī
à¸¢à¸ĩ à¸ģ
àº²àºª àº²àºĶ
ino sang
Ġà¶´à·Ħ à¶Ń
ital yano
Ġkinam inosang
Ġu ga
à¸Ķ à¹Ģà¸ģ
à¸ļ à¸ĩà¸²à¸Ļ
à¸ļ à¸Ĺà¸³
ĠO ff
à¸Ħà¸§à¸²à¸¡ à¸ªà¸³à¸Ħ
à¹ĥà¸Ļ à¸ļ
à¹Ģà¸¥à¸¢ à¸Ħ
ĠN ik
us o
à¶¢ à¶ļ
ar m
ĠB isan
R A
Ġprob lema
ĠUn ivers
à¹ģà¸¥à¸° à¸§
à¸£à¸° à¸¥
à¸¡à¸² à¹ĥà¸Ĭ
à¸²à¸ĩ à¹ģà¸Ļ
à»ģ àºª
à»Ī ,
à¸Ńà¸³à¸Ļ à¸§à¸¢à¸ģà¸²à¸£
à¸§ à¹Ħà¸Ķ
àºĶ àºį
Ġ isa
ar ia
àºĶ àº«
à¸¢ à¸§à¸¢
à¸Ĵà¸Ļ à¸²à¸ģà¸²à¸£
eb u
àº¼ àº´à»ī
h atag
m unisipyo
ĠB an
Ā Ā
à¸Ļ à¸Ħà¸¥
à¸¤à¸© à¸łà¸²à¸Ħà¸¡
à¸ĩ à¸ĩ
à¸§à¸Ļ à¸Ĥà¸Ńà¸ĩ
à¸¡à¸² à¹Ģà¸¥
à¸Ńà¸Ľ à¸Ľ
Ġ à¹Ħà¸§
à¸ķ à¸Ńà¸¢
Ġkan a
à¹Ģà¸ĭ à¸¥à¸¥
àº´ ÂŃ
Ġp erson
àºĦ àº§
à¸Ńà¸ĩ à¹ĥà¸Ļ
à¸Īà¸° à¸Ķ
à¸¥ à¹Ģà¸ŀ
à¸« à¸²
ĠW est
à¹ģà¸ª à¸ĩ
Ġs oftware
lak ip
Ġkin atib
àº²àºĹàº²àº¥ àº°àºĻàº°
à¸¡ à¹Ģà¸¡
à¹ĥà¸Ļà¸ģà¸²à¸£ à¸£
y ante
ĠJer usalem
il o
ĠN ov
25 0
al k
à·ħ à¶Ł
ap a
àºĻ àº²àºĩ
à¸ĩ à¹Ģà¸ķ
à¸¢ à¸Ń
à¸Ħ à¸ª
à¸²à¸Īà¸° à¹Ħà¸Ķ
à¸ģ à¹ģà¸¥
Ġà¶īà¶© à¶¸
àºĶ à»ģàº¥àº°
à·Ĵ âĢįà·ĬâĢį
ĠE ng
Ġam o
s lr
ig ital
à¸¢à¸ļ à¹Ģà¸Ĺ
ĠEs panya
Ġà¶ĭ à¶»
ĠàºĽàº° àºķ
ĠS em
àºŃàºĻ à»ĢàºĬ
à¶ĳ à¶ļ
àºĶàºª àºŃàºļ
i Å¡t
à¸²à¸Ļ à¸Ľ
à¹ģà¸¡ à¸§
àºģàº³ àº¡àº°
Ġ àºĻàº³
à¹ģà¸¥à¸° à¸Ĺ
à¸© à¸²à¸¢à¸Ļ
Ġà¶ºà·Ħ à¶´à¶Ń
Ġng ipon
à¸ģà¸³ à¸Ī
à¸ĩà¸«à¸§ à¸°
Ġà¹Ĥ à¸ĭ
à¹Ħà¸Ľ à¹ģà¸¥
Ġbuhat on
àºŀ àº²àºª
à¶° à¶ļ
à¸²à¸Ļ à¸ĭ
à¹ģà¸¥à¸° à¸Ļ
à¹Ģà¸ĺ à¸Ķ
à¸Ńà¸²à¸£ à¸¡à¸ĵ
à¸° à¸£
htt ps
O M
" ,
Ġà¸¥ à¸Ķ
à¸²à¸¢ à¸Ĥà¸Ńà¸ĩ
à¹Ĥà¸Ķà¸¢ à¹Ģà¸īà¸ŀà¸²à¸°
àº²àºĩ àºĶ
u u
ĠF ran
Ġà¶½ à·ĥ
à·Ģà¶± à·Ģ
ar o
à¸¡ à¹Ģà¸ģ
à¸§ à¹ģà¸ķ
à¸Ńà¸ĩ à¸¢à¸Ļà¸ķ
T he
r am
Ġt er
à·Ļ à·ı
Ġà¹Ģà¸ ®
Ġs lr
à¸¥à¸¢ à¸ģà¸£à¸£à¸¡
à¸ĵ à¸Ĺ
à¸ŀ à¸²à¸ĵ
à¹Ģà¸« à¸¢
Ġ à¸£à¸°à¸Ķ
Ġ- ---
à¸²à¸§ à¸Ĥà¸Ńà¸ĩ
Ġpang utana
ĠAir port
b on
iter an
àºķ àºŃàºļ
Ġpag m
Ġkas inatian
à¸¡ à¸łà¸²à¸ŀ
à¸²à¸¢ à¸Ĥ
à¸ĩ à¹Ģà¸Ī
à»ĥàºĻàº Ľàº°
P A
Ġgob yerno
àºļ àºªàº°à»ľ
Ġà¸£ à¸Ńà¸ĩà¹Ģà¸Ĺ
à¸ªà¸¡ à¸²à¸Ħà¸¡
à¹Ĥà¸Ķ à¸Ķà¹Ģà¸Ķ
à¹Ĥà¸¢ à¸ķ
à¸§à¸Ļ à¸£
a ut
à¹Ħà¸Ľ à¸ª
à¸Ļ à¸ŀà¸£
ĠA M
r et
Ġà¶ħà¶» à¶ľ
à»Ĥ àº£
à¶§ à·ĥà¶ļ
à¸ĩ à¹ĥà¸«à¸¡
Ġà¹Ģà¸ŀà¸£à¸²à¸° à¸§
Ġka so
it s
Ġà·Ħ à¶¬
ind og
âĢĿ .
r ic
àºĻ àº²àº¡
à¶» à¶ľà¶Ń
àº¼ à»Ī
àº°àºļ àº§àºĻ
à¸²à¸ ¯
Ġà¸Ľà¸£à¸° à¸ĺà¸²à¸Ļ
à¸£à¸²à¸ ª
Ġà¶¢ à¶½
Ġs umala
Ġà»Ģàº ķ
aghan an
Ġà·Ħ à¶Ńà¶»
ĠP a
ib al
à¸§ à¹ģà¸Ĺ
àºĶ àºĸ
à¹Ģà¸£ à¸²à¸ķ
àºĻàºª àº³
Ġà¸ģ à¸³à¸¥
ust r
ĠN orth
ĠH ol
ik asyon
ik ip
k on
Ġam ahan
à¸° à¸Ħà¸°
à¸²à¸Ļ à¸Ī
Ġp akig
Ġà¸Ħà¸Ńà¸Ļ à¹Ĥà¸Ķ
Ġimport ante
Ġl is
ĠF ern
àºģàº³ àºĻ
Ġt abang
à¹Ģà¸Ħ à¸¡
alay an
à¸¡ à¸ĩà¸Ħà¸¥
à¸§ à¸ĸ
à¸ŀ à¸²à¸ģ
à¹ģ à¸Ĭ
Ġà¸ª à¸²à¸Ĥ
Ġu s
à¸Ī à¸ģ
ĠB ay
S i
Ġà¶° à¶±
Ġd uol
ĠUn ya
ihok an
àº°àºŀ àº²
ĠN as
à»ģàº¥ àºģàºĽ
Ġp l
Ġà¶ĳ à¶Ńà¶ļ
ĠàºĤàºŃàºĩ àºĹ
àºŃàºĻà»Ħàº¥ àºĻ
à¸§ à¸²
à¸Ħà¸§à¸²à¸¡ à¸Ļ
à¸¡à¸Ĭà¸Ļ à¸Ħà¸Ļ
à¸Ļ à¸ĩ
um a
à¸ŀà¸¢ à¸²à¸ģà¸£
tang an
àºļ àºģàº²àºĻàºª
it ion
Ġs ul
à¸²à¸§ à¸¡
Ġà¶º à¶Ń
à¹Ģà¸ĺ à¸
Ġà¶Ĩà¶¯ à¶»à¶º
Ġ à¹ĥà¸ª
l ing
ĠC ont
ĠJud io
d anan
à¸ļ à¹Ħà¸Ĺà¸¢
Ġà¸¡ à¸²à¸Ķà¸£
à¸¢ à¸¢
à¸Ļ à¸«à¸¡
à¸Ħ à¸²à¸£
à¸© à¸Ĳ
ĠS ug
à»ī à»į
ut i
àºģàº²àºĻàº ¢
Ġà¶´à·Ģà·ĥ à¶º
Ġà·ģ à¶»
à¸ļ à¹Ģà¸Ĥ
leb olog
à¹ģà¸ŀ à¸ĩ
Ġà¶´ à¶±à¶Ń
ph p
U g
Ġpagt ukod
iteran yo
In italyano
Ġkah oy
ar s
àºĻàº°àºĦ àºŃàºĻ
à¸Ńà¸ĩ à¹Ģà¸Ĥ
à¸ª à¸ļ
asa k
Ġ ika
m art
aghan on
Ġb ro
1 10
à¸Ĥ à¸²
à¸² à¹Ģà¸§
à¸Ń à¹Ģà¸Ľà¸¥
h ong
Ġàºģàº²àºĻàº Ħ
àº°àºĻ àº²àºĦ
àº²àºĻàºĪ àº°
àºŃàºĩ àºķ
à»Ģàº ¢
à»ģ àºĶàºĻ
Ġà¶¸à·Ħ à¶±
à¸ģà¸© à¸²à¸Ĺ
à¹ģà¸ªà¸Ķ à¸ĩà¸Ħà¸§à¸²à¸¡
à¸¢à¸ĩ à¸Ķ
à¸Ĭà¸²à¸§ à¸ļ
Ġà¹Ĥà¸Ħà¸£ à¸ĩà¸ģà¸²à¸£
Ġà¹Ģà¸Ľ à¸¥
Ġà¶¢ à¶º
à¶ĳ à·ĥ
à¸Ļà¸Ĺ à¸ļ
ir a
ul ette
aw ong
à¸ľà¸¥ à¹Ħà¸¡
à¸Ļà¸³ à¹Ģà¸ªà¸Ļà¸Ń
à¸Ńà¸Ĥà¸²à¸¢ à¸Ĥà¸Ńà¸ĩ
à¸ª à¹Ģà¸Ľ
is u
Ġà¹Ģà¸ª à¸£
à¸ģ à¸ģà¸§
Ġ à¹ĥà¸ļ
à»ĥàº« àº¡
on a
Ġà¶¯ à·Ħà¶¸
e sa
àºĹàº°àºįàº² à»Ħàº¥
__ __
à¸ļ à¹ģà¸ķ
à¸Ľà¸£à¸° à¹Ģà¸Ķ
Ġ à¸į
à¸Ļ à¹ĥà¸«à¸į
Ġà¹Ģà¸¡ à¸Ļ
à¸Ļ à¸ļà¸£
à¹Ģà¸£à¸² à¹Ħà¸¡
ah ayag
Ġs ig
r ap
à¹Ĥà¸¥ à¹Ģà¸¡à¸ķà¸£
ous e
Ä «
à¶ºà¶¯ à¶¸
à¶ ŀ
ĠRe ad
à¸§à¸¢ à¸Ļ
Ġ à¸Ħà¸§
Ġà·Ħ à¶º
in uod
ĠàºĻ àº²àºĩ
à¸¥ à¸Ĭ
à¸¡ à¹Ģà¸¢
à¹Ħ à¸ķ
à¸Ħà¸§à¸²à¸¡ à¹Ģà¸ª
à¸ļà¸Ħà¸§à¸²à¸¡ à¸Ļ
Ġà¹Ģà¸«à¸¡à¸²à¸° à¸ªà¸³à¸«à¸£
Ġà¶īà·Ħ à¶Ń
z e
Ã ´
' s
ing ong
yon al
Ġnan ag
à¶Ńà¶» à¶ºà¶ļ
ĠM ak
à¸²à¸Ļ à¸Ĺà¸²à¸ĩ
à¸ģà¹Ģà¸ģ à¸Ńà¸£
à¸Ļ à¹Ĥà¸£à¸Ħ
Ġà¹Ģà¸ķ à¸£
à¸« à¸Ńà¸¡
à¸¨à¸²à¸ª à¸Ļ
à¸ĵà¸« à¸ł
à¸Ńà¸¢ à¸ģ
à¸¥à¸Ķ à¸¥à¸ĩ
Ġ à¹ĥà¸ģà¸¥
ingk amot
àº§ àº¢
P o
ĠTag ged
ĠC or
àºĻ à»Ģàº¥
10 1
ĠS e
ĠI ng
à¸Ļ à¸¥à¸°
à¸Ħà¸Ļ à¹Ģà¸Ķ
à¸²à¸Ļ à¸Ĭ
à¸Ļà¸Ń à¸²à¸Ī
ĠIs land
àºĻ à»ĢàºŃàºģ
à¸²à¸ĩ à¸ļ
r ip
Ġb e
c a
Ġà¹ģ à¸ªà¸Ķ
Ġà¹ĥà¸Ļ à¸Ľ
à¸Ķà¹Ģà¸Ī à¸Ļ
à¸Ń à¹Ģà¸ªà¸Ļà¸Ń
à¹ĥà¸Ļ à¸Ħà¸£
à¸ĵ à¸ģ
à¸²à¸ľ à¸¥
à¸ĩà¸ľà¸¥ à¹ĥà¸«
à¸Ī à¸Ķ
Ġà¶ĳ à¶±à·Ģ
àºģàº° àºª
Ġà¶¯ à¶¬
to p
à¶» à·Ģà¶½
Ġà»ģ àºģ
Ġun der
v ice
ig h
à¸²à¸Ĭ à¸²à¸ķ
à¶ľ à¶¸à¶º
àºĪàº³ àºĻàº§
àº³ àº«
Ġkab alayan
Ġmed iteranyo
uk om
ĠI l
Ġà¶ Ľ
f er
à»ģ àºĦ
àº² à»Ģàºª
S t
à»Ģàºģ àº¡
à¸Ļà¸Ńà¸Ļ à¸§
à¸Ľà¸£à¸°à¸Ĭà¸²à¸Ĭ à¸Ļ
Ġop isyal
Ġp ederal
à¶® à¶º
à¸Ńà¸¢ à¸¥à¸°
i wat
Ġb ak
Ġgid aghanon
àºģàº²àºĻ àºĻ
ĠB ibl
à¸ģ à¸Ĳà¸²à¸Ļ
à¸²à¸ĩ à¸ĸ
Ã ¢
àºŃàºĻ àºĻ
Ġà¶» à¶ļ
Ġt e
à»Ħ àºģ
ĠUnivers ity
à¶§ à¶¯
Ġà¶ħ à¶¶
à¸ŀ à¸ļà¸§
à¸Ħà¸° à¹ģà¸Ļà¸Ļ
à¸Ļà¸ķà¸£ à¸²à¸¢
àºŀàº½àºĩ à»ģàºķ
ear ch
ub at
ĠP re
Ġ }
Ġàºªàº°àº« àº²àºį
à»Ģàº Ł
Ġsal api
à¸²à¸¢ à¸§
Ġà¹Ģà¸£ à¸²à¸¡
à¸Ļà¹Ģà¸ŀ à¸£à¸²à¸°
à¸´ .
Ġà¸Ĺ à¸£
ĠMa o
U R
àºĻàº« àºĻ
àº²àºĽàº° à»ĢàºĹàºĶ
Ġkal ihokan
ĠD el
el s
àºĻàºģàº²àºĩ àºŀ
it le
ã ĥ
ĠàºĽàº° àºĹàº²àºĻ
c us
ik t
Ġl anaw
Ġà¹ģà¸¥à¸° à¸Ħ
à¸¢à¸¡ à¸Ĺ
Ġcom ment
à·Ĥ à¶Ń
es e
à¶ļ à¶¸à¶ļ
ĠG en
Ġka ayong
Ġà¶ĭà¶´ à¶ļ
àºĻàºĽàº° à»Ĥàº«àºį
Ġyo u
ih a
ĠCom une
Ġà¶Ĵ à¶ļà¶§
å ¤
Ġs ol
à¹Ģà¸§à¸¥ à¸²à¸Ļ
à¸ļ à¸Īà¸²à¸ģ
à¸ª à¸łà¸²à¸ŀ
Ġà¶º à·ħ
Ġd aw
S uba
ap os
66 7
ĠàºĽàº° àºĹ
v ille
à¸Ľ à¸§à¸Ķ
à¸į à¸ģ
à¹Ĥà¸Ħà¸£ à¸ĩà¸ªà¸£
ic ation
und alo
àºª àº²àº«àº°àºģ
Ġs eg
ĠV i
Ġà»ĥàºĻàº Ĥ
ĠAm ahan
à¹ģ à¸Ńà¸¥
à¸Ńà¸ĩ à¹Ħà¸Ĺà¸¢
à¸Ħà¸§à¸²à¸¡ à¸¡
à¹Ĥà¸Ķà¸¢ à¸Ĺ
à¸Ĺà¸³à¸Ħà¸§à¸²à¸¡ à¸ªà¸°à¸Ńà¸²à¸Ķ
à¸¡ à¸ĭ
à¸Ķ à¹Ģà¸Ĺ
à¸ģà¸²à¸£ à¹Ģà¸Ľà¸¥
à¸§à¸¢à¸Ħà¸§à¸²à¸¡ à¸ªà¸°à¸Ķà¸§à¸ģ
Ġstanovn iÅ¡t
Ġàº§ àº½
à¶»à¶ļ à¶¸
ĠG ro
Ġbul ak
ag a
on o
Ġà¶Ĩ à¶Ń
Ġbu ot
à¸ķà¸£ à¸ĩà¸ģ
à¹Ģà¸Ī à¸²à¸°
à¸ī à¸¥
à¹Ģà¸ģà¸¡ à¸Ļ
Ġà¸ļ à¸²à¸£
à¸Ļ à¸ŀà¸£à¸°
à¸Ńà¸Ļ à¹ģà¸ģ
à¸Ĺà¸¢ à¸²à¸Ļ
Ġn ahimong
àºģàº²àºĻ à»ĢàºĽ
Ġpag ban
Ġà¶¢ à¶½à¶º
à»ģ àºį
ĠG e
à¸Īà¸° à¹Ħà¸Ľ
Ġl ig
Ġà¸Ļ à¸Ńà¸ģà¸Īà¸²à¸ģ
Ġà¸ģà¸£à¸ģ à¸İà¸²à¸Ħà¸¡
at ing
77 77
Ġtek n
Ġà·ĥà¶¸ à¶±
à¸¡ à¹Ģà¸ŀ
à¸¨ à¸¥
à¸Ł à¸Ł
à¸²à¸ĩ à¹ĥà¸Ļ
à¸Ħà¸§à¸²à¸¡ à¸Ĭ
Ġàºª àº³àº¥
Ġmag k
x y
à¸ĩ à¹Ģà¸«à¸¥
à¸Ķ à¹Ģà¸ľà¸¢
à¸²à¸Ļ à¸ľ
à¸Ńà¸ĩ à¹Ģà¸Ķ
à¸Ńà¸ĩ à¹Ģà¸ģ
à¸ļ à¸Ħà¸Ļ
ĠT ungod
à»Ģàºŀ àºĶ
à¶¥ à¶º
Ġà¶ļ à·ĥ
n d
I G
Ġnak a
so ft
Ġt ulo
à¹Ģà¸Ńà¸ĩ à¸ģ
à¸ģ à¹Ģà¸ŀ
à¸Ĥà¸Ńà¸ĩ à¸¥
à¸Ļà¸Ń à¸²à¸«à¸²à¸£
Ġà¸Īà¸° à¹Ħà¸Ķ
à¹Į .
àºŃàºĩ à»ĦàºĶ
ĠDav id
à¹ģà¸¥à¸° à¸Ħ
Ġb ugnaw
usa ng
Ġ aw
c i
à¸ĩ à¹Ģà¸Ļ
à¸Ķ à¸²à¸§à¸Ļ
à¹Ĥà¸ŀ à¸ªà¸ķ
Ġimp ormasyon
àºĹàº°àºį àº²àºªàº²àºĶ
S outh
Ġbat an
Ġu l
un ong
à¸ļà¸£ à¸¡
àºĻ à»ĢàºĹ
ĠK ita
àºĽàºŃàºĶ à»Ħàºŀ
àºŃ àºĬ
u ck
à¸ļ à¹ĥà¸Ļ
à¸²à¸¡ à¹Ģà¸Ļ
ad or
à¸¢ à¸Ħ
ĠU p
àº²àº¡ àº°
ir k
et work
àºĩàº« àº²
Ġà¶ ¥
à¸Ļ à¹ĥà¸Ļà¸ģà¸²à¸£
à¸²à¸Ļ à¹Ħà¸Ľ
à¸²à¸ĩ à¸¥
àºĽàº°àºĹàº²àºĻ àº²àºĹ
a ir
is mo
àºģ àº«
!! !!
à¸ķ à¸²à¸¥
à¸²à¸ķ à¸²à¸¡
à¸Ļ à¹Ģà¸§
Ġ à¸Ħà¸§à¸²à¸¡à¸£
à¸Ńà¸¢ à¹ģà¸¥
à¸£à¸ĩ à¸Ħ
à»ģàºķ àºģàºķ
v iew
àº¡ àºĽ
ĠC ond
ro d
Ġà¸«à¸¥à¸§à¸ĩ à¸ŀ
àºĶàºĹ àº°àºª
àº² à»ģàºĤàº§àºĩ
et h
à¸¡ à¸²à¸Ļ
à¸§ à¸²à¸Ļ
à¸ļ à¸Ńà¸¢
à¹Ģà¸Ī à¸Ń
à¸ªà¸° à¸ªà¸¡
à¸Ĭ à¸Ĭ
à¸³ à¸¢
à¸ģ à¹ĥà¸«
à¸ģ à¹Ģà¸ļ
el d
Ġbar angay
àºĸ àº²àºļ
àºŃàº² à»Ģàº¡
say a
àºŃàºģ àºķ
à¸£ à¸²à¸ĩà¸§
à¸§à¸¢ à¸Ĥ
Ġà¸ģà¸²à¸£ à¸Ī
à¸Ńà¸²à¸«à¸²à¸£ à¸Ĺ
Ġà¹Ĥà¸Ľà¸£ à¹ģà¸ģà¸£à¸¡
Ġà¶´à·Ģà·ĥ à¶±
O L
Ġm ok
ikip edia
ĠK risto
Ġà¶¸ à¶º
Ġà¶¯ à·Ħà·ĥ
t ion
Ġpan on
on ia
à¸Ķ à¸ŀà¸¥à¸²à¸Ķ
à¸£à¸²à¸ ©
à¸§à¸²à¸ĩ à¹ģà¸ľ
à¸³ à¸Ī
is ion
Ġin st
am i
ĠS ur
Ġà¶´ à·Ħà¶»
Ġn e
à¸¢ à¸²à¸ĺ
à¸²à¸Ļ à¹Ģà¸£
Ġà¶» à¶«
à¸Ĭ à¸³à¸£à¸°
à¸ģà¸²à¸£ à¸ľ
à¸²à¸£ à¸ĵà¸°
à¸²à¸Ļ à¹Ģà¸Ĥ
à¸Īà¸° à¹Ģà¸¥
à¸£à¸²à¸ ¨
ĠS outh
av e
àº²àºĻàº Ĭ
ic o
uga t
à¹ģ à¸§à¸£
à¹Ģà¸ĺ à¸ĳ
à¸¢à¸ļ à¸ģ
Ġà¸Ĭ à¸Ļ
à¸Ńà¸ª à¹Ģà¸ķà¸£
à¸Ħà¸Ńà¸Ļ à¹Ĥà¸Ķ
à¸ĩà¸Ń à¸²à¸¢
Ġp ost
ĠIntern ational
ĠàºŃ àº²àºĬ
Ġ à»ĦàºĬ
ib il
à¸Ńà¸° à¹Ħà¸£à¸ģ
à¸Ńà¸Ļ à¹Ħà¸Ķ
à¸ļ à¹ĥà¸«
Ġà·Ħ à¶Ń
àºģàºªàº° àºĻàº°
Ġà»ĤàºĶàºį àºªàº°à»Ģàºŀàº²àº°
Ġka uban
àºĶàºĹ àº°àºĻàº°
à¶ºà¶§ à¶¸
ã Ģ
Ġ> >
Ġ er
à¸ĺ à¸¢à¸¡
à¸ĩà¸Ĺ à¸²à¸ĩ
à¸§à¸Ļ à¸ª
à¸ģà¸£à¸°à¸ļ à¸§à¸Ļà¸ģà¸²à¸£
à¸ģà¸© à¸²à¸ª
ĠstanovniÅ¡t va
à¸Īà¸° à¹Ģà¸£
Ġpagp ili
àºªàº°àº« àº§
àºļ à»ģàºļàºļ
Ġpagpal ambo
àº§ àºĤ
n ing
à¸Ħ à¹Ģà¸ģ
Ġà¸Ķ à¸£
à¸Ķà¸ģà¸²à¸£ à¸Ĺ
à¸ªà¸³à¸£ à¸§à¸Ī
à¹Ĥà¸¥à¸« à¸°
à¸£à¸ĸ à¹Ħà¸Ł
à¸Ńà¸¢ à¸ª
Ġà¶ħ à·Ħà¶±
à¸Ńà¸ģ à¹ĥà¸Ĭ
Ġà¸Ķ à¸Ńà¸ģ
à¹Ģà¸ĺà¸ĳ à¹Ģà¸ĺ
à¹Ģà¸ Ŀ
à¸Ļ à¹Ģà¸Ń
à¸Ĳ à¸Ńà¹Ģà¸¡à¸£
à¸£à¸²à¸Ĭ à¸ª
Ġà·Ģ à¶łà¶±
Ġkinatib uk
255 4
il ed
ĠD istr
Ġlok al
k u
asa b
ĠFern ando
Ġis da
Ġà¹ģ à¸Ļ
à¸Ńà¸ĩ à¸Ńà¸¢
ak pan
àºŃ àº²àºį
Ġà¶ħ à¶³
Ġk ong
Ġà¶ļ à·Ģà¶¯
Ġun ta
u f
st er
à¸µ )
à·Ģ à·Ħ
Ġà¸ģ à¸£à¸¡
à¸Ĺ à¸¯
à¸²à¸Ľ à¸¥
M S
à¸ªà¸¡ à¸Ħà¸§à¸£
yst em
à¸ļ à¸³à¸£
àºĻ à»Ģàº®
ĠG re
66666666 67
Ġh im
oh n
à¸Ńà¸ĩ à¸ģà¸¥à¸²à¸ĩ
Ġà¹ģ à¸§
à¸Ļà¸Ń à¸²à¸Ĺ
à¸Ĺ à¸Ļ
à¸§à¸ĩ à¸ģà¸²à¸£
à¸ģà¸³ à¸ģ
à¸Ńà¸¢ à¹ĥà¸«
à¸Ńà¸ĩà¸Ħ à¸³
ap il
say ud
à¶± à¶ļà¶§
Ġà¶ħà·Ģ à¶¯
ĠM al
ik anan
F A
255 7
àº²àº¥ àº°
1 000
ĠI kaw
à»Ģàº« àºĻ
ĠEs piritu
à¸² à¹ģà¸Ĥ
àº² à»ģàº¥àº°
à¸¢ à¸«
à¸Ńà¸Ļ à¸Ħà¸¥
àºģà»ĤàºĻà»Ĥàº¥ àºĬ
à¸Ļ à¸Ľà¸£à¸°à¸Īà¸³
p ag
àº¥àº° àºĪ
ing s
à»ģàºĤ àºĩ
ĠCh ar
M at
P I
ĠàºĻàº°àºĦ àºŃàºĻàº«
àºģ à»ģàºĤàº§àºĩ
Ġà¶ĳà¶ļ à¶Ł
at ed
inga li
àº² à»Ŀàº²àºį
ĠI I
Ġà¸¡à¸ģ à¸£à¸²à¸Ħà¸¡
m ad
il y
Ġs ini
àºĶ à»ĢàºĬàºį
ab a
àºŃàºŃàºģ à»ģàºļàºļ
el a
Ġnak ad
Ġà·ĥà¶¸ à¶º
Ġà¶ļà·ħ à·Ħ
à¸Ĺ à¹Ĥà¸Ł
à¸ļ à¹Ģà¸Ħà¸¥
à¸Īà¸° à¹Ģà¸ģ
Ġà¸Ļ à¸²à¸ĩ
à¸ĩ à¹ģà¸ļà¸ļ
à¸ª à¸ł
à¹ĥà¸Ļ à¸£à¸°à¸Ķ
à¸£à¸²à¸Ħ à¸²à¸Ĺ
b r
ĠÂ «
Ġà¶¢ à¶±à¶º
à»ģ àºĬ
Ġà¶ĭà¶´ à¶±
Ã³ n
à¶³ à¶¸
à¸Ħà¸¥ à¸²à¸ģà¸£
à¸° à¸ķ
Ġà¸Ī à¸£
à¸łà¸²à¸¢ à¸«à¸¥
à¸ī à¸°à¸Ļ
ĠC ap
à¹ģ à¸ļà¸ķà¹Ģà¸ķà¸Ńà¸£
ĠK ag
S T
Ġig soon
an ong
à¸²à¸ĩ à¸«
à¸²à¸ŀ à¸§à¸ģ
à¸¡ à¸²à¸Ķ
à¸«à¸¡à¸²à¸¢ à¸Ħà¸§à¸²à¸¡à¸§
Ġ à¸£à¸²à¸Ĭ
à¶» à¶·
ĠS ak
lo ck
Ġs em
à¸Ń à¸Ĺà¸³
à¸ģ à¹Ħà¸Ľ
à¸° à¹ģà¸Ļà¸Ļ
à¸Ńà¸Ļ à¹Ģà¸Ķ
Ġh e
Ġà¸Ĭ à¸¡
1 30
àºĻ à»Ģàº¡
ã Ħ
à¶Ķ à·Ģ
Ġka k
àº§àº½àºģ àºĩàº²àºĻ
Ġà¶Ń à·Ħà¶±
àº²àº° àºª
ĠSk upÅ¡t
ĠL ine
ap y
à¸ģ à¹Ģà¸Ķ
à¸Ķ à¹ģà¸ķ
à¸Ľà¸£à¸° à¸«à¸¢
Ġà¹Ģà¸£ à¸²à¸Īà¸°
ur al
Ġu ma
Ġpro pes
àºģàº²àºĻàº ľàº°àº¥
ĠDe sa
à¸ª à¸²à¸Ĥ
à¸Ħ à¸Ħ
à¸Ĭà¸Ļ à¸°à¹Ģà¸¥
à¹Ģà¸ľ à¸¢à¸§
à¸Ĥ à¸ª
Ġmo adto
Ã ±
àº¡ àºŀ
Ġà¶ħà¶Ń à¶§
-------- --------
àºĶàºļ àº²àºĶ
à¶´ à¶§
Ġpinak aduol
Ġà¸Ħ à¸Ļà¸Ĺ
Ġà¹Ģà¸Ķ à¸Ńà¸°
ingk asing
à¸Ļ à¹ģà¸ģ
Ġà¸ª à¸ĸà¸²à¸Ļà¸Ĺ
à¸ķ à¸Īà¸²à¸ģ
Ġà¸ª à¸§
Ġà»Ģàº ļ
la in
Ġà¶ĭ à·ħ
ir i
Ġnag at
ĠPh Æ°á»Ŀng
Ġà¶ħà¶» à¶±
Ġà¸« à¸§à¸¢
à¸ģ à¸Ĭà¸Ļ
Ġà¸ģà¸£à¸° à¹Ģà¸Ľ
Ġlu uk
ol oh
Ġà¶¶ à·Ģà¶ļ
Ġàºģ àºŃàºĩàºĽàº°àºĬ
pes yal
Ġb r
y d
à¶ºà¶ļ à¶ºà¶±
d on
à¹ģ à¸Ńà¸ļ
à·Ĥà¶« à¶ºà¶ļ
à¸Ĥà¸Ńà¸ĩ à¸Ń
à¸ģ à¸Ńà¸ĩà¸Ĺ
à¸ļ à¹Ģà¸Ħà¸£
Ġà¹Ĥà¸Ķà¸¢ à¹Ħà¸¡
à¹Ĥ à¸«
im it
Ġpagd umala
Ġl e
àºĩ àºģàº²àºĻàºª
à¸ļ à¸Ľà¸£à¸ª
à¸³ à¹Ģà¸ĩ
à¸ģà¸©à¸² à¹Ĥà¸£à¸Ħà¸ªà¸°à¹Ģà¸ģ
à¸²à¸Ľ à¸£
à¸ªà¸Ńà¸ļ à¸ĸà¸²à¸¡
à¸ĩà¸§ à¸¥
ah igayon
Ġb uh
ĠI yang
ĠF r
at ch
Ð º
Ġà»ĥàºĻàº Ľ
Ġà»ĥàºĻàº ¥
Ġp orn
ar yo
à¸ĩ à¸©
à¸¢ à¸Ńà¸ĩ
à¸ļ à¸Ńà¸£
à¸Ń à¸²à¸Ĺ
Ġsa b
Ġà¹Ģà¸§ à¸¥
à¹ģà¸¥à¸° à¹Ģà¸Ľ
à¸§ à¹Ĩ
à¸²à¸ģ à¸§
Ġpop isu
âĢ¦ ]
Ġl ag
à»ģ àºŃ
àº²àºĩ àºļ
àº²àºĻàºĽàº° à»ĢàºĹàºĶ
ber g
Ġor as
à¸Ĭ à¸²à¸Ĭ
Ġà¹ģà¸¥à¸° à¸§
à¸İ à¸£
à¹ĥà¸Ļ à¸¢
Ġà¹Ģà¸ŀà¸£à¸²à¸° à¸¡
à¸Ľà¸£à¸°à¸ª à¸ļà¸Ħà¸§à¸²à¸¡à¸ªà¸³à¹Ģà¸£
up o
et e
àº½àºĩ à»ģàºķ
A P
w it
ali f
ab l
Ġà¸ŀ à¸¤à¸©à¸łà¸²à¸Ħà¸¡
Ġad min
Ġà¶Ń à·Ħà·Ģ
àºģ àºļ
àº²àºĻàºĻ àº²àºį
Ġàºģàº²àºĻàº ®
Ġà¶¢ à¶±à·Ģ
c c
Ġà·ĥ à¶º
à¸Ľà¸£à¸° à¸ĺà¸²à¸Ļ
à¸³ à¸ŀ
à¹Ģà¸¢ à¸Ńà¸£
à¹ģà¸¥à¸° à¸Ĥ
ah um
Ġp o
Ġà¶Ĩ à¶±
' '
eg al
àºĻàº³ à»ĥàºĬ
ĠB a
Ġà¶Ń à¶¯
Ġà¶» à·Ħà·ĥ
à»ĢàºŃàºģ àº°àºª
à¶§ à·ħ
àºĶàºĹàº°àºĻàº° àºĹàº³
à¸¡ à¸łà¸²à¸©
Ġà¹Ģà¸ ī
à¸¡à¸« à¸²à¸Ĭà¸Ļ
j en
Ġt i
emp lo
Ġmak ak
Ġàºŀàº° àºĪ
Ġb ungtod
ad d
Ġà·Ģ à¶º
ĠàºĽàº° àºĪàº³
à¸Ĭà¸² à¹ģà¸¥
à¸Ńà¸¢ à¸Ļ
ug u
à¸Ħ à¸Ĺ
à¸Ī à¸Ńà¸Ķ
ĠBer lin
àºª àº²àºį
ã Ĥ
201 9
Ġpro s
Ġpagp am
à¸§à¸ĩ à¸Ļ
Ġà¹Ģà¸¡ à¸©à¸²à¸¢à¸Ļ
à¸Ķ à¸«à¸§
Ð »
à·ĬâĢ Ļ
w al
ĠI P
1111 1111
Ġà¶ļà¶» à¶Ń
ĠP lay
à¹ĥà¸Ļ à¸Ľà¸£à¸°à¹Ģà¸Ĺà¸¨
à¸§à¸Ļ à¸ľà¸ªà¸¡
à¸ļà¸ª à¸ĸ
à¸Ī à¸Ńà¸¡
à¸Ļ à¸łà¸²à¸ŀ
Ġà¸Ī à¸³à¸«à¸Ļ
à¸² à¹ģà¸¡
àºģ à»Ĩ
Ġà¶ī à·Ģà¶»
ĠC l
à¸ļ à¸²à¸ģ
à¹Ģà¸ª à¸ĺ
à¸¡ à¸¨
à¸²à¸ŀ à¹Ģà¸Ī
à¸ļ à¸Ł
Ġà¸Ľà¸£à¸° à¹Ģà¸łà¸Ĺ
àº«àº¡ àº²àºį
I M
Ġà¶¸à·Ħ à¶¢à¶±
ĠP er
à¸ļ à¹Ģà¸Ī
à¸Ļà¸Ľà¸£à¸° à¸ĺà¸²à¸Ļ
à¸²à¸ĩ à¸ŀ
à¸²à¸ģ à¸£à¸°
à¸²à¸¢ à¸Ħ
à»Ģàº« àº¥
àºªàº° àºĶ
Ġà¶ĩ à¶Ł
Ġà¶Ńà¶» à¶ľà¶º
ĠH e
àºĤàºŃàºĩ àºķ
on us
Ġiznos i
à¶»à¶ļ à¶®
ĠW orld
à¸²à¸§ à¸ĸ
à¸ł à¸²à¸£à¸ģ
à¸Ńà¸Ń à¸²à¸Ĭ
à¸¡à¸łà¸²à¸© à¸ĵ
à¸Ķ à¸ĩ
à¹Ĥ à¸Ħà¸Ļ
à¹ģà¸¥à¸° à¸ľ
à¸§à¸Ļ à¸¥à¸Ķ
à¸ĩ à¹Ģà¸Ħà¸£
à¸¨ à¸²à¸Ī
Ġà¸Īà¸° à¹Ģà¸Ľ
Ġg ani
ap as
Ġ qu
p as
16 0
Ġàº¥ àº°àºļ
co in
à¸ĵ à¹Ħà¸¡
à¸ĺ à¸¢à¸²
à¸Ńà¸ļ à¸Ĺ
à¸ĩà¸« à¸§à¸¢
à¸Ļà¸Ĺà¸²à¸ĩ à¹Ħà¸Ľ
Ġà·ĥ à·Ģ
àº¡ àºŃàºļ
à¶ľà¶½ à¶ºà¶±
Ġin s
Ġkan i
ĠD a
est a
àºŀàº²àºģ àºª
àºļàº® àºŃàºĩ
à»ģàºľ àºĻàºģàº²àºĻ
Ġà¶Ĩ à¶½
àº® àºŃàºĩ
à¶ľà¶¸ à¶±à¶º
y t
k m
à¸Ļ à¹Ħà¸Ĺà¸¢
à¹ģà¸Ļà¸§ à¸Ħ
à¸¢ à¸§à¸Ļ
Ġà¸ª à¸¥
Ġà¸Ĥ à¸ĵà¸°
o f
Ġp ab
à¸łà¸²à¸©à¸² à¹Ħà¸Ĺà¸¢
à¶´ à·ħ
ind ex
Ġkad aghanan
Ġà¶īà¶³ à¶½
is k
à¸ º
Ġ à¹ĥà¸«à¸¡
à¸¡ à¹Ģà¸£
Ġà¸ª à¸²à¸£
à¸Ļà¸ŀ à¸Ļ
à¸Ķ à¸Ńà¸ģ
à¹ģà¸¥à¸° à¸Ń
a in
à¶ī à¶±
ĠF l
àº²àºŀ àº§àºģ
Ġv al
b e
Ġgab ii
à¸¢ à¸Ĥà¸Ńà¸ĩ
à¸ļ à¸«à¸¥
à¸²à¹Ħà¸Ľ à¹ģà¸¥
à¸Ļ à¹Ģà¸«à¸¡
à¸§à¸¢ à¸¡
Ġà¸Ļ à¸Ħà¸£
à¸§ à¸ŀ
à¸² à¹ĥà¸Ħà¸£
à¸ªà¸²à¸¡à¸²à¸£à¸ĸ à¹ĥà¸Ĭ
ery al
ĠK r
à¶»à·Ħ à¶«à¶º
ĠO s
à¶º à¶¸à¶ļ
m un
Ġà¶Ń à¶½
Ġ[ âĢ¦]
R E
à¸ļ à¹Ģà¸ļ
Ġà·ĥà¶¸ à·ĥ
à¸²à¸ĺ à¸£à¸£à¸¡
Ġà¸ŀà¸§à¸ģ à¹Ģà¸Ĥ
Ġà¸«à¸¥à¸§à¸ĩ à¸Ľ
à¸²à¸¢ à¸Ń
Ġà¹ģà¸¥à¸° à¸ľ
à¶ľà¶Ń à¶º
à¶Ń à¶ºà¶±
ĠP ort
à¸£à¸²à¸ Ķ
id ente
à¸ģ à¸ªà¸Ļ
Ġà¸Ħà¸§à¸²à¸¡ à¸Ħ
à¸Ĭ à¸į
à¸ŀà¸¤ à¸ķ
Ġà·ħ à¶¸
P rema
à»Ģàº« àº¡
Ġka han
àº²à»ĥàºĪ à»ĥàºª
ah e
à·Ģà¶½ à¶¯
Ġmahit abo
ĠH uman
àºĩ à»Ģàºģ
àº²àºĦ àº°àºĻàº°
ug h
à¸ĺ à¸ł
à¸£à¸²à¸ Ī
à¸ļà¸Ĺ à¸ļà¸²à¸Ĺ
à¸²à¸Ńà¸¢ à¸²à¸ģ
Ġmay tag
Ġpagt abang
à¶ĩ à¶Ń
àº¥àº° àºŃ
Ġà¶ī à·Ħà¶½
àºªàº³ àº¥
ond on
Ġà¶ľ à·Ħà¶±
àº²àº«àº²àºģ àº§
Ġàºŀàº§àºģ à»ĢàºĤ
ĠDistr ict
N ag
F iled
à¸¥à¸ĩ à¹Ģà¸¥
à¸ļà¸Ħ à¸Ļà¸Ĺ
à¸Ńà¸Ļ à¸³
Ġà¶ħà¶º à¶ľ
à¸ĵ à¹ģà¸¡
à¶± à¶ľà¶±
ĠS T
Ġind ustr
ĠW eb
enc y
à¸Ļ à¸Ńà¸ģà¸Īà¸²à¸ģà¸Ļ
à¸Ķ à¸ŀà¸£à¸°
à¸²à¸ĩ à¹Ģà¸ŀ
à¸Ī à¸¡
à¸ģà¸²à¸£ à¹Ģà¸ŀ
33333333 333
à¸ģ à¸Ĭà¸²à¸¢
ĠReg ion
àº²àº« àº²àº¥
Ġh usto
à¶³ à¶º
àºĩ à»ĢàºĤàºĶ
ĠP C
Ġà¶ĩ à¶ºà¶§
àºŃ àºĤ
à¹Ĩ à¸ģ
Ġà¸Ń à¸°
à¹Ģà¸ĭ à¹Ĥà¸¥
à¸²à¸ĵ à¸²à¸Ī
à¸² à¸²
est er
Ġsub a
Ġà¶¸ à¶©
àº² à»Ģàºĸ
Ġà¶ĳ à¶¶
Ø §
àºĶ à»ĢàºĽ
ch e
àº¡ àº¡
Ġ à¸łà¸²à¸¢à¹ĥà¸ķ
à¹ģ à¸Ľà¸£
à¸£à¸²à¸¢ à¸Ĭ
à¸³ à¸ģà¸§
C D
and am
àºĩàº²àºĻàº ª
Ġtag a
àºį à»ģàºľ
Ġuga hon
à¸²à¸Ļ à¸¢
Ġà¹ģ à¸Ľà¸¥
à¸Ńà¸Ķ à¸Ķà¸³
à¸ģà¸Ĺà¸£ à¸Ńà¸Ļ
à¸§ à¸²à¸£
à¸Ĺ à¸¡
à¸ļ à¹Ģà¸ģ
Ġà»ģ àºľ
n an
Ġà¶» à·Ģ
à»ģ àºĻàºģ
Ġtali wala
Ġà¶¸ à¶Ńà¶º
Ġperson al
à¹ģ à¸Ńà¸ŀ
à¸²à¸Ļ à¸ļ
à¹ĥà¸Ļ à¸¥
à¸Ħ à¸ķ
à¸²à¹ģ à¸Ĭà¸¡à¸Ľ
à¸ķ à¸Ń
Ġnag lakip
oy al
àºĶ àºĦàº§àº²àº¡
un hod
à¶ľ à¶§à¶¸
ĠT ur
à¸¡ à¸ģà¸²à¸£
à¸¡ à¹Ħà¸¡
à¸£à¸° à¸ģ
à¸²à¸§ à¸ķ
à¸²à¸Ī à¸Ń
à¸ģà¸£à¸° à¸Ĭ
à¸Ķ à¹ģà¸¥
Ġà¸ª à¹Ģà¸Ľ
à¸§à¸¢ à¸¥à¸Ķ
àº²àºį àºĤ
m ay
ĠH ar
Ġà¶ħà¶´ à·Ħà·ĥ
emb ro
R R
àºļ àº«
à»ĢàºĪ àºį
er i
o han
ĠT ra
Ġk ur
à¸Ļ à¸£à¸ĸ
à¸²à¸ĩ à¹Ģà¸ķ
à¸ĵ à¸Īà¸°
à¸Ńà¸ļ à¸Ń
à¸ģà¸© à¸²à¸ķ
à¸ĩà¸ª à¸³à¸«à¸£
Ġà¹ĥà¸Ļ à¸ģà¸²à¸£
à¸Ħ à¸Ńà¸£
à¸²à¸Ĺ à¸£
àº² à»ĥàº«
l ia
àºĶ à»Ģàº¥
Ġà¶º à¶¸à¶ļ
Ġhangt ud
ĠYot suba
79 2
àºĩàºĪàº²àºģ àºĻ
âĢĭ .
Ġb usa
ent al
àºĶ àºĽàº°àºª
Ġà¹ģ à¸Ļà¸°à¸Ļà¸³
à¹Ģà¸Ĭ à¸ªà¹Ģà¸ķà¸Ńà¸£
à¹Ģà¸«à¸¡à¸²à¸° à¸ģ
à¸ĩ à¸Łà¸£
à¸²à¸Ļ à¸Ĥà¸Ńà¸ĩ
à¸ĩà¹Ģà¸ģ à¸ķ
à¸ĺ à¸£
ov rÅ¡
un sa
à¶ľ à¶ºà¶§
L D
11 7
à¸Ĭ à¸²à¸£
am es
g bot
à¹Ģà¸Ń à¸²à¸ģ
à¸£à¸²à¸© à¸İà¸£
à¸Ķ à¸Ľà¸ģà¸ķ
à¸²à¸ĩ à¸Ĭà¸²à¸ķ
à¹Ģà¸ľà¸¢ à¹ģà¸ŀà¸£
à¸ļ à¸ľà¸¡
ed ro
àºŃàºĻàº ¥
Ġm ore
, âĢĿ
Ġpan im
Ġà¶ľà¶« à¶±à¶ļ
Ġkamat ayon
Ġs ukad
ĠàºĽàº° àºģàºŃàºļ
id o
Ġà¹ģà¸¡à¸Ļ à¹Ģà¸Ĭà¸ªà¹Ģà¸ķà¸Ńà¸£
à¸Ľà¸£à¸°à¸ģà¸§ à¸Ķ
à¸Ķ à¹ĥà¸Ī
b ukid
àºŃàºĩ àºĪàº²àºģ
à¸§ à¸ľ
10 8
àºĩ à»ĦàºĽ
àºģ àºģàº°àºķ
im ong
Ġà¶ĭ à¶±à¶Ń
à·ĥ à¶¯
Ġà¶ĳ à¶¢
à¸Ńà¸Ļ à¸Īà¸°
255 6
à¸Ħà¸³ à¸ª
à¹Ĥà¸Ķà¸¢ à¹ĥà¸Ĭ
àºĻ àºģàº²àºĻàºª
Ġà¶ħà·Ģ à¶¸
et ing
Ġmi adto
à¹Ģà¸ĭ à¸¥
à¶© à¶½
d i
Ġl ac
Ġp und
200 6
j eni
à¶± à·Ģà¶±
âĢ¦ âĢ¦
ĠC hi
ĠAl l
à¸Ńà¸Ļ à¸¢
à¹ģà¸¥à¸° à¸ŀ
à¹Ĥ à¸Ńà¸¥
adr id
à¸Ħà¸Ħà¸¥ à¸Ĺ
or ma
à¹Ħà¸ĭ à¸Ķ
ĠT hai
M A
àºŃàºĻàº §
àºĻ àºŃàºģ
àº¥àº° àºĻ
Ġàºªàº°àº« àº°àº¥
" .
Ġlal ake
à¸ģà¸¢ à¸łà¸²à¸ŀ
à¹Ģà¸Ĺà¸¨ à¸ģà¸²à¸¥
àº¡ àºĤàºŃàºĩ
to g
àºŃ àº²àº«àº²àºĻ
ĠH er
à¶Ķ à·Ħ
Ġk un
à¶»à¶¸ à¶ºà¶ļ
àºģàº²àºĻ à»ĢàºĦ
al am
à·ı )
10 5
àºŃ àºĻàºķ
Ġc l
à¸Ļà¹Ģà¸Ĺ à¸Ńà¸£
à¸²à¸Ľà¸£à¸° à¸ķ
ĠG ip
à¸Ļ à¸Ńà¸ģà¸Īà¸²à¸ģ
b al
C h
ĠB as
on an
i as
ĠJ uan
H ome
Ġmat eryal
ĠD es
ĠGr and
Ġdis enyo
ĠG ingharian
and a
Ġ à¸«à¸¥à¸²à¸¢
à¸§à¸¢ à¸£
à¸Ħà¸§à¸²à¸¡ à¸«à¸¡à¸²à¸¢
Ġà¸ª à¸Ļà¹ĥà¸Ī
à¸ĩ à¸Ł
Ġà»ĥàºĻ àºĻ
ĠOn line
Ġà¶Ńà·Ħà¶± à¶¸
àº¡ àºªàº°àº«
Ġà¶¶à¶» à¶´à¶Ń
àº¡àºĹ àº°àº§
ay aw
à¸Ķ à¸«à¸£
à¹Ģà¸Ľ à¹Ģà¸Ľà¸Ńà¸£
à¸ģà¹Ģà¸ª à¸ļ
à¸Ħà¸³ à¸§
à¸Ńà¸ĩ à¸Ľà¸£
Ġàºģàº²àºĻàº ļ
ik uha
Ġpropes yonal
àºĶàºĹàº°àºª àº²àºĶ
oloh iya
Ġp red
n og
ĠM adrid
à¸Ħà¸³ à¸ĸà¸²à¸¡
à¸Ńà¹Ħà¸Ľ à¸Ļ
Ġs red
ĠPag k
àº² à»Ħàº¡
ĠN ational
ug p
ĠS il
à¶Ń à·Ģà¶Ń
Ġà¶±à¶ľ à¶»
à»ĥ àºļ
à¹ Ļ
à¸ĩà¸Ķ à¸ĩà¸²à¸¡
à¸¥à¸ĩà¸Ĺ à¸°à¹Ģà¸ļ
à¸Ļ à¹Ģà¸ģà¸¡à¸ª
à¸²à¹ģ à¸£à¸ģ
ĠC am
à»Ĥ àºģ
à»ĥàºĻàº «
àºŃ àºĽ
Ġlak ip
à¸ļ à¹Ħà¸§
à¸ļ à¹Ģà¸£à¸²
Ġl um
à¹Ģà¸ĺ à¸į
à¸Ķà¸³ à¸£à¸ĩ
Ġc ont
Ġà¶º à¶ļ
Ġun say
Ġà¶ĭ à¶ľ
âĢĻ âĢĻ
à¶»à¶® à¶¸
j elo
Ġkond ili
à¸ĩ à¹ģà¸ģ
à¸§ à¹ģà¸Ĺà¸Ļ
à¸µà¹ī .
à¸Ļà¹Ĥ à¸į
à¹Ĳ à¹Ĳ
à¹ĥà¸Ļ à¹Ģà¸¡
à¸Ńà¸¡ à¸²
Ġà¸Īà¸° à¸ķ
à·ĥ à·Ģ
ĠK om
Ġpag sa
Ġà¶Ń à¶±à¶Ń
ĠM e
àº²àºį àºª
àºªàº° à»Ģà»ľ
Ġindustr iya
Ġà¸ģ à¸£à¸°à¸Ķ
Ġmak ig
à¸²à¸Ļ à¹Ģà¸Ľ
av a
ĠM in
àº²àºį àºĶ
Ġàºģàº²àºĻàº Ľ
ĠSan to
à¸¡ à¹Ħà¸Ľà¸Ķ
à¸¢ à¸ģà¸£
à¸Ńà¸ĩ à¹Ģà¸Ĭ
ĠEd ge
à¸Ńà¸ĩ à¹Ĩ
Ġà¸ª à¹Ģà¸ķ
ĠK ar
à¸¡ à¸Ńà¸¢
O O
un og
ĠI m
nga w
×Ĳ×Ĳ ×Ĳ×Ĳ
à¸Ļ à¹Ģà¸«à¸ķ
à¸Ĥ à¸Ļà¸ª
Ġà¸Ĺ à¸£à¸ĩ
Ġpun to
Ġin t
Ġkal end
à¸§ à¸¥à¸°à¸Ħà¸£
àº¥ àº§àºĩ
àºĶ àº®
m on
ij i
à»ĢàºĦ àº²àº°
à¶¸à¶§ à¶º
h aw
ĠC re
àº² à»Ģàº®
àºĩàºģàº²àºĻàº Ī
à¸²à¸Ļ à¹Ģà¸§
à¹Ģà¸Ķ à¸Ńà¸£
à¸Ľà¸£à¸°à¸ª à¸²à¸Ĺ
Ġà¸ª à¸Ļ
Ġsa yo
ĠàºĻ àºŃàºģàºĪàº²àºģ
Ġn indot
Ġm on
ĠB ern
Ġhal ad
Ġà·Ģ à¶»à¶ļ
à·ħ à¶º
Ġp lano
17 0
à¸Ń à¸Ńà¸°à¹Ħà¸£
à¸¡à¸² à¹Ħà¸Ķ
à¸ªà¸ĸà¸²à¸Ļ à¸ģà¸²à¸£à¸ĵ
à¸ŀà¹Ģà¸Ķ à¸Ĺ
à¸° à¸¡
à¸Ħà¸¥ à¸Ńà¸ĩ
à¸Ļà¹Ģà¸¥ à¸ª
Ġà¹ģ à¸Ńà¸£
Ġà¸ª à¸§à¸Ļ
Ġà·ĥ à¶ļ
Ġkas ingkasing
oss ip
ang l
Ġà¶Ī à¶Ń
sal ig
à¹ĥà¸Ļà¸ģà¸²à¸£ à¹Ģà¸¥
à¸ģ à¸ģà¸¥
à¸ļ à¸Ńà¸Ļ
à¸²à¸Ļ à¸Ĥà¸²à¸¢
Ġ à¹Ħà¸Ł
à¸¥à¸ĩ à¸¡
h ag
àº°àºį àº²àºĶ
it coin
ĠA G
àº² à»ģàº¡
Ġl ik
à¸ļ à¸²à¸Ķà¹Ģà¸Ī
à¸Ńà¸¢ à¸ķ
à¸¡à¸° à¹Ģà¸£
à¸Ļ à¹Ģà¸ĭ
à¸Ķ à¹ĥà¸Ĭ
à¸²à¸Ļ à¹ĥà¸Ļ
à¸ĩ à¸«à¸²à¸£
à¸¢à¸Ļ à¸ģ
à·Ĥ à¶ļà¶º
) ;
Ġàºŀ àº°àºĻ
àºŃàºĩ àºĤàºŃàºĩ
ut om
àº§ àºĻàºĹ
Ġkag am
àºŃàºĻ à»ĦàºĤ
à¸Ĭ à¸ģà¸²à¸¥à¸Ĺ
Ġka rong
un t
à¸²à¸Ļ à¸Ńà¸¢
à¸į à¸Ĥà¸Ńà¸ĩ
à¸Ľ à¸Ļ
Ġà»Ģàº¥ àºĤ
Ġ ]
àºŃàºĩ àºĪ
ew s
y anan
Ġ å
al hin
àºĽàº° àº¡àº²àºĻ
ĠG l
àºĪàº° àº¡
Ġà·Ħ à·ĥ
à¸³ à¸§
Ġà¸ļ à¸Ńà¸¥
à¸ŀà¸£ à¸£à¸Ħ
à¸Ľà¸£à¸°à¸Ĭ à¸²à¸ª
à¸Ļà¹Ģà¸Ļ à¸Ńà¸£
à¸Ĥ à¸Ńà¸ļ
Ġpang inahanglan
àºŀàº²àºį à»ĥàºĻ
à¸ģ à¸¡à¸²à¸ģà¸¡à¸²à¸¢
Ġkat ungod
ĠN a
ÃŃ o
Ġà¶¯à¶» à¶±
àº§ àºĪ
Ġgy ud
ĠàºŃ àº²àºĶ
ĠÅ¾iv jelo
ud io
à¸ļ à¹ģà¸Ĺà¸ĩà¸ļà¸Ńà¸¥
à¸° à¸ª
à¸Ńà¸¡ à¸¡
à¸Ľà¸£ à¸²à¸ģà¸²à¸£
à¸ĺà¸£à¸£à¸¡ à¸Ķà¸²
à¹Ħà¸ĭ à¸ª
à¸į à¹Ģà¸ª
Ġà¹ģ à¸Ĭà¸¡à¹Ģà¸Ľ
à¸¨ à¸ŀ
à¸ĵà¸łà¸²à¸ŀ à¸Ķ
ĠAm er
Ġting og
ĠN e
àºĪ àº²àº¥
asal amat
Ġà¶ĳà¶ļ à¶º
Ġlib re
à¹Ģà¸Ń à¸²à¸Ĭà¸Ļà¸°
à¸ªà¸°à¸Ķà¸§à¸ģ à¸ªà¸ļà¸²à¸¢
à¸§à¸¢ à¹Ģà¸«à¸ķ
à¸¢à¸Ļ à¸§
ĠÄ ĳ
ĠL ife
Ġà¶¢à¶± à¶´à¶Ń
àº° àºģàº³
ĠG reen
p ress
ĠS P
Ġà¶ħ à·ħ
Ġv ar
an yag
f i
uha an
Ġkal iwat
à¹ĥà¸Ļ à¸ĩà¸²à¸Ļ
Ġà¹Ĥ à¸¡
Ġap p
Ġes pesyal
l ang
Ġp ubl
à»Ĥ àºĬ
à¸Ķ à¹Ģà¸¡
à¹Ģà¸Ħ à¸Ĭ
à¹ģà¸Ł à¸Ļà¹Ģà¸ŀ
à¸Ī à¸§
à¸ģà¸²à¸£ à¹ĥà¸«
Ġà¸¡ à¸²
à¸Ĺà¸³ à¸«à¸Ļ
Ġproc jeni
c eb
88 8
àº°àº«àºĻ àº²àºĶ
D A
Ġap il
U sa
ĠàºŃ àºŃàºģ
k an
Ġ ....
ĠÃ ĸ
Ġpros eso
à¸Ļ à¸ľà¸¡
à¸ŀ à¸ĺ
à¸ªà¸ĸ à¸²à¸ļ
à¸Ī à¸ª
à¸ªà¸³ à¸Ń
à¸Ń à¸ł
Ġà¸Ĺà¸³ à¹Ħà¸¡
à¸£à¸²à¸ª à¸²à¸Ĺ
Ġà¶¸à¶± à·ĥ
Ġnah itabo
Ġtub ag
ob ile
ĠAw st
v en
àºŃàºĩ àºļ
t itle
àºģàºª àº²àº«àº²àº¥
Ġà¸ļ à¸Ļ
ap at
et er
à¸Ń à¸ªà¸¡
à¸Ķ à¹Ģà¸ķ
àº§àºį àºŀ
à¹Ĥà¸Ĺà¸£ à¸Ĺ
Ġn ahimo
àºĽ àº²àºģ
Ġ ist
B C
àºĪàº° à»ĦàºĶ
ĠSug bo
à¹Ģà¸Ī à¸Ńà¸ģ
à¹Ĥà¸¡ à¸Ĺ
à¸ĩ à¹Ħà¸Ĺà¸¢
Ġ à¸Ńà¸ĩà¸¨
ĠàºŃ àº²à»Ģàº¡
ĠB al
isg ot
àº²àºĻàº ¢
àºļ àºĶ
Ġmos unod
Äįk oj
Ġà·ĥ à¶»à·ĥ
àºŃàºĻàº ŀ
ĠS r
àºĶàºģ àºŃàºĩàºĽàº°àºĬ
à¸ĵ à¸ŀ
à¹ģà¸ļà¸ļ à¸Ĺ
àº° àºĬ
àºª àº²àºģ
àº§àºį à»ĥàº«
ĠCent er
at es
l ack
Ġpanim alay
ĠP res
Ġà¶¯ à¶©
ud yante
à¸Ń à¸¨
àº²àºį àºģ
àºŃ àº®
àºĽàº°àºģ àºŃàºĻ
àº²àºĩ àºĦàº§àº²àº¡
àº³àºĻ àº²àºĶ
id ay
à¹Ģà¸Ń à¸²à¸¡
à¸²à¸§à¸Ļ à¸²à¸Ļ
à¸ģà¸²à¸£ à¸Ľ
à¸Ńà¸ĩ à¸Ħà¸£
sal uran
ing g
àºªàº° àºĸàº²àºĻàºĹ
à¶¹ à¶½
àº²àºĻàº Ĥ
Ġà¶ µ
11 1
Ġà¶¢ à¶ºà·ĥ
ĠJ ohn
Ġm ih
àº²àºį àº¢
ik ong
Ġ à¸Ŀà¸£
à¸£ à¸²à¸§
à¸Ńà¸ĩ à¸ģà¸¥
à¸²à¸ĩ à¸Ńà¸¢
à¸Ļà¸ª à¸°
à¸ģà¸²à¸£ à¹Ģà¸Ĥ
à¸ģà¸© à¸£
uhat on
Ġà¹Ĥà¸Ķà¸¢ à¹ĥà¸Ĭ
Ġgin ikanan
ĠOpÅ¡t ina
à·Ģà¶Ń à¶Ń
ĠSem alt
ĠM ore
Tag s
H E
ĠL ED
Ġpat ay
Ġb ase
z z
àºĶ à»ľ
Ġph Æ°á»Ŀng
à¹Ģà¸ģà¸¡ à¸Ĺ
à¹Ģà¸ĺ à¸Ĭ
à¸Ķ à¹Ģà¸«à¸ķ
k ong
p at
w e
àºĩ àºĦàº§àº²àº¡
àºŃàºĻàº ĤàºŃàºĩ
à¸Ļà¸ļ à¸²à¸Ħà¸²à¸£
à¸¨à¸²à¸ª à¸Ļà¸²
à¸ĩ à¸Ĩ
Ġà¹Ģà¸« à¸ķ
à¸²à¸£à¸²à¸Ĭ à¸ģà¸²à¸£
à¸Ķ à¸«à¸¡à¸²à¸¢
à¸Ĥà¸ĵà¸° à¸Ļ
à¸Ī à¸Ń
Ġà¹ģ à¸Ľ
Ġp ari
Ġà¶ħ à·ĥà¶±
Ġt amb
âĤ¬âĤ¬âĤ¬âĤ¬âĤ¬âĤ¬âĤ¬âĤ¬ âĤ¬âĤ¬âĤ¬âĤ¬âĤ¬âĤ¬âĤ¬âĤ¬
uk i
à¶ ķ
Ġs it
uga s
à»ģàºĹ àºĻ
em e
F F
àº² à»ĢàºĤ
à¸Ī à¸²à¸Ħ
à¸ģà¸²à¸£ à¸Ķà¸³à¹Ģà¸Ļ
à¸ļà¸Ħ à¸²à¸ª
à¸ģà¸£à¸°à¸Ī à¸²à¸¢
à¸Ńà¸Ļ à¸ŀ
àºŃ àºĻàºª
Ġàº¡ àº²àºĶ
Ġpagp a
àº½àº§ àºĬ
Ġà¶Ķ à¶´
on es
Ġà¶ĳ à¶Ńà¶±
-.-âĹ¼-.-âĹ¼-.-âĹ¼-.-âĹ¼ -.-âĹ¼-.-âĹ¼-.-âĹ¼-.-âĹ¼
Ġd ali
Ġs ex
le x
io us
Ġgr upo
à¸ļà¸²à¸ĩ à¸ª
àº²àºĩ àºĽàº°
à¹Ģà¸Ĺ à¸£
Ġà¹ģà¸¥à¸° à¸Ķ
ik ulo
Ġà¸ª à¸ĸà¸²à¸Ļ
Ġbul awan
Ġà¶Ĭ à¶±
àº® àºŃàºļ
Ġàºģàº²àºĻàº ŀ
à¶ľ à¶«à¶ļ
Ġgihatag an
Ġpro y
Ġn il
200 7
å ¥
à¸ĩ à¸ł
à¸ĩ à¸Ħà¸Ļ
Ġà¹ģ à¸Ńà¸ļà¸ĸ
Ġest udyante
à¸¡ à¹Ģà¸Ĥ
à¸ª à¸ĩà¸ª
à¸²à¸Ĭ à¸¡
à¹Ĥà¸Ľà¸£ à¹ģà¸ģà¸£
à¹Ĥ à¸ª
à¸ķ à¹Ģà¸Ļ
Ġn amo
p ar
ĠÄ į
is c
ĠB en
aw ala
ulat an
Ġmak as
ah am
ĠT V
ĠP e
àºŃàºĩ à»ĥàº«
à¶ºà¶½ à¶º
à¸ģà¸© à¸²à¸Ľ
à¸ªà¸Ļ à¹Ģà¸Ĺà¸¨
à¹Ĥà¸Ľà¸£ à¸Ķ
à¸¸ à¹ĭ
oc ial
Ġà¸ģ à¸£à¸ĵ
à¹Ħà¸ĭ à¸Ħ
àºļ àºĤàºŃàºĩ
t s
àºĻàºĽàº° à»ĢàºĹàºĶ
ĠD on
ans es
Ġà¶»à¶¢ à¶Ń
Ġkal ag
Ġkal ipay
ĠMicro soft
1 33
h imo
à¸ģà¸£à¸° à¹Ģà¸Ĺ
à¸ļà¸²à¸ĩ à¸Ńà¸¢
Ġgamit on
à¸§ à¹Ģà¸ģ
Ġà¸¢ à¸²à¸ĩ
à¸«à¸²à¸£ à¸Ī
à¸ģà¸¥ à¸¡
Ġà¸Ĥ à¸Ń
A n
àº§ à»ĦàºĽ
Ġà¶¯ à·ĥ
I P
àºĶ à»ĢàºĬ
Ġg ubat
ab uhi
R e
à·Ĥ à¶ºà¶§
à¸§à¸¢ à¸ĭ
à¸Ļà¸Ħ à¸Ļà¸Ĺ
à¹ģà¸¥à¸° à¸ģ
àºĶàºķ àº°àºŀàº²àºļ
eal th
à¶± à¶ľà¶Ń
à¶« à¶¯
Ġà¸ªà¸¡ à¹Ģà¸Ķ
àºªàº°àºĶ àº§àºģ
Ġl uwas
ĠW e
à¶¥ à¶ºà¶±
à¹ģà¸¥à¸° à¹Ħà¸¡
à¸Ķ à¸Ħà¸£
à¸Ħà¸§à¸²à¸¡ à¸Ķ
à¸Ļà¹ģ à¸Ļ
Ġà¹ģà¸¥à¸° à¸ĸ
Ġm us
ĠopÅ¡t insk
à¸Ľ à¸ª
ĠàºĻ àº²àºį
Ġt ur
à»Ģàºªàºį àºĬ
Ġmil yon
à¶¢ à·Ģ
ĠS te
I V
ab lo
erk ado
à¶»à·Ħ à¶º
à·Ĭ "
ingk od
Ġmat a
àºĩ à»Ģàº®
à·ĥ à·Ħ
Ġà¶Ķ à¶½
à¹ Ĺ
à¸²à¸ĩ à¹ĥà¸Ķ
à¸Ļà¸ª à¸ĸà¸²à¸Ļà¸Ĺ
Ġà¸Ľà¸£à¸° à¸ª
à¸ģà¸²à¸£ à¸ĸ
Ġà¹Ĥà¸Ľà¸£ à¹Ĥà¸¡à¸Ĭ
à¸Ļ à¹Ģà¸§à¸¥
à¸Ħà¸§à¸²à¸¡ à¸Ľà¸¥à¸Ńà¸Ķà¸ł
Ġà¹ģ à¸ĭ
à¸ĩ à¸£à¸ĸ
à¸²à¸Ĥ à¸²à¸¢
à¹ģà¸Ļà¸§ à¸Ĺà¸²à¸ĩ
Ġh iman
1 25
âĺĢâĺĢâĺĢâĺĢ âĺĢâĺĢâĺĢâĺĢ
ĠCh ang
Ġkaugal ingong
ĠàºŃ àº²
à¶ħ à¶¸
àºĩ à»ģàº¥àº°
à¶ľ à¶½à¶±
Ġes k
rad e
ana o
à·Ģ à¶¸à¶±
à¸¡ à¸ªà¸³à¸«à¸£
Ġà¸Ĭ à¸²à¸§
à¹Ĥà¸Ī à¸Ĺà¸¢
à¸² à¹Ģà¸ĩ
à¸Ńà¸Ļ à¹Ģà¸Ľ
à¸Īà¸£ à¸£à¸¢
à¸ģà¸²à¸£ à¸ľà¸¥
j j
Ġp ero
àº·à»ī âĢĭ
Ġpres yo
Ġp ad
18 0
sk i
Ġad una
Ġk usog
à¸Ńà¸ķ à¸ģà¸¥
à¸¡ à¸²à¸ĸ
à¸ļà¸£à¸£ à¸Ķ
à¹ģà¸¥à¸° à¸¢
Ġà¶´ à·Ħà¶½
Ġpro f
ĠP in
àºĤ àº°àºŀàº²àºļ
àºŀ àº°àºįàº²àºįàº²àº¡
à¶© à¶»
and i
à¶¯ à¶»à¶º
ug an
àºģàºŃàºĩ àºĹ
im al
ikt ima
il han
c el
àº¥ àº§àº¡
àºģàº²àºĻ àºĶ
v ent
Ġproy ekto
umd om
ad law
% ,
Ġà¶½ à¶Ł
à¹ ĺ
à¸ĩ x
à¸ļ à¹Ĥà¸¥à¸ģ
à¹ĥà¸Ļ à¸ģà¸¥
Ġà¹ģ à¸£à¸ĩ
Ġà¹Ĥ à¸¥
à¸§à¸ĩ à¸§
à¹ĥà¸Ī à¸Ĺ
à¸Ļà¸ķ à¸ģ
à¸²à¸ĩ à¸Ľ
à¸ľà¸¥ à¸Ĺ
à¶± à·ĥà¶ļ
Ġà¶ī à¶½à¶ļ
àºģàº²àºĻàº §
ĠUn sa
et sa
Ġtum ong
Ġdi rek
x t
Ġhang in
Ġà¶ħà¶± à¶±
à¹Ģà¸« à¸ĩ
à¸Ńà¸ªà¹Ģà¸ķà¸£ à¹Ģà¸¥
à¸ĩ à¸Ńà¸²à¸Ī
ĠM us
à¸§ à¹ĥà¸Ļ
w ikipedia
à¸§ à¸Ĥà¸²à¸§
Ġc r
àº®àº½ àºģàº®
ĠA ko
Ġkom pan
A pan
àº²àº« àº¥
à·ģ à¶ļà¶º
orm al
port s
255 3
ÃŃ n
on da
à·ħ à¶§
à¸Ľ à¸§
à¸£à¸° à¸ļà¸²à¸¢
à¸Ħà¸§à¸²à¸¡ à¸Ń
à¸Ļ à¹Ģà¸§à¸¥à¸²
à¸Ĺ à¸«à¸²à¸£
à¹Ģà¸Ńà¸ģ à¸Ĭà¸Ļ
à¸² à¹Ħà¸§
à¸Ńà¸Ļ à¸ļ
à¹Ģà¸£ à¸²à¸Ļ
Ġà¹ģà¸¥à¸° à¸Ĭ
à¸ĺ à¸²à¸ķ
a f
àºĩ àºĩàº²àºĻ
àºķàº² à»Ģàº§
is es
ĠL anka
Ġti il
ðŁ ĺ
Ġg ust
àºĤ àº°
Ġà¶± à¶»
ĠA F
ĠP M
Ġt uk
ĠPh ilip
m l
àº²àº¥ àº²àº§
àºĶàºª àº²àºĶ
Ġà¶¸à¶Ń à¶ļà¶º
àºĬ àº°àºĻàº°
à¶»à¶¯ à¶»
àºŃ àº«
à¹Ģ à¸Ńà¸¡
à¸§ à¸ĭ
à¸ģà¸²à¸£ à¸¢
à¸ļà¸£ à¸²à¸ĩà¸§
à¸Ļ à¹Ħà¸§
à¹Ĥ à¸Ħà¸¥
à¹Ģà¸Ħ à¸¢à¸¡
à¸Ńà¸¢à¸²à¸ģ à¹ĥà¸«
à¸²à¸¢ à¸«à¸Ļ
à¸¢à¸Ļ à¸Ļ
à¸¡ à¸¡à¸Ļ
àº¥àº° àºĦ
Ġd et
Ġb onus
old id
Ġc o
ini usang
ĠâĢ Ķ
ĠM ind
Ġà¶ħà·ĥ à¶½
àºŃàºĩ àºĶ
à¹Ħ à¸«
à¸³ à¸Ľ
Ġà¸£ à¸Ńà¸ĩ
à¸łà¸²à¸ŀ à¸ĸ
Ġà¸ļ à¸Ĺ
à¹Ģà¸Ńà¸ģ à¸¥
à¸£à¸°à¸¢à¸° à¹Ģà¸§à¸¥
à¸Ńà¸ĩ à¸ªà¸¡
Ġà¸ļà¸£ à¸£
à¸Ń à¸³à¹Ģà¸ł
à¶½ à¶ļà¶º
ag ing
àºĽàº° àºĪ
ĠA S
à¸§à¸Ļ à¸Ļ
ĠSer ver
Ġà¶´à¶¸ à¶«à¶º
2 20
àºĻ à»Ģàºĸ
Ġkalend aryong
v i
y pe
W OR
P U
àºģ àº²àºĶ
àº¡ àºĶ
à¸ļ à¹Ģà¸Ľà¸¥
à¸ģà¸²à¸£ à¸Ľà¸£
à¹Ģà¸Ī à¸Ļ
à¸¢à¸ĩ à¸ķ
à¸§à¸£ à¸£à¸©
Ġà¸Ľà¸£à¸°à¸ģ à¸Ńà¸ļà¸Ķ
à¸§à¸Ļ à¸¥
à¹ĥà¸Ļà¸ģà¸²à¸£ à¹ĥà¸Ĭ
à¸¡à¸² à¹Ģà¸¢
ih on
T h
Ġs us
10 4
àº²àºĩ àº¡
Ġà¶ħ à·Ģà¶ļ
ĠBibl iya
à·Ĵ âĢį
Ġpagkat inuod
àºĽàº°àºģ àº²àºĶ
àºŃàºĻàº Ħ
àºŃ à»ĢàºĽ
à¶» à·Ģà¶»
àº³àºĻàº§ àºĻ
Ġà·Ģà¶½ à¶¯
à¸¢ à¸Ī
à¸ķ à¸ĭ
à¸ģà¸³ à¹Ħà¸£
à¹Ĥà¸Ľà¸£ à¸ķ
à¸Ļà¸ªà¸¡ à¸²à¸Ĭ
à¸Ļà¸³ à¸Ĺ
à¸ķà¸¥à¸Ńà¸Ķ à¹Ģà¸§à¸¥à¸²
à¹Ģà¸ģà¸©à¸ķà¸£ à¸ģà¸£
Ġproduk syon
Ġokr ugu
ĠM it
il d
C om
à¶© à¶´
àº²àº§ à»ľ
ĠB at
àºļ à»ģàºķ
Ġres ulta
Ġka ra
à¸ĵ à¸¥
à¸Ļà¸ļà¸Ńà¸¥ à¸Ńà¸Ńà¸Ļà¹Ħà¸¥à¸Ļ
à¸Ńà¸ģ à¸ª
à¸Ļà¸Ĺ à¸Ļ
à¸Ļ à¸Ľà¸£à¸°à¹Ĥà¸¢à¸Ĭà¸Ļ
Ġàºģàº²àºĻàº ¥
à¸£ à¸Ńà¸ĩà¸£
Ġ à»Ŀ
am m
ĠL ondon
isy u
n u
Ġpagp ak
à·Ħ à¶¯
àº²àº¡ àº²
ĠI D
T E
Ġà¶± à·Ģà¶ļ
à¸µà¹Ī ,
à¸£à¸§à¸¡ à¸Ĺ
à¸ļ à¸Ĺà¸²à¸ĩ
à¸ŀ à¸£à¸¡
à¸§à¸¢ à¹Ģà¸ŀ
ĠK aron
à¸Ļà¸¢ à¸Ńà¸Ķ
à¸Ńà¸¢ à¸¡
Ġgid ak
ĠE m
àº³àº¡àº° àºĬàº²àºĶ
Ġm ahin
ip s
ĠG ossip
ug il
Ġkasa gbot
Ġkasagbot an
Ġnak ap
< /
Ġgust ina
à¸Ńà¸ģ à¸ģ
à¸į à¸¥
Ġà¹Ĥ à¸Ľ
à¸£ à¸£
à¸Ħ à¸Ļà¸Ļ
à¸§à¸Ļ à¸ļ
à¸Ļà¹Ĥ à¸¢à¸ļà¸²à¸¢
Ġà¸ª à¸łà¸²à¸ŀ
à¸ª à¸Ľà¸Ńà¸£
ĠD ay
333333333333 33
àºģàº²àºĻàºª àº°
àºģ àºĪ
à¶Ń à¶±à·Ģ
à¶Ĵ à¶ļ
àºĻàºĶ àº½àº§àºģ
Ġm erkado
Ġo ut
ĠSa int
àº²à»Ģàºª àºļàºķ
à¹Ħ à¸ķà¸£
à·Ģà¶± à¶º
Ġpos ible
erm an
ev el
b ang
à¸¡ à¸²à¸ķà¸£
à¸ŀ à¸¡
à¸²à¸§ à¸«à¸Ļ
à¸Ļà¸Ħ à¸²à¸ª
à¸¥à¸³ à¸Ķ
à¸¡à¸Ńà¸ĩ à¹Ģà¸«
Ġà¸ķ à¸¥à¸²à¸Ķ
à¹ģà¸Ł à¸Ļà¸ļà¸Ńà¸¥
à¸Ĥ à¸Ļà¸¡
Ġà¶¯ à¶¸à¶±
à ¦
Ġà¶º à·Ģà¶±
Ġt ingali
àºĹàº²àºĩ àºĶ
àºŃ àº²àºģàº²àºĶ
Ġà¶ļà¶½ à¶ļ
à¶¯ à¶ľ
ĠC asino
àºĶ à»Ģàº«
20 20
Ġà¸Ħ à¸°à¹ģà¸Ļà¸Ļ
à¹Ģà¸Ĺà¸¨ à¸ļà¸²à¸¥
à»ĤàºĦàºªàº° àºĻàº²
lebolog ist
Ġà¸¢ à¸Ńà¸Ķ
à¹ģà¸Ĺ à¸Ļà¸Ĺ
à¸ĩ à¸Īà¸°à¸¡
ĠRus ya
ag may
àºĶ à»ĥàºĪ
ian o
A r
àº§àº½àºģ àºĩàº²àºĻàº
Ġ: :
Ġà»Ĥ àºĹ
H D
à¸¡ à¸ŀà¸£à¸°
Ġà¹Ĥ à¸Ķà¸Ļ
à¹Ĥà¸¥ à¸ģà¸Ĺ
à¸ī à¸²à¸ģ
à¸ģà¸©à¸² à¹Ģà¸ª
à¸£à¸°à¸ļà¸ļ à¸Ĺ
à¸ĩà¹ģ à¸ģà¸£
Ġgib utang
à¸Ľà¸£à¸°à¸Īà¸³ à¸§
à¸ĩ à¸ķà¸²à¸¡
ol l
à¸£à¸© à¸°
Ġà¶ļà¶» à·Ģ
ĠR oyal
àºªàº° à»Ŀ
Ġkina iya
àº²àº§ àºķ
à¸Ļ à¸¥à¸ĩ
à¸¢à¸Ļ à¸¡
à¸ģà¸²à¸¥ à¸Ļ
à¸²à¸£à¸° à¸ļà¸ļ
à¹ģà¸Ļà¸°à¸Ļà¸³ à¹ĥà¸«
Ġ à¸«à¸¡à¸²à¸¢à¸ĸ
à¸²à¸Ļ à¹Ħà¸¡
à»ĤàºĪ àº¡àºķ
àºĻàºĹàº²àºĩ àºģàº²àºĻ
ĠP edro
Ġc ar
g on
àº°àºŀàº² à»ģàº«
ata as
IN G
ĠK h
àº²àº« àºĻ
à·Ĵ )
à¸ķ à¸¡
à¸Ńà¸Ļ à¸ĭ
à¸ĩà¸²à¸Ļ à¸§
à¸Ĺà¸³ à¸¥à¸²à¸¢
à¸ģà¸£à¸° à¹ģà¸Ĺ
à¸§à¸¢ à¸Ľ
à¸¢à¸Ļ à¹Ģà¸Ľ
à¹ĥà¸Ī à¸§
Ġà¸« à¸į
à¸Ķà¸ª à¸²à¸§
Ġes piritu
Ġà¸ģ à¸²à¸ĩà¹Ģà¸ģ
Ġman ag
ĠV ideo
Ñ ĥ
99 9
ĠM oun
Ġà¶¢ à·Ģ
Ä ±
àº² à»Ģàºģ
à¶± à·Ģà¶Ń
à¸ģ à¹Ģà¸¡
à¸ª à¸Ľ
Ġà¸Ń à¹Ģà¸¥
à¸ģà¸© à¸²à¸Ķ
à¸Ļà¸³ à¹Ģà¸Ĥ
Ġà¸ªà¸¡ à¸²à¸Ĭ
à¸ĩ à¹Ģà¸ŀà¸¥à¸ĩ
à¸Ńà¸ĩ à¸ªà¸³à¸Ń
à¸³ à¹Ģà¸Ľ
à¸Ħà¸§à¸²à¸¡ à¹Ģà¸£
à¸łà¸²à¸Ħ à¸£
à¸Ļ à¹ĥà¸Ĭ
is m
à¸Īà¸° à¸Ńà¸¢
à¸ĸ à¸Ļ
Ġà¶¸ à·ħ
u ct
uw a
àº§ àºĽàº°à»ĢàºĹàºĶ
àº²àº§ àºĻ
Ġà¶ļ à¶ļ
àº³àºĻàº§ àºį
à¶¶ à¶º
àº° à»Ģàº¥
ĠR om
Ġpag sak
E M
à¸Ń à¹Ĥà¸£à¸Ħ
à¸ķ à¸ļ
à¹ĥà¸Ļ à¸«à¸Ļ
à¸Ĥà¸Ńà¸ĩ à¹Ģà¸§
à¹Ĩ à¹Ĩ
Ġà¸ļ à¸²à¸Ħà¸²à¸£
Ġà¸ģà¸²à¸£ à¹ĥà¸Ĭ
à¸ŀà¸£à¸° à¸Ħ
à¸¤ à¸ķ
à¸ªà¸²à¸£ à¸ªà¸Ļà¹Ģà¸Ĺà¸¨
à¸Īà¸Ī à¸²à¸£à¸°
à¹Ĥà¸Ĭ à¸Ħ
à¹ģà¸Łà¸Ļà¹Ģà¸ŀ à¸Ī
à¸ģ à¸«à¸¡
à¶ļ à¶ºà¶§
à¸Īà¸° à¸Ħ
à¸Ń à¹Ħ
Ġà¹ģ à¸«à¸¥
Ġkompan iya
Ġl ist
ĠM os
àºĻ à»Ģàºģ
ob ra
à»ģàºĻ àº°àºĻ
er te
àºĪàº° à»Ģàº®
T O
12 1
} .
Ġprob ins
Ġà¶ħ à¶ľà¶º
ĠP op
Ġand am
ub ang
je ct
à¶¯ à¶½à¶ļ
à¸¡ à¹Ģà¸ļ
à¸²à¸¡ à¸ģà¸¥à¸²à¸ĩ
ech n
à¸§ à¹Ģà¸Ķ
à¹Ĥà¸¥ à¸ģà¸£
à¸²à¸¢ à¹Ģà¸ĩ
ut e
à¸ģà¸© à¸²à¸Ĥà¸Ńà¸ĩ
à¸£à¸°à¸¢à¸° à¹Ģà¸§à¸¥à¸²
Ġmen sa
à»Ī .
Ġasa wa
ĠMi ingon
à¶Ĵ à¶Ń
ad uha
angk ok
ĠàºĽ àºģàºª
à¹ĥà¸Ļ à¸Ľà¸£à¸°à¹Ģà¸Ĺà¸¨à¹Ħà¸Ĺà¸¢
à¸²à¸§ à¸ª
à¹Ħà¸¥ à¸Ĺ
à¸ģ à¸Īà¸²à¸ģ
à¸²à¸ĩ à¹ĥà¸«
à¸²à¸§ à¸¥
à¸ļà¸ģà¸²à¸£ à¹ĥà¸Ĭ
à¸Ńà¸Ļ à¹ĥà¸«
à¹Ħà¸«à¸Ļ à¸ģ
à¸ļà¸²à¸Ĺ à¸ªà¸¡à¹Ģà¸Ķ
à¹ģ à¸Ħà¸¥
Ġà¸ª à¸Ļà¸²à¸¡
sk e
55 55
WOR LD
Ġà·ĥ à¶»à¶½
à»Ħ àº«
Ġt emplo
Ġàºª àºŃàºĩ
g us
al ing
à¸¢ à¸ŀ
à¸ģà¸²à¸£ à¸¥
à¸Ļà¸Īà¸° à¸ķ
à¸ĩ à¹Ģà¸§
à¸Ńà¸¡ à¹Ĥ
à¹Ģà¸ŀà¸£à¸²à¸° à¸§
à¸³ à¸Ń
U M
N a
àºĩàºª àºŃàºĩ
Ġd ugay
Ġnak ig
Ġw a
us wag
p r
<< <<
ĠG ala
àºªàº°à»ľ àº²àº¡
àºĶàºªàº° àºŀàº²
à¸² à¹Ħà¸£
Ġà¸Ĺ à¸§
à¸²à¸Ħ à¸¥
à¸ĩà¸ª à¸³à¸Ħ
à¸£à¸²à¸Ĭ à¸ł
à¸ŀ à¸Ńà¸Ķ
à¸¢à¸Ļ à¹Ħà¸Ķ
à¹Ģà¸Ķ à¸Ńà¸°
Ġgip a
T H
Ġà»Ĥ àº®àºĩ
àº²àºĩ àº«
àº² à»Ģàºŀ
àºĻ à»ģàº¥
Ġnagt ugot
àº¢ àº²àºģ
Ġlin ya
à¸²à¸ ®
à¸ģ à¹ģà¸«
Ġà¸¡ à¸«
à¸²à¸Ĥ à¸Ńà¸ĩà¸Ĺ
à¸Ĺà¸£ à¸²à¸¢
à¸Ľà¸£à¸°à¸Ĭ à¸²à¸ģà¸£
à¸²à¸ģà¸¥ à¸²à¸ģ
à¹ģ à¸Ńà¸Ľ
à¹Ģà¸ģ à¸Ńà¸£
à¸Ĺà¸²à¸ĩ à¸§
à¸£à¸© à¸²
Ġà¸¡ à¸²à¸ª
ĠC he
ĠH es
m as
àºĦ àº²àºĶ
L E
àº¡ à»ĥàº«àºį
ub ad
say ran
Ġà·ĥà¶¯ à·Ħà¶±
àºĻ àºŃàºĻ
Ġtekn olohiya
å¥ ½
imb a
àºŃ à»Ģàº®
Ġà¶ĳ à·Ģà¶±
àºŃ àº²àºĻ
Ġà¹ĥà¸Ļ à¸Ĥà¸ĵà¸°à¸Ĺ
à¸² à¹ĥà¸«à¸¡
Ġà¸Ħ à¸²à¸£
Ġà¹Ĥà¸Ľà¸£ à¸Ķ
à¸Ĥà¸Ńà¸ĩ à¸¡
ĠP i
à¸Ń à¹Ģà¸ķà¸Ńà¸£
à¸§ à¹Ģà¸¥à¸Ĥ
â Ĩ
àº³ àºĦ
Ġà»ĥàºĻ àºģàº²àºĻ
à¶»à¶´ à¶§à¶º
àºļ àºĸ
àº³ àºŃ
Ġà¶º à¶®
àºĩ à»ĥàºª
s ila
àº°à»ľ àº²àºĶ
Ã º
àº® àºŃàºĶ
rom b
à¸Ń à¹Ģà¸Ī
à¸ĩ à¹Ģà¸¢
à¸Ĺ à¸ģ
à¹ĥà¸Ļ à¸Ķ
ar ung
à¸Ħà¸£ à¸Ńà¸ļ
à¸ĩà¸ª à¸¡
à¸¢ à¹Ģà¸Ľ
à¸ģà¸© à¸²à¸ŀ
à¸Ńà¸ĩà¸Ĺ à¸Ńà¸ĩ
Ġà¸ľà¸¡ à¸ģ
Ġp ap
o o
ĠSt ar
Ġmak al
V OV
l er
Ġà¶Ĩ à¶´à·ĥ
Ġn j
àºĻàºĽàº° àºĹ
Ġl it
à¸Ķ à¹Ģà¸ŀà¸¥
à¸ļ à¸ŀà¸Ļ
Ġà¸ģ à¸Ńà¸ĩà¸«à¸Ļ
à¸£à¸²à¸ ĭ
à¸¢à¸ĩ à¹ģà¸ķ
à¸³ à¸ĸà¸²à¸¡
à¹ģà¸¥ à¸ģà¹Ģà¸Ľà¸¥
Ġb un
eb el
ĠB ol
ant os
VOV WORLD
Ġpags ugat
Ġp uno
Ġgah om
Ġkasa m
ep h
Ġkani adto
æ ľ
àº¡ àº°àº«
Ġ à»Ģàºĩ
à¸ģà¸²à¸£ à¹Ģà¸¡
Ġà¹Ģà¸£ à¸Ń
Ġà¹Ģà¸ľ à¸¢
à¹Ħà¸Ľ à¹Ħà¸Ķ
Ġà¸Ī à¸Ļ
à¸ªà¸²à¸¡à¸²à¸£à¸ĸ à¹Ģà¸Ĥ
à¸ªà¸²à¸ĺ à¸²à¸£à¸ĵ
Ġ à¸£à¸°à¸ļ
àº²àºį à»Ĩ
Ġà¸ģà¸£à¸° à¸Ĺ
à¸Ķà¸Ĺ à¸°à¹Ģà¸ļ
n y
alip od
66666666666666666666666666666666 6666666666666666
Ġsak yanan
Ġkab ahin
b y
iv es
Ġmak uha
ĠG ani
àºĻàºĶ àº²àºĻ
àºģàº²àºį à»ĢàºĽ
ĠMar k
Ġpro p
ur i
à¸¢à¸¡ à¸ķ
à¸²à¸¡ à¸²à¸£
à¸Ļ à¸Īà¸°à¸¡
à¸¢ à¹Ħà¸Ķ
à¹ģà¸¥à¸° à¸Ī
os p
à¶» à¶¶à¶½
ga r
à¸§à¸¢ à¸Ń
Ġga t
ĠP ablo
àºģàºĦ àº°àº¥
s s
ĠOb last
Ġpangh itabo
Ġl ibo
ĠAd d
ĠSkupÅ¡t ine
Ð° Ð
ĠS EO
ĠIntern et
ĠT an
t d
r ika
à¸² à¹ĥà¸ª
à¹Ģà¸Ĥ à¸²à¸ģ
à¸ĺà¸£à¸£à¸¡ à¸Ķ
à¹ģà¸ĸ à¸¥à¸ĩ
à¸Ńà¸Ļ à¸Ń
à¹Ģà¸ļ à¸¥
à¸Ķ à¸ªà¸£
à·ĥ à¶»à¶º
à¸Ħà¸§à¸²à¸¡ à¹Ģà¸Ĥ
à¶µ à¶½
G ip
b it
G B
b i
Ġà·ĥà¶»à·ĥ à·Ģ
u ig
ad e
ĠB ro
Ġt ak
Ġb iktima
ub ut
ard s
àºĸ àº²àº¡
à¸Ńà¸¡ à¹ĥà¸«
à¸²à¸ª à¸²à¸§
ol e
à¸Ļà¸ª à¸²à¸¢
Ġà¹ĥà¸Ļ à¸Ĺ
à¸Ĥà¸Ńà¸ĩ à¸§
à¸¡à¸²à¸ģ à¸Ļ
Ġlak ang
Ġà¸ķ à¸³à¸ļà¸¥
àºļ à»ĥàºĬ
Ġà¶ĭà¶´ à¶»
u ot
Ġà¶± à¶Ńà¶»
à·ĳ ..
ĠNik on
ĠAp ple
ĠC S
in c
à·Ħ à¶±à¶º
yl ke
à¹ĥà¸Ļ à¸Ļ
Ġà¸ģ à¸£à¸£à¸¡
à¸§à¸Ļ à¸Ń
à¹Ģà¸¡ à¸£
à¸Ļà¸Ń à¸°à¹Ħà¸£
à¸ģ à¸«à¸£
à¸ĩ à¸Ŀ
à¸§à¸¢ à¸ľ
à¸Ļ à¹Ģà¸«à¸¥
Ġà¶ļ à¶³à·Ģ
à¸³à¸Ļ à¸§à¸¢à¸Ħà¸§à¸²à¸¡à¸ªà¸°à¸Ķà¸§à¸ģ
ĠD o
ub os
Ġk or
at han
ĠM P
alif orn
ĠS im
à»ĢàºĪ àº¥àº°àºĪ
à¸Ħà¸§à¸²à¸¡ à¸ªà¸Ļà¹ĥà¸Ī
à¸Ĺà¸ĺ à¹Ģà¸Ī
à¸ĺà¸¢à¸¡ à¸¨
à¸Ń à¸«à¸¥
à¹ĥà¸Ħà¸£ à¸Ĺ
Ġà¸Ľà¸£à¸°à¹Ģà¸Ĺà¸¨ à¹Ħà¸Ĺà¸¢
à¸Ĺà¸³ à¹Ħà¸¡
à¹Ħà¸¥ à¸Ł
Ġd at
àºĦ àº°
àºģ à»ĢàºĬ
2 10
ĠSup er
à¶ļ à¶»à¶¸
ok e
Ġunsa on
12 8
Ġd ownload
ali ngaw
àºª àºŃàºĻ
Ġà¶Ńà¶» à¶Ł
àºļ à»ľ
à¶ľ à¶§
p ing
Ġg ingharian
IN E
Ġang hel
ĠÅ¡ to
la v
em on
à¸° à¹Ģà¸£
à¸ļà¸£ à¸²à¸¢
Ġà¸Ľ à¸ı
à¹ģà¸¡ à¸Ļ
à¸Ńà¸ĩà¸ģà¸²à¸£ à¹ĥà¸«
à¹Ĥà¸ķ à¹Ĥà¸¢à¸ķ
à¸ļ à¸Ħà¸£
à¸Ħà¸§à¸²à¸¡ à¸ŀà¸£
14 0
Ġat on
M ga
% }.
à·Ģà¶» à¶ļ
àºĻ à»ģàºĤàº§àºĩ
á ¸
à»ģ àºĻàº°
Ġkan amo
à¶¶ à¶©
àºķ àºŃàºĻ
ĠàºĻ àºŃàºģ
à¶± à¶´
ĠG old
Å Ł
Ġpagp at
ir t
àºĻàºĤàºŃàºĩ àºĹ
à¸Ĭ à¸²à¹Ħà¸Ľà¹ģà¸¥
à¸ģà¸²à¸£ à¸ªà¸£
à¹ĥà¸Ļ à¸¡
à¸ĺà¸£à¸£à¸¡ à¸Ļ
à¸Ĥà¸§ à¸²
à¸Ĥà¸Ńà¸ĩ à¸Ĭ
à¸Ļ à¸Īà¸³à¸Ļà¸§à¸Ļà¸¡à¸²à¸ģ
à¸Ńà¸Ļ à¹Ģà¸¡
à¹Ģà¸«à¸¡à¸²à¸° à¸ªà¸³à¸«à¸£
à¸ªà¸ĩ à¸Ĩ
à¸£à¸²à¸Ħ à¸²à¸ª
el je
F ran
iz e
àºĻ àºĩàº²àºĻ
Ġd ugo
s ung
Ġà¶ĭ à¶½
Ġà¶ļà¶» à¶¯
ĠiP ad
ĠB ag
àºĶ àº½àº§
Ġà·ĥà·Ħ à¶Ń
àºŃàº¡ àºŀ
ä ¸
Ġà¶½ à¶±
12 3
à¸ļ à¸§à¸Ļ
à¹ģ à¸ĩ
à¸ģà¸²à¸£ à¸Ĭ
à¸Ĺà¸³ à¸ģ
à¸Ļà¹Ħà¸Ľ à¸ķà¸²à¸¡
à¸ĩ à¹ģà¸«
à¸Ķ à¸ģà¸¥
à¸Ķ à¹ĥà¸«à¸¡
à¸²à¸Ļ à¹Ģà¸ŀ
à¸Ļ à¸£à¸°à¸«à¸§
à¸ģ à¹Ģà¸ķ
à¸² à¹Ģà¸Ħà¸£
Ġt ra
àºĩ àºŃàºŃàºģ
Ġà¶ħ à·ģ
n j
66 67
h ay
ĠS and
uk o
ÎµÎµÎµÎµÎµÎµÎµÎµÎµÎµÎµÎµÎµÎµÎµÎµ ÎµÎµÎµÎµÎµÎµÎµÎµÎµÎµÎµÎµÎµÎµÎµÎµ
àºĩàºģ àºŃàºĻ
àºĻ à»ĤàºĶàºį
àº² à»ĢàºĬ
à¸ĩ à¸ļà¸£
à¸¢ à¸Ĭà¸Ļà¸°
à¹ģ à¸ļà¸Ļ
à¹Ģà¸ŀ à¸ĵ
à¸Ļà¸ª à¸§à¸¢
ĠAG V
à¸ļ à¹Ģà¸¡
à¸²à¸Ļ à¸«
àº² à»ĤàºĻ
ek s
à»ĥàºĻ à»Ħàº¥àºįàº°
op er
ĠA ut
Ġk ustomer
Ġt rans
g en
Ġc an
à¶ļà¶» à¶ľ
Ġf rom
à¸Ń à¹Ģà¸ŀà¸¥à¸ĩ
à¸Ķ à¸ªà¸³à¸«à¸£
à¸Ķ à¸«à¸¢
à¸ª à¸§à¸£à¸£à¸Ħ
à¸Ńà¸¥ à¸¥à¸²
à¸£ à¸Ńà¸Ķ
à¸Ļà¸ª à¸Ļ
à¹ģà¸ķ à¸Ļà¹Ģà¸¥à¸ª
à¸Ļà¸Ĺà¸²à¸ĩ à¸Ĺ
Ġà¸£à¸²à¸¢ à¸¥à¸°à¹Ģà¸Ń
à¶§ à¶ľ
à¸²à¸ĩ à¸ĩ
Ġà¹ģà¸¥à¸° à¸ŀ
Ġà¶» à¶Ł
m ak
Ġil abi
Ġn iyang
âĢĿ ,
Ġ= >
c l
ip o
ad ayag
ch ar
à¶º à·Ģà¶½
à¸Ķ à¹Ģà¸ľà¸¢à¸§
à¸Ĺ à¸ª
à¸ķ à¸Ķ
à¸²à¸ģ à¸¢
à¸Ħà¸§à¸²à¸¡ à¸ľ
à¸ĩà¸²à¸Ļ à¸ģ
à¸ĵà¸łà¸²à¸ŀ à¸ª
ĠM or
à¶ĳ à¶º
u han
à¸Ĥà¸Ńà¸ĩ à¸ŀ
2 30
àºĦ àºŃàºĩ
àºļ àºŀàº²àºļ
Ġà¶Ńà¶»à¶¸ à¶ļ
Ġb ack
àºŃàºĩ àºĤ
in ess
P re
à¸Ń à¸Ńà¸Ļ
à¸²à¸Ļ à¹ģà¸¥à¸°
à¸²à¸¢ à¸«
à¸§à¸¢ à¸Ĭ
à¸Ħà¸§à¸²à¸¡ à¹Ģà¸Ĭ
à¸Ļà¸ģ à¸³à¸¥
à¸® à¸Ńà¸¥
à¹Ģà¸Ĥà¸² à¹Ħà¸Ķ
à¶ħ à¶Ń
à¸ļà¸ģ à¸§à¸Ļ
à¸Ń à¸Ľà¸£
à¹Ģà¸£ à¸²à¸Ħ
à¸Ķà¹ĥà¸Ļ à¹Ĥà¸¥à¸ģ
àºĩàº²àºĻàº Ĺ
T A
àºĶàºĹ àº²àºĩ
ĠÄ Ĳ
Ġà¶ķ à¶ļ
v est
s jedn
y as
ulog an
it i
à·ģ à·Ģà¶½
ĠC er
200 5
Ġà¹Ĥ à¸Ń
Ġà¹Ģà¸ŀ à¸¨
à¸Ľà¸£à¸°à¸ģà¸Ńà¸ļ à¸ģà¸²à¸£
à¹Ĥà¸ŀ à¸ĺ
à¸ģà¸£à¸°à¸ļ à¸°
à¸§ à¸Ľ
à¸Ńà¸Ļ à¸Ī
à¸²à¸§ à¸Ĥ
à¸Ńà¸Ķ à¸Ń
à¹Ħ à¸£à¸¡
à¸Ńà¸ģ à¸£à¸°
àºĶ àºĪàº²àºģ
àºģ àº¡
ug os
inat sila
Ġmagt ut
àºĽàº° à»Ģàºŀ
Ġà¶ī à¶©à¶ļ
àºļ àº²àºĩ
ĠĠĠĠĠĠĠĠĠĠĠĠĠĠĠĠ ĠĠĠĠĠĠĠĠĠĠĠĠĠĠĠĠ
l ish
C o
à¸ĩ à¸Ńà¸Ńà¸Ļà¹Ħà¸¥à¸Ļ
à¸¡ à¸Ĺà¸£
à¸Ļà¹ģ à¸Ħ
à¸²à¸«à¸¥ à¸²à¸¢
à¹ģà¸£à¸ģ à¸Ĺ
à¸ļ à¹Ģà¸Ĭ
ag on
à¸ģà¸©à¸²à¸Ħà¸§à¸²à¸¡ à¸Ľà¸¥à¸Ńà¸Ķà¸ł
Ġmo abut
à¶ļà¶» à¶º
ĠY ork
ing uha
olog y
à»ĥàºĻàº ¡
ĠT s
Ġà¶ļà·ħ à¶¸à¶±
33333333 33
ĠK a
Ġm e
Ġp ak
à»ĥàºĻàº Ĭ
Ġkas undalo
el la
àº¡ àº¥
Ġkah ayag
à¸²à¸ł à¸²à¸ŀ
à¹Ģà¸ĭà¸Ļ à¸Ńà¸¥
à¹ģ à¸Ĭà¸£
à¸Ľà¸£à¸° à¸¢
Ġà¸¡ à¸¡
à¹ĥà¸Ļà¸ģà¸²à¸£ à¸ŀ
à¸ĩà¹Ħ à¸ĩ
àºŃàºĩ àº«
àºĩ àºĸ
à·ħ à¶´
Ġs k
Ġnag as
Ġàºģ àº³
Ġh am
11 5
à¹ĥà¸Ļ à¹Ģà¸ģà¸¡
Ġà¹ģà¸¥à¸° à¸Ĥ
à¸Ĺà¸£ à¸£à¸¨
à¸ļà¸²à¸ĩ à¸Ħà¸Ļ
àº²àº§ àºªàº²àºĻ
;;;.;;;. ;;;.;;;.
ĠE uro
ĠMo ises
3 60
àºĪàº° àºª
ĠP as
ĠU N
ry p
n ow
à¶« à·Ģà¶Ń
l Ã©
à¸¥ à¸²à¸§
Ġkad tong
àºĩ à»ĢàºĤ
. âĢĻ
á Ģ
Ġlang yaw
ĠS el
Ġsem ana
àºĤ àºŃàºļ
Ġs usa
D ili
f ord
àºªàº° àºĸàº²àºĻ
à¸Ļ à¹Ĥà¸ķ
à¸Ľ à¸ĸ
Ġà¸ģà¸²à¸£ à¹Ģà¸¥
à¸²à¸Ľà¸£à¸° à¸¡à¸²à¸ĵ
à¹Ĥà¸Ńà¸ģà¸²à¸ª à¸Ĺ
à¸ĩ à¹Ģà¸Ħà¸£à¸²à¸°à¸«
àºļàº® àºŃàºļ
ĠAr ch
à»ĥ àºľ
àºģ àºľ
àºŃàºĩ àºĬ
Ġkasundalo han
àº£ àº²
ru Äį
B S
àº§ à»Ĥàº¥àºģ
E A
àºĶàºª àº²àº«
à¸§ à¸²à¸Ķ
à¸²à¸¥ à¸ĩ
Ġgah um
à¸¥ à¸Ńà¸¢
à¸ķ à¸ģà¸¥
à¸Ńà¸Ļ à¸Ńà¸¢
Ġd ata
à¸Īà¸° à¸ªà¸²à¸¡à¸²à¸£à¸ĸ
à¸£à¸§à¸¡ à¸ĸ
à¸Ńà¸Ļ à¸²à¸¡
à¶¢ à¶ºà¶ļ
Ġnagp akita
à¸²à¸ĩà¸ģ à¸Ńà¸ģ
ĠBar angay
res ent
àºĪàº° à»ĢàºĽ
Ġsil ang
à»ģàº« àº¥
C O
25 55
I K
leb itis
ĠP lan
Ġà·ĥ à¶»à¶Ń
n ik
Ġuma abot
à¸Ĺ à¸Ķà¸ªà¸Ńà¸ļ
à¸¨ à¸Īà¸£à¸£à¸¢
à¸Ħà¸£ à¸ĩà¸²à¸Ļ
à¸Ńà¸¡ à¸²à¸ģ
Ġà¸ķ à¸³à¹ģà¸«à¸Ļ
Ġà¸Ĥ à¸Ńà¹ĥà¸«
oph lebitis
romb ophlebitis
à¸Īà¸° à¸Ļà¸³
Ġà¹ģà¸¥à¸° à¸Ī
à¸²à¸Ħ à¸¡à¸Ļ
à¸ļ à¹ģà¸¥à¸°
ĠP os
à¸Ĭ à¸ª
à¸²à¸Ļ à¹Ģà¸ģ
ĠH iniusang
à¸ĩ à¹Ĥà¸ķ
àºĻàºª àº²àº¡àº²àºĶ
ist i
Ġà¶ºà·Ħ à¶´
ĠE r
Ã ¸
à·Ŀ ,
Ġà¶Ńà¶» à¶¸à¶§
ĠCh ina
²ãģ²ãģ ²ãģ²ãģ
Ġm j
Z L
er d
àº°àºĻàº²àºĦ àº²àºĻ
Ã ½
Ġà¶ļ à¶¸à¶ļ
Ġàºģàº²àºĻàº ķ
à¸ģà¸²à¸£ à¸ĭ
à¸Īà¸° à¸Ĥ
Ġà¸ª à¹Ĥà¸¡à¸ªà¸£
à¸¢à¸Ļ à¹Ħà¸Ľ
à¸²à¸« à¸Ļà¸Ńà¸Ļ
10 3
à¸ģ à¸Ńà¸ļà¸£à¸¡
à¸¡ à¸ªà¸£
à¸²à¸¢ à¹ģà¸¥à¸°
à¸Īà¸° à¸Ī
à¸Ńà¸ļ à¸ģ
à¸ªà¸ķ à¸²à¸£
Ġà¸Ľà¸£à¸° à¸¡à¸²à¸ĵ
à¸²à¸Ŀ à¸²à¸ģ
Ġ à»ĥàºĻàºĹ
ik ang
àºĻàºĶ àº²àºĽàº°à»ĢàºĹàºĶ
àºĻàºĹ àº°àºĻ
ĠC lub
Ġà¶ĳ à¶ł
Ġp ark
Ġàºģ àº³àº¡àº°
Ġpagt uon
ĠD ak
Ġh ulagway
Ġc lub
ĠS ig
g er
à¸Ļ à¹Ĥà¸Ķ
à¸Ķ à¸ªà¸£à¸£
à¸ĵ à¸¢
à¸ĵ à¸Īà¸°à¹Ħà¸Ķ
à¸Ńà¸ģ à¸ļ
à¹Ģà¸¨ à¸£
Ġph lebologist
Ġvar ices
à¸£ à¸«
à¸Ľà¸£à¸°à¹Ģà¸Ĺà¸¨ à¸Ń
à¸Ńà¸Ļ à¹ģà¸¥à¸°
à¸ªà¸²à¸ĺ à¸²à¸£à¸ĵà¸°
Ġà¶ħ à·Ħà·ĥ
add le
Ġà¶¶à¶½ à·Ģà¶Ń
ĠL ib
Ġka say
ulong ang
àº²àºª àº°àº«
àºĻ à»Ģàºª
Ġtin akpan
P ro
Ġàº« àº²àºģ
àº¡ àºĩ
k en
Ġ ent
16 8
à¸Ľ à¹Ģà¸Ķ
à¸ģà¸²à¸£ à¹Ģà¸ģ
à¹Ĥà¸£ à¸Īà¸Ļ
Ġà¸Ńà¸²à¸Ī à¸²à¸£à¸¢
Ġ à¸Ńà¸£
Ġà¸ģà¸£à¸° à¸Ĺà¸£à¸§à¸ĩ
Ġà·Ģ à¶łà¶±à¶º
Ġmensa he
àºĻàºĶ àº²àºľ
Ġsimb ahan
Ġneg o
ĠA P
Ġro ulette
à¸Ļ à¸Łà¸£
à¸Ķ à¸²à¸£
à¸ģà¸²à¸£ à¸Ľà¸ı
à¹Ģà¸Īà¸£ à¸Ī
asab ut
à¸Ļ à¹Ģà¸ļ
à¸Ħ à¸ĭ
à¸²à¸£ à¸ŀ
à¸Ńà¸ĩ à¸Ł
à¹ĥà¸Ļà¸ģà¸²à¸£ à¸Ī
à¸ģ à¹ĥà¸«à¸¡
Ġà¶ł à¶¸
Â ¸
ĠN ga
Ġc he
ili an
àºĦàº§àº²àº¡ àºķ
iy an
Ġà¶ĭà¶± à¶±
! âĢĿ
Ġàºģàº²àºĻàº Ī
200 4
àºĶàºªàº²àº« àº°àºģàº³
à·ĸ ,
à¸¡ à¹Ģà¸ĩ
à¸Ķ à¸Ŀ
à¸²à¸Ļ à¹Ģà¸¡
à¸Ħà¸Ļ à¸«à¸Ļ
à¸²à¸Īà¸° à¸ķ
à¸Ń à¸«à¸£
à¸ģ à¹ģà¸¡
à¸ĩ à¹Ĥ
Ġà¸ģà¸²à¸£ à¸ª
à¹ģà¸Ĺ à¸£à¸ģ
à¸²à¸Ľà¸£à¸° à¸ģ
d erm
à¶ĥ ,
å¤ ©
àºģàº²àºĻàº į
ĠV ill
y m
? "
ĠS ec
G ikuha
in h
ĠAn ak
in ar
àº²àºĻ àºĶ
G G
àºĦàº§àº²àº¡ àºĦ
ĠY ou
àºŃàºĩ àºģàº²àºĻàºĹ
ul b
àºĩ àºĽàº°àºģàºŃàºļ
Ġp ut
à¸² à¹Ĥà¸ģ
à¸¢ à¸£à¸²à¸Ĭà¸ł
à¸ª à¸²à¹Ģà¸«à¸ķ
à¸²à¸£ à¸¡à¸ĵ
à¶±à·Ģ à¶½à¶§
à¸§à¸ĩ à¸«à¸£
ĠW L
à¸£à¸²à¸ ķ
ov o
à¶¶ à¶§
àºĻ à»ĢàºĦ
Ġà¶¢ à¶»
ugo an
iy ahan
Ġà¹Ģà¸ģ à¸²à¸°
Ġpagt agad
àº§ àºļàºĦ
A V
Ã ¥
àº° àºķ
am an
à¸²à¸ĩ à¸Ħà¸£
à¸Ļ à¸ŀà¸¥
à¸ģ à¹ģà¸ªà¸Ķ
à¹Ħ à¸ŀà¸£
à¸²à¸ª à¸Ļ
Ġà¸Ĥ à¸Ńà¸ļà¸Ħ
Ġà¸ģà¸²à¸£ à¸ķ
à¸²à¸Īà¸° à¹Ħà¸¡
Ġpan it
à¸³à¸Ļ à¸²à¸į
à¸ļà¸£à¸£ à¸Ĺ
Ġà·Ħà¶¯ à·Ģà¶Ń
ĠBr as
at us
n es
àº²àºį àºķ
Ġt urn
ĠB ad
p ro
Ġof f
Ġih atag
ip e
àº¥àº²àºį àºĩàº²àºĻ
ga d
ĠL ab
un an
es h
à¶Ķ à¶±
Ġ à¹ĥà¸Ī
à¸¥à¸ĩ à¸ķ
à¸Ĳ à¸¯
à¸ĩà¸Ħ à¸²à¸£
à¸¡à¸ŀ à¸¥
à¹ģà¸Ļà¸§ à¸£
à¹Ĥà¸£à¸ĩà¹ģà¸£à¸¡ à¸Ĺ
à¸Ļà¸ĺ à¸¡
à¹Ģà¸Ĥà¸² à¹Ħà¸¡
à¹Ħà¸Ĥ à¸Ľ
à¸Ń à¹ģ
Ġà¸ª à¸²à¸¡
y le
à·Ĥ à·Ģ
imp yo
àºģàº® àº½àºĻ
f r
àºª àº²àºĶ
Ġàº¡ àº²
à·ħ à·Ģ
Ġàºģàº²àºĻàº Ľàº°
ĠH otel
Ġb asa
ĠT rans
Ġmis mo
à¸ª à¹Ģà¸ļ
à¸ĭ à¸Ńà¸¢
à¸ĵ à¸£
à¹Ħà¸Ľ à¸£
à¸¢à¸ĩ à¹Ħà¸¡
à¹Ģà¸ĺ à¸Ńà¸ģ
Ġà¸Ĥà¸Ńà¸ĩ à¹ģà¸Ĺ
à¸Ĺ à¹Ģà¸¡
à¸²à¸Ľà¸£à¸° à¹Ģà¸Ĺà¸¨
à¸Ķ à¹ĥà¸«à¸į
à¶¶ à·ĥ
à¸ģ à¹Ģà¸Ĭ
à¸ĵà¸ĳ à¸¥
à¸¢à¸ģ à¹Ħà¸Ķ
àº§ àºĦ
Ġ- -
ĠR AM
Ġà¶¸ à¶¸à¶Ń
àº²àºĤàºŃàºĩ àºĹ
ĠL inn
à·Ĭ âĢĿ
ĠT our
k it
os h
ĠE ast
us iness
ĠàºŃ àº²àºį
à» Ĭ
à¸Ń à¹ĥà¸«à¸¡
à¸¹ à¹Ĭ
à¸²à¸ĩ à¹Ħà¸Ķ
à¸§à¸ĩ à¸ķ
à¸Ļà¸Ķ à¸²à¸¥
Ġà¸£à¸²à¸¢ à¸ģà¸²à¸£
à¹Ĥà¸Ĭ à¸Ħà¸Ķ
à¸Ĥà¸²à¸¢ à¸ª
à¸ģ à¹Ģà¸Ĺ
Ġà¸ª à¸Ńà¸ļ
à¸Ļà¹ģ à¸Ļà¸§
à¸²à¸§ à¸Ń
w o
Ġà¶ľ à·Ħà¶½
àº²àºĻ àºŃ
P rin
Ġnagp uyo
Ġlaw is
Ġàºŀ àº°à»ģàºĻàºģ
Ġt el
Ġkah ibalo
n ong
Ġre k
b ar
8888 8888
Ġà·Ģ à¶ļ
ĠM obile
à¸§ à¹Ģà¸Ĺ
à¸Ķ à¹Ģà¸¢
à¹Ģà¸£ à¸²à¸£
à¹Ģà¸Ķ à¸Ĭ
Ġth rombophlebitis
Ġà¹ģà¸Ĺà¸ĩà¸ļà¸Ńà¸¥ à¸Ńà¸Ńà¸Ļà¹Ħà¸¥à¸Ļ
à¸²à¸§ à¹Ħà¸Ĺà¸¢
à¸Ħà¸§à¸²à¸¡ à¸Ĺ
à¸¢à¸¡ à¸Ĭà¸¡
à¸ľà¸¡ à¹Ħà¸¡
à¹ĥ à¸¢
Ġà¸ļ à¸Ńà¸ģ
à¸«à¸²à¸¢ à¹Ħà¸Ľ
àºį àº²
àº¡ à»Ģàºķ
à¸Ľ à¸Ĳ
Ġpagb ayad
Ġpar eho
àºŃàº²àºĬ àº½àºĻ
ĠS ila
Ġnasel ju
àºĪàº° àºļ
han d
M a
Ġàºģàº²àºĻàº Ĺ
ih ug
à¶¶à¶¯ à·Ģ
àºŃàº²à»Ģàº¡ àº¥
Ġàºģ àº³àº¥
put er
àºģàº° àºĹ
Ġà·Ģà¶§ à·Ħ
à¹Ĥ à¸¢à¸ļà¸²à¸¢
à¸²à¸¢ à¹ĥà¸Ī
à¸Ńà¸Ļ à¸¥
à¸Ńà¸Ļ à¹Ħà¸¡
à¹ģà¸ľ à¸Ļà¸Ĺ
ĠN ak
à¹ĥà¸Ļà¸ģà¸²à¸£ à¸ķ
à·ı ....
à¸ĩà¸²à¸Ļ à¸ķ
ion s
gaygay gaygay
Ġgip at
à¸Ń à¹Ģà¸ļà¸Ńà¸£
ĠR am
iy embro
Ġep ekto
k s
b ob
ĠUS B
ĠR ed
dasdasdasdasdasdasdasdasdasdasdasdasdasdasdasdas dasdasdasdasdasdasdasdasdasdasdasdasdasdasdasdas
10 2
ap e
à¸ļà¸£à¸¡ à¸£à¸²à¸Ĭ
à¶Ł à·Ģ
ĠP ero
Ġc ent
àºªàº° àºļ
b ay
àºĶ à»ģàº¡
à¸ļ à¹ģà¸Ł
à¸²à¸£ à¸²à¸¢
à¸ģà¸²à¸£ à¸Ľà¸£à¸°à¸Ĭ
à¹ģà¸ľ à¸Ļà¸ģà¸²à¸£
à¸¢à¸²à¸¢ à¸²à¸¡
à¸Ļà¸²à¸¢ à¸ģ
à¸² à¹ģà¸«
à¸łà¸²à¸ŀ à¸ª
à¸ķà¸¢ à¸ģà¸£à¸£à¸¡
Ġà¸£ à¸²à¸¡
à¸° à¸Ľ
Ġà»ģ àºļàºļ
à¸²à¸Ī à¸£
àºĽàº°àºĬàº²àºĬ àº²àºĶ
u el
in ati
ĠMan ag
Ġl ebel
row n
S addle
Ġpags ulay
ĠSp r
Ġr ad
ĠAn t
àº½àºĻà»ģàºĽ àºĩ
Ġnag langkob
T C
in an
???? ????
à»ĤàºĹàº¥àº° àºª
àºŃàºĻ àºģ
w el
Ġ à¸«à¸§
à¸² à¹Ģà¸£à¸²
à¸«à¸²à¸£ à¸ª
à¹Ĥà¸Ķà¸¢ à¸ķà¸£à¸ĩ
à»ģàº®àºĩ àºĩàº²àºĻ
à¸Ńà¸ļ à¸ķ
àº²àºª àº²àº¡àº²àºĶ
à¸ĩ à¸ŀà¸£
n et
Ġpags ugod
Ġmet ara
p et
Ġacc ess
Ġà·Ģà¶»à¶¯ à¶ļ
Ġed ad
àº§ à»Ģàºķ
Ġb uhi
W eb
Ġ id
Ġà¶¶ à¶Ń
Ġu kon
Ñ ı
un it
al d
g et
Ġà¶ļ à·Ģà¶»
Ġ à¸Ńà¸¡
à¸ļ à¸°
à¸ªà¸¡ à¸²à¸£
à¸¤à¸© à¸İ
à¸¡à¹Ģà¸¡ à¸Ńà¸£
à¸¨ à¸Ĺà¸²à¸ĩ
à¹Ģà¸Ļ à¸Ńà¸£
à¸Ĵà¸Ļ à¸²à¸Ĺ
Ġgit as
33333333333333333333333333333333 3333333333333333
Äģ n
Ġà¶ĳ à¶Ńà¶»à¶¸
Ġh imo
Ġgip an
Ġg an
Ġp ah
Ġà¶ľ à·Ģ
àºĩ àºķàº²àº¡
àºĤ àº°àº«àºįàº²àºį
ĠK ung
àºĶàºĤàºŃàºĩ àºĹ
àºŀàº²àºģ àºŀ
à¸Ħà¸£ à¸ªà¸¡à¸²à¸Ĭ
à¸Ļà¸ª à¸Ķ
à¸Ħà¸¥ à¸²à¸ª
à¸²à¸¨ à¸²à¸¥
à¸¢à¸ģ à¹Ģà¸¥
à¸ģ à¸«à¸¥à¸²à¸¢
à¸ Į
à¸ļ à¹ģà¸¡
à¹Ĥà¸ĭ à¸Ļ
u je
à¸²à¸¢ à¹ĥà¸«
Ġàº¥ àº§àº¡àºĹ
àº²àºģ àºŃàºĻ
ugang an
Ġàºª àº°àºļ
Ġg agmay
I R
com e
ĠC anon
ĠT op
ost ed
à»Ĥàº®àºĩ àº®àº½àºĻ
Â ´
all y
àºĩ à»Ģàº¥
in um
emb er
f a
Ġà¸ª à¸ģ
àºģàº²àºĻ à»Ģàºĩ
àºĩàº²àºĻàº §
ĠÃ ľ
666666 6
ĠM y
7 3466666
Ġ à¹Ħà¸Ĥ
à¸µ âĢĿ
à¸ª à¸Ĭà¸²à¸ķ
Ġà¸Ń à¸Ńà¸Ļà¹Ħà¸¥à¸Ļ
à¸Ļà¸ª à¸³à¸Ħ
à¹ģà¸Ĺ à¸ĩà¸«à¸§à¸¢
à¸Ń à¹Ģà¸Ń
à¸ª à¸ĩà¸Ħà¸£à¸²à¸¡
à¸ķ à¹Ģà¸ķà¸Ńà¸£
à¸¤ à¸«
à¸Ļà¹ĥà¸Ī à¸§
ulo an
à¸Ĭ à¸Ķ
at ure
àºŃàºį à»Ĩ
p on
U B
Ġga sto
H O
derm at
ĠBl u
ç ¥
àºģàº²àºĻ à»ĢàºĬ
à·Ĭ -
y os
à¸² à¹Ĥà¸Ļ
à¸¡ à¸ĺà¸²à¸Ļ
à¹ĥ à¸Ķà¸ģ
à¸¢à¸§ à¸ļ
à¸«à¸¡ à¸§à¸ģ
à¸²à¸Ń à¸°à¹Ħà¸£
Ġà¸«à¸²à¸ģ à¸Ħ
à¸ª à¸Ńà¸Ķ
à¸Ĺà¸£ à¸Ľà¸£à¸²à¸ģà¸²à¸£
Ġe ng
ap ukan
ĠP ower
àºģàº²àºĻ à»ĥàº«àºį
Ġkan al
Ġar e
Ġmag amit
àºĩ à»ĥàº«àºį
P h
Ġt awhan
) :
3333333333333333333333333333333333333333333333333333333333333333333333333333333333333333333333333333333333333333333333333333333333333333333333333333333333333333333333333333333333333333333333333333333333333333333333333333333333333333333333333333333333333333 3333333333333333333333333333333333333333333333333333333333333333333333333333333333333333333333333333333333333333333333333333333333333333333333333333333333333333333333333333333333333333333333333333333333333333333333333333333333333333333333333333333333333333
D ate
ĠS u
ĠĠĠĠĠĠĠĠ ĠĠĠĠ
ur y
à¸Ļ à¸²à¸Ħà¸²à¸£
à¹ī âĢĿ
à¸Ķ à¸¥à¸ĩ
à¹Ĥ à¸ļà¸ªà¸ĸ
à¸į à¸²à¸ĵ
à¸¥à¸° à¸Ħà¸Ļ
à¸Ļà¸³ à¸¡
à¸Ńà¸ģà¸²à¸£ à¸ŀ
à¹Ĥà¸ļ à¹Ģà¸ļ
à¸Ń à¹Ģà¸Ħà¸£
aliforn ia
t is
à¸Īà¸Ńà¸Ķ à¸£à¸ĸ
àº²àºĩàºģ àº²àºį
Ġàº« àºĻ
ĠM il
ĠSam tang
ĠOff ice
àºĻàº ½
Ġkom un
Ġsc reen
ĠàºĪ àº³
ĠC L
à¶³ à¶§
Ġà»ĥàºĻàº ķ
Ġak t
ĠMind anao
ĠMay or
àºĻàºĬ àº²àºĶ
Ġl ar
à¹Ģà¸ª à¸Ķ
à¸ļà¸£ à¸Ńà¸ĩ
à¸ĩ à¹Ģà¸«
àºĻàºĹ àº°àºĻàº²
à¸ķà¸ļà¸Ńà¸¥ à¹Ĥà¸¥à¸ģ
à¸ĩ à¸Ľà¸¥
àºļ àº¢
à¸ªà¸° à¸ŀà¸²à¸Ļ
àº³ àº¡
Ġà¶ĩà¶» à¶¹
us unod
ort unidad
àºŃàºģ àº«àº²
Ä ĥ
n h
àºĻàºĬ àº§
al ar
à¸¡ à¸ŀà¸£
à¸Ķ à¸ļà¸Ńà¸¥
à¸Ĥ à¸¢
à¸Ĥà¸Ńà¸ĩ à¸ļ
uw ega
Ġà¸ķà¸Ńà¸ļ à¸¥
Ġval gus
à¸Ńà¸ĩ à¹ĥà¸«à¸¡
Ġl egal
ĠK at
Ġà¹Ģà¸Ĭ à¸¥à¸ĭ
àºļàºģàº²àºĻàº Ľ
à¸¢ à¸¨
à¸Ń à¹Ģà¸¢
à¸¡à¸Ń à¹Ģà¸ķà¸Ńà¸£
à¸«à¸Ļ à¸²à¸§
u yon
à¹ģà¸ģ à¸°
Ġn awong
ĠP art
à»Ģàº¥àºĤ àº²àºĹ
Ġà¶ĭ à¶ľà¶Ń
àº²àºĩ à»ĥàºĶàºģ
e ed
ĠWh ite
en ing
à·ĬâĢ ¦
Ġà»ĤàºĶàºį àº¡
Ġkab ubut
Ġk uw
' ,
ĠS ony
ĠW ar
ord er
_ (
o ot
Ġgid ala
à¸Ļ à¸£à¸²à¸Ĭ
à¸²à¸¢ à¸ľ
à¸Ĥà¸Ńà¸ĩ à¸Ľà¸£à¸°à¹Ģà¸Ĺà¸¨
à¸ł à¸²
à¸Ńà¸Ķ à¸Ĺ
Ġà¸Ļ à¸²à¸¬
à¸ģà¸© à¸²à¸ģà¸¥à¸²à¸ģ
à¸ī à¸¥à¸Ńà¸ĩ
à¸ļà¸ģà¸²à¸£ à¸Ī
à¸Ĥà¸Ńà¸ĩ à¸ļà¸£
ĠR P
ĠChang wat
11 9
àº¡ àº²àºĦ
à¶¯ à¶Ń
l ap
à»Ģàº£ àºį
t Ã©
ĠIn st
àºĦàº³ à»Ģàº«
à»ĥàºĻàºĽàº° à»ĢàºĹàºĶ
Ġbuhat an
or on
àº²àº Ł
Ġop ortunidad
Ġadlaw a
us s
bob et
+ +
in u
ĠM ap
àºŃ àº³àºĻàº§àºį
ral ya
à¸¡ à¸Ŀ
Ġà¶ĳà¶ļ à¶½
à¸Ħà¸³ à¹ģà¸Ļà¸°à¸Ļà¸³
à¸ļ à¸ł
à¸Ńà¸ĩ à¹Ģà¸ŀ
à¸ģà¸³ à¹Ģà¸Ļ
à¸ķ à¸²à¸£
à¸²à¸Ļ à¸ļà¸Ļ
à¸ŀà¸£à¸° à¸£à¸²à¸¡
Ħ ¢
Ġl ima
Ġà·Ħ à¶±
Ġp adayon
ĠM ed
alog ue
àº² à»Ģàº«
S h
áº ¡
àº²àºį àº®
Ġà¶ĭà¶´ à¶ļà¶»à¶«
ĠCan ada
Ġà¶± à¶»à¶ļ
Ġt ab
ĠA t
à¸Ń à¸²à¸ĵà¸²à¸Ī
à¸²à¸ª à¸²à¸£
à¸ķà¸£ à¹Ģà¸Ħà¸£à¸Ķ
à¸Ĺà¸ĺ à¸¨à¸²à¸ªà¸ķà¸£
à¸Ļà¸ģà¸²à¸£ à¸¨
à¸³à¸Ļ à¸²à¸Ī
Ġà¸£à¸§à¸¡ à¹Ħà¸Ľà¸ĸ
à¸Ĥà¸Ńà¸ĩ à¸«à¸Ļ
ĠJ o
à¹Ģà¸ª à¸ŀà¸ķ
ar ch
Ġkinahanglan on
Ġà¶¶à¶½ à¶ºà¶§
Ġmags ugod
at ic
Ġsum usunod
k al
Ġpopul ar
àºĶ à»Ģàºŀ
m en
le ct
ekt ibo
Ġproc eni
Ġà¶´à¶» à¶«
ĠPhilip p
à¶¸ à¶ºà¶§
à¸Ļ à¸ģà¸¥à¸²à¸ĩ
à¸Ĥà¸Ńà¸ĩ à¹Ģà¸Ĥà¸²
à¸Ļà¹ģ à¸Ķà¸Ķ
à¸²à¹ģ à¸ŀ
à¸²à¸ĺ à¸²à¸£à¸ĵ
à¸ļà¸£à¸£ à¸¢à¸²à¸¢
à¹ģà¸Ļà¸§ à¹Ĥà¸Ļ
uro dermat
urodermat itis
à¸įà¸« à¸²à¸Ĺ
à¸¢à¸Ńà¸Ķ à¸Ļ
à¶ļ à¶ļà¶§
Ġmo abot
Ġb ili
Ġkan t
al um
àºĶàºĸàº° àºĹ
àºªàº³ à»Ģàº¥
ur r
Ġà¶§ à¶º
ay s
un ction
àº° àºĽàº°àºĬàº²àºĬàº²àºĶ
up orta
àºŃ àº²àºĹ
àºªàº³ àºĻ
àº²àºį à»ĥàºĻ
7 49666666
8 49666666
792 666666
à¸£ à¸ŀ
à¸Ķ à¸ļà¸£
à¸Ļà¸Ĺ à¸²à¸Ļ
à¸£à¸²à¸ «
à¸Ĳ à¸ĺà¸£à¸£à¸¡à¸Ļ
Ġtig gamit
à¸Ļ à¹Ģà¸¢
Ġà¶ħ à¶§
à¸Ļ à¸£à¸°à¸ļà¸ļ
ĠGe org
Ġk it
à·Ģà¶ļ à¶º
ĠM er
ah om
l ess
12 2
à»Ĥ àº¡àºª
Ġib utang
ic ip
àºĻàºģ àº§
Ġn etwork
m s
àº¡àº²àºĶ àºķàº°
à¸¡ à¸ªà¸¡à¸²à¸Ĭ
à¹ģà¸¥à¸° à¸Ĭ
à¸Ńà¸ģ à¸£
à¹Ģà¸¡ à¸°
à¸§à¸Ķ à¸«à¸¡
à¸ŀà¸§à¸ģ à¸Ļ
à¸ģà¸ŀ à¸²
à¸¡ à¸ĸ
à¸Ħà¸§à¸²à¸¡ à¸ªà¸°à¸Ńà¸²à¸Ķ
à¸ªà¸£à¸£ à¸ŀ
à¸¡à¸² à¹Ģà¸ŀ
ment s
Ġnagk inahanglan
u j
atag an
àºĻ à»ĤàºĶ
Ġà¶ĩà¶º à¶ľ
ag awas
ĠàºĽàº° àºĪ
M all
ĠAwst ralya
àº²àºį àºĽ
al aka
à¶»à¶¸ à·Ģ
à¸Ļ à¸²à¸¬
à¸ĺ à¸Ĺ
à¸ĩà¸¢ à¸²à¸ģ
à¸¡ à¸Ļà¸ķ
à¹Į "
Ġà¹ģà¸¥à¸° à¹Ģà¸¡
à¸Ļà¹ĥà¸Ļ à¸Ĭ
à¸ķ à¹Ħà¸Ķ
Ġà¶Ĭ à·ħà¶Ł
ĠC alifornia
amat uod
Ġl o
isa syon
Ġnag ak
Prin anses
ĠF ree
Ġnagp asabot
Ġm iyembro
ĠGala xy
f or
Ġ à»ĥàºĬ
3 55
Ġà¶ħ à¶Ł
à¶ľ à¶´
ĠJ on
Ġin ahan
Ġsup orta
à¸Ń à¸Ħà¸Ļ
à¹Ĥ à¸«à¸¥
à¸²à¸Ļ à¹ĥà¸«
Ġà¹Ģà¸ŀ à¸Ĭà¸£
à¹Ĥà¸¢ à¸ĺ
Ġà¹Ģà¸ļ à¸Ńà¸£
à¹Ĵà¹ķ à¹ĸ
Ġà¸ª à¸¢à¸²à¸¡
à¸ĩà¸£ à¸§à¸¡
à¸ĩ à¸£à¸°à¸ļà¸ļ
à¹ĥà¸Ļ à¹Ĥà¸¥à¸ģ
à¸Ń à¹Ģà¸ķ
Ġà¹ģà¸¥à¸° à¹Ģà¸ŀ
l im
Ġf ile
àº²àºĻàº į
ĠB ell
Ġà¶´ à·Ģà¶»
àºªàº° àºĻ
àº²àºĻàº Ľ
àº§àº½ àºĩ
ĠD om
ĠàºĬ àº²àº§
Ġb ers
al ity
at iman
ĠD ownload
Ġsayo p
Ġs lot
à¸Ńà¸ĩ à¸ªà¸²à¸§
Ġà¸ª à¸ĸà¸²à¸ļ
Ġà¹ģ à¸®
à¸Ļà¸£ à¸²à¸ĩà¸§
à¸Ńà¸Ļà¸Ħà¸¥ à¸²à¸¢
à¸ĩ à¸Ľà¸£à¸°à¸ķ
à¸Ńà¸Ļ à¸ĸ
à¸© à¸Ĳà¸²à¸Ļ
àº²àºĻàº§ àºĻ
à¹Ĥà¸¡ à¹Ģà¸Ķ
c lub
in om
à»ĦàºĤ àºļ
ĠM ad
to k
Ġà¶¶ à¶³
àºĻàºĹ àº°
Ġsak it
Ġ em
ĠT O
à¸¡ à¹Ģà¸«à¸¥
à¸Ĭ à¸¥
à¸ĭ à¸Ńà¸Ł
à¸Ĥà¸Ńà¸ĩ à¹Ģà¸Ĥ
Ġà¹ĥà¸Ļ à¸ª
Ġà¸ļà¸²à¸ĩ à¸Ħà¸Ļ
à¹ĥà¸Ļ à¸Ĥ
à¸²à¸Ļ à¸ªà¸²à¸¡à¸²à¸£à¸ĸ
à¹ĥà¸Ļ à¸Ī
Ġà¸Ī à¸Ļà¸ĸ
à¸²à¸Ĥ à¸²à¸§
à¶« à¶§
àºĸàº° à»ľ
àºĻ à»ģàºļàºļ
p or
àºģ àºŃàºĻ
ĠC ebu
ra j
Ġkal inaw
Ġmob ile
ing nan
Ġr ason
àºŃàºĩ àº®
à ®
àºĩàº²àºĻàº ĤàºŃàºĩ
àº§ à»Ģàº¡
m ot
àº²àºį àº§
at ive
à¸Ļ à¸Ħà¸§à¸²à¸¡à¸£
Ġà¸ģ à¸Ńà¸ĩà¸ģà¸¥à¸²à¸ĩ
à¹ĥà¸Ļà¸ģà¸²à¸£ à¸Ĺà¸³
à¸ģà¸©à¸² à¹Ĥà¸£à¸Ħ
à¸§à¸²à¸ĩ à¹ĥà¸Ī
à¹Ģà¸ŀà¸Ĭà¸£ à¸ļ
à¸įà¸²à¸ķ à¹ĥà¸«
à¸ī à¸²à¸¢
sub ar
ĠM art
ĠO ne
)) ))
Ġkasa l
àºģ àº½àº¡
Ġ isyu
ĠK o
ĠH abagat
ĠBi saya
Ġà¶¶à¶½ à·Ģ
ct or
ĠC amp
Ġka w
Ġà·ĥ à¶¢
à»Ģàº§ àºĹ
ĠT im
ĠàºŃàº²àºĬ àº½àºĻ
Ġsa van
Ġsavan na
à¸§ à¸ģà¸¥
à¸Ħà¸£ à¸Ńà¸ĩ
à¹Ħà¸Ľ à¹Ģà¸Ĺ
à¸Ńà¸Ĺ à¸Ńà¸ĩ
à¹ģà¸¥à¸° à¸Ķ
à¹ģà¸£à¸ĩ à¸ĩà¸²à¸Ļ
à¸ªà¸£à¸£ à¸ŀà¸ª
Ġà¶½ à¶º
à¸¡ à¸Ł
àº²àºį àºŀ
Ġg iya
Ġà¶¯ à¶º
ĠT ok
à·Ļ ,
Ġn ay
àºĩ à»Ģàº«
Ġk t
ub ay
à»ĥàºĻ à»ĤàºŃàºģàº²àºĶ
ĠD em
ĠO d
Ġà¶´ à·ģ
Ġ à¸Ħà¸§à¸¢
à¸² à¹ģà¸ļà¸ļ
à¸Ļ à¸Ħà¸§
à¸Ń à¸ľà¸¥
à¸¥ à¸ĩà¸ªà¸Ļà¸²à¸¡
à¸° à¸ŀà¸£
à¸Ħ à¸²à¸¡
Ġà¸ĸ à¸²à¸¡
Ġà¹Ģà¸Ł à¸Ńà¸£
à¸Ľ à¸ģà¸Ľ
Ġà¶´à¶» à¶´
à¸ģ à¸İ
Ġà¹ģ à¸Ńà¸ļ
àºĩàºĦ àº²àº¡
Ġà¸Ńà¸Ńà¸ģ à¹ģà¸ļà¸ļ
Ġà¹Ģà¸Ħ à¸¥
w ood
ug ong
han on
àº²àºĪ àº²àºĻ
Ġ ide
Ġs el
Ġkant idad
ĠM od
V D
H z
Ġkom panya
à¶ļà¶»à¶« à¶ºà¶§
à»ĤàºĦàºªàº° àºĻ
Ġmod elo
Ġs ugo
e f
àºļ à»Ģàºĩ
ĠP ala
Ġkab tangan
l it
Ñ ĭ
Ġà¶¶à¶½ à¶¸
à¸Īà¸° à¹Ģà¸«
à¸§à¸¢ à¸ķà¸Ļà¹Ģà¸Ńà¸ĩ
à¸²à¸Ĭ à¸²à¸§à¸ļ
à¸Ļà¹Ħà¸Ľ à¸ģ
Ġ à¸§à¸ĩ
à¸Ļ à¸¢à¸Ļà¸ķ
à¹ģ à¸§à¸Ķà¸¥
à¹ģà¸¥à¸° à¸ļà¸£
à¸Ľà¸ģà¸Ħà¸£ à¸Ńà¸ĩ
à¸Ńà¸£ à¸ĸ
à¸ķà¸£ à¸Ĺ
à¶§ à·Ģà¶Ń
àº²àºŀàº° à»ģàºĻàºģ
am in
Ġd ok
iÅ¡ e
ĠDep artamento
Ġ= ==
ĠM id
uyo an
àºģàº²àºĻàº ¡
y ot
ĠàºŃàº²à»Ģàº¡ àº¥
àºŃàº¡ àº®
à·ļ ?
à·ģ à¶±à¶ºà¶ļ
àºĻàºĤ àº°àº«àºįàº²àºį
as i
99 0
à¹ģ à¸Ļà¸°
à¸³ à¹Ħà¸Ķ
à¸Ńà¸Ļ à¸Ħ
à¹Ģà¸£ à¸²à¸Ĺ
Ġà¸Ļ à¸¡
à¹Ģà¸Ń à¸¥
Ġà¹Ģà¸£ à¸²à¸ķ
à¸ģà¸ª à¸²à¸§
Ġà¸Ĥà¸Ńà¸ĩ à¸Ħ
à¸Ńà¸²à¸Ī à¸¡
Ġà¹Ģà¸ĭ à¸£
àºĩ à»Ģàºŀ
ig anan
Ġ ev
àºĻ à»ģàº®àºĩ
Ġà¸Ńà¸²à¸«à¸²à¸£ à¹Ģà¸ªà¸£
Ġter itor
Ġpagh alad
Ġh apit
ĠU ban
Ġnak ab
6666 5
Ġmag m
à¶ħ à¶º
àºģàº²àºĻ àºĻàº³
ĀĀ ĀĀ
Ġà¶ļ à¶¯
à¶ł à¶º
Ġig o
ĠV en
ĠNas elje
u ai
bo x
à·ı ÂŃ
à¸Ĺà¸³ à¸ļ
à¸²à¸Ĥ à¸Ńà¸ĩà¸Ħ
Ġà¸¡à¸²à¸ģ à¸ģà¸§
à¸Ľ à¸ģ
à¸²à¸Ķ à¸§
Ġà¸Ľà¸£à¸° à¸Ĭ
à¸Ľà¸£à¸°à¹Ģà¸Ĺà¸¨ à¸į
à¸ģà¸Ħ à¸Ļà¸Ĺ
à¹ģà¸ªà¸Ķ à¸ĩà¹ĥà¸«
à¸£à¸° à¸«à¸Ļ
à¸¡à¸²à¸ģ à¸¢
à¸ªà¸§à¸¢ à¹Ĩ
lant aw
àºĻ à»ģàº«
ĠNor uwega
Ġseg un
à¸§ à¹Ħà¸Ĺà¸¢
ib a
ĠB angkok
Ġ av
Ġà¶± à·ĥ
ĠIn lÃ©
àºŃàºĩ àºĦ
Ġpagt rabaho
it ar
Ġà¶¶à¶½ à¶½
ap p
àºļàºŀàº°àºįàº²àºģ àºŃàºĻàºĹ
ov ern
say lo
ers ion
al awigan
an e
Ġà·Ģ à¶ł
à¸ª à¸§à¸¡
à¸²à¸ĩ à¹ģà¸Ĺ
à¸ĵ à¹Ģà¸Ľ
à¹Ģà¸ģ à¸¢
à¹Ģà¸¥ à¸¢à¸Ļ
à¹Ģà¸§ à¸¢
à¸Ļà¸« à¸²
à¹Ģà¸ĺà¸ ĥ
à¸Ļ à¹Ģà¸Ħ
à¸Ļ à¸ī
à¸Ķ à¹ģà¸¡
à¸ģà¸£à¸° à¸«à¸Ļ
à¸¡à¸Ļ à¸²à¸Ħà¸¡
uw asan
à¸²à¸Ĺà¸³ à¹Ħà¸¡
à¸Ļà¹ĥà¸Ļ à¸Ĺ
Ġlist ahan
ur s
àºĻàº§ àº²
à·Ģà¶» à¶ºà¶ļ
ĠT el
um ong
11 8
à·ĥ à·Ģà¶º
Ġp ot
ad as
àºĻ à»ĥà»Ŀ
id ge
à·Ħ à¶ºà¶ļ
Ġà¶»à¶¢ à¶ºà¶§
u ang
rang e
àºģ àº½àºĶ
à¸ķ à¸³à¸ļà¸¥
à¸³ à¹Ģà¸ŀ
à¸Ńà¸Ļ à¹ģà¸Ń
à¸Ńà¸¢ à¸¥à¸ĩ
à¸ļà¸ļ à¸Ĺ
Ġà¹ĥà¸Ļ à¸£
à¹Ģà¸ĺ à¸Ńà¸£
Ġà¹ģà¸ĸ à¸¡à¸¢
Ġne urodermatitis
à¸ĩ à¹ĥà¸ª
à¸²à¸ĩ à¸«à¸²à¸ģ
11 2
Ġbro j
àºĻàºªàº³ à»Ģàº¥
à·Ĭ ;
Ġpang ulo
in harian
Ġkag inharian
ĠB ig
Ġà¶ ĵ
àºŃàºĻàº Ī
ĠC lass
g y
àºĻàºĬàº§ àºĻàºŁ
S X
ĠR ev
à¸¥ à¸²à¸ģ
à¸ļ à¹Ģà¸ģà¸¡
à¸« à¸ģà¸£à¸ĵ
à¸Ĥà¸Ńà¸ĩ à¸Ľà¸£à¸ª
à¸Īà¸° à¸ĭ
à¸Ľà¸£à¸°à¸ª à¸²à¸Ļ
à¸Ļà¹Ĥ à¸Ķà¸Ļ
à¹Ģà¸¢à¸Ńà¸£ à¸¡
à¸Ńà¸ĩ à¹Ģà¸«
Ġt on
à¸§à¸¢ à¸¢
à¹Ħà¸Ľ à¸Ń
à¸Ńà¸ĩà¸ģà¸²à¸£ à¸Ĺ
à¸Ķà¸Ń à¸²à¸ģà¸²à¸£
à¶Ĩ à¶»
à¸Ĺà¸£à¸²à¸ļ à¸§
à¸Īà¸ŀà¸£à¸° à¹Ģà¸Ī
à¹ĥà¸Ļ à¹ģà¸ķ
us i
àºĩàºª àº²àº¡àº²àºĶ
Ġhal in
ĠSan ta
ĠàºĻàºŃàºģàºĪàº²àºģ àºĻ
Ġm ark
Ġnak at
à¶´ à¶ºà¶ļà¶§
Ġmak ahatag
ĠTa iland
Ġ ayaw
à¶ľ à·ĥ
Ġ àºĩ
àº¡àº§ àºĻàºĬ
Ġpod ruÄį
Ġd u
19 99
Ù Ħ
z ech
Ġà¶ĭà¶´ à¶º
Å «
à¶» à¶ļà¶»
ĠTailand ya
à¸§ à¸°
à¸Ńà¸ĩ à¸Ħà¸¥
à¸Ħà¸§à¸²à¸¡ à¸Īà¸£
à¹ĥà¸Ī à¸ģ
à¸ģà¸£à¸° à¸Ļ
à¸ļà¸Ĺ à¸§à¸Ļ
à¸ģà¹Ģà¸ķà¸° à¸Ĺ
à¸Ľà¸£à¸°à¸¡ à¸§à¸¥
à¸Ńà¸Ļ à¸Ĭ
à¸¢à¸ĩ à¸ŀ
Ġkat uyoan
à¸Ļà¸Ńà¸Ńà¸ģ à¹Ģà¸ī
.. -
Ġn o
35 2
àºĻàº« àºį
lak aw
il ak
Ġ} ,
Ġdak ung
S M
Ġbal ik
Ġàºķ àº°àº«
Ġà¶´à¶¯ à¶ļ
àºģ àº¥àº°àºĶ
àºļ à»Ģàº¥
id s
Ġà¶½à¶¶ à¶º
ĠG in
Ġà·Ģ à·ħ
ĠB ud
Ġpan t
à¸ĩ à¸Ľà¸ı
à¸³ à¸ľ
à¸²à¸¢ à¸ļ
à¸Ńà¸¡ à¸ļ
à¸ĩà¸ª à¸²à¸§
à¸¢à¸ĩ à¸ŀà¸Ń
Ġà¸§ à¸£
à¸ļà¸²à¸ĩ à¸Ħà¸£
à¸Ńà¸¢à¸²à¸ģ à¹Ħà¸Ķ
à¸ŀà¸£à¸°à¸£à¸²à¸Ĭ à¸Ĺà¸²à¸Ļ
à¸Ń à¸Ħà¸¥
à¹Ĥ à¸ī
Ġà¸ģà¸²à¸£ à¸§
Ġà¸Īà¸° à¹Ħà¸¡
à¹ģà¸Ī à¸ģ
à¹Ģà¸£ à¸²à¸ªà¸²à¸¡à¸²à¸£à¸ĸ
à¹ģà¸Ĺ à¸ļ
à¸ªà¸Ńà¸ļ à¸ªà¸§à¸Ļ
àº²àºį à»ĢàºĽ
ĠG al
àºļàºĽàº° àº¡àº²àºĻ
àºŃàºĶ àºĦ
op s
ĠJon athan
àºĪàº° àºķ
àºĦàº§àº²àº¡ àºªàº²àº¡àº²àºĶ
àºŃàºĩ àº¥
Ġpags unod
l ad
S am
àº§ àºĻàºķ
Ġp etsa
Ġbun tag
u ch
ĠL td
Ġ à¸£à¸°
à¸Ļ à¹ģà¸«
à¸ĩ à¸łà¸²à¸¢à¹ĥà¸Ļ
à¸Ħà¸§à¸²à¸¡ à¹Ģà¸«
Ġà¸ģà¸²à¸£ à¸ŀ
à¸ļà¸ģà¸²à¸£ à¸ŀ
iv ision
à¸²à¸ľ à¸¡
à¸ĩ à¹Ģà¸ļ
à¸ķ à¹ĥà¸Ļà¸£
à¸ĩà¸ª à¸§
Ġà¸« à¸²à¸ĩà¸²à¸Ļ
à¸ĩà¸Ĥ à¸Ļà¸²à¸Ķ
à¸ģ à¸ªà¸£
à¸²à¸£à¸° à¸Ķ
Ġà¶Ĩà¶´ à·Ħ
n el
Ġg um
Ġb ut
Ġt erm
Ġà¶º à¶¯
. /
à¶¢ à¶ºà¶§
iling ban
iga syon
Ġkap uloan
Ġka usa
gan ong
Ġb ang
d iha
à¶´ à¶ºà¶§
àºģàº§àºĶàºģ àº²
d r
Ġà»ģ àºĹ
666666666666 7
Ġ os
à¸ĩ à¸¡à¸²
à¸Ħ à¸Ĭ
à¸Ńà¸ĩ à¹ģà¸ķ
à¸²à¸ģ à¸²à¸ģ
à¸Ħà¸Ļ à¸Ķ
à¸ĩà¸Ħ à¹Ĥà¸Ľà¸£
à¸Ĥà¸Ļà¸²à¸Ķ à¸Ļ
à¸įà¸Ĭ à¸²à¸ģà¸²à¸£
à¹ģà¸«à¸¥ à¸°
à¸Ńà¸¢ à¸Ĥ
à¸¢à¸ĩ à¸Ħ
Ġà¸¢ à¸²à¸§
à¸Łà¸£ à¸Ļà¹Ħ
à¸ģ à¹ģà¸ļà¸ļ
à¸§ à¸«à¸¥
à¸Ĥà¸Ńà¸ĩ à¸Ī
ist er
Ġà¹Ģà¸ŀà¸£à¸²à¸° à¸īà¸°à¸Ļ
Ġà»ĥàºĻàº Ħ
Ġng anong
à¶´ à·Ħ
àºĹàº²àºĻ àº²àºĹ
Ġà¶ħà¶¯à·Ħà·ĥ à¶ļ
àº²àºĩ àºŀ
ĠT er
à·Ģà¶ļ à¶¯
at ubang
Ġgik uha
àº¡ àº«
à¶© à¶ºà¶ļ
àºĻàº° à»Ĥàºįàºļàº²àºį
àºģàº²àºĻ à»Ģàº®
Ġà¶¢à¶± à¶¸
àº²àºĩ àºŃ
à»Ģàºķ àº°
er v
àºĻàºĶ àº²àºģ
à¸² à¹Ģà¸«à¸¥
wit ter
w n
à»ĤàºĹ àºĶ
Ġàºª àº°àºĻ
or ia
ik ay
pl ay
ic an
àº²àºĩ àº®
iv al
Ġintern et
à¶© à·Ģ
à¸«à¸¡ à¸Ńà¸ģ
Ġà¸Ĭ à¸Ńà¸ļ
à¸²à¸Ļ à¹Ģà¸Ĭ
à¸ķà¸¢ à¸ªà¸²à¸£
à¸£à¸ª à¸Ĭà¸²à¸ķ
àºĻ à»Ģàº«
à¹ģà¸Ł à¸Ĭ
Ġte am
à¸ĩà¸Ń à¸³à¸Ļà¸§à¸¢à¸Ħà¸§à¸²à¸¡à¸ªà¸°à¸Ķà¸§à¸ģ
àºĻàºĦàº§àº²àº¡ àºªàº°àº«àºĩ
Ġh and
Ġre p
Ġàºľ àº°àº¥
Ġlik od
àº½ àºĻàº¡àº²
ĉ Ġ
ĠC le
àºĶ àº³
àºĪàº³àºĻàº§ àºĻ
àºŃàºŃàºģ àºĪàº²àºģ
Ġl ine
à·Ķ ;
ª å
àº²àºĻàº ľ
à¶° à¶»
iy o
àº« àº°
àºĤàºŃàºĩ àºŀàº§àºģà»Ģàº®
A W
à¶ļ à¶ļà¶»
ĠT e
Ġdi ay
amb ong
Ġà¶¸ à¶»à¶«à¶º
à¸§ à¹Ģà¸ŀ
à¸Ļà¸ª à¸£
à¸¢à¸Ķà¸Ļà¸²à¸¡ à¹ĥà¸ķ
à¸ģà¸²à¸£ à¸¡
à¸Ńà¸ģ à¸³à¸«à¸Ļ
à¹Ģà¸ģ à¸ĵà¸ĳ
Ġy ano
in ter
D istrito
à»ģàºĻàº§ à»ĥàºĶ
àº°àºļ àº²àºĻ
Ġà»ĥàºĻàº ª
Ġd igital
Ġc all
ĠCar l
à¶Ń à¶¯
Ġà¶ħ à¶¢
Ġn ot
in st
Ġbal ita
Ġdi os
à·Ģ à¶´
Ġlib ro
ĠD ut
àº§àº½ àºĶ
àºĶàºª àº²àº«àº°àºģ
à¸Ĥ à¸Ńà¸ļà¸Ħ
à¸Ńà¸ģ à¹Ģà¸¥
Ġà¸¡ à¸²à¸ķ
à¹Ģà¸«à¸¡à¸²à¸°à¸ªà¸¡ à¸ģ
à¹ģà¸§ à¸°
Ġà¹Ĥà¸Ķ à¸¢à¸Ļ
Ġ à»ĤàºĦàºĩàºģàº²àºĻ
à¹ĥà¸Ļ à¸Ńà¸Ļà¸²à¸Ħà¸ķ
à¸Ħà¸§à¸²à¸¡ à¸¢
Ġà¸Īà¸° à¸Ĭ
à¸²à¹Ģà¸ª à¸ŀà¸ķ
à¶º à¶«
à¶½à¶ļ à¶ºà¶±
ĠBl ue
66666666666666666666666666666666666666666666666666666666666666666666666666666666666666666666666666666666666666666666666666666666666666666666666666666666666666666666666666666666666666666666666666666666666666666666666666666666666666666666666666666666666666666666666666666666666666666666666666666666666666666666666666666666666666666666666666666666666666666666666666666666666666666666666666666666666666666666666666666666666666666666666666666666666666666666666666666666666666666666666666666666666666666666666666666666 66666666666666666666666666666666666666666666666666666666666666666666666666666666666666666666666666666666666666666666666666666666666666666666666666666666666666666666666666666666666666666666666666666666666666666666666666666666666666666666666666666666666666666666666666666666666666666666666666666666666666666666666666666666666666666666666666666666666666666666666666666666666666666666666666666666666666666666666666666666666666666666666666666666666666666666666666666666666666666666666666666666666666666666666666666666
os o
Ġpagpal it
Ġ init
ĠS un
Ġàº« àº§
alip ay
_ .-.
Ġh as
àºĻàº¥ àº°àº«àº§
Ġn ormal
à»Ħ àºĪ
à»Ĥ àºª
àºĦàº§àº²àº¡ à»ĢàºĽ
ĠMoun tain
à¸ĩ à¹ĥà¸Ļà¸ģà¸²à¸£
à¸Ńà¸ĩ à¹Ģà¸ŀà¸¥à¸ĩ
à¸Ļà¸Ń à¸²à¸¢
à¸²à¸Ĺà¸³ à¸ĩà¸²à¸Ļ
à¸Ĺà¸²à¸ĩà¸ģà¸²à¸£ à¹ģà¸ŀà¸Ĺà¸¢
à¸Ķ à¹Ħà¸§
à¸Ķ à¹ģà¸«
à¸Ī à¸ķ
à¸ķà¸£ à¸ĩà¸Ĥ
Ġà¶´à·ħ à·Ģ
angl itan
Ġd uro
Ġà·ĥà·Ħ à¶ľà¶Ń
Ġgin p
Ġik at
à¸Ķà¸Ļ à¸Ħà¸£
à¶ľà¶½ à¶ºà¶ļ
ĠG un
A Y
z ada
Ġàºģ àºŃàºĩ
7 34
ĠàºĻ àº°
ĠK ing
Ġà¶½ à¶ľ
Ä º
à¸Ļ à¹Ĥà¸£à¸Ħà¸ªà¸°à¹Ģà¸ģ
à¸Ķ à¸Ĺà¸²à¸ĩ
à¸²à¸¡ à¸ģ
àºį àº²àº§
à¸²à¸ĩ à¸¨
à¸²à¹Ħ à¸«à¸¡
Ġà¹ģà¸ĸ à¸¡
à¸ķà¸£à¸²à¸ Ī
àºĩàºģ àº§
Ġkomun ikasyon
à¸´ à¹ĭ
say od
àºĩ à»ģàº¥
Ġmak alingaw
ĠAp p
Ġkol or
Ġà¶» à·Ħ
ala an
à·Ĵ ;
àº³ à»ģà»ľ
asa la
ĠRepubl ikang
Ġâ Ĩ
Ġh a
à¶´à¶Ń à¶ļ
à¶ľ à¶ºà¶±
ag ue
ä º
oh ol
M W
ap h
Ġsol usyon
ĠL and
ra v
à¸ĵ à¸§
Ġà¸ŀ à¸¢à¸²à¸ĺ
Ġà¸Ĥà¸Ńà¸ĩ à¸Ĺ
à¹Ħà¸«à¸Ļ à¸Ķ
à¸ļà¸Ľà¸£à¸°à¸Ĺà¸²à¸Ļ à¸Ńà¸²à¸«à¸²à¸£
à¸ģ à¹Ģà¸§
à¸²à¸£ à¸²à¸¡
à¸ĸ à¸Ńà¸Ķ
Ġà¸«à¸¥ à¸Ńà¸Ķ
à¸łà¸²à¸Ħ à¹ĥà¸ķ
Ġà¶ħ à·Ħà¶½
à¸²à¸ĩ à¸ľ
ĠI g
Ġà¶¸à¶Ń à·Ģ
ĠI N
àº¥ àºŃàºĶ
Ġà¶īà¶³ à¶±
àº²àºĩ àº¢
àº¥àº° àº¡
àºĶàºĪàº° àºģàº³
Ġh otel
Ġpagsak op
Ġ à¸¤à¸Ķ
à¸Ľ à¸²
àºĻàº Ŀ
à¸³ à¸«
à¸Ńà¸¢ à¸¥
à¸Ńà¸¢ à¸¡à¸²à¸ģ
à¸²à¸Ń à¸²à¸ģà¸²à¸£
à¸ģà¸£ à¸²à¸¢
à¹Ģà¸§à¸ĵ à¸Ĺ
à¸¹ ,
à¸į à¸Ħ
à¸Ķ à¹Ħà¸Ł
ĠU l
am e
àºļ àº²àºĶ
àºĶ àº½àº§àºģ
Ġà¶¸ à¶§à¶Ń
àº§ àºĬ
Ã ª
ay eg
àº¥àº°àºļ àº½àºļ
m y
à¶½ à¶½
Ġmay or
Ġàº®àºŃàºĩ àº«
c on
Ġ à¸¢à¸Ļ
à¸¡ à¹Ģà¸Ĺ
à¸Ķ à¹Ģà¸ŀà¸¥à¸ĩ
à¸Ķ à¹Ĥà¸Ĺà¸©
à¹Ħ à¸£à¸Ħ
à¸²à¸Ļ à¹ģà¸¥
Ġà¹ģà¸¥à¸° à¸¥
à¸Ļà¹Ģà¸Ĭ à¸ªà¹Ģà¸ķà¸Ńà¸£
Ġà¹ģà¸ŀ à¸Ĺà¸¢
Ġà¹ģà¸¥à¸° à¹ĥà¸«
à¸Ĺà¸²à¸ĩ à¹Ģà¸¥
Ġà¹Ĥà¸£à¸ĩ à¸ŀà¸¢à¸²à¸ļà¸²à¸¥
à·Ħ à¶¬
à¸²à¸£ à¸²à¸Ħ
Ġà¸ĭ à¸¡
àºĩàºį àº²àºģ
Ġà¸Ľ à¸²à¸ģ
Ġag od
àºŃàºĩ àºį
it ch
ent s
S F
Mat ud
ema il
àºĶàºªàº° àºķ
ĠJ un
hi re
ĠR ob
ĠHes us
Ġpags iguro
Ġal as
Ġkah adlok
ation s
Ġpubl iko
Ġkal uwasan
Ġàº«àºĩàº§àº½ àºĻàºĬàº§àºĻàºŁ
ĠH in
ĠL o
ĠF L
Ġrel ih
P in
V C
à¸ģ à¹Ħà¸Ĺà¸¢
Ġp lan
à¸§à¸¢ à¹Ħà¸¡
à¸Ĺà¸£ à¸ĸ
à¸Ńà¸ķ à¸Ńà¸Ńà¸Ļà¹Ħà¸¥à¸Ļ
à¹Ĥà¸Ĺ à¸£à¸¡
à¸Ķ à¹Ģà¸Ħà¸£
Ġà¹ģà¸¥à¸° à¸ªà¸²à¸¡à¸²à¸£à¸ĸ
à¸§à¸ĩ à¹Ģà¸§à¸¥
à¸ªà¸ĸ à¸²à¸Ľ
Ġkat ilingban
ĠM ont
d ay
ĠCat alogue
d z
à·ĵ âĢįà·ĬâĢį
à»ĤàºĶàºį àºļ
re ad
Ġà¶ĳà¶ļ à¶ļà¶§
ig on
à¶ļ à¶´
al es
à·Ħ à¶»à¶«à¶ºà¶ļ
àºģàº§ àºĶ
C X
0000 0000
un icip
Ġp rema
is og
Ġgis ulti
Ġmagp abilin
à¸Ļ à¸ĺà¸£à¸£à¸¡à¸Ĭà¸²à¸ķ
à¸ĵ à¸ģà¸³à¸¥
à¸²à¸Ľ à¸ı
à¸²à¸Ļà¸Ľ à¸Ńà¸Ļà¸Ķ
à¹Ģà¸ĺà¸ ħ
à¸¡ à¸ģà¸¥
Ġà¹Ģà¸ĭ à¸Ńà¸£
à¸Ļ à¸Ńà¸ĩ
à¸ļ à¸¨
à¹Ĥ à¸ŀà¸¥
a on
Ġt rad
à¶ħ à·Ģ
I O
imal noj
3 50
b ol
in land
ĠâĨ Ĵ
s ol
à»ĥàºĶ à»Ĩ
) &
ĠH ome
ĠSw isa
à·Ģà·ĥ à¶§
Ġkap ilian
à·Ģà¶» à¶«à¶ºà¶ļ
Ġib an
od y
Ġàºªàº° àº¡àº²àºĬ
.-.-.-.- .-.-
Ġà¶ħà·Ģ à¶§
Ġkahan ay
W ala
ug on
D F
Ġgit ukod
Ġep ektibo
à¸£ à¸§à¸ļà¸£à¸§à¸¡
à¸Ķ à¸Ńà¸ģà¹Ħà¸¡
à¹Ħà¸Ľ à¹Ģà¸£
à¸Ľà¸¥ à¸Ńà¸¡
à¸²à¸ĩà¹Ĩ à¸Ĺ
à¸²à¸Ļ à¹Ģà¸Ļ
à¹ĥà¸Ļ à¸ªà¸¡
à¸ļà¸£ à¸Ńà¸ļ
à¸Ĥà¸łà¸²à¸ŀ à¸Ķ
ĠHabagat ang
à¸²à¸¢ à¸Īà¸²à¸ģ
à¸§à¸ĩ à¸¡à¸²à¸¥
à¸Ļà¹ĥà¸Ī à¹Ħà¸Ķ
àºģàºª àº²àºĹ
à¸§à¸ĩà¸Īà¸£ à¸Ľ
à¶° à¶´
àºģàº²àºĻ à»ĢàºĤ
I Y
à¸Īà¸ī à¸£
as k
B L
ĠH igh
t xt
Ġà¶ħà·Ģ à·ĥà¶»
àºĪàº° àºĬ
Ġni adto
à¶« à¶ºà¶§
ĠA ust
Ġà·Ģ à·Ħà¶½
à·ı âĢį
l ar
Ĵ Į
à¸³ à¹Ģà¸£
Ġà¸ª à¸²à¹Ģà¸«à¸ķ
Ġà¸¡ à¸²à¸ķà¸£
à¸ľà¸¥ à¸ģà¸£à¸°à¸Ĺ
Ġà¸Ĥ à¸Ļà¸¡
à¸ªà¸° à¸Ĺ
à¸ģà¸²à¸£à¸Ĺ à¸Ķà¸ªà¸Ńà¸ļ
à¸¥à¹Ģà¸¥ à¸Ńà¸£
ĠJ e
c ess
à¸ģà¸£à¸°à¸ļ à¸§à¸Ļ
og rap
à¸Ńà¸¡ à¸Ľ
Ã¡ n
à¹Ħ à¸ľ
Ġbin uhat
Ġmal ip
Ġmakad awat
àºªàº°àº« àº°àºŀ
àº²àºª àº²
200 2
Ġpags ulti
Ġà»ĥàºĻ à»Ħàº¥àºįàº°
Ġmak akita
Ġà¶Ń à¶¶à¶±
â Ħ¢
ĠCol le
à·ĥ à¶½à¶ļ
à¶¸à¶§ à¶¯
àºĶ àº«àº¡àº²àºį
è Ī
Ġà¸ī à¸ļ
at t
ĠH apon
àºĻàºĻàº° à»ĢàºĤàºĶ
2 60
form ance
uga w
àºļ àºŃàºģ
ik ap
Ġà»ģàºĤàº§àºĩ àºŃ
à¸¡ à¹Ģà¸Ķ
à¸ª à¸ªà¸²à¸§
à¸Ńà¸Ļ à¸ģà¸¥
à¹Ģà¸ŀ à¸Ī
Ġà¸ŀ à¸Ń
à¸ļà¸Ĺ à¸Ħà¸§à¸²à¸¡
à¸Ļà¹Ģà¸ŀ à¸¥à¸ĩ
à¸Ńà¸ĩà¸ª à¸²à¸¡
à¸ģ à¸ŀà¸£
àºģàº²àºĻ àºŃ
à¸Ļà¸Ħ à¸ĩ
Ġà¹ģà¸¥à¸° à¹ĥà¸Ĭ
à¸ĩ à¹Ģà¸ĩ
Ġp ack
ab ag
l ed
Ġc am
¨ ģ
in hon
ĠG ar
P osted
Ġek s
Ġà»ģ àºĻ
ol es
Ġs ens
ĠB ak
ĠJud as
à¶ĳ à¶±
à¸Ļ à¸ģà¸£
à¸Ń à¸®
à¸ĩ à¸ļà¸Ļ
à¸Ħ à¸ĩà¹Ħà¸¡
à¹ģ à¸Ŀ
Ġà¹ģà¸¥à¸° à¹Ģà¸£
à¸Ńà¸ļ à¸ª
à¹Ĥà¸® à¸Ī
à¸¨à¸²à¸Ī à¹ģà¸Ķà¸ĩ
à¸§ à¸ģà¸§
à¸³ à¹Ģà¸ªà¸¡à¸Ń
à¸ľà¸¥ à¸ķ
à¸ŀà¸£à¸° à¸ļà¸²à¸Ĺà¸ªà¸¡à¹Ģà¸Ķ
à¸²à¸Ĭ à¸²à¸¢
à¸ľà¸¡ à¸¡
à¸²à¸ĩà¸Ĥ à¸§à¸²à¸ĩ
ĠB av
Ġk ult
àºŃàº¡ à»Ĥàºį
àº½ àºļàº®
m i
12 4
Ġmed ia
d en
88 6
ĠEng lish
àºļ àºŁ
à¶Ľ à¶±
Ġnagt rabaho
àºĤ àº§àº²àºĩ
ĠÃ ĵ
m et
à¸ļ à¸«à¸¡
à¸ķ à¸Ħ
à¸Ľ à¸²à¸¥
à¸Ńà¸ĩ à¸Ľà¸£à¸°à¸Ĭ
à¸Ĭ à¸Ĺ
à¹ĥà¸Ļ à¹Ģà¸Ħà¸£
à¹ģà¸¥à¸° à¸ļ
à¸į à¸ķ
à¸«à¸£ à¸Ńà¸ģ
Ġà¸ļ à¸¥
à¹ģà¸ļà¸ļ à¹Ħà¸¡
à¹Ĥà¸Ķà¸¢ à¸¡
à¹Ģà¸ľ à¸Ĭ
à¸§à¸Ħà¸£ à¸²à¸§
à¸§à¸¢ à¸ŀ
à¸Ļà¸¡ à¸²à¸£
Ġà¸¨ à¸²à¸¥
à¸Ļà¸Īà¸° à¹Ģà¸Ľ
à¸²à¹Ģà¸Ĥ à¸ķ
å ¨ģ
à¸Ń à¹ģà¸ģ
à¸ģ à¸Ľà¸£
à¸Ńà¸ĩ à¹ģà¸¥
Ġb log
à¹Ħà¸Ľ à¸Ńà¸¢
Ġà¸Īà¸° à¸Ĺà¸³à¹ĥà¸«
àº¥àº°àºŃ àº½àºĶ
Ġà¶ħ à¶±à·Ģ
à¶± à¶ļà¶¸
àºªàº° àºĸàº²àºļ
Ġà·Ģ à·ĥà¶±
àºŃàº°àºĻ àº²àºĦ
àºŃàºĩ àºŃ
ot t
Ġnaga ingon
an indot
à¶« à·ĥ
à»ģàºķ àºģ
ut os
Ġà¶± à·ħ
Ġpa ingon
ĠD aghan
ord en
à¸Ļ à¹Ģà¸Ħà¸¢
à»Ģàº Ŀ
à¸²à¸ģ à¸³à¸¥
à¸Ńà¸¡ à¸¥
à¸Ĺà¸³ à¸Ńà¸°à¹Ħà¸£
à¸Ļà¸Ĺà¸²à¸ĩ à¸ª
à¹Ĥà¸® à¸¡
à¸²à¸Ļ à¹Ģà¸¥
à¸Ķ à¸Ńà¸°à¹Ħà¸£
Ðµ Ð
à»ĥàºĻ àºŃ
je Äį
up ad
I A
T V
ap od
Ġnil ang
**** .
Ġàº« àº²
Ġd am
k k
àº¡ àºŀàº²
á¸ ©
las h
ĠJ an
àº«àº¥ àº§àºĩ
m ark
Ġà·Ħ à¶¯à¶½
à»ģ àºĸ
ĠG ent
àºĤàºŃàºĩ àºļ
ĠT echn
à¸¡ à¹ģà¸Ĥ
à¸ļ à¸Ļà¸¡
à¹Ĥ à¸ģà¸£
à¸²à¸¢ à¸ŀ
à¸Īà¸²à¸ģ à¸ľ
Ġà¸£ à¸Ńà¸ĩà¸£
à¸§à¸Ļ à¸¡à¸²à¸ģ
à¸Ļà¸ª à¸¥
à¸Ļà¸Ĥà¸Ńà¸ĩ à¸Ħ
à¹ģà¸«à¸¥ à¸¡
Ġà¹Ħà¸Ĺà¸¢ à¸¥
à¸Ľà¸£à¸°à¸Īà¸³ à¸Ľ
Ġà¹Ĥà¸Ĭ à¸§
p orn
à¸Ļà¸ģà¸²à¸£ à¸ķ
Ġpagd awat
ung an
Ġdag kong
á» ĩ
Ġ ^
ĠJ ack
àº§ àºĻàº®
ĠL ong
à»ĦàºĽ àº¢
Ġs ch
S L
us ta
l l
lo bal
55 5
à·Ĭ ....
ĠàºĽàº° àºª
O W
Ġà¸ŀà¸£à¸° à¸Ńà¸ĩà¸Ħ
Ġà¸ŀà¸£à¸° à¸£à¸²à¸Ĭ
àº¡ à»ģàºĤàºĩ
à»ĢàºŃàºģ àºŃ
Ġt ul
àºĬ àº²àºģàº²àºĻ
ĠS o
Ġan o
àºªàº°àºŀàº² à»ģàº«
ĠS he
lat era
Ġn imong
à¸¢ à¸²à¸ª
à¸ŀ à¸ĩà¸©
à¹Ģà¸¥ à¸ķ
à¸§à¸¢ à¸¥
à¹Ĩ à¸Ĺ
à¸ģà¸¥ à¸Ļà¸Ħà¸£
à¹Ģà¸§ à¸¨
à¸²à¸Ń à¸²à¸«à¸²à¸£
Ġkal ab
à¸ĸà¸²à¸Ļ à¸ģà¸²à¸£à¸ĵ
à¸Ķà¸Ĥ à¸²à¸Ķ
à¹ģà¸ªà¸Ķ à¸ĩà¸ľà¸¥
Ġà¹Ħ à¸®
à¸ªà¸Ļà¸²à¸¡ à¸ļ
à¹Ĥà¸Ĥ à¸Ĺ
ĠG rad
Ġgit udlo
à¸¢à¸² à¹Ģà¸ªà¸ŀà¸ķ
ad ong
ab uhat
à·ĥ à¶±à¶º
à¸£à¸ĸ à¹Ħà¸Łà¸Ł
Ġmil abay
, "
à¶½ à¶±à¶ºà¶§
Ġpab or
ãĦ Ĩ
Ġàºª àº³
àºļ àºĪàº²àºģ
ne y
Ġà¶ĵ à¶Ń
Ġkat awo
ĠMas ter
Ġm isa
àº²àºĻ à»ģàº¥àº°
àº¡àº² à»Ģàºĸ
g i
àºŃàº¡ àº¡
Ġà¶ľà¶Ń à·Ģ
Ġà¶± à¶¸à¶ļ
19 0
à»ĢàºĹ àºĶàºĹ
ĠIng latera
ib ot
Ġmak ah
ĠGre g
or ies
C ebu
Ġs ud
a u
Ġbul uhaton
sak to
Ġart ikulo
ip to
Ġpagban tay
Ġsus p
à¸ª à¸Ĭ
à¸§à¸¢ à¸Ħà¸£
à¹Ħà¸Ľ à¸ķ
Ġà¸ģ à¸³à¸«à¸Ļ
Ġà¸ģà¸²à¸£ à¹ģà¸Ĥ
à¸ļà¸ģà¸²à¸£ à¹Ģà¸¥
Ġà¸ģà¸£à¸° à¸Ī
à¸ĩà¹ģà¸£à¸ģ à¸Ĺ
à¸¥ à¹Ģà¸ģ
à¸ª à¸²à¸ļ
44 44
à¸§à¸¥ à¸Ĭà¸Ļ
à¸Łà¸£à¸Ļà¹Ħ à¸Ĭà¸ª
à¹ĥ à¸Ķà¸Ĺ
à¹Ģà¸¥à¸¢ à¸ģ
à¸²à¸§ à¹Ĥà¸ŀ
à¸²à¸¢ à¸Ĭ
à¸ļ à¸Ħà¸£à¸Ńà¸ļà¸Ħà¸£
à¸ķà¸£ à¸Ńà¹Ģà¸ļà¸Ńà¸£
ĠSig ma
lo v
Ġà¶ħà¶º à·Ģ
ĠJ apan
t ra
àº¡ à»ĥàºª
C H
Ġà¶Ń à¶§
ung gan
Ġkom unidad
Ġsub ong
à¶º à¶¸à¶º
== ==
à»Ģàº«àº¡ àº²àº°àºª
ing les
ĠC D
Ġup at
us e
àºŃ àºķ
ĠGro up
C R
est u
oc us
ekt ura
àº²àºį àºĻ
à¶¢ à¶±à¶Ń
à¸Ī à¸į
à¸ĵ à¹Ģà¸¥
à¸Ħà¸§à¸²à¸¡ à¸ĩà¸²à¸¡
Ġà¸ŀ à¸²à¸ģà¸¢
à¸ģà¸£à¸° à¹Ĥà¸Ķ
Ġà¸Ĭ à¸Ļà¸°
àºģàºª àº²àºª
à¸Ļà¸« à¸Ńà¸¡
Ġà¸Ł à¸Ńà¸£
B R
à¸Ļà¸ģà¸²à¸£ à¸Ī
à¸ľà¸¡ à¹Ħà¸Ķ
à¸£à¸°à¸¢à¸° à¸Ĺà¸²à¸ĩ
Ġà¸Ń à¸ĺ
à·ľ à¶Ĥ
àºĤàºŃàºĩ àº¥
ĠT am
Ġà»ģàº¥àº° àºĹ
Ġorgan iz
Ġl ana
Ġà»ģàº¥àº° àºŃ
àºĶ àº®àº½àºĻ
Ġer op
n ih
Ġpagb ati
ama ayo
24 0
àºķ àº²àºĩà»ľ
ĠH aut
Ġmo hatag
as ya
Ġ' '
i at
Ġà¶´à·Ħ à¶»à¶¯
ul e
es k
ill i
à¸Ľà¸£à¸° à¸ģà¸²à¸£
à¸Ĺà¸²à¸ĩ à¹Ģà¸Ķ
Ġà¸¥ à¸²à¸Ķ
à¸ªà¸²à¸¡à¸²à¸£à¸ĸ à¸Ĺ
à¸ģà¸¡ à¸§à¸¢à¹Ħà¸Ĺà¸¢
à¸Ļ à¸«à¸¥à¸²à¸¢
à¸ĩà¸²à¸Ļ à¸Ķ
à¸Ĥà¸²à¸¢ à¸Ĺ
l am
à¸¢à¸ĩ à¸Ĥ
à¹Ħà¸Ń à¹Ģà¸Ķ
Ġs un
à¶¢ à¶±à¶ºà¶ļ
c ar
Ġg en
Ġg im
G A
ĠM A
àºĽàº° à»Ħàºķ
Ġàº¡ àº°àº«
T M
P al
Ġà·ĥ à¶¶
à¶§ à¶§
à¶´ à¶«à¶º
Ġv iÅ¡e
ros s
od a
àº²àºĻàº§ àºĻàº«
Ġàº¥ àº°àºĶ
àºļ à»Ģàº«
Ġkab ugangan
à¸§ à¹ģà¸¥
à¸Ńà¸ĩ à¸ĩ
à¸ģà¸²à¸£ à¹Ħà¸Ķ
à¸Ńà¸Ļ à¹ģà¸¥
à¸ĭ à¸°
Ġà¸ŀ à¸ļà¸§
Ġà¸§ à¸²à¸ĩ
à¸Ńà¸ª à¸ķ
à¸® à¸²à¸£
à¸Ļà¸ģà¸²à¸£ à¸ª
à¸Ļà¹ĥà¸Ļ à¸Ľ
à¸įà¸į à¸²à¸ģ
à¹ģà¸® à¸£
à¹Ģà¸Ī à¸¥
à¸Ļà¸³ à¸¡à¸²à¹ĥà¸Ĭ
fi eld
à¸²à¸ŀ à¸¥
Ġmat in
à¸Ļà¹ģà¸¥à¸° à¸ģ
Ġnag m
àºĩ à»ĥàºĪ
Ġà¶± à¶½
ĠKas ugoan
Ġsusa ma
ĠW il
àºĻàºĶ àº²àºļ
W est
15 5
ĠBan k
r ight
àºĤàºŃàºĩ àºŀ
Ã¼ r
ĠB ut
ĠPro s
Ġà·Ħ à·Ģ
Ġà·ĥà·Ħ à¶±
àºĦ àºŃàºļàºĦ
Ġnah ibalo
Ġka away
c u
à¸¢ à¸Ķà¸ª
à¸Ħ à¸ģ
à¸Ľ à¹Ģà¸Ľà¸Ńà¸£
à¸Īà¸° à¸ģà¸¥
à¸Ľà¸£à¸°à¹Ģà¸Ĺà¸¨ à¸Ĺ
à¸Ļ à¹Ħà¸£
à¸ģà¸²à¸£ à¸Ńà¸Ńà¸ģà¹ģà¸ļà¸ļ
à¸ĭ à¸ļ
à¹Ģà¸¡ à¸Ńà¸£
Ġà¹ģà¸¡à¸Ļ à¸¯
à¸§ à¸«à¸£
à·ĥ à·ĥ
à¸ģà¸© à¸²à¸¡
àºĶàºĹàº°àºĻàº² à»ĢàºªàºĶàºĸàº°àºģ
is enyo
ĠS mart
Ġna a
à·ı âĢĻ
am t
à·ı âĢĿ
ĠàºĪ àº³àºĻàº§àºĻ
al ak
à¶½ à¶ºà¶±
ĠÅ ł
Ġ% )
Ġs v
à·Ļ ..
à¶ºà¶ļ à¶»
ĠKas ulatan
ĠS hi
Ġn um
w er
Ġtu nga
66 99
ĠSam sung
àºĻàº¥ àº°àºļ
à·Ĵ ÂŃ
n ov
àº²àº« àº¡
à·Ĭ '
à¸Ķ à¸¡à¸²à¸ģ
à¸Ľ à¹Ħ
à¸Ńà¸ĩ à¸Ľà¸£à¸°à¸Ķ
à¸Ĭ à¸§à¸Ļ
à¹Ĥ à¸ķà¸£
à¸Ħà¸§à¸²à¸¡ à¹ģà¸Ĥ
à¸ĩà¸²à¸Ļ à¸Ļ
à¸Ńà¸Ķ à¸£
à¸²à¸« à¸§à¸²à¸Ļ
à¸Ħà¸¥ à¸²à¸Ļ
Ġà¹Ģà¸Ĺ à¸Ħà¹Ĥà¸Ļà¹Ĥà¸¥à¸¢
à¸ŀà¸Ń à¸ªà¸¡à¸Ħà¸§à¸£
à¸ĩà¸Ħà¸£ à¸£à¸ł
Ġ=== >
à¸ļ à¹Ģà¸Ļ
à¸« à¸²à¹Ħà¸Ķ
à¹Ĥ à¸ļà¸Ļ
à¹Ģà¸¥ à¸Ńà¸£
à¸Ļà¸Ļ à¸²à¸Ļ
Ġà¸« à¸¢
à¸ŀà¸¥ à¸ķ
ĠG it
à¸Ń à¸²à¸§
àº²àºªàº° à»ľ
Ġà¶´ à¶º
à¶¢ à¶»
Ġsa n
à¶»à¶ļà¶® à¶±
Ġmo h
ist ro
¹ ´
in abuhi
Ġduro wan
ĠBe z
Ġl imit
z on
ĠAr t
ir l
Ġà¶»à¶® à¶º
àºģ à»Ģàº¥
ĠPala ce
Â ·
à¶±à¶§ à¶Ń
à ¤
à¸Ń à¹ģà¸¥
à¸Ł à¸²
à¸Ļà¸ª à¸²à¸¡
Ġà¸ģà¸²à¸£ à¸Ĺà¸³
à¸ĩà¸Ħ à¸ĩà¸¡
à¹Ģà¸ĭ à¸Ļà¸ķ
à¸²à¹ģà¸Ł à¸Ĭ
à¸Ńà¸¥à¸¥ à¸²à¸£
à¸¢à¸Ļ à¸Ĥ
à¸ļà¸ģà¸²à¸£ à¸ķ
à¸ŀà¸²à¸ģ à¸©
à¸ªà¸²à¸ĺà¸²à¸£à¸ĵ à¸ª
à¸Ļ à¹ģà¸Ĥ
à¹ĥà¸Ļ à¸ģà¸£à¸ĵ
Ġà¸¡ à¸²à¸ŀà¸£
à¸¡ à¸«à¸¥
à¸Ńà¸¢ à¹Ħà¸Ķ
Ŀ ¤
Ġerop lano
Ġbasa hon
ªå ĴĮ
à»Ĥàº® àº¡
Ġà»Ĥ àºķ
Ġ Ø
à¶ľ à¶¸à¶±
S C
Ġp amat
à¶¶ à¶»à·Ģ
ulo han
ont rol
àº²àº® àºŃàºĶ
à·Ħ à¶½à¶º
Ġàºª àºª
à»ģàºĻàº° àºĻàº³
N A
à»ģ àºŁ
Ġt op
Ġà·ĥ à·Ģà·ĥ
Ġm ar
Ġà¶ļà¶» à·Ģà¶±
ĠTr ump
G ames
à¸Ĭ à¸Ļà¸¡
à¹Ģà¸Ń à¸²à¹ĥà¸Ī
à¹ĥà¸Ļà¸ģà¸²à¸£ à¸ª
à¸²à¹ĥà¸Ī à¸§
à¸Ħà¸Ńà¸Ļ à¸ģà¸£
à¸Ħà¸£à¸Ńà¸ļ à¸Ħà¸¥
à¸ģ à¹ĥà¸Ĭ
à¸¢ à¹Ģà¸ĩ
à¸ķà¸£ à¸²
à¸ļ à¹Ģà¸Ĺ
Ġ à¸łà¸²à¸©
à¸Ħà¸³ à¸Ľà¸£
Ġkap ang
à¸Ńà¸Ļ à¸ľ
àºĦàº§àº²àº¡ à»ĢàºĤ
ĠHol iday
ĠK al
ĠT ex
ĠP rema
àºĻ à»Ģàºªàºį
S D
Ġà¶ĭ à¶ľà¶±
àºģàºį àº²àºģ
Ġi OS
Ġà¶¶à¶»à¶´à¶Ń à¶½
Ġà¶´à·Ħ à¶ļ
Ġà¶ĭ à¶´à¶Ń
àº¡ à»ĢàºĬ
àºĻà»ĦàºĽ à»ĦàºĶ
à»ģàºª àºĩ
ist an
ung k
Ġre c
= "
A ko
ug yan
æľ Ī
Ġà»ĥàºĻàº¥ àº°àº«àº§
àºª àºĸàº²àºĻ
ĠS umala
ĠAd law
àºĶ à»ĢàºĪ
àº§àºĻ à»ĥàº«àºį
Ġinter es
à¸Ļ à¸Īà¸³à¸Ļà¸§à¸Ļ
Ġà¸ŀ à¸ļà¸ģ
à¸¢à¸¡ à¸«
à¸ļà¸£à¸£ à¸¥
à¹Ģà¸ĭà¹Ĥà¸¥ à¸Ļ
à¸Ļà¸Ķà¸²à¸¥ à¹ĥà¸Ī
à¸Īà¸° à¸ģ
à¸¨à¸²à¸ª à¸ķà¸£à¸²à¸Ī
à¸¨à¸²à¸ªà¸ķà¸£à¸²à¸Ī à¸²à¸£à¸¢
à¸²à¸ª à¸°
Ġà¸ĭ à¸Ńà¸¢
à¸ģà¸£à¸°à¸Ī à¸ģ
I ON
à¹ģ à¸Ńà¸ļà¸ĸ
ĠRus s
Ġprof ile
p hone
Ġd iri
ran t
isa r
èĪ ªåĴĮ
å¨ģ èĪªåĴĮ
àº¡ àº¡àº°àºĻ
uyo g
ud e
à¶¯à¶» à¶§
ond ado
Ġorgan isasyon
ĠS M
àºģ à»ĢàºĽ
à¸³ à¹ģà¸Ĥ
à¸ĵ à¸ª
à¸Ĺà¸²à¸ĩ à¸Ń
iv a
à¸²à¹ģ à¸£à¸ĩ
à¸Ļà¸Ĥ à¸Ļà¸²à¸Ķ
Ġà¸ªà¹Ģà¸ķ à¹Ģà¸Ķ
Ġà¹Ģà¸ ¨
Ġà¹Ģà¸ŀà¸£à¸²à¸° à¹Ģà¸Ľ
à¹Ģà¸Ħà¸¢ à¹Ħà¸Ķ
à¸Ĭà¸³à¸£à¸° à¹Ģà¸ĩ
à¸Ń à¹Ģà¸«à¸¥
à¸Ńà¸ĩ à¸§à¸ĩà¸Īà¸£à¸Ľ
à¸ľà¸¥à¸ĩà¸²à¸Ļ à¹Ħà¸Ķ
à¹ģà¸ĸ à¸§
ĠS ystem
àº²àºį à»ĦàºĶ
àºļ àºĪ
Ġà¶± à¶±
200 3
Ġà¶ļà¶» à¶¯à¶»
Ġà·ĥà¶½à¶ļ à¶±
Ġkan hi
à·ĳ ...
ĠM ot
ĠL ike
Ġpagb alik
n b
Ġk uno
à¶» à¶¶
ĠM ahimo
Ġ ï¿½
ab at
Ġnagp adala
13 5
àº¡ à»ĦàºĶ
à·Ĵ ....
à¸Ķ à¹ģà¸Ĥ
à¸¢ à¸ļà¸ª
à¸Ńà¸ĩ à¸ķà¸²à¸¡
à¸ģà¸²à¸£ à¹Ģà¸ĩ
à¸Ńà¸¢ à¸Ħà¸£
à¸Ńà¸ģ à¸Ń
à¸²à¸§ à¹Ģà¸§
à¸ªà¸¡ à¸²à¸ĺ
à¹Ĥà¸ĭ à¸¥
à¸¡à¸ŀà¸£à¸° à¹Ģà¸ģ
à¸¡ à¹Ħà¸Ľ
à¸ļ à¸Ħà¸§à¸²à¸¡à¸£
à¸³ à¸£à¸ĩ
à¸ĸ à¸§à¸²à¸¢
à¸Ł à¸Ĺ
à¸£à¸²à¸Ĭ à¸ĺà¸²à¸Ļ
à¸ĩ à¸Ľà¸£
à¸²à¸ĩ à¹Ģà¸ª
ol y
à¹ĥà¸ļ à¹Ħà¸¡
op ment
àº· ,
Ġv on
us on
ĠA k
ĠEuro pe
ub ong
Ġkagam hanan
Ġb isita
end er
Ġk ut
Ġ à»ĤàºĦ
Ġà»ģàº¥àº° àº¡
ap ah
Ġàºªàº° à»ľ
ĠNor te
Ġnakad ungog
ä ½
Ġà¶ħà¶Ńà¶» à¶Ń
à¶½à¶± à¶ºà¶ļ
tub iganan
à¸²à¸¢ à¸Ī
à¹Ģà¸¡ à¸Ļà¸ķ
à¸§à¸ĩ à¸Ľ
à¹Ħà¸Ĺà¸¢ à¸Ĺ
à¹Ħà¸§ à¸£
à¹Ģà¸£à¸² à¹Ģà¸Ľ
à¸Ľà¸£à¸°à¸Ĭ à¸²à¸ĺ
Ġà¹Ģà¸ģ à¸©
à¸Ńà¸Ń à¸Łà¸Ł
à¸Ļà¸²à¸Ļ à¸²à¸Ĭà¸²à¸ķ
à¸Ļà¹ģà¸ļà¸ļ à¸Ļ
à¸¢à¸§à¸°à¹Ģà¸ŀà¸¨ à¸Ĭà¸²à¸¢
à¸ĸ à¸²à¸Ľ
à¸Ńà¸Ļ à¸Ľ
à¹ģà¸¥à¸° à¸¥
à¹Ģà¸ģ à¸£à¸Ķ
à¹Ģà¸Ĺ à¸¥
à¸ĩà¸ģ à¸³à¸¥
à¸Ķà¸³ à¸£
à¸¡ à¸ĵà¸ĳà¸¥
à¸Ĺà¸³ à¹Ģà¸¥
à¸ģà¸¥à¸²à¸ĩ à¸§
à¸Ńà¸¢à¸²à¸ģ à¸Īà¸°
à¹Ģà¸ ©
à¸§à¸¢ à¹Ģà¸Ĭ
à¸ļ à¹ģà¸Ĥ
ut ion
Ġmagtut udlo
à¸²à¹Ħà¸Ľ à¹ĥà¸Ļ
Ġoper asyon
à»ģàºĽ àºĩ
Ġs uga
à¶Ń à¶ļà¶§
àº²àº¥ àº°àºļ
Ġà¶ħà¶Ńà¶» à¶¸
Ġkal ig
ĠP L
ĠAn ti
aw asan
iÅ¡ ta
Ġadmin istr
b el
r ist
ak an
lo ud
àº¡ àº²àºĪàº²àºģ
ĠPro d
à»Ģàº į
Ġà·ģ à¶¶
ang t
st e
ĠL at
à·ı "
p i
ong o
ut yag
Ġmad ugay
Ġmag l
or r
ĠT o
Ġnagp adayon
Ġkur so
à¹ģ à¸ļà¸£
à¹Ĥ à¸¡à¸Ļ
à¸Ľà¸£à¸° à¹Ģà¸ŀà¸ĵ
à¸§à¸¢ à¹Ģà¸£
à¸¢à¸§ à¸ĭ
à¸Ļà¸¢ à¸³
à¸Ļà¸³à¹Ħà¸Ľ à¹ĥà¸Ĭ
à¸¡ à¸²à¸Ńà¸¢
à¸Ńà¸ĩ à¸«à¸¡à¸²à¸¢
à¸ĩà¸«à¸¡ à¸Ķà¸Ĺ
à·Ĵ âĢĿ
à¶ļ à¶ľ
àºĶ à»ĦàºŁ
at eg
Ġ ;
àºģ à»Ģàº§
ĠN E
Ġ !!
àºģàº²àºĻ à»ģàºĤ
àº²àº§ àºª
ĠE C
àº§ àº²àºĻ
àºį àº²àºģ
àºĻ à»Ģàºľ
Ġka dto
Ġkal ih
Ġham tong
à»ĥàºĻàº ®
ĠM O
, [
Ġdet al
è ¿
Ġ à¸²
à¸Ń à¹ĥà¸Ī
à¸Ń à¹ģà¸ķ
à¹ģ à¸Ńà¸Ļ
à¸²à¸ĩ à¹Ģà¸£
à¹ĥà¸Ļ à¸Ńà¸Ķ
à¸ĺ à¸¢
Ġà¹ģ à¸Ńà¸Ļà¸Ķ
à¸Ńà¸¡ à¸Ļ
à¸ļà¸ļ à¸²à¸Ķà¹Ģà¸Ī
à¸£à¸²à¸Ħ à¸²à¸Ļ
à¸³à¸Ļ à¸²à¸Ļ
à¸ļà¸Ń à¸²à¸ģà¸²à¸¨
à¸Ľ à¸Ĺà¸£à¸ĩ
à¸Ńà¸¡ à¹Ģà¸Ľ
à¸²à¸Ħ à¸§à¸£
ĠF ire
Ġà¹ĥà¸Ļ à¸ķ
à¹Ģà¸Ħà¸¢ à¹Ģà¸Ľ
Ġa ir
à¸¢ à¹ĥà¸«
à·ģ à·Ģ
à»Ĥàº¡ àºĩ
àºĻàºĽàº° àºķ
r d
Ġs uk
Ġg ig
Ġà¶ī à¶´à¶¯
Äį el
B isan
r en
in uso
asal ig
H B
ĠL ove
Ġàº¥ àº°
ik way
Cebu ano
Ġdes isyon
1 66
àº§àºĩ àº«
Ġbala an
ĠInd ones
v ious
Ġàº¥ àº§àº¡
Ġà¶´ à¶ł
à»Ģàº¥ àºģ
** *
à¸² à¹Ĥà¸¥
à¸£ à¸Ńà¸ĩ
à¸Ĺ à¸ķ
à¸Ńà¸¢ à¸Ħ
à¸Ł à¹Ģà¸§à¸Ńà¸£
à¸¢à¸ĩ à¸£
à¸ķà¸²à¸¡ à¸Ĥ
à¸Ļà¸Ĥà¸Ńà¸ĩ à¸Ĺ
à¸¢à¸Ķ à¹Ģà¸ŀ
à¸ĩà¸Īà¸° à¹Ģà¸Ľ
à¹Ģà¸¢à¸Ńà¸° à¸¡à¸²à¸ģ
à¸ªà¸²à¸¡à¸²à¸£à¸ĸ à¸£
Ġà¸Ħà¸£ à¸Ńà¸ļà¸Ħà¸£
à¸³ à¹Ĥà¸ŀ
Ġà¸ª à¸ł
Ġà¶Ķà¶¶ à¶Ń
àº¥àº²àºį àº®
Ġ ah
usa ra
àº§ àºĻàº«
Ġek ipo
à¶¶ à·Ħ
Ġà¶ī à·Ģà·ĥ
Ġprop eta
àºªàº° àºģ
Ġma ch
Ġpas pas
àºĶ àºªàº°àº«
à¶ºà¶§ à¶Ń
Ġgi sa
Ġre view
Ġpagd ugang
àºĦàº§àº²àº¡ àº§
Ġàºªàº° à»ģàºĶàºĩ
ob re
Ã §
ĠF ylke
ì Ĺ
ro t
Ġturn t
Ġreg ional
àº§ àºĤàºŃàºĩ
Ġà·ĥ à¶¶à¶³
AN D
à·Ļ ...
ĠK asa
Ġ à¸«à¸¥à¸²à¸¢à¸Ħà¸Ļ
à¸Ľ à¸ģà¸²à¸£
à¸ģà¸²à¸£ à¸£à¸ĸ
à¸ĵ à¸Ī
à¹Ģà¸§ à¸Ļà¸ķ
à¸ªà¸²à¸§ à¹Ĩ
Ġà¸Ħà¸¥à¸Ńà¸ĩ à¸ļà¸²à¸ĩ
à¸Ľà¹Ħ à¸ķà¸¢
à¸ª à¸ļà¸Ķ
ut h
à¸Īà¸²à¸ģ à¸ª
Ġà¶¢ à¶ºà·Ģà¶»
à¸²à¸Ī à¸²à¸£à¸¢
à¸ĩ à¸¥à¸ĩ
à¸§à¸ĩ à¸¥
à¸²à¹ģ à¸Ļ
Ġkapang uhaan
ÃŃ a
à¶ħ à¶»
law as
ĠàºĪàº° àº¡
xx xx
àºģàº° àºĹàº³
Ġko ji
sjedn ik
ĠOs lo
Ġ** *
Ġà·ĥà¶´ à¶ºà¶±
ryp to
Ġc ode
g ing
àº²àºĻàºĽàº° àºĹ
Ġpagpan alipod
isg utan
ĠDak bayan
ĠG eme
Ġnag ah
S P
or f
àºŀ àº°à»ģàºĻàºģ
Ġà»ĥàºĻàºĤ àº°àºĻàº°àºĹ
ovrÅ¡ ina
àºĻàºķ àº°àº¥
28 0
ĠPl us
à¸Ļ à¸®
à¸ģ à¹Ģà¸¥à¸¢
à¸§ à¸²à¸ª
à¸ķ à¸ľ
à¸Ľ à¸ªà¸£à¸£à¸Ħ
à¸²à¸ĩ à¸Ĺà¸²à¸ĩ
à¸Ĥà¸Ńà¸ĩ à¸Ħà¸Ļ
à¸²à¸Ń à¸²à¸ģà¸²à¸¨
Ġà¸ģà¸²à¸£ à¹Ģà¸Ķ
à¸Ľà¸¥ à¸²à¸Ĺ
à¹ĥà¸Ļà¸ģà¸²à¸£ à¸Ĺà¸³à¸ĩà¸²à¸Ļ
à¸Ĺà¸ĺ à¸Ĭ
Ġà¹Ħ à¸Ń
à¸«à¸²à¸ģ à¸Ħ
à¸Ńà¸ªà¸Ńà¸ļ à¸ĸà¸²à¸¡
Ġà¶ĩ à¶§
à¸Ī à¹ģà¸¥
à¸²à¸ª à¸£
Ġnak uha
v is
àºĩàºģ àº°
à¶ĩ à¶º
r ib
à·Ħà¶½ à¶ºà¶±
ut ube
é ¢
ĠS ang
à·Ĥ à¶¸
z h
Ġbat ang
à¶© à¶±à¶º
ĠÄ Ļ
T K
ĠÅ ½
àº°àºļ àº²àºĩ
âĺ ħ
ĠB y
L o
Ġs ulat
Ã «
Ġlaw ak
am ilya
Ġkad ag
Ġkausa ban
c ial
àºĶàºķ àº²
à¶« à¶ºà¶±
3333 333
ĠAp rika
à¸² à¹Ģà¸Ł
à¸£ à¸Ńà¸ĩà¹Ģà¸Ĺ
à¸ĩ à¸ŀà¸£à¸°
à¸Ĺ à¸Ķà¸¥
à¸Ńà¸ĩ à¹Ħà¸«
à¸Ĥà¸Ńà¸ĩ à¹Ģà¸Ķ
à¸²à¸§ à¹Ģà¸§à¸Ńà¸£
or iya
Ġà¹Ĥ à¸Ī
à¸ģà¸£à¸° à¹Ģà¸ŀà¸²à¸°
Ġà¸ģà¸¥ à¸²à¸¢à¹Ģà¸Ľ
à¸²à¹Ħà¸Ľ à¸Ķ
à¸Ĭà¸²à¸¢ à¸«à¸²à¸Ķ
Ġà¸ľà¸¡ à¹Ħà¸¡
Ġà¸ĺ à¸Ļà¸²à¸Ħà¸²à¸£
à¸ĩà¸ľà¸¥ à¸ģà¸£à¸°à¸Ĺ
à¸Ħà¸£à¸ļ à¸§à¸ĩà¸Īà¸£
Ġà¹Ĥà¸Ĺà¸£ à¸¨
à¸Ńà¸¥à¸¥à¸² à¹Ģà¸Īà¸Ļ
à¸Ħà¸¥à¸²à¸ª à¸ª
à¸§ à¹Ģà¸ķ
à¸²à¸ĩ à¸Ħà¸Ļ
à¸¢à¸¡ à¸ģ
i ana
à¸Ķ à¸Ńà¸Ńà¸ģ
à¸ĩà¸ª à¸²à¸¡
à¸Īà¸Ļ à¹Ģà¸ģ
à¸ģà¸£à¸° à¹Ĥà¸Ľà¸£
ens e
Ġà¸ªà¸²à¸¡à¸²à¸£à¸ĸ à¹ĥà¸Ĭ
Ġà»ģàº¥àº° àºª
àº°àºļ àº½àºĻ
ro r
aw ad
ĠM r
al and
Ġb ana
ul os
Ġmit ing
n s
Ġmak ina
Ġlis ud
Ġà¶· à¶º
Ġmah ibalo
Ġà¶Ĩ à¶ļà¶»
ĠàºĦ àºŃàºļàºĦ
Ġkasay uran
er ry
Ġà¶ł à¶ļ
àºļ à»Ĥàºķ
Ġg o
Ġt ip
Ġà¶ļà¶» à¶«
Ġpr ib
k ap
Ġ à¸«à¸¡à¸²à¸¢à¹Ģà¸¥à¸Ĥ
à¸² à¹Ģà¸ķ
à¸Ķ à¸ģà¸£
à¸²à¸ĩ à¹Ģà¸Ĥ
à¸Ńà¸¢ à¸Ńà¸Ķ
Ġà¹ģà¸¥à¸° à¸«
Ġà¸ŀ à¸²à¸£
à¸ĩà¸ª à¸Ńà¸ĩà¸Ĺ
à¸ªà¸¡ à¸Ńà¸ĩ
à¸ķà¸²à¸¡ à¸ª
à¸ªà¸Ļ à¸Ńà¸ĩ
à¸ľà¸¡ à¸Ħ
à¸ļà¸²à¸ĩ à¸Ĺ
à¸ģà¸ĩà¸²à¸Ļ à¸Ĺ
à¹Ĥà¸Ńà¸ģà¸²à¸ª à¹Ħà¸Ķ
à¸°à¸Ļ à¸²à¸§
à¹Ģà¸Ĥà¸ķ à¹Ĥà¸Ĺà¸©
ë ¦
à¸§ à¹Ģà¸ª
à¸Ľ à¸²à¸£
à¸§à¸¢ à¸Ī
à¸Ĥà¸ĵà¸° à¹Ģà¸Ķ
à¹ī )
Ġà¹Ĥ à¸®
à¸ģà¸£à¸¢à¸²à¸Ļ à¸¢à¸Ļà¸ķ
ĠD ub
S al
Ġà¶ĳ à·Ģà¶ļà¶§
ĠJ ose
àºģ à»ĥàº«
apy apy
àºĻ à»Ģàºĩ
id es
ih o
Ġide ya
Ġlab i
à¶¯ à·ĥ
t en
Ġpagk ad
į Ķ
à·Ķ âĢį
àº¼ à»ī
if i
à·Ŀ .
àºĸ àº²
id ent
Ġm ik
Ġà¶± à¶º
ë¦ ¬
ĠM el
à¸² à¹Ħà¸Ĺà¸¢
à¸¡ à¹Ģà¸ª
à¸ĭ à¸ĭ
à¸ķà¸£ à¸Ļ
à¸Ńà¸Ĺ à¸Ħà¸Ńà¸¡
à¸¢à¸Ķ à¸Ĥà¸Ńà¸ĩ
à¸²à¸Ħà¸§à¸²à¸¡ à¸£
sh ip
à¸Ħà¸²à¸Ķ à¸§
Ġà¸Īà¸Ļ à¸ģà¸£à¸°à¸Ĺ
à¸£ à¸£à¸¢
à¸į à¹Ģà¸ķ
à¹ĥà¸Ī à¸ģà¸¥à¸²à¸ĩ
à¹Ĥà¸Ķà¸Ļ à¹Ģà¸¢
à¸Ĺà¸¢à¸²à¸Ļ à¹ģà¸«
à¸§à¸¢ à¸«
ĠN ot
Ġdes ign
ungdan on
ĠK inatsila
ĠC O
àº²àºĩàºĤ àº§àº²àºĩ
Ġna sayud
ĠR ad
àºªàº³ àºŀ
t im
h ol
Ġc ard
Ġà»ĤàºĶàºį àºļ
à¸ĵ à¸ĺà¸£à¸£à¸¡
àº²àº¥ àº²àºį
à¶¨ à¶º
ĠUS D
ĠD igital
àº¡ àº®
ĠA yaw
Ġgi ingon
ĠNag p
14 9
Ġà»ģ àºª
Ġkal ayo
ãĦ ħ
S S
à¸¢ à¹ĥà¸Ļ
à¸° à¸Ń
à¸ĵ à¸«à¸¡
à¹Ģà¸Ķ à¸¢
à¸§à¸£ à¸Ńà¸¢
à¸Ļà¸Ħà¸£ à¸¨à¸£
à¸ŀà¸£à¸°à¸£à¸²à¸Ĭ à¸§
à¸²à¹Ģà¸Ń à¸¥
à¸Ĺà¸£à¸£à¸¨ à¸ģà¸²à¸£
à¸ļ à¸³à¸ļ
à¸ľ à¸Ļ
à¸£à¸²à¸¢ à¸Ļ
à¸Ļà¹Ģà¸Ķ à¸Ńà¸£
Ġda an
à¸£à¸²à¸Ī à¸£
ulb ad
à¸¡ à¹ģà¸¥
à¸ķà¸£ à¸²à¸ģà¸²à¸£
Ġà¸ķ à¸ģà¹ģà¸ķ
Ġpagk am
à¶» à·Ģà¶º
Ġlam esa
Ġ( -
ig um
ur ing
R T
Ġad d
uu uu
àºĽàº°àºģàºŃàºļ àºª
àºļàºģàº²àºĻàº Ī
iz ed
ĠB itcoin
p ot
bo ard
Ġpar te
ĠR oma
Ġche ck
Ġpagt uman
Ġp ok
à»ĥàºĻ à»Ģàº§àº¥àº²àºĹ
ump ay
ar io
um n
Ġl una
ĠL ang
Ġsin ug
Ġd ap
Ġth at
àºµ ÂŃ
à¸Ļ à¸īà¸ļ
à¸Ļ à¹Ĥà¸¥à¸«
à¹ģ à¸Ħà¸£
à¸²à¸ĩ à¸«à¸¥
à¹ĥà¸Ļ à¸¤à¸Ķ
à¸¢à¸Ļ à¹Ģà¸£
à¸Ĺà¸²à¸ĩ à¸£
à¸²à¸ĩà¸ģà¸²à¸¢ à¸¡à¸Ļ
Ġà¸«à¸²à¸ģ à¸¡
à¸Ń à¸«à¸¡
à¸į à¸£
à¸²à¸ķ à¸¥à¸Ńà¸Ķ
Ġà¹Ģà¸£ à¸²à¸Ī
13 9
à¸ª à¸Ńà¸¢
à¸§à¸¢ à¸£à¸°à¸ļà¸ļ
Ġacc ount
Ġkatawo han
7777 7777
T hai
àºĶàºį àºŃàºĶ
ħ ì
Ġp ri
Ġluuk ku
àºįàº²àºĶ à»ĥàº«
ĠS imb
àºŃ àºĦ
Ġgy od
sa r
10 9
Ġad to
Ġ Î
r it
àºŃàºģ à»ĢàºŃ
à»ģ àº§
Ġnang utana
àº²àºĻàº¡ àº²àºĻ
Ġà·Ħ à¶Ńà¶»à¶ļ
old er
B lack
Ġs ur
à¸ĩ à¹Ĥà¸Ķà¸¢
à¸§ à¹ģà¸¡
à¸Ķ à¸ŀà¸£
à¹Ĥ à¸£à¸¡
à¸ľ à¸ªà¸²à¸Ļ
Ġt ext
à¸Ńà¸ģ à¹Ģà¸Ĥ
Ġà¸Ļ à¸²à¸Ļ
Ġà¸ģà¸²à¸£ à¸¨
à¸Ļà¹ģ à¸Ķà¸Ļ
à¸ļà¸Ħ à¸Ĺ
à¹Ģà¸§à¸¥à¸² à¹Ģà¸Ķ
à¸Ķà¸£ à¸ĺà¸²à¸Ļ
à¹ģà¸£à¸ĩ à¸ļ
à¸¥à¸³ à¹Ħà¸ª
à¸¨à¸§ à¸ģà¸£à¸£à¸¡
à¸ģà¸ªà¸Ļ à¸²à¸Ļ
à¸Ńà¸¡à¹Ĥ à¸¢à¸ĩ
à¸Ļ à¸Ĭà¸Ļ
à¸ĩ à¸Ħà¸§à¸²à¸¡à¸£
à¸ģà¸²à¸£ à¹ģà¸ģ
àº¡ à»ĥàº«
à¸ļà¸ļ à¸Ńà¸£
à¸Ńà¸ģà¸²à¸£ à¹ĥà¸Ĭ
àº²àºĩ àºĻ
ĠF ri
ĠO z
ap ter
àºĻàºĶ àº²àºĹ
ĠH ot
ens is
ang a
Ġc ol
ug yot
àºļ àºªàº°àº«àºĻ
Ġpagban say
àºª àº¥
àº§àºį àºĦàº°àºĻàº°
ĠA le
ab e
ĠE P
Ġà¶Ń à¶ļ
ĠC ro
ĠC ha
à¸¡ à¸Ľà¸£à¸°à¸ª
à¸¢ à¸Ĥ
ĠA ug
à¸Ļà¹ģ à¸Ķ
à¸Ńà¸°à¹Ħà¸£ à¸ļ
à¸²à¸£à¸²à¸Ĭ à¸ģà¸²à¸£à¸Ī
à¸Ńà¸ĩ à¹Ģà¸¡
à¹Ħà¸Ľ à¹ĥà¸Ĭ
à¸ªà¸Ķ à¹ĥà¸ª
à¸ģà¸²à¸£à¸ª à¸Ńà¸Ļ
Ġà¸ģ à¸Ńà¸ĩà¸Ĺ
à¸ģà¸© à¸²à¸Ľà¸£à¸°à¸ķ
Ġting uha
à¸Ķ à¸Īà¸³
Ġs obra
ed no
m ang
ĠE mer
Ġà·ĥà¶¶à¶³ à¶Ń
Ġat ol
sang yaw
asyon al
Ġà¶±à·Ģà¶ļ à¶Ń
Ġà¶ĩ à¶´
Ñ Į
M ag
¸ Ķ
ë įĶ
ë ¸Ķ
ĠM u
ëįĶ ë¸Ķ
ëįĶë¸Ķ ìĹ
Ġpap el
st r
àº¡àº¡àº°àºĻ àº²àºĦ
à»Ģàºģ àº²àº°
Ġtag sa
l j
à¶© à¶ļà¶º
ĠArch ives
Ġmakap a
_.-. _.-.
c y
à¸Ļ à¹ģà¸Ĺ
à¸Ļ à¸Ħà¸§à¸£
à¸Ń à¹Ģà¸ŀà¸¥
à¸²à¸ĩ à¸ĭ
à¸²à¸ĩ à¹ĥà¸ª
à¸Ĥà¸Ńà¸ĩ à¸ī
ul angan
à¸§à¸ĩ à¹Ģà¸§à¸¥à¸²à¸Ĺ
à¸Ńà¸ª à¹Ĥà¸ģ
à¸¢à¸¡ à¸ª
à¸Ļà¹Ħà¸Ľ à¸Ĺ
à¸ªà¸²à¸£ à¸°
à¸«à¸²à¸¢ à¹ĥà¸Ī
à¹Ģà¸ŀà¸¨ à¸ª
à¸§à¹Ģà¸£ à¸²à¸°
à¸Ķ à¹Ĥà¸Ńà¸ģà¸²à¸ª
à¸¢ à¹ĥà¸«à¸¡
à¹ĥà¸Ļ à¸£à¸°à¸«à¸§
à¸Ńà¸ģ à¹Ħà¸Ķ
à¸Ńà¸¡ à¸Ī
Ġà¸£ à¸²à¸ĩà¸§
à¸Ļà¸ŀ à¸¤à¸«
à¸ŀà¸Ń à¹Ģà¸ŀ
à¸¡ à¹Ģà¸Ĭ
à¸¢à¸ĩ à¸Ĭ
Ġà¸Ķ à¸²à¸£
à¸ªà¸²à¸¢ à¸ķ
ĠP ovrÅ¡ina
à¸ªà¸¡ à¸£
à»ĢàºŃàºģàº°àºª àº²àºĻ
Ġnagt uo
àºªàº°à»ģàºĶàºĩ à»ĥàº«
Ġt it
Ġàºª àº°àºŀàº²àºļ
f e
àºĶ à»Ħàº§
¤ ĳ
ë¦¬ ëįĶë¸ĶìĹ
¤ĳ ë¦¬ëįĶë¸ĶìĹ
Ġu ser
à·ħ à¶¸
Ġt ar
àºļ àº²
àºĶ à»Ģàºľ
Ġà¶ĳ à¶»à¶§
Ġsig ur
à¶ľ à¶¸à¶§
ĠP en
Ġkatap o
Ġàº« àº¥àº²àºį
Ġma sayud
Ġà»Ģàº¡ àºªàº²
àºģàº§ àºĶàºªàºŃàºļ
Ġf orm
Ġpan ingkamot
Ġmag ap
et y
ï ¸
à¸Ń à¹ģà¸Ĥ
à¸ģ à¹ģà¸ģ
à¸° à¹Ģà¸¢
à¸²à¸¢ à¸²à¸ģ
à¸§à¸Ļ à¸Ľà¸£à¸°à¸ģà¸Ńà¸ļ
à¸¢à¸Ļ à¸Ń
à¹Ģà¸ĺ à¸ķà¹Ģà¸Ļ
à¸¢à¸ļ à¸ĩ
Ġà¹Ģà¸§ à¸Ńà¸£
à¸Ĭà¸²à¸§ à¸Ń
Ġà¸Ļà¸²à¸¢ à¸ģ
Ġà¹Ĥà¸«à¸¥à¸Ķ à¹Ĥà¸Ľà¸£à¹ģà¸ģà¸£à¸¡
à¹Į (
à¸«à¸¥ à¸²à¸Ķ
Ġà¸Ļ à¸³à¸Ĺ
à¸ļà¸¥ à¸£à¸²à¸Ĭà¸ĺà¸²à¸Ļ
à¸Ńà¸ģ à¸Ļ
à¸Ľà¸£ à¸²à¸¡
à¸£à¸¢ à¸²à¸ģà¸²à¸¨
à¸¥ à¹Ģà¸ĭ
à¹Ĥ à¸ģà¸¥
à¸²à¸¢à¸Ķ à¸²à¸¢
12 6
Ġprogr am
Ġw ork
àºŃàºĩ àºĽ
àº§àºį àºģ
ro g
Ġ à»Ħ
ħì ¤ĳë¦¬ëįĶë¸ĶìĹ
Ġek onom
àºŀ àº°àº¥
15 8
Ġsam om
la um
it ed
ĠP et
àº§àºį àºĦàº§àº²àº¡
à¶» à·Ģà¶±
à·Ĥ à¶ºà¶±
, ,
w ord
ik as
ĠH onda
p ons
à¶¯ à·Ħà¶¸
Ġpos isyon
àºģàº® àº½
à»Ħàºŀ àºŀ
AG S
ĠâĢĺ âĢĺ
à¸ģ à¸£à¸²à¸Ł
à¸ĩ à¸Ĭà¸Ļà¸°à¹Ģà¸¥
à¸Ĥ à¸§à¸Ķ
à¸ģà¸²à¸£ à¹Ģà¸Ĭ
à¸²à¸¢ à¸ģà¸£
à¸²à¸ĩ à¹ģà¸¥à¸°
à¸Ĥà¸Ńà¸ĩ à¸Ľ
à¹Ģà¸¥ à¸Ļà¸ª
Ġà¹ģà¸¥à¸° à¸ļ
à¸¢à¸§ à¸ķ
à¸ģà¸© à¸²à¸ģ
Ġà¸Ľ à¸²à¸£
à¸įà¸į à¸²à¸ķà¸£
à¸Ľà¸£à¸°à¸Ĭà¸²à¸Ĭ à¸Ļà¸Ĺ
à¸²à¸¢à¸Ĺà¸Ńà¸Ķ à¸ªà¸Ķ
Ġà¸Ķà¸Ńà¸ģ à¸ŀ
P P
à¸ģ à¸Ńà¸ļà¸Ķ
à¸Ħ à¸Ńà¸¥
à¸²à¸¢ à¹Ģà¸Ĥ
à¸Ĺà¸³ à¸£
à¸ĩà¸Īà¸° à¹Ħà¸Ķ
à¸«à¸²à¸¢ à¸²à¸ģ
ħì¤ĳë¦¬ëįĶë¸ĶìĹ ħì¤ĳë¦¬ëįĶë¸ĶìĹ
à¸¢à¸Ļ à¸Ķ
à¸¡ à¸²à¸ŀà¸£
ĠL i
12 9
Ġnap ulo
Ġà¶´ à¶©
Ġokr uga
à¶ľ à¶©
àºĻàºĽàº°àºĹ àº²àºĻàºĤàºŃàºĩ
ĠD ugang
à¶±à¶ºà¶ļ à¶§
ing en
up ak
àºķ àº³àº«
Ġmalip ayon
Ġkah a
àº²àºĹàº²àº¥àº°àºĻàº° àºª
àº²àºĩ àº¥
Ġna ilhan
c ent
æ °
ag it
à¸µ -
Ġg u
Ġ emp
Ġal agad
Ġàºŀàº²àºį à»ĥàºķ
à¶½ à¶ļà¶§
Ġko ja
i udad
Ġàº® àº½
à¸Ķ à¹ģà¸£à¸ģ
à¸¥ à¹Ĥà¸Ķ
à¸²à¸¢ à¸Ńà¸¢
à¸Ńà¸Ļ à¹Ģà¸£
Ġà¸Ľ à¸¥à¸Ńà¸Ķ
à¸Ķà¸ª à¸§à¸¢
à¸«à¸¥à¸²à¸¢ à¸£
à¸£à¸²à¸Ĭ à¸Ńà¸²à¸ĵà¸²à¸Ī
à¸Ĥà¸²à¸¢ à¸ķ
à¸ģà¸Ń à¸®à¸Ńà¸¥
à¹Ĥà¸Ī à¸¡à¸ķ
à¸³à¸ļ à¸²à¸ģ
à¹Ĥà¸Ĩà¸©à¸ĵ à¸²
à¸Ħà¸§à¸²à¸¡ à¸ªà¸³à¹Ģà¸£
à¸ĩà¸Ļ à¸³
à¸¤ à¸ģà¸©
à¸Ħà¸³ à¸Ļà¸§
à¸ģ à¸ªà¸³à¸«à¸£
ĠDav ao
à¸§à¸¢ à¸Ł
ĠGeme ente
k ov
ga hin
A K
C K
àºŃ àº¥
Ġà·Ģ à¶¸
and er
ult ihan
o e
ens iya
ĠF re
àºŃ àº°
11 6
Ġkasam tangan
àºģàº²àºĻàº ľ
ul ak
ĠS ama
ens ion
Ġà¶»à¶« à·Ģ
ac y
er to
ĠB os
sa s
Ġl ider
Ġ à»ĤàºĶ
à¶ºà¶± à¶º
Ġprobins ya
istr ation
sh op
ad ing
à¸² à¹Ģà¸Ħ
à¸¡ à¹Ħà¸Ł
à¸ķ à¸¨à¸²à¸ªà¸ķà¸£
à¹Ħ à¸§à¸Ļ
à¸Ĥ à¸Ńà¹ĥà¸«
Ġà¸Ĺ à¸°à¹Ģà¸¥
à¹Ģà¸Ĺ à¸§
à¸ģà¸¥ à¸ĩà¸Ĺ
Ġà¸Ĥ à¸¢à¸²à¸¢
Ġà¹ĥà¸Ļ à¹Ģà¸Ķ
Ġà¹Ĥà¸Ķà¸¢ à¹Ħà¸Ķ
à¸ªà¸²à¸¡à¸²à¸£à¸ĸ à¹Ģà¸¥
à¸Ĵà¸Ļ à¸²à¸ª
à¸ģà¸Ķ à¸Ķ
à¸ªà¸ģ à¸Ńà¸£
à¹Ģà¸¥à¸Ĥ à¸Ĺ
à¸Ńà¸ģ à¸«
à¸ģà¸© à¸²à¸Ĥ
Ġà¹Ģà¸£ à¸²à¹Ħà¸¡
à¸Ĺà¸³à¸ĩà¸²à¸Ļ à¹Ħà¸Ķ
ĠPros jeÄį
K ondado
200 1
ĠV ol
Ġà¸Ńà¸³à¹Ģà¸ł à¸Ńà¹Ģà¸¡
c ed
à¶º à·Ģà¶Ń
à¶Ń à·Ħ
ĠH i
Ã¨ Ã¨
Ġà»ģàº¥àº° àºļ
ĠProsjeÄį na
àºŃ àº²àº§
Ġàºŀ àº£àº°
àº§ àºĻàºª
à·ĥ à¶·
p ektura
a x
à·ĥ à¶ºà¶§
ag hang
àº²àºŀ àº²àºļ
Ġà»Ĥ àº®
c m
Ġm ubo
àºĹ àº°àº«àº²àºĻ
ĠAl ang
àºµà»ī :
Ġnags ulti
al on
à¸ģ à¸ŀà¸Ļ
à¸¢ à¹Ģà¸£
à¸ķ à¸²à¸£à¸²à¸ĩ
à¸ģà¸²à¸£ à¹ģà¸ŀà¸Ĺà¸¢
à¸Ĥà¸Ńà¸ĩ à¸ģà¸¥
à¸Ńà¸ģ à¹ĥà¸«
à¸Ħà¸£ à¹ģà¸Ĺà¸ĩà¸ļà¸Ńà¸¥
à¸Īà¸° à¸ªà¸£
Ġà¸£ à¸Ńà¸¢
à¸ļà¸ļ à¸Ńà¸¥
à¸® à¸Ńà¸£
à¸ªà¸²à¸¡à¸²à¸£à¸ĸ à¸ķ
à¸ĩà¸¡ à¸Ńà¸ĩà¸«
à¸ªà¸Ķ à¸Ĭ
à¸Ńà¸° à¹Ħà¸£à¸¡
à¸Ļà¸ŀ à¸§à¸ģ
eto oth
à¸¢à¸§à¸¢ à¸²à¸Ĭà¸²à¸§à¸ļ
à¸§à¸£à¸£à¸© à¸Ĺ
à¸² à¹ĥà¸«à¸į
à¸Ļ à¸ĺà¸£à¸£à¸¡
à¸Ķ à¹Ĥà¸Ħà¸£à¸ĩà¸ģà¸²à¸£
à¸²à¸¢ à¹Ģà¸ŀ
à¹ĥà¸Ļ à¸Ĥà¸ĵà¸°à¸Ĺ
à¸§à¸¡ à¸ŀ
U L
à¸Ħ à¸Ńà¸¢
à¹Ĥà¸Ķà¸¢ à¸Ń
àºĶ à»Ģàºģ
àºĶàºªàº° àºĶ
ĠàºĽàº° àºĬ
à¹Ĥ à¸«à¸¡à¸Ķ
àº¸ ÂŃ
ĠFl or
à¸Ľà¸Ĳ à¸¡
up ot
l uk
Ġà¶¶ à¶¶
Ġim b
àº² à»ĢàºŃ
Ġm or
uh ang
ch er
ĠM iss
Ġg ina
Ġm ig
ĠB et
Ġmj estu
Ġmagd ud
à¶Ń à¶´
à¶¸ à¶ºà¶±
ol isan
13 4
Ġàºģàº²àºĻàº Ĥ
Ġtamb ag
saysay an
Ġek sakto
Ġpang lawas
n ess
à¶»à¶º à¶Ń
à»ģàº« àºĻ
ĠQ ue
àº²àºĩ à»ĢàºĤ
al is
l k
àºĤ àº°à»ģà»ľ
uf act
à¸Ķ à¸²à¸Ļ
à¸Ķ à¸ľà¸¥
à¸Ķ à¹Ĥà¸£à¸Ħ
à¸Ķ à¹ģà¸¢
à¸ļ à¹ģà¸¥
à¸ļ à¸²à¸Ħà¸²à¸£
à¸ª à¸ĩà¸ļ
à¸²à¸¢ à¹Ģà¸£
à¹ģà¸¥à¸° à¹Ģà¸Ĺà¸Ħà¹Ĥà¸Ļà¹Ĥà¸¥à¸¢
à¸Ĥà¸Ńà¸ĩ à¸ģ
à¸į à¸Ī
à¸ģà¸£ à¸Ĺ
à¸Ĺà¸³ à¸Ĺ
à¸§à¸ĩ à¸ª
à¸ªà¸¡ à¸Ķ
Ġà¸ģà¸²à¸£ à¸ľ
à¹Ģà¸ļ à¸²à¹Ĩ
à¸£à¸© à¸ĵ
Ġ à¹ĥà¸«à¸į
Ġ à¸ĺà¸£à¸£à¸¡
à¸ģ à¹Ģà¸¢
Ġà¸¡ à¸Ńà¸ļ
à¸§à¸Ļ à¸ģ
à¸Ļ à¸łà¸²à¸¢à¹ĥà¸Ļ
à¸²à¸¢ à¸¥
à¹Ģà¸ŀà¸£à¸²à¸° à¸¡
Ġà¸ªà¸Ńà¸ļ à¸ĸà¸²à¸¡
à¸¢ à¹Ģà¸ŀ
Ġà¹ģ à¸ªà¸Ļ
ĠEmer ica
amb ig
Ġp orma
à¶»à¶¸ à¶«
19 2
Ġtuk ma
Ġun ahan
k ah
ingg les
àºĩàºĪàº²àºģ àºĹ
àºĤ àº²àºĶ
ĠIndones ia
àº¥àº° à»Ģàºļ
à¶ĭ à¶¯
m at
Ġà¶¶à¶½ à¶°
Ġpags ulat
à¸¡ à¸ĩ
à¶ľ à¶«
Ġhig h
àºĻ à»Ģàº§àº¥àº²
àº²àº Ŀ
Ġp uti
ĠA ra
à¶ľ à·Ħ
S E
à¶±à·Ģ à¶º
ight s
à¶¸à¶ļ à·Ģ
Ġdr ug
ĠSim on
sub ato
Ġà¶ĳ à¶±à¶ļ
àºŃàºĻàº į
àº½ àºĻàºļ
el y
" :
à¸²à¸ Ĩ
à¸Ļ à¹Ģà¸Ľà¸¥
à¸ļ à¸ķà¸²à¸¡
à¸ķ à¹Ģà¸Ľ
à¸²à¸ģ à¸£à¸£à¸¡
à¸Ĥà¸Ńà¸ĩ à¸ľà¸¡
Ġà¸ģ à¸³
à¸Īà¸²à¸ģ à¸Ľà¸£à¸ª
à¸Ńà¸Ķ à¸ģ
Ġà¹Ģà¸ŀà¸£à¸²à¸° à¹Ħà¸¡
à¸£à¸°à¸¢à¸° à¸¢à¸²à¸§
à¸Ľà¸¥à¸²à¸¢ à¸Ĺà¸²à¸ĩ
à¸²à¸ŀà¸§à¸ģ à¹Ģà¸Ĥ
à¸Īà¸į à¸ł
à¸§à¸¢ à¹ĥà¸Ļà¸ģà¸²à¸£
à¹Ģà¸ĸ à¸Ńà¸°
Ġpol it
7 37
à¸ģ à¹Ģà¸Ļ
à¸§ à¸Īà¸°
à¸Ńà¸ĩ à¸Ńà¸²à¸«à¸²à¸£
à»ģàºĻ à»ĥàºª
an haw
ĠàºĦ àº²àºĶ
ĠIn t
Ġip akita
à¸ŀ à¸Ļà¸¡
____ ____
ĠD ayon
Ġal l
4 50
àºĹ àº²
Ġà¶ºà¶± à¶ļ
Ġà·Ģà·ĥ à¶»à¶ļ
Ġ et
à¶» à·ĥà¶±
Ġà¶ĭ à·Ģà¶¸à¶±
.-.-.-.-.-.-.-.-.-.-.-.-.-.-.-.-.-.-.-.-.-.-.-.-.-.-.-.-.-.-.-.- .-.-.-.-.-.-.-.-.-.-.-.-.-.-.-.-.-.-.-.-.-.-.-.-.-.-.-.-.-.-.-.-
àºĽ àºĽ
Ġà¶¯ à·ħà¶¯
AN G
b aw
ĠB MW
àºŃàº¡ àºĤ
à¶ĳ à¶½
àºģàº° àºĪ
àºĩàºĻ àº²àº¡
ĠC op
àºĻàºĬ àº²
ĠS in
àºĻàºĦ àº³
à¶¸ à¶©
an as
ĠJ os
Ġt am
Ġkina iyahan
à¶ĭ à¶Ń
àºªàº° àºķ
ĠJes u
à¸Ļ à¸¡à¸²à¸ģà¸Ĥ
à¸ģ à¹Ħà¸§
à¸¥ à¸§
à¸ļ à¸łà¸²à¸ŀ
à¸ļ à¸£à¸°à¸ļà¸ļ
à¸ķ à¸Ĥ
à¸£à¸° à¸¡
à¸²à¸¡ à¸²à¸Ķ
à¹ĥà¸Ļ à¹Ģà¸§
à¸Ńà¸Ļ à¹Ģà¸Ĥ
à¸Ĺà¸³ à¸Ńà¸¢
à¸§à¸ĩ à¸«
à¸§à¸ĩ à¸Ĭ
Ġà¹Ģà¸Ľ à¸£
à¹Ģà¸ļ à¸²
à¸²à¸Ľ à¸²à¸ģ
à¸Ļà¹ģ à¸Ł
à¸Ķà¸¥ à¸ŀà¸ļ
Ġà¸ŀà¸£à¸° à¸ŀ
à¸Ń à¹Ģà¸«à¸ķ
à¸§ à¹ĥà¸«à¸¡
à¸²à¸§ à¸Ħ
Ġà¹ģà¸¥à¸° à¸ļà¸£
à¹Ħà¸«à¸Ļ à¸Ĺ
à¸ģ à¸Ľà¸£à¸°à¹Ģà¸łà¸Ĺ
à·ĥ à¶ļà¶§
Ġà¸Ĭ à¸¥à¸ļ
à¸²à¸¢ à¹ģà¸¥
à¸¸ ,
Ġon e
Ġed uk
Ġkalih ukan
33333333 3
ĠB L
ID S
à¶ºà¶½ à¶Ń
m od
Ġt em
âĢ Į
row ser
k l
ĠK ab
Ġpagd ula
ĠYot subato
Ġà»ģ àºĻàº§
ĠF il
Ġdat os
à¸²à¸ª à¸²à¸¡
11 4
àºªàº° àºĸ
ĠE AA
Ġ/ /
Ġà¶Ĩ à¶±à¶±
Ġnat ong
wel ahan
ograp h
16 5
Ġat o
um ento
à¶Ń à¶ļà¶º
C E
Ġmagdud ula
iy ahe
ĠD an
Ġpagk ak
ĠP apa
Ġkalab utan
à¶¯ à·Ħà¶±
Ġpanahon a
Ġà¶ľ à¶¶à¶©
Ġà¶º à¶½
Ġà·ĥà¶¸ à·Ħ
àº§ àºª
Ġà¶ī à·Ģ
à¸Ń à¸²à¹Ģà¸ĭ
à¸¥ à¸Īà¸²à¸ģ
à¸¢ à¸ģà¸ķ
à¸ģà¸²à¸£ à¸ķà¸£à¸§à¸Ī
à¸§à¸ĩ à¸Ī
Ġà¸Ĥ à¸Ńà¸ļ
à¸§à¸£ à¸ĸ
à¸«à¸²à¸£ à¸²à¸Ĭ
à¹Ģà¸ł à¸ª
à¸Ńà¸°à¹Ħà¸£ à¸Ĺ
Ġà¹Ģà¸Ĺ à¸¨
à¸Ńà¸ĩà¸Īà¸²à¸ģ à¸¡
Ġà¸£à¸²à¸¢ à¸ĩà¸²à¸Ļ
à¸Ľà¹ģà¸ļà¸ļ à¸Ĺ
Ġà¸Ĥà¸²à¸¢ à¸ª
à¸ļ à¹Ĩ
à¸Ļà¸ķ à¸¥à¸Ńà¸Ķ
à¸ģà¸¥à¸²à¸ĩ à¸Ħ
à¸Ħà¸³ à¸ķà¸Ńà¸ļ
Ġà¸Ļ à¸§
Ġà¸ķ à¸²à¸£à¸²à¸ĩ
à¸¡ à¸²à¸Ĭ
à¸Ĥà¸Ńà¸ĩ à¸Ĥ
à»į ÂŃ
ĠE g
àºģàº³àº¡àº° àºģàº²àºĻ
àºĶ àº¥àº²àº§
Ġà¶ħ à¶ºà¶ļ
Â ®
c rip
à»Ģà»Ŀ àº²àº°àºª
on line
àºĻà»ĢàºŃàºģ àº°àºŀàº²àºļ
ĠH el
ut ay
Ġ| --
inga wan
en ep
Ġkah ulogan
Ġesk welahan
RA I
B ukid
k at
Ġpagp akita
Ġkap olisan
abil idad
ang e
Ġmat arong
Ġmakab aton
C L
Ġil alum
Ġà¶¢à¶±à¶´ à¶¯à¶º
U T
ats u
àº¡ à»ĢàºĽ
ĠF an
ĠPro gr
Ġ[ [
Ġàºŀ àº§àº¡
àº®àºŃàºļ àºĶ
à¶´à¶¯ à·Ģ
à¸Ľ à¸°
à¸²à¸¡ à¸²à¹ĥà¸Ļ
à¹ģà¸ģ à¸Ļ
à¸ĩà¹ģ à¸Ĭà¸¡à¸Ľ
Ġà¸ľà¸¥ à¸ĩà¸²à¸Ļ
à¹Ĥà¸Ńà¸Ļ à¹Ģà¸ĩ
à¸²à¸§à¹Ģà¸§ à¸ªà¸ª
à¸Ń à¸Ŀ
à¸²à¸¢ à¹Ħà¸¡
à¸Ĥà¸Ńà¸ĩ à¸ķà¸Ļà¹Ģà¸Ńà¸ĩ
à¸ĩà¸¡ à¸Ńà¸ļ
Ġà¹Ģà¸ģ à¸¥
à¸įà¸« à¸²à¸ģà¸²à¸£
H uai
à¸Ļà¸Ħ à¸Ķ
à¸ī à¸¥à¸²à¸Ķ
à¹Ĵà¹ķ à¹ķ
à¸ģ à¸Ħà¸¥
el come
à¸Ľà¸£à¸° à¸Ī
ĠIn ter
à»Ģàºªàºį àº«àº²àºį
es i
Ġh um
Ġp ovrÅ¡
à»ģàº¥àº° àºª
àºĻ àº²àºĹ
àºĻàºĽàº° àºĹàº²àºĻ
àºļàºŀàº°àºįàº²àºģàºŃàºĻàºĹ àº³àº¡àº°àºĬàº²àºĶ
ines e
ĠD in
ra z
ĠCom tÃ©
Ġà¶ī à¶¸
ĠIS O
Ġà¶¯ à·ģà¶ļà¶º
17 5
Ġpagb aligya
ĠY am
b ack
àºļ à»ĢàºĽ
Ġgip adala
Ġsa nga
08 1
27 0
Ġ: )
Ġkan ton
àºŃ àº°àºĹ
H uman
à¸Ń à¸ŀà¸£à¸°
à¸¡ à¸«à¸¡
à¹Ĥ à¸ªà¸Ķ
à¸«à¸¥ à¸²à¸ļ
à¸Ļà¹ĥà¸Ļ à¸§
Ġà¸Īà¸²à¸ģ à¸Ĺ
à¸¡à¸¡ à¸Ńà¸ĩ
Ġà¸£à¸²à¸Ħ à¸²à¸ŀ
à¸ªà¸²à¸£ à¸ŀ
à¸Ńà¸ĩ à¹ĥà¸ª
à¸ģà¸²à¸£ à¸Ľà¸¥
à¸§à¸¢ à¹Ħà¸Ķ
Ġà¸ª à¹Ħà¸ķà¸¥
ĠL in
ĠS atan
R inuso
ur es
Ġkal ingawan
Ġà¶¸ à¶ļ
àºĻ à»ģàºķ
àº²àº¥ àº°àº§
ult ahan
Ġsimb olo
ĠGreg ory
Ġpagl uwas
ap don
ĠJud a
os ti
k ey
rom e
ĠI sa
pl ication
ro v
eb re
19 90
Ġpan id
aa aa
àº¡ àºĬàº²àºĶ
ap lag
Ġpag salig
ĠAn al
àºĽàº°àºĹ àº²àºĻàºª
Ġkw arta
O p
ĠWest ern
àº« àº²àºģ
Ġnah igugma
à¸Ķ à¸Īà¸³à¸«à¸Ļ
à¸Ľ à¹Ģà¸Ľ
à¸Ĥà¸Ńà¸ĩ à¹Ĥà¸¥à¸ģ
à¸§à¸Ļ à¸Ħ
à¸Ľà¸£ à¸²à¸£à¸ĸ
à¹ģà¸¡ à¸Ļà¹Ģà¸Ĭà¸ªà¹Ģà¸ķà¸Ńà¸£
Ġà¸Ľà¸£à¸° à¸§
à¸Ļà¸Ĥà¸Ńà¸ĩ à¸ľ
Ġà¹Ĥà¸£ à¸Ļ
Ġ à¸ķà¸£à¸§à¸Īà¸ªà¸Ńà¸ļ
à¸ĩ à¸Ħà¸§à¸£
à¸ĩ à¸ŀà¸Ńà¹ĥà¸Ī
à¸¢à¸Ļ à¹ģà¸ļà¸ļ
à¹Ģà¸ĭ à¸Ł
Ġà¸ģà¸£à¸° à¸ļ
rop a
ambo an
j el
à¸¢à¸ģ à¸ģ
à¸ķà¸¥à¸²à¸Ķ à¸Ļ
à¸²à¸§à¸Ĥà¸Ńà¸ĩ à¹Ģà¸Ħà¸£
à¶¹ à¶±
ĠGam e
Ġdap lin
Ġf l
Ġd ivision
Ġpags ulod
Ġà¶ħ à¶«
14 1
à¶Ĥ ,
low er
à·Ĥ à¶°
ĠP il
lak e
à¶ľ à¶±à¶º
Ġb o
à»ĥàºĻ àºģ
Ġà¶° à¶¸
ha an
Ġc ook
Ġgin at
à»ĦàºĽ àºª
in asyon
ig om
Ġga sa
ĠCent ral
à¶»à¶¸ à¶«à¶º
29 0
ĠAs s
Ġpagk ah
L alawigan
à¶± à¶©
Ġpagk al
ĠC ard
à·Ĵ âĢ¦
àº·à»Ī âĢĭ
à¸ĩ à¸Ńà¸²à¸«à¸²à¸£
à¸ļ à¸²à¸Ļ
à¸° à¸Ī
à¸Ľ à¸Ĭ
à¹ģà¸¥ à¸ľ
à¹ĥà¸Ļ à¸ĸ
ĠA RAI
Ġà¸£ à¸ŀ
Ġà¹Ģà¸Ľ à¸Ńà¸£
ĠV er
à¹Ģà¸ĺ à¸Ļ
à¸Ńà¸ĩà¸ģ à¸ĩ
à¸Ĭà¸¡ à¸§
à¹Ģà¸Ł à¸ªà¸ļ
à¸Ķà¸ŀ à¸ģà¸ŀà¸²
à¸Ĺ à¸Ĭ
à¸ļ à¹Ģà¸Ń
à¸²à¸Īà¸° à¸£
à¹ģà¸Ł à¸Ļ
à¸ģà¸£à¸° à¸ª
à¸Ļà¹ģ à¸ľ
àº¥àº°àºļ àº½
à¸Ńà¸° à¹Ħà¸«à¸¥
à¸ªà¸²à¸§ à¸ªà¸§à¸¢
ĠP ay
Ġmag a
Ġb ud
à¸Ł à¸²à¸£
à¸ļà¸ª à¸ķà¸£à¸Ńà¹Ģà¸ļà¸Ńà¸£
h iya
ik i
àºģàºª àº²àºĦàº§àº²àº¡
àºĻ à»ĢàºŃ
àº²àºªàº° à»Ģàºŀàº²àº°
m ar
àºŃàºĻ à»ľ
à¶µ à¶½à¶ºà¶ļ
h at
E F
Ġrelih iyon
133 133
ĠTex as
ĠG PS
ĠU k
Ġd uta
10 7
resent ar
Ġb ook
ĠR aj
ĠFran c
ĠP inaagi
ĠK abi
ĠSt ory
ĠSer vice
n em
art ment
àº² à»Ģàºļ
ĠC zech
ĠK ey
à¸² à¹Ģà¸«
à¸§ à¸Īà¸²à¸ģ
à¸¢ à¹ģà¸¥
à¹Ĥ à¸¢à¸Ļ
à¹Ģà¸£ à¸²à¸¢
à¸ļà¸£ à¸Ńà¸ĩà¸§
Ġà¹Ĥ à¸Ńà¸¥
à¸Ļà¸Ļ à¸³à¸Ĺ
à¸Ńà¸ķ à¸ķ
à¸ļà¸ª à¹Ĥà¸¡à¸ªà¸£
à¸Ńà¸Ļà¸Ķ à¸Ńà¸Ļ
à¸¡ à¸²à¸¢à¸Ĺ
à¸¥ à¸Ķà¸Ļ
à¸¢à¸Ķ à¸Ķ
à¸²à¸į à¸Īà¸Ļ
à¹Ĥà¸ĭ à¹Ģà¸Ĭ
à¸ģà¸²à¸£ à¸¥à¸ĩà¸Ĺ
à¸§à¸¢ à¹Ģà¸Ħà¸£
Ġà¸£ à¸«
à¸ªà¸²à¸¡à¸²à¸£à¸ĸ à¸ª
à¸²à¸ģà¸²à¸£ à¸ģà¸£à¸°à¸Ĺà¸£à¸§à¸ĩ
ĠDut erte
Ġcom puter
Ġà¶Ĩà¶ºà¶Ńà¶± à¶ºà¶ļ
àº½ àºĻàº¥
-.- "
ĠL G
ĠPres idente
F i
Ġpagd ala
Ġmus ika
Ġà»Ģàº§ àº¥àº²
r ato
Ġm es
Ġkal amboan
àºļàºģàº²àºĻàº ķ
ĠÅ¡ if
at u
ĠB ohol
Ġeng ine
ing an
ĠKabi say
Ġgil apdon
Ġpagt udlo
Ġb ol
el le
sk aya
Ġà¶ļà¶Ń à¶±
ad an
àºŃàºģ àºĹ
à»ĢàºĪàº¥àº°àºĪ àº²
à¶¢ à·ĥ
Ġnat ural
Ġb ah
sa la
14 5
à¸Ļ à¹Ģà¸«
à¸¡ à¸²à¸Ļà¸²à¸Ļ
à¸ļ à¹Ħà¸Łà¸Ł
à¹ĥà¸Ļ à¸«à¸¡
à¸Ńà¸¢ à¹Ģà¸Ľ
à¸ĵ à¸Ķ
àºĻàºĶ àº²àº§
à¸Ńà¸ķ à¸ª
à¸Ńà¸Ħ à¸Ķ
Ġà¸£à¸²à¸¢ à¹Ħà¸Ķ
à¸²à¸ªà¸²à¸£ à¸Ħà¸²à¸¡
à¸Ļ à¸Īà¸Ļ
à¸ª à¸«
à¸ķ à¸ŀ
à¸ĵ à¸Ħà¸£
Ġà¸ŀà¸£à¸° à¸£à¸²à¸¡
Ġk raj
à¸Ńà¸Ļ à¹ĥà¸Ħà¸£
htt p
à¹Ģà¸© à¸ģ
à¸Īà¸° à¹Ģà¸ŀ
àºĻà»ĥàºĻàº §
Ġres earch
Ġda otan
àºģ à»Ģàºģ
à¸Ľ à¸ĭ
ig er
Ġkap in
ak ip
Ġdep os
ley ado
Ġemp leyado
Ġbu nga
àºĪàº²àº¥ àº°àºĻàº²
àº§ àºĻàºĬ
àºģ àºĿ
Ġà¶¯ à¶«
àºĤàºŃàºĩ àºŃ
àºĻàº¥àº° à»Ģàº¡
à·ĳ ,
à¶Ń à¶¸à¶±
àº§àºį àºĹ
ĠK ap
àºļàºģàº²àºĻàº ŀ
Ġà¶¶ à¶¸
àºŀ àº°àºļàº²àºĩ
36 5
in te
Ġbay ad
ol i
Ġà¶ ĸ
pl y
àºĬ àº½àºĩ
àº¡ à»ĥàºĬ
àº¡ àº¡àº°
ĠS m
osp ital
à¶º à¶¸à¶§
àº²àºĻ à»ĤàºĶ
à·Ģà¶± à¶¸
Ġà¶¸à·Ħ à¶½
ĠBez irk
Ġgum ikan
à¹Ģ à¹Ģà¸¥
à¸ģ à¸²à¹ģà¸Ł
à¸Ķ à¸ŀà¸¥
à¸¢ à¸ĺà¸£à¸£à¸¡
à¸ĵ à¸Ńà¸¢
à¸²à¸§ à¸¢
Ġà¹ģ à¸ª
Ġà¸ŀ à¸§à¸ĩà¸«à¸£
à¸ģà¸© à¸²à¸§
Ġà¹Ĥà¸Ķà¸¢ à¸ģà¸²à¸£
à¸²à¸ļ à¸Ńà¸¥
Ġà¹Ģà¸ŀà¸£à¸²à¸° à¸Ĺ
à¹ĥà¸Ļà¸ķ à¸Ńà¸Ļà¸Ļ
Ġà¸¢à¸²à¸ĩ à¸£à¸ĸ
à¸ķ à¸Ľà¸£à¸°à¸Īà¸³à¸§
à¸²à¸§ à¹Ģà¸Ľ
Ġà¹ģà¸¥à¸° à¸Ľ
om i
à¹Ģà¸¨à¸© à¸Ĺ
Ġit om
à¸§ à¸²à¸¥
à¸¡à¸²à¸ģ à¹Ģà¸ģ
Ġà¹Ģà¸Ī à¸£
à¸£ à¸²à¸ģ
ac ima
à¹ģà¸« à¸ĩ
Ã¢ n
àºŃàºĻàº ¢
ĠA ron
or i
àºĽàº² à»Ħàºª
à·Ĵ "
àºģàº²àºĻàº Ŀ
ema Äįkoj
à¸§à¸¢ à¸ļ
àºį àº°àºļ
Ġmi abot
Ġ email
àºĶà»Ŀàº²àºį àº§
Ġpro st
o on
Ġà·Ģ à·ħà¶ļ
10 6
à¶Ĭ à¶§
ili a
ath er
à¶ĳ à¶¯
n ag
ur ant
Ġàºŀ àº½àºĩà»ģàºķ
Ġtel ep
àº²àºģ àºĸàº²àºĻ
ĠàºĻ àº²àºĹ
Ġ à»Ŀàº²àºģ
i ang
n am
er ing
Ġis la
Ġist orya
ĠA ct
ĠàºĽàº° àº¡àº²àºĻ
Ġpagb isita
àºŃ àºĸ
à¸²à¸ ı
à¸Ļ à¸Ľà¸¥
à¸ģ à¹Ħ
à¸ĩ à¹Ģà¸«à¸¡
à¸Ħ à¸Ļà¸ª
à¸Ńà¸¡ à¹ģà¸ĭ
Ġà¸ļ à¸²à¸ĩà¸Ĺ
Ġà¹ĥà¸Ļ à¹Ģà¸ģà¸¡
à¸¢à¸ģ à¸¢
Ġà¹Ģà¸Ħ à¸¢
à¸ĩà¸ģà¸£ à¸²à¸Ļà¸ķ
Ġà¸ģà¸²à¸£à¸Ĺ à¸Ķà¸ªà¸Ńà¸ļ
à¸ªà¸ªà¸²à¸§ à¸°
à¸ģ à¸ĺ
à¸²à¸£ à¸²à¸ĩà¸§
à¸Ńà¸Ļ à¹Ħà¸Ľ
ĠI r
Ġ act
à¸Ń à¹Ĩ
à¸Ń à¹ģà¸ļà¸ļ
à¸łà¸²à¸Ħ à¹Ģà¸«à¸Ļ
à¸Ĺà¸ĺ à¸£
u asa
à·ħ à¶°
àºĶ à»Ģàº¡
àºĻàºĶ àº²àºĤ
Ġà»Ģàºª àºĶàºĸàº°àºģ
sk og
àºªàº°à»ģàºĶàºĩ àºĦàº§àº²àº¡
ec ial
Ġap ost
àºģ à»ľ
àºŀàº£àº° àºŃ
ak op
12 00
ĠN ic
àºŃàºĻàº Ĥ
aw hag
àºģàº° àºģàº½àº¡
P amilya
Ġre d
Ġbuh is
Ġintern asyonal
àº²àº§ àºĹ
ĠàºĽ àºŃ
11 3
Ġtin un
il lo
Ġs jedn
Ġp m
Ġà¶Ĩ à¶±à¶ºà¶±
à¸ĩ à¹Ģà¸Ħ
à¸ĩ à¸Īà¸³à¹Ģà¸Ľ
à¸Ķ à¸¨
à¸ļ à¹Ĥà¸Ľ
à¹ĥà¸Ļ à¸ľ
à¹ģà¸¥à¸° à¹Ģà¸Ħà¸£
à¸ĵ à¸Ļ
à¸Ħà¸§à¸²à¸¡ à¹ģà¸ķà¸ģà¸ķ
Ġà¸Ń à¸°à¹Ħà¸£
à¸¢à¸ĩ à¸Ńà¸¢
Ġà¸Ľ à¸Ĺ
à¸ŀà¸£ à¸«à¸¡
à¸ļà¸Ļ à¸«à¸Ļ
à¸Ļà¹ģ à¸Ĭà¸¡à¸Ľ
Ġà¹Ģà¸Ń à¸ª
à¸Ńà¸ĩà¸ªà¸³à¸Ń à¸²à¸ĩ
à¸Ļ à¹Ĥà¸Ħà¸£à¸ĩà¸ģà¸²à¸£
à¸ģ à¸Ľà¸¥
à¸Ħ à¸¡
à¸ŀ à¸į
à¸ĭ à¸²à¸ģ
à¸¥à¸Ķ à¸ģà¸£à¸°à¸«à¸Ļ
Ġà¸Ĥà¸ĵà¸° à¸Ļ
à¸ŀà¸¤ à¸ģà¸©
M ar
ĠB re
l on
àºģ à»Ģàº¡
àº³ àºĤàºŃàºĩ
Ġm ins
ĠBl og
ĠCh at
ĠNag l
amt am
ibil idad
Ġan yos
Ġnags iling
ĠU V
àºŁ àº£
ĠTs ina
Ġturnt able
end e
r x
Ġsred iÅ¡ta
à»Ĥàº®àºĩ àº®àº½
àºļ à»ĢàºĤ
àº²àºŀàº§àºģ à»ĢàºĤ
Ġyo ur
à·ģ à¶ºà¶±
àº²àºĻàº¥ àº²àº§
×Ĳ×Ĳ×Ĳ×Ĳ ×Ĳ×Ĳ×Ĳ×Ĳ
ĠÅ¡if ru
à¶ļà¶» à¶½
Ġsa ad
ok ia
à·Ģà¶ļ à¶ºà¶±
à¸Ļ à¸¡à¸²à¸ģà¸ģà¸§
à¸¡ à¸§à¸¢à¹Ħà¸Ĺà¸¢
à¸²à¸Ļ à¸³
à¸ĵ à¸Ńà¸²à¸Ī
à¸²à¸§ à¸²à¸ª
à¸£à¸¡ à¸¢
ev a
à¸Ħà¸£à¸ļ à¸ĸ
à¸ŀà¸¥à¸ķ à¸Łà¸Ńà¸£
à¹ĥà¸Ļà¸ģà¸²à¸£ à¹Ģà¸Ĥ
ĠL og
à¸¢à¸ĩ à¸Ļ
à¹Ģà¸ī à¸¢
ħ æ
à¸Ĥà¸Ńà¸ĩ à¹Ħà¸Ĺà¸¢
à¹Į /
T ungod
ĠW ater
ĠTr ip
Ġpund ok
Fran ce
àºªàº°àº«àºĻ àºŃàºĩ
r ia
ĠàºĤàºŃàºĩ àºŃ
it ening
Co orden
Coorden adas
ĠÃ ļ
Ġka saysayan
17 2
Ġregional nu
Ġd em
àºĶ à»ģàºį
ĠM orm
à·Ħà¶½ à¶§
han a
à·Ģà¶§ à¶Ń
jed uje
ï¿½ ï¿½
.... ...
àºĻ àºģàº²àºĻàºĦ
à¶º à¶·
ĠI II
Ġw e
ĠR F
ah ing
ab et
to ck
14 6
à·ı âĢ¦
ĠT om
Ġà¶ħà¶» à¶ľà¶½à¶º
ï¸ ı
ĠPos jeduje
Ġ à¹Ħà¸¥
à¹Ģà¸ ĵ
à¸ª à¸ľ
à¹Ĥ à¸ļà¸£
à¸Ĥà¸Ńà¸ĩ à¹ģà¸ķ
à¸Ĺà¸³ à¸ª
à¸Ļà¸ª à¸²à¸£
à¸¡à¸² à¹Ģà¸£
Ġà¸ģà¸²à¸£ à¸Ķ
à¸ļà¸ª à¸²à¸£
à¸²à¹ģ à¸ľ
à¸Ĺà¸£à¸ĩ à¸Īà¸³
à¸ĩà¸«à¸¡ à¸Ķà¸Ļ
Ġà¸ªà¸° à¸Ķà¸§à¸ģ
à¹Ģà¸ĺà¸ħ à¹Ģà¸Ļ
ĠK am
Ġà¸Ķ à¸³à¹Ģà¸Ļ
à¹ĥà¸Ļà¸ģà¸²à¸£ à¸ªà¸£
à¸«à¸¡à¸²à¸¢ à¹Ģà¸«à¸ķ
à¸³à¹ģ à¸Ļà¸°à¸Ļà¸³
Ġà¹Ĥà¸£à¸ĩ à¸ĩà¸²à¸Ļ
à¸ģà¸¥à¸²à¸ĩ à¹ģà¸Ī
à¸Ńà¸¢ à¹Ģà¸Ń
Ġgin ahimo
à¸²à¹Ģà¸ĭ à¸¥à¹Ģà¸ĭ
à¸²à¸ĩ à¸£à¸²à¸¢à¹Ħà¸Ķ
Ġà¸¡ à¸Ńà¹Ģà¸ķà¸Ńà¸£
à¸¢à¸ĩ à¹Ģà¸«à¸Ļ
à¸£ à¸Ķà¸ģ
ery oso
Ġkaayo han
à¹ģà¸£à¸ĩ à¸Ķ
Ġs iyang
Ġà¶¶à¶½ à¶ºà¶ļ
Ġà»ĥàºĻàº ¡
Ġc lass
Ġkag awasan
ĠJ edno
àºªàº°à»ľ àºŃàºĩ
Ġp asa
ĠMit ubag
àºĤ àº§
àºĶàº§àº½àºģ àº¢
M I
r as
àº²àºĩ àºĬ
Ġnj emaÄįkoj
ir d
ĠB ang
ĠLe Ã³n
Ġs ystem
ĠSt ore
ĠI C
os ta
b as
à¶° à¶ºà¶±
àº²àº¡àº° àºĬàº²àºĶ
Ġp el
ĠO cc
y ente
Ġ agi
Ġmat ud
Ġpod acima
lo c
us lan
Ġà¶ķ à·ĥ
ĠH ouse
ĠG overn
Y E
Ġmat uod
ĠSer ies
à¸Ļ à¸Ľà¸£à¸ª
à¸Ļ à¸«à¸¡à¸Ķ
à¸Ļ à¹ĥà¸Ķ
à¸ģ à¹Ģà¸ĭ
à¸ĩ à¹Ģà¸ĺ
à¸Ķ à¸Ħà¸§à¸¢
à¸ļ à¹Ģà¸Ĥà¸²
à¸²à¸ģ à¸İ
à¸ĵ à¸Īà¸°à¸ķ
à¸Ļà¸Ĺ à¸Ńà¸ĩ
Ġà¹ģ à¸Ķ
Ġà¸Ń à¸§
à¸²à¸« à¸§
à¸Ļà¸¡ à¸«
à¸£à¸²à¸¢ à¸§
à¸ĩà¸¢ à¸²à¸ĩ
Ġà¸ķà¸¥à¸Ńà¸Ķ à¸Ī
à¹ģà¸ľà¸¥ à¹Ģà¸Ľ
à¹Ģà¸ĺà¸ĥ à¹Ģà¸ĺ
à¸¡ à¹ĥà¸ļ
à¹ĥà¸Ļ à¸ļà¸£
à¸Ħà¸§à¸²à¸¡ à¸ĸ
à¹Ħà¸Ľ à¸ķà¸²à¸¡
à¸Ĺà¸²à¸ĩ à¸ª
à¸ĩà¸Ĥ à¸¥à¸²
à¹Ģà¸Ĥà¸² à¹ĥà¸«à¸į
à¸Ńà¹Ħ à¸«à¸£
Ġà¸Ĺ à¸²à¸§à¸Ļ
à¸Ķ à¸Ľà¸²à¸ģ
Ġ eb
pan y
Ġgip as
7 20
f acebook
àºĶ à»ģàº¥
à¸¢ à¸ł
àº°àº¥ àº²àºĶ
ac he
à·Ģ à¶ºà¶ļà¶§
ah al
Ġà¶Ń à·Ģà¶¸
: :
Ġd on
Ġà»ĥàºĻàº ŀ
y p
à»ĥàºĻàºŀ àº²àºģ
Ġper formance
Ġpagp as
is ud
ĠIng on
à·Ĵ âĢĻ
à·Ĥ à¶ļà¶ºà¶±
à»ĥàºĻàº Ī
à»ģàº® àº¡
Ġl ink
ĠW i
à¶ľ à¶¸à¶ļ
Ġpagb utang
àºļ à»ĦàºĶ
Ġl ive
ĠT witter
à¶¸ à¶´
à¶ħ à¶½
w asyon
R M
ĠW all
àºĦàº§àº²àº¡ àºģ
nga wan
it ies
Ġm m
ĠN g
à¶« à·Ģ
14 2
2 15
13 2
ĠB usiness
j o
is on
â ĸ
à¹Ī âĢĿ
à¸¢ à¹Ĥà¸Ļ
à¸ļ à¸Ĭà¸¡
à¸Ĥ à¸Ļ
àº¡ àº²àºģ
à¹ģà¸¥ à¸ķ
à¸Ĥà¸Ńà¸ĩ à¸ŀà¸£à¸°
Ġà¹ģà¸¥à¸° à¸«à¸Ļ
à¸Ļà¸ª à¸²à¸§
à¸Ńà¸ĩà¸Ħ à¸Ńà¸¡à¸ŀ
Ġà¸Īà¸²à¸ģ à¸ģà¸²à¸£
à¸ģà¹Ģà¸ģ à¸ĵà¸ĳ
Ġà¸ķà¸£ à¸²
à¸Ńà¸Īà¸²à¸ģ à¸Ļ
à¸² à¹Ĥà¸£
à¸ĩ à¸£à¸°à¸Ķ
à¸¡ à¹ģà¸£à¸ģ
à¸¡ à¸§à¸¥
à¸Ľ à¸«à¸Ļ
à¸Ńà¸ĩ à¹Ĥ
à¸ŀ à¸Ļà¸ĺ
à¸²à¸ĩ à¸Ķà¸³
à¸Ńà¸Ļ à¸«
Ġà¹Ģà¸Ĺ à¸£
à¸Ħ à¸ŀ
à¸²à¸¢ à¸Ħà¸¥
à¸¿ à¸¿
it z
à¸ķà¸²à¸¡ à¸ķ
Ġà¶ħ à¶ļà¶¸
Ġà¶ī à·Ģà¶»à¶º
Ġt est
àº¡àºĤ àº°àº«àºįàº²àºį
à¶½ à·Ģà¶º
ali z
ĠT or
àºĻà»ĢàºĶ àºį
Ġp ir
àºģàº³ àºĽ
en z
Ġusa g
ff ff
Ġnam on
s ulti
Ġp ultahan
N P
d ownload
Å Ļ
à·Ĵ !
z v
ev er
Ġs te
Ġà¶½ à·Ģ
Ġà¶¢ à¶´
c am
ĠNas od
à¶Ń à¶ļà¶»
Ġà¶ľ à¶Ł
àºĻàºªàº° à»Ħà»Ŀ
à¸Ļ à¸į
à¸§ à¹Ģà¸£à¸²
à¸¥ à¸ŀ
à¹ĥà¸Ļ à¸Ħ
à¸§à¸¢ à¹Ĥà¸£à¸Ħ
ik atsu
Ġà¸§ à¸Ńà¸¥
à¸ªà¸° à¸Ķ
à¸Ļà¸Ńà¸Ļ à¸«à¸¥
à¸Ńà¸Ńà¸ģà¸¡à¸² à¹Ħà¸Ķ
à¸ŀà¸£à¸°à¸£à¸²à¸Ĭ à¸ļ
à¸Ķ à¸¡à¸²
Ġà¸Ĺà¸³ à¸ĩà¸²à¸Ļ
Ġà¸Ħà¸§à¸²à¸¡ à¸ª
à¹Ģà¸ģà¸© à¸¡
S A
à·Ĵ ?
à¸Ńà¸ĩà¸ģà¸²à¸£ à¸Ĥà¸²à¸¢
àºŃàº²àºĶ àºĪàº°
Ġà¶¶à¶½ à¶´à¶Ń
Ġh ugot
ĠS ab
ata an
ugil anon
Ġmak asa
âĺĢâĺĢâĺĢâĺĢâĺĢâĺĢâĺĢâĺĢ âĺĢâĺĢâĺĢâĺĢâĺĢâĺĢâĺĢâĺĢ
à·Ģà¶§ à¶¸
ĠàºĻàº°àºĦ àºŃàºĻ
us tong
Ġgam hanan
Ġpagp atay
Ġgin t
Ġbil ang
h ouse
Ġnak as
Ġ abo
à·Ħ à¶»à¶«
àºŃ àºľ
et r
à»ĥàºĻàº¥ àº°àºĶ
Ġà¶ į
Ġgip ahigayon
àº¥àº²àºĦ àº²
ĠN ah
is od
K ita
ĠP ang
Ġà¶¶à¶½ à¶ļ
ab y
ĠC lin
ro ugh
Ġp lat
an ang
à¶ľ à¶ļ
à»ĢàºĤ àºĶàºĹ
àº§àºį àºģàº²àºĻ
ot s
Ġàºģàº²àºĻàº Ĭ
ut uo
ĠSt ation
Ġkasa kit
à¸ģ à¸Īà¸°à¸¡
à¸Ķ à¸¨à¸£
à¸²à¸ĩ à¹Ģà¸¡
ĠA ikatsu
à¸§à¸¢ à¸ĩà¸²à¸Ļà¸Ĺ
à¸²à¸Ľ à¸£à¸ª
à¸£à¸²à¸Ĭ à¸ļ
à¸²à¹ģ à¸Ħ
à¸²à¹Ħà¸Ľ à¸Ĺ
à¹ģà¸Ńà¸¥ à¸ģà¸Ńà¸®à¸Ńà¸¥
à¸²à¸ĺà¸£à¸£à¸¡ à¹Ģà¸Ļ
à¸Ĥ à¸Ĺ
Ġà·ĥ à¶Ł
Ġà¸¢ à¸Ńà¸¡à¸£
à¸Ķà¸Ĥ à¸²à¸§
à¹ģà¸¥à¸° à¸ĸ
Ġà¹ĥà¸Ļ à¸Ĳà¸²à¸Ļà¸°
Sam tang
à¸Ļ à¸łà¸²à¸©
à¸ŀà¸¢à¸²à¸ģà¸£ à¸ĺà¸£à¸£à¸¡à¸Ĭà¸²à¸ķ
Un sa
d ang
Ġtelep ono
Ð ²
ĠG ib
- |
àº²àºĻ à»ĢàºªàºĶàºĸàº°àºģ
Ġmot an
àºĦ àº§àºĻ
ĠàºĪàº° à»ĦàºĶ
ur ity
ĠS ri
n ero
Ġman ufact
à¶±à¶§ à¶¸à¶Ń
àº²àºį àº«
à¶° à¶±à¶ºà¶ļ
ĠI T
àº§ àºĻàºģ
ĠH al
àº§àºį àºĩàº²àº¡
Ġà»ģàºĤàº§àºĩ àº§àº½àºĩàºĪ
Ġma sak
Ġi f
. âĢĶ
st i
ĠV ic
àºĻàºŀ àº§àºģ
àºĻ àºŃàºģàºĪàº²àºģ
sk o
6666 67
ĠM is
à¶ľà¶Ń à·Ģ
Ġlag da
ugp ong
Ù Ĩ
Ġma anindot
n om
Ġan t
6666 99
àºĻàºĻàº° àºļ
àºĻàº« àº²àºĹ
à¸ļ à¸ĺ
à¹Ĥ à¸¨
à¸²à¸ĩ à¸łà¸²à¸ŀ
à¹ĥà¸Ļ à¸£à¸°à¸ļà¸ļ
à¸Ĥà¸Ńà¸ĩ à¹Ģà¸ĺà¸Ń
à¸¢à¸Ļ à¸«à¸Ļ
Ġà¹Ģà¸¡ à¸¥
à¹ģà¸« à¸§à¸Ļ
à¸Ĵà¸Ļ à¸²à¸ķ
Ġà¸ŀà¸£ à¸£à¸©à¸²
Ġà¹Ģà¸ĭ à¹Ģà¸£
à¹Ĥà¸«à¸¥à¸Ķ à¹Ĥà¸Ľà¸£à¹ģà¸ģà¸£à¸¡
Ġà¸Ľà¸£ à¸²à¸ģà¸ı
à¹Ĥà¸Ł à¸Ļ
à¸Ļà¹Ģà¸ģà¸¡ à¸Ĺ
à¸µ ...
à¸Ľà¸£à¸° à¹Ģà¸ªà¸£
à¸§à¸¢ à¸ŀà¸£
Ġà¹ģà¸¥à¸° à¸ģà¸²à¸£à¸£
à¸¢à¸Ļ à¸²à¸Ĺ
à¸Ńà¸Ħ à¸Ńà¸¢
à¸Ħà¸³ à¸ŀ
à¸ĩà¸ª à¸§à¸¢
Ġmat ahum
à¹Ĥà¸ª à¸ĺà¸£
Ġt ropikal
àº²àºĽàº° àºĬàº²àºĬ
Ù ħ
Ġkahan as
ĠAust ral
Ġeks per
ig ala
Ad d
K ay
àºŃàºĩ àºŀ
ĠSh are
N E
ĠBlu etooth
20 4
esta urant
àº§àºį àºª
àºĶ à»ģàºĹ
àºŃ àºŀ
Ġmo ingon
Pre vious
à¹Ģà¸ķ à¸¢
àºļ à»ĢàºĶ
ĠH ealth
i ence
Ġeduk asyon
ĠD IY
I F
14 8
Ġà·Ĩ à¶º
ĠC H
at ura
àºŃàºĻ àºŃ
à¸ģ à¸ĩ
àºĻ à»Ħàº¡
à¹ģ à¸ģà¸¥
à¹ģ à¸Ħà¸Ļ
à¸ŀ à¸ĩà¸¨
à¸²à¸¡ à¸Ħ
ĠB ala
à¹Ģà¸§ à¸Ĭ
à¸Ļà¸ª à¸ģ
à¸ĩà¹ģ à¸Ļ
Ġà¹Ģà¸ģ à¸¢
à¸Ńà¸Ń à¸Ł
à¸ĩà¸Ĥà¸Ńà¸ĩ à¸Ĺ
à¸ĵà¸łà¸²à¸ŀ à¸Ĭ
à¸Ĭà¸²à¸§ à¹Ħà¸Ĺà¸¢
à¸Ľà¸£à¸°à¸¡à¸§à¸¥ à¸ľà¸¥
à¸ģ à¹ĥà¸«à¸į
à¸Ķ à¸£à¸°
à¸ª à¸¢à¸²à¸¡
à¸Ħ à¸²à¸¢
à¹ģà¸¥ à¸£
à¸§à¸Ļ à¹Ģà¸ģ
ĠV an
à¸¡à¸« à¸²à¸Ķ
à¸ª à¸²à¸ģà¸¥
à¸³ à¸«à¸Ńà¸¡
à¸²à¸ĩ à¹Ģà¸Ħà¸£
à¸²à¸Ĺà¸³ à¹ĥà¸«
à¹Ģà¸ŀà¸¥ à¸¢
à¸Ħà¸§à¸²à¸¡ à¸Ī
Ġf il
àº¢ àº²
à»Ĥàº¥ à»ģàº¡
T ER
ic y
p p
and om
Ġtr ue
âĤ¬âĤ¬âĤ¬âĤ¬âĤ¬âĤ¬âĤ¬âĤ¬âĤ¬âĤ¬âĤ¬âĤ¬âĤ¬âĤ¬âĤ¬âĤ¬ âĤ¬âĤ¬âĤ¬âĤ¬âĤ¬âĤ¬âĤ¬âĤ¬âĤ¬âĤ¬âĤ¬âĤ¬âĤ¬âĤ¬âĤ¬âĤ¬
Ġka o
Ġn ews
Ġm isyon
àºķ àº³
Ġnagd ala
Ġs ugilanon
Ġà¶ĳ à·ħà¶¹
Ġà¶ħà¶¯ à¶§à¶Ń
àºģàº²àºĻàºķ àº°àº«
àºĻà»ĤàºĶ à»ĢàºĻ
àº² à»ģàºĻàº°àºĻ
àº°àº«àºįàº²àºį àºķ
ahang lang
à·ļ )
Ġsit wasyon
à»ĤàºĶàºį àºģ
Ġ _
Ġà¶ħ à¶¬
il ding
à¶¶ à¶Ń
Ġnak akita
ĠàºĤ àº°à»ģà»ľ
àºļàº®àºŃàºĩ à»ĢàºŃ
ĠAr ab
Ġs bobet
re et
red it
à»ģàºĤàº§àºĩ àºŃ
ĠàºĪàº²àºģ àºĻ
àº²àº¥ àº°àºģ
à¶©à¶ļ à¶ºà¶±
à»Ħ àº®
Ġ à¹Ģà¸Ńà¸ģ
à¸ĩ à¹ģà¸Ĺ
à¸¡ à¸«à¸£
à¸¡ à¸²à¸ŀ
à¸ļ à¸Ńà¸Ķ
à¸ļ à¸ŀà¸¥
à¸³ à¹Ģà¸ª
à¸²à¸¡ à¸²à¹Ģà¸Ľ
à¸²à¸ģ à¸ª
à¸Ńà¸¢ à¸Ń
à¸Ĥà¸Ńà¸ĩ à¹Ģà¸ª
à¸Ĥà¸Ńà¸ĩ à¹Ģà¸¡
à¸Ħà¸§à¸²à¸¡ à¸¢à¸²à¸§
à¹Ģà¸Ĥ à¸²à¸Ĺ
à¸ģà¸¥ à¸¢
Å¡ ta
à¸Ļà¸³ à¸ª
à¹Ĥà¸£à¸Ħ à¸ľ
Ġà¸ªà¸¡ à¸²à¸Ħà¸¡
à¸Ķà¸ģà¸²à¸£ à¹Ģà¸£
à¸Īà¸ģà¸£à¸£à¸¡ à¸Ĺ
Ġà¹Ģà¸ĭ à¸Ļà¸ķ
ĠRP HA
à¸£ à¸§
à¸£ à¸§à¸Ķà¹Ģà¸£
à¸Ķ à¹ģà¸Ĺ
à¹Ĥ à¸«à¸¡
à¸Īà¸²à¸ģ à¸ķ
à¸Ĺà¸³ à¸Ļ
Ġà¸Ĭ à¸²à¸¢
àºļàºģàº²àºĻàº Ĺ
à¸Ļ à¸£à¸°à¸Ķ
Ġà¸Ńà¸ĩà¸¨ à¸²à¹Ģà¸ĭà¸¥à¹Ģà¸ĭ
Ġel ect
ĠK unhod
àº²àºĻ àº²àºĶ
àºļ à»ĢàºŃ
Ġth is
à¶» à¶¹
à·ĥà¶» à·Ħ
ĠPop ular
Ġs ocial
ĠH ack
à¶½ à·Ģà¶½
àºļàºģàº²àºĻàº Ħ
enep isyo
Ġsa gad
PI A
Ġv iew
ro b
und ayag
Ġmal ig
Ġban tog
à¶· à·Ģ
255 2
à¶Ń à¶ľ
à¶ľ à·Ģ
s ex
Ġà¶ħà¶Ń à·Ħ
ir st
à¶³ à¶ļ
ĠàºĽàº°àºĹàº²àºĻ àº²àºĹ
ĠS ant
ĠB TS
à¶»à¶¸ à¶ºà¶§
er ator
14 3
Ġàºģàº²àºĻ àºģ
ĠP ow
à»ĤàºĶàºį àºĹ
ĠAs ia
R I
Ġgam b
ĠS n
Ġ à¸Ĩ
Ġ à¸Ħà¸§à¸ļà¸Ħ
à¸Ķ à¸ķà¸£
à¸Ķ à¸£à¸°à¸§
à¸¥ à¹Ĥ
à¸ĸ à¸¡à¸¨
à¹Ģà¸£ à¸²à¸Ī
à¹Ģà¸£ à¸²à¸Ĥ
Ġà¸Ń à¸²
à¸¥à¸° à¸ģ
à¸¥à¸° à¸Ĺ
à¸«à¸¥à¸²à¸¢ à¸Ħà¸£
à¸ľà¸¡ à¸£
à¸Ļà¹ĥà¸Ļ à¸£
à¸Ńà¸ĩà¸¡ à¸²à¸Īà¸²à¸ģ
à¸Ļà¸«à¸Ļ à¸Ńà¸Ļ
à¹ĥà¸ļ à¸Ńà¸Ļ
Ġà¹Ģà¸«à¸¡à¸²à¸° à¸ģ
à¸ª à¹Ĥà¸ģ
à¸³ à¸ŀà¸£
à¹ĥà¸Ļ à¹Ģà¸Ĥà¸ķ
Ġà¹Ģà¸Ĺ à¸Ħà¸Ļ
à¸įà¸įà¸² à¹Ĥà¸Ĺ
à¸¡ à¸¡à¸²à¸ģà¸Ĥ
ag ram
à¸²à¸ĩ à¸ªà¸¡
à¸Īà¸²à¸ģ à¸Ń
Ġà¸Ĥ à¸²à¸§
Ġà¸ªà¸²à¸¡à¸²à¸£à¸ĸ à¸ķ
à¸²à¸ģ à¸£à¸ĵ
ir u
Ġà¸£à¸ĸ à¸¢à¸Ļà¸ķ
à¸ªà¸³à¸£ à¸Ńà¸ĩ
Ġpre pektura
l et
àºĽàº° àº«àº§
Ġnagt anyag
Ġà»ģ àºļ
àºŀàº²àºį à»ĥàºķ
àºļ à»ĢàºĦ
à¶» à¶ľà¶±
à¶¯ à¶»à·Ģ
Ġd ug
Ġw alo
ĠS ar
ĠC han
Ġà¶ħà·ĥ à¶»à¶«
Ġpagh in
àºĻ àºģàº²àºĻàºŀ
ĠOp en
Ġhal aran
Ġu hong
ĠM unicip
e Äĩ
Ġà¶» à¶łà¶±
in er
âĢĺ âĢĺ
II I
Ġ à»Ŀàº²àºį
ed e
2 25
à¶¯à¶± à¶ºà¶ļ
ĠT re
ĠL ive
ï¼ ģ
17 9
-.-" -.-"
àºĤàºŃàºĩ àºª
ĠD ig
à¶ħ à¶°
âĢ İ
ut t
àºĶ à»ĢàºĤ
ĠO c
ĠàºĽàº°àºĹ àº²àºĻàºª
G ive
is o
Ġà»Ģàºŀàº²àº° àº§
Ġ ass
ĠL u
D i
H in
ak aw
Ġmak it
àºģàº²àºĻ à»ĥàº«
Ġà¶´ à¶¬
à¸Ļ à¹Ħà¸Ł
à¸ģ à¹Ģà¸Ń
à¸¡ à¹Ģà¸ģà¸¡
à¸²à¸Ļ à¸Ńà¸Ļ
à¸²à¸Ļ à¸Ħà¸Ļ
à¸¨ à¸§à¸£
à¸Īà¸° à¸«
Ġà¹ģà¸¥à¸° à¹Ģà¸Ĥ
à¸Ļà¸ķ à¸Ļ
14 4
à¸Ńà¸ķ à¸Ńà¸ļ
à¸Ńà¸²à¸Ī à¸Īà¸°à¸¡
à¸Ĭà¸¡ à¸£à¸¡
à¸Ĥà¸Ļà¸²à¸Ķ à¸Ńà¸§
à¸Ńà¹Ģà¸£ à¸Ĭ
à¸³à¸Ĺ à¸°à¹Ģà¸¥
à¹Ĥà¸Ł à¸ģ
à¸§à¸Ļà¸¡ à¹ĥà¸«à¸į
à¸¹ à¹ĭ
à¸³ à¸Ĥ
à¸³ à¹ģà¸ķà¸ģ
à¹ģà¸ļà¸ļ à¸ª
Ġà¹ĥà¸Ļ à¸ģà¸£à¸ĵ
Ġà¸ļà¸£ à¸£à¸¢à¸²à¸ģà¸²à¸¨
à¸Ńà¸« à¸²
à¸²à¸į à¸Ī
ung danan
25 50
Ġàº¡ àºŃàºļ
à¶´ à¶¸à¶«
à¶Ĥ .
Ġl amb
f o
im um
à¸Ļà¸Ļ à¸°
àº§àº¡ àºģàºŃàºĩàºĽàº°àºĬ
à»ĥàºĪ àº§
àºŃàºĩ à»ĥàºĬ
15 2
àº²àº¡ àº°àºĻ
Ġ aboga
hi usa
Ġnasel jen
k i
àºĩàºģàº° à»ĤàºĽ
Ġl i
Ġpang lantaw
à·Ĥà¶« à¶ºà¶§
s unod
aka on
Ġà¶ĳà¶¸ à¶ľ
it ibo
E V
àºģ àº£
j ob
Ġâ ľ
à¸Ń à¸ī
à¸¥ à¹Ħà¸Ķ
à¸ļ à¹ģà¸£à¸ģ
à¸« à¸ĩà¸ª
à¸Ńà¸ĩ à¹ĥà¸«à¸į
à¸²à¸Ļ à¸Īà¸°à¹Ħà¸Ķ
à¸²à¸¢ à¸¢
à¸ĸ à¸¥
à¸Ĥà¸Ńà¸ĩ à¸Ķ
à¸Īà¸° à¸¥
à¸µà¹ī âĢĿ
Ġà¸ģ à¸ģ
à¹Ģà¸ª à¸²à¸£
à¸Ńà¸Ķ à¸ª
à¸¡à¸²à¸ģ à¸Ħà¸£
à¸²à¸ļ à¸Ĺ
à¸Ļà¸ģà¸²à¸£ à¸ªà¸£
à¹ģà¸ľ à¸Ļ
à¸¢ à¹ĥà¸Ī
à¸²à¸ĩ à¹Ģà¸¥
à¸Ĥà¸Ńà¸ĩ à¹Ģà¸Ī
à¹ģà¸ļà¸ļ à¸¡
à¹Ģà¸ļ à¸²à¸°
à¹Ĥà¸¥ à¹Ĥà¸ģ
n xx
Ġà¸ģ à¸Ĺà¸¡
à¹Ģà¸Ĺ à¸²
à¸¢à¸§ à¸ª
à¹ģà¸ļà¸ļ à¸ķ
Ġà¸ŀà¸£à¸° à¹Ģà¸Ħà¸£
en burg
jj jj
ĠRo ck
ic ial
Ġma sa
âĢĭ ,
à¶ºà·Ģ à·ģ
àºģàº°àºĬàº§àºĩ àºĽ
355 355
à¶»à¶ļ à¶º
àº¡ à»ģàºĤ
àºĹàº° à»Ģàº¥
ant ay
ic le
ĠSt r
ĠMos c
Ġtum utuo
66666666 6
ĠD VD
à¶® à¶ºà¶ļ
aw e
ae us
Ġl og
Ġhatag an
Ġb lock
Ġhal os
Ġma sab
Ġmak ada
08 9
Ù Ĭ
Ġnagh unahuna
Ġkadag ko
àº§ àºĻàºĦ
Ġgawas non
àº²àº§ àº½
à¶¯ à¶ºà¶±
ĠD am
Ġà¶īà¶¯ à¶½
àºŃàºĩ à»ĥàºĻà»ĤàºŃàºģàº²àºĶ
àº¡àº° àºķ
Ġàº§àº½ àºģàºĩàº²àºĻàº
ĠSpr ing
à¶ľ à¶«à¶±
Ħ æ
u uma
ul isan
à¸£ à¸ĵà¸°
à¸¥ à¸Ī
à¸¥ à¸Ĥ
à¸° à¸ŀ
à¹ģ à¸Ļà¸ļ
à¸³ à¸Ĭ
à¸²à¸¡ à¸²à¸Ĺ
à¹ĥà¸Ļ à¸£à¸Ńà¸ļ
à¸¨ à¸ķ
Ġà¹Ĥ à¸ŀ
à¸ģà¸© à¸²à¸Ħ
à¸Ļà¸ķ à¸²
Ġà¹Ģà¸£ à¸²à¹Ħà¸Ķ
à¸ļà¸ģà¸²à¸£ à¸Ĺ
à¸ĩà¹ģ à¸ľ
Ġà¸Ĥà¸Ńà¸ĩ à¹Ģà¸¥
à¸¡à¸« à¸²à¸ģ
à¸ªà¸²à¸§ à¸£
à¸¥à¸³ à¸ļà¸²à¸ģ
à¹ģà¸ªà¸Ķà¸ĩà¸Ħà¸§à¸²à¸¡ à¸Ħ
à¹ģà¸ĸà¸¥à¸ĩ à¸Ĥ
à¸° à¹Ģà¸ģ
à¸²à¸¢ à¸Ľ
à¸²à¸ĩ à¹Ģà¸Ħ
Ġà¶» à¶ł
Ġà¹Ħ à¸ģ
à¸ģ à¸Ńà¸Ńà¸ģà¹ģà¸ļà¸ļ
à¸ĩà¹Ħ à¸ĩà¸ģ
Ġ iy
he im
à¹Ģà¸Ķ à¸Ļ
ĠP at
ĠMar ia
Al pes
àºŃàºĩ à»Ħàº§
ĠJ T
13 1
ĠAng el
o ul
àºŃ à»ĢàºĬ
Ġpul os
M D
àºŃ àº³àºĻàº²àºĶ
àºļ àºĽàº°àºĬàº²àºĬ
u i
àºĻà»ĤàºĶà»ĢàºĻ à»ĢàºĬàºį
u pan
àºµà»Ī ,
Ġp ud
à»ĥàºĻ àºģàº²àºĻàºª
Ġl and
à¶© à¶Ń
àº§ àºļ
ĠPr in
àºĽàº° à»Ĥàº«àºį
Ġplay ers
ib er
Ġgam e
Å £
àº¼ àºµà»ī
àº²àºĻàºĽàº° àºĹàº²àºĻàº²àºĹ
ĠS A
ĠR ec
Ġnah ibal
Ġ à¸²à¸Ļ
à¸Ļ à¹Ģà¸¢à¸Ńà¸°
à¸ĩ à¸łà¸²à¸ŀ
à¸ĩ à¹Ģà¸ģà¸¡
à¸²à¸¡ à¸²à¸Ĭ
àºĬ àº°àºĻ
à¸ĩà¸ª à¸²à¸£
à¸¢à¸¡ à¸Ħà¸§à¸²à¸¡à¸ŀà¸£
Ġà¹Ĥà¸Ķà¸¢ à¸ľ
à¹Ģà¸£à¸² à¹Ģà¸¥
à¸Ľà¸£à¸°à¸Īà¸³ à¹Ģà¸Ķ
alain an
à¹ģà¸® à¸¡
à¸ļà¹ģà¸Ĺà¸ĩà¸ļà¸Ńà¸¥ à¸Ńà¸Ńà¸Ļà¹Ħà¸¥à¸Ļ
à¸ª à¸Ń
à¸ģà¸²à¸£ à¸Ŀ
à¸ģà¸§ à¸²à¸Ķ
à¹Ĥà¸Ķ à¸£
à¸ĸà¸²à¸¡ à¸§
à¸²à¸Ł à¸£
à¸¢à¸Ļ à¸ļ
Ġà¸ŀ à¸ļ
à¸£à¸²à¸ļ à¸Ľà¸£à¸²à¸¡
Ġà¸Ń à¸²à¸Ĭ
Ġtig ulang
Ġà¶´ à·Ħà¶±
Ġl ahi
à¸ķà¸£ à¸Ķ
m ga
ĠR un
s ch
ap say
ban an
ĠSt art
àºĻàºĶ àº²àºĦ
ĠAs h
à¶« à·Ģà¶»
àºģàº²àºĻàº ĸ
Ġkami ngawan
15 9
ins ip
ĠS en
ak t
àºĻàºªàº³ àºĦ
ĠR a
àºĪàº³ à»ĢàºĽ
land s
Î ±
s en
Ġàºŀàº²àºį àº«
àºĻàº³ àºŀàº²
b en
Ġd al
à¶® à¶±
àºŃàº²à»Ģàº¡ àº£
iv ing
13 7
Ġse arch
à»ĤàºĶàºį àºľ
Ġlum ul
Ġaboga do
C risto
N i
s ing
M P
Ġà¶Ķ à¶Ń
ĠCond ado
Ġ à¸Ńà¸ĩ
à¸ģ à¹Ģà¸ŀà¸Ĭà¸£
à¸¢ à¹Ģà¸Ķ
à¸¢ à¸Ķà¸Ĺ
à¸ģà¸²à¸£ à¸Ĥà¸Ńà¸ĩ
à¹ĥà¸Ļ à¹Ĥà¸£à¸Ħà¸ªà¸°à¹Ģà¸ģ
à¹ģà¸¥à¸° à¹Ħà¸Ķ
à¸¢à¸Ļ à¸ŀ
à¸²à¸Ĭ à¸Ńà¸ļ
Ġà¹ĥà¸Ļ à¸¨
Ġà¹Ģà¸ŀà¸£à¸²à¸° à¸ĸ
Ġà¹Ģà¸Ĥ à¸²à¸ģ
à¸ĩà¸§ à¸Ķà¸Ļ
à¹ģà¸ª à¸ļ
à¸²à¸¡à¸²à¸ģ à¸ģà¸§
Ġà¸Ľà¸¥à¸Ńà¸Ķ à¸ł
à¸Ńà¸ĩ à¹Ģà¸Ľà¸¥
à¸«à¸¥à¸²à¸¢ à¸Ĺ
à¸²à¸Ľ à¸ģà¸ķ
à¸² à¹Ģà¸Ľà¸¥
à¸ķ à¹ĥà¸«
as er
Ġà¸ķ à¸³à¸£à¸§à¸Ī
àº²àº§ à»ĦàºĶ
Ġgid isenyo
Ġy ear
art h
Ġmad ali
s in
ĠB ur
ug in
Ġà¶ļ à¶º
st rong
à¶© à¶§
àºŃàºĻàº Ľ
Ġnum ero
v al
O n
àº¥àº° àºĽàº°
ari as
Ġs im
ĠE lect
ĠT ap
àºĻàº§ àº½
àºĽàº°à»ĢàºĹàºĶ àºĬàº²àºĶ
re p
ĠMosc ow
ĠR ub
àºĻàºķ àºŃàºĻ
T hailand
Ġng ano
Ġik aduha
à·Ģ à·ħ
Ġb isti
w in
agi w
ĠIsrael inhon
à»ĥàºĻàºª àº°
1 6666666666666666
Ġkam panya
à¶© à¶¶
àº²àºĻàº® àºŃàºĩ
c es
à¸Ń à¹ģà¸Ī
à¸ģ à¸£à¸²à¸Ĭ
à¸ĩ à¸§à¸Ļà¸ª
à¸¥ à¸£
à¸ª à¸¢
à¸ª à¸§à¸Ķ
à¸Ńà¸ĩ à¹Ģà¸Ī
à¸³ à¹ĥà¸«
à¸³ à¸ĭ
à¸²à¸Ļ à¸²à¸¢
à¸Īà¸° à¹Ģà¸Ķ
ĠT CX
à¸¢à¸ĩ à¸Ń
Ġà¸Ķ à¸Ńà¸ģà¹Ħà¸¡
à¸¥à¸° à¹Ģà¸¡
à¸²à¸ģà¸²à¸£ à¸£
Ġà¹Ģà¸ģ à¸²à¸«à¸¥
à¸²à¸ĩà¸Ļ à¸²
à¹Ĥà¸£à¸ĩà¹ģà¸£à¸¡ à¹ĥà¸ģà¸¥
à¸ĩà¸Ħà¸¡ à¹Ħà¸Ĺà¸¢
à¸Ĥà¸Ńà¸ĩà¸ª à¹Ĥà¸¡à¸ªà¸£
à¸ŀà¸£à¸£à¸ĵ à¸ļ
Ġà¸ģà¸£à¸°à¸Ķ à¸²à¸©
à¸Ļ à¸²à¸Ħ
à¸Ľà¸£à¸° à¸«à¸¥à¸²à¸Ķ
à¸§à¸¢ à¹Ģà¸Ľ
ĠD is
à¸£à¸²à¸Ħ à¸²à¸ķ
à¸Ľà¸£à¸°à¹Ģà¸Ĺà¸¨ à¸Ī
à¸²à¸« à¸į
à¸§à¸ĩ à¹Ģà¸§à¸¥à¸²
à¸į à¸Ĭà¸²à¸ķ
30 4
à¸Ńà¸Ļ à¹Ĥà¸Ķ
Ġàºģàº³ àºĽ
to Äį
m ok
E x
àºļ à»Ģàº§
àº¡ àºľ
and ard
Ġp ris
ate o
àº²àº§ àºģ
Ġà·Ģà¶» à¶§
Ġà¶¢à¶± à¶»
Ġà»ĤàºĶàºįàºªàº°à»Ģàºŀàº²àº° à»ģàº¡
18 9
Ġl ub
ik ado
àº¡ àº²àº¢
Ġm amatay
ĠF ull
àº§àº¡ àºĤàºŃàºĩ
ad i
ĠR uman
id i
Ġf acebook
à·ľ à·Ĭ
ov ie
to wn
àº§àºį àºļ
ĠPa ul
Ġnasel je
is it
ĠT K
Ġ à¸£à¸°à¹Ģà¸ļ
à¸Ń à¸£à¸°à¸Ķ
à¸ģ à¹Ģà¸ī
à¸ĩ à¹ģà¸Ĥ
à¸Ķ à¹Ħà¸Ĺà¸¢
à¹ģà¸¥à¸° à¹Ģà¸ŀ
à¸į à¸§
à¸Ĺà¸³ à¸¡
à¸§à¸¡ à¸ĸ
Ġà¸ļ à¸Ńà¸£
à¸ĩà¸«à¸§ à¸°à¸Ĺ
Ġà¸ķà¸²à¸¡ à¸Ĺ
à¹Ģà¸ĺà¸į à¹Ģà¸ĺà¸ģ
à¸ªà¸Ńà¸Ķ à¸Ħà¸¥
è ¡
à¹ĥ à¸ļà¸ª
à¹Ĥ à¸Ńà¸Ķ
à¹ĥà¸Ļ à¸Ĳà¸²à¸Ļà¸°
à¸Ńà¸Ļ à¸ģà¸£
ĠA ma
à¸§à¸ĩ à¸ģ
à¸§à¸¡ à¹Ĥà¸Ħà¸£à¸ĩà¸ģà¸²à¸£
à¸ľà¸¥ à¸¥
à¸Ħà¸Ļ à¸Ĥ
à¸Ļà¹Ĩ à¸Ĺ
à¸²à¸Ķ à¸²
ĠâĢ Ľ
ir us
16 88
àºģ à»Ģàºª
AC K
ĠSch ool
v ices
H ol
Ġp ila
àº²àºį àºļ
ĠA D
àº²àºģ àº«
Ġpag g
àºĤàºŃàºĩ à»ĢàºĤ
M C
ĠLinn aeus
à·Ĳ à·Ķ
ĠK inahanglan
Ġpagb asa
Ġb it
ĠP ot
255 1
ĠK ad
ou ch
àº½àºĩ àºĪ
àº²àºĩ àºĪ
re w
on ya
our ce
ac a
ĠE D
Ġà·Ħ à¶½
âĨ ĳ
ag ro
àº¥àº²àºį àºģàº²àºĻ
ĠMid d
iga r
el lo
S p
12 7
Ġh d
à¸² à¹Ģà¸«à¸¡
à¸¡ à¹ĥà¸«à¸¡
à¸Ńà¸ĩ à¹Ģà¸ķ
à¸Ńà¸ĩ à¹Ģà¸Ħà¸£
à¸Ńà¸ĩ à¸«à¸¥à¸§à¸ĩ
à¸Ĭ à¸³à¸£
à¸²à¸ĩ à¹ĥà¸ģà¸¥
Ġà¸Ħ à¸ĵ
à¸ķà¸£ à¸ĩà¸Ĺ
Ġà¸Ń à¹Ģà¸¡à¸£
à¸Ńà¸Ńà¸ģ à¸¡à¸²à¸Īà¸²à¸ģ
à¸ĩà¸Ħ à¸ĩà¹Ģà¸Ľ
Ġà¹Ĥà¸Ķà¸¢ à¹Ģà¸Ľ
Ġna j
à¸Ļà¸ģà¸²à¸£ à¸ŀ
à¸ªà¸°à¹Ģà¸ģ à¸©
à¸ĩà¸ĩ à¸²
Ġà¸Ńà¸° à¹Ħà¸£à¸Ħ
à¸Ľà¸£à¸°à¸ģà¸§à¸Ķ à¸£à¸²à¸Ħ
à¸§à¹ģà¸Ĺà¸Ļ à¸Īà¸³à¸«à¸Ļ
à¸² à¹Ģà¸¥à¸¢
à¸Ń à¸Ľà¸¥
à¸£à¸²à¸ į
à¸²à¸ķ à¸£à¸ĩ
à¸Ńà¸ĩà¸ģà¸²à¸£ à¸ª
à¸§à¸¢ à¹Ģà¸ķ
à¸ĩà¹ģ à¸Ķà¸Ķ
ĠS U
Ġro om
Ġkatapo san
ĠC FF
ĠF SX
ĠW ord
ĠÄ ı
u ction
Ð ´
qu are
Ġdetal ye
àºģ à»ģàº¥àº°
Ġp iho
ĠD evel
Ġkadagko an
ag ay
ĠW ork
àºĽ àº²àºª
ev o
el low
Ġkat ungdanan
ĠTok yo
ĠBras il
ĠTra vel
Ġtr ack
à»Ģàºļ àºį
Ġd ek
f ace
c er
Ġb us
àºĶ à»ĢàºĶ
p ull
àºĸàº° à»ģàº«
M an
ĠPhilipp ines
àºªàº°àº« àº²àºį
ĠSt ud
yc ota
ent a
àº²àºĻ àºģàº²àºĻ
p os
ad uhang
Ġàº®àºŃàºĩ à»ĢàºĪ
ĠS ocial
àºªàº° à»Ģàº«
ĠBav aria
S I
à¶¢ à¶°
ĠE X
8 50
àº²àºĻ à»Ģàºŀ
ĠGik an
à¸¥ à¸Ĥà¸Ńà¸ĩ
à¸¢ à¹Ģà¸Ĺà¸Ħà¹Ĥà¸Ļà¹Ĥà¸¥à¸¢
à¸ļ à¸ŀà¸£à¸°
à¸Ńà¸ĩ à¹ģà¸ģ
à¸Ńà¸Ļ à¸¡à¸ģ
à¹ģà¸¥à¸° à¹ĥà¸«
à¸Ļà¸Ĺ à¸£à¸ĩ
à¸Ńà¸¡ à¸Ń
Ġà¹ģà¸¥à¸° à¸ģà¸¥
à¸§à¸ĩ à¹Ģà¸Ķ
Ġc rypto
à¸ľà¸¡ à¸ķ
à¸Ĵà¸Ļ à¸²à¸£à¸°à¸ļà¸ļ
Ġà»Ĥ àº¡àºĩ
Ġà¸ļà¸²à¸ĩ à¸Ħà¸£
à¸²à¸ŀà¸£à¸° à¸Ńà¸ĩà¸Ħ
à¸ģà¸° à¸ļà¸°
à¹Ģà¸ĺà¸ģ à¹Ģà¸Ļ
à¹Ģà¸ĺà¸Ķ à¹Ģà¸Ļ
à¹ģ à¸Ńà¸Ļà¸Ķ
à¸Īà¸²à¸ģ à¸£
à¸¢à¸Ļ à¸ľ
Ġà¸Ľ à¸ģà¸ķ
15 4
à¸²à¹ģ à¸ĭ
à¸Ļà¸Īà¸° à¹Ħà¸¡
à¸Ńà¸Ńà¸ģà¸¡à¸² à¹Ģà¸Ľ
à¸Ķà¹Ĥà¸Ńà¸ģà¸²à¸ª à¹ĥà¸«
p ost
Ġà¸¡ à¸Ļ
à·Ģà¶» à¶§
c ast
à¸ŀ à¸²à¸¢
u ver
Ġà¶ĭ à¶ł
or p
Ġà¶ł à¶Ń
ĠâĢ º
ĠH a
Ġ æ
ĠM ah
à¶½ à¶¶
333333333333 3
Ġà¶´ à¶´
g rade
ĠM ount
ĠM ir
àº²àºĸ àº²àº¡
ĠB iy
àºļàºģàº²àºĻàº ®
14 7
àº²àºĩà»Ĩ àºĹ
ĠOz ero
P ER
ih i
ĠM et
àºĩàºģàº²àºĻàº Ĺ
iy ente
Ġlar awan
Ġà¶° à¶±à·Ģ
- .
àºĻàº§ àºĻ
imb ang
ih inal
ĠRuman ya
Ġk ey
Ġs eryoso
Ġk uha
Ġs undalo
Ġmagp adayon
Ġpagt ugot
Ġ à»Ħàº¥àºįàº°
15 3
àº¥ àº³
Ġmos ulod
àºĦ àº£
à¸ĩ à¹Ģà¸¥à¸¢
à¸¡ à¸²à¸Ħ
à¸¡ à¹ģà¸¡
à¸¢ à¸ĸ
Ġà¶ļ à·Ħ
à¸²à¸ĩ à¸ļà¸Ļ
à¹ĥà¸Ļ à¸ģ
à¹ĥà¸Ļ à¸ķà¸¥à¸²à¸Ķ
à¹ģà¸¥à¸° à¸Ľ
à¸Ńà¸¢ à¸¢
Ġà¹Ĥ à¸Ńà¸ģ
à¸Ńà¸Ķ à¸Ńà¸¥
ĠU FA
Ġà¸Ľà¸£à¸° à¹Ģà¸Ķ
à¹ģà¸Ł à¸¥à¸Ĭ
à¹Ĥà¸Ħ à¸ķà¸£
à¹ģà¸ŀà¸ĩ à¹Ģà¸ŀà¸Ĭà¸£
à¸Ńà¸¡ à¸Ĥ
Ġà¹Ģà¸£ à¸²à¸¢
à¸¡à¸²à¸ĵ à¸Ļ
à¸Ńà¸ģà¸²à¸£ à¸£
à¸ĩ à¹Ģà¸Ľà¸¥
à¸Ļà¸ķ à¸Ńà¸Ļà¸Ĺ
à¸Ĺà¸²à¸ĩ à¹Ģà¸Ĥ
à¸Ħà¸£à¸ļ à¸Ħà¸£
O X
àºŃàºĩàºĪàº²àºģ àº§
ĠM c
àºĪàº° à»Ģàº¥
àºĪàº²àº¥ àº°àºĻ
àº¥àº°àºŃ àº½
Ġkr us
ä½ ł
Ġto ur
Ġj ed
ĠÄ ¹
àºŀ àº§àº¡
Ġàºªàº° àºĸàº²àºĻàºĹ
Ġà¶ħà¶¸ à¶»à¶Ń
Ġn ew
Ġpagt ubo
Ġkap ulisan
g al
à»Ħàº¥ àºį
àº²àºĬ àº°
erm al
6666666666 6
àº§ àºĻàºĤàºŃàºĩ
àºģàº°àºĪ àº²àºį
àºªàº° àºŃàº²àºĶ
ĠF ix
ern ong
Ù Ī
Ġà»ĥàºĻ à»Ģàº§àº¥àº²àºĹ
ĠP u
us il
est ival
Ġkap ital
ĠMorm on
àº¡ àº¢
Ġst ar
ĠR ich
je v
à»ģàºĻàº§ àºĹàº²àºĩ
Ġpuno an
à¶½ à¶«
b ach
ĠN u
ĠS um
Ġ à¸£à¸°à¸¢à¸°
Ġ à¹Ħà¸ĭà¸ª
à¸Ļ à¸ģà¸£à¸°
à¸§ à¸¥à¸ĩ
à¸ģà¸²à¸£ à¸ķà¸¥à¸²à¸Ķ
à¹ģà¸¥ à¸ª
à¸Ńà¸Ļ à¹Ģà¸Ĭ
à¸į à¸ª
à¸Ńà¸Ńà¸ģ à¹Ģà¸Ķ
à¸²à¸ļ à¸Ńà¸ģà¸§
à¸¥à¸° à¸§
à¸Ĥà¸²à¸¢ à¸Ķ
à¸²à¹Ħà¸Ľ à¸¢
à¹Ģà¸ĺà¸Ķ à¹Ģà¸ĺà¸ģ
à¹Ģà¸ĺà¸Ķ à¹Ģà¸ĺà¸Ĭ
à¹Ģà¸ĺà¸Ĭ à¹Ģà¸ĺà¸ĳà¹Ģà¸ĺ
à¹Ģà¸ĺà¸Ļ à¹Ģà¸ĺà¸ħà¹Ģà¸Ļ
à¹Ģà¸ĺà¸įà¹Ģà¸ĺà¸ģ à¹Ģà¸ĺà¸Ļà¹Ģà¸ĺà¸ħà¹Ģà¸Ļ
à¹Ģà¸ĺà¸Ķà¹Ģà¸ĺà¸Ĭ à¹Ģà¸ĺà¸Ĭà¹Ģà¸ĺà¸ĳà¹Ģà¸ĺ
à¸Ń à¸Ńà¸£
à¸Ĥ à¸Ńà¸£
à¸Ńà¸Ļ à¹ģ
à¸į à¸¡à¸²à¸ģ
Ġà¸ª à¸ģà¸£
à¸Ħà¸§à¸²à¸¡ à¸¥
à¸¢à¸§ à¹Ģà¸Ĺ
à¸ļà¸ª à¸łà¸²à¸ŀ
à¹Ĥà¸¢ à¸Ĭà¸Ļ
à¸Ħà¸³ à¹ģà¸«à¸ĩ
àºŃ àº²àºĪàº²àºĻ
à¶ļà¶» à¶Ń
à·Ĥ à¶½
à¶· à¶ļ
u ya
à»ģàºŀ àºĩ
im en
ĠS lot
Ġà¶½ à¶Ń
àºĻ àºĩ
up at
Ġkasal igan
ĠAb r
ern ador
àºĦ àºŃàºĻ
ĠA BS
àºĩàºģàº²àºĻàº ŀ
ason ic
Ġmark eting
P ulo
Ġgip akita
Ġà¶»à¶Ł à¶´
Ġw ay
àºĻàºĶ àº²àºŃ
199 6
Ġaw tor
Ġàºª àº°àº«àº§
ĠL um
Ġam eri
Ġkag ah
àºª àºŃàºļ
à¶ĩ à¶½
à·Ģà¶»à¶« à¶ºà¶§
ĠU K
F C
ig e
àºĽàº° àºĶ
àº²àº¥ àº²
Ġj av
Ġà¶Ķ à·Ĩ
Ġ à¸Ĳà¸²à¸Ļ
à¸Ļ à¸£à¸²à¸¢
à¸Ļ EC
à¸Ń à¹Ģà¸§
à¸Ń à¹ĥà¸Ħà¸£
à¸§ à¸łà¸²à¸ŀ
à¸Ī à¸Īà¸£
à¸Ľà¸£à¸° à¸ŀà¸¤à¸ķ
Ġà¸ģ à¸Ńà¸ĩà¸«à¸¥
à¸¢à¸§ à¹ĥà¸ģà¸¥
Ġà¸ľ à¸ªà¸¡
à¸ļà¸ª à¸²à¸§
à¸Ļà¹Ħà¸Ľ à¸Ķ
à¸ªà¸²à¸¢ à¸ģà¸²à¸£à¸ļ
Ġà¹Ģà¸ļ à¸²à¸°
à¸ķà¸¥à¸Ńà¸Ķ à¸Ĺ
à¹ģà¸Ľà¸¥ à¸ģ
à¸¢à¸²à¸ĩ à¸£à¸ĸ
à¸ļà¸£à¸²à¸¢ à¸¥à¸°à¹Ģà¸Ń
à¸§ à¸ľà¸¡
à¸ļ à¸«à¸£
à¸ļ à¹Ħà¸¥
à¸Ļà¸ª à¸²à¹Ģà¸«à¸ķ
à¸Ļà¹Ħ à¸«à¸§
àºĹàº³ àº¡àº°
à¸²à¸ĩ à¸ªà¸£à¸£à¸ŀà¸ª
à¸Ĥà¸Ńà¸ĩ à¹Ģà¸Ħà¸£
18 5
à¸Ļà¸Ĥà¸Ńà¸ĩ à¸ķ
ul aw
g g
Ġv s
à¶» à·Ħà·ĥ
ĠA lex
ĠHul yano
Ġkal it
ugp ah
U E
Ġnag g
àºĻàºľ àº°àº¥
ĠL aw
uo han
à¶ļ à¶¸à¶§
ĠSh op
Ġà¶´ à¶½à·Ģ
Ġtib ook
à·Ĳ âĢį
un es
àº²àºĻàºĽàº°àºĹ àº²àºĻàºĽàº°à»ĢàºĹàºĶ
r ik
àºĻàºį àº²àºģàº²àºĶ
Ġlain laing
Ġà·Ģà¶ł à¶±à¶ºà¶ļ
àºĩà»ģ àºį
àº²àºĻ à»ĢàºĽ
ch a
àºĶàºŀ àº²àºĶ
es is
Ġà¶ħ à¶¹
ĠP ass
àºŃàºĩ àº¢
Ġo v
àº£ àºĻ
Ġàº®àºŃàºĩ àº¥
àºļ à»ģàº¥àº°
Ġs y
Ġk alainan
Ġkult ura
Ġtu od
àºļàºĦ àº°àºĻàº°
Ġsum banan
Ġt ambal
ĠG is
Ġor ihinal
Ġ à¸«à¸¡à¸Ķ
à¸Ļ à¸Ľà¸£
à¹Ī .
à¹ī à¹į
à¸Ĺ à¸Ń
à¸Ĺ à¸Ńà¸Ķ
à¸ļ à¹Ĥà¸Ľà¸£à¹Ĥà¸¡à¸Ĭ
à¸Ħ à¸ĩà¸Īà¸°
à¸²à¸ĩ à¸Ľà¸£
à¸Ł à¹Ģà¸Ł
Ġà¹ģ à¸£
Ġà¹ģ à¸Ńà¸ŀ
Ġà¹Ĥ à¸Ĺ
Ġà¸ŀ à¸¢à¸²à¸¢à¸²à¸¡
Ġà¸ķ à¸¥
à¸Ļà¸ª à¸ļà¸²à¸¢
Ġà¸ļ à¸²à¸ĩà¸Ļà¸²
à¸Ĺà¸ĺ à¸¨à¸²à¸ªà¸Ļ
à¸ļà¸ķ à¸³à¹ģà¸«à¸Ļ
à¸ĩà¹ĥà¸Ļ à¸Ĭ
à¹ģà¸ĸ à¸¡
à¸¢à¸²à¸Ļ à¸¢à¸Ļà¸ķ
à¸§à¸¡à¸ĩà¸²à¸Ļ à¸ģ
à¹Ģà¸ĺà¸į à¹Ģà¸ĺ
à¹Ĵà¹ķà¹ĸ à¹ĳ
à¸Ķ à¸Ľà¸£à¸°à¸ķ
à¸ķ à¸Ī
à¸° à¸Ķ
à¸Ńà¸Ļ à¸Ħà¸£
à¸§à¸¢ à¸Ĺà¸³à¹ĥà¸«
à¸ģà¸¥ à¸ĩ
à¹Ģà¸Ħ à¸²à¸£à¸ŀ
à¸«à¸¡ à¸Ķà¸ª
Ġà¸¥ à¸Ķà¸Ļ
à¸¢à¸¡ à¸Ń
Ġim pl
Ġà¹Ģà¸Ń à¹Ģà¸Ĭ
à¹Ģà¸Ńà¸Ł à¸ĭ
s l
à¸Ķ à¸®
ad y
à¸ĺ à¸Ļà¸ļ
Ġà¶¶à¶½ à¶Ńà¶½
âĢ¦ ..
à¸¢à¸Ļ à¸Ī
ng an
Ġgis ugo
Ġda utan
if t
àº§ àº®
à·Ģà·ĥ à¶»
Ġb ugas
à·Ļà·ı à·Ĭ
à·ľ âĢį
Po int
ĠAustral ia
ut ol
àºģàºª àºŃàºĻ
199 1
Ġà¶ľà¶± à¶±
ag na
ĠPol ice
ise o
ĠC ot
àºŃàºĻàº Ĭ
Ġà·Ħ à¶»à¶ļ
P C
à¶ Į
à·ĥà¶¸ à·Ħà¶»
Ġhin ay
Ġà¶ħà¶´ à·Ħ
ĠCre ek
Ġà¶¯ à·ģà¶ļ
iya an
s iling
àºªàº° àºŀ
à¶¯ à·Ħ
ĠMa ayo
Ġabo ut
r ay
àºģ àºģàº²àºĻ
ĠR io
à¸Ļ à¹Ģà¸ĭà¸Ńà¸£
à¸Ń à¹ģà¸Ļà¸°à¸Ļà¸³
à¸ģ à¹Ģà¸«à¸¡
à¸ĩ à¸¨à¸£
à¸¡ à¸²à¸«
à¸ļ à¹Ģà¸Ħ
à¸Ńà¸ĩ à¸Ŀ
à¸Ńà¸ĩ à¸Ľà¸ı
à¸Ĥà¸Ńà¸ĩ à¸ŀà¸§à¸ģà¹Ģà¸Ĥà¸²
à¹Ħà¸Ľ à¹Ģà¸¥
Ġà¸ģ à¸Ķ
à¸ģà¸© à¸²à¸ĺ
Ġà¸ģà¸²à¸£ à¸ļà¸£
Ġà¹Ĥà¸Ķà¸¢ à¸ª
à¸Ļà¸ģà¸²à¸£ à¹ĥà¸Ĭ
à¸Ļà¹ģ à¸ŀ
à¹Ĥà¸Ĺ à¸Ļà¸ª
Ġà¹Ħà¸Ľ à¸¢
Ġà¸ī à¸°à¸Ļ
Ġà¸Ħà¸Ńà¸Ļà¹Ĥà¸Ķ à¸¡
à¸ªà¹Ģà¸Ľ à¸Ļ
à¸§à¸Ļà¸¥ à¸Ķà¸ª
ĠAut umn
à·ļ ;
à¸ģà¸²à¸£ à¸Ħà¸¥
à¸į à¹ģà¸Ī
à¹Ħà¸Ľ à¹ĥà¸«
à¹Ģà¸Ĥ à¸²à¸¡
à¸Ńà¸Ĥ à¸Ńà¸ļà¸Ħ
à¹Ĥà¸Ķà¸¢ à¸£
17 58
nj oj
ub og
à¶» à¶¥
à¸²à¸¢ à¹Ģà¸Ħà¸£
Ġmach ine
àºģ àºĸ
àºŃàº² à»Ħàºª
ĠS ub
ond o
àºªàº° à»Ħà»Ŀ
aw i
34 9
ĠRev iew
Ġt ime
abl et
b at
oc al
29 5
àº²àºĻ à»Ģàº®
Ġpagh igugma
Ã ¯
àº¡ à»ģàº¥àº°
Ġameri Äįkoj
ol iko
ĠM ill
ub dan
Ġas oy
Ġpagb ag
ĠVic ente
ĠMa x
à»ģ àº§àºĶàº¥
ist ory
Ġmahin ungdanon
Ġkara oke
Ġmasab tan
àºĬàº²àº§ à»ľ
oth er
p ol
Ġkom pl
àºĶàºĪàº° àºģ
à¶® à¶¸
Ġpagh ari
à»ĦàºĽ àºĶ
ik on
ĠSatan as
ars ka
à»ĢàºŃàºģ àº°àºĬ
àº¥àº²àºĦ àº²àºª
at in
àºĩ àº«àº§
Ġod b
à»Ĥ àº«
Ġà·ĥà¶¸ à¶ľà¶¸
Ġm p
à·ĸ .
d ong
<<<< <<<<
Ġ à¸ķà¸£à¸§à¸Ī
à¸² à¹ĥà¸ļ
à¸ĩ à¹Ģà¸«à¸ķ
à¹ģ à¸¢à¸°
à¹Ģà¸Ħ à¸¢à¸£
Ġà¸ķ à¸°
ĠW o
à¹Ģà¸ļ à¸²à¸«à¸§à¸²à¸Ļ
Ġà¹ĥà¸Ļ à¹Ĥà¸£à¸Ħà¸ªà¸°à¹Ģà¸ģ
à¸ŀà¸£à¸° à¸ģà¸£
à¸«à¸¥à¸²à¸¢ à¸Ľ
à¸£à¸§à¸¡ à¸ģ
à¸¡à¸Ħà¸§à¸²à¸¡ à¹ģà¸Ĥ
Ġà¹Ĥà¸Ķà¸¢à¹Ģà¸īà¸ŀà¸²à¸° à¸Ńà¸¢
à¸Ħà¸§à¸²à¸¡ à¸ŀ
à¹Ģà¸Ĥ à¸²à¸ķ
à¸Īà¸²à¸ģ à¸Ī
à¸£ à¸ģà¸£à¸£à¸¡
ter y
Ġà¸ļ à¸Ńà¸ģà¸§
àºĩ à»ĢàºĦ
ch i
àºĶ àºĩàº²àºĻ
Ã© n
om en
ĠàºĽàº°àºģàºŃàºļ àºª
ĠPr ague
ĠàºĻàºŃàºģ àºĻ
Ġtrad isyon
è¿ Ĳ
k alib
Ġpagt ul
Ġkab ataan
Ġbers yon
Ġnakad awat
Ġt awag
àº²àºŀàº§àºģ à»Ģàº®
ĠTechn ology
à¸ģà¸ķ à¸²
Ġgib ati
Ġà»ĥàºĻàº ļ
Ġmang in
pe ed
ide os
ga was
ĠV iew
Ġà¶´ à¶¸à¶±
Ġà¶ħà¶» à¶ľà¶½
22 2
àºªàº° àºļàº²àºį
ĠA N
17 3
Ġf e
ĠNorth ern
n ika
ĠB or
Ġà¶¯à·Ħà·ĥ à¶ļ
w ard
form ation
àº§ àºĻàºļ
ĠĠĠĠĠĠĠĠĠĠĠĠ Ġ
àºŃàºĩ àºģàº²àºĻàºĤàºŃàºĩ
à¸¢ à¸²à¸ļà¸²à¸¥
à¸ļ à¸Ŀ
à¹ģ à¸«à¸§
à¹Ħ à¸Ńà¸Ĺ
à¹Ĥ à¸Ńà¸£
à¸²à¸Ļ à¹Ģà¸Ħà¸£
à¹ĥà¸Ļ à¸Ĺà¸²à¸ĩ
à¹Ħà¸Ľ à¸«
Ġà¹ģ à¸Ńà¸Ļ
à¸ķà¸£ à¸ģ
à¸¢à¸Ļ à¸Ħ
Ġà¸Ľ à¸§à¸Ķ
à¸ªà¸£ à¸ĵ
à¸ªà¸£ à¸§à¸ĩ
Ġà¸Īà¸²à¸ģ à¸Ī
Ġà¸ģà¸£à¸° à¸ķ
à¸Ńà¸Ħà¸§à¸²à¸¡ à¸Ĺ
à¸Ļà¹Ħ à¸®
Ġà¶ľà¶¸à¶± à¶ļ
Ġà¹Ģà¸ģà¸¡ à¸Ļ
à¸ĩ à¸Ľà¸£à¸°à¹Ģà¸Ĺà¸¨
à¸ģà¸²à¸£ à¹ģà¸ķ
à¸Ļà¸¡ à¹ĥà¸«à¸į
à¸³à¸ķ à¸Ńà¸ļ
z o
à¸µà¹ī ,
à¹ģà¸Ł à¸Ļà¹Ĩ
Ġbinuhat an
ambig it
C S
à¸į à¸Ń
à¸© à¸İ
Ġnagp a
tag sa
ĠC ag
à¶´ à¶ł
Ġde f
ĠDes ign
Ġc ustomer
ik ag
ro und
Ġgis ulat
Ġmil agro
uy ang
ĠAc c
K aron
Ġpagl ihok
imit ed
àºĶ àºĿ
it on
ç¥ Ŀ
um ber
àº¥àº° àºĽ
à¶ļà¶» à¶ľà¶Ń
N S
Ġ à·Ļ
Ġp ort
à¶» à¶ºà¶ļà¶§
Ġà¶ħà¶Ń à¶ļ
ok o
Ġb aba
àº¥àº° àº«
ib ong
ĠO ut
àº°àºļàº§àºĻ àºģàº²àºĻ
Ġà»ģ àºĪ
ĠN etwork
ĠUS A
ĠK ining
T ube
16 7
ĠH all
ĠT attoo
ĠN ou
à·Ģà·ĥ à¶ļ
ĠCer ro
Ġp ito
ou is
Ġh apon
Ġs ports
Ġkl iyente
S umala
........ ........
à¸Ļ à¸¯
à¸Ń à¸²à¸ļà¸Ļ
à¸Ń à¸Ńà¸ªà¹Ģà¸ķà¸£à¹Ģà¸¥
à¸ģ à¸«à¸į
à¸ģ à¸²à¸ĩà¹Ģà¸ģ
à¸ģ à¹Ģà¸ĭà¸¥
à¸¡ à¸ļà¸£
à¸§ à¸Ħà¸¥
à¸Ķ à¹Ģà¸ªà¸£
à¸¢ à¹Ħà¸¡
à¸ļ à¸ŀà¸£
Ġn amatay
à¸Ńà¸ģ à¹Ģà¸Ľ
Ġà¹ģ à¸ļà¸£à¸Ļà¸Ķ
Ġà¸¡ à¸²à¸Ķ
Ġà¸¡ à¸²à¹ĥà¸«
Ġà¸Ħ à¸Ńà¸¥à¸¥à¸²à¹Ģà¸Īà¸Ļ
à¸¢à¸ĩ à¹Ħà¸Ķ
à¸Ħà¸Ļ à¹Ģà¸Ĥ
à¸¡à¸² à¹Ģà¸Ĺ
Ġà¸¥ à¸Ńà¸ĩà¸Ķ
à¸¢à¸¡ à¸¡à¸²à¸ģ
Ġà¹Ĥà¸Ķà¸¢ à¹ĥà¸«
ino on
à¸³à¸ķ à¸ģ
à¸Ķà¸« à¸²à¸¡
à¸£à¸²à¸¢à¸ĩà¸²à¸Ļ à¸§
à¹Ĥà¸ļà¹Ģà¸ļ à¸Ĺ
a angan
à¸Ķ à¸ł
à¸²à¸¡ à¸Ĺ
Ġkag aangan
à¸£à¸²à¸Ħà¸² à¹Ħà¸¡
à¹Ħà¸Ĺ à¸¢à¸Ļ
æ° Ķ
s iyon
Ġà¹ĥà¸Ļ à¸ĩà¸²à¸Ļ
Pin ulongang
Ġun od
Ġà¶¶à¶½ à¶±à·Ģ
ĠPre m
Ġt awong
Ġnagp abilin
Ġsin ina
ĠM B
ug d
Ġà¶ī à·ģ
Ġmah igugma
or te
el f
àºģàº° àºļ
Ġ \
àº²àºĪàº° à»ĢàºĽ
Ġbuk ton
ĠK i
> >
199 5
àºĩ à»Ģàº¡
áº §
ĠM ich
à¶ºà¶ºà¶± à¶º
ĠO ri
á» ĭ
ro up
om on
å¥½ è¿Ĳ
ä½ł å¥½è¿Ĳ
ç¥Ŀ ä½łå¥½è¿Ĳ
à¶Ľ à¶«
àºį àº²àº¡
Ġc iudad
M ore
à¶º à¶¸à¶±
àº²àºį à»ģàº¥àº°
iss ion
ĠA L
Ġkan d
ĠS erb
à»ĦàºĽ àºĻ
àº²àºĻ àºģàº²àºĻàºĦ
à·Ļ ?
Ġp ahin
Ġam on
M ay
ĠBr gy
R ÃŃo
il yo
Ġpan ig
àºĬ àºŃàºģàº«
uw an
Ġpagh ukom
L a
an ay
Ġka init
ab li
ng on
Ġ à»ĦàºĹ
Ġ ).
Ã´ ne
il in
Ġsa c
Å į
20 2
ab ol
l ong
à·Ģà¶Ń à¶ļ
Ġà¶± à¶Ń
à¸Ļ à¹ĥà¸Ħà¸£
à¸ģ à¸łà¸²à¸ŀ
à¸ĩ à¸ľà¸¡
à¸¢ à¹Ģà¸ģ
à¸ķ à¸²à¹Ģà¸¥
à¸ķ à¸£à¸°à¸ģ
à¸Ī à¸Ńà¸ĩ
à¸Ī à¸ŀà¸£à¸°à¸£à¸²à¸Ĭ
à¸Ńà¸ĩ à¸«à¸¡
à¸²à¸Ļ à¸Īà¸°
à¸²à¸Ļ à¸£à¸°à¸ļà¸ļ
à¸²à¸§ à¹Ħà¸Ķ
à¸ł à¸ŀ
à¸į à¸Ńà¸¢
à¸£à¸²à¸ Ĺ
à¹Ģà¸Ĺ à¸Ńà¸£
à¸ľà¸¥ à¸ľà¸¥
Ġà¸ģà¸²à¸£ à¸ªà¸£
à¸Ļà¸° à¸Ħ
à¸¡à¸« à¸ģà¸£à¸£à¸¡
à¸ļà¸ģ à¸ŀà¸£
à¸Ńà¸Ń à¸ł
à¸Ĭà¸²à¸§ à¸ķ
Ġà¹Ĥà¸Ķ à¸¢à¸§
à¸ªà¸¡à¸£ à¸£à¸ĸ
à¸Ļ à¸¡à¸²à¸ģà¸¡à¸²à¸¢
à¸¡ à¸¤à¸Ĺà¸ĺ
à¸ļ à¹Ģà¸¢
Ġà¸Ĺ à¸°à¹Ģà¸ļ
à¹ģà¸ļà¸ļ à¹Ģà¸Ķ
à¹Ģà¸ªà¸¡ à¸Ńà¸ģ
å¤© æ°Ķ
à¸Ĺ à¸°à¸¥
ĠH am
à¸Ļà¸¡à¸² à¹Ģà¸Ľ
Ġpart ner
à¸Ķ à¸ªà¸¡
àºŀàº½àºĩ àºŀ
ve y
àºģàº°àºĬàº§àºĩ àºģàº²àºĻàºķ
à¹Ħà¸Ń à¹Ģà¸Ĺ
Ġw ar
Ġàº§àº½ àºģàºĩàº²àºĻ
Ġh ay
ĠA v
Ġà¹Ģà¸ģ à¸£
ĠCol or
G O
Ġm ing
ĠC over
ĠB rad
D es
ĠH o
àºŃ àºĤàºŃàºĩ
ok ya
Ġà¶ħà¶¯ à¶Ń
Ġk und
àºªàº° à»Ĥàº¡àºª
Ġseg ur
ĠC PU
Ġkat ig
Al ang
àºĩ àº¡àº²
Ġm y
h h
ter s
OV E
as o
ĠJud ea
Ù ĩ
Ġàºª àº²àºģ
àº¡ à»ĦàºĬ
àºĽàº°àºĬ àº²
à¸ķ à¸«
à¸²à¸ĩ à¹Ħà¸§
à¸²à¸¡ à¸ķ
à¸Ńà¸ģ à¹Ģà¸ļ
à¸²à¸§ à¸ľ
à¸§à¸¢ à¸Ńà¸£
à¸§à¸Ļ à¸°
à¸§à¸¡ à¹Ģà¸Ľ
à¹Ħà¸Ĺà¸¢ à¸£
à¸Ļà¸¡ à¸²à¸Īà¸²à¸ģ
à¸£à¸²à¸Ħ à¸²à¸¥
à¸ĩà¹ĥà¸Ļ à¸ª
à¸Ńà¹Ħà¸Ľ à¸¢
à¸Ńà¸Ł à¸ķ
à¹Ĥà¸ł à¸Ĭà¸Ļ
à¸¡à¸²à¹Ģà¸¥ à¹Ģà¸ĭ
N ext
à¸Ń à¸Ĺà¸²à¸ĩ
à¸Ń à¸Ľà¸£à¸°à¸¡à¸²à¸ĵ
à¸ĩ à¹Ħà¸Ł
à¸ĩà¹ģ à¸Ħ
à¸ĩà¹ĥà¸Ļ à¸Ľ
Ġà¸ģà¸£à¸° à¸Ĭ
à¸²à¸£à¸° à¸«à¸§
à¸Ļà¸³à¹Ħà¸Ľ à¸ª
à¸ĩà¸²à¸Ļ à¸ĩ
ĠH u
ĠJ ac
àº§àºĩ àºŀàº°àºļàº²àºĩ
ste in
ĠUp date
ĠAbr aham
Ġs ec
ĠP S
ed a
àºģ à»ĢàºĤ
ĠĠ Ġ
à»ĦàºŁ àº¥
Ġs et
Ġà¶» à¶³à·Ģ
àºĻàºªàº° àº¡àº²àºĬ
f ood
Ġtin ubdan
áº Ń
ĠFr ÃŃo
ĠPlan et
Ġnah i
Ġgi unsa
Ġ----- ----------------
os yon
sal ikway
lo y
àºĶ à»ģàº«
66666 99
àºĬ àºŃàºļ
ib ers
àºĹ àº²àºĶ
Ġt ap
13 8
ĠH an
.-.-.-.-.-.-.-.-.-.-.-.-.-.-.-.- .-.-.-.-.-.-.-.-
à¶¸ à¶»à¶º
ĠZ eal
à·Ķ ...
àºģ à»ĦàºĶ
Ġb i
ĠN okia
Ġd ay
U K
is ya
yc le
3333 3
Ġin vest
àºŃ à»ĥàºĻ
ĠS V
àº§ à»ĢàºŃàºĩ
> <
à¸Ń à¹Ģà¸ķà¸£
à¸£ à¸Ī
à¸ĩ à¸ŀà¸¥
à¸§ à¸²à¸Ĺ
à¸§ à¸Ĥà¸Ńà¸ĩà¸Ħ
à¸Ķ à¹ģà¸ģ
à¸Ī à¸Ĥà¸Ńà¸ĩ
à¸Ĥà¸Ńà¸ĩ à¹Ĥà¸£à¸Ħà¸ªà¸°à¹Ģà¸ģ
à¸Ńà¸ģ à¹Ģà¸«à¸Ļ
à¸Ł à¸¥
à¸§à¸Ļ à¸Ī
Ġà¹Ĥà¸Ķà¸¢ à¸ķ
à¹ģà¸¡ à¸Ļà¸ķ
à¸ļà¸Ļ à¹ĥà¸ļà¸«à¸Ļ
à¸«à¸¥à¸²à¸¢ à¸Ńà¸¢
Ġà¹Ģà¸ŀà¸£à¸²à¸° à¸ķ
à¸ļà¸¡ à¸Ńà¸ļ
à¸Ħà¸ĵà¸° à¸ģà¸£à¸£à¸¡
Ġå ¹´
Ġà¹Ģà¸ģà¸© à¸ķà¸£
à¸ŀ à¸²à¸Ĺ
à¸²à¸ĩ à¹ģà¸¥
à¹ģà¸¥à¸° à¸«
à¸Ħà¸§ à¸£à¸¡
à¸¢à¸¡ à¸Ńà¸¢
à¹Ĥà¸Ń à¹Ģà¸Ħ
à¸ľà¸¥à¸ĩà¸²à¸Ļ à¸Ĺ
à¸ªà¸ł à¸²
à¸²à¸Ļ à¸«à¸£
à¸Ļà¹ĥà¸Ī à¸Ĺ
à¸ĩ à¸ŀà¸Ļ
à¸§ à¹Ģà¸Ļ
àºļ à»ĥàº«
àº²àºĶ àºķàº°
ĠSimb ahan
G S
Ġka alam
D P
imb ong
Ġnaseljen osti
Ġà¶Ĩ à¶¶
Ġà·ĥ à¶»à¶«
àºĻàº« àº¥àº²àºį
Ġà·Ģ à¶³
nga la
ĠB ook
Ġa udio
Ġàºģàº²àºĻ àºĻ
àº½àº§àºĬ àº²àºĻ
ç Ķ
ĠInd i
ĠF ort
ex us
à¸Ħ à¸ĵ
àºŃ à»ģàºĻà»ĥàºª
G i
16 2
ĠàºĤàºŃàºĩ àºļ
àº° à»ģàº«
ak ab
Ġ ili
A t
m ore
à¶§ à¶¸à¶ļ
Ã³ dz
Ġ à»Ħàº¡
ĠàºĤàºŃàºĩ àºŀ
ĠN av
al om
à¶Ł à¶ļ
ly mp
Ġà·Ħ à·Ģà·ĥ
Ġà¶ī à¶¯à¶±
Ðµ Ð½
b all
àºªàº°àº« àº¡
à·ĥ à¶ľ
ah il
ĠManag ement
ĠO l
Ġmak atag
ad ako
à¸Ķ à¹Ģà¸ģà¸¡
à¸Ķ à¸ļà¸²à¸ĩ
à¸ļ à¸§à¸¡
à¸ļ à¸£à¸²à¸ĭ
à¸Ńà¸¢ à¹Ħà¸Ľ
à¸ĵ à¸ľ
à¸Ńà¸ģ à¸«à¸Ļ
à¸Ħà¸£ à¹Ģà¸§
Ġà¹ģ à¸¢à¸ģ
Ġà¹ģ à¸Ĭà¸¡à¸Ľ
à¸¢à¸ĩ à¸ľ
à¸¢à¸ĩ à¹Ħà¸Ĺà¸¢
à¸²à¸Ń à¸ĩà¸Ħ
à¹ĥà¸Ļà¸ģà¸²à¸£ à¸Ķà¸³à¹Ģà¸Ļ
à¸Ļà¸ģà¸²à¸£ à¸£
Ġà¸Īà¸° à¸ĸ
Ġà¸Ĺà¸³ à¹Ģà¸¥
à¸ªà¸²à¸£ à¸ªà¸ģ
àºģàº³ àº¡
à¸ļà¸Ħà¸§à¸²à¸¡ à¸ķ
Ġàºªàº° àºĸàº²àºļ
à¸ĩà¸Ħà¸§à¸²à¸¡ à¸Ħ
à¸²à¸ł à¸²à¸©
à¸ĩà¸ľà¸¥ à¸ķ
à¸Ńà¸Ķà¸Ĥà¸Ńà¸Ķ à¸Ĺ
à¸Ħà¸£à¸ļ à¸²à¸Ħà¸²à¸£
à¸Ĺà¸²à¸ĩà¸ģà¸²à¸£ à¹Ģà¸¡
à¸ķà¸£à¸²à¸ ª
lebolog y
à¸ĩ xxx
à¸Ńà¸ģ à¹ģà¸ļà¸ļ
à¸įà¸« à¸²à¹Ģà¸£
à¸ªà¸¥ à¸²à¸¡
Ġmob ati
à¸¡ à¸²à¸Ń
Ġà¸ļ à¸³à¸£
à¸Ĺà¸£ à¸ª
àº°à»ģ àºĻ
, âĢĭ
ĠMA X
Ġà¶ĸ à·Ĥà¶°
ĠI p
ĠF el
5 50
C ar
àºĶ à»ĦàºĽ
Ġà·Ģà¶ľ à¶±
t ha
ĠP ost
ĠPro f
à¶ī à·ĥ
Ġd om
ĠM ur
ĠB est
Ġes p
àº²àºį àºŃ
Ġc ons
an je
am ily
ti f
ud a
eg o
Ð ¼
Ġd ad
àºļàºģàº²àºĻàº Ľàº°
Ġmot or
je w
Ġlumul upyo
Ġà¶¯ à·ħ
àºĻ à»ĥàº«àºį
d am
un k
E I
à¶± à¶´à¶Ń
Ġw as
amp uson
Ġhal apad
Ġun om
rad a
ĠNagl ukop
ĠDel hi
Ġà¶ħ à·Ģà¶½
Ġmit ubag
à¸ģ à¹ģà¸¡à¸§
à¸¡ à¸ªà¸²à¸§
à¸¢ à¸«à¸¥
à¸ģà¸²à¸£ à¸ļà¸Ķ
à¸Ńà¸ģ à¸Ķ
à¸Ħà¸§à¸²à¸¡ à¸Īà¸³à¹Ģà¸Ľ
à¸£à¸²à¸ ĺ
à¸²à¸ķ à¸Ńà¸Ļà¸Ļ
à¸¢à¸§ à¸Ń
à¸§à¸ĩ à¸ĭ
à¸§à¸¡ à¸Ķ
à¸¢à¸ĩ à¸Ĥà¸Ńà¸ĩ
à¸¢à¸ĩ à¹ĥà¸ķ
à¸ļà¸Ļ à¹Ģà¸§
à¸ĩà¹ĥà¸Ļ à¸Ĺ
à¹ģà¸ªà¸Ķ à¸ĩà¸ª
à¸²à¸Ĺà¸³ à¹Ħà¸Ķ
à¹Ģà¸ĭà¹Ĥà¸¥ à¸Ļà¸²
Ġà¸Ńà¸ĩà¸¨ à¸²
à¸²à¸ģ à¸Ńà¸²à¸ģà¸²à¸¨
à¸Ļà¸ģà¸²à¸£ à¸Ĺ
à¹Ģà¸Ħà¸¢ à¹Ģà¸«
à¹Ĥà¸Ľà¸£à¹ģà¸ģà¸£ à¸¡à¸Ĺ
à¸Ńà¸Ļ à¹ĥà¸Ļ
à¸Ńà¸ª à¸ĩà¸ª
à¸Ļà¹ĥà¸Ļ à¸ļ
ĠàºĦàº§àº²àº¡ àº®
à¸²à¸Ļà¸ģ à¸²à¹ģà¸Ł
Ġà¹Ģà¸£ à¸²à¸ªà¸²à¸¡à¸²à¸£à¸ĸ
Ġà¸ģ à¸İà¸«à¸¡à¸²à¸¢
à¸Ķà¸ĸ à¸Ļà¸Ļ
Ġg l
A m
Ġ à»Ħàº§
àºŃàºį àºģ
Ġs mart
Ġà»ģàº¥àº° àºģ
àº®àº½ àºĻàº®
àº§ àºķ
66 4
àº²àºŀ àº²àºģ
ÎµÎµÎµÎµÎµÎµÎµÎµÎµÎµÎµÎµÎµÎµÎµÎµÎµÎµÎµÎµÎµÎµÎµÎµÎµÎµÎµÎµÎµÎµÎµÎµ ÎµÎµÎµÎµÎµÎµÎµÎµÎµÎµÎµÎµÎµÎµÎµÎµÎµÎµÎµÎµÎµÎµÎµÎµÎµÎµÎµÎµÎµÎµÎµÎµ
à¶Ĩ à¶«
Ĭ ¥
Ġreg ular
ĠA qu
el e
Ð ¿
uc as
àº¡ àºĽàº°àºª
k ara
Ġhin uon
Ġgrad u
ĠCond o
àº²àºĻàºĦ àº°àºĻàº°
hel yo
Ġnagl ibot
h ot
Ġp anan
Ġsam ang
ĠG B
ĠK amo
lag en
Ì §
as y
Ġinter esa
Ñģ ÑĤ
ĠKan ton
ĠCont rol
Ġà¶ħà¶Ńà¶» à¶§
Ġex t
E P
Ġcl ick
Ġà¶¸ à¶ł
à¶° à¶ºà¶§
P r
à¸ĩ à¸®
à¸ĩ à¸ģà¸£à¸ĵ
à¸Ķ à¸²à¸¥
à¸Ĺ à¸Ī
à¸²à¸Ļ à¸Ĺà¸²à¸Ļ
à¸ģà¸²à¸£ à¹Ģà¸Ħà¸¥
à¸Ħà¸§à¸²à¸¡ à¸Ŀ
à¸Ĺà¸³ à¸Īà¸²à¸ģ
à¸§à¸ģ à¸²à¸¨
à¹ĥà¸Ļà¸ģà¸²à¸£ à¸Ĥ
à¹ĥà¸Ļà¸ģà¸²à¸£ à¹Ģà¸Ķ
à¸Ńà¸Ħ à¸Ļà¸Ĺ
à¸¢à¸Ķ à¸²à¸¢
à¸ĩà¸« à¸²à¸ģ
à¸įà¸« à¸²à¸ª
Ġà¹ģà¸Ļà¸§ à¸£
Ġà¹Ģà¸ī à¸ŀà¸²à¸°
Ġà¸ªà¹Ģà¸Ľ à¸Ļ
Ġà¹ģà¸® à¸£
à¸Ķ à¸Ħà¸¥
à¸ŀ à¸Ńà¸£
à¸Ĭ à¸³à¸Ļà¸²à¸į
Ġà¸ģà¸²à¸£ à¸Ħ
à¸ķà¸²à¸¡ à¸£
à¸Ĥà¸²à¸¢ à¸Ńà¸¢
à¸Ķà¸ľ à¸Ļ
àº²àºĩ àºĪàº²àºģ
à¸ķà¸²à¸¡ à¸Ľà¸ģà¸ķ
à¸Ļà¸ļ à¸²à¸Ĺ
à¸Ķ à¹ģà¸Ľà¸¥à¸ĩ
ah as
sa ma
àºĶ àº²àº§
... âĢĿ
àº½àºĩ àºĦ
ang h
àºģàºªàº° àºŀàº²
A qu
à¶§ à¶´à¶Ń
s hire
unsa d
j n
ĠPe ak
àº¡ à»ģàº¡
àº²àº¡ àºļ
iy om
Ø ±
à¶§ à¶½à¶º
os ter
Ġiznos ila
Ġp ress
ul ga
²ãģ²ãģ²ãģ²ãģ ²ãģ²ãģ²ãģ²ãģ
B usa
ĠZ en
Ġterm ino
R L
Ġà»Ģàºª àºį
Ä Ľ
ar es
In inggles
Ġmam ahimong
49 5
ĠD O
amat ud
à¶Ł à¶±
app y
al in
ĠU r
à»ĥàºĻàº¥ àº°àº«àº§
b os
16 3
à¶Ľ à¶º
àº§àºį àº«
Ġâ Ŀ¤
Ġt ot
yt ics
Ġcomment Add
RR RR
à¶ĭ à¶±
à¸Ń à¹Ģà¸£à¸²
à¸Ń à¹Ĥà¸ķ
à¸ĩ à¹Ģà¸§à¸¥à¸²
à¸¡ à¸Ħà¸Ļ
à¸§ à¸ī
à¸¢ à¸«à¸Ļ
à¸¢ à¸²à¸Ĺ
à¸ļ à¸ģà¸¥à¸²à¸ģ
à¸ª à¸ķà¸£
à¹ģ à¸ŀà¸¥à¸ķà¸Łà¸Ńà¸£
à¹Ĥ à¸Ńà¸Ĺ
à¸¨ à¸ķà¸°à¸§
à¹Ħà¸Ľ à¸Ļ
à¸Īà¸²à¸ģ à¸ľà¸¥
à¸§à¸Ļ à¸Ĭ
à¸Ńà¸Ķ à¸¡
à¸²à¸Ħ à¸Ļà¸Ĺ
à¸ģà¸© à¸²à¸ģà¸²à¸£
Ġà¸Ī à¸³à¹Ģà¸Ľ
à¸Ļà¸¢ à¸²à¸§
à¸ļà¸Ļ à¸ŀ
à¸²à¸ĺ à¸²à¸£à¸ĵà¸°
à¸Ķà¸Ĥ à¸§à¸²à¸ĩ
Ġà¸Ħà¸§à¸²à¸¡ à¹Ģà¸£
Ġà¸ľà¸¡ à¸Ħ
à¸Ļà¸Īà¸° à¹Ħà¸Ķ
Ġà¹Ħà¸Ľ à¸Īà¸Ļà¸ĸ
Ġà¸ªà¸²à¸§ à¹ĥà¸«à¸į
à¸Ńà¸Ļà¸§ à¹Ĥà¸¥à¸«à¸°
à¸Ĺà¹Ĥà¸Ł à¸Ļ
Ġà¹ģà¸¥à¸° à¸Ĺà¸³à¹ĥà¸«
à¸²à¸Ĥ à¸Ļà¸²à¸Ķ
à¸Ļà¹Ħà¸Ľ à¸Ńà¸¢
à¸Īà¸° à¹Ģà¸Ľà¸¥
à¸²à¸ł à¸²à¸¢à¹ĥà¸Ļ
Ġde vel
ĠZeal and
à¶º à·Ĥ
à¸Ļà¸§ à¸¥
15 1
ed ad
if y
Ġh ataas
Ġdirek ta
ab ina
àº²àºįàºģàº§ àº²àºĩ
Ġkuw arta
Ġtiil an
ĠG ih
à»ĤàºĦ àºĩ
Ġpagk ap
àºĦàº³ àºª
Ġà¶ħà¶±à·Ģ à·ģ
ĠpovrÅ¡ ini
Ðµ ÑĢ
àºŃàºį àºĹ
È Ľ
àºĽ àº²àºį
ff ee
ov iÄĩ
àº²àºĩ àºį
àº§àºį àºķ
we et
Ġ eh
t wo
en na
ha o
ĠWo jew
Ã³dz two
ĠWojew Ã³dztwo
c os
ĠàºŃ àº°àºĻ
Ġà¶¸à·Ħ à¶«
ĠBe ach
àº²àºŃ àºŃàºģ
ĠO S
ĠMa ayong
à·Ħà¶± à¶ºà¶ļ
D O
àº£ àº³
R C
Ġà¶¯à·Ħ à¶ºà¶ļ
à¸Ļ à¹Ģà¸Ĥà¸²
à¸Ń à¸ŀà¸£
à¸Ń à¸£à¸°à¸ļà¸ļ
à¸ģ à¸Ńà¸ĩ
à¸Ķ à¸Ľà¸£à¸°à¹Ĥà¸¢à¸Ĭà¸Ļ
à¸ª à¹Ħà¸Ķ
à¸« à¸§à¸¢
à¸²à¸Ļ à¸Ļà¸Ĺ
à¸£à¸° à¸ĩ
à¸Ĥà¸Ńà¸ĩ à¸¡à¸Ļ
à¹Ħà¸¡ à¹Ĥà¸Ħà¸£
Ġà¸ģ à¸°
à¸Ńà¸¡ à¸§à¸¥à¸Ĭà¸Ļ
à¸¢à¸§ à¸¡
à¸¢à¸ĩ à¸§
à¸¢à¸ĩ à¹Ģà¸¥
Ġà¸¢ à¸²à¸ªà¸³à¸«à¸£
à¸²à¸ļ à¸Ńà¸ģ
à¹Ĥà¸Ķà¸¢ à¸£à¸§à¸¡
à¸ļà¸ģà¸²à¸£ à¸Ħ
à¸²à¸Ĥà¸Ńà¸ĩ à¸£
à¸ģà¸£à¸°à¸Ĺ à¸ļ
à¸ĩà¸Ľ à¸§à¸ĩ
à¸Ļà¸ļà¸Ńà¸¥ à¸ľ
à¸Ļà¹Ģà¸Ī à¸Ńà¸£
à¸Ļà¹Ģà¸¥à¸¢ à¸Ĺ
Ġà¸Ńà¸¢à¸²à¸ģ à¹ĥà¸«
à¸²à¸§à¸¡ à¸§à¸¢à¹Ħà¸Ĺà¸¢
Ġà¹Ģà¸ī à¸¥
à¸§ à¸ŀà¸£
à¸Ńà¸Ļ à¹Ģà¸ģ
àºĪàº° àº¥
à¸¥à¸° à¸Ĭ
Ġà¶¸à¶»à¶« à¶ºà¶§
à¸² à¹Ģà¸§à¸Ńà¸£
Ġ à»ĥàºª
ĠKom mun
Ġpin aka
Ġmah ibal
àºĻàº°àºĦàºŃàºĻàº« àº¥àº§àºĩ
ĠFlor ida
ĠG all
Ġdug han
à¹Ī )
Ġs eksyon
ĠCom m
àºģàºķ àº²
ĠD ec
Ġg al
Ġà»ĤàºĶàºį àºĹ
ubl ic
Ġà¶¶à¶»à¶´à¶Ń à·ħ
Ġre m
àº²àºĩ àºĤàºŃàºĩ
àºĩ à»ĢàºĬ
à»ĥàºĻ à»Ģàº§
ĠàºĶ àº£
Ġà¶Ĵ à¶¸à¶§
àº¡ àºĪ
ĠF e
àºĶ àºģàº§
ĠS uw
ĠR an
àºĤàºŃàºļ à»ĥàºĪ
ac ije
uk a
1 66666666667
V A
g u
ros eso
kalib onan
ĠGam ing
O r
Ġo ver
Ġnak al
à ¥
f az
Ġà¶Ĩ à·Ģà¶»à¶«à¶º
Ã ¬
Ġmakak uha
/ %
Ġ order
à¸² à¹Ĥà¸ķ
à¸Ń à¹Ģà¸ªà¸£
à¸ģ à¸ļà¸Ńà¸¥
à¹ī .
à¸§ à¸ŀà¸£à¸£à¸ĵ
à¸Ķ à¸Ľà¸¥
à¸ļ à¸Ľà¸£à¸°à¹Ģà¸Ĺà¸¨
à¸ļ à¸£à¸²à¸ĵ
à¸Ńà¸ĩ à¸«à¸£
à¸ģà¸²à¸£ à¸ŀà¸Ļ
à¸²à¸ĩ à¸ģà¸²à¸£
à¸ĺ à¸²à¸£
à¸Ħà¸§à¸²à¸¡ à¸ªà¸Ļ
Ġà¸ģ à¸³à¸Ī
à¸Ńà¸¡ à¹Ħà¸Ķ
à¸¢à¸§ à¸Ķ
à¸«à¸¡ à¸§à¸Ķà¸«à¸¡
Ġà¸¥ à¸Ķà¸Ħà¸§à¸²à¸¡
à¹ĥà¸Ļà¸ģà¸²à¸£ à¹ģà¸Ĥ
à¸Ľà¸£à¸°à¸ģà¸Ńà¸ļ à¸ģ
à¸Ļà¸Ľ à¸ģà¸ķ
à¸£à¸Ńà¸ļ à¸ķ
Ġà¹Ģà¸ļ à¸¥
à¸²à¸ŀà¸£à¸° à¸¢à¸²
à¸Īà¸§ à¸ļà¸Ħ
à¸ģ à¹Ģà¸Ī
à¸²à¸¢ à¹Ħà¸Ł
à¸§à¸¢ à¹Ģà¸ª
à¸§à¸Ķ à¸¥à¸²à¸¢
à¸²à¸Ľà¸£à¸° à¸«à¸¢
à¸Ńà¸¡ à¸Ńà¸¢
à¸£à¸²à¸Ħ à¸²à¸ŀ
à¸Ļà¸Ĺà¸£ à¸²
H Y
ĠàºĦ àº§
à¸ªà¸ĸà¸²à¸Ļ à¸¨
Ġ à»ĤàºĦàºĩàºģàº²àºĻàº
àºĩàº²àºĻàº ķ
2 14
Ġpro v
ĠC a
à»Ģàº§àº¥ àº²àºĻ
Ġan ti
ĠL omb
àº²àºĹàº²àº¥àº°àºĻàº° àº¥
um ent
ron t
Ã£ o
Ġà¶¢à¶± à¶´à¶¯
à»ĥàºĻàºķ àºŃàºĻà»ĢàºĬ
Ġg ang
Ġàº«àºĩàº§àº½ àºĻ
Ġà¶¯ à·Ģà¶½
à·Ģ à¶³
àºŃ àºŃ
it ng
Ġkam adan
Ġà¶º à¶ļà¶©
st rek
ros strek
Ġà¶Ĵà¶ļ à¶Ń
Ġsa y
ĠC all
ĠM edia
und on
Ġm ini
Ġs iling
Ġgip ili
Ġlit rato
Ġd apat
àºĶàºªàº° àºĻàº°
Ġpagpat uman
Ġnag ahatag
Ġnegos yante
ĠBr and
Î ¹
ĠIn s
Ġp ormasyon
Ġm iga
Ġt ima
à¶¶ à¶»à¶½
I kaw
ant ala
A yaw
el i
Ġpal ihug
Ġbag yo
àºĶ àºŃàºģ
ra Äĳ
àºļàºģàº²àºĻàº Ĭ
àº²àºĩ àº«àºĻ
an ja
ar in
à¸Ļ à¸Ńà¸ĩà¸Ħ
à¸Ļ à¹Ħà¸«à¸Ļ
à¸Ń à¸Ĺà¸³à¹ĥà¸«
à¸ģ à¸¤à¸ķ
à¸¢ à¸ĭ
à¹ģ à¸Ńà¸ª
à¸²à¸Ļ à¸°
à¸²à¸ĩ à¸ĩà¸²à¸Ļ
à¸Ńà¸Ļ à¹ĥà¸Ī
à¸Ńà¸Ļ à¹ģà¸£à¸ĩ
à¹Ģà¸£ à¸²à¸ŀ
à¸ĵ à¹Ģà¸Ńà¸ĩ
à¸²à¸§ à¸²
Ġà¹ģ à¸Ń
à¸²à¸Ĺ à¸£à¸ĩ
à¸ļà¸ģà¸²à¸£ à¸ª
Ġà¹Ģà¸§ à¸ªà¸ķ
Ġà¹Ģà¸Ń à¸Ĭà¸Ķ
à¸Ľà¸£à¸°à¸Īà¸³ à¸ķ
ĠPh lebology
à¹Ĥà¸«à¸¥à¸Ķ à¹Ģà¸ŀà¸¥à¸ĩ
Ġà¸¡à¸²à¸ģ à¸¡à¸²à¸¢
à¸ļ à¹ģà¸ª
à¸²à¸Ļ à¸ĸ
Ġà¸ª à¸²à¸Ĺà¸£
Ġc ell
à¹ģà¸ľ à¸Ļà¸ģ
Ġà¸łà¸²à¸ŀ à¸ĸ
à¸Īà¸° à¸Ĺà¸³à¸ģà¸²à¸£
à¸Ĩ à¸²à¸ķ
Ġà¸ļà¸£à¸£ à¸Ī
à¸Ĺà¸³ à¸ĺ
à¸¡à¸¡à¸Ļ à¸²
em y
Ġà¶Ĵ à¶¸
àºĩàºĦ àº°àºĻàº°
!!!! !!!!
MA X
urr ency
à·ľ .
à¶³ à¶§à¶¸
ĠK it
ĠW in
Ġà¶±à¶© à¶Ń
à»ĥàºĻàºĦ àº§àº²àº¡
àºĤ àº½àºĻ
àºģ à»Ĥàºķ
ump a
à»ģàºĻàº§ àºĦ
y y
ĠMon te
Ġnag ad
ĠGino ong
Ġbug tong
Ġprost ire
ĠN et
Ġar a
Ġà¶»à¶® à¶ºà¶ļ
it as
Ġp uw
Ġgin ap
is iya
Ġà¶ĭ à·Ĥ
àºģ à»ģàº«
ĠL CD
àºŃàºĻ àºĶ
un on
Ġà¶Ĩ à¶ļà¶½
Ġil im
Ġtem per
ĠàºĽ àº²àºģ
à»Ģàº« àºĶàºľ
àº²àºĤàºŃàºĩ àº§
ĠZ L
ĠàºĪàº° àºª
à·ļ ....
Ġp il
om as
àºĩ à»Ģàºĸ
Ġà·ĥ à¶Ńà¶»
Ġ à¸łà¸²à¸©à¸²à¸Ń
à¸Ļ à¸²à¸£
à¸Ń à¸Īà¸³à¸ģ
à¸ģ à¸Ńà¸¥
à¸§ à¸¡à¸²à¸ģ
à¸ļ à¸Ńà¸²à¸«à¸²à¸£
à¹ĥà¸Ļ à¸¨
à¹ĥà¸Ļ à¸«à¸¥à¸§à¸ĩ
à¸Ĥà¸Ńà¸ĩ à¹Ģà¸¥
à¸ĵ à¸Ń
à¸Ħà¸£ à¸²à¸Ħ
Ġà¹ģ à¸ļà¸ķà¹Ģà¸ķà¸Ńà¸£
à¸§à¸¡ à¸ªà¸¡
Ġà¸§ à¸Ńà¸¥à¸¥
à¹ģà¸ļà¸ļ à¸Ķ
à¸¢à¸¡ à¹Ģà¸Ľ
à¸Ļà¸§ à¸Ķ
à¸ļà¸ģà¸²à¸£ à¸Ńà¸Ńà¸ģà¹ģà¸ļà¸ļ
à¸ľà¸¡ à¸§
à¸¢à¸ģ à¹ĥà¸«
à¸Ķà¸ģà¸²à¸£ à¸ģ
à¸ĩà¸Ńà¸¢ à¸²à¸ģ
à¸Ńà¸²à¸ģà¸²à¸£ à¸ļà¸²à¸Ķà¹Ģà¸Ī
à¸Ń à¸ªà¸³à¸«à¸£
à¸ģ à¹Ģà¸«à¸¥
à¸²à¹Ģà¸£ à¸²à¸Īà¸°
à¹Ģà¸Ł à¸ĭà¸ļ
à¸Ĺà¸³à¸Ħà¸§à¸²à¸¡ à¹Ģà¸Ĥ
à¸Ķ à¹Ģà¸«à¸¥
à¸Ľ à¸£à¸²à¸ªà¸²à¸Ĺ
à¸²à¸ĩ à¹Ħà¸Ľ
at ake
à¹Ģà¸Ń à¸²à¹Ħà¸Ľ
ermal ink
à¸Ķà¸¥ à¸¡
à¶± à¶¸à¶ļ
19 5
ĠKan iya
ĠO lymp
ĠL ight
ĠCom ments
ĠProd uct
ĠIn ingles
M ao
Ù İ
Ġ abilidad
Ġgin himo
àºģàºŃàºļ àºª
àºĽàº° àº¥
ĠK ur
ungt ad
ul ugan
ĠT ol
Ġà¶ĭ à¶ļ
col le
ina ut
ĠàºĤàºŃàºĩ àº¥
Ġhang yo
ĠN ganong
ug mad
Ġà»Ģàº§ àº¥
Ġnagp al
Ġpat ik
àºĻàº¥ àº°àºį
XX XX
ĠK ir
hi o
ĠH en
p am
v ia
à¶© à¶ļà¶§
à¶¯ à¶¯
g es
ĠB HB
ĠH ero
à»Ĥàºŀ àºģ
te gr
Ġà¶ľ à¶½à·Ģ
à¶»à¶§ à¶§
Ġpr ip
à»Ħ àºŃ
ag aw
;;;.;;;.;;;.;;;. ;;;.;;;.;;;.;;;.
ing o
ĠL or
ï¼ Į
àº¥ àºŃàºĩ
ac i
àºļ à»ĥàºĪ
Ġàºŀ àº²àºª
àºĬ àº½àºĻ
ĠM Hz
ĠM ulti
ĠK ore
àºĪàº° àº¡àº²à»Ģàºĸ
Ġdak u
àºĦàº§àº²àº¡ àºĬ
à¸Ļ à¹Ģà¸Ńà¸ģà¸¥
à¸Ń à¹Ģà¸§à¸¥à¸²
à¸¡ à¹ĥà¸«à¸į
à¸ķ à¸Ńà¸Ļà¸Ĺ
à¸Ńà¸ĩ à¸Ĺà¸³à¸ĩà¸²à¸Ļ
à¸ŀ à¸§à¸ĩà¸¡à¸²à¸¥
à¸²à¸¡ à¸ŀà¸¥à¸²à¸Ķ
à¸Ĥà¸Ńà¸ĩ à¸¢
à¸²à¸§ à¸ģà¸¥
Ġà¸ª à¸«à¸£
à¸²à¸Ĺ à¸²à¸¢
à¹Ģà¸¡ à¸ķà¸ķ
à¹ĥà¸Ī à¸Ķ
à¹Ģà¸Ī à¸Ķ
à¸¢à¸ĩ à¹Ģà¸Ķ
à¸Ħà¸Ļ à¸ŀ
à¸ĩà¸Ĺ à¸Ńà¸ĩ
à¸§à¸ģ à¸ģ
Ġà¹ĥà¸Ļ à¸ģà¸²à¸£à¸£
à¸ļà¸Ĺ à¸Ħà¸§à¸²à¸¡à¸Ļ
à¸ļà¸ª à¸§à¸Ļ
à¸Ńà¸ĩà¸ģà¸²à¸£ à¹ĥà¸Ĭ
à¸Ĭà¸¡ à¸ģ
à¸Ķà¸ģà¸²à¸£ à¹ģà¸Ĥ
à¸ļà¸¡ à¸²à¸Ĺ
à¸ļà¸£à¸£ à¹Ģà¸Ĺ
à¸įà¸Ĭ à¸§à¸Ļ
à¸ģà¸Ħà¸Ļ à¸ķ
à¸¡à¸Ħà¸£ à¸Ńà¸ĩ
Ġà¹ĥà¸Ħà¸£ à¸Ĺ
Ġà¸ªà¸²à¸Ĥ à¸²à¸§
à¸ģà¹Ģà¸ļ à¸²
à¸Ķà¸³à¸£à¸ĩ à¸ķà¸³à¹ģà¸«à¸Ļ
à¸ĵ à¸£à¸ĩà¸Ħ
à¸Ħà¸Ļ à¸ģ
Ġà¸¢ à¸ģà¹Ģà¸§
à¸Ħà¸²à¸Ķ à¸«à¸§
à¸¡ à¸ģà¸³à¸¥
à¸ģà¸©à¸ĵà¸° à¹Ģà¸Ľ
à¸Ĺà¸£à¸ª à¸²à¸Ħà¸£
Ġ à¸ķà¸£à¸ĩ
à¸łà¸²à¸Ħ à¸ķà¸°à¸§
Ġmakasa sala
ĠopÅ¡tinsk ih
ĠT HE
à¶¶ à·ħ
Ġdapit a
Ġyo utube
àºĶ à»ĤàºĶàºį
te g
ez irk
Ġmib alik
n ia
ĠS K
Ġnagt inguha
ĠCol umb
abang an
ĠYou Tube
ĠEg ipto
as p
àºĦàº§àº²àº¡ àºªàº°àºĶàº§àºģ
19 3
àº§ àº«àºĻ
Ġpagp uasa
ht ml
ĠCap e
Ġc m
po int
àº²àºĻ à»ģàº¡
Ġt un
ĠL ock
P an
Ġod nos
ON G
à»ĥàºĻ à»Ĥàº¥àºģ
if ication
ĠÂ £
àºĻ à»Ħàºŀ
ru z
p ulo
à»ĤàºĽ àº£
à·Ĵ -
Ġsa d
le ft
àºĻàºĹàº²àºĩ à»ĦàºĽ
à»Ŀàº²àºģ àºľ
Ġ ~
àºĻ à»Ģàº§
emp re
Ġip asabot
à¶¢ à¶±à¶ºà¶§
à¶ºà¶ļ à·Ģà¶»à¶º
Ġh ugpong
Ġap l
est orya
as ter
ub anan
Ġ .....
en ch
um on
Ġpags usi
Ġkar nero
Ġhim uon
gaygaygaygay gaygaygaygay
àº°àº«àºĻàº²àºĶ à»ĥàº«àºį
Ġnang ita
ugot an
alang in
Ñ Ī
ini um
Ġtu iga
à¸£ à¸ļ
à¸ļ à¸¤à¸Ķ
à¸Ľ à¸Ńà¹Ģà¸£à¸Ĭ
à¸Ĥà¸Ńà¸ĩ à¹Ĥà¸£à¸Ħ
à¸ĵ à¸²
Ġà¸ģ à¸ªà¸Ĺ
à¸ļà¸ļ à¸²à¸Ħà¸²à¸£
à¹Ģà¸Ĭ à¸¥à¸ĭ
à¸ģà¸© à¸²à¸ľ
à¸§à¸ĩ à¹Ģà¸Ĭ
à¸§à¸¡ à¹ĥà¸ª
Ġà¹Ģà¸ŀ à¸¥
à¸Ļà¸Ħ à¸³
à¸Ļà¸¡ à¸²à¸ĸ
àºĦàº§àº²àº¡ à»Ŀàº²àºį
Ġà¹Ħà¸¡ à¸¥
à¹Ģà¸§à¸¥ à¸²à¸Ľà¸£à¸°à¸¡à¸²à¸ĵ
à¸ĩà¹ģ à¸Ļà¸§
à¸Ļà¹Ħà¸Ľ à¸Ń
à¸£à¸²à¸ļ à¸§
à¸²à¸Ľà¸£à¸° à¸Ĺ
à¸Ħà¸Ńà¸Ļ à¹Ģà¸ª
à¸²à¸Ļà¸Ńà¸²à¸«à¸²à¸£ à¹ĥà¸ģà¸¥
Ġà¸ªà¸²à¸¢ à¸ģà¸²à¸£à¸ļ
à¹Ģà¸ĺà¸ĳà¹Ģà¸ĺ à¸ĩà¹Ģà¸ĺ
Ġà¹ģà¸Ļà¸°à¸Ļà¸³ à¹ĥà¸«
à¸²à¸¥à¸ĩ à¸ģà¸£à¸ĵ
à¸Ĭ à¸¥à¸ļ
à¸²à¸Ļ à¸ģà¸¥à¸²à¸ĩ
Ġà¹ģ à¸ģà¸£
à¸Ńà¸²à¸Ī à¹Ģà¸Ľ
à¸²à¸Ľà¸£à¸° à¸ª
Ġà¶¢ à¶ºà¶±
à¸ķà¸²à¸¡ à¸«à¸¥
à¸²à¸¢à¸Ĺ à¸§à¸²à¸£
à¸ĩà¸Īà¸° à¸Ĺà¸³à¹ĥà¸«
ing og
Ġpagb alhin
99999999 99999999
ĠN at
àºģàº²àºĻ à»ĥàºĬ
Ġ ot
àº§àºįà»Ģàº« àº¥
à¶« à¶ľ
àºĻà»ĢàºŃàºģ àº°àº¥
Ġà·ĥà¶¸ à¶»à·Ģ
Ġsac erd
ĠJ ak
à¶»à¶ļà¶® à¶±à¶º
Ġà¶ĩ à¶ľà¶º
Ġà·ĥà·Ħ à¶½
Ġà·Ģà¶± à¶¯
Ġà¶Ĵà¶ļ à¶ļà¶º
s m
Ġà¶ļà·ħ à¶Ń
à¶ºà¶ļ à¶ľ
ey n
Ġma il
ri es
ĠàºĻ àº²àº¡
à¸ĩ à¸ī
Ġàºªàº° à»Ģà»ľ
ĠAd min
d om
Ä Ł
àºŃ à»Ŀ
re l
ah u
od es
h o
ugil on
c ept
Ġb angk
Ġàºģàº²àºĻàºĽàº° àºķ
à·Ħà¶» à¶«à¶º
àº¥àº° àº§
àºŃàº¡ àºĻ
Ġgip al
Ġsacerd ote
Äģ faz
á¸© Äģfaz
Ġà¶ħ à¶ľà¶±
U p
ile a
isk obre
Ġkagah apon
ĠD ip
à¸ģ à¸²à¸Ĥ
à¸¡ à¸¥à¸ĩ
à¸Ĥ à¸ģ
à¸Ĥ à¸¥
à¸Ĭ à¸Ļà¸Ĺ
à¹ĥà¸Ļ à¹Ģà¸¥
à¸Ĥà¸Ńà¸ĩ à¸«
à¸Ĥà¸Ńà¸ĩ à¸Ńà¸ĩà¸Ħ
à¸²à¸§ à¸°
à¸Ħà¸§à¸²à¸¡ à¸ªà¸§à¸¢à¸ĩà¸²à¸¡
id th
à¸ķà¸£ à¸§
Ġà¹Ĥ à¸£à¸¡
Ġà¹Ĥ à¸Ħà¸¥
à¸¢à¸Ļ à¸¢
à¸ĩà¸ª à¸Ļ
à¹Ģà¸Ī à¸ķà¸Ļ
Ġà¸Ľ à¸ķà¸£
à¸ªà¸²à¸¡à¸²à¸£à¸ĸ à¹Ģà¸Ľ
à¸ļà¸ª à¸²à¸¡
à¸Ļà¸Ńà¸¢ à¸²à¸ģ
Ġà¸Ľà¸£à¸°à¸ģ à¸Ńà¸ļ
à¸Ńà¸« à¸²à¸Ĺ
à¸¢à¸Ńà¸Ķ à¸Ĥà¸²à¸¢
à¸¬ à¸²à¸Ĺ
à¸¬ à¸²à¸Ł
à¸Ļà¸¡à¸² à¹Ħà¸Ķ
Ġà¸ĩà¸²à¸Ļ à¸Ļ
à¸Ńà¸³à¸Ļ à¸§à¸¢à¸Ħà¸§à¸²à¸¡à¸ªà¸°à¸Ķà¸§à¸ģ
à¸Ĺà¸²à¸ĩà¸ģà¸²à¸£ à¹Ģà¸ĩ
à¸¡à¸Ī à¸¡
à¸³à¸Ľ à¸²à¸ĩ
Ġà¸ģà¸£à¸£à¸¡ à¸ģà¸²à¸£à¸ľ
à¸Ļà¹Ĥà¸ķ à¸Ļ
à¸Ļ à¸Ľà¸£à¸°à¸ķ
à¸Ń à¹Ħà¸£
à¸Ķ à¸ģà¸§
à¸£à¸° à¸Ĺ
à¸Ńà¸Ķ à¸Ńà¸Ńà¸ģ
à¸¢à¸§ à¸«
à¸Ļà¸Ķ à¸£
à¹Ĥà¸Ķà¸¢ à¸ģà¸²à¸£
à¸ªà¸²à¸¡à¸²à¸£à¸ĸ à¸Ĺà¸³à¹Ħà¸Ķ
à¸Ńà¸²à¸Ī à¹Ħà¸¡
Äį ke
à¸²à¸Ļà¸Ļ à¸Ńà¸ģ
à¸ķà¸£à¸²à¸ Ķ
à¸ļ à¹Ģà¸«à¸¥
Ġà¸Ń à¸ŀà¸²à¸£
à¹Ģà¸īà¸ŀà¸²à¸° à¸ķ
à¶± à¶Ł
un ch
ingg it
àºªàº° àº¡àº²àºĦ
® ðŁĺ
ĠF G
Ġh ack
Ġàº®àºŃàºĩ à»Ģàº¥àºĤ
àºĤàºŃàºĩ àºĤ
Ġre bol
à·ĥ à¶´
àºª àº§àºĻ
ĠCont in
à¶ł à¶ºà¶ļ
les ia
ĠT y
amp usan
Ġà¶ĳà¶ļà¶Ł à¶Ń
Ġà»ĤàºĶàºį àºģàº²àºĻà»ĢàºĽ
Ġmob alik
IT Y
Ġmagh unahuna
Ġser ye
ĠChi ang
ch at
à·Ļ âĢį
ĠAn ia
Ġsil ay
Ġpund o
D I
à·Ĥ à¶¥
Ġnagt an
Ġb ot
ĠG usto
Ġpabor ito
àº²àº¢ àº²àºģ
Ġk uta
Ġb ungt
ri end
Ġbungt oron
àºĶ àº¥àº°àºļàº½àºļ
Ġa utom
Ġà¸Ńà¸³à¹Ģà¸ł à¸Ń
ĠCag ayan
Ġt ung
Ġbr and
ĠN alazi
9 18
àºĻ à»ģàºģ
dasdasdasdasdasdasdasdasdasdasdasdasdasdasdasdasdasdasdasdasdasdasdasdasdasdasdasdasdasdasdasdas dasdasdasdasdasdasdasdasdasdasdasdasdasdasdasdasdasdasdasdasdasdasdasdasdasdasdasdasdasdasdasdas
àºĻàºŃ àº²àºĶ
Re ad
à¸´ )
Ġàºª àº²àºį
àºµ :
ĠM ic
Ġtur ista
ĠW ood
Ġs m
Ġà¶± à¶§
ï ľ
à¸§ à¸ªà¸³à¸«à¸£
à¸Ķ à¸¥à¸°
à¸Ķ à¸Ħà¸§à¸²à¸¡à¸£
à¸ª à¸ģà¸£
à¸Ħ à¸³à¸Ļ
à¸Ńà¸Ļ à¸Ŀ
à¹Ģà¸ģ à¸ª
à¹Ħà¸Ľ à¸ŀ
Ġà¹ģ à¸ŀà¸£
Ġà¹ģà¸¥à¸° à¸«à¸¥
à¸²à¸ª à¸§à¸¢
à¸§à¸Ļ à¸³
à¸Ļà¸ķ à¸²à¸ķ
Ġà¸ģà¸²à¸£ à¹Ģà¸£
à¸¢à¸¡ à¸ŀà¸£
à¸Īà¸³ à¹Ģà¸ŀà¸²à¸°
à¸ĩà¸Ħ à¸ĵà¸°
à¸²à¸Īà¸° à¸ĸ
à¸Ļà¸ģà¸²à¸£ à¸Ķ
à¸Ńà¸Ħ à¸³à¸ĸà¸²à¸¡
à¸Īà¸Ļ à¸ģà¸£à¸°à¸Ĺ
à¸²à¸ģà¸¥ à¸²à¸ĩ
à¸¬ à¸²à¸¥à¸ĩà¸ģà¸£à¸ĵ
à¸ģà¸Ń à¸²à¸¨
Ġà¹ģà¸Ĺ à¸ĩà¸«à¸§à¸¢
à¸Ļà¸Ńà¸Ńà¸ģ à¹Ħà¸Ľ
à¸ļà¸Ľ à¸§à¸Ķ
à¸¢à¸Ńà¸¡ à¹ĥà¸Ħà¸£
Ġà¸Ļà¸²à¸ĩ à¸ªà¸²à¸§
Ġà¸Ńà¸° à¹Ħà¸«à¸¥
à¸Ļà¸ķà¸Ļ à¸²à¸ģà¸²à¸£
Ġlamb lia
à¸ĩ à¹Ģà¸§à¸¥
à¸³ à¸Ńà¸¢
à¸ļà¸ª à¸ģ
à¸Ńà¸²à¸«à¸²à¸£ à¹Ģà¸ªà¸£
à¸§à¸¢à¸Ħà¸§à¸²à¸¡ à¸Ĺ
à¸ģ à¸Ĺà¸²à¸ĩ
à¸Ļà¹ģ à¸ļ
à¸ļ à¹Ĥà¸Ńà¸ģà¸²à¸ª
Ġà¸« à¸²à¸Ķ
àºĩ àº¥àº²àº§
à¶° à¶±à¶ºà¶§
à¸Ńà¸ĩ à¸Ľà¸²à¸ģ
ĠàºĤàºŃàºĩ àº§
àº¹à»ī ,
àºŃ àº²àº«
Ġp e
à»ĥàºĻàº ĸ
àº§ à»Ģàº¥
E X
ĠC ons
Ġà¶ħà¶» à¶½
Ġà¶¯ à¶¹
àºĶàºĹ àº°àºį
à»Ĥ àº«àº¥
àºĪàº° àº®
Ġest ilo
ĠT ub
Ad unay
Ġà¶ĭ à¶ºà¶±
Ġnagp at
Ġnag ab
ĠN ord
à»ģàº¥àº° àºļ
Ġt alan
Ġnag gamit
Ġinteresa do
ĠR od
àºŃàº²àºĻ àº²àºĪ
Ġà¶Ķ à¶»
Ġkal im
Ġà¶Ĭ à¶§à¶Ń
à¶¶ à¶½à¶º
à¶Ĩ à¶»à¶ł
Ġà·Ħ à¶ļ
eta il
ĠL T
à¶ĳ à¶Ń
Ġmok aon
Ġt ind
àºĻàºŀ àº²àºª
àºĤàºŃàºĩ àºľ
Ġsak ayan
àº²àºŃ àº²àºģàº²àºĶ
Ġp is
ita ine
é¢ Ħæ
Ġkam po
IG H
Ġcent er
àºļàºŀàº°àºįàº²àºģ àºŃàºĻ
ĠH ost
àºĩàºģàº²àºĻàº ®
ex ico
àº²àºĹ àº²àºĩ
ĠS ign
àºĻàºŃ àº²àºĹ
Ġpro m
å Ĩ
Ġà¶±à·Ģà¶Ń à¶¸
àºĩàº²àºĻàº ļ
oy ota
T T
33 0
Ġgin as
Ġprib ado
à¸² à¹Ĥà¸¡
à¸Ń à¹ģà¸Ĺ
à¸ģ à¹ģà¸Ĥ
à¸ĩ à¸ķà¸£
à¸§ à¸Ńà¸¥
à¸¢ à¹ģà¸ķ
à¸ª à¸²à¸«
à¸²à¸Ļ à¸¨
à¸Ńà¸Ļ à¹Ģà¸¥
à¸Ńà¸Ļ à¹Ģà¸ŀ
à¸į à¸ŀ
Ġà¸ª à¸Ľ
à¸Ħà¸§à¸²à¸¡ à¸«à¸¥à¸²à¸ģà¸«à¸¥à¸²à¸¢
Ġà¸¡ à¸²à¹Ģà¸Ľ
à¸¢à¸Ļ à¹ĥà¸«
à¹Ģà¸Ļ à¸Ĭ
à¸ľà¸¥ à¸Ķ
à¹Ģà¸ļ à¸£à¸Ħ
Ġà¹ĥà¸Ļ à¸Ń
Ġà¹ĥà¸Ļ à¹Ģà¸¡
à¹Ĥà¸¥ à¸§
à¸²à¸¨ à¸ģ
à¸¥à¸° à¸¥à¸²à¸¢
à¸Ĵà¸Ļ à¸²à¸Ĥ
à¸¡à¸Ĺ à¸°à¹Ģà¸¥
à¸ªà¸§à¸¢ à¸Ĺ
à¸Ļà¹ģà¸¥à¸° à¸¡
à¹ĳ à¹Ĳ
Ġà¸Ĺà¸²à¸ĩ à¹Ģà¸Ĥ
à¸Īà¸ŀà¸£à¸° à¸ª
Ġà¹ģà¸Ł à¸Ĭ
Ġà¸ªà¹Ģà¸Ľ à¸Ħ
à¸ĩà¸Ĩ à¸£à¸²à¸Ĭ
à¸Ń à¸Ĭà¸²à¸§
à¸§ à¹ĥà¸Ĭ
à¸° à¸Ĥ
Ġà¸Ħ à¸²à¸Ķà¸§
à¸Ńà¸Ķ à¸Ļ
à¸Ļà¸ķ à¸¥à¸²à¸Ķ
à¸¢à¸ģ à¹Ģà¸§
à¸£à¸ĵ à¸£à¸ĩà¸Ħ
à¹Ĥà¸ģ à¸ĩ
à¹ģà¸¥à¸° à¹Ģà¸ª
à¸²à¸ķà¸£ à¸§à¸Ī
à¸ģà¸³à¸«à¸Ļà¸Ķ à¹Ħà¸§
vis or
or us
Ġan ia
à¸ªà¸ĸà¸²à¸Ļ à¸°
ĠInd ya
Ġsub ay
Ġser vice
àº²àºĩ àºªàºŃàºĩ
Ġusa hay
Ġpin ili
Ġkil id
kan colle
Ġtawhan a
àº²àºĶ à»ĢàºĪ
it es
Ġl apy
Ġlapy ahan
àºĻ à»ĥàºĬ
iz ation
à·ļ âĢįà·ĬâĢį
ĠSa x
à·Ģà¶½ à¶Ń
ĠO m
an ia
àº§ à»Ĥàº¡àºĩ
am uyo
ĠAnal ytics
Ġ !!!
Ġh all
ĠKr ist
A s
ur aw
å¤©æ°Ķ é¢Ħæ
å¤©æ°Ķé¢Ħæ Ĭ¥
Ġà·ĥ à¶½à·ĥ
à¶Ńà¶ļ à¶¯
ons in
re m
ĠP od
ĠG a
à¶¯ à¶»à¶Ń
Ġn it
3 20
àº³ àºŀ
Ġà»Ģàº¥àºĤ àº²àºŀ
ak at
Ġs ek
ÃŃ lia
ĠR oss
H P
àº§ à»ĢàºĦ
ĠL ev
ĠàºŃ àº°àºĶ
ĠÐ ¿
ch ain
um ol
Ġpagh ubad
àºģ à»Ģàºķ
à·ģ à¶«à¶º
ud i
Ġnan ingkamot
iv ate
Ġmateryal es
ĠK ami
el and
Ġpag sangyaw
insip yo
Ġb itcoin
à¸Ń à¸Īà¸°à¹Ħà¸Ķ
à¸Ķ à¹Ģà¸ķà¸£
à¸Ĺ à¸¥
à¸ļ à¹ģà¸ģ
à¸« à¸Ńà¸ŀ
à¹Ĥ à¸Ħà¸§
à¸Ńà¸Ļ à¹Ģà¸ĩ
à¸Ħà¸§à¸²à¸¡ à¸ģ
àº²àºĩ àºģàº§
à¸«à¸£ à¸²
Ġà¸Ħ à¸Ńà¸¡à¸ŀ
Ġà¸£ à¸Ńà¸ĩà¸ľ
à¸¢à¸Ļ à¸«
à¸łà¸²à¸ŀ à¸Ķ
à¸¢à¸¡ à¸£
à¸Īà¸³ à¸¥à¸Ńà¸ĩ
à¸ī à¸°
à¹ĥà¸Ļà¸ģà¸²à¸£ à¸Ķ
à¹ĥà¸Ļà¸ģà¸²à¸£ à¸ľà¸¥
à¹ģà¸Ĺ à¸Ħ
à¸²à¹ģ à¸Ļà¸°à¸Ļà¸³
Ġà¹Ģà¸ª à¸¡à¸Ń
à¸Īà¸Ļ à¸ģà¸§
à¸Ļà¹Ħ à¸«à¸¡
à¸Ĥà¸Ń à¹Ģà¸Ĭ
11111111 11111111
à¸ģà¸£à¸°à¹Ģà¸ŀà¸²à¸° à¸Ńà¸²à¸«à¸²à¸£
à¸Ńà¸°à¹Ħà¸£à¸¡ à¸²à¸ģ
à¸Īà¸° à¸Ń
à¸«à¸¡ à¸Ń
à¸Ĺà¸²à¸ĩ à¸ļà¸£
à¸«à¸²à¸ģ à¸¡
à¸£à¸²à¸¨ à¸Īà¸²à¸ģ
à¹ģà¸¥à¸° à¸«à¸Ļ
à¸Ļà¸Ĺà¸²à¸ĩ à¹Ģà¸Ĥ
à¸Ĭà¸²à¸¢ à¸Ŀ
Ġmab uhi
à¸Ļà¹Ģà¸§à¸¥ à¸²à¸Ļà¸²à¸Ļ
Ġà¸ª à¸Ńà¸Ļ
i que
re a
ĠMan ila
Ġip adala
àºĶàºĹ àº°
ĠR ama
h ero
àºĩàº« àº¥àº²àºį
ĠB lo
Ġr andom
isa g
Ġc ash
Ġk g
Ġadd ress
àºĻàºķ àº²àº¡
Ġs w
08 6
Ġl ayo
I B
à»ĥàºĶ àº«àºĻ
à¶½ à¶Ł
ĠP hone
Ġwh itening
ug dan
Ġkab uhi
ĠL os
Ġnag al
qu id
à»Ģàº¡ àº§
ĠBras ÃŃlia
Ġb oreal
à»Ģàº§àº¥ àº²àºĶ
Ġmagh atag
ĠC ream
ed er
Ġtin ta
Ġmal uwas
Ġsinug danan
ĠàºĹ àº³
Ġkon eksyon
Ġkons um
ti ago
k top
Ġbuk as
Ġd alag
à»ĢàºĦ àº¡
ĠFranc is
àºĶ àº³àº¥
àºį àºŃàºĶ
Ġà¶ĩ à¶¹
àº²àºĩ àºĸ
å¥½ å¥½
à·ı !
Ñ ĩ
à¸Ļ à¹Ħà¸Ĥ
à¸Ļ à¸£à¸°à¸¢à¸°
à¸Ń à¸Ńà¸Ńà¸ģ
à¸ĩ à¸Ħà¸§
à¸¡ à¹Ģà¸Ń
à¸§ à¸¨
à¸ļ à¸ªà¸£
à¸ļ à¸Ĭà¸²à¸ķ
à¸Ľ à¸Ńà¸ĩ
à¸Ńà¸ĩ à¹Ģà¸§
à¸³ à¹Ģà¸ķ
à¸²à¸ĩ à¸Īà¸£
à¹ĥà¸Ļ à¸¡à¸Ļ
à¹Ģà¸£ à¸²à¸Ķ
à¸Ħà¸£ à¸ļà¸Ĺ
Ġà¸Ĺ à¸ĺ
à¸Ńà¸¡ à¸¢
Ġà¸ģà¸²à¸£ à¹Ģà¸Ĥ
à¸ªà¸²à¸¡à¸²à¸£à¸ĸ à¸ŀ
à¸«à¸¥à¸²à¸¢ à¸ª
à¸Ńà¸²à¸Ī à¸Īà¸°à¹Ħà¸¡
à¸¥à¸Ķ à¸Ħà¸§à¸²à¸¡à¸Ń
à¸Ļà¹ģà¸¥à¸° à¸ª
à¹Ģà¸Ł à¸£
à¸ªà¸²à¸¢ à¸ŀ
à¹Ģà¸§à¸ĵ à¸Ļ
à¹ģà¸ļ à¸ĩà¸Ħ
Ġà¸® à¸Ńà¸Ļà¸Ķ
à¹ģà¸ªà¸Ļ à¹ģà¸ªà¸ļ
à¹Ģà¸ĵ à¸£
f l
à¸ĩ à¸ģà¸£à¸°
à¸¥ à¹ĥà¸«
à¸²à¸ĩ à¹ģà¸ļà¸ļ
à¹Ħà¸Ľ à¹Ģà¸Ľ
à¸ķà¸£ à¸ĩà¹Ĩ
à¸Ļà¸ª à¸ķ
à¸§à¸¡ à¸ª
Ġà¸ģà¸²à¸£ à¸Ń
à¸Ĥà¸²à¸¢ à¸Ĥà¸Ńà¸ĩ
à¸Ļà¸Ħà¸£ à¸£à¸²à¸Ĭà¸ª
à¸§à¸Ļà¸ķ à¸³à¸ļà¸¥
à¸Ħà¸³à¸Ļà¸§ à¸ĵ
à¸Ķ à¸²à¸£à¸²
Ġà¹ģà¸¥à¸° à¹Ģà¸Ħà¸£
à¸²à¸Ħ à¸Ļà¸Ń
à¸ģà¸³ à¹ģà¸ŀ
à¸§à¸¢à¸Ħà¸§à¸²à¸¡ à¸Īà¸³
à¸² à¹Ħà¸Łà¸Ł
ĠT erm
à·Ģà·ĥ à¶±
Ġà¶Ķ à·ħ
à»ĥ àºĶàºĹ
Ġà¶ħà·ĥ à¶¸
àºģàº²àºĻàºĽàº° àºĬàº²àºĬ
um inum
Ġpro t
b u
àº¡ àºģàº²àºĻà»Ģàº¡
P ar
b il
àºŃàºĻ à»ģàº¥
ĠGeorg e
ĠS ir
Ġà»ĢàºĤ àºĶ
ĠÂ ¶
Ġh ol
ed ding
19 89
Ġ ir
op an
ĠA IDS
ul sol
Ġin a
à¶»à¶« à¶ºà¶§
Ġà¶ī à¶¶
ĠBibl ia
ĀĀĀĀ ĀĀĀĀ
Ġs uod
Ġdag om
Ġste el
R om
Ġs ina
ĠP ri
Ġpagp uyo
àºģàº²àºĻ à»Ģàº¥
ĠAF P
ĠProgr am
àºģ à»ĢàºĹ
ĠàºĽàº° àºģàº²àºĶ
ĠàºĤàºŃàºĩ àºģ
àºĻ à»Ģàºļ
à¶¯ à¶´
16 9
àºĿ àº£
ĠàºĤàºŃàºĩ àºķ
und an
Äį e
ab ase
ĠS earch
àºŃàºļ àºĶ
as in
7 50
ĠàºĽàº°àºĹ àº²àºĻàºĽàº°à»ĢàºĹàºĶ
ĠEn ter
is san
à¸Ń à¹Ħà¸Ĺà¸¢
à¸Ń à¸Ľà¸£à¸°à¹Ĥà¸¢à¸Ĭà¸Ļ
à¸ĩ à¹Ĥà¸£à¸ĩà¸ĩà¸²à¸Ļ
à¸Ķ à¹Ģà¸Ń
à¹Ħ à¸ĸ
à¸ģà¸²à¸£ à¸Ńà¸Ńà¸ģ
à¸ģà¸²à¸£ à¸ªà¸Ļ
à¸²à¸ĩ à¹Ħà¸ģà¸¥
à¸£à¸° à¹Ģà¸Ĥ
à¸Ńà¸¢ à¸£
à¸ĵ à¸Ħà¸§à¸£
à¹Ħà¸Ľ à¸£à¸©à¸ĵ
à¸Ńà¸¡ à¸ģà¸¥
à¸Ĺà¸³ à¹Ģà¸Ľ
à¸§à¸ĩ à¸ļ
à¸ĩà¸Ĺ à¸£à¸ĩ
à¸Ļà¸Ń à¸°
à¸ªà¸²à¸¡à¸²à¸£à¸ĸ à¸ªà¸£
à¸ļà¸ģà¸²à¸£ à¸¨
à¸ĩà¹ĥà¸Ļ à¸Ļ
à¸Ńà¸ģà¸²à¸£ à¸ķ
à¸Ĥà¸Ļà¸²à¸Ķ à¸«à¸Ļ
à¸łà¸²à¸Ħ à¸Ĺ
à¸ŀà¸§à¸ģ à¸¡
Ġla zada
à¸Ķà¸¡ à¸¨
à¸ķà¸ļà¸Ńà¸¥ à¸Ĺ
à¸Ĥà¸łà¸²à¸ŀ à¸Ĺ
à¸²à¹Ħ à¸Ĺ
à¸ŀà¸£à¸°à¸£à¸²à¸Ĭ à¸Ķà¸³à¸£
à¸Ĺà¸§ à¸²à¸£
à¸°à¹Ģà¸¢ à¸²
ĠUFA BET
à¸ļ à¸¥à¸ĩ
à¹ĥà¸Ļ à¸Ĥà¸ĵà¸°à¸Ļ
à¸Īà¸²à¸ģ à¸«à¸Ļ
Ġà¸Ī à¸³
à¸Ļà¸Ĺà¸²à¸ĩ à¸Ķ
à¹Ģà¸Ĥà¸ķ à¸ŀ
à¹Ģà¸Ńà¸Ł à¹Ģà¸Ń
Ġpant ip
àºŃàºļ à»ĢàºĤàºĶ
à¸ı à¸«à¸¡à¸²à¸¢
à¸ĩà¸Ħ à¸²
AT A
à¸Ńà¸Ļ à¸¥à¸°
à¸²à¸£ à¸§à¸¡
ĠL INE
19 1
Ġàºŀ àº²àºļ
T R
àº°àºĻ àº°àºĻ
Ġh el
ĠàºĹàº²àºĩ àºĶ
ĠP ap
à»Ģàº§ àºĻ
Ġsusp ek
àºĻ àºģàº²àºĻàºĽ
àºģ à»Ģàº®
àºŃàºĻàº¥ àº²àºį
ĠD C
X L
ĠCast le
S k
re g
b alik
Ġh ar
uh ian
ĠP enn
le ar
h Ã´ne
Ġbay lo
ĠMu á¸©Äģfaz
àºŀ àº£
Ġplay er
àºĩ àºĤàºŃàºĩàºĹ
Ġà¶Ĩà¶¯ à¶»à¶«
vel le
àº²àºĻàº§ àºį
**** ****
Ġins ekto
Ġpok er
àº²àºĶ àºģ
Ġton nes
g un
àºŃàºĩ àºģàº²àºĻàºª
ĠP ack
uc ation
Ġb rowser
Ġj ud
ĠBu char
ĠBuchar est
ĠC N
ib id
ĠNou velle
à»Ģàº« àºĶàºģàº²àºĻ
666666 67
ugo on
Äįel nik
Ġàºģàº²àºĻ à»ĢàºĦ
à¸ģ à¹ĥà¸ª
à¸¥ à¹Ģà¸ĩ
à¸Ĺ à¸ļ
à¸ļ à¹ģà¸Ħ
à¸ķ à¹Ģà¸ŀ
à¸²à¸¢ à¸ľà¸¥
à¸²à¸¡ à¸Ļ
à¹ģà¸¥à¸° à¹ĥà¸Ĭ
Ġà¶¶ à¶§
à¸Ĥà¸Ńà¸ĩ à¸ŀà¸£à¸°à¸Ńà¸ĩà¸Ħ
à¹Ħà¸Ľ à¸ĭ
Ġà¸Ĺ à¸ļà¸Ĺà¸§à¸Ļ
Ġà¹ģà¸¥à¸° à¸Ľà¸£
à¸ĩà¸²à¸Ļ à¸Ń
à¸Ļà¸Ļ à¸Ńà¸Ļ
à¸Ĺà¸²à¸ĩ à¸ģ
à¸Ĺà¸²à¸ĩ à¸Ĭ
à¹Ģà¸¥à¸¢ à¸ķ
à¸ĩà¹ģ à¸ªà¸Ķ
Ġà¸Ĺà¸³ à¸Ħà¸§à¸²à¸¡à¸ªà¸°à¸Ńà¸²à¸Ķ
à¸£à¸ĵ à¸²à¸ģà¸²à¸£
à¸Ńà¸ģà¸²à¸£ à¸ª
à¸ŀà¸§à¸ģ à¹Ģà¸£à¸²
à¸Ĭà¸²à¸¢ à¹ģà¸Ķà¸Ļ
Ġà¸ģà¸£à¸° à¹Ģà¸Ĺ
Ġà¸ľà¸¡ à¸¡
Ġà¹Ħ à¸ŀ
à¸²à¹Ģà¸¥ à¸ĭ
Ġà¹Ĥà¸£à¸Ħ à¸ľ
à¸Ļà¸Ĺà¸³ à¸ĩà¸²à¸Ļ
à¹ģà¸ªà¸Ķà¸ĩ à¹Ĥà¸Ķà¸¢
Ġà¹Ĥà¸ķ à¹Ĥà¸¢à¸ķ
à¹Ģà¸ļà¸¥ à¹Ģà¸¢
Ġ à¸łà¸²à¸¢à¸«à¸¥
à¸ģ à¸ķà¸£
à¸¡ à¸²à¸§
Ġà¸ª à¸²à¸§à¸Ļ
Ġà¸Ļ à¸§à¸Ķ
Ġà¸Ĥ à¸Ńà¹Ģà¸Ĭ
à¸²à¸Ľà¸£à¸° à¹Ģà¸łà¸Ĺ
Ġà¸Ļà¸³ à¹Ĥà¸Ķà¸¢
à¸Ń à¸Ħà¸§à¸²à¸¡à¸£
à¸²à¸ĩ à¸ģà¸§
Ġà¶¸à·Ħ à¶¢à¶±à¶Ń
Ġkal ampusan
à¸¢à¸ļ à¹Ģà¸Ļ
ĠHaut s
Ġapost oles
F ull
à¸ļà¸ģà¸²à¸£ à¸¢à¸Ńà¸¡à¸£
à¹Ħà¸Ń à¸ĭ
3 80
àº¹ ,
ĠX box
uman on
Ġnam an
Ġlis ensya
àº²àºĶ àºĸàº°à»ľ
à¸²à¸« à¸Ļà¸°
5 90
àºĻ à»Ŀ
ĠL uz
Ġkab alaka
IN I
O ff
àºĩàºĹ àº³àºŃ
352 66666
ett ing
àºĦàº§ àºļàºĦ
w i
irt ual
àº²àºªàº°àº« àº°àº¥
à·Ģà¶» à¶±
àº½àºĩ àºª
. ]
Ġàº¡àº²àºĶ àºķàº°
ib ya
et nam
10 80
f ort
ĠR atch
àºĩ à»ĢàºŃ
Aqu itaine
àº¼àº· âĢĭ
àº°àº« àº°àº¥
àº²àºŃ àº²àºĶ
ĠSr b
Ġsh ow
6 50
àº²àºĩ à»ĢàºĹ
Ġà¶ĭ à¶¯à¶º
ĠR el
ĠàºĪàº° à»ĢàºĽ
Ġb lack
ĠS ul
ĠpodruÄį ju
àº¥ àº²àºĩàº§
ĠEn d
in da
os is
ĠP lat
Ġà·ĥà¶§à·Ħà¶± à¶ļ
Ġsred njoj
àºŃàºŃàºģ àº¡àº²
à¶ļ à¶ľà¶Ń
à¶¢ à¶½
S U
Ġà¶Ĵ à¶ļà¶º
àºĻàº³ à»ĢàºŃ
w orm
ĠA th
b ong
àº½àº§ àºĹ
Ġà»ĤàºĹ àº¥àº°
àº¥ àº§àºĩàº§àº½àºĩàºĪ
ier ungs
Ġsal og
Ġhimo on
Ġh apsay
U ban
P O
ĠT i
àºŀàº§àºģ àºĻ
en er
Ġnagt udlo
àº½ àºĩàºĹ
à¸µ "
à¸Ķ à¹Ģà¸¥à¸¢
à¸¢ à¸ªà¸³à¸Ħ
à¸Ľ à¸£à¸¡
à¸²à¸¢ à¸ļà¸£
à¸²à¸¡ à¸§
Ġà¸Ĺ à¸Ńà¸ĩ
à¸Ńà¸Ķ à¹Ģà¸¥
à¸¢à¸§ à¸£
à¹Ģà¸Ļ à¸ģ
à¸§à¸ĩ à¸¤à¸Ķ
à¸Ńà¸ª à¸ĩà¸§à¸Ļà¸ª
à¸Īà¸³ à¹Ħà¸Ķ
à¸ĩà¸Ħ à¸¡à¸Ĺ
à¹ģà¸¡ à¸¥à¸ĩ
Ġà¹Ģà¸£ à¸²
à¸Ĺà¸ĺ à¸¨à¸²à¸ªà¸Ļà¸²
à¸Ļà¸Ĭ à¸¡
à¸ªà¸²à¸£ à¹Ģà¸Ħà¸¡
à¸¡à¸« à¸²à¸¨à¸²à¸¥
à¸ĩà¸Ń à¸²à¸£
à¸ªà¸²à¸§ à¸Ļ
Ġà¸£à¸²à¸Ħà¸² à¹Ħà¸¡
à¸Ķà¸²à¸§ à¸¢
à¸¥à¸²à¸Ķ à¸ŀà¸£
Ġà¸Ķà¸²à¸§ à¸¢
Ġà¹Ģà¸¥à¸Ĥ à¸Ĺ
à¸¡à¸Ńà¸ļ à¹ĥà¸«
Ġà¹ģà¸ļ à¸ĩà¸Ħ
ĠDa inese
à¸Ļà¸ªà¸§à¸¢ à¸ĩà¸²à¸¡
à¸¢à¸Ńà¸¡à¹ĥà¸Ħà¸£ à¸ĩ
à¸ĩ à¸Īà¸£
à¸²à¸ĩ à¹Ģà¸Ĺ
à¹ĥà¸Ļ à¸Ħà¸£à¸Ńà¸ļà¸Ħà¸£
à¹ģà¸ļà¸ļ à¸ŀ
à¸Ļà¸¡ à¸Ļ
à¸²à¸Īà¸° à¹Ģà¸¥
à¸ģà¸²à¸£à¸Ĥ à¸Ļà¸ª
à¸§à¸¢à¸Ĥ à¸§à¸²à¸ĩ
om end
à¸Ńà¸ķ à¹Ģà¸ķà¸Ńà¸£
à»ĤàºĦ àºĩàº¥
Ġpangh unahuna
us en
àºĹàº²àºĩ àº¥
àºĻàº« àº¥
at ors
à¶« à¶»à¶Ń
ĠB ini
àºģàº²àºĻ à»Ģàºŀ
199 8
tr act
r ate
àºĤ àº°àºĻàº°
Ġk op
à¶´ à¶«
àºªàº¥ àº²àº¡
à»Ĥ àºĻàº¡
Ġdis k
àºĶ à»ĢàºŃ
T an
Ġf unction
uz uki
d ale
um e
àºĻàº³ àºŀ
è¡ Ĺ
®ðŁĺ ®ðŁĺ
àºĤ àº°à»ľàº²àºĶ
àº²àº¥ àº§àº¡
àºļàºģàº²àºĻàº ļ
apit an
áº ¿
D ugang
19 80
àºŃàºĩ à»Ģàº®
ĠBad en
on i
Ġpag laum
à»ĥàºĻ à»ĢàºĤàºĶ
àºĻàºĽàº°à»Ĥàº«àºį àºĶ
ĠP RO
ĠCom mun
àº§ àºŃ
r ich
àºŃàºĻ à»ĥàº«
Ġpagp ugong
Ġnak ah
n c
ĠS ing
Ġàºģàº§ àºĶàºģ
v r
ig al
àºĽàº° à»ĢàºŀàºĶ
âĨ Ĳ
b ezirk
à·Ĭ !
Ġà¶ĩà¶Ń à¶Ń
ĠReg ierungs
ĠRegierungs bezirk
ĠK im
à¶§ à¶»à¶§
sa w
ĠF at
p al
à¸ģ à¸Ľà¸ı
à¸Ķ à¹Ģà¸ļ
à¸¢ à¸Ħà¸£
à¸Ħ à¹ĥà¸«à¸¡
à¸Ľ à¸İ
à¸²à¸¢ à¹ģà¸£à¸ĩ
à¸²à¸ģ à¸Ĺ
à¸Ĥà¸Ńà¸ĩ à¸Ľà¸£à¸°à¹Ģà¸Ĺà¸¨à¹Ħà¸Ĺà¸¢
à¸Ħà¸£ à¸ļà¸£à¸Ńà¸ļ
à¸į à¹ĥà¸«
Ġà¹ģà¸¥à¸° à¹Ģà¸¥
Ġà¸¡ à¸²à¸¥
à¸²à¸ŀ à¸Ļ
ĠT in
à¸ģà¸© à¸²à¸Ńà¸¢
Ġà¸Ľ à¸¥à¸²à¸¢
à¸Ńà¸ª à¸Ļ
Ġà¸ľ à¸Ń
Ġà¸ĸ à¸Ļ
à¸ªà¸²à¸¡à¸²à¸£à¸ĸ à¸Ķ
à¸ĺà¸£à¸£à¸¡ à¸£à¸²à¸Ĭ
à¸Ļà¹ģ à¸ľà¸¥
Ġv ersion
à¹Ĥà¸£ à¹ģà¸¡à¸Ļà¸ķ
à¸ļà¸Ħà¸§à¸²à¸¡ à¹Ģà¸ª
à¸ĩà¸Īà¸° à¸ķ
à¸§à¹Ħà¸Ľ à¸Ĺ
à¸ķà¸Ńà¸ļ à¸£
Ġà¸ĩ à¸§à¸Ķ
à¸ŀà¸²à¸ģ à¸¢
ĠTam ron
Ġà¹Ĥà¸Ńà¸ģ à¸²à¸ª
d al
àº²àºį à»ģàº®àºĩ
à¸ķà¸£ à¸Ĭ
à¸ļà¸Ĺ à¹Ģà¸£
à¸Ķà¸ģ à¸İà¸«à¸¡à¸²à¸¢
à¸Ńà¸²à¸Ī à¸Ĺà¸³à¹ĥà¸«
Ġà¹ģà¸ļà¸ļ à¸Ļ
Ġà¸Ń à¸¥
Ġà¸¥ à¸°
àºĻàºķàº°àº¥ àº²àºį
à¸ģà¸©à¸² à¹Ħà¸Ķ
àº«àº²àºĻ àºĩàº²àºĻàºª
ol f
ĠG ob
ap ay
ĠO ct
p age
ash ion
Ġà¶ĳ à¶©
Ï Ħ
àºĩ à»ģàºģ
à¶ºà·Ģà¶» à¶ļ
ĠM exico
od o
Ġch ar
ĠCan ton
àº§ à»ĥàºĪ
àºĩàº« àºĻ
Ġnagkalain laing
àºĶ à»ĥà»Ŀ
à¶® à¶ļà·Ģ
àºĶ àº®àº½
Ġmag ti
àº²àºĻàºª àº°
Ġmot uo
àºĶ àº«àº§àº½àºĶàºĻàº²àº¡
Q L
f at
ĠCh rist
Ġsin ulat
Ġmagh imo
Ã¤ n
Ġting ub
Ġlum ad
20 9
Ġà¶ħà¶´ à·Ģ
Ġnah abilin
ibers idad
am ar
à·ı. âĢĿ
st on
ĠMark eting
Ġinst it
f ox
àº§àº¡ àº¢
Ġilim non
à¶³ à¶ľ
E G
ed onia
f ect
E d
àº² àºģàº²àºĻàºĽ
ĠT HA
f ul
àºŃàºļ àº²àº¡àº²
à»Į .
ĠðŁ ĺ
Ġcam era
Y K
k or
Ġb re
Ġà¶Ĩ à¶´à¶¯
op e
à¸² à¹Ĥà¸Ķ
à¸Ĺ à¸Ħ
à¸ļ à¹ĥà¸Ħà¸£
à¹Ħ à¸ģà¸£
à¸Ĥ à¸Ńà¸Ļà¹ģà¸ģ
à¸²à¸ĩ à¸¡à¸²à¸ģà¸¡à¸²à¸¢
à¹ĥà¸Ļ à¸ĭ
à¸Ńà¸ģ à¸¢
à¸Ńà¸ģ à¸Ĥ
à¸²à¸§ à¹Ĩ
Ġà¸ģ à¸²à¹ģà¸Ł
à¹Ģà¸Ķ à¸£
Ġà¸¡ à¸¥
Ġà¸Ħ à¸ªà¸Ĭ
à¸¢à¸§ à¸Ħ
à¹Ģà¸Ń à¸§
à¸Ĳ à¸§
à¸£à¸Ħ à¸¡à¸Ļà¸²à¸Ħà¸¡
à¸Ļà¸§ à¸²à¸¢
à¸²à¸Īà¸° à¹ĥà¸«
Ġà¸Ľà¸£à¸° à¸«à¸¢
à¸Ļà¸¢ à¸Ńà¸¡
à¸Ńà¸ĩà¸Īà¸²à¸ģ à¹Ģà¸Ľ
à¸©à¸¢ à¸Ĭà¸Ļ
Ġà¸£à¸²à¸Ħ à¸²à¸ķ
à¸ĩà¸ĩà¸²à¸Ļ à¸Ĺ
à¸Ńà¸ĩà¸£à¸²à¸§ à¸Ĥà¸Ńà¸ĩ
à¸£à¸² à¹Ģà¸Ńà¸¡
Ġà¹Ģà¸ŀà¸¨ à¸ª
Ġà¸¥à¸²à¸Ķ à¸ŀà¸£
à¸¢à¸ļà¸ª à¸ĩà¸ļ
Ġà¸ģà¸ªà¸Ĺ à¸Ĭ
à¸ģà¸²à¸£ à¹Ģà¸ª
Ġà¹ģà¸¥à¸° à¸ĭ
à¸Ĺà¸³à¸ĩà¸²à¸Ļ à¸£
à¸ŀà¸§à¸ģ à¸Ĺ
à¸Ńà¸¢à¸²à¸ģ à¸£
à¸Īà¸Ńà¸¡ à¹Ģà¸ģà¸¥
à¸³ à¹Ĩ
à¸²à¸§ à¹Ģà¸Ķ
Ġà¸Īà¸° à¹ĥà¸Ĭ
ult ure
à¹Ģà¸ģà¸©à¸ķà¸£ à¸¨à¸²à¸ªà¸ķà¸£
à¸³ à¹ģà¸¥à¸°
ub le
Ġàº¢ àº²àºģ
O K
Ġgib ug
Ġsch ool
àºļàºª àº§àºĻ
àºļ à»Ģàºŀ
Ġd uwa
àº²àºĩ à»ģàºľ
Ġp ass
àº¡ à»ĢàºĶ
ĠCar bon
amat i
Ġsy udad
à»Ħ àº«àº¡
à¶»à¶ļ à¶Ńà¶±
15 6
Ġà¶ħà·ĥ à¶Ń
Ġnag ag
ĠT ab
L C
or age
Ġ ic
Ġà·Ħà¶¯ à¶´
Ġà·Ħà¶¯ à¶±à·Ģ
Ġmih atag
Ġpags uporta
Ġmi aging
à·Ħ à¶ľ
Ġmat uman
eg ov
Lo ire
Ġpanag h
ĠD aghang
àº²àºĻ à»Ģàº§
àº½ àºĻàºģ
fer ence
Ġà·Ģ à·Ģ
Ñ ĸ
ra ft
z en
Î ¿
b ook
f al
ĠH y
Ġh ard
ĠM ach
Ġreg istration
O D
à¶Ń à·Ģà¶¯
Ġà»Ĥ àºĬ
iz z
Ġrebol usyon
eg uro
Ġà¶´à¶¯ à·Ģ
àº²àºĻ à»ĢàºĤ
àº½àºĻàº¥ àº°àºŀàº²àºļ
à¸² à¹Ģà¸ĺ
à¸ģ à¸ł
à¸¡ à¸²à¸Ī
à¸Ķ à¹ģà¸Ļ
à¸Ķ à¸ģà¸£à¸°à¸Ĺ
à¸Ķ à¸ģà¸£à¸°à¸Ĺà¸£à¸§à¸ĩ
à¸¥ à¸ľ
à¸« à¸²à¸ł
à¹Į :
à¸ģà¸²à¸£ à¸«
à¸ĸ à¸²à¸§à¸£
à¹ĥà¸Ļ à¸ģà¸£
à¸Ńà¸ģ à¸Ħ
à¸¨ à¸ª
à¸Ħà¸§à¸²à¸¡ à¹Ģà¸ģ
Ġà¸Ļ à¸ŀ
à¹Ģà¸Ń à¸ªà¹Ģà¸ķà¸Ńà¸£
à¸§à¸ĩ à¸ŀ
à¸¢à¸ĩ à¸¥
Ġà¸ļ à¸²à¸ĩà¸ģà¸Ńà¸ģ
Ġà¸Ĭ à¸§à¸Ļ
Ġà¸ģà¸²à¸£ à¹Ģà¸Ľ
à¸¢à¸¡ à¸Ķ
à¸ªà¸£ à¸²à¹Ģà¸Ńà¸¥
à¸Ļà¸Ĺà¸²à¸ĩ à¹Ħà¸Ľà¸¢
à¸Ńà¸ģà¸²à¸£ à¹Ģà¸¥
à¸Ĺà¸³à¸ĩà¸²à¸Ļ à¸Ĺ
à¸ĩà¸Īà¸° à¸Ĭ
à¸ĵà¸łà¸²à¸ŀ à¸Ĺ
à¸Ķà¸¡ à¸ªà¸¡à¸ļ
à¹Ĥà¸Ħ à¸¥à¸ĩ
à¸¡à¸Ĭ à¸Ļà¸Ĺ
à¸ģà¸³à¸«à¸Ļ à¸Ķà¹ĥà¸«
à¸Ļà¸Ħà¸§à¸²à¸¡ à¸ĸ
à¸Ńà¸ĩà¸Ń à¸²à¸¨
Ġà¸Ŀ à¸²à¸ģ
ĠInd ia
à¸ŀà¸¤ à¸¨à¸Ī
à¸Ħà¹Ģà¸ģ à¸Ī
Ġà¹ģà¸Ľà¸¥ à¸§
à¸²à¸įà¸Ī à¸Ļà¸ļ
à¸¡à¸«à¸²à¸ģ à¸©
à¸¢ à¸Īà¸²à¸ģ
à¸Ľ à¸«
à¸Ĥ à¸Ļà¸¢
Ġà¹ģà¸¥à¸° à¹Ģà¸ģ
à¹Ģà¸Ħ à¸ª
à¹Ģà¸Ń à¸²à¸ķ
à¸²à¸Īà¸° à¸¢
à¹Ĥà¸ŀ à¸ª
à¹Ģà¸§à¸¥ à¸²à¸ķ
Ġ ord
Ġà¸ª à¸£à¸°à¸§
à¸ļà¸Ĺ à¸£à¸²à¸ļ
à·Ķ ÂŃ
Ġkit ang
àºŃàºĩ à»ĢàºĽ
Ġakt ibo
Ġmod ernong
Ġter eyn
ob o
Ġn ahim
à¸§ à¹Ģà¸Ĭ
à¸§à¸¢ à¸«à¸Ļ
ĠA z
ur on
Ġkatig ulangan
Ġàºģ àºŃàºĩàºĹ
ĠAn kara
ĠZ ar
ĠSan tiago
à·ļ âĢ¦
ib an
àº²àºĽàº° àºķ
à· ²
ur t
Ġpags imba
àºķàº²àº¡ àºĹ
h il
àº²àºĻ àºģàº²àºĻàºª
àºŃàºį àº°
Ġà·Ħ à¶ºà¶ļ
Ġcook ies
á» ĵ
S er
ĠT ime
ĠS HO
Ġc ustom
Ġà¶¸à¶Ń à¶ºà¶ļ
Ġà·ĥà¶Ł à¶»
ĠCh apter
à»Ģàºŀàº²àº° àº§
ĠDig est
h ip
ĠM T
17 6
àº¡àºĩ àº§àºĶ
àºĻàºŃ àºŃàºĻà»Ħàº¥àºĻ
Ġmil itar
ĠL ag
Ġis ig
Ġsil ot
Ġà·Ģ à¶»à¶º
Ġpagk ontrol
ĠV ar
Ġbah andi
ad s
Ġik aduhang
Ġpagkak aron
# #
Ġpad ulong
Ġà¶ħà¶´ à¶±à¶ºà¶±
k t
ahin umdom
Ġbin hi
ĠTur k
Ġsegur idad
à¸Ļ à¸¡à¸²à¸ģà¸Ĺ
à¸ĩ à¹Ĥà¸£à¸Īà¸Ļ
à¶Ń à¶¸à¶º
à¸²à¸¡ à¸²à¸ª
à¹ĥà¸Ļ à¹ĥà¸Ī
à¸Ńà¸¢ à¸«
à¸Ńà¸¢ à¸«à¸Ļ
à¸Ĥà¸Ńà¸ĩ à¸£à¸°à¸ļà¸ļ
Ġà¸ª à¸Ķ
à¸«à¸¥ à¹Ĥà¸¢à¸ĺ
à¹Ģà¸Ĺ à¸Ħ
re ct
Ġà¸Ķ à¸²à¸£à¸²
à¸Ħà¸Ļ à¸ķ
à¸ģà¸£à¸° à¸ļà¸Ńà¸ģ
à¹ģà¸ļà¸ļ à¸ļ
à¹Ħà¸Ĺà¸¢ à¹ģà¸¥à¸Ļà¸Ķ
à¸Ĺà¸²à¸ĩ à¸ļ
à¸Ĺà¸²à¸ĩ à¸ģà¸²à¸£à¸¨
à¹ĥà¸Ļà¸ģà¸²à¸£ à¸Ĺ
Ġà¸Ľà¸£à¸°à¸ģ à¸Ńà¸ļà¸ģ
à¸²à¸ģà¸¥ à¸³à¸ļà¸²à¸ģ
à¸ĩà¸Ħà¸§à¸²à¸¡ à¸ª
à¸²à¹ĥà¸Ļ à¸Ľ
Ġà¸«à¸²à¸ģ à¸Ĺ
Ġà¸ľà¸¥ à¸ļà¸Ńà¸¥
Ġà¸ªà¸²à¸§ à¸ªà¸§à¸¢
Ġà¸ķà¸£ à¸¡
Ġà¸Ńà¸²à¸Ħà¸²à¸£ à¸ŀà¸²à¸ĵ
à¹Ĥà¸ģà¸£ à¸ĺ
à¸Ń à¹Ħà¸§
à¸§ à¹Ģà¸¢
à¸Ķ à¹Ģà¸Ļ
à¹ģ à¸Łà¸£à¸Ļà¹Ħà¸Ĭà¸ª
à¸ģà¸²à¸£ à¸Ļà¸³
à¸²à¸ĩ à¹ģà¸£à¸ĩ
Ġà¶¯ à¶Ł
à¸ĸ à¸§
à¸Īà¸° à¸Ļ
Ġà¸ª à¸ļà¸²à¸¢
Ġkin ahanglang
ĠJ ul
à¹ĥà¸Ļà¸ģà¸²à¸£ à¸Ħ
à¹Ĥà¸ķ à¹Ģà¸ģ
Ġà¸ľà¸¡ à¸§
Ġà¸«à¸²à¸ģ à¹Ħà¸¡
à¸£à¸°à¸ļ à¸²à¸Ķ
à¸Ħà¸²à¸¢ à¹Ģà¸Ħ
à¸¡ à¹Ģà¸Ħà¸£
à¸¢ à¸²à¸§à¸Ļà¸²à¸Ļ
à¸ĩà¸ª à¸°
à¸£à¸ĸ à¸Ĺ
à»ģàºģ àº£
Ġtalagsa ong
Ġà¶ħ à·Ģà¶Ń
199 4
ĠM ang
Ġà¶ī à¶´
???????? ????????
ar is
F I
àºĹ àºŃàºĩ
Ġà»ĥàºĻàº Ĭ
apah ulay
ĠB ack
erb a
áº ¥
ĠColle ge
S K
lag an
ĠN ang
à»Į ,
ĠàºĪ àº°àºļ
ĠDevel opment
g ne
àºĩàº²àºĻàº ŀ
àºĻàºĬ àº²àºģàº²àºĻ
ĠL ouis
àº² à»ģàº¥
à¶µ à¶½à¶º
) âĢĿ
L e
à¶§ à¶ļà¶º
à¶· à¶ºà¶ļ
ĠàºĤ àº°àºĻàº°àºĹ
Ġko je
à¶»à¶º à¶º
n ic
Ġà¶ĩ à¶»à¶½
iv ery
et ta
Ġs port
Ġà¶¢à¶± à¶ļ
àº¼ àº»
ra in
àº²àºįàºĶ àº²àºį
Ġt or
àº²àºĻ à»Ģàº¥àºĤàº²àºĹ
Ġd er
ĠM isa
K ining
Ġpag e
Ġmak ag
Ġekonom iya
Ġmakapa ikag
ang tang
s og
Ġb aka
ro c
Ġà»ĦàºĬ àºįàº°
Ġmod e
j et
ĠD isc
34 8
ear ning
Ð¾Ð ²
àº² à»ĢàºĶ
à¶ľ à·Ģà¶Ń
ãĦĨ ãĦħ
lu uk
18 8
àº²àºĻ à»ĢàºŃàºĩ
ĠS ud
Ġà¶ħà¶¸ à¶Ńà¶»
à¸Ļ à¹Ģà¸ªà¸£
à¹Ģ à¸Ńà¸Ļ
à¸ģ à¹ģà¸Ļ
à¸¡ à¹ĥà¸Ĭ
à¸ļ à¸£à¸°à¸Ķ
à¹Ĥ à¸§
à¹Ģà¸Ĥ à¸Ļ
à¸¢à¸Ļ à¸¥
à¸²à¸Ħ à¸£à¸Ńà¸ļ
à¸ĩà¸ª à¸ĸà¸²à¸Ļà¸Ĺ
Ġà¹ģà¸ķ à¸ĩ
Ġà¹ĥà¸Ļ à¸ŀ
à¸ªà¸²à¸¡à¸²à¸£à¸ĸ à¸Ĭ
à¸ļà¸ģà¸²à¸£ à¸Ķ
à¸ļà¸Ļ à¹Ĥà¸¥à¸ģ
à¸ģà¸³ à¹ģà¸ŀà¸ĩà¹Ģà¸ŀà¸Ĭà¸£
à¹Ģà¸£à¸² à¹ĥà¸Ĭ
à¸Ĵà¸Ļ à¸²à¸¨
à¸¢à¸ļ à¹Ģà¸£
à¸¡à¸« à¸²à¸¢à¹ĥà¸Ī
Ġà¸® à¸²à¸£
à¸Ľà¸¥à¸²à¸¢ à¸Ľ
Ġà¸£à¸²à¸Ĭ à¸ļ
à¸ŀà¸£à¸£à¸Ħ à¸ģà¸²à¸£à¹Ģà¸¡
à¸ĩà¸Ħà¸²à¸£ à¸Ĺ
à¸²à¸£à¸²à¸¢ à¸ĵ
à¸¡à¸«à¸²à¸Ķ à¹Ħà¸Ĺà¸¢
M B
à¸ģà¸²à¸£ à¸ķà¸£à¸§à¸Īà¸ªà¸Ńà¸ļ
à¸Ńà¸¡ à¸Ĭ
à¸Ĺà¸³ à¸Ķ
à¸Ĭà¸Ļ à¸ļà¸Ĺ
à¹Ĥà¸Ķà¸¢ à¸ľ
à¸²à¸Īà¸° à¹Ģà¸ģ
à¸Ńà¸²à¸Ī à¹Ģà¸ģ
à¸ļà¸Ńà¸ģ à¸ģ
à¸ĩà¸ªà¸£ à¸£à¸Ħ
25 62
17 7
à¸Ńà¸Ł à¸Ł
àºĻà»ĥàºĻàº ķ
âĺħ âĺħ
Ġgo ogle
Ġà¶º à·Ģ
à¸ģà¸© à¸²à¸£à¸°à¸Ķ
Ã ²
à¸Ħ à¸Ľ
Ġàºį àº²àº¡
Æ ¡
à¶±à·Ģ à¶§
Äĩ e
àºªàº° àº¡
ĠAma zon
ĠN ote
ĠL an
Ġtemper atura
Ġà¶ħ à¶¸à¶±
ig ur
Ġ- âĹ¼
-.-âĹ¼ -.
-.-âĹ¼-.-âĹ¼-.-âĹ¼-.-âĹ¼-.-âĹ¼-.-âĹ¼-.-âĹ¼-.-âĹ¼ -.-âĹ¼-.-âĹ¼-.-âĹ¼-.-âĹ¼-.-âĹ¼-.-âĹ¼-.-âĹ¼-.-âĹ¼
Ġ-âĹ¼ -.-âĹ¼-.-âĹ¼-.-âĹ¼-.-âĹ¼-.-âĹ¼-.-âĹ¼-.-âĹ¼-.-âĹ¼-.-âĹ¼-.-âĹ¼-.-âĹ¼-.-âĹ¼-.-âĹ¼-.-âĹ¼-.-âĹ¼-.-âĹ¼
Ġ-âĹ¼-.-âĹ¼-.-âĹ¼-.-âĹ¼-.-âĹ¼-.-âĹ¼-.-âĹ¼-.-âĹ¼-.-âĹ¼-.-âĹ¼-.-âĹ¼-.-âĹ¼-.-âĹ¼-.-âĹ¼-.-âĹ¼-.-âĹ¼-.-âĹ¼ -.-âĹ¼-.
Ġà¶ĭ à¶¸
Ġà¶Ĩ à¶Ńà¶½
lan da
àºĤàºŃàºĩ àºĽàº°àºĬàº²àºĬ
ĠInst agram
c ie
àº§ àº°
Q u
ĠL imited
emb erg
Ġàºªàº° àºĸ
à·Ģà¶º à¶Ń
Ġà¶ħà¶¸ à¶»à·ĥ
ĠM X
à¶ļà¶» à¶ľà¶±
Ġtind ahan
. (
ĠSur iga
ĠLinn Ã©
om at
l ife
Ġàºķ àºŃàºļ
13 6
ĠRes ort
àº²àºĻ àº°
up od
Ġkah ulugan
ĠSak si
itng it
Ġga r
Ġkund i
Ġsa pa
Ġgan ahan
ir m
Ġgip atay
lu pan
Ġpagm ugna
ung g
Ġmah al
à¶» à¶±à¶º
p art
Ġre port
han ong
àº¡ àº½àºĻàº¡àº²
à¶½à¶° à¶»
da o
àºª àº§àºįàºĩàº²àº¡
Ġman ok
àº½ àºĻàºĹ
à¶¨ à¶¸
ĠNE W
àº²àºį àº¥
Ġà¶ļà·ĥ à·ħ
Ġ rom
Ġà¶¸à·Ħ à·Ģ
z y
à¸² à¹ģà¸Ĺ
à¸ĩ à¸į
à¸¡ à¸¡à¸²à¸ģ
à¸Ķ à¸ľà¸¡
à¸¥ à¹ģà¸¥à¸°
à¸ļ à¹ģà¸Ī
à¸ŀ à¸Ĭ
à¸Ĭ à¸²à¸Ĺ
à¸²à¸ĩ à¸ªà¸§à¸¢à¸ĩà¸²à¸¡
à¹ĥà¸Ļ à¸£à¸°à¸¢à¸°
à¸Ńà¸Ļ à¹Ģà¸ª
à¸ĵ à¹Ģà¸ŀ
à¸Ńà¸ģ à¹Ĥà¸ģ
à¸Īà¸° à¸ľ
à¸§à¸¢ à¸ļà¸£
Ġà¸ģ à¸©
à¹Ģà¸Ĥ à¸²à¸Ļ
à¸ķà¸£ à¸ª
Ġà¸ŀ à¸¨
à¸¢à¸§ à¹Ħà¸Ķ
à¸Ĺà¸¢ à¸²à¸Ħà¸¡
Ġà¸Ī à¸Ļà¸Ĺà¸³à¹ĥà¸«
Ġà¸¢ à¸²à¹Ģà¸ªà¸ŀà¸ķ
à¹Ĥà¸Ķà¸¢ à¸ª
à¹Ĥà¸¡ à¸¢
à¸ĩà¹ģ à¸Ł
Ġà¸Ĺà¸³ à¹Ħà¸Ķ
Ġà¸Ħà¸¥ à¸Ńà¸ĩà¸ª
à¸ļà¸§ à¸Ĭ
à¸ģà¸²à¸£à¸ķ à¸ģà¹ģà¸ķ
à¸Ľà¹ģà¸ļà¸ļ à¸Ĥà¸Ńà¸ĩ
Ġà¸Ńà¸Ńà¸ģ à¸¡à¸²
à¹Ģà¸® à¸²à¸ª
à¹ģà¸Ĺà¸ĩà¸ļà¸Ńà¸¥ à¸Ńà¸Ńà¸Ļà¹Ħà¸¥à¸Ļ
à¸Ļà¸Ńà¸ģ à¹Ģà¸«à¸Ļ
Ġ à¹ĥ
Ġà¸Ń à¸Ńà¸ģà¸Īà¸²à¸ģ
à¸§à¸¡ à¸ªà¸Ļ
à¸Ļà¹ģ à¸Ķà¸ĩ
à¸Ļà¹Ħà¸Ľ à¹ģà¸¥
à¸²à¹ģ à¸Ī
à¸Ļà¸Ħà¸§à¸²à¸¡ à¸Īà¸£
à¸Ķà¸Ĭà¸Ńà¸ļ à¸ķ
à¸Ĺà¹Ģà¸¡ à¸Ļà¸Ĺ
à¸Ńà¸Ļ à¸«à¸£
à¸§à¸Ļ à¹Ģà¸£
à¸Ļà¸Ļ à¸°à¸Ħà¸£
à¸«à¸²à¸£ à¸ĩà¸²à¸Ļ
à¸Ĺà¸³à¸ĩà¸²à¸Ļ à¸Ńà¸¢
Ġàºªàº°àº« àº°àºŀ
àº² à»ĢàºĦ
àº²àºį àºĪ
àºŃàºĩ à»ĦàºĬ
Ġà·Ģà¶½ à¶ļ
àº¥àº²àºį àºĬ
àºĶ à»ĢàºĦ
l is
s imalnoj
Ġmin imalnoj
mak simalnoj
le ase
à¶ľ à¶«à¶º
amb it
ro om
àºģ à»ĥàºĪ
à¸ļ à¸²à¸ĩà¸ģà¸Ńà¸ģ
à»ģàºĤàº§àºĩ àº§àº½àºĩàºĪ
àºĻàºĹàº²àºĩ àºĶ
and an
Ġgih imong
ĠS ara
Ġgr asya
Ã´ ng
Ġ ay
Ġni anang
Ġ Ø§
XX X
ĠDin hi
ban tay
ĠV ict
Ġàº¡àº°àº« àº²àº§
ist orya
àºĦàº§àº²àº¡ àºĪ
Ġpagp ab
ul uwas
199 2
ĠProvin cie
isg otan
00 1
3 000
n im
uh aduha
ĠG erman
ĠS ea
Ġkil at
ĠIm ong
ĠC AR
Ġpas undayag
ĠHer z
eb b
à»Ģàº« àºį
pl or
M L
àº§ àº¥
àº§ à»ģàºĹ
àº§àºĦ àº²àº§
2 99
àºª àº²àº§
ĠC PA
à¶ļà¶§ à¶¯
àºŃàºŃàºģ à»ĦàºĽ
G o
ĠPil ato
àºĻ à»Ħ
res h
22 1
k os
àºĻ àºģàº²àºĻàºĹ
ĠGro ve
à·Ĳ ,
ĠF ilip
18 00
ĠMus ic
à¶»à¶Ń à·Ģ
ix el
à¸Ļ à¸Ńà¸£
à¸ģ à¹ģà¸ªà¸Ķà¸ĩ
à¸ĩ à¸¥à¸°
à¸ĩ à¸«à¸¡à¸²à¸¢
à¸ļ à¹Ħà¸Ľà¸Ĺ
à¸Ńà¸ĩ à¸Īà¸£
à¸Ńà¸ĩ à¸Ĭà¸²à¸¢
à¸Ńà¸ĩ à¸Ķà¸Ļà¸ķà¸£
à¹Ĥ à¸Īà¸£
à¸²à¸Ļ à¹Ħà¸£
à¸²à¸Ļ à¸ªà¸²à¸§
à¸ģà¸²à¸£ à¸«à¸¥
à¸²à¸¢ à¹Ģà¸Ķ
à¹Ģà¸£ à¸Ń
à¸Īà¸° à¸§
à¸Īà¸° à¸Ĺ
Ġà¹ģà¸¥à¸° à¸Ħà¸§à¸²à¸¡
à¸Īà¸²à¸ģ à¸Ĥ
Ġà¸Ļ à¸°à¸Ħà¸£
à¸Ĺà¸³ à¸ķà¸²à¸¡
à¸ģà¸© à¸ĵà¸°à¸Ĺ
à¸¡à¸²à¸ģ à¸ĸ
à¸Ļà¸Ļ à¸²à¸ĩ
à¸ģà¸§ à¸²à¸ĩ
Ġà¸¥ à¸Ńà¸ĩ
à¸²à¸Ĥ à¸²
à¸Ńà¸Ħ à¹Ģà¸ķ
à¸Ļà¸£ à¸Ńà¸ļ
à¸Ļà¸« à¸²à¸ģ
à¸łà¸²à¸Ħ à¸Ń
à¸ĩà¸Ħà¸§à¸²à¸¡ à¹Ģà¸Ľ
à¸ķà¸Ńà¸ļ à¹Ĥà¸Īà¸Ĺà¸¢
à¸²à¸¬ à¸ª
à¸²à¹ģà¸¥ à¸ģà¹Ģà¸Ľà¸¥
à¸ĩà¸Ńà¸Ńà¸ģ à¹Ģà¸Ľ
Ġà¸ķà¸¥à¸Ńà¸Ķ à¸Īà¸Ļ
à¸ĭà¸Ńà¸Ł à¸Ĺ
à¸ªà¸§à¸¡ à¹ĥà¸ª
à¸Ļ à¹ĥà¸¢
à¸§ à¹ĥà¸«à¸į
à¸ķ à¸Ľ
à¸³ à¹Ħà¸£
on on
à¹Ħà¸Ľ à¹Ģà¸¥à¸¢
à¸Ńà¸¡ à¸ļà¸£
ĠT ri
à¸§à¸ĩ à¸«à¸¥
à¹Ħà¸¥ à¸Ķ
Ġà¶© à¶¶
Ġà¸ªà¸§à¸¢ à¸¡à¸²à¸ģ
à¸Ī à¸Ńà¸¢
ĠM em
à¸ĵà¸° à¸Ļ
à¸§à¹Ģà¸Ńà¸ĩ à¹Ħà¸Ķ
ĠàºªàºĽàºĽ àº¥àº²àº§
à¸² à¹ĥà¸Ķ
à¸Ī à¹Ħà¸Ķ
à¸Ļà¸ģà¸²à¸£ à¹Ģà¸¥
à¸Ľà¸ģà¸Ħà¸£ à¸Ńà¸ĩà¸ª
i us
å ¸
Ġdag way
Ġt ion
à¶³ à¶´
Ġhas ta
ĠE p
ac ija
kah oy
ĠN an
àºĤàºŃàºĩ àºŀàº§àºģà»ĢàºĤ
Ġpinak amaayo
ĠSec urity
Ġmap a
Ġmakad ungog
25 39
Ġkons eho
Ġàºª àº°àºŀàº²à»ģàº«
Ġmad awat
199 7
k er
ol ina
ĠE c
Ġmib iya
Ġawtor idad
àºĹàº³àº¡àº° àºĬàº²àºĶ
Ġp ula
je bel
Ġgi ila
Ġnad ungog
Ġàºªàº° à»Ħà»Ŀ
Ġgat us
à»ĤàºĪ àº¡
à¶´ à¶ºà¶±
Ġbal ak
Ñģ Ðº
Ġb uta
Ġà»ĥàºĻ àºģ
Ġiy ahang
K ab
in us
àºĩàºĬàº²àºĶ àº¥àº²àº§
ĠJud e
àºĻ à»Ħàºģ
à»ģàºļàºļ àºį
A h
E E
ĠÅ¡ k
ĠFix er
à¶» à¶§à¶¸
ran ch
L O
C A
Ġl ot
ĠB it
Ġ à»Ĩ
ar eh
Ad visor
ĠTrip Advisor
àº° àºĬàº§àºĩ
C on
àºªàº° à»Ģà»Ŀ
Ġc rosstrek
ĠOcc itan
L INE
àºľ àº°
Ġapl ikasyon
Ġàº¥ àº§àº¡àº¡
ol ar
Ġà»Ģàº ľ
6666666666666666666666666666666666666666666666666666666666666666 66666666666666666666666666666666
l uluwas
t os
àºĻàºĶ àº²àºªàº°
à¸ģ à¹Ģà¸ĩ
à¸¡ à¸²à¸¡
à¸¡ à¹Ģà¸¨à¸£
à¸Ľ à¸°à¸Ĺ
à¸Ĥ à¸Ī
à¸²à¸Ļ à¸ģà¸¥
à¸ģà¸²à¸£ à¸Ńà¸¢
à¸²à¸ĩ à¸¥à¸°à¹Ģà¸Ń
à¸ĸ à¸¡
à¸Ħà¸£ à¸Ħà¸²à¸ª
Ġh ealth
à¸¢à¸Ļ à¸ģà¸²à¸£à¸ªà¸Ńà¸Ļ
à¸²à¸ķ à¸Ńà¸ļ
à¸²à¸ķ à¸¥à¸²à¸Ķ
à¸Ĺà¸¢ à¸²à¸ģà¸£
à¸§à¸ĩ à¹Ģà¸ĩ
à¸ľà¸¥ à¸Ľà¸£à¸°à¹Ĥà¸¢à¸Ĭà¸Ļ
Ġà¸ĭ à¸²à¸Ļ
à¸Ĺà¸²à¸ĩ à¸ĺ
Ġà¸¥ à¸°à¸Ħà¸£
à¸¥à¸° à¸ª
à¹Ħà¸§ à¸Ĺ
à¹Ĥà¸Ľà¸£ à¹Ģà¸Ī
à¹Ĥà¸Ľà¸£ à¹Ĥà¸¡à¸Ĺ
Ġà¹Ģà¸« à¸Ļ
Ġà¹Ģà¸Ĺ à¸ŀ
à¸ļà¸Ħà¸§à¸²à¸¡ à¸ª
à¸Ļà¹Ģà¸ģ à¸Ńà¸£
à¸ĩà¹ĥà¸Ī à¹ĥà¸«
à¸Ńà¸³à¸Ļ à¸§à¸¢
Ġà¸łà¸²à¸ŀ à¸¢à¸Ļà¸ķà¸£
à¹ģà¸ªà¸Ķà¸ĩ à¸Ńà¸Ńà¸ģ
à¸Ħà¹Ģà¸ģ à¸Ńà¸£
à¸ĩà¸ľà¸¥à¸ģà¸£à¸°à¸Ĺ à¸ļà¸ķ
à¸Ń à¸Ĺà¸³à¸ģà¸²à¸£
à¸ģ à¸Ļà¸³
à¸¢ à¸Ľ
à¸²à¸¢ à¸ĸ
Ġg ustong
à¸ģà¸£ à¸ŀà¸£
à¸¢à¸§ à¸Ī
à¸ģà¸©à¸² à¹ģà¸¥à¸°
à¸Ńà¸Ń à¸²à¸¢
à¸Ļà¸¡à¸² à¹ģà¸¥
à¸¥à¸³ à¸ŀ
umd uman
à¹Ī -
à¹Ħ à¸Ńà¸Ļ
Ġn asak
à¸ķà¸²à¸¡ à¸«
agat an
à¸§à¸Ļ à¸ģà¸¥à¸²à¸ĩ
Ġsp ec
ĠX ia
Ġkasa lupan
àº½àºļ à»ĥàºª
ä ¹
or idad
Ġà¶Ĩ à¶©à¶¸
àºĩàº²àºĻàº ¥
à¶¯ à·Ģà¶±
ĠA uto
ĠO ro
Ġt iyan
Ġt im
à»Ģàºŀ àºĩ
à·ĥà¶½ à¶§
àº§ àº§
ĠSh ow
ĠàºĬ àº²àºĶ
ĠSax ony
Ġs os
ĠS hang
ĠM es
ĠEng ine
EN T
20 7
àºªàº° à»Ģàº«àºĻ
à»Ģàº¡ àº£
b ag
à¶» à·Ħà¶»
ĠGl oss
ĠM inn
àºĻàºĶàº² à»Ģàºľ
Ġsh op
ĠN eg
Ġh ave
ĠB ul
ĠL ap
. âĢĵ
il ang
Ġà·ĥà¶¸ à¶»
Ġmagd ula
àºģàº²àºĻ à»Ģàºģ
ĠD ur
à¶»à¶ł à¶«
Ġsigur ado
Ġà»Ĥ àºĽ
Ġmagti ayon
àºį àº¥àº°àº¡
Ġmakak aplag
Ġpahin a
àºŃ àºĬàº²àºĶ
Ġs umpay
à»ģàº¥àº° àº¡
Ġn on
ĠOccitan ie
Ġpagp adayon
àºŃ àºĪ
ak da
ot ang
so ci
ĠO hio
Ġà¶ĳà¶º à¶º
ĠV est
Ġmam um
áº§ n
id ungog
Ġpagl ikay
ĠPar iseo
Ġà¶´à¶½ à¶Ń
18 6
Ġà¶ļà¶½ à¶¶à¶½
ĠBar b
Ġnagkalain lain
àº¥àº²àºį à»ĦàºĶ
Ġpart ido
àºĩ à»Ģàº§
àº²àº§ àº«
h or
uw al
ĠA V
àºĩ à»ĢàºĶ
Ġà»Ģàº ¢
àºªàº° àº§
ed s
à¸Ļ à¹Ĥà¸Ħ
à¸¡ à¸Ħà¸§à¸¢
à¸¥ à¸Īà¸³à¹Ģà¸ŀà¸²à¸°
à¸¢ à¸łà¸²à¸ŀ
à¸ļ à¸Ńà¸ĩà¸Ħ
à¸ļ à¸ªà¸¡à¸²à¸Ĭ
à¸ķ à¸£à¸°
à¸ķ à¹Ħà¸¡
à¸° à¸¢
à¸²à¸Ļ à¸Ĭà¸¡
à¸Ńà¸Ļ à¹Ĥà¸ķ
à¸Ńà¸¢ à¸Ī
à¸Ħà¸§à¸²à¸¡ à¸¥à¸°à¹Ģà¸Ń
à¸Ļà¸Ļ à¸°à¸Ħà¸°
à¸¢à¸ĩ à¹Ģà¸Ĺ
ĠI d
à¹Ħà¸Ĺà¸¢ à¸¥
Ġà¸ģà¸²à¸£ à¸ĸ
Ġà¸« à¸²à¸£
à¸Ļà¸¡ à¸²à¸Ĺ
Ġà¸¢ à¸ģà¸ķ
à¹Ģà¸Ħà¸£ à¸Ļ
à¹Ģà¸Ńà¸ĩ à¸Ĺ
à¸²à¸ģà¸²à¸£ à¹Ģà¸¥
à¸¢à¸ģ à¸Ļ
à¸ŀà¸¢ à¸ŀ
à¸²à¹Ħà¸Ľ à¸ª
Ġà¸Ħà¸§à¸²à¸¡ à¹Ģà¸Ľ
à¸ģà¸²à¸¥ à¸«à¸Ļ
àºĬàº²àºį à»ģàºĶàºĻ
Ġà¸ªà¸§à¸¢ à¸ĩà¸²à¸¡
Ġà¹Ĥà¸Ľà¸£à¸Ķ à¸ķà¸£à¸§à¸Īà¸ªà¸Ńà¸ļ
ĠMark et
à¹ģà¸¡à¸Ļ à¸¯
à¹ģà¸Ĺà¸£à¸ģ à¸ĭ
à¸¢à¸Ķà¸Ĥà¸Ńà¸ĩ à¸ľà¸¥
à¸¨à¸ķ à¸§à¸£à¸£à¸©à¸Ĺ
à¸Ńà¸ĩ à¹ĥà¸Ļà¸§
à¸¢à¸ĩ à¹Ģà¸Ľ
à¸«à¸¥à¸²à¸¢ à¸Ĭà¸Ļ
Ġà¸«à¸²à¸ģ à¸ķ
à¸§à¸£à¸£à¸ĵ à¸ł
à¸Ĥà¸¢à¸²à¸¢ à¸ķ
à¸²à¸Ľà¸£à¸° à¸Īà¸³
Ġh i
à¸²à¸Ń à¸Ńà¸ģà¸Īà¸²à¸ģ
Ġàºŀ àº°àº¥
à¸£à¸ĸ à¸Ī
Ġà¶Į à·Ģ
Ġà¸Ń à¸ł
Ġpro te
ab ok
ug e
ĠL OVE
Ġà»Ģàºģ àº¡
àº§àºį àº§
àº°àºŀ àº°àºįàº²àºįàº²àº¡
ab al
ĠP NP
ĠO tt
20 6
à·Ģà¶» à¶¸
à»ĤàºŃàºģàº²àºĶ àºĹ
àº² à»ģàº®àºĩ
àº²àºĩ àºĬàº²àºĶ
er c
2 33
Ġ àºĻàºį
ĠA h
ĠF uj
Ġres pons
å ħ
Ġà¶µ à¶½
àºĻ à»ģàºĹ
ĠC up
ĠSk y
£ ®
Ġm ong
8 55
ĠN ev
inh ala
ed y
àº²àºĩ à»Ģàºķ
Ġhim aya
Ġb rown
àº²àºĩ àºľ
w ali
ĠB ukid
id ence
Ġpagp akigbahin
àº²àºĻàº®àºŃàºĩ àºĻàº²àºį
Ġbu ilding
Ãª n
ĠD jebel
ĠO F
Ġpan ap
Ġà¶Ľ à¶±
àºŀàº²àºģ à»ĥàºķ
ĠF M
c r
rib e
E ng
p apahulay
ĠE v
w idth
à·Ĥ à¶´
àºģàº²àºĻ à»ģàºģ
ir g
p re
àº² àºģàº²àºĻàºª
ĠA uver
Ġi ga
ĠAuver gne
ent on
àºŃàºĻàº ľ
à¹ī ...
à¸ĩ à¸Ľà¸£à¸°à¸¡à¸²à¸ĵ
à¸Ķ à¸Ľà¸£à¸°à¸Ĭ
à¸Ķ à¸«à¸¥à¸Ńà¸Ķà¹Ģà¸¥
à¸¥ à¹Ĥà¸Ĭ
à¸¢ à¸ĵ
à¸ª à¹Ĥà¸ķ
à¸²à¸£ à¸Ńà¸ļ
à¸Ńà¸ĩ à¹ģà¸«
à¸Ĭ à¸°
à¸²à¸¢ à¸ģà¸§
à¸²à¸ĩ à¸²à¸¡
à¸Ĥà¸Ńà¸ĩ à¸ķà¸Ļ
à¸ĵ à¹ĥà¸«
à¸Ńà¸ģ à¹Ħà¸ģ
à¸Ńà¸¡ à¸§
Ġà¸¡ à¸²à¸Ļ
à¸¢à¸Ļ à¸Ĥà¸Ńà¸ĩ
à¸¡à¸² à¹Ģà¸Ĥ
à¸Ŀ à¸Ļ
Ġà¹ĥà¸Ļ à¸¢
Ġà¹Ĥà¸Ķà¸¢ à¹Ģà¸£
à¸ķà¸²à¸¡ à¸ĺà¸£à¸£à¸¡à¸Ĭà¸²à¸ķ
à¸Ļà¹ģ à¸ª
à¹Ģà¸£à¸² à¹Ħà¸Ľ
à¸Ńà¸ĩà¸ģà¸²à¸£ à¸ķ
la zada
à¸Ļà¸Ĭ à¸²à¸§
à¹Ĥà¸Ń à¹Ģà¸Ļ
à¸ĩà¹ĥà¸Ļ à¸§
à¸ģà¸ĩà¸²à¸Ļ à¸Ħà¸ĵà¸°à¸ģà¸£à¸£à¸¡à¸ģà¸²à¸£
à¹ģà¸Ļà¸§ à¸Ĥ
à¸²à¹ĥà¸Ī à¸ľ
à¸ľà¸ªà¸¡ à¸ľà¸ªà¸²à¸Ļ
à¸ģà¸£à¸Ńà¸ļ à¹Ģà¸Ĥà¸ķà¹Ĥà¸Ĺà¸©
Ġà¹Ģà¸¥à¸Ĥ à¹Ģà¸Ķ
ĠManag er
à¸Ĭà¸¥ à¸Ľà¸£à¸°à¸Ĺà¸²à¸Ļ
à¸Ļ à¸£à¸²à¸Ħà¸²
Ġà¹ģ à¸Łà¸£
à¸§à¸Ļ à¸ľ
à¸Ńà¸ª à¸ĭ
à¸Ļà¸£ à¸Ńà¸¢
à¸ĩà¹ĥà¸Ļ à¸£
à¸ķà¸¥à¸²à¸Ķ à¸Ĺ
Ġà¸Ĥà¸ĵà¸° à¹Ģà¸Ķ
Ġà¹Ģà¸¨ à¸£à¸©à¸Ĳ
à¸ģà¸£à¸ŀà¸£ à¸£à¸Ķ
Ġà¸ĭ à¸Ńà¸ĩ
à¸ķà¸²à¸¡ à¸ģà¸İà¸«à¸¡à¸²à¸¢
Ġà»ĥàºĻ à»ĢàºĶ
àºŃ àºŃàºĻà»Ħàº¥àºĻ
Ġst ore
àºªàº°àºĸàº²àºĻ àº°
v it
Äĳ en
ĠB rown
ĠH and
Ġà»ĥàºĻàº Ľàº°
àº§ àº²àºį
Ġà¶¯ à¶½
23 6
Ġst at
Ġs ign
ĠKat oliko
à¹ģ à¸ļà¸ķ
à·Ģ à¶©
à·Ģ à·ģ
Ġkut ob
ĠR X
ĠS ta
à·Ĵ :
È Ļ
á ŀ
ĠÄº Äº
Ġgi isip
ugpah anan
à¶ļ à·Ģà¶½
à¶´ à¶±à¶ºà¶§
crip t
Ġsa dto
Ġà¶¯ à·Ģ
Ġmis ulod
Ġ que
Ġind ibid
Ġmagd ala
ĠÃŃ ÃŃ
Ġsud lanan
h en
Ġd ro
Ġb and
Ġgis ul
ç¥ ŀ
M X
Ġàºŀàº²àºį à»ĥàºĻ
ĠMa z
Ġos nov
ĠN am
ĠEx t
àºļ àºį
à¶ĭ à¶¹
à·Ĵ. âĢĿ
R hÃ´ne
àº²àº§ à»ĢàºĽ
Ġko j
Ð ±
à·ħà¶¹ à¶§
y at
àº¡àº°àº« àº²àº§
l ist
à¶ļà¶» à¶±à·Ģ
àºĶàºĸàº°àºļ àº²àºĻàº¥àº²àº§
Ġà¶¶ à·ħ
ĠO st
Ġpred sjednik
àº½ àºĻàº®
ent ino
Ġ--------------------- --------
Ġt ema
ĠY o
Ġsul ugoon
àºĩ à»Ģàºķ
à¸² à¹Ģà¸ĺà¸Ń
à¸ģ à¸Łà¸£
à¸ĩ à¸Ĭà¸Ļ
à¸§ à¹Ģà¸«à¸¥
à¸Ķ à¸Ľà¸£à¸°à¸ªà¸ĩà¸Ħ
à¸¢ à¸²à¸ļ
à¸Ĺ à¸§à¸Ķ
à¹Ħ à¸Ħà¸£
à¸²à¸ĩ à¸«à¸£
à¸²à¸ĩ à¹Ģà¸«
à¸§à¸¢ à¸Ńà¸Ńà¸Ļà¹Ħà¸¥à¸Ļ
à¸Ńà¸¡ à¹ģà¸¥
Ġà¹ģà¸¥à¸° à¸ªà¸£
à¸²à¸ª à¸§
Ġà¸Ī à¸Ńà¸£
à¸§à¸¡ à¸Ľà¸£à¸°à¸Ĭ
à¸ªà¸¡ à¸ģ
à¸ªà¸³ à¹Ģà¸Ļ
à¹Ĥà¸¥ à¸Ńà¸Ńà¸Ļà¹Ħà¸¥à¸Ļ
Ġà¹Ĥà¸Ķà¸¢ à¸Ħ
à¸ļà¸ģà¸²à¸£ à¹Ģà¸Ĥ
à¸§à¸Ķ à¸¡à¸Ļà¸ķ
à¸ľà¸¡ à¸¢
à¸ĩà¹ģ à¸ŀ
à¸Ķà¸Ĥ à¸Ļà¸²à¸Ķ
Ġà¹Ģà¸Ń à¸ªà¸ĭ
à¸Ńà¸Ń à¹Ģà¸Ķà¸Ńà¸£
à¸Ľà¸£à¸°à¹Ĥà¸¢ à¸Ħ
à¸ģà¸ļ à¸²à¸¨à¸ģ
à¸Ļà¸Ńà¸°à¹Ħà¸£ à¸Ĺ
à¸ªà¸£à¸£à¸ŀ à¸Ħ
à¸§à¸¢ à¹ģà¸ģ
Ġl ap
Ġà¹Ĥ à¸Ļ
à¸¢à¸Ļ à¸Ńà¸¢
Ġà¹Ģà¸ª à¸Ļà¸Ń
à¸įà¸« à¸²à¸Ļ
à¸ķà¸ģ à¹Ģà¸Ľ
Ġà¸ªà¸Ļà¹ĥà¸Ī à¸ķ
à¸ļ à¹ĥà¸«à¸¡
à¸Ĭ à¸²à¸Ķ
ug id
à¸²à¹ĥà¸Ī à¸ģ
àº°à»ģ àºĻàºĻ
Ġb enepisyo
ĠàºĻ àº²
Ġbar yo
à·Ĭ .....
àº¡ àºģàº²àºĻ
ĠEurope an
ĠD idto
d es
Ġpagt ubag
p ulong
Ã ¦
Ġgin ah
àºĶ à»ĢàºĹ
à¶© à¶ľ
ĠP ermalink
Ġsang lit
à¶´ à¶¸
à¶ ª
Ġnagt ukod
ati ngala
Ġkaliwat an
Ġà¶ľà¶« à¶±à¶º
àº¡ àºĪàº²àºģ
ĠF lat
àº£ àº²àº¥
àºĻàºĪ àº³àºĻàº§
àºĻ à»ĥàºĶ
àºĻàºĻàº°àºŀàº²àºļ àºª
Ġh an
ers isyo
Ġà¶ľà·Ħ à¶±à·Ģ
Ġà¶ħ à·Ģà¶±
th er
k op
Ġh ost
àº· .
àºĪ àº°àº«
àº²àº§ àºĦàº³à»Ģàº«
àº¡ à»Ģàºĩ
ĠX L
à»ĦàºĤ àºĤ
L anka
ound ation
Ġtu o
à¶ºà¶ľ à·Ħ
àºĻà»Ĩ àºĹ
àºĪàº° àºĸ
Ġà¶» à¶º
à¶® à¶ļà¶Ń
Ã± a
Ġcont act
Ġr un
16 4
à·Ħ à¶ºà¶±
à»ģàºŀ àºĶ
ian t
itt le
Ġàº« àº§àº½àºĶ
t ario
à·ĥà¶» à·Ħà¶§
àº¹à»Ī .
àº²àºĶ àºĹ
h ib
h u
Ġpagk as
E st
Ġp ors
Ġdagom kahoy
as ig
àº²àºģ àº³
ili sang
A ron
à¸Ń à¹Ģà¸«
à¸¡ à¸²à¸Ĥ
à¸Ńà¸ĩ à¸Ħà¸Ļ
à¸ŀ à¸Ńà¸Ĺ
à¸³ à¸Ļà¸¡
à¸²à¸ĩ à¸¢à¸Ńà¸Ķà¹Ģà¸¢
à¸§à¸¢ à¹Ģà¸Ĺà¸Ħà¹Ĥà¸Ļà¹Ĥà¸¥à¸¢
Ġà¹ģà¸¥à¸° à¹Ģà¸ª
à¹Ģà¸Ĥ à¸²à¹Ģà¸Ľ
ik ayan
à¸²à¸ª à¸¥
à¹Ģà¸Ī à¸Ļà¸ķ
à¸¢à¸ĩ à¸«
à¸ĩà¸Ĺ à¸°à¹Ģà¸¥
Ġà¸ģà¸²à¸£ à¸Ńà¸Ńà¸ģà¹ģà¸ļà¸ļ
à¹Ĥà¸Ķà¸¢ à¸ķà¸£
à¹Ģà¸Ńà¸ĩ à¹Ħà¸Ķ
à¸Ĵ à¸Ļà¸°
à¸£à¸²à¸Ĭ à¸§à¸ĩà¸¨
à¸Ļà¸Ĺà¸²à¸ĩ à¸ģà¸¥
Ġà¹Ģà¸Ń à¸²à¸ģ
à¸Ħà¸³ à¸ªà¸Ńà¸Ļ
à¸Ńà¸Ľ à¸ı
à¸²à¸¢à¸Ĺ à¸«à¸²à¸£
Ġà¸Ł à¸²à¸Ļ
à¹Ģà¸¥à¸Ĥ à¹Ģà¸Ķ
à¸ĩà¸ĩà¸²à¸Ļ à¸ģ
à¹Ĵ à¹Ķ
Ġà¸Ńà¸²à¸Ī à¸¡
à¸²à¸¡à¸²à¸ģ à¸¡à¸²à¸¢
à¸Ńà¸ªà¸²à¸£ à¹Ģà¸ŀ
Ġà¸ķà¸£ à¸§
à¸ļà¸²à¸£ à¸¡
à¹Ģà¸Īà¸²à¸° à¸Ī
Ġà¹Ĥà¸Ľà¸£à¸Ķ à¹Ħà¸Ľà¸Ĺ
Ġà¹Ģà¸Ĺà¸¨ à¸ļà¸²à¸¥
Ġ à¸ĺà¸£à¸£à¸¡à¸Ĭà¸²à¸ķ
à¸ģ à¸ļà¸£
à¸Ķ à¸Īà¸£
à¸ģà¸²à¸£ à¸Ľà¸£à¸°à¹Ģà¸¡
à¹Ģà¸ķ à¸Ļ
à¹ģà¸ķ à¸ģà¹ĥà¸Ļ
à¸«à¸¢ à¸²à¸ļ
ĠPo inte
Ġà¹Ģà¸Ł à¸£
Ġà¸Ħà¸³ à¸§
à¹Ģà¸§à¸¥ à¸²à¸Ń
Ġà¸Ĥà¸²à¸¢ à¸ļ
Ġip a
à¶ĩ à¶±
Ġbar ato
Ġg ingan
ĠBe aut
Ġpin ans
å Į
ik ula
Ġpel ikula
Ġmak inar
Ġmakinar ya
àºĶàºķàº° à»ĤàºĻàº¡
ĠBo x
ab on
à·ħà¶³ à¶´
ĠHD MI
à¶Ĭ à¶º
18 7
Ġà¶ħà¶º à¶¯
Ġb ab
ic ol
àºĦàº°àºĻàº° àºļ
àºĻ à»ĥàºª
ih ag
àº°àº«àºĻàº²àºĶ àºĻ
Ġka teg
Ġs ent
Ġà¶ħ à¶ł
A g
Ġe ff
ĠJak arta
à¶© à¶½à¶ºà¶§
æ §
Ġà¶ļà¶« à¶ľ
Â´ Â´
z er
ug da
ĠN ar
ini a
Ġàºŀàº²àºģ àºª
ĠàºĶ àº³à»ĢàºĻ
à¶ĳ à¶Ńà¶ļ
ĠB and
àºĹàº³ àºŃ
um oy
ĠS us
ĠGen eral
Ġpag too
ĠBal ita
% .
àºĶ àºģàº²àºĻàºª
am go
Ä ¾
ĠPol onya
i ro
Â «
ĠPow iat
àº²àº¡àº²àºĶ àºķàº°
Ġslot s
ĠM and
Ġmakatag amtam
el ine
igayon an
Ġma alam
ob e
Ġà»ģ àºĬ
Ġmid uol
ch en
Ġup date
b od
Ġdepos ito
s ka
Ġnagk an
à·Ħ à¶«
Ġh ome
à¶´ à·Ģà¶Ń
à»ĦàºĽ àºĹ
Ġmap uslan
Ġgamb alay
ĠPal ihug
ĠDon ald
àºŃàºį àºĻ
à¸Ļ à¹ĥ
à¸ĩ à¸Ńà¸ĩà¸Ħ
à¸ĩ à¹Ĥà¸¥à¸ģ
à¸¡ à¸Ľà¸£
à¸§ à¹Ģà¸ªà¸£
à¸¢ à¸ķà¸°à¸§
à¸Ĺ à¹Ģà¸Ľ
à¸ļ à¸Ħà¸¥
à¸« à¸ĩ
à¸Ńà¸ĩ à¸Ĺà¸²à¸ĩà¸ģà¸²à¸£
à¸³ à¹Ħà¸¡
à¸²à¸Ļ à¹Ĩ
à¸ģà¸²à¸£ à¹ģà¸¥à¸°
à¸ģà¸²à¸£ à¹Ģà¸ģà¸©à¸ķà¸£
à¸²à¸ĩ à¹ģà¸ľ
à¸²à¸¡ à¸«
à¹ĥà¸Ļ à¸ł
à¹ģà¸¥à¸° à¸ģà¸²à¸£à¸ª
Ġt hai
à¸ĵ à¸Ľ
Ġà¸ª à¸«
à¸Ħà¸§à¸²à¸¡ à¸«à¸§
à¹Ģà¸Ĥ à¸²à¸Ħ
Ġà¸¡ à¸Ĺà¸£
à¸ģà¸£ à¹Ħà¸Ĺà¸¢
Ġà¸Ń à¸²à¸ģà¸²à¸¨
à¸²à¸Ħ à¸ĵà¸°
à¸Ńà¸¥ à¹Ģà¸¥
Ġà¹Ģà¸¡ à¸ªà¸ĭ
à¸ģà¸£à¸£à¸¡ à¸Ĺ
à¹ģà¸Ĥ à¸Ļ
à¸ĩà¸ķ à¸Ńà¸Ļà¸Ļ
à¸£à¸²à¸Ĭ à¸§
à¹Ĥà¸Ķ à¸¢à¸Ļ
à¸ļà¸²à¸ĩ à¹ģà¸ģ
à¸Ķà¸ģà¸²à¸£ à¸ª
à¸įà¸« à¸²à¸ģ
à¸Ķà¸£ à¸Ńà¸¢à¸Ķ
à¸Ĩ à¹Ģà¸Ļ
à¸²à¸Ľà¸£à¸° à¸Ĭ
à¸Ľà¹ģà¸ļà¸ļ à¹ĥà¸«à¸¡
à¹Ħà¸Ń à¸¨
à¹ĥà¸Ļà¸ķ à¸³à¹ģà¸«à¸Ļ
à¸Ļà¸Ħà¸Ļ à¸Ķ
à¸Ńà¸Ńà¸ģà¸¡à¸² à¹ĥà¸«
à¸ģà¸° à¸ļ
Ġà¹Ĥà¸ŀ à¸ªà¸ķ
à¸¡ à¹Ģà¸Ļ
à¹Ħà¸Ľ à¸ŀà¸£
Ġà¸¡ à¸²à¸Īà¸²à¸ģ
à¸Ĵà¸Ļ à¸²à¹ģà¸¥à¸°
ĠGal ilea
à¸Ń à¸£à¸°à¸«à¸§
à¸į à¸¢
Ġà¸Ĥ à¸§à¸Ķ
yl van
àº²àºĻà»ĤàºĶ àº¥àº²
à¹Ħà¸Ł à¸Ĺ
ĠV R
Ġt at
Ġà¸Ĭ à¸²à¸£
Ġmon itor
àº¡ àº²àºį
Ġà¶ķ à·Ģ
ĠàºĪ àº³àºĻàº§
àº¡àº² à»Ģàº¥
àº¡àº² à»ĢàºĽ
ĠS on
ĠO R
P ress
ĠIsland s
ĠIl l
ĠB all
Ġf older
lu Å¾
ard o
à¶© à¶ľà¶¸
ont ak
w eb
àºŃàºĩ àºķàº²àº¡
àº²àºĩ à»Ģàº¥
Ġ^ ^
f lower
à¶¸ à·Ħà¶±
à¶ļ à·Ģà¶¸
à»ģàºį àºģ
à»Ħ àºŃàºįàº°
ĠIn c
ĠA I
ĠH amp
à¶½ à¶·
Äį ka
àºŀàº²àºª àº²
uk risto
ĠCast illa
[...]
