{
  "version": "1.0",
  "truncation": null,
  "padding": null,
  "added_tokens": [
    {
      "id": 0,
      "content": "[UNK]",
      "single_word": false,
      "lstrip": false,
      "rstrip": false,
      "normalized": false,
      "special": true
    }
  ],
  "normalizer": null,
  "pre_tokenizer": {
    "type": "Sequence",
    "pretokenizers": [
      {
        "type": "Digits",
        "individual_digits": false
      },
      {
        "type": "ByteLevel",
        "add_prefix_space": false,
        "trim_offsets": true,
        "use_regex": true
      }
    ]
  },
  "post_processor": null,
  "decoder": null,
  "model": {
    "type": "BPE",
    "dropout": null,
    "unk_token": "[UNK]",
    "continuing_subword_prefix": null,
    "end_of_word_suffix": null,
    "fuse_unk": false,
    "byte_fallback": false,
    "ignore_merges": false,
    "vocab": {
      "[UNK]": 0,
      "!": 1,
      "\"": 2,
      "#": 3,
      "$": 4,
      "%": 5,
      "&": 6,
      "'": 7,
      "(": 8,
      ")": 9,
      "*": 10,
      "+": 11,
      ",": 12,
      "-": 13,
      ".": 14,
      "/": 15,
      "0": 16,
      "1": 17,
      "2": 18,
      "3": 19,
      "4": 20,
      "5": 21,
      "6": 22,
      "7": 23,
      "8": 24,
      "9": 25,
      ":": 26,
      ";": 27,
      "<": 28,
      "=": 29,
      ">": 30,
      "?": 31,
      "@": 32,
      "A": 33,
      "B": 34,
      "C": 35,
      "D": 36,
      "E": 37,
      "F": 38,
      "G": 39,
      "H": 40,
      "I": 41,
      "J": 42,
      "K": 43,
      "L": 44,
      "M": 45,
      "N": 46,
      "O": 47,
      "P": 48,
      "Q": 49,
      "R": 50,
      "S": 51,
      "T": 52,
      "U": 53,
      "V": 54,
      "W": 55,
      "X": 56,
      "Y": 57,
      "Z": 58,
      "[": 59,
      "\\": 60,
      "]": 61,
      "^": 62,
      "_": 63,
      "`": 64,
      "a": 65,
      "b": 66,
      "c": 67,
      "d": 68,
      "e": 69,
      "f": 70,
      "g": 71,
      "h": 72,
      "i": 73,
      "j": 74,
      "k": 75,
      "l": 76,
      "m": 77,
      "n": 78,
      "o": 79,
      "p": 80,
      "q": 81,
      "r": 82,
      "s": 83,
      "t": 84,
      "u": 85,
      "v": 86,
      "w": 87,
      "x": 88,
      "y": 89,
      "z": 90,
      "{": 91,
      "|": 92,
      "}": 93,
      "~": 94,
      "¡": 95,
      "¢": 96,
      "£": 97,
      "¤": 98,
      "¥": 99,
      "¦": 100,
      "§": 101,
      "¨": 102,
      "©": 103,
      "ª": 104,
      "«": 105,
      "¬": 106,
      "®": 107,
      "¯": 108,
      "°": 109,
      "±": 110,
      "²": 111,
      "³": 112,
      "´": 113,
      "µ": 114,
      "¶": 115,
      "·": 116,
      "¸": 117,
      "¹": 118,
      "º": 119,
      "»": 120,
      "¼": 121,
      "½": 122,
      "¾": 123,
      "¿": 124,
      "Â": 125,
      "Ã": 126,
      "Ä": 127,
      "Å": 128,
      "Æ": 129,
      "Ç": 130,
      "È": 131,
      "É": 132,
      "Ê": 133,
      "Ë": 134,
      "Ì": 135,
      "Í": 136,
      "Î": 137,
      "Ï": 138,
      "Ð": 139,
      "Ñ": 140,
      "Ò": 141,
      "Ó": 142,
      "Ô": 143,
      "Õ": 144,
      "Ö": 145,
      "×": 146,
      "Ø": 147,
      "Ù": 148,
      "Ú": 149,
      "Û": 150,
      "à": 151,
      "á": 152,
      "â": 153,
      "ã": 154,
      "ä": 155,
      "å": 156,
      "æ": 157,
      "ç": 158,
      "è": 159,
      "é": 160,
      "ê": 161,
      "ë": 162,
      "ì": 163,
      "í": 164,
      "î": 165,
      "ï": 166,
      "ð": 167,
      "Ā": 168,
      "ă": 169,
      "Ć": 170,
      "ć": 171,
      "Ĉ": 172,
      "ĉ": 173,
      "Ċ": 174,
      "ċ": 175,
      "Č": 176,
      "Đ": 177,
      "ĝ": 178,
      "Ġ": 179,
      "ġ": 180,
      "Ģ": 181,
      "ģ": 182,
      "Ĥ": 183,
      "ĥ": 184,
      "Ħ": 185,
      "ħ": 186,
      "Ĩ": 187,
      "ĩ": 188,
      "Ī": 189,
      "ī": 190,
      "Ĭ": 191,
      "ĭ": 192,
      "Į": 193,
      "į": 194,
      "İ": 195,
      "ı": 196,
      "Ĳ": 197,
      "ĳ": 198,
      "Ĵ": 199,
      "ĵ": 200,
      "Ķ": 201,
      "ķ": 202,
      "ĸ": 203,
      "Ĺ": 204,
      "ĺ": 205,
      "Ļ": 206,
      "ļ": 207,
      "Ľ": 208,
      "ľ": 209,
      "Ŀ": 210,
      "ŀ": 211,
      "Ł": 212,
      "ł": 213,
      "Ń": 214,
      "à¸": 215,
      "à¶": 216,
      "à·": 217,
      "àº": 218,
      "à¹": 219,
      "Ġà¶": 220,
      "à¸²": 221,
      "à¸²à¸": 222,
      "à¸Ļ": 223,
      "à»": 224,
      "à·Ĭ": 225,
      "à¹Ī": 226,
      "à¸Ń": 227,
      "à¸£": 228,
      "à¹Ģ": 229,
      "à·Ĵ": 230,
      "à¸ģ": 231,
      "à¹ī": 232,
      "à¶±": 233,
      "à¸±": 234,
      "à¸ĩ": 235,
      "à¹Ģà¸": 236,
      "à·Ģ": 237,
      "à¸¡": 238,
      "à¸µ": 239,
      "ng": 240,
      "à·ı": 241,
      "sa": 242,
      "àº²": 243,
      "àºĻ": 244,
      "à¸§": 245,
      "à¶º": 246,
      "à¸Ķ": 247,
      "à¸¥": 248,
      "à¸¢": 249,
      "à¸´": 250,
      "à¶»": 251,
      "à¸Ĺ": 252,
      "âĢ": 253,
      "à¶Ń": 254,
      "à¸ļ": 255,
      "à·Ķ": 256,
      "à¸ª": 257,
      "Ġsa": 258,
      "à¶¸": 259,
      "à¶ļ": 260,
      "à·ĥ": 261,
      "à¸ķ": 262,
      "à¸°": 263,
      "66": 264,
      "à¸«": 265,
      "à¸Ħ": 266,
      "an": 267,
      "à¹ģ": 268,
      "àºģ": 269,
      "à»Ī": 270,
      "à·Ļ": 271,
      "à¹Ħ": 272,
      "Ġk": 273,
      "àº²àº": 274,
      "à·ļ": 275,
      "à·Ħ": 276,
      "à¸Ī": 277,
      "à¶½": 278,
      "àº±": 279,
      "à¸Ľ": 280,
      "à¶§": 281,
      "ang": 282,
      "à»ī": 283,
      "à¹ĥ": 284,
      "Ġm": 285,
      "à¸·": 286,
      "àº°": 287,
      "à¸²à¸£": 288,
      "à¸¸": 289,
      "àºĶ": 290,
      "àºĩ": 291,
      "à¸Ńà¸ĩ": 292,
      "âĢĭ": 293,
      "à¶¯": 294,
      "33": 295,
      "à¸µà¹Ī": 296,
      "Ġà¶ļ": 297,
      "Ġà·Ģ": 298,
      "àºŃ": 299,
      "à»Ģ": 300,
      "à¹Į": 301,
      "à¸¹": 302,
      "à·Ĳ": 303,
      "in": 304,
      "à¹ĩ": 305,
      "à¸Ĥ": 306,
      "ag": 307,
      "Ġàº": 308,
      "àºĻàº": 309,
      "Ġà¶´": 310,
      "à¸ŀ": 311,
      "à»Ģàº": 312,
      "nga": 313,
      "à¸Ĭ": 314,
      "6666": 315,
      "Ġà·ĥ": 316,
      "Ġnga": 317,
      "à¹Ĥ": 318,
      "..": 319,
      "àºµ": 320,
      "à¸³": 321,
      "Ġp": 322,
      "Ġà¶¸": 323,
      "on": 324,
      "à·ĵ": 325,
      "al": 326,
      "àº§": 327,
      "à¸²à¸Ļ": 328,
      "Ġu": 329,
      "à¸ģà¸²à¸£": 330,
      "àº»": 331,
      "à¶ľ": 332,
      "Ġka": 333,
      "Ġn": 334,
      "Ġà¶ħ": 335,
      "à¸²à¸¢": 336,
      "à¸²à¸ĩ": 337,
      "âĢį": 338,
      "à¶´": 339,
      "à¸£à¸°": 340,
      "àºļ": 341,
      "àº¡": 342,
      "à¸²à¸¡": 343,
      "à¸²à¸ģ": 344,
      "àº¥": 345,
      "ga": 346,
      "Ġà¶¯": 347,
      "at": 348,
      "Ġà¶±": 349,
      "à»ģ": 350,
      "à·ĬâĢį": 351,
      "à¹ģà¸¥": 352,
      "à·ľ": 353,
      "Ġang": 354,
      "Ġà¹Ģà¸": 355,
      "3333": 356,
      "àº´": 357,
      "àºª": 358,
      "à¸ĸ": 359,
      "à¸ľ": 360,
      "il": 361,
      "à¸·à¹Ī": 362,
      "à¸¶": 363,
      "ay": 364,
      "àºĹ": 365,
      "à¹ĥà¸Ļ": 366,
      "Ġà¶Ń": 367,
      "à¸Ńà¸Ļ": 368,
      "à¶«": 369,
      "àº²àºĻ": 370,
      "Ġà·Ħ": 371,
      "à¹Ģà¸Ľ": 372,
      "it": 373,
      "Ġà¶ľ": 374,
      "ĠA": 375,
      "er": 376,
      "ad": 377,
      "as": 378,
      "à¹ģà¸¥à¸°": 379,
      "à¹ĥà¸«": 380,
      "à»ĥ": 381,
      "à¹Ħà¸Ķ": 382,
      "à¸Ńà¸¢": 383,
      "Ġd": 384,
      "Ġmga": 385,
      "66666666": 386,
      "àºŃàºĩ": 387,
      "àº«": 388,
      "im": 389,
      "àº·": 390,
      "ah": 391,
      "Ġt": 392,
      "Ġà¶ĳ": 393,
      "Ġs": 394,
      "à¶¶": 395,
      "ab": 396,
      "à¹Ģà¸£": 397,
      "ak": 398,
      "à¸±à¹ī": 399,
      "Ġà¶¶": 400,
      "Ġb": 401,
      "Ġug": 402,
      "...": 403,
      "ar": 404,
      "à¸ĭ": 405,
      "à¸Ĥà¸Ńà¸ĩ": 406,
      "à¸ĵ": 407,
      "à¸«à¸Ļ": 408,
      "à·ħ": 409,
      "à»į": 410,
      "ul": 411,
      "àºķ": 412,
      "Ġ(": 413,
      "à¶©": 414,
      "à¹Ħà¸¡": 415,
      "à»Ħ": 416,
      "à¹Ģà¸ģ": 417,
      "ro": 418,
      "Ġg": 419,
      "àº²àºĻàº": 420,
      "aw": 421,
      "àºĽ": 422,
      "à¹Ģà¸¥": 423,
      "àºį": 424,
      "od": 425,
      "à¸Ńà¸ģ": 426,
      "à¸¨": 427,
      "à¸Ħà¸§": 428,
      "à¸Ħà¸£": 429,
      "à·ģ": 430,
      "ong": 431,
      "Ġpag": 432,
      "à¸Ľà¸£à¸°": 433,
      "ĠS": 434,
      "Ġà¶½": 435,
      "àºĤ": 436,
      "un": 437,
      "àºĦ": 438,
      "à¸²à¸§": 439,
      "am": 440,
      "à¸ł": 441,
      "en": 442,
      "à·Ŀ": 443,
      "à¸į": 444,
      "Ġ...": 445,
      "à¸Īà¸°": 446,
      "à¸§à¸¢": 447,
      "or": 448,
      "Ġà¶º": 449,
      "àº¹": 450,
      "is": 451,
      "Ġà¸ª": 452,
      "à¸µà¹ī": 453,
      "à¶ºà¶ļ": 454,
      "es": 455,
      "à¶Ĥ": 456,
      "à¸Ļà¸Ĺ": 457,
      "àºµà»Ī": 458,
      "Ġl": 459,
      "à¶°": 460,
      "à¸©": 461,
      "àºĬ": 462,
      "à¸ĺ": 463,
      "àº¸": 464,
      "33333333": 465,
      ".[": 466,
      "àº¥àº°": 467,
      "à¸Ł": 468,
      "à¸Ħà¸§à¸²à¸¡": 469,
      "àºŀ": 470,
      "iy": 471,
      "à¸«à¸¥": 472,
      "Ġkin": 473,
      "à¹Ħà¸Ľ": 474,
      "à¸¹à¹ī": 475,
      "ing": 476,
      "Ġà¶ĩ": 477,
      "et": 478,
      "Ġà¸Ĺ": 479,
      "Ġà¶ļà¶»": 480,
      "ĠP": 481,
      "àºĪ": 482,
      "ot": 483,
      "ib": 484,
      "Ġà¹ģ": 485,
      "Ġà¶»": 486,
      "àº²àºĩ": 487,
      "ap": 488,
      "00": 489,
      "ut": 490,
      "Ġà¸ģ": 491,
      "ĠC": 492,
      "à¸£à¸²à¸": 493,
      "àº²àºį": 494,
      "àº²àº¡": 495,
      "à¹Ģà¸ŀ": 496,
      "à¹Ģà¸Ĺ": 497,
      "à¹Ĩ": 498,
      "à¸Ńà¸£": 499,
      "Ġà»ģ": 500,
      "ĠAng": 501,
      "à¹Ģà¸Ķ": 502,
      "à¸«à¸£": 503,
      "ĠM": 504,
      "àº½": 505,
      "id": 506,
      "à¸Ńà¸¡": 507,
      "ig": 508,
      "os": 509,
      "Ġà¹ģà¸¥à¸°": 510,
      "à¸Ńà¸ļ": 511,
      "à¹Ģà¸Ĥ": 512,
      "à·Ĥ": 513,
      "Ġà¶ī": 514,
      "à¸Īà¸²à¸ģ": 515,
      "à·ĸ": 516,
      "om": 517,
      "àºģàº²àºĻàº": 518,
      "àºģàº²àºĻ": 519,
      "Ġà¸¡": 520,
      "Ġh": 521,
      "à¸ģà¸£": 522,
      "à¸²à¸Ĺ": 523,
      "re": 524,
      "à¹Ģà¸«": 525,
      "6666666666666666": 526,
      "ik": 527,
      "à¸¹à¹Ī": 528,
      "à»Ĥ": 529,
      "à¸²à¸ª": 530,
      "à·Ĵ.": 531,
      "à¹Ģà¸ª": 532,
      "ĠD": 533,
      "à¸ģà¸¥": 534,
      "ĠB": 535,
      "à¶¢": 536,
      "Ġà¸Ħ": 537,
      "yo": 538,
      "à¸ļà¸£": 539,
      "à¸ĩà¸²à¸Ļ": 540,
      "à¶ºà¶±": 541,
      "Ġà¸£": 542,
      "à¸´à¹Ī": 543,
      "ĠÃ": 544,
      "han": 545,
      "à¸ķà¸£": 546,
      ".-": 547,
      "Ġà¹Ĥ": 548,
      "à¸§à¸Ļ": 549,
      "à¸¢à¸Ļ": 550,
      "ol": 551,
      "àº®": 552,
      "ĠâĢ": 553,
      "Ġni": 554,
      "à¸Ńà¸Ķ": 555,
      "to": 556,
      "à¸±à¹Ī": 557,
      "Ġà¶Ĩ": 558,
      "Â°": 559,
      "à¶³": 560,
      "Ġ-": 561,
      "20": 562,
      "ug": 563,
      "à»ĦàºĶ": 564,
      "à¸·à¹ī": 565,
      "Ġusa": 566,
      "Ġà¶¢": 567,
      "Ġà¸Ļ": 568,
      "Ġà»Ģàº": 569,
      "og": 570,
      "àº²àºĶ": 571,
      "ĠN": 572,
      "à¸²à¸Ī": 573,
      "Ġà¸Ń": 574,
      "à¹ĥà¸Ĭ": 575,
      "Ġà¶Ķ": 576,
      "àº³": 577,
      "Ġma": 578,
      "à¸Ĺà¸³": 579,
      "à¸²à¸Ķ": 580,
      "à¸²à¸Ħ": 581,
      "ip": 582,
      "à¸²à¸ķ": 583,
      ".-.-": 584,
      "Ġà¶ĳà¶ļ": 585,
      "Ġà¶ĩà¶Ń": 586,
      "à¸ļà¸ļ": 587,
      "à¸²à¸ŀ": 588,
      "ĠH": 589,
      "Ġà¶Ĵ": 590,
      "àºĽàº°": 591,
      "à·Ģà¶±": 592,
      "Ġà¸ŀ": 593,
      "us": 594,
      "op": 595,
      "à¹Ģà¸¡": 596,
      "el": 597,
      "àº·à»Ī": 598,
      "à·Ģà¶Ń": 599,
      "à¹Ģà¸§": 600,
      "à¹Ģà¸Ħ": 601,
      "ĠT": 602,
      "à¸¢à¸§": 603,
      "ĠG": 604,
      "Ġà»ģàº¥àº°": 605,
      "ub": 606,
      "à¸£à¸¡": 607,
      "à¸¸à¹Ī": 608,
      "à¹Ģà¸ķ": 609,
      "à¶±à¶º": 610,
      "à¸²à¸«": 611,
      "etro": 612,
      "à¸Ľà¸£": 613,
      "à¸¶à¹Ī": 614,
      "à¸Ĺà¸¢": 615,
      "à¸«à¸¡": 616,
      "Ġà¸ķ": 617,
      "à¹Ģà¸Ļ": 618,
      "àº²àºģ": 619,
      "ung": 620,
      "say": 621,
      "Ġà·ĥà¶¸": 622,
      "à¶±à·Ģ": 623,
      "ĠK": 624,
      "à»įà»Ī": 625,
      "Ġà¶ĭ": 626,
      "àº¼": 627,
      "à¸Ķà¸¢": 628,
      "iya": 629,
      "àº²àº§": 630,
      "àº±à»ī": 631,
      "um": 632,
      "Ġnag": 633,
      "àº»à»ī": 634,
      "ic": 635,
      "--": 636,
      "ĠàºĹ": 637,
      "à¹Ģà¸Ń": 638,
      "à¹Ģà¸Ĭ": 639,
      "ĠE": 640,
      "ĠL": 641,
      "à»ĥàº«": 642,
      "à¸Ļà¸ª": 643,
      "à·ı.": 644,
      "à¶ºà¶§": 645,
      "3333333333333333": 646,
      "à¸ģà¸©": 647,
      "à¹ĥà¸Ī": 648,
      "àºĸ": 649,
      "à¶ł": 650,
      "à¸¡à¸²à¸ģ": 651,
      "âĢĿ": 652,
      "à¹ģà¸ķ": 653,
      "àºªàº°": 654,
      "à¸§à¸ĩ": 655,
      "Ġàºª": 656,
      "à¶Ńà¶»": 657,
      "ahim": 658,
      "Ġà¶ħà¶´": 659,
      "à·Ģà¶»": 660,
      "Ġà¸Ī": 661,
      "à¸ĩà¸ª": 662,
      "à¹Ģà¸Ī": 663,
      "à¸§à¸¡": 664,
      "à¸Ļà¸Ļ": 665,
      "ih": 666,
      "à¶¸à¶§": 667,
      "ĠR": 668,
      "à»ĥàºĻ": 669,
      "à¸²à¸¥": 670,
      "à»ĢàºĽ": 671,
      "à¸¢à¸ĩ": 672,
      "Ġà¸Ķ": 673,
      "àºĤàºŃàºĩ": 674,
      "àº¶": 675,
      "à»ľ": 676,
      "em": 677,
      "à¸ªà¸¡": 678,
      "à¸ľà¸¥": 679,
      "asa": 680,
      "ed": 681,
      "à¸Ħà¸Ļ": 682,
      "ala": 683,
      "Ġà¸ĭ": 684,
      "à¸łà¸²à¸ŀ": 685,
      "à¸¶à¹ī": 686,
      "ĠI": 687,
      "àºľ": 688,
      "à·ĳ": 689,
      "alib": 690,
      "201": 691,
      "ac": 692,
      "Ġà¹Ģà¸ŀ": 693,
      "à¸£à¸ĩ": 694,
      "Ġà¸§": 695,
      "25": 696,
      "Ġà¸ļ": 697,
      "àºĻàºĹ": 698,
      "ini": 699,
      "lan": 700,
      "à¸ģà¸§": 701,
      "à¸Ńà¸¥": 702,
      "à¸ªà¸³": 703,
      "uk": 704,
      "ĠU": 705,
      "àº°àºĻ": 706,
      "à¸Ļà¸ķ": 707,
      "Ġc": 708,
      "Ġà¶ļà¶»à¶±": 709,
      "yon": 710,
      "à·Ģà¶ļ": 711,
      "Ġmao": 712,
      "Ġkasa": 713,
      "Ġàºģ": 714,
      "Ġw": 715,
      "à¹Ģà¸ĩ": 716,
      "lo": 717,
      "ĠâĢľ": 718,
      "à¸¥à¸ĩ": 719,
      "ĠÂ°": 720,
      "Ġà¸Ľ": 721,
      "alibot": 722,
      "à¶®": 723,
      "66666666666666666666666666666666": 724,
      "unay": 725,
      "ila": 726,
      "utang": 727,
      "10": 728,
      "à¸ģà¸£à¸°": 729,
      "à¸¡à¸²": 730,
      "ĠĠ": 731,
      "à·Ģà¶½": 732,
      "àº¢": 733,
      "à¸²à¸£à¸ĸ": 734,
      "Ġnas": 735,
      "ur": 736,
      "à¸²à¸Ń": 737,
      "Ġpalibot": 738,
      "Ġà¶ħà·Ģ": 739,
      "à¹ģà¸ļà¸ļ": 740,
      "à¹Ħà¸Ĺà¸¢": 741,
      "Ġà¸Ĭ": 742,
      "Ang": 743,
      "àºŃàºĻ": 744,
      "àº§àº²àº¡": 745,
      "àºµà»ī": 746,
      "ulan": 747,
      "ud": 748,
      "Ġkan": 749,
      "Ġmil": 750,
      "uh": 751,
      "ent": 752,
      "atag": 753,
      "Ġà¶ħà¶±": 754,
      "à¸Ħà¸¥": 755,
      "à¸²à¸¡à¸²à¸£à¸ĸ": 756,
      "à¶»à¶¸": 757,
      "ĠF": 758,
      "Ġà¹Ģà¸Ľ": 759,
      "Ġà¸Ĥ": 760,
      "Ľàº°": 761,
      "Ġà¹ģà¸ķ": 762,
      "Ġà¶¸à·Ħ": 763,
      "Ġà·ĥà·Ħ": 764,
      "àº¹à»ī": 765,
      "à¹Ĭ": 766,
      "à¸²à¸Ĭ": 767,
      "à¸ĩà¸Ĺ": 768,
      "à¶ļà¶»": 769,
      "à¶´à¶Ń": 770,
      "Ġà¶¶à·Ģ": 771,
      "à¸«à¸§": 772,
      "le": 773,
      "à»ĥàºĻàº": 774,
      "à¹Ģà¸¢": 775,
      "à¸Ńà¸ª": 776,
      "ok": 777,
      "àºŃàºģ": 778,
      "à¸Ńà¸Ńà¸ģ": 779,
      "à¶ºà¶½": 780,
      "ĤàºŃàºĩ": 781,
      "ili": 782,
      "à¸Ĺà¸²à¸ĩ": 783,
      "ÂŃ": 784,
      "àº¹à»Ī": 785,
      "ĠJ": 786,
      "imetro": 787,
      "Ġmilimetro": 788,
      "Ġad": 789,
      "à¸Ĳ": 790,
      "pan": 791,
      "à¸§à¸ģ": 792,
      "Ġà¸ģà¸²à¸£": 793,
      "Ġà¸¥": 794,
      "Ġà·Ģà¶±": 795,
      "à»ĢàºĤ": 796,
      "à¸Ŀ": 797,
      "agat": 798,
      "11": 799,
      "à¸ŀà¸£": 800,
      "ia": 801,
      "»¿": 802,
      "ï»¿": 803,
      "à·ļ.": 804,
      "à¸¢à¸¡": 805,
      "à¸Ļà¸Ķ": 806,
      "à¶·": 807,
      "à¶»à¶º": 808,
      "ado": 809,
      ".-.-.-.-": 810,
      "Ġnasod": 811,
      "ĠW": 812,
      "à¹Ģà¸ļ": 813,
      "ion": 814,
      "Ġà¹ĥà¸Ļ": 815,
      "up": 816,
      "Ġà¶ļà·ħ": 817,
      "à¶¸à¶ļ": 818,
      "ĠâĢĭ": 819,
      "à¹Ĥà¸¥": 820,
      "àº§àºģ": 821,
      "àº§àºĩ": 822,
      "à¸Ļà¸ģ": 823,
      "ahin": 824,
      "ya": 825,
      "à¸Ļà¸Ħ": 826,
      "à¸Īà¸³": 827,
      "Ġàºŀ": 828,
      "ahimutang": 829,
      "à¸£à¸Ħ": 830,
      "à¸Ļà¸§": 831,
      "ĠÃŃ": 832,
      "ĠO": 833,
      "à¸£à¸ģ": 834,
      "à¸ĩà¸Ħ": 835,
      "19": 836,
      "Ġà¸ľ": 837,
      "Ġ/": 838,
      "à¶¸à¶±": 839,
      "à¸²à¸Ĥ": 840,
      "Ġàº«": 841,
      "Ġà¸«": 842,
      "à¶«à¶º": 843,
      "à¸ŀà¸£à¸°": 844,
      "à¸Ļà¸¡": 845,
      "à¶»à¶ļ": 846,
      "Ġkm": 847,
      "Ġim": 848,
      "Ġà¹Ĥà¸Ķà¸¢": 849,
      "Ġmak": 850,
      "à¶¸à¶º": 851,
      "init": 852,
      "Ġo": 853,
      "Ġà¸¢": 854,
      "Ġkinab": 855,
      "à¸£à¸²à¸°": 856,
      "à¸£à¸²à¸Ħ": 857,
      "à¸Ļà¸Ń": 858,
      "Ġna": 859,
      "à¸ĩà¸ģ": 860,
      "ban": 861,
      "Ġà·ģ": 862,
      "à¹Ģà¸Ħà¸£": 863,
      "à¸´à¹ī": 864,
      "Ġin": 865,
      "à¸²à¸ļ": 866,
      "Ġà¶±à¶¸": 867,
      "ĠàºĦ": 868,
      "à¸ķà¸²à¸¡": 869,
      "à»Ŀ": 870,
      "awo": 871,
      "and": 872,
      "apit": 873,
      "rang": 874,
      "à¸Ľà¸¥": 875,
      "à»Ģàº®": 876,
      "à¹Ģà¸Ĺà¸¨": 877,
      "ir": 878,
      "Ġà¶ºà¶±": 879,
      "à¸ī": 880,
      "ist": 881,
      "Ġà¸«à¸£": 882,
      "àºĦàº§àº²àº¡": 883,
      "à»ĢàºĹ": 884,
      "à¸²à¸¨": 885,
      "à¹Ģà¸ĭ": 886,
      "à¸ĩà¸Ļ": 887,
      "st": 888,
      "à¹Ģà¸ģà¸¡": 889,
      "Ġàº¡": 890,
      "à·Ģà¶º": 891,
      "Ġam": 892,
      "à·Ĭ,": 893,
      "à¸²à¸°": 894,
      "à¸Ĭà¸Ļ": 895,
      "àº²àºĹ": 896,
      "à¹ĥà¸«à¸į": 897,
      "à¹ģà¸ģ": 898,
      "Ġkasarang": 899,
      "à¶½à¶º": 900,
      "à¸¥à¸°": 901,
      "Ġkina": 902,
      "à¸ªà¸°": 903,
      "à¹Ħà¸¥": 904,
      "ch": 905,
      "à¹ģà¸¡": 906,
      "à¸ªà¸£": 907,
      "Ġtawo": 908,
      "12": 909,
      "à»Ģàºŀ": 910,
      "Ġkini": 911,
      "Ġbulan": 912,
      "Ġ\"": 913,
      "Ġmag": 914,
      "à¸ªà¸Ļ": 915,
      "à¸Ĺà¸£": 916,
      "ob": 917,
      "à¸®": 918,
      "Ġà¹Ħà¸¡": 919,
      "à¹ĥà¸«à¸¡": 920,
      "à»Ģàº¥": 921,
      "Ġà¹Ģà¸£": 922,
      "Ġpa": 923,
      "saysay": 924,
      "Ġà¸ĸ": 925,
      "à¹Ĥà¸Ķà¸¢": 926,
      "Ġàº¥": 927,
      "à¶¸à¶Ń": 928,
      "ov": 929,
      "àºĶàºĹ": 930,
      "33333333333333333333333333333333": 931,
      "15": 932,
      "àºŃàºļ": 933,
      "Ġga": 934,
      "anan": 935,
      "Ġre": 936,
      "Ġkasarangang": 937,
      "àº²àº¥": 938,
      "Ġkay": 939,
      "àº°àº«": 940,
      "à·Ħà¶±": 941,
      "est": 942,
      "à»ģàº¥àº°": 943,
      "Ġà¹Ģà¸¡": 944,
      "ine": 945,
      "à·Ģà¶§": 946,
      "18": 947,
      "Ġal": 948,
      "à¸²à¸Īà¸°": 949,
      "àº´à»Ī": 950,
      "Ġ:": 951,
      "ayo": 952,
      "Ġkah": 953,
      "ita": 954,
      "à¶ľà¶Ń": 955,
      "à·Ĭ.": 956,
      "à¶Ł": 957,
      "à¸ªà¸²à¸¡à¸²à¸£à¸ĸ": 958,
      "Ġun": 959,
      "iyang": 960,
      "Ġ|": 961,
      "àº·à»ī": 962,
      "à¹Ģà¸¥à¸¢": 963,
      "Ġà¸Ľà¸£à¸°": 964,
      "Ġà¶¶à¶½": 965,
      "à¹Ģà¸Ńà¸ĩ": 966,
      "à¸ĩà¸¡": 967,
      "à¹ĥà¸Ļà¸ģà¸²à¸£": 968,
      "Ġbahin": 969,
      "à¸Ķà¸ª": 970,
      "à¸Ĺà¸ĺ": 971,
      "àº»à»Ī": 972,
      "Å¡": 973,
      "à¸ļà¸ģà¸²à¸£": 974,
      "à¸Īà¸£": 975,
      "Ġà¶ļà¶½": 976,
      "à¸Ļà¸³": 977,
      "à¸¤": 978,
      "ma": 979,
      "àº§àº¡": 980,
      "à¹ģà¸Ĺ": 981,
      "à·Ģà·ĥ": 982,
      "Ġgi": 983,
      "Ġà¶¢à¶±": 984,
      "à¸Ķà¸Ļ": 985,
      "à¹Ħà¸£": 986,
      "à»ģàº¡": 987,
      "àº²àºļ": 988,
      "à¶±à¶§": 989,
      "ĠV": 990,
      "ihan": 991,
      "à¸ģà¸ķ": 992,
      "ĠàºŃ": 993,
      "Ġpagp": 994,
      "à»ĢàºĬ": 995,
      "àº§àº½": 996,
      "à¸Ļà¸¢": 997,
      "àº£": 998,
      "àºĪàº°": 999,
      "à¹Ģà¸ĺ": 1000,
      "à·ĬâĢ": 1001,
      "Ġiyang": 1002,
      "Ġàºļ": 1003,
      "à¸Ķà¸ķ": 1004,
      "Ġf": 1005,
      "à¸ģà¸£à¸£à¸¡": 1006,
      "Ġ,": 1007,
      "à¹Ģà¸§à¸¥": 1008,
      "ina": 1009,
      "Ġà¸«à¸Ļ": 1010,
      "iv": 1011,
      "ĠàºĪ": 1012,
      "Ġniini": 1013,
      "14": 1014,
      "lak": 1015,
      "ĠÃ¶": 1016,
      "àºĻàºĶ": 1017,
      "àºĻàºķ": 1018,
      "à¸ļà¸Ļ": 1019,
      "Ġà¶ĳà·Ħ": 1020,
      "à¸ģà¸Ĺ": 1021,
      "Ġkon": 1022,
      "àº§àºį": 1023,
      "à¶»à¶Ń": 1024,
      "à¸ªà¸³à¸«à¸£": 1025,
      "16": 1026,
      "Ġà¶´à¶»": 1027,
      "àºĻàºª": 1028,
      "àº²àºª": 1029,
      "ra": 1030,
      "à»Ģàº¡": 1031,
      "Ġà¶´à·ĥ": 1032,
      "à¸ªà¸Ķ": 1033,
      "à¸²à¸ģà¸²à¸£": 1034,
      "à»Ģàº«": 1035,
      "Ġà¶ħà¶Ń": 1036,
      "âĢįà·ĬâĢį": 1037,
      "à¸ĵà¸°": 1038,
      "à¸¡à¸ŀ": 1039,
      "à¶±à¶¸": 1040,
      "30": 1041,
      "Ġà¶ħà¶Ńà¶»": 1042,
      "à¸ĩà¸Ĥ": 1043,
      "isa": 1044,
      "Ġdili": 1045,
      "Ġà¹Ħà¸Ķ": 1046,
      "Ġkam": 1047,
      "à»ĦàºĽ": 1048,
      "àº²àºĬ": 1049,
      "à»ĤàºĶ": 1050,
      "à¹Ħà¸§": 1051,
      "à¸£à¸£à¸¡": 1052,
      "à¸ģà¸³": 1053,
      "Ġà·ĥà¶³": 1054,
      "à¹Ģà¸«à¸¥": 1055,
      "Ġtu": 1056,
      "Ġsi": 1057,
      "àºĶàºķ": 1058,
      "à¸«à¸¥à¸²à¸¢": 1059,
      "à¸¡à¸Ļ": 1060,
      "je": 1061,
      "uga": 1062,
      "à»ĢàºĪ": 1063,
      "à»Ģàºª": 1064,
      "à¸Ńà¸§": 1065,
      "àº±à»Ī": 1066,
      "99": 1067,
      "à·ĬâĢĮ": 1068,
      "à·Ĵà¶Ĥ": 1069,
      "à¸Ľà¸£à¸°à¹Ģà¸Ĺà¸¨": 1070,
      "à¸²à¸Ľ": 1071,
      "ĠàºĻ": 1072,
      "Ġà¶·": 1073,
      "à¸ļà¸Ńà¸¥": 1074,
      "Ġog": 1075,
      "à¸Ķà¸Ĺ": 1076,
      "à»īâĢĭ": 1077,
      "ima": 1078,
      "ingon": 1079,
      "à¸²à¸«à¸²à¸£": 1080,
      "Ġà¶ł": 1081,
      "ek": 1082,
      "Ġak": 1083,
      "à¹ģà¸Ĥ": 1084,
      "Ġà¶Ķà·Ħ": 1085,
      "17": 1086,
      "Ġà¹Ĩ": 1087,
      "à¶ļà¶º": 1088,
      "he": 1089,
      "Ġimong": 1090,
      "à»Ģàº§": 1091,
      "Ġà¶ħà¶¯": 1092,
      "abagat": 1093,
      "àºĸàº°": 1094,
      "ero": 1095,
      "asyon": 1096,
      "à¹ģà¸«": 1097,
      "Ġil": 1098,
      "eb": 1099,
      "à·ĺ": 1100,
      "àºĻàºģ": 1101,
      "à¸Ļà¸°": 1102,
      "Ġà¶ħà¶º": 1103,
      "à¸ļà¸Ĺ": 1104,
      "Ġgih": 1105,
      "à»Ģàºģ": 1106,
      "Ġà»ĦàºĶ": 1107,
      "Ġà¶īà¶±": 1108,
      "à»ĢàºĹàºĶ": 1109,
      "àºŃàº¡": 1110,
      "ungs": 1111,
      "ta": 1112,
      "Ġgik": 1113,
      "à¸Ĭà¸²à¸ķ": 1114,
      "à¸Ńà¸°": 1115,
      "Ġàºķ": 1116,
      "da": 1117,
      "à¸Ĵ": 1118,
      "à¸Ļà¸ģà¸²à¸£": 1119,
      "13": 1120,
      "à·Ħà·ĥ": 1121,
      "ep": 1122,
      "Ġhabagat": 1123,
      "Ġpan": 1124,
      "idlak": 1125,
      "à¸ŀà¸¥": 1126,
      "Ġà¶ĳà¶º": 1127,
      "Ġalang": 1128,
      "Ġà¶ľà¶Ń": 1129,
      "Ġà¶ľà¶±": 1130,
      "ungsod": 1131,
      "----": 1132,
      "Ġi": 1133,
      "à¸ĩà¸ķ": 1134,
      "à¹Ħà¸¥à¸Ļ": 1135,
      "6666666666666666666666666666666666666666666666666666666666666666": 1136,
      "à¸£à¸²à¸Ĭ": 1137,
      "à¸£à¸²à¸¢": 1138,
      "Ġpro": 1139,
      "Ġtuig": 1140,
      "Ġà¶½à¶¶": 1141,
      "Ġà·Ģà¶ľ": 1142,
      "Ġar": 1143,
      "à¹Ģà¸«à¸¡": 1144,
      "à¸ĺà¸£à¸£à¸¡": 1145,
      "ĠĠĠĠ": 1146,
      "à¸§à¸£": 1147,
      "à¸§à¸Ķ": 1148,
      "àºŃàºĻàº": 1149,
      "),": 1150,
      "24": 1151,
      "Ġkl": 1152,
      "à¶ħ": 1153,
      "à¸²à¸ĵ": 1154,
      "à¸Ĥà¸²à¸¢": 1155,
      "à¹Ĥà¸£à¸Ħ": 1156,
      "âĢ²": 1157,
      "te": 1158,
      "à»ĤàºĶàºį": 1159,
      "à¸Ńà¸ķ": 1160,
      "Ġsiya": 1161,
      "à¶ļà¶§": 1162,
      "à¸£à¸ĸ": 1163,
      "Ġà·Ģà¶½": 1164,
      "Ġkal": 1165,
      "imo": 1166,
      "abaw": 1167,
      "âĢ³": 1168,
      "à¸ľà¸¡": 1169,
      "ĠSa": 1170,
      "Ġà¶§": 1171,
      "à¹Ħà¸Ł": 1172,
      "à¶¹": 1173,
      "àº²àº«": 1174,
      "Ġulo": 1175,
      "ter": 1176,
      "à¹Ģà¸ķà¸Ńà¸£": 1177,
      "000": 1178,
      "à¸Ļà¹ģ": 1179,
      "ugn": 1180,
      "à¸Ńà¸Ļà¹Ħà¸¥à¸Ļ": 1181,
      "à¹Ģà¸£à¸²": 1182,
      "à¸ļà¸ª": 1183,
      "Ġà¸Īà¸°": 1184,
      "àºĶàºĸàº°": 1185,
      "à¸ģà¸ª": 1186,
      "à¸ģà¸©à¸²": 1187,
      "usa": 1188,
      "à¸Ńà¸Ĺ": 1189,
      "à¶ľà¶±": 1190,
      "àºĻàº§": 1191,
      "Ġpagk": 1192,
      "à¹Ĥà¸¡": 1193,
      "à¸Ĵà¸Ļ": 1194,
      "ana": 1195,
      "Ġat": 1196,
      "à¶Ńà¶º": 1197,
      "à¸ĩà¹ģ": 1198,
      "à¶½à¶±": 1199,
      "Ġy": 1200,
      "Ġà¸Ĥà¸Ńà¸ĩ": 1201,
      "à¸Ńà¸ĩà¸ģà¸²à¸£": 1202,
      "ran": 1203,
      "dpan": 1204,
      "la": 1205,
      "à¸Ńà¸ĩà¸Ħ": 1206,
      "Ġà¶»à¶§": 1207,
      "agi": 1208,
      "Ġadunay": 1209,
      "Ġib": 1210,
      "à·ģà¶º": 1211,
      "Ġnahimutang": 1212,
      "à¸¸à¹ī": 1213,
      "à»Ĩ": 1214,
      "Ġà¶ħà¶¸": 1215,
      "à¸¢à¸ģ": 1216,
      "Ġà¶¸à¶¸": 1217,
      "Ġuban": 1218,
      "àºģàºª": 1219,
      "à¹Ģà¸Ľà¸¥": 1220,
      "awan": 1221,
      "à¸Ļà¸Ĺà¸²à¸ĩ": 1222,
      "à¸Ľà¸£à¸°à¸ģ": 1223,
      "alay": 1224,
      "à¸Ļà¸²à¸Ķ": 1225,
      "àºµâĢĭ": 1226,
      "àºĻàºĦ": 1227,
      "Ġà¶īà¶Ń": 1228,
      "ahan": 1229,
      "hi": 1230,
      "àº°àºĻàº°": 1231,
      "Ġap": 1232,
      "à¶»à·Ģ": 1233,
      "àºĩàºģ": 1234,
      "à¸³à¸Ļ": 1235,
      "à¸ĩà¸ģà¸²à¸£": 1236,
      "ĠàºĽàº°": 1237,
      "à¶½à¶ļ": 1238,
      "à¶»à¶¯": 1239,
      "à¸Ĺà¸³à¹ĥà¸«": 1240,
      "Ġwala": 1241,
      "à·ĥà¶±": 1242,
      "à¸ı": 1243,
      "50": 1244,
      "Ġà¹Ģà¸ŀà¸£à¸²à¸°": 1245,
      "àºĩàºĹ": 1246,
      "Ġà¶¸à·Ħà¶Ń": 1247,
      "Ġv": 1248,
      "Ġmatag": 1249,
      "à¸¯": 1250,
      "à¸ģà¸Ķ": 1251,
      "Ġkab": 1252,
      "Ġmol": 1253,
      "àºĪàº²àºģ": 1254,
      "à¸ģà¸Ħ": 1255,
      "à¶ºà¶¸": 1256,
      "à¸£à¸°à¸ļà¸ļ": 1257,
      "ĠUn": 1258,
      "Ġà¶´à¶Ń": 1259,
      "Ġmetro": 1260,
      "àº¶à»Ī": 1261,
      "àº²àºĦ": 1262,
      "à¶ļà¶¸": 1263,
      "Ġà¸«à¸¥": 1264,
      "Ġamihan": 1265,
      "à¶ľà¶¸": 1266,
      "à¸¢à¸§à¸ģ": 1267,
      "uta": 1268,
      "60": 1269,
      "à¸ķà¸¥": 1270,
      "à»ģàºĤ": 1271,
      "....": 1272,
      "à»ģàºķ": 1273,
      "Ġà·ĥà¶³à·Ħ": 1274,
      "à¸Ļà¹Ħà¸Ľ": 1275,
      "àº°àº¥": 1276,
      "ungod": 1277,
      "Ġà¹Ģà¸Ĭ": 1278,
      "Ġilang": 1279,
      "ĠàºĬ": 1280,
      "à¹Ģà¸¨": 1281,
      "Ġà¶Ķà·Ģ": 1282,
      "ĠàºĤàºŃàºĩ": 1283,
      "à¸ŀà¸¢": 1284,
      "à¸ļà¸Ħ": 1285,
      "ers": 1286,
      "à¹Ĥà¸£à¸ĩ": 1287,
      "Ġklima": 1288,
      "Ġà¶¸à¶ľ": 1289,
      "Îµ": 1290,
      "à¹ĭ": 1291,
      "22": 1292,
      "Å¡t": 1293,
      "Ġà¸Ĺà¸³": 1294,
      "à¶±à¶Ń": 1295,
      "Ġpagt": 1296,
      "Ġà¸Ħà¸£": 1297,
      "Ġàº§": 1298,
      "Ġà¶Ķà¶¶": 1299,
      "abo": 1300,
      "à¶§à¶Ń": 1301,
      "à¸¢à¸ļ": 1302,
      "Ġkil": 1303,
      "à»įà»ī": 1304,
      "Ġà¹Ģà¸¥": 1305,
      "à¸²à¹ģ": 1306,
      "Ġà¸Ńà¸¢": 1307,
      "ÎµÎµ": 1308,
      "Ġgikan": 1309,
      "à»ĢàºĶ": 1310,
      "ron": 1311,
      ".-.-.-.-.-.-.-.-": 1312,
      "à¸²à¸ĸ": 1313,
      "Ġop": 1314,
      "uha": 1315,
      "Ġdak": 1316,
      "ĠÅ": 1317,
      "Ġsila": 1318,
      "à¶±à¶ļ": 1319,
      "à¸Ļà¸ĺ": 1320,
      "upyo": 1321,
      "à»ĥàºĬ": 1322,
      "à¸Ńà¸Ħ": 1323,
      "âĢĻ": 1324,
      "Ġà¶ļà¶Ń": 1325,
      "àºĽàº°àºĬ": 1326,
      "à¸Łà¸£": 1327,
      "à¸ĩà¹Ģà¸Ľ": 1328,
      "ino": 1329,
      "à¹Ĥà¸Ļ": 1330,
      "Ġà¶¸à¶Ń": 1331,
      "Ġnal": 1332,
      "eg": 1333,
      "à¸§à¸Ī": 1334,
      "adr": 1335,
      "ĠàºĽ": 1336,
      "à¸Ľà¸£à¸°à¸ª": 1337,
      "à¸Ńà¸²à¸«à¸²à¸£": 1338,
      "ort": 1339,
      "Ġdapit": 1340,
      "à¸«à¸¡à¸²à¸¢": 1341,
      "ha": 1342,
      "Ġulohan": 1343,
      "Ġà¶ļà¶§": 1344,
      "Ġà¸ŀà¸£": 1345,
      "Ġibabaw": 1346,
      "ĠNahimutang": 1347,
      "Ġà·Ħà¶»": 1348,
      "à¸Ńà¸ĩà¸Ĺ": 1349,
      "emb": 1350,
      "dto": 1351,
      "à¸Ķà¹Ģà¸ĩ": 1352,
      "Ġmay": 1353,
      "Ġmolupyo": 1354,
      "àºģàº²àºĻàºª": 1355,
      "à¸²à¸¢à¸Ļ": 1356,
      "à¸²à¸ĩà¸ģ": 1357,
      "Ġà¸ģà¸¥": 1358,
      "à¸Ļà¸Ńà¸¢": 1359,
      "Ġà¶ĳà¶¸": 1360,
      "Ġà¶¸à¶§": 1361,
      "Ġkag": 1362,
      "2018": 1363,
      "Ġà¹Ģà¸§": 1364,
      "à¸Ļà¹Ħà¸Ķ": 1365,
      "initon": 1366,
      "àºĩàº²àºĻ": 1367,
      "à¸Ļà¹ĥà¸Ļ": 1368,
      "Ġgiiniton": 1369,
      "initan": 1370,
      "ugnawan": 1371,
      "à»ĢàºŃ": 1372,
      "Ġkinabugnawan": 1373,
      "Ġkinainitan": 1374,
      "à¸ĳ": 1375,
      "Ġnak": 1376,
      "à»ĢàºĻ": 1377,
      "àºŃàºį": 1378,
      "Ġà¶¯à¶ļ": 1379,
      "à¶»à¶«": 1380,
      "à¸ªà¸°à¹Ģà¸ģ": 1381,
      "iyon": 1382,
      "Ġkw": 1383,
      "Ġhabagatan": 1384,
      "àºĶàºĻ": 1385,
      "à¸³à¸«à¸£": 1386,
      "à·Ħà¶½": 1387,
      "Ġà¸Ħà¸¥": 1388,
      "àº°àºŀ": 1389,
      "Ġkilom": 1390,
      "Ġkat": 1391,
      "àºµà»ĪâĢĭ": 1392,
      "Ġamihanan": 1393,
      "Ġkilometro": 1394,
      "à¹ĥà¸ª": 1395,
      "à¹Ģà¸ªà¸£": 1396,
      "ĠDi": 1397,
      "àºŁ": 1398,
      "à¸ĸà¸²à¸Ļ": 1399,
      "àºĻàº«": 1400,
      "à¶Ńà¶±": 1401,
      "à¸²à¸ĺ": 1402,
      "res": 1403,
      "isan": 1404,
      "ĠâĢĵ": 1405,
      "Ġàº¢": 1406,
      "à¸²à¸Ħà¸¡": 1407,
      "Ġà¶ħà¶»": 1408,
      "à¸Ķà¸³": 1409,
      "à¹Ģà¸ī": 1410,
      "âĢ¦": 1411,
      "ation": 1412,
      "art": 1413,
      "das": 1414,
      "ow": 1415,
      "ahang": 1416,
      "Ġaron": 1417,
      "à¸Ľà¸£à¸ª": 1418,
      "à¹Ĥà¸¥à¸ģ": 1419,
      "Ġlang": 1420,
      "Ġman": 1421,
      "à¸¢à¸£": 1422,
      "àº½àºĩ": 1423,
      "à¸Ļà¸Ĭ": 1424,
      "Ġà¸Īà¸²à¸ģ": 1425,
      "à¸«à¸¡à¸Ķ": 1426,
      "Ġà»Ģàºŀ": 1427,
      "adrado": 1428,
      "à¶ºà¶º": 1429,
      "à¹Ħà¸ĭ": 1430,
      "ka": 1431,
      "Ġà¹ĥà¸«": 1432,
      "à¸«à¸²à¸£": 1433,
      "à·ĥà¶»": 1434,
      "Ġngadto": 1435,
      "idlakan": 1436,
      "à¶¯à¶±": 1437,
      "oun": 1438,
      "Ġkwadrado": 1439,
      "88": 1440,
      "Ġkom": 1441,
      "à¹Ĥà¸Ľà¸£": 1442,
      "à¸²à¸©": 1443,
      "Ġde": 1444,
      "Ġà¹Ģà¸Ħ": 1445,
      "à¸ĩà¸«à¸§": 1446,
      "à¸Ļà¸£": 1447,
      "dasdas": 1448,
      "à¹Ĥà¸Ľ": 1449,
      "à¸Ķà¸ģ": 1450,
      "Ġmas": 1451,
      "à»ĢàºĦ": 1452,
      "Ġà¶ķ": 1453,
      "à¸įà¸į": 1454,
      "à¸Ĳà¸²à¸Ļ": 1455,
      "av": 1456,
      "à¸ªà¸²à¸£": 1457,
      "àº§àºĻ": 1458,
      "à¹Ĥà¸ķ": 1459,
      "Ġà·Ģà¶»": 1460,
      "à¸²à¸Ĥà¸Ńà¸ĩ": 1461,
      "Ġyuta": 1462,
      "Ġsang": 1463,
      "àº²àº¡àº²àºĶ": 1464,
      "à¸²à¹Ģà¸Ľ": 1465,
      "à»ĥàºĪ": 1466,
      "àº½àºĻ": 1467,
      "à¹Ĥà¸Ń": 1468,
      "200": 1469,
      "23": 1470,
      "à»ģàº«": 1471,
      "à¹ģà¸ŀ": 1472,
      "Ġgip": 1473,
      "Ġà¸ļà¸£": 1474,
      "Ġreh": 1475,
      "à¶¸à¶«": 1476,
      "Ġàº®": 1477,
      "28": 1478,
      "à¸Ńà¸²à¸Ī": 1479,
      "àº²àºŀ": 1480,
      "à¸Ļà¹Ģà¸Ľ": 1481,
      "à¸ģà¸£à¸ĵ": 1482,
      "Ġà¶ħà¶°": 1483,
      "abog": 1484,
      "Ġà¶īà¶¯": 1485,
      "Ġà¹Ģà¸Ĥ": 1486,
      "à¸ļà¸ķ": 1487,
      "àº¶à»ī": 1488,
      "ĠIn": 1489,
      "à¸Ļà¸ŀ": 1490,
      "âĢľ": 1491,
      "à¸¥à¸Ķ": 1492,
      "kasa": 1493,
      "Ġ#": 1494,
      "à¸²à¹Ħà¸Ľ": 1495,
      "Ġst": 1496,
      "ard": 1497,
      "Ġà¶Ńà¶»": 1498,
      "Ġdi": 1499,
      "Ġà»ĥàºĻ": 1500,
      "à¸Ńà¸ĩà¸ģ": 1501,
      "Ġdagat": 1502,
      "ĠEn": 1503,
      "à¸Ħà¸§à¸²à¸¡à¸£": 1504,
      "à¸Ļà¸Ńà¸Ļ": 1505,
      "à·Ģà¶»à¶º": 1506,
      "à¸Ķà¸Ĥ": 1507,
      "Ġà¹Ģà¸Ķ": 1508,
      "à¹Ģà¸«à¸ķ": 1509,
      "Ġrehiyon": 1510,
      "àºĻàº³": 1511,
      "Ġtanan": 1512,
      "Ġà¹Ģà¸ª": 1513,
      "ian": 1514,
      "àºĶàºª": 1515,
      "à¸Ĭà¸¡": 1516,
      "à¸²à¸ĩà¹Ĩ": 1517,
      "61": 1518,
      "ahimo": 1519,
      "Ġusab": 1520,
      "QO": 1521,
      "à¸£à¸°à¸Ķ": 1522,
      "Ġàºģàº²àºĻàº": 1523,
      "Ġà¸ªà¸¡": 1524,
      "ens": 1525,
      "à¸ĵà¸ĳ": 1526,
      "à¸ĩà¹Ħà¸¡": 1527,
      "à¸ĩà¹ĥà¸Ļ": 1528,
      "ce": 1529,
      "à¶ĳ": 1530,
      "Ġà¹ģà¸¥": 1531,
      "Ġko": 1532,
      "à¸Ļà¸«": 1533,
      "à¶ľà¶º": 1534,
      "à¸Ļà¸ļ": 1535,
      "à¸Ļà¸Ĥà¸Ńà¸ĩ": 1536,
      "à¸¡à¸«": 1537,
      "Ġulan": 1538,
      "Ġà·ĥà¶Ń": 1539,
      "à¸łà¸²à¸¢": 1540,
      "ĠÄ": 1541,
      "àºªàº°àº«": 1542,
      "ahanglan": 1543,
      "ĠHul": 1544,
      "à¸¡à¸Ĺ": 1545,
      "à¹Ħà¸Ĥ": 1546,
      "à¶¯à¶»": 1547,
      "Ġà¶¸à¶±": 1548,
      "Ġpagh": 1549,
      "Ġapan": 1550,
      "ĠDios": 1551,
      "à¹Ĥà¸Ķ": 1552,
      "Ġà¹Ģà¸Ń": 1553,
      "Ġniya": 1554,
      "à¶¶à¶±": 1555,
      "àºģàº°": 1556,
      "àºĻàº°": 1557,
      "Ġmo": 1558,
      "à¸£à¸ĵ": 1559,
      "26": 1560,
      "xx": 1561,
      "Ġà¶ĭà¶´": 1562,
      "ĠàºĤ": 1563,
      "Ġà¹Ģà¸Ļ": 1564,
      "Ġlal": 1565,
      "à¸ĩà¸Īà¸²à¸ģ": 1566,
      "][": 1567,
      "à¶¶à¶³": 1568,
      "à¸Ļà¹ĥà¸Ī": 1569,
      "àº¼àº·": 1570,
      "55": 1571,
      "ct": 1572,
      "Ġà»ĢàºĽ": 1573,
      "ate": 1574,
      "à¸£à¸²à¸Ħà¸²": 1575,
      "asaan": 1576,
      "àº½àº§": 1577,
      "à¶§à¶¸": 1578,
      "Ġkinabasaan": 1579,
      "Ġkinauga": 1580,
      "Ġkinaugahan": 1581,
      "ayon": 1582,
      "à¸Ľà¸£à¸°à¸Ĭ": 1583,
      "àºŀàº§àºģ": 1584,
      "à»ģàº¥": 1585,
      "àºĻàº¥": 1586,
      "27": 1587,
      "à·Ĩ": 1588,
      "àºĬàº²àºĶ": 1589,
      "à¸Ńà¸Ńà¸Ļà¹Ħà¸¥à¸Ļ": 1590,
      "Ġà·Ħà¶¸": 1591,
      "embre": 1592,
      "3333333333333333333333333333333333333333333333333333333333333333": 1593,
      "ĠHulyo": 1594,
      "so": 1595,
      "à¸ģà¸¥à¸²à¸ĩ": 1596,
      "isip": 1597,
      "àº½àº§àºģ": 1598,
      "ĠàºĶ": 1599,
      "à¸ļà¸²à¸ĩ": 1600,
      "100": 1601,
      "à¸´à¹Į": 1602,
      "alag": 1603,
      "Ġdih": 1604,
      "sk": 1605,
      "àºģàº§": 1606,
      "tong": 1607,
      "ind": 1608,
      "igan": 1609,
      "Ġà¶Ńà¶¸": 1610,
      "à¶¯à¶º": 1611,
      "à»Ģàºķ": 1612,
      "àºļàºļ": 1613,
      "ew": 1614,
      "Ġà¶Ĭ": 1615,
      "Ġpop": 1616,
      "à¸ĩà¸§": 1617,
      "à¸Ķà¸ģà¸²à¸£": 1618,
      "Ġan": 1619,
      "uhat": 1620,
      "Ġatong": 1621,
      "Ġpang": 1622,
      "law": 1623,
      "pes": 1624,
      "à¸ĩà¸Ķ": 1625,
      "Ġà¹Ģà¸«": 1626,
      "à¸İ": 1627,
      "ĠY": 1628,
      "à¸Ļà¸Ĥ": 1629,
      "à¸Īà¸°à¸¡": 1630,
      "àºģàº³": 1631,
      "à¸ģà¸³à¸¥": 1632,
      "à¸Ńà¹ĥà¸«": 1633,
      "à¸¡à¸²à¸ĵ": 1634,
      "34": 1635,
      "à¶ºà¶Ń": 1636,
      "à¸ªà¸ķ": 1637,
      "ĠPro": 1638,
      "ĠAd": 1639,
      "à¸¢à¸Ķ": 1640,
      "àºŃàºĶ": 1641,
      "à¹ĥà¸Ħà¸£": 1642,
      "Ġdag": 1643,
      "Ġsak": 1644,
      "à¸Ħà¸³": 1645,
      "ti": 1646,
      "à¹Ģà¸Ĥà¸²": 1647,
      "àº°àºļ": 1648,
      "com": 1649,
      "à¹Ĥà¸Ħà¸£": 1650,
      "Ġmat": 1651,
      "àº¥àº²àºį": 1652,
      "Ġof": 1653,
      "ex": 1654,
      "à¸Ńà¸Ļà¸Ĺ": 1655,
      "à¸²à¸Ħà¸²à¸£": 1656,
      "Ġkamo": 1657,
      "à¸ĩà¸£": 1658,
      "àº¸à»Ī": 1659,
      "21": 1660,
      "à¸ļà¸ģ": 1661,
      "Ġub": 1662,
      "à¸Ńà¸Ľ": 1663,
      "à¸Ļà¸ľ": 1664,
      "à¸¡à¸ķ": 1665,
      "Ġà¶´à¶¸à¶«": 1666,
      "40": 1667,
      "Ġlungsod": 1668,
      "àº°àºį": 1669,
      "Ġmetros": 1670,
      "ika": 1671,
      "Ġà¶¯à¶»": 1672,
      "à¸Ńà¸ģà¸²à¸£": 1673,
      "mit": 1674,
      "ye": 1675,
      "à¸¨à¸²à¸ª": 1676,
      "à¸ĩà¹ģà¸ķ": 1677,
      "ĠEnero": 1678,
      "ulo": 1679,
      "ĠUg": 1680,
      "ĠâĢĺ": 1681,
      "29": 1682,
      "uw": 1683,
      "à¹Ĥà¸£": 1684,
      "Ġàºľ": 1685,
      "à·ĥà¶ļ": 1686,
      "à¹ģà¸Ħ": 1687,
      "ĠSt": 1688,
      "Ġkaron": 1689,
      "à¸ģà¸ģ": 1690,
      "amb": 1691,
      "ĠEst": 1692,
      "à¸Ńà¸ĩà¹Ģà¸Ĺ": 1693,
      "Ġ.": 1694,
      "à¸Īà¸Ļ": 1695,
      "Ġkada": 1696,
      "Ġà¹Ģà¸ģ": 1697,
      "à¸Ńà¸ĩà¸£": 1698,
      "Ġàºģàº²àºĻ": 1699,
      "àº²àº°": 1700,
      "à¸Ĥà¸Ļà¸²à¸Ķ": 1701,
      "àºĻàºį": 1702,
      "à¶ľà¶½": 1703,
      "Ġà»ĥàºĻàº": 1704,
      "à·ŀ": 1705,
      "à·ĥà¶º": 1706,
      "Ġà¶ħà¶©": 1707,
      "à¸ªà¸§à¸¢": 1708,
      "aboga": 1709,
      "Ġà¶ħà·Ģà·ĥ": 1710,
      "à»ģàºģ": 1711,
      "à¸²à¸¢à¸Ĺ": 1712,
      "Ġà¶´à·ħ": 1713,
      "àºĩàºĦ": 1714,
      "las": 1715,
      "à·Ĥà¶º": 1716,
      "à¹Ĥà¸£à¸Ħà¸ªà¸°à¹Ģà¸ģ": 1717,
      "ĠCh": 1718,
      "Ġà¶»à¶¢": 1719,
      "à¸Ńà¸Ń": 1720,
      "Ġbisan": 1721,
      "Ġà¸Ħà¸§à¸²à¸¡": 1722,
      "ĠX": 1723,
      "sub": 1724,
      "àºĩàº²àºĻàº": 1725,
      "ty": 1726,
      "à¸Ļà¹Ĩ": 1727,
      "à¸łà¸²à¸©": 1728,
      "à¹Į,": 1729,
      "ato": 1730,
      "à¸¢à¸°": 1731,
      "à¸Ļà¸Ĺà¸£": 1732,
      "Ġà¶Ĵà¶ļ": 1733,
      "àºĻàº¡": 1734,
      "ore": 1735,
      "à»ģàºĤàº§àºĩ": 1736,
      "Ġmah": 1737,
      "à¸²à¸ľ": 1738,
      "Ġà¶°": 1739,
      "kasadpan": 1740,
      "à¸¢à¸Ļà¸ķ": 1741,
      "Ġà¶ĳà¶ļà¶ļ": 1742,
      "Ġà¶ĭà¶±": 1743,
      "à¹Ģà¸ł": 1744,
      "way": 1745,
      "à¸ģà¸ĩà¸²à¸Ļ": 1746,
      "à¸łà¸²à¸Ħ": 1747,
      "ĠopÅ¡t": 1748,
      "à¸Ļà¹Ģà¸¥": 1749,
      "Ġkahaboga": 1750,
      "Ġà¶Ķà¶º": 1751,
      "à¸ĩà¸«": 1752,
      "Ġàºį": 1753,
      "Ġunsa": 1754,
      "à¸įà¸«": 1755,
      "à¹Ĥà¸¢": 1756,
      "à¶Ľ": 1757,
      "!!": 1758,
      "à¸Ńà¸ĩà¸Ļ": 1759,
      "255": 1760,
      "Ġpopul": 1761,
      "à¸ļà¸¥": 1762,
      "))": 1763,
      "à¸¤à¸©": 1764,
      "uman": 1765,
      "àºĩàºª": 1766,
      "à·Ľ": 1767,
      "âĤ": 1768,
      "Ġà¶ħà·ĥ": 1769,
      "àºŃàºŃàºģ": 1770,
      "Ġje": 1771,
      "io": 1772,
      "67": 1773,
      "ton": 1774,
      "à¸Ĺà¸³à¸ĩà¸²à¸Ļ": 1775,
      "à¹ģà¸ªà¸Ķ": 1776,
      "Ġgin": 1777,
      "à¶»à·ĥ": 1778,
      "ern": 1779,
      "Ġà¶ħà¶½": 1780,
      "à¸Ńà¸ĩà¸¡": 1781,
      "Ġ=": 1782,
      "à¹ģà¸ľ": 1783,
      "à¸ŀà¸§à¸ģ": 1784,
      "âĤ¬": 1785,
      "à¸²à¸Ńà¸¢": 1786,
      "àºģàºĦ": 1787,
      "Ġpagb": 1788,
      "àº²àºĪ": 1789,
      "à¹Ģà¸§à¸¥à¸²": 1790,
      "ukop": 1791,
      "à·ı,": 1792,
      "à¸ĩà¸Ĥà¸Ńà¸ĩ": 1793,
      "à¸ĩà¸Ń": 1794,
      "Ġà¶ĭà¶Ń": 1795,
      "à¸ªà¸²à¸§": 1796,
      "à¸Ļà¸Ī": 1797,
      "Ġà·Ģà¶©": 1798,
      "oy": 1799,
      "à¹ģà¸Ļ": 1800,
      "à¸ļà¸¡": 1801,
      "à¸Ħà¸§à¸£": 1802,
      "Ġpags": 1803,
      "inyo": 1804,
      "à¸Ļà¹Ģà¸Ķ": 1805,
      "Ġà¶ķà¶±": 1806,
      "à¶±à·ĥ": 1807,
      "à¹Ģà¸¨à¸©": 1808,
      "ĠKini": 1809,
      "ĠAn": 1810,
      "ï¿": 1811,
      "à¸Ļà¸«à¸Ļ": 1812,
      "à¸Ļà¸Ħà¸£": 1813,
      "àºĶàºĻàº²àº¡": 1814,
      "àº¥àº²": 1815,
      "à¹ĥà¸ķ": 1816,
      "angk": 1817,
      "à»Ħàº¥": 1818,
      "à¹Ģà¸ģà¸¡à¸ª": 1819,
      "44": 1820,
      "Ġà¸«à¸¡": 1821,
      "ali": 1822,
      "Ġà¸¨": 1823,
      "ï¿½": 1824,
      "Ġï»¿": 1825,
      "à¸ĩà¸Ĭ": 1826,
      "à¶±à¶ºà¶ļ": 1827,
      "àº§àº½àºĶàºĻàº²àº¡": 1828,
      "à¸Ļà¹ģà¸¥à¸°": 1829,
      "à¸¡à¸²à¸¢": 1830,
      "Ġà¸ªà¸³à¸«à¸£": 1831,
      "à»Ģàºĸ": 1832,
      "à¸Ķà¸§": 1833,
      "Ġakong": 1834,
      "à¸Īà¸Ī": 1835,
      "ack": 1836,
      "à¹Ħà¸«à¸Ļ": 1837,
      "à·ĵ.": 1838,
      "à¸¡à¸Ń": 1839,
      "à»ĦàºĬ": 1840,
      "Ġest": 1841,
      "à¸Ļà¹Ģà¸ŀ": 1842,
      "eh": 1843,
      "Ġdiha": 1844,
      "Ġà¶Ńà¶¸à¶º": 1845,
      "Ġà¶ļà¶§à¶º": 1846,
      "à¹Ĥà¸ģ": 1847,
      "all": 1848,
      "à¶»à¶§": 1849,
      "à»Ĥàº¥": 1850,
      "à¸ªà¸³à¸Ħ": 1851,
      "ck": 1852,
      "à»Ģàºĩ": 1853,
      "era": 1854,
      "Ġpopulasyon": 1855,
      "Ġnalukop": 1856,
      "Ġà»ĤàºĶàºį": 1857,
      "Äį": 1858,
      "à·ģà¶´": 1859,
      "àºĻàºĬ": 1860,
      "à¸ļà¸ľ": 1861,
      "Ġr": 1862,
      "à¸ļà¸§": 1863,
      "Ġà¶½à¶ļ": 1864,
      "àº«àº§": 1865,
      "à¸ģà¸ĭ": 1866,
      "una": 1867,
      "Ġà¸ļà¸²à¸Ĺ": 1868,
      "Ġ[": 1869,
      "ity": 1870,
      "à»ĤàºĦ": 1871,
      "awigan": 1872,
      "à¶ļà¶½": 1873,
      "35": 1874,
      "à¸Ĭà¸²à¸¢": 1875,
      "Ġnagp": 1876,
      "àº²àº®": 1877,
      "ĠPag": 1878,
      "80": 1879,
      "àºĶàºģ": 1880,
      "ayan": 1881,
      "th": 1882,
      "à·Ĥà¶«": 1883,
      "ungt": 1884,
      "à·Ħà¶»": 1885,
      "àºĻàºĻ": 1886,
      "à¸²à¸§à¸Ļ": 1887,
      "iga": 1888,
      "à¸Ľà¸ı": 1889,
      "à¸Ńà¸°à¹Ħà¸£": 1890,
      "àºĽàº°à»ĢàºĹàºĶ": 1891,
      "à¸ģà¸²à¸£à¸Ĺ": 1892,
      "à¹ĥà¸ļ": 1893,
      "à¸Ķà¸£": 1894,
      "ĠAl": 1895,
      "à¸§à¹Ģà¸Ńà¸ĩ": 1896,
      "**": 1897,
      "à¸Ńà¹Ħà¸Ľ": 1898,
      "à¸Ļà¹Ħà¸¡": 1899,
      "à¸Ńà¸ľ": 1900,
      "Ġà¸£à¸§à¸¡": 1901,
      "Ġà¶Ńà¶¸à¶±": 1902,
      "Ġmaong": 1903,
      "à¸³à¸«à¸Ļ": 1904,
      "àº¥àº²àº§": 1905,
      "Ġà¶ĭà¶¯": 1906,
      "Ġtungod": 1907,
      "à¸²à¸Īà¸²à¸ģ": 1908,
      "à¸ĩà¸¢": 1909,
      "Ġsub": 1910,
      "à¸Ļà¹Ģà¸£": 1911,
      "àºĹàº²àºĩ": 1912,
      "45": 1913,
      "à¸ĩà¸Ńà¸¢": 1914,
      "à¹Ģà¸ľ": 1915,
      "à¸«à¸į": 1916,
      "à¸²à¸«à¸¥": 1917,
      "Ġadlaw": 1918,
      "Ġà»ĢàºĬ": 1919,
      "tang": 1920,
      "Ġà»ģàº¡": 1921,
      "à¶¢à¶±": 1922,
      "à¸£à¸°à¸«à¸§": 1923,
      "à¹Ģà¸Ńà¸ģ": 1924,
      "à¸ķà¸Ļ": 1925,
      "àºĻàºĪ": 1926,
      "ama": 1927,
      "à¸ĩà¹Ħà¸Ķ": 1928,
      "à·Ĵ,": 1929,
      "à¸³à¸£": 1930,
      "isy": 1931,
      "à¸Ńà¸Ļà¸Ļ": 1932,
      "Ġà¶´à·Ģà¶Ń": 1933,
      "à¶°à¶º": 1934,
      "à¸ĩà¸²à¸¡": 1935,
      "à¸ªà¸Ńà¸ļ": 1936,
      "oj": 1937,
      "ĠZ": 1938,
      "ust": 1939,
      "Ġà¶©": 1940,
      "à¶ļà¶ļ": 1941,
      "à¸ŀà¸²à¸°": 1942,
      "à¹ģà¸Ķ": 1943,
      "Ġà¶½à¶¯": 1944,
      "àº®àºĩ": 1945,
      "à¸łà¸²à¸¢à¹ĥà¸Ļ": 1946,
      "à»Ŀàº²àºį": 1947,
      "hon": 1948,
      "66666666666666666666666666666666666666666666666666666666666666666666666666666666666666666666666666666666666666666666666666666666": 1949,
      "Ġà¹Ģà¸Ħà¸£": 1950,
      "à¹ģà¸Ī": 1951,
      "ĠNag": 1952,
      "à¸²à¹Ģà¸£": 1953,
      "ĠDunay": 1954,
      "Ġik": 1955,
      "à¸ĩà¸ļ": 1956,
      "à¶Ńà¶ļ": 1957,
      "à¸ģà¸Ħà¸£": 1958,
      "qu": 1959,
      "yong": 1960,
      "Ġgit": 1961,
      "à¶»à¶±": 1962,
      "àºĶà»ĥàº«": 1963,
      "ae": 1964,
      "Ġlalawigan": 1965,
      "à¸²à¸ģà¸²à¸¨": 1966,
      "Ġtan": 1967,
      "ĠCoun": 1968,
      "Ġlab": 1969,
      "ahon": 1970,
      "à¸²à¸ĩà¸§": 1971,
      "à¸«à¸¢": 1972,
      "à¹ģà¸ª": 1973,
      "âĤ¬âĤ¬": 1974,
      "Ġkaayo": 1975,
      "ugal": 1976,
      "ill": 1977,
      "unisip": 1978,
      "à¸Ĩ": 1979,
      "àº¡àº²": 1980,
      "unisipyo": 1981,
      "à¸Ńà¸ģà¸Īà¸²à¸ģ": 1982,
      "ev": 1983,
      "Ġà¶ĳà¶±": 1984,
      "Ġà¹Ģà¸Ĺ": 1985,
      "ara": 1986,
      "pesye": 1987,
      "à¸ļà¸²à¸¢": 1988,
      "à·Ģà¶¯": 1989,
      "à¸ªà¸ĸà¸²à¸Ļ": 1990,
      "à¸ĩà¸Ī": 1991,
      "à¹ĥà¸Ķ": 1992,
      "Ġà¸ģà¸£à¸°": 1993,
      "àº¼àº±": 1994,
      "à¹Ģà¸Ħà¸¢": 1995,
      "à¹Ģà¸īà¸ŀà¸²à¸°": 1996,
      "Ġsakop": 1997,
      "à¸ģà¸Ļ": 1998,
      "à¸ķà¸£à¸§à¸Ī": 1999,
      "à¸Ńà¸ĸ": 2000,
      "ri": 2001,
      "à¸ļà¸Ħà¸§à¸²à¸¡": 2002,
      "à¸²à¹Ħà¸Ķ": 2003,
      "à¸²à¸«à¸Ļ": 2004,
      "à¸Ńà¸¢à¸²à¸ģ": 2005,
      "à¸ģà¸£à¸¡": 2006,
      "à¸Ķà¸¥": 2007,
      "à¶ºà·Ģ": 2008,
      "à¹ģà¸£à¸ģ": 2009,
      "ĠAg": 2010,
      "akig": 2011,
      "à¸Ĥà¸Ńà¸ĩà¸Ħ": 2012,
      "Ġà¸Ľà¸£à¸°à¸ģ": 2013,
      "ite": 2014,
      "Ġgid": 2015,
      "àºĽàº°àºģ": 2016,
      "à¸²à¸ĩà¸Ĺ": 2017,
      "Ġà¹Ģà¸Ī": 2018,
      "666666": 2019,
      "].": 2020,
      "à¹ĥà¸ģà¸¥": 2021,
      "idad": 2022,
      "sidlakan": 2023,
      "àºĻàºļ": 2024,
      "àºĩàºĻ": 2025,
      "Ġa": 2026,
      "à¸ļà¸£à¸£": 2027,
      "à¸Ļà¸¥": 2028,
      "Ġà¶´à¶ļ": 2029,
      "Ġnahimutangan": 2030,
      "à¹Ģà¸Ĺà¸ŀ": 2031,
      "à¸ĩà¸«à¸¡à¸Ķ": 2032,
      "à¹ģà¸£à¸¡": 2033,
      "ĠĠĠĠĠĠĠĠ": 2034,
      "Ġmaayo": 2035,
      "à¶Ńà¶¸": 2036,
      "hang": 2037,
      "37": 2038,
      "à¶»à·Ħ": 2039,
      "Ġbat": 2040,
      "orm": 2041,
      "Ġà»ĥàº«": 2042,
      "Ġà¹ģà¸¡": 2043,
      "ĠMar": 2044,
      "ĠCounty": 2045,
      "à¸Ńà¸ŀ": 2046,
      "Ġgam": 2047,
      "à¶§à¶±": 2048,
      "à¸«à¸¥à¸§à¸ĩ": 2049,
      "Ġà¸Ł": 2050,
      "ano": 2051,
      "ant": 2052,
      "Ġ-----": 2053,
      "FT": 2054,
      ".âĢĿ": 2055,
      "ulong": 2056,
      "à¸Ńà¸ĩà¸ª": 2057,
      "à¹Ģà¸ŀà¸£à¸²à¸°": 2058,
      "à·Ģà¶¸": 2059,
      "à¹Ĥà¸Ńà¸ģ": 2060,
      "90": 2061,
      "Ġà¶Ńà¶Ń": 2062,
      "à¸ģà¸Ĥ": 2063,
      "âĹ": 2064,
      "2561": 2065,
      "Ġpatag": 2066,
      "inaagi": 2067,
      "à¸ĩà¸Īà¸°": 2068,
      "à¶©à¶ļ": 2069,
      "Ġubos": 2070,
      "oran": 2071,
      "ord": 2072,
      "à¸²à¸ĭ": 2073,
      "Ġà¶Ĩà¶«": 2074,
      "à¸ķà¸§": 2075,
      "Ġmed": 2076,
      "àºĻàºŀ": 2077,
      "à»ĥàºª": 2078,
      "Ġà¸Ĺà¸³à¹ĥà¸«": 2079,
      "Ġà¶ħà·Ģà·ģ": 2080,
      "Ġtin": 2081,
      "à¸Ľà¸£à¸°à¸ģà¸Ńà¸ļ": 2082,
      "à·Ĳ.": 2083,
      "Ġ+": 2084,
      "à¸Ķà¸Ķ": 2085,
      "à¸Ńà¸Ĥ": 2086,
      "à¸£à¸§à¸¡": 2087,
      "Ġwalay": 2088,
      "Ġà¸ŀà¸£à¸°": 2089,
      "Ġako": 2090,
      "ahimong": 2091,
      "à¹ģà¸Ľ": 2092,
      "àºĩàºģàº²àºĻ": 2093,
      "ÎµÎµÎµÎµ": 2094,
      "à¸¥à¸¥": 2095,
      "ĠÃ¼": 2096,
      "ulag": 2097,
      "àº²àºŃ": 2098,
      "à¸ĩà¸ģà¸¥": 2099,
      ").": 2100,
      "38": 2101,
      "ide": 2102,
      "uhi": 2103,
      "à¸¡à¸Ĥ": 2104,
      "Ġà¶¯à¶±": 2105,
      "à¸Ļà¸§à¸Ļ": 2106,
      "Ġà»Ģàº¡": 2107,
      "Ġhil": 2108,
      "Ġmi": 2109,
      "àºĶàºĹàº°àºĻ": 2110,
      "à¸²à¸ķà¸£": 2111,
      "77": 2112,
      "à¸£à¸©": 2113,
      "Ġà»ģàºķ": 2114,
      "àº§àº½àºģ": 2115,
      "Ġà¶¢à¶±à¶Ń": 2116,
      "31": 2117,
      "à¸ģà¹Ģà¸£": 2118,
      "à¶Ĵ": 2119,
      "à¸²à¸Ļà¸¡": 2120,
      "amp": 2121,
      "à¸£à¸²à¸ļ": 2122,
      "à¸ĵà¸łà¸²à¸ŀ": 2123,
      "à¸Ĭà¸²à¸§": 2124,
      "à¸Ļà¸ĭ": 2125,
      "à¸Ľà¸ģà¸£à¸ĵ": 2126,
      "Ġà¸ľà¸¡": 2127,
      "ahabog": 2128,
      "ahabogang": 2129,
      "int": 2130,
      "alagsa": 2131,
      "àºĩàº«": 2132,
      "end": 2133,
      "à¶ºà¶ļà¶§": 2134,
      "à»Ģàºļ": 2135,
      "à¸ļà¸Ńà¸ģ": 2136,
      "ne": 2137,
      "à¸²à¸ĩà¸Ļ": 2138,
      "ice": 2139,
      "à¶Ķ": 2140,
      "66666": 2141,
      "Ġkap": 2142,
      "àºĻàº¢": 2143,
      "à¸Ļà¸Īà¸°": 2144,
      "à¹Ģà¸ŀà¸¥à¸ĩ": 2145,
      "à¸Ńà¹Ģà¸Ľ": 2146,
      "à¸§à¸²à¸ĩ": 2147,
      "if": 2148,
      "und": 2149,
      "Ġàºªàº°": 2150,
      "à¹Ĥà¸Ńà¸ģà¸²à¸ª": 2151,
      "ista": 2152,
      "àºģàºŃàºĩ": 2153,
      "à¸²à¸Ľà¸£à¸°": 2154,
      "à¸§à¸Ĺ": 2155,
      "à¹ģà¸£à¸ĩ": 2156,
      "à¶¯à¶½": 2157,
      "ht": 2158,
      "à¸Ńà¸ĩà¸Īà¸²à¸ģ": 2159,
      "à¶´à¶º": 2160,
      "Ġà¶´à¶¯": 2161,
      "à¶»à·ģ": 2162,
      "ados": 2163,
      "à¸Ľà¸£à¸°à¸¡à¸²à¸ĵ": 2164,
      "àºģàº¥": 2165,
      "Ġpanahon": 2166,
      "abay": 2167,
      "à¸¨à¸²à¸ªà¸ķà¸£": 2168,
      "Ġkinad": 2169,
      "Ġàºĸ": 2170,
      "49": 2171,
      "àºĻàºĤàºŃàºĩ": 2172,
      "à¸Ĭà¸Ńà¸ļ": 2173,
      "FTQO": 2174,
      "Ġtalagsa": 2175,
      "à»ĥàº«àºį": 2176,
      "à¸Ļà¸°à¸Ļà¸³": 2177,
      "rad": 2178,
      "Ġkasadpan": 2179,
      "abot": 2180,
      "àºĪàº³": 2181,
      "Ġla": 2182,
      "à»ģàºļàºļ": 2183,
      "ari": 2184,
      "à¸°à¹Ģà¸¥": 2185,
      "idos": 2186,
      "36": 2187,
      "à¸Ļà¸Ľ": 2188,
      "à¹ģà¸Ļà¸§": 2189,
      "39": 2190,
      "à¸¥à¸°à¹Ģà¸Ń": 2191,
      "Ġà¹Ħ": 2192,
      "à¶¸à¶»": 2193,
      "amat": 2194,
      "Ġpinaagi": 2195,
      "à¸Ńà¸ĩà¸ķ": 2196,
      "à¹Ģà¸Ł": 2197,
      "Ġà¶ĳà·ĥ": 2198,
      "à¹Ĥà¸Ĺ": 2199,
      "Ġpin": 2200,
      "à¸§à¹Ħà¸Ľ": 2201,
      "port": 2202,
      "gamit": 2203,
      "à¶¨": 2204,
      "à¸ģà¸²à¸¥": 2205,
      "à¶´à¶ļ": 2206,
      "ulagway": 2207,
      "à·ĥà¶½": 2208,
      "à¸ģà¸²à¸£à¸ª": 2209,
      "à¸Ńà¸ĩà¸Ķ": 2210,
      "à¸²à¸ģà¸¥": 2211,
      "ĠUnidos": 2212,
      "àº²àºķ": 2213,
      "à¸ĩà¸ģà¸¤à¸©": 2214,
      "Ġà¸£à¸²à¸¢": 2215,
      "à¸²à¸ģà¸£": 2216,
      "à¸ĩà¹Ĩ": 2217,
      "à¹Ģà¸«à¸Ļ": 2218,
      "àºĻàºŃ": 2219,
      "àºĻàºĽàº°": 2220,
      "à¸ĺà¸²à¸Ļ": 2221,
      "Ġon": 2222,
      "à¸ĩà¸«à¸Ļ": 2223,
      "à¸²à¹Ħà¸¡": 2224,
      "ĠEstados": 2225,
      "Ġiz": 2226,
      "à¸Ķà¸¡": 2227,
      "Ġkaniya": 2228,
      "à·ıà¶Ĥ": 2229,
      "Ġkinahanglan": 2230,
      "ĠAdunay": 2231,
      "à¸¢à¸²à¸¢": 2232,
      "anov": 2233,
      "à¸ĸà¸²à¸¡": 2234,
      "Ġà¶ļà¶»à¶¸": 2235,
      "à¸Īà¸³à¸Ļà¸§à¸Ļ": 2236,
      "à¹ģà¸Ł": 2237,
      "70": 2238,
      "Ġes": 2239,
      "àº°àºŀàº²àºļ": 2240,
      "2017": 2241,
      "Ġsama": 2242,
      "à»ģàºĶ": 2243,
      "Ġà·Ģà·ĥà¶»": 2244,
      "à¹Ħà¸ĭà¸ķ": 2245,
      "à¸ªà¸²à¸¢": 2246,
      "ðŁ": 2247,
      "à¸©à¸¢": 2248,
      "à·Ģà¶½à¶§": 2249,
      "Ġà¸ĺ": 2250,
      "à¹Ģà¸Ħà¸¥": 2251,
      "à¸ĩà¸Ħà¸§à¸²à¸¡": 2252,
      "Ġà¶¶à·Ģà¶§": 2253,
      "à»įà»ĪâĢĭ": 2254,
      "istr": 2255,
      "ook": 2256,
      "à¸Ńà¸Ħà¸§à¸²à¸¡": 2257,
      "ff": 2258,
      "Ġà»Ĥ": 2259,
      "Ġà·ĥà¶¸à¶ľ": 2260,
      "àºŀàº²àºļ": 2261,
      "à¸ŀà¸Ļ": 2262,
      "àºªàº³": 2263,
      "ell": 2264,
      "à¸Ńà¹Ħà¸¡": 2265,
      "alo": 2266,
      "Ġtalagsaon": 2267,
      "iz": 2268,
      "ww": 2269,
      "Ġpagd": 2270,
      "à¸Ńà¸Ļà¸ģ": 2271,
      "à¸ŀà¸Ń": 2272,
      "na": 2273,
      "àºļàºģàº²àºĻàº": 2274,
      "à¹Ĥà¸Ħà¸£à¸ĩà¸ģà¸²à¸£": 2275,
      "àºļàº®": 2276,
      "ost": 2277,
      "à¹ĥà¸Ļà¸Ĭ": 2278,
      "Ġà¸ªà¸²à¸¡à¸²à¸£à¸ĸ": 2279,
      "Ġgib": 2280,
      "à¸ķà¸¢": 2281,
      "à¸Ļà¹Ħ": 2282,
      "Ġà¶´à·Ħ": 2283,
      "àºķàº²àº¡": 2284,
      "Ġkita": 2285,
      "à¸Ĺà¸¢à¸²à¸¥": 2286,
      "àº¡àº°": 2287,
      "ula": 2288,
      "ris": 2289,
      "Ġà¶Ĩà¶¯": 2290,
      "à¸ĩà¹Ĥà¸Ľ": 2291,
      "dasdasdasdas": 2292,
      "ĉĊ": 2293,
      "abang": 2294,
      "ulod": 2295,
      "Ġingon": 2296,
      "ĠJes": 2297,
      "à¸Ĭà¸£": 2298,
      "Ġlabing": 2299,
      "Ġà¶Ĩà¶»": 2300,
      "à¸¥à¸²": 2301,
      "ento": 2302,
      "Ġmahimo": 2303,
      "Ġand": 2304,
      "à»ģàºľ": 2305,
      "osto": 2306,
      "uro": 2307,
      "à»Ħàº§": 2308,
      "àºªàº²àº¡àº²àºĶ": 2309,
      "à¹Ĥà¸Ħ": 2310,
      "à¸¨à¸£": 2311,
      "idto": 2312,
      "utan": 2313,
      "ash": 2314,
      "Ġà¶Ńà·Ģà¶Ń": 2315,
      "àºĶàºĸàº°àº¡": 2316,
      "à¸Ĺà¸²à¸Ļ": 2317,
      "à¸ļà¸Ĥ": 2318,
      "à¶»à¶«à¶º": 2319,
      "à¸³à¸¡": 2320,
      "à¸Ńà¸«": 2321,
      "à¸²à¸ĩà¸ģà¸²à¸¢": 2322,
      "à¸ķà¸ļà¸Ńà¸¥": 2323,
      "à¸Ħà¸°": 2324,
      "à¶´à¶±": 2325,
      "Ġà·Ģà·ģà¶º": 2326,
      "uod": 2327,
      "ja": 2328,
      "à¸³à¸¥": 2329,
      "Ã©": 2330,
      "ente": 2331,
      "àºĶàºĤàºŃàºĩ": 2332,
      "à¶´à·ĥ": 2333,
      "àº¸à»ī": 2334,
      "ast": 2335,
      "Ġà¶ºà¶¸": 2336,
      "08": 2337,
      "ont": 2338,
      "à·ļ,": 2339,
      "Ġnah": 2340,
      "à¸ģà¸£à¸°à¸Ĺ": 2341,
      "à¸ķà¸ł": 2342,
      "Ġà¸ģà¸£": 2343,
      "Ġ)": 2344,
      "à·ĳ.": 2345,
      "ec": 2346,
      "àºĽàº°àºķ": 2347,
      "à¸ļà¹Ħà¸ĭà¸ķ": 2348,
      "Ġà¶Ĵà·Ģ": 2349,
      "àº²àºĤàºŃàºĩ": 2350,
      "Ġnagt": 2351,
      "à¶°à¶±": 2352,
      "Ġà¶ĩà¶º": 2353,
      "Ġdakong": 2354,
      "à¸Ķà¸Ń": 2355,
      "á»": 2356,
      "line": 2357,
      "à¸ªà¸¡à¸ļ": 2358,
      "à¸²à¹ĥà¸Ī": 2359,
      "à¸Ńà¸ĩà¸ŀ": 2360,
      "Ġstanov": 2361,
      "à¸Ļà¹Ģà¸Ĺ": 2362,
      "à¶»à¶°": 2363,
      "à¹Ĥà¸Ĭ": 2364,
      ".-.-.-.-.-.-.-.-.-.-.-.-.-.-.-.-": 2365,
      "Ġbutang": 2366,
      "à¸²à¹ģà¸¥à¸°": 2367,
      "à¸Īà¸°à¹Ħà¸Ķ": 2368,
      "Ġstanovn": 2369,
      "Ġlam": 2370,
      "àºĿ": 2371,
      "à¸Ķà¸³à¹Ģà¸Ļ": 2372,
      "ark": 2373,
      "ĠÂ": 2374,
      "à¸ģà¸¡": 2375,
      "58": 2376,
      "àº§àºĶ": 2377,
      "ĠAgosto": 2378,
      "à¶ºà¶¯": 2379,
      "àºĬàº§àºĩ": 2380,
      "Ġkanila": 2381,
      "Ġà¶´à·Ģ": 2382,
      "àº²àºĻàºª": 2383,
      "32": 2384,
      "Ġestado": 2385,
      "à¸§à¸«à¸Ļ": 2386,
      "à¸Īà¸°à¸ķ": 2387,
      "à¸«à¸²à¸¢": 2388,
      "Ġà¶ļà¶»à¶½": 2389,
      "Ġà·Ĩ": 2390,
      "à¶§à¶»": 2391,
      "à¸ģà¸²à¸£à¸ķ": 2392,
      "Ġbag": 2393,
      "adto": 2394,
      "//": 2395,
      "à¸²à¹ĥà¸Ļ": 2396,
      "-.-": 2397,
      "à¸§à¸¡à¸ģ": 2398,
      "à¸ĩà¸Ľ": 2399,
      "Ġà¹Ħà¸Ľ": 2400,
      "usto": 2401,
      "Ġà¶ĳà¶½": 2402,
      "à¸Īà¸°à¹Ģà¸Ľ": 2403,
      "Ġkaban": 2404,
      "46": 2405,
      "idlakang": 2406,
      "Ġà¸ĵ": 2407,
      "à¸«à¸¥à¸Ķ": 2408,
      "Ġà¶Ĩà¶ļ": 2409,
      "à¸Īà¸ģà¸£à¸£à¸¡": 2410,
      "à¸ļà¸²à¸Ĺ": 2411,
      "48": 2412,
      "unod": 2413,
      "Ġà¸«à¸²à¸ģ": 2414,
      "à¸³à¹ģ": 2415,
      "à¸ļà¸Ķ": 2416,
      "Ġà¸£à¸²à¸Ħà¸²": 2417,
      "àºĩàºģàº²àºĻàº": 2418,
      "ĠHapit": 2419,
      "à¸ģà¸²à¸£à¸£": 2420,
      "à¸ĩà¹ĥà¸«": 2421,
      "Ġdidto": 2422,
      "àº²àºĻàºĹ": 2423,
      "à¸įà¸Ĭ": 2424,
      "à¸Ļà¸ĸ": 2425,
      "ugang": 2426,
      "àºļàºķ": 2427,
      "à¸£à¸°à¸¢à¸°": 2428,
      "orn": 2429,
      "à¸³à¸ķ": 2430,
      "co": 2431,
      "à¸ĩà¸ĸ": 2432,
      "Ġhilab": 2433,
      "Ġà¶ļà¶«": 2434,
      "ĠAr": 2435,
      "à·Ķ.": 2436,
      "à¸ĩà¹Ģà¸ģ": 2437,
      "Ġà·ħ": 2438,
      "à¸Ľà¸£à¸°à¸Īà¸³": 2439,
      "ĠProv": 2440,
      "Ġnagh": 2441,
      "Ġdunay": 2442,
      "à¸¢à¸Ńà¸Ķ": 2443,
      "à¸¡à¹Ģà¸ķ": 2444,
      "àºĩàºĤ": 2445,
      "à¸Ķà¹ĥà¸Ļ": 2446,
      "ĠCom": 2447,
      "àºĹàº²àºĻ": 2448,
      "Ġkabanay": 2449,
      "à¸Ľà¸£à¸°à¹Ĥà¸¢": 2450,
      "à¶¥": 2451,
      "à¹Ģà¸§à¸Ńà¸£": 2452,
      "à¸²à¸Ļà¸Ĺ": 2453,
      "à¸Ľà¸£à¸°à¹Ģà¸Ĺà¸¨à¹Ħà¸Ĺà¸¢": 2454,
      "à¶±à¶ºà¶§": 2455,
      "à¸ķà¸¥à¸²à¸Ķ": 2456,
      "ue": 2457,
      "à¸¬": 2458,
      "à»ĢàºĤàºĶ": 2459,
      "à¹Ĥà¸Ĺà¸£": 2460,
      "500": 2461,
      "ĠàºĪàº°": 2462,
      "Ġmaoy": 2463,
      "âĹ¼": 2464,
      "Ġà¶ľà¶«": 2465,
      "ond": 2466,
      "Ġkas": 2467,
      "],": 2468,
      "à¸¡à¸ª": 2469,
      "Ġ'": 2470,
      "Ġà¶ľà¶¸à¶±": 2471,
      "à¸ģà¹Ĩ": 2472,
      "à¸¢à¸Ļà¸£": 2473,
      "à¸²à¸£à¸°": 2474,
      "ment": 2475,
      "à»Į": 2476,
      "à¸ģà¸²à¸£à¸Ī": 2477,
      "ess": 2478,
      "Ġhilabihan": 2479,
      "Ġto": 2480,
      "àºĻàº²": 2481,
      "à¸ķà¸ª": 2482,
      "Ġà¸ľà¸¥": 2483,
      "à¸Ļà¸²à¸¢": 2484,
      "Ġà·Ģà¶Ń": 2485,
      "syon": 2486,
      "àºĽàº°àºĬàº²àºĬ": 2487,
      "Ġgay": 2488,
      "à¸Ľà¹ģà¸ļà¸ļ": 2489,
      "àº²àºĻàº¡": 2490,
      "à¶¬": 2491,
      "à¸Ńà¸¡à¸ģ": 2492,
      "uo": 2493,
      "Ġà·Ģà¶§": 2494,
      "à¸ģà¸Ħà¸Ļ": 2495,
      "ulat": 2496,
      "à¸£à¸Ńà¸ļ": 2497,
      "à¹Ħà¸Łà¸Ł": 2498,
      "à¸Ļà¹ĥà¸«": 2499,
      "àºĻàºĹàº²àºĩ": 2500,
      "àºĹàº³": 2501,
      "Ġà¶´à¶±": 2502,
      "Ġàº¥àº²àº§": 2503,
      "org": 2504,
      "pl": 2505,
      "à¶½à¶ºà¶ļ": 2506,
      "Ġthe": 2507,
      "iyembre": 2508,
      "ie": 2509,
      "à¹Ģà¸«à¸¡à¸²à¸°": 2510,
      "ito": 2511,
      "ase": 2512,
      "à¸¡à¸¡": 2513,
      "à¸Ļà¹Ģà¸ķ": 2514,
      "à¶½à¶§": 2515,
      "à¶Ńà·Ģ": 2516,
      "Ġà¹Ģà¸ĭ": 2517,
      "Ġà¹ĥà¸Ĭ": 2518,
      "Ġà¶Ĩà¶º": 2519,
      "à·ĥà¶Ń": 2520,
      "ry": 2521,
      "à¹Ģà¸§à¸ĵ": 2522,
      "Ġà¸Ĥà¸²à¸¢": 2523,
      "Ġà¶ļà¶©": 2524,
      "41": 2525,
      "bo": 2526,
      "ÃŃ": 2527,
      "Ġà·ĥà¶¯": 2528,
      "ĠJesus": 2529,
      "ive": 2530,
      "à¸Ķà¸Ħ": 2531,
      "à¸²à¸į": 2532,
      "are": 2533,
      "àºŃàºĩàºĹ": 2534,
      "à¹Ĥà¸ĭ": 2535,
      "à¸ļà¸Ń": 2536,
      "Ġse": 2537,
      "Ġmahimong": 2538,
      "à¸³à¸ģ": 2539,
      "à¸ĩà¸ŀ": 2540,
      "Ġà¶¶à·Ģà¶Ń": 2541,
      "Ġà·ĥà¶·": 2542,
      "àº½àº¡": 2543,
      "Ġtub": 2544,
      "à¸ģà¸ŀ": 2545,
      "ining": 2546,
      "Ġà¶īà¶½": 2547,
      "à¸ĺà¸£à¸£à¸¡à¸Ĭà¸²à¸ķ": 2548,
      "Es": 2549,
      "à¸Ńà¹Ģà¸£": 2550,
      "à»ĦàºĤ": 2551,
      "à¹Ĥà¸£à¸ĩà¹ģà¸£à¸¡": 2552,
      "àºĽàº°àºª": 2553,
      "Ġkaugal": 2554,
      "Ġà¹Ĥà¸£à¸ĩ": 2555,
      "Ġikaw": 2556,
      "à¸Ńà¸Ĭ": 2557,
      "Ġà»ģàºĤ": 2558,
      "à¸«à¸²à¸ģ": 2559,
      "Ġà¶ļà¶¸": 2560,
      "-.-âĹ¼": 2561,
      "47": 2562,
      "à¶¯à·Ħà·ĥ": 2563,
      "à¶»à¶ºà¶ļ": 2564,
      "à¸ģà¸²à¸£à¸ĵ": 2565,
      "ĠÃº": 2566,
      "à¸Ĥà¸Ńà¸ĩà¸Ĺ": 2567,
      "---": 2568,
      "pang": 2569,
      "à¸ªà¸ģ": 2570,
      "à·Ģà¶ºà¶ļ": 2571,
      "Ġgihulagway": 2572,
      "oc": 2573,
      "àºĻàºĤ": 2574,
      "oh": 2575,
      "Ġà·Ħà¶¯": 2576,
      "à¹ĥà¸Ļà¸Ĺ": 2577,
      "à¸ķà¸ķ": 2578,
      "Ġdaghan": 2579,
      "àºįàº°": 2580,
      "Ġgamay": 2581,
      "à¸Ħà¹Ĥà¸Ļ": 2582,
      "à¸§à¸¥": 2583,
      "à·ĥà¶¸": 2584,
      "àº´âĢĭ": 2585,
      "à¸²à¸£à¸ĵ": 2586,
      "à¸Ľà¸£à¸°à¹Ĥà¸¢à¸Ĭà¸Ļ": 2587,
      "Ġà¹Ģà¸ļ": 2588,
      "Ġà¶¯à·Ģà·ĥ": 2589,
      "ĠPh": 2590,
      "à¸§à¸¢à¸ģà¸²à¸£": 2591,
      "à¹Ĥà¸¥à¸¢": 2592,
      "ada": 2593,
      "ĠProvin": 2594,
      "à¸¥à¸²à¸¢": 2595,
      "Ġà¶Ńà¶»à¶¸": 2596,
      "Ġinyong": 2597,
      "à·ĥà¶§": 2598,
      "à¸Ħà¹Ĥà¸Ļà¹Ĥà¸¥à¸¢": 2599,
      "rans": 2600,
      "à¸Ħà¸Ħà¸¥": 2601,
      "àºŀàº²": 2602,
      "ve": 2603,
      "Ġà·Ģà¶½à¶§": 2604,
      "à¶¢à¶º": 2605,
      "à¸Ķà¸§à¸ģ": 2606,
      "bayan": 2607,
      "enera": 2608,
      "Ġà¸Ħà¸Ļ": 2609,
      "Ġsidlakan": 2610,
      "Ġkahenera": 2611,
      "Ġis": 2612,
      "à¸²à¹Ģà¸Ĥ": 2613,
      "Ġà¸£à¸²à¸Ħ": 2614,
      "isyembre": 2615,
      "à¹Ģà¸ķà¸£": 2616,
      "à¸§à¸¢à¸ģ": 2617,
      "àº«àºĻ": 2618,
      "àº²àºĩà»Ĩ": 2619,
      "Ġà¶ĳà·Ģ": 2620,
      "iko": 2621,
      "ET": 2622,
      "àºģàº²àºĻàºĹ": 2623,
      "Ġà¶ħà¶¯à·Ħà·ĥ": 2624,
      "Ġà»ĢàºĤ": 2625,
      "à¸ĩà¹Ģà¸Ĺà¸ŀ": 2626,
      "àºŃàºĩàºģ": 2627,
      "àºļàºĹ": 2628,
      "land": 2629,
      "Ġod": 2630,
      "ĠDisyembre": 2631,
      "à¸²à¸Ħà¸§": 2632,
      "à»ģàºĹ": 2633,
      "6666666666": 2634,
      "à¸²à¸ł": 2635,
      "was": 2636,
      "langk": 2637,
      "à¹ģà¸ģà¸£à¸¡": 2638,
      "Ġkomon": 2639,
      "erm": 2640,
      "à¸Ļà¹Ģà¸Ńà¸ĩ": 2641,
      "à¸²à¹Ģà¸¥": 2642,
      "Espesye": 2643,
      "à»ĪâĢĭ": 2644,
      "àº«àº¥": 2645,
      "à¸ļà¸²à¸¥": 2646,
      "à¸²à¸Ļà¸ķ": 2647,
      "Ġà¶ļà·Ģ": 2648,
      "à¶ī": 2649,
      "Ġpay": 2650,
      "à¸²à¸Ĺà¸³": 2651,
      "à¸¤à¸Ķ": 2652,
      "àºģàº²àºĻàºŀ": 2653,
      "à¸¡à¸ģ": 2654,
      "Ġkond": 2655,
      "à¸Ľà¸£à¸°à¸ķ": 2656,
      "à¸¢à¸²": 2657,
      "à¶»à¶½": 2658,
      "inahanglan": 2659,
      "Ġhabagatang": 2660,
      "à¸«à¸Ļà¸Ńà¸Ļ": 2661,
      "à¸ģà¸Ńà¸¢": 2662,
      "à¸Ńà¸ļà¸Ħà¸£": 2663,
      "tt": 2664,
      "àº§àº¡àº¡": 2665,
      "ins": 2666,
      "langkob": 2667,
      "à¸Ńà¸Ļà¸Ķ": 2668,
      "-.-âĹ¼-.-âĹ¼": 2669,
      "Ġkang": 2670,
      "abogon": 2671,
      "à¸ģà¸²": 2672,
      "Ġà¶ļà¶»à¶±à·Ģ": 2673,
      "ema": 2674,
      "Ġà¸ī": 2675,
      "àºĻàºĶàº²": 2676,
      "Ġgihabogon": 2677,
      "à¸Ķà¸Ĥà¸Ńà¸ĩ": 2678,
      "ĠApan": 2679,
      "Ġkinadul": 2680,
      "à¸²à¸ĩà¸Ķ": 2681,
      "à¹Ĥà¸ŀ": 2682,
      "ĠSan": 2683,
      "Ġà¶ħà·Ħ": 2684,
      "à¸²à¸Ļà¸¡à¸²": 2685,
      "Ġà·Ģà·Ħà¶±": 2686,
      "aru": 2687,
      "ile": 2688,
      "à»Ĥàº¥àºģ": 2689,
      "ĠAm": 2690,
      "Ġà¹Ģà¸ķ": 2691,
      "Ġnang": 2692,
      "ani": 2693,
      "ĠàºĦàº§àº²àº¡": 2694,
      "à¸²à¸Īà¸°à¹Ģà¸Ľ": 2695,
      "ĠMa": 2696,
      "à¶¸à¶¯": 2697,
      "à¸¥à¸Ľ": 2698,
      "à¶´à¶ºà¶ļ": 2699,
      "à¹Ģà¸ķà¸°": 2700,
      "à¸Ŀà¸£": 2701,
      "à¸ĩà¸¥": 2702,
      "Ġkinahabogang": 2703,
      "à¹Ģà¸ªà¸Ļà¸Ń": 2704,
      "à¸Ĥà¸łà¸²à¸ŀ": 2705,
      "à¸ĩà¹Ģà¸£": 2706,
      "Ġà¶Ńà·Ģ": 2707,
      "Ġiya": 2708,
      "à¸ĩà¸ĭ": 2709,
      "Ġà¶´à¶¸à¶«à¶ļ": 2710,
      "àºĻàºľ": 2711,
      "àº²àºŀàº°": 2712,
      "Ġà¹Ĥà¸£à¸Ħ": 2713,
      "à¸²à¹ĥà¸«": 2714,
      "Ġà¹Ģà¸¢": 2715,
      "à¸Ļà¸²à¸¡": 2716,
      "à¸£à¸°à¸ļ": 2717,
      "àºļàºģàº²àºĻ": 2718,
      "Ġlamang": 2719,
      "Ġpaagi": 2720,
      "àºģàºķ": 2721,
      "Ġkabungt": 2722,
      "à¸ĩà¸ľ": 2723,
      "à¹Ģà¸¥à¸Ĥ": 2724,
      "à¶±à¶±": 2725,
      "à¸Ńà¸Ķà¸Ĥ": 2726,
      "à¸Ļà¸¡à¸²": 2727,
      "Ġkabungtoran": 2728,
      "Ġà¶īà·ĥ": 2729,
      "Ġà¹Ĥà¸Ľà¸£": 2730,
      "Ġà¶¶à·Ģà¶º": 2731,
      "Ġà·ĥà¶³à·Ħà¶±": 2732,
      "à»ĥàºĶ": 2733,
      "à¶ºà·ĥ": 2734,
      "42": 2735,
      "Ġnila": 2736,
      "uyo": 2737,
      "à¸¡à¸²à¸ģà¸Ĥ": 2738,
      "Å¾": 2739,
      "à¸£à¸²à¸°à¸«": 2740,
      "Ġmedyo": 2741,
      "ata": 2742,
      "à¸ķà¸¥à¸Ńà¸Ķ": 2743,
      "à¸ŀà¸Ĺ": 2744,
      "ĠIs": 2745,
      "àºĩàº¡": 2746,
      "à¸Ļà¹Ģà¸ģ": 2747,
      "à¹Ģà¸łà¸Ĺ": 2748,
      "à¸ģà¸¨": 2749,
      "à¹Ģà¸Ħà¸£à¸²à¸°à¸«": 2750,
      "à¸¡à¸²à¸£": 2751,
      "à¸Ħà¸§à¸²à¸¡à¸ª": 2752,
      "à¶½à¶±à¶º": 2753,
      "àºŀàº²àºģ": 2754,
      "Ġà¸ĩà¸²à¸Ļ": 2755,
      "à¸¡à¸²à¸ģà¸¡à¸²à¸¢": 2756,
      "Ġà»ģàºĤàº§àºĩ": 2757,
      "Ġstanovnika": 2758,
      "à»ĥà»Ŀ": 2759,
      "à¸Ĥà¸²à¸§": 2760,
      "àºļàº²àºĻ": 2761,
      "imb": 2762,
      "li": 2763,
      "à¹ģà¸ļ": 2764,
      "Ġba": 2765,
      "://": 2766,
      "à¸¡à¸ľ": 2767,
      "à¸¡à¸²à¸ģà¸ģà¸§": 2768,
      "Ġà·ĥà¶¸à¶Ł": 2769,
      "56": 2770,
      "à¸ģà¸Ń": 2771,
      "akita": 2772,
      "Ġnags": 2773,
      "red": 2774,
      "à¸Ļà¸²": 2775,
      "à¸ĩà¸Ħà¸¡": 2776,
      "Ġà¶Ĭà¶§": 2777,
      "à¹ģà¸Ļà¸°à¸Ļà¸³": 2778,
      "43": 2779,
      "àºģàº®": 2780,
      "Ġkaninyo": 2781,
      "2560": 2782,
      "Ġmahit": 2783,
      "Ġch": 2784,
      "Ġàºŀàº§àºģ": 2785,
      "à¸Ļà¹Ĥ": 2786,
      "àºĦàº³": 2787,
      "suba": 2788,
      "à¸³à¹ģà¸«à¸Ļ": 2789,
      "ĠNew": 2790,
      "à¶ļà¶»à¶±": 2791,
      "ako": 2792,
      "Sa": 2793,
      "Ġà¸£à¸ĸ": 2794,
      "à¸ģà¸£à¸°à¸Ķ": 2795,
      "à¸²à¸Ńà¸ģ": 2796,
      "à¸¥à¸ĩà¸Ĺ": 2797,
      "âĺ": 2798,
      "Ġmal": 2799,
      "Ġtr": 2800,
      "2016": 2801,
      "àºĶàºªàº°": 2802,
      "à¸§à¸Ļà¸ķ": 2803,
      "Ġnagk": 2804,
      "Ġà¹Ģà¸ģà¸¡à¸ª": 2805,
      "àºĤàºŃàºĩàºĹ": 2806,
      "bot": 2807,
      "Ġlong": 2808,
      "à¸ĩà¸ľà¸¥": 2809,
      "ica": 2810,
      "Ġà¶¶à¶½à¶±": 2811,
      "à¸Ľà¸¥à¸Ńà¸Ķ": 2812,
      "Ġj": 2813,
      "ulti": 2814,
      "à·ħà¶¹": 2815,
      "Ġz": 2816,
      "Ġlat": 2817,
      "ft": 2818,
      "à¹ģà¸Ķà¸ĩ": 2819,
      "à¸Ľà¸£à¸°à¸ģà¸²à¸¨": 2820,
      "àº¡àºĹ": 2821,
      "à¸§à¸ª": 2822,
      "dan": 2823,
      "à¹ĥà¸Ļà¸ª": 2824,
      "à¸ĵà¸°à¸Ĺ": 2825,
      "ome": 2826,
      "à¸Ļà¹Ģà¸ª": 2827,
      "à¹ģà¸ŀà¸Ĺà¸¢": 2828,
      "à»ģàºĶàºĩ": 2829,
      "à¸¸à¹Ĭ": 2830,
      "uy": 2831,
      "à¸ªà¸³à¸Ļ": 2832,
      "'(": 2833,
      "à¶ºà¶ľ": 2834,
      "33333333333333333333333333333333333333333333333333333333333333333333333333333333333333333333333333333333333333333333333333333333": 2835,
      "àºĻà»ĦàºĶ": 2836,
      "??": 2837,
      "75": 2838,
      "ĠSh": 2839,
      "ey": 2840,
      "à»ĢàºŃàºģ": 2841,
      "à¸ĩà¸ĩà¸²à¸Ļ": 2842,
      "à»Ģà»ľ": 2843,
      "à¸ĩà¸Ħà¸£": 2844,
      "àºļàºľ": 2845,
      "à¶¶à¶»": 2846,
      "Ġ='(": 2847,
      "ru": 2848,
      "AN": 2849,
      "àº°àºª": 2850,
      "àºĻàºģàº²àºĻ": 2851,
      "à¸ģà¸«à¸Ļ": 2852,
      "à¹Ħà¸Ľà¸Ķ": 2853,
      "à¸¡à¸Ĭ": 2854,
      "tern": 2855,
      "ER": 2856,
      "àºĩàºķ": 2857,
      "àºĶàºĤ": 2858,
      "àº²àºĻàºĻ": 2859,
      "Ġà¶ħà¶´à¶§": 2860,
      "Ġà¸®": 2861,
      "Ġà¶ħà¶·": 2862,
      "per": 2863,
      "à¸Ķà¸«": 2864,
      "ĠâĢ¢": 2865,
      "à¸Ļà¸«à¸¥": 2866,
      "à¸¥à¸Ńà¸Ķ": 2867,
      "Ġà¸Ľà¸£à¸ª": 2868,
      "àº§à»ľ": 2869,
      "à¸Ķà¸²à¸§": 2870,
      "à»Ģàºŀàº²àº°": 2871,
      "à¸²à¸Ħà¸§à¸²à¸¡": 2872,
      "à¸²à¹ĥà¸Ĭ": 2873,
      "à¸Ńà¸Ĥà¸²à¸¢": 2874,
      "à¸µ,": 2875,
      "à¸ķà¸ģ": 2876,
      "entro": 2877,
      "à¸Ķà¸ŀ": 2878,
      "à¶½à·Ģ": 2879,
      "Ġpr": 2880,
      "Ġsam": 2881,
      "Ġà¸ļà¸²à¸ĩ": 2882,
      "à¸²à¹Ħ": 2883,
      "Ġdakbayan": 2884,
      "Ġà¶ļà¶±": 2885,
      "àºŀàº§àºģà»Ģàº®": 2886,
      "à¸²à¸£à¸¢": 2887,
      "àºģàº²àºĻàºķ": 2888,
      "ake": 2889,
      "à¸Ľà¸²à¸ģ": 2890,
      "àºĻàº®": 2891,
      "à¸Ńà¸Ķà¸Ĥà¸Ńà¸Ķ": 2892,
      "à¸Ńà¸ĩà¸Ĥà¸Ńà¸ĩ": 2893,
      "ati": 2894,
      "àº¹à»ĪâĢĭ": 2895,
      "Ġkaugalingon": 2896,
      "àº³àº¥": 2897,
      "Ġà¶¡": 2898,
      "Ġàº«àº§àº½àºĶàºĻàº²àº¡": 2899,
      "à¸¥à¸²à¸Ķ": 2900,
      "à¸§à¸¢à¸Ħà¸§à¸²à¸¡": 2901,
      "Ġà¶Ĩà¶»à¶ļ": 2902,
      "à¹Ĵ": 2903,
      "à»ģàº®àºĩ": 2904,
      "Ġdep": 2905,
      "Ġcom": 2906,
      "à¹Ģà¸Ĺà¸Ħà¹Ĥà¸Ļà¹Ĥà¸¥à¸¢": 2907,
      "à¸Ńà¸ĩà¸Ĥ": 2908,
      "à¸Ńà¸Ńà¸ģà¹ģà¸ļà¸ļ": 2909,
      "Ġà¹ģà¸Ĺ": 2910,
      "à¸ĩà¸ļà¸Ńà¸¥": 2911,
      "à»Ħàºŀ": 2912,
      "ult": 2913,
      "à¸§à¸Ńà¸¢": 2914,
      "ĠHun": 2915,
      "à¸Ńà¸ĩà¸§": 2916,
      "à¹Ģà¸ģà¸©": 2917,
      "ipila": 2918,
      "ãģ": 2919,
      "àº°àºģ": 2920,
      "IN": 2921,
      "àºŃàºĻàº«": 2922,
      "ps": 2923,
      "à¹ģà¸Ľà¸¥à¸ĩ": 2924,
      "à¸³à¸Ĺ": 2925,
      "ace": 2926,
      "Ġkinabuhi": 2927,
      "àºģàº²àºĻàºĦ": 2928,
      "Ġà¸Ļà¸²à¸¢": 2929,
      "àºģàº²àºĻàºĽ": 2930,
      "idae": 2931,
      "à»ĦàºŁ": 2932,
      "ĠPagka": 2933,
      "Ġà¶±à·Ģ": 2934,
      "àº¡àºĦ": 2935,
      "àº¥àº°àºģ": 2936,
      "à¶ļà·Ģ": 2937,
      "à¸ªà¸³à¹Ģà¸£": 2938,
      "Ġà¸ķà¸²à¸¡": 2939,
      "à¹Ħà¸£à¸ģ": 2940,
      "Ġkad": 2941,
      "àºĶàºĹàº°àºĻàº²": 2942,
      "age": 2943,
      "Ġà¸Ľà¸£à¸°à¸ģà¸²à¸¨": 2944,
      "à¶ºà¶±à·Ģ": 2945,
      "à¸ģà¸²à¸£à¹ĥà¸Ĭ": 2946,
      "ibo": 2947,
      "à¸ķà¸°": 2948,
      "ĠopÅ¡tine": 2949,
      "à¶Ńà¶½": 2950,
      "à¸Ķà¹Ģà¸Ķ": 2951,
      "ayong": 2952,
      "àºĶàºĸàº°àºģ": 2953,
      "Ġmop": 2954,
      "à¶ħà¶´": 2955,
      "ial": 2956,
      "ĠGi": 2957,
      "57": 2958,
      "à¸ªà¸°à¸Ķà¸§à¸ģ": 2959,
      "Ġà¶īà·Ħ": 2960,
      "à¸ŀà¸ļ": 2961,
      "Ġ>": 2962,
      "Ġhin": 2963,
      "Ġx": 2964,
      "aho": 2965,
      "à¶ļà¶ºà¶±": 2966,
      "à¸Ļà¸²à¸Ļ": 2967,
      "à¶¶à¶½": 2968,
      "à¸ªà¸Ļà¹ĥà¸Ī": 2969,
      "Ġlaw": 2970,
      "ĠNob": 2971,
      "ĠLac": 2972,
      "à¸ļà¸Ī": 2973,
      "à¸ģà¸²à¸£à¸¨": 2974,
      "Ġnalista": 2975,
      "àº°àºĶ": 2976,
      "à¸Ļà¸Īà¸²à¸ģ": 2977,
      "à¸¡à¸£": 2978,
      "Ġà¶¸à¶½": 2979,
      "ĠNaglangkob": 2980,
      "59": 2981,
      "Ġà¶ľà¶¸": 2982,
      "ante": 2983,
      "à¹Ģà¸Īà¸£": 2984,
      "à¹Ģà¸ŀà¸¥": 2985,
      "ver": 2986,
      "ou": 2987,
      "àº´à»ī": 2988,
      "à¸ªà¸¡à¸²à¸Ĭ": 2989,
      "à·Ļ.": 2990,
      "àº°àº«àº§": 2991,
      "à¹Ģà¸Ńà¸²": 2992,
      "rop": 2993,
      "lungsod": 2994,
      "les": 2995,
      "Ġà¶´à·Ģà·ĥ": 2996,
      "awhan": 2997,
      "à¸Ńà¸ģà¸Īà¸²à¸ģà¸Ļ": 2998,
      "à¸¢à¸į": 2999,
      "à¸Ńà¸¡à¸£": 3000,
      "àºĻà»ĢàºĽ": 3001,
      "à¸Īà¸³à¹Ģà¸Ľ": 3002,
      "Ġsiak": 3003,
      "Ġdin": 3004,
      "Ġà»Ģàº®": 3005,
      "àºļàºª": 3006,
      "à»Ģàº§àº¥": 3007,
      "Ġta": 3008,
      "xxx": 3009,
      "ure": 3010,
      "à¶§à¶´": 3011,
      "ingk": 3012,
      "Ġà¸«à¸¡à¸§à¸ģ": 3013,
      "lub": 3014,
      "àºģàºĹ": 3015,
      "à¸²à¸¢à¹Ģà¸Ľ": 3016,
      "Ġsentro": 3017,
      "à¸²à¸ĩà¸ķ": 3018,
      "à¸²à¹Ģà¸Ķ": 3019,
      "ĠàºĪàº²àºģ": 3020,
      "àºļàºĦ": 3021,
      "ayag": 3022,
      "à¸Ħà¸§à¸ļà¸Ħ": 3023,
      "à¹ģà¸¥à¸°à¸ª": 3024,
      "Ġà¹ģà¸¥à¸°à¸¡": 3025,
      "à¸ģà¸³à¸«à¸Ļ": 3026,
      "Ġpipila": 3027,
      "à¶»à¶ºà¶§": 3028,
      "àº°à»ģ": 3029,
      "ikal": 3030,
      "2015": 3031,
      "àºĩàºĪ": 3032,
      "elo": 3033,
      "abaye": 3034,
      "à¸°à¸Ĺ": 3035,
      "à¸ªà¸¥": 3036,
      "300": 3037,
      "ĠThe": 3038,
      "à¸ģà¸Ĭ": 3039,
      "Ġe": 3040,
      "à¸ģà¸£à¸°à¸ļ": 3041,
      "à¸ķà¸£à¸ĩ": 3042,
      "à¸Ħà¸Ńà¸Ļ": 3043,
      "ĠÐ": 3044,
      "à¸Ľà¸£à¸°à¸Ĭà¸²à¸Ĭ": 3045,
      "à¸Ńà¸ĩà¹ĥà¸Ĭ": 3046,
      "à¹Ĥà¸¡à¸ªà¸£": 3047,
      "Ġgusto": 3048,
      "ĠÃį": 3049,
      "Ġpagpang": 3050,
      "à¸²à¸ĩà¸£": 3051,
      "ĠQ": 3052,
      "Ġbal": 3053,
      "à¸Ńà¸Ĥà¸Ńà¸ĩ": 3054,
      "Ġ&": 3055,
      "à¸Ĺà¸³à¸ģà¸²à¸£": 3056,
      "à¹Ĥà¸«à¸¥à¸Ķ": 3057,
      "ĠBr": 3058,
      "Ġà¶ĩà·ĥ": 3059,
      "à¸Ĭà¸²": 3060,
      "à¸Ķà¸Īà¸²à¸ģ": 3061,
      "àºģàºªàº²": 3062,
      "à¶ļà¶»à¶«": 3063,
      "àº«àºį": 3064,
      "à¹Ģà¸ĺà¸Ń": 3065,
      "à¸Ħà¸ĵà¸°": 3066,
      "ĠTag": 3067,
      "à¶»à¶´": 3068,
      "à¶¢à¶´à¶ļ": 3069,
      "umala": 3070,
      "à¸¡à¸Ĭà¸Ļ": 3071,
      "à¸Ĺà¸£à¸ĩ": 3072,
      "erb": 3073,
      "ĠEs": 3074,
      "à¸Ľà¸¥à¸Ńà¸Ķà¸ł": 3075,
      "ies": 3076,
      "dpang": 3077,
      "Ġà¶ĳà¶ļà¶Ń": 3078,
      "Ġuna": 3079,
      "Ġmap": 3080,
      "à¸¡à¸Ķ": 3081,
      "ĠHunyo": 3082,
      "aghan": 3083,
      "ork": 3084,
      "àºĸàº²àºĻ": 3085,
      "àºŃàºĻàºĹ": 3086,
      "69": 3087,
      "àºŃàº²": 3088,
      "Ġà¹ģà¸ļà¸ļ": 3089,
      "9999": 3090,
      "à¸ģà¸¢": 3091,
      "cia": 3092,
      "Ġmagp": 3093,
      "à¸Ńà¸ĩà¸ļ": 3094,
      "àº²àºĤ": 3095,
      "à¸Ńà¸¡à¸Ĺ": 3096,
      "à¸Īà¸°à¹Ħà¸¡": 3097,
      "ĠNobiyembre": 3098,
      "à¶ĩ": 3099,
      "à¹ģà¸«à¸¥": 3100,
      "à¶½à¶°": 3101,
      "àº¹à»īâĢĭ": 3102,
      "Ġà¶īà¶©": 3103,
      "à¹ĥà¸Ļà¸£": 3104,
      "à·Ĥà¶«à¶º": 3105,
      "à¸§à¸¢à¹ĥà¸«": 3106,
      "apon": 3107,
      "à¸ģà¸£à¸°à¸Ī": 3108,
      "à¸Ĥà¸§": 3109,
      "ĠÄº": 3110,
      "à¹Ĥà¸£à¸ĩà¹Ģà¸£": 3111,
      "à¶¶à¶¯": 3112,
      "ĠâĢį": 3113,
      "Ġà¹Ģà¸ģà¸¡": 3114,
      "Ġà¸Ĥà¸Ļà¸²à¸Ķ": 3115,
      "Ġà¹Ģà¸«à¸¡": 3116,
      "à¸§à¸ķ": 3117,
      "à¸¨à¸Ļ": 3118,
      "à¸Ļà¸Ħà¸§à¸²à¸¡": 3119,
      "à¸ģà¸Ľ": 3120,
      ".)": 3121,
      "à¹Ģà¸«à¸£": 3122,
      "àºģàºĽ": 3123,
      "à¶¡": 3124,
      "Ġà·ĥà¶±": 3125,
      "Ġà¶»à¶¢à¶º": 3126,
      "à¸³à¹Ģà¸ł": 3127,
      "ĠÅĳ": 3128,
      "àºĶà»Ŀàº²àºį": 3129,
      "ight": 3130,
      "àº²àºŀàº°à»ĢàºĪ": 3131,
      "à¸¢à¸Ĺ": 3132,
      "âĤ¬âĤ¬âĤ¬âĤ¬": 3133,
      "our": 3134,
      "à¸ķà¸Ĺ": 3135,
      "à¹Ĥà¸ļ": 3136,
      "à¸ļà¸ģà¸²à¸£à¸ĵ": 3137,
      "à¸¡à¸Ĭà¸²à¸ķ": 3138,
      "79": 3139,
      "à¹ĳ": 3140,
      "à¸ľà¸¥à¸ĩà¸²à¸Ļ": 3141,
      "à¸ģà¹Ģà¸ģ": 3142,
      "à»Ģàºªàºį": 3143,
      "old": 3144,
      "Ġnat": 3145,
      "Äĩ": 3146,
      "amento": 3147,
      "à¸Ļà¸Ł": 3148,
      "à»Ĥàºķ": 3149,
      "ĠAp": 3150,
      "ugo": 3151,
      "à¸§à¸Ħà¸£": 3152,
      "à¸Ńà¸²à¸Ķ": 3153,
      "à¸Ńà¹Ģà¸¡": 3154,
      "àºµ,": 3155,
      "àºĩàºĬàº²àºĶ": 3156,
      "à¸Ħà¸§à¸¢": 3157,
      "à¸Ńà¹Ģà¸Ļ": 3158,
      "à¸Ķà¸ĸ": 3159,
      "rom": 3160,
      "uol": 3161,
      "ington": 3162,
      "Ġut": 3163,
      "ĠBl": 3164,
      "ge": 3165,
      "Ġà¶ºà¶§à¶Ń": 3166,
      "à¶¸à¶½": 3167,
      "Ġip": 3168,
      "Ġà¶ħà¶ļ": 3169,
      "Ġà¶´à¶½": 3170,
      "Ġà¶»à¶±": 3171,
      "àºĩàº¢": 3172,
      "à¸ªà¸²à¸¡": 3173,
      "à¸¿": 3174,
      "09": 3175,
      "ugod": 3176,
      "àº°àº§": 3177,
      "àº¥àº°àºļ": 3178,
      "à¸ļà¸ªà¸Ļ": 3179,
      "89": 3180,
      "à¸Īà¸³à¸«à¸Ļ": 3181,
      "àºļàºģ": 3182,
      "à¸ģà¸Ī": 3183,
      "à¸Ĭà¸¡à¸Ľ": 3184,
      "Ġpam": 3185,
      "Ġhang": 3186,
      "àºĻàº°àºĦ": 3187,
      "Ġtag": 3188,
      "à¸ģà¹Ģà¸ķà¸°": 3189,
      "à¸¢à¸²à¸ģ": 3190,
      "à¸ģà¸²à¸£à¸ŀ": 3191,
      "2010": 3192,
      "à¸Ķà¸«à¸Ļ": 3193,
      "ij": 3194,
      "à¸ªà¸§": 3195,
      "àºļàºĽ": 3196,
      "àºĩàºļ": 3197,
      "Ġà¸Īà¸³à¸ģ": 3198,
      "à¸ģà¸©à¸ĵà¸°": 3199,
      "udlo": 3200,
      "à¸Ńà¸²à¸ģà¸²à¸£": 3201,
      "à¸²à¸£à¸²": 3202,
      "Ã£": 3203,
      "EJ": 3204,
      "Ġbabaye": 3205,
      "àºģàº²": 3206,
      "In": 3207,
      "Ġsulod": 3208,
      "à¸ĩà¹ĥà¸Ī": 3209,
      "ahuna": 3210,
      "à¹Ģà¸ŀà¸¨": 3211,
      "Ġà¶ļà¶»à¶ľ": 3212,
      "ura": 3213,
      "ĠGino": 3214,
      "à¸Ńà¸Ļà¸£": 3215,
      "àº²à»ĢàºĪ": 3216,
      "àº¡àºª": 3217,
      "à¸ģà¸ľ": 3218,
      "ber": 3219,
      "Ġà¶Ĩà·Ģ": 3220,
      "igayon": 3221,
      "àºĻà»Ĩ": 3222,
      "à¶§à·Ħ": 3223,
      "àº²àºĻàº§": 3224,
      "àº§àº²àºĩ": 3225,
      "à¸Ļà¹ģà¸ļà¸ļ": 3226,
      "artamento": 3227,
      "Ġà¸Ńà¸²à¸Ī": 3228,
      "à·Ĳà¶Ĥ": 3229,
      "Ġà¶Ĵà¶Ń": 3230,
      "à»Ħàº¥àºįàº°": 3231,
      "à¶ļà¶»à¶«à¶º": 3232,
      "âĢĭâĢĭ": 3233,
      "à¸ķà¸ĸ": 3234,
      "ĠTh": 3235,
      "Ġpagl": 3236,
      "à¶¶à¶³à·Ģ": 3237,
      "lanan": 3238,
      "ugma": 3239,
      "ĠðŁ": 3240,
      "à¸Ńà¸¢à¹Ĩ": 3241,
      "act": 3242,
      "à¸²à¸Ļà¸Ļ": 3243,
      "àºĶàºĬ": 3244,
      "Ġà¸ªà¸£": 3245,
      "à¹ģà¸Ľà¸¥": 3246,
      "à¸ķà¸£à¸§à¸Īà¸ªà¸Ńà¸ļ": 3247,
      "à¸Ļà¸Ńà¸Ńà¸ģ": 3248,
      "àº¡àº²àºĻ": 3249,
      "Ġ--------": 3250,
      "à¹ĥà¸Ļà¸Ľ": 3251,
      "à¹Ħà¸Ń": 3252,
      "Ġbul": 3253,
      "ĠAb": 3254,
      "ital": 3255,
      "à¸Ħà¸£à¸Ńà¸ļà¸Ħà¸£": 3256,
      "Ġmad": 3257,
      "risto": 3258,
      "à¸ĩà¹ģà¸£à¸ģ": 3259,
      "Ġadtong": 3260,
      "Ġmot": 3261,
      "ko": 3262,
      "Ġmod": 3263,
      "ardia": 3264,
      "aya": 3265,
      "à¸Ķà¹ĥà¸«": 3266,
      "à¸¥à¸ļ": 3267,
      "aka": 3268,
      "àºªàº°à»ľ": 3269,
      "garan": 3270,
      "Ãĸ": 3271,
      "Ġning": 3272,
      "ukid": 3273,
      "à¶ľà¶ºà¶ļ": 3274,
      "awat": 3275,
      "à¸Ńà¸ªà¸£": 3276,
      "Ġhal": 3277,
      "à¹Ĥà¸Ľà¸£à¹ģà¸ģà¸£à¸¡": 3278,
      "à¹Ĥà¸Ķà¸Ļ": 3279,
      "à¸Ħà¸£à¸ļ": 3280,
      "angan": 3281,
      "Ġà¶ĳà¶¯": 3282,
      "à¶ļà¶Ń": 3283,
      "ear": 3284,
      "à¸ªà¸Ļà¸²à¸¡": 3285,
      "Ġgis": 3286,
      "à¹ķ": 3287,
      "à¸ķà¸Ńà¸ļ": 3288,
      "àºĩàº§": 3289,
      "àº²àº¢": 3290,
      "à¸²à¸ĩà¸ª": 3291,
      "Ġàºªàº°àº«": 3292,
      "à¹ģà¸ĸ": 3293,
      "à·Ħà¶§": 3294,
      "âĺĢ": 3295,
      "Ġà¸Ńà¸Ńà¸ģ": 3296,
      "Ġkanimo": 3297,
      "à¸ĩà¹ģà¸¥à¸°": 3298,
      "har": 3299,
      "à»ĥàºķ": 3300,
      "ideo": 3301,
      "à¶°à¶Ń": 3302,
      "Ġkondado": 3303,
      "Ġprod": 3304,
      "Ġà¹Ģà¸ĺ": 3305,
      "à¸Ļà¹ģà¸¥": 3306,
      "à¸ģà¸²à¸£à¸Ħ": 3307,
      "à¸Ļà¹Ģà¸¡": 3308,
      "à¸Ńà¸ĩà¸ĸ": 3309,
      "Ġbuhat": 3310,
      "Ġà¶±à¶ľ": 3311,
      "à¹ĥà¸Ļà¸ķ": 3312,
      "âĺĢâĺĢ": 3313,
      "à¶ºà·Ģà¶»": 3314,
      "à¸²à¸ļà¸²à¸¥": 3315,
      "ĠSp": 3316,
      "Munisipyo": 3317,
      "unahuna": 3318,
      "àº«àº§àº½àºĶàºĻàº²àº¡": 3319,
      "à¹Ħà¸«à¸¥": 3320,
      "Ġkami": 3321,
      "51": 3322,
      "à¸²à¸Ļà¸ģ": 3323,
      "à¸Ńà¹Ħà¸Ķ": 3324,
      "sang": 3325,
      "à¶«à¶ºà¶ļ": 3326,
      "à¶ļà¶¯": 3327,
      "àº§àºŀ": 3328,
      "ery": 3329,
      "à¹Ģà¸¢à¸Ńà¸°": 3330,
      "à¶´à¶¯": 3331,
      "gr": 3332,
      "à¸¥à¸°à¸Ħà¸£": 3333,
      "à¸°à¹Ģà¸ļ": 3334,
      "à»Ħàº¡": 3335,
      "àº²àºĽàº°": 3336,
      "Ġà¹ģà¸«": 3337,
      "à¸Īà¸²à¸£à¸ĵ": 3338,
      "Ġfor": 3339,
      "adtong": 3340,
      "out": 3341,
      "à¸¥à¸¢": 3342,
      "ilip": 3343,
      "Ġduha": 3344,
      "Ġtib": 3345,
      "Lungsod": 3346,
      "à·Ķà¶Ĥ": 3347,
      "amo": 3348,
      "ibalo": 3349,
      "Ġanak": 3350,
      "Ã¡": 3351,
      "Ġpaghimo": 3352,
      "à¸Ńà¸²à¸¢": 3353,
      "à¹ĥà¸Ļà¸§": 3354,
      "à¸Ķà¸ķà¸²à¸¡": 3355,
      "à·Ķ,": 3356,
      "à¹ģà¸ķà¸ģà¸ķ": 3357,
      "à¸Ľà¸Ķ": 3358,
      "à¸¡à¸§": 3359,
      "Ġà»Ģàº¥": 3360,
      "asang": 3361,
      "à¸Ļà¸Ĺà¸³": 3362,
      "à¸Ļà¹Ģà¸Ĭ": 3363,
      "Ġà·Ħà¶³": 3364,
      "à¸ģà¸Ĥà¸Ńà¸ĩ": 3365,
      "àºĩà»ĦàºĶ": 3366,
      "àº²àºĩàºģ": 3367,
      "à¶´à¶»": 3368,
      "àºģàº²àºĻàºĽàº°": 3369,
      "02": 3370,
      "àºĶàºĪ": 3371,
      "à¸Ļà¸Ħà¸Ļ": 3372,
      "à¸¥à¸³": 3373,
      "ick": 3374,
      "Ġmahitungod": 3375,
      "à¶Ĩ": 3376,
      "isyon": 3377,
      "à¶Ŀ": 3378,
      "sal": 3379,
      "ĠàºªàºĽ": 3380,
      "ans": 3381,
      "à¸¡à¸²à¸ģà¸Ĺ": 3382,
      "va": 3383,
      "Ġind": 3384,
      "àºĶàºŀ": 3385,
      "ach": 3386,
      "à¸Ļà¸Ńà¸Ńà¸Ļà¹Ħà¸¥à¸Ļ": 3387,
      "à¸ļà¸Ľ": 3388,
      "ukod": 3389,
      "à¸´à¹Ĭ": 3390,
      "à¶½à·ĥ": 3391,
      "àºģàºį": 3392,
      "àºļàºŀ": 3393,
      "400": 3394,
      "Ġmang": 3395,
      "àºĦàº°àºĻàº°": 3396,
      "ree": 3397,
      "Ġdr": 3398,
      "àºģàº²àºĻàº®": 3399,
      "à¹Ģà¸Ľà¸Ńà¸£": 3400,
      "Ġonline": 3401,
      "lin": 3402,
      "à¶°à¶±à¶º": 3403,
      "à¶¯à¶ļ": 3404,
      "à¸²à¸ĩà¹Ħà¸£": 3405,
      "Ġda": 3406,
      "àºģàºĻ": 3407,
      "à¶§à¶½": 3408,
      "apital": 3409,
      "bahin": 3410,
      "à¸Ńà¸³à¸Ļ": 3411,
      "ÎµÎµÎµÎµÎµÎµÎµÎµ": 3412,
      "Ġà¹Ĥà¸Ķà¸¢à¸¡": 3413,
      "à¸²à¸ĩà¸¡": 3414,
      "Ġtanang": 3415,
      "à»ĤàºĻ": 3416,
      ";;": 3417,
      "Ġà¶»à·ĥ": 3418,
      "ĠAs": 3419,
      "à¸²à¸Ļà¸Ħ": 3420,
      "à¸Ĭà¸Ļà¸°": 3421,
      "à¸§à¸§": 3422,
      "à¸²à¸ŀà¸£": 3423,
      "ich": 3424,
      "mo": 3425,
      "à¸ļà¸«à¸Ļ": 3426,
      "uok": 3427,
      "à¶ºà·Ģà·ĥ": 3428,
      "lay": 3429,
      "ump": 3430,
      "01": 3431,
      "à»ģàºĽ": 3432,
      "à¸¢à¸²à¸Ļ": 3433,
      "àºĶàº§àº½àºģ": 3434,
      "54": 3435,
      "Ġà¶ĳà¶Ń": 3436,
      "Ġamong": 3437,
      "à¸Łà¸Ńà¸£": 3438,
      "à¸ĩà¹Ģà¸Ķ": 3439,
      "Ġà¸Ńà¸²à¸«à¸²à¸£": 3440,
      "Ġth": 3441,
      "07": 3442,
      "à¸Ľà¸£à¸°à¸ªà¸ļà¸ģà¸²à¸£à¸ĵ": 3443,
      "ĠWash": 3444,
      "6666666666666666666666666666666666666666666666666666666666666666666666666666666666666666666666666666666666666666666666666666666666666666666666666666666666666666666666666666666666666666666666666666666666666666666666666666666666666666666666666666666666666666": 3445,
      "à¹Ħà¸ķà¸¥": 3446,
      "ood": 3447,
      "à¸²à¸ķà¸£à¸Ĳà¸²à¸Ļ": 3448,
      "à¶łà¶±": 3449,
      "à¸ģà¸£à¸£à¸¡à¸ģà¸²à¸£": 3450,
      "à¹Ĥà¸Ĺà¸©": 3451,
      "Äģ": 3452,
      "à¸Ńà¸Ļà¸Ĥ": 3453,
      "à¸ªà¸ĸà¸²à¸Ļà¸Ĺ": 3454,
      "à¹Ģà¸ģà¸©à¸ķà¸£": 3455,
      "à¸£à¸²à¸¢à¸¥à¸°à¹Ģà¸Ń": 3456,
      "à¸«à¸²à¸§": 3457,
      "Ġres": 3458,
      "à¸Ńà¸ĩà¸Ī": 3459,
      "52": 3460,
      "à¸Ńà¸²à¸£": 3461,
      "ihang": 3462,
      "à¸Ļà¸ļà¸Ńà¸¥": 3463,
      "à¸²à¸ģà¸«à¸¥à¸²à¸¢": 3464,
      "BET": 3465,
      "Ġà¸Ĺà¸²à¸ĩ": 3466,
      "àº²à»ĦàºĶ": 3467,
      "âĢĺ": 3468,
      "à¸Ľà¸ģà¸ķ": 3469,
      "àºĻàºĸ": 3470,
      "uan": 3471,
      "Ġnasud": 3472,
      "à»ĢàºŃàºĩ": 3473,
      "Ġgod": 3474,
      "Ġimo": 3475,
      "Ġniining": 3476,
      "Ġà¶Ĩà¶»à¶¸": 3477,
      "à¸£à¸©à¸Ĳ": 3478,
      "ĠGinoo": 3479,
      "à¶§à¶º": 3480,
      "Ġà¶ĳà¶»": 3481,
      "à¸Ńà¸¡à¸ŀ": 3482,
      "abil": 3483,
      "no": 3484,
      "à¸Ńà¸Ł": 3485,
      "Ġà¸ªà¸²à¸§": 3486,
      "à»ĤàºĹ": 3487,
      "à¶½à¶¸": 3488,
      "Ġkaum": 3489,
      "à»ī.": 3490,
      "Ġà¸Ļà¸²à¸Ĺ": 3491,
      "à¸¥à¸Ńà¸ĩ": 3492,
      "666": 3493,
      "zi": 3494,
      "à¸¸à¹Į": 3495,
      "Ġdiin": 3496,
      "ON": 3497,
      "Ġkaumahan": 3498,
      "à»Ģàºľ": 3499,
      "à¸°à¸Ļ": 3500,
      "Ġkalib": 3501,
      "à¸Ńà¸Ńà¸ģà¸¡à¸²": 3502,
      "àºĶàºļ": 3503,
      "à¸ģà¸²à¸£à¹Ģà¸¥": 3504,
      "ĠTr": 3505,
      "à·Ħà¶¸": 3506,
      "à¸ŀà¸£à¸°à¸£à¸²à¸Ĭ": 3507,
      "à¸ģà¹ģà¸¥à¸°": 3508,
      "à¸Ļà¸ªà¸¡": 3509,
      "Ġà¶½à¶¶à¶±": 3510,
      "ph": 3511,
      "à¹Ģà¸ĭà¸Ńà¸£": 3512,
      "Ġproduk": 3513,
      "àº¼àºµ": 3514,
      "ai": 3515,
      "asino": 3516,
      "à¹Ģà¸ŀà¸Ĭà¸£": 3517,
      "à¸Ļà¹Ģà¸Ĥ": 3518,
      "àºĻàºĽ": 3519,
      "à¸Ķà¸ļ": 3520,
      "à¸¢à¸²à¸§": 3521,
      "à¹Ģà¸ļà¸Ńà¸£": 3522,
      "àºĩàºĤàºŃàºĩ": 3523,
      "àºļà»ĦàºĬ": 3524,
      "Ġbay": 3525,
      "Ġpaggamit": 3526,
      "à¶¯à¶ľà¶Ń": 3527,
      "à¸¡à¸Ħ": 3528,
      "à¸²à¸Ħà¸£": 3529,
      "Ġkasagaran": 3530,
      "awag": 3531,
      "Ġà¸ł": 3532,
      "à¸ĩà¹Ħà¸Ľ": 3533,
      "ĠÅ±": 3534,
      "àºĩàºĪàº²àºģ": 3535,
      "à¸£à¸ª": 3536,
      "Ð°": 3537,
      "anon": 3538,
      "à¸¢à¸ª": 3539,
      "Ġtig": 3540,
      "ĠWashington": 3541,
      "ish": 3542,
      "53": 3543,
      "àºĹàº°àºį": 3544,
      "à¹Ħà¸«à¸¡": 3545,
      "à¸Ļà¸¨": 3546,
      "àº²à»ĢàºĽ": 3547,
      "Ġà¶ĭà·ĥ": 3548,
      "Ġnad": 3549,
      "à¸ļà¸Ľà¸£": 3550,
      "ubl": 3551,
      "Ġtubig": 3552,
      "àºģàº²àºĻàºĪ": 3553,
      "à¸Ļà¸ĩà¸²à¸Ļ": 3554,
      "à¶»à¶¢": 3555,
      "Ġà¶ħà¶ľ": 3556,
      "à¹Ĳ": 3557,
      "à¶Ńà¶»à¶º": 3558,
      "tag": 3559,
      "ĠGiardia": 3560,
      "à¸Ļà¹Ģà¸Ļ": 3561,
      "àºŀàº²àºį": 3562,
      "à¸ģà¹Ģà¸ª": 3563,
      "Ġà·Ģà·ĥ": 3564,
      "à¶§à·ĥ": 3565,
      "ory": 3566,
      "à¸ªà¸°à¸Ńà¸²à¸Ķ": 3567,
      "à¸Ľà¸£à¸°à¹Ģà¸łà¸Ĺ": 3568,
      "à¸Ńà¸ĩà¸«": 3569,
      "à·ģà¶±": 3570,
      "à¶¸à¶¸": 3571,
      "à¸ªà¸§à¸¢à¸ĩà¸²à¸¡": 3572,
      "à¸§à¹Ĥà¸¡": 3573,
      "06": 3574,
      "à¹Ģà¸ģà¸¥": 3575,
      "à¸§à¸Ĥ": 3576,
      "à¸ĩà¹Ģà¸ªà¸£": 3577,
      "Ġkung": 3578,
      "ĠCity": 3579,
      "à¸Ńà¸²à¸ģà¸²à¸¨": 3580,
      "own": 3581,
      "tay": 3582,
      "àº²àºĩàºĽàº°à»ĢàºĹàºĶ": 3583,
      "Ġana": 3584,
      "AR": 3585,
      "Ġà¶Ķà¶¶à¶§": 3586,
      "à¸¢à¸§à¸Ĥ": 3587,
      "à»ĢàºĬàºį": 3588,
      "àºĬàº²àºĬ": 3589,
      "à¹į": 3590,
      "Ġninyo": 3591,
      "à¸²à¹Ģà¸ª": 3592,
      "à¸Ĥà¸Ńà¸ĩà¸ľ": 3593,
      "Ġkatawhan": 3594,
      "hin": 3595,
      "àºªàº²àºĻ": 3596,
      "87": 3597,
      "à¸²à¸ĩà¸«à¸Ļ": 3598,
      "Ġàº®àºŃàºĩ": 3599,
      "Ġà¶¶à·Ħ": 3600,
      "Ġà·ĥà¶¸à·Ħà¶»": 3601,
      "Ġgayod": 3602,
      "Ġà¶ĩà·Ģ": 3603,
      "à¸Ļà¹Ģà¸Ī": 3604,
      "ĠPr": 3605,
      "à»ĢàºªàºĶàºĸàº°àºģ": 3606,
      "alik": 3607,
      "Ġà¸łà¸²à¸ŀ": 3608,
      "Ġdinhi": 3609,
      "inat": 3610,
      "à¸Ķà¹Ģà¸«": 3611,
      "à¸¥à¸Ĺ": 3612,
      "Ġà¶ħà·Ģà·ĥà¶±": 3613,
      "à¸Ķà¸Ħà¸§à¸²à¸¡": 3614,
      "à¸²à¸¢à¹Ĩ": 3615,
      "à»ģàºĻ": 3616,
      "à¸Ńà¸Ļà¸ķ": 3617,
      "à¸²à¸ĩà¸Ħ": 3618,
      "àº¡àºķ": 3619,
      "Ġà¶´à¶§à¶±": 3620,
      "à¸Ńà¸ļà¸Ķ": 3621,
      "isyo": 3622,
      "à¸§à¸Ļà¹ĥà¸«à¸į": 3623,
      "à¸İà¸«à¸¡à¸²à¸¢": 3624,
      "istrito": 3625,
      "à¸²à¹ģà¸Ł": 3626,
      "ĠJud": 3627,
      "ĠPo": 3628,
      "Ġà¸Ľà¸£": 3629,
      "àº¥àº°àºĶ": 3630,
      "Ġkalibutan": 3631,
      "àº°àºĹ": 3632,
      "àºģàºŃàºĩàºĽàº°àºĬ": 3633,
      "à¸§à¹Ģà¸ķà¸Ńà¸£": 3634,
      "Ġà¹Ĥà¸£à¸Ħà¸ªà¸°à¹Ģà¸ģ": 3635,
      "à¸¡à¸¢": 3636,
      "àºĶàºĸàº°àºļàº²àºĻ": 3637,
      "gol": 3638,
      "Ġng": 3639,
      "Ġbalay": 3640,
      "hone": 3641,
      "à¸²à¸ĩà¸Ľà¸£à¸°à¹Ģà¸Ĺà¸¨": 3642,
      "04": 3643,
      "Ġpagka": 3644,
      "ĠKon": 3645,
      "ova": 3646,
      "abaho": 3647,
      "à»ģàºĻàº§": 3648,
      "Ġà¶ĳà¶ļà¶§": 3649,
      "à¸¢à¸²à¸¡": 3650,
      "à¸ģà¸ļ": 3651,
      "àºĩà»ĢàºĽ": 3652,
      "ĠPrans": 3653,
      "àºģàºĩàº²àºĻ": 3654,
      "199": 3655,
      "àº²à»ľ": 3656,
      "à»Ģàº§àº¥àº²": 3657,
      "à»įâĢĭ": 3658,
      "à¸²à¸Ļà¸ģà¸²à¸£": 3659,
      "à¸¡à¸²à¸Īà¸²à¸ģ": 3660,
      "à¸³à¸Ħ": 3661,
      "ee": 3662,
      "ĠXÃ£": 3663,
      "yun": 3664,
      "Ġmiingon": 3665,
      "àº²àºªàº°": 3666,
      "à¸Ķà¹Ģà¸Ī": 3667,
      "Ġà¸£à¸°à¸ļà¸ļ": 3668,
      "uc": 3669,
      "à¸²à¸Ŀ": 3670,
      "Ġbar": 3671,
      "alan": 3672,
      "Ġ------": 3673,
      "à¶«à¶Ń": 3674,
      "à¹ģà¸Ĺà¸Ļ": 3675,
      "ress": 3676,
      "Ġgil": 3677,
      "à¶½à¶Ń": 3678,
      "Ġtibuok": 3679,
      "333": 3680,
      "ly": 3681,
      "à¸ģà¸©à¸ĵ": 3682,
      "iran": 3683,
      "Ġà¶ľà¶½": 3684,
      "Ġà¶ĩà¶¸": 3685,
      "à¹Ħà¸Ļà¹Ģà¸ķ": 3686,
      "àº¡àºĤ": 3687,
      "ĠProvincia": 3688,
      "à¶©à¶±": 3689,
      "à¶«à¶ļ": 3690,
      "à¸Ķà¹Ģà¸¥": 3691,
      "à¸ŀà¸¢à¸²à¸ļà¸²à¸¥": 3692,
      "à¸Ńà¹Ģà¸ª": 3693,
      "ebr": 3694,
      "à¹Ħà¸Ľà¸Ĺ": 3695,
      "à¸Ńà¸ĩà¸Ĭ": 3696,
      "âĢĵ": 3697,
      "ass": 3698,
      "à¸²à¹Ģà¸ŀ": 3699,
      "à¹Ģà¸ľà¸¢": 3700,
      "à¹Ģà¸Ĥà¸ķ": 3701,
      "à¹Ģà¸¨à¸£à¸©à¸Ĳ": 3702,
      "Ġanaa": 3703,
      "à¸§à¸Ķà¹Ģà¸£": 3704,
      "à¸Ħà¸Ķ": 3705,
      "à¸Ļà¸ģà¸¥": 3706,
      "Ġà¶ļà¶»à¶º": 3707,
      "à¸Ńà¸ĩà¸Ń": 3708,
      "Ġà»ĢàºĪ": 3709,
      "à¶Ńà¶Ń": 3710,
      "sak": 3711,
      "à¸²à¸¢à¸ģ": 3712,
      "à¸Ńà¸Ī": 3713,
      "à¸ļà¸Ĭ": 3714,
      "àº®àº½": 3715,
      "à¸²à¸Ļà¸ª": 3716,
      "dasdasdasdasdasdasdasdas": 3717,
      "à¸§à¸¢à¸ķ": 3718,
      "à¸Ńà¹Ģà¸¥": 3719,
      "Ġig": 3720,
      "adayon": 3721,
      "à¸Ķà¸Ĭ": 3722,
      "Ġkont": 3723,
      "àºģàº°àºĬàº§àºĩ": 3724,
      "à¶ľà¶½à¶º": 3725,
      "ĠSk": 3726,
      "à¸²à¸¡à¸²à¸ģ": 3727,
      "à¸²à¸Ł": 3728,
      "Ġdepartamento": 3729,
      "OR": 3730,
      "à·Ģà¶»à¶«à¶º": 3731,
      "ju": 3732,
      "Ġà¶´à·ħà¶¸": 3733,
      "à¹ģà¸ļà¸ļà¸Ļ": 3734,
      "à¸¡à¸Ħà¸§à¸²à¸¡": 3735,
      "Ġbala": 3736,
      "Ġkanako": 3737,
      "àºģàº²àºĻàº¥": 3738,
      "Ġà¹ģà¸ģ": 3739,
      "à¸Ńà¹Ģà¸ŀ": 3740,
      "à¹Ģà¸ģà¸²à¸°": 3741,
      "à¸Ĺà¸£à¸§à¸ĩ": 3742,
      "à¸Ķà¸Ī": 3743,
      "àºĶàºŃ": 3744,
      "ĠCar": 3745,
      "iland": 3746,
      "àº²àºģàº²àºĻ": 3747,
      "àº¡àºļ": 3748,
      "akigbahin": 3749,
      "à¸ĩà¸Ħà¸¥": 3750,
      "à»ĥàºĻàºĹ": 3751,
      "àº£àº°": 3752,
      "àºŃàºģàº²àºĶ": 3753,
      "Ġutlanan": 3754,
      "à¸²à¸ĩà¸¢": 3755,
      "à¸¡à¸ĵ": 3756,
      "à¹Ĥà¸Ł": 3757,
      "à¸ģà¹ĥà¸Ļ": 3758,
      "à¸³à¸Ļà¸§à¸Ļ": 3759,
      "one": 3760,
      "à¸¢à¸Ļà¹ģà¸Ľà¸¥à¸ĩ": 3761,
      "à¸ĩà¹Ħ": 3762,
      "à¸Ńà¸ĩà¸«à¸Ļ": 3763,
      "Ġsal": 3764,
      "Ġà¸£à¸§à¸¡à¸ĸ": 3765,
      "Ġor": 3766,
      "ons": 3767,
      "àº²àºįàºĹ": 3768,
      "Ġhtt": 3769,
      "à¸Ľà¸Ńà¸£": 3770,
      "àº²à»ĥàºĬ": 3771,
      "à¸Ļà¸ķà¸£": 3772,
      "à¸§à¸Ħ": 3773,
      "àºŃàºĩàºģàº²àºĻ": 3774,
      "Ġdaghang": 3775,
      "à¸ªà¹Ģà¸ķà¸Ńà¸£": 3776,
      "Ġmakap": 3777,
      "à¹Ģà¸ªà¸¡à¸Ń": 3778,
      "à¸²à¸¢à¸ķ": 3779,
      "à»Ħàº«àº§": 3780,
      "à¶¸à·ĥ": 3781,
      "ire": 3782,
      "Ġà¶īà·Ģà¶Ń": 3783,
      "àº²àºĻàºĽàº°": 3784,
      "à¸įà¸įà¸²": 3785,
      "pe": 3786,
      "à¸¡à¸°": 3787,
      "az": 3788,
      "pir": 3789,
      "man": 3790,
      "àºŃàºĩàºĽàº°àºĬ": 3791,
      "à¶´à¶±à¶º": 3792,
      "à¸Ĥà¸Ńà¸ĩà¸ª": 3793,
      "san": 3794,
      "à¸Ńà¸ªà¸²à¸£": 3795,
      "àºĻàºįàº²": 3796,
      "à¸ĸà¸²à¸Ļà¸Ĺ": 3797,
      "à¸Ńà¸ļà¸Ħ": 3798,
      "__": 3799,
      "Ġro": 3800,
      "Ġà¶ľà¶«à¶±": 3801,
      "à·Ģà¶ļà¶§": 3802,
      "àºµà»ī,": 3803,
      "inga": 3804,
      "ĠMan": 3805,
      "--------": 3806,
      "ĠPransiya": 3807,
      "à¸²à¹Ģà¸ģ": 3808,
      "à·Ļà·Ĭ": 3809,
      "do": 3810,
      "alog": 3811,
      "àºĩàºĬ": 3812,
      "Ġsidlakang": 3813,
      "àºªàº²": 3814,
      "2011": 3815,
      "à¸ªà¸£à¸£": 3816,
      "ĠBusa": 3817,
      "Ġnimo": 3818,
      "ĠLe": 3819,
      "à¸Ľà¸Ķà¸²à¸«": 3820,
      "ugot": 3821,
      "ĠRe": 3822,
      "Ġkinsa": 3823,
      "à¸ŀà¸¥à¸²à¸Ķ": 3824,
      "à»ĤàºŃ": 3825,
      "abi": 3826,
      "Ġnan": 3827,
      "à¸«à¸¥à¸²à¸ģà¸«à¸¥à¸²à¸¢": 3828,
      "à¸²à¸Ļà¸¥": 3829,
      "àºĶàº¥": 3830,
      "à¸Ńà¸ļà¸£": 3831,
      "à¸³à¸£à¸§à¸Ī": 3832,
      "Ġà¸Ļà¸Ńà¸ģà¸Īà¸²à¸ģà¸Ļ": 3833,
      "à¸£à¸ĸà¸¢à¸Ļà¸ķ": 3834,
      "ĠÅ¾": 3835,
      "àº¡àº²àºĬ": 3836,
      "ier": 3837,
      "Ġà¶ĳà¶´": 3838,
      "à¸Ħà¸Ļà¸Ĺ": 3839,
      "GQO": 3840,
      "ign": 3841,
      "Hapit": 3842,
      "à¹Ģà¸®": 3843,
      "à¸§à¸¢à¹Ģà¸«à¸¥": 3844,
      "à¸Ļà¸²à¸Ĺ": 3845,
      "à¸įà¸²à¸ķ": 3846,
      "de": 3847,
      "àºŃàº²àºĶ": 3848,
      "Ġà¸Ŀ": 3849,
      "ath": 3850,
      "à¸Ļà¸ľà¸¥": 3851,
      "iling": 3852,
      "à¹Ħà¸«à¸§": 3853,
      "àºļàºĽàº°": 3854,
      "05": 3855,
      "ebook": 3856,
      "ĠUna": 3857,
      "Æ°": 3858,
      "eni": 3859,
      "Ġà¶ĭà¶©": 3860,
      "à¶Ńà¶»à¶¸": 3861,
      "à¹Ī,": 3862,
      "Ġà¶ħà·Ģà¶°": 3863,
      "ĠBe": 3864,
      "à¸ģà¸²à¸£à¸Ļ": 3865,
      "à¸ĩà¹ģà¸£à¸ĩ": 3866,
      "à¸Ľà¹Ĥà¸Ľ": 3867,
      "à¸ģà¹Ģà¸¥": 3868,
      "à¸ĩà¸Ĭà¸²à¸ķ": 3869,
      "à¸Ķà¸ªà¸Ńà¸ļ": 3870,
      "à¸Ĵà¸Ļà¸²": 3871,
      "à¸¡à¸Ľ": 3872,
      "AT": 3873,
      "à¶ļà¶±": 3874,
      "angay": 3875,
      "65": 3876,
      "à¶ļà·ħ": 3877,
      "à¸§à¸Ń": 3878,
      "Ã³": 3879,
      "ational": 3880,
      "à·Ĥà¶ļ": 3881,
      "ĠDe": 3882,
      "à¸ªà¸ļà¸²à¸¢": 3883,
      "à¸Ĥà¸Ńà¸ĩà¹Ģà¸£à¸²": 3884,
      "Ġsubaru": 3885,
      "900": 3886,
      "à¶ļà¶ł": 3887,
      "Ġà¶ĳà·ħ": 3888,
      "aki": 3889,
      "à¸ĩà¸¨": 3890,
      "à¶łà¶»": 3891,
      "à»Ĥàºį": 3892,
      "àºĶàºľ": 3893,
      "àºģàºªàº°": 3894,
      "à¸Ķà¹Ĩ": 3895,
      "Ġà¶īà¶³": 3896,
      "ction": 3897,
      "àºĻà»ĦàºĽ": 3898,
      "lag": 3899,
      "Ġra": 3900,
      "uon": 3901,
      "à¸įà¸įà¸²à¸ĵ": 3902,
      "àº²àºĻàºģ": 3903,
      "à¸²à¸ªà¸ķ": 3904,
      "ĠàºªàºĽàºĽ": 3905,
      "usan": 3906,
      "àº¢àº²àº¡": 3907,
      "Ġmis": 3908,
      "àº²àºĽ": 3909,
      "à¸ļà¸ŀ": 3910,
      "à¸²à¸ĩà¸Ĥ": 3911,
      "Ġweb": 3912,
      "ary": 3913,
      "àºįàº²àºį": 3914,
      "Ġlasang": 3915,
      "Ġkanato": 3916,
      "à¸°à¸Ħà¸£": 3917,
      "ĠEx": 3918,
      "à¸²à¸ªà¸ķà¸£": 3919,
      "awa": 3920,
      "ĠInd": 3921,
      "à¹ģà¸¥à¸°à¸¡": 3922,
      "à¸²à¸Ļà¸ŀ": 3923,
      "BO": 3924,
      "à¸ļà¸ĭ": 3925,
      "Ġmaka": 3926,
      "Ġlain": 3927,
      "àºģàºģ": 3928,
      "ĠGo": 3929,
      "àºĻà»ĥàºĻàº": 3930,
      "à¸²à¸§à¸§": 3931,
      "ĠSer": 3932,
      "ubo": 3933,
      "à»ĤàºŃàºģàº²àºĶ": 3934,
      "Ġà¶´à·Ħà·ĥ": 3935,
      "ilya": 3936,
      "à¹Ģà¸«à¸¡à¸²à¸°à¸ªà¸¡": 3937,
      "à¶Ńà¶§": 3938,
      "à¸Ħà¸§à¸²à¸¡à¸Ħ": 3939,
      "Ġgr": 3940,
      "à·ı..": 3941,
      "asan": 3942,
      "Ġgodine": 3943,
      "Ġpulong": 3944,
      "uwas": 3945,
      "à¸²à¸ĩà¹Ģà¸Ľ": 3946,
      "Ġà¶ħà¶ľà¶¸": 3947,
      "Ġàºģàº°": 3948,
      "à¹Ĥà¸¡à¸Ĭ": 3949,
      "à¸²à¸ªà¸Ļà¹ĥà¸Ī": 3950,
      "Ġhig": 3951,
      "Ġà¶¸à¶°": 3952,
      "à¸Ńà¸ģà¹Ħà¸¡": 3953,
      "Ġtinuod": 3954,
      "too": 3955,
      "Ġà¶¸à¶Ńà¶ļ": 3956,
      "à¹Į-": 3957,
      "Ġà¸Ľà¸£à¸°à¹Ģà¸Ĺà¸¨": 3958,
      "à¹Ģà¸Īà¸Ńà¸£": 3959,
      "àº²àºĻàº¡àº²": 3960,
      "Ġà¶ļà¶»à¶ľà¶±": 3961,
      "à¶ĭ": 3962,
      "à»ĢàºªàºĶ": 3963,
      "itan": 3964,
      "Ð¾": 3965,
      "àºģàºĬ": 3966,
      "áº": 3967,
      "Ġamihang": 3968,
      "à¸ĩà¸²à¸Ļà¸Ĺ": 3969,
      "sh": 3970,
      "Ġdako": 3971,
      "Ġniadtong": 3972,
      "à¸ľà¸ªà¸¡": 3973,
      "à¸Ĺà¸²à¸ĩà¸ģà¸²à¸£": 3974,
      "à¸ķà¸ªà¸²à¸«": 3975,
      "Ġà¸ķà¸£": 3976,
      "ĠCol": 3977,
      "yl": 3978,
      "à¶ļà·ĥ": 3979,
      "à¸ķà¹ĥà¸Ļ": 3980,
      "à¹ģà¸Ļà¸Ļ": 3981,
      "à¸¢à¸ģà¸§": 3982,
      "à¸Ķà¹Ģà¸Ĭ": 3983,
      "1111": 3984,
      "Ġà¶īà·Ħà·ħ": 3985,
      "àºķàº°": 3986,
      "à¶±à¶¯": 3987,
      "à¸Ńà¸¡à¸Ķ": 3988,
      "à¸Ńà¹Ģà¸Ķ": 3989,
      "Ġdel": 3990,
      "Ġek": 3991,
      "uba": 3992,
      "à»ĥàºĻàºģàº²àºĻ": 3993,
      "Ġmunisipyo": 3994,
      "à¸Ĥà¸Ńà¸ĩà¸ģà¸²à¸£": 3995,
      "ungtod": 3996,
      "à¸£à¸°à¹Ģà¸ļ": 3997,
      "à¸Ľà¸¥à¸²à¸¢": 3998,
      "à¸ĩà¹Ģà¸¥": 3999,
      "à¸Ķà¸²": 4000,
      "81": 4001,
      "àºªàºŃàºĩ": 4002,
      "ĠMarso": 4003,
      "Ġpos": 4004,
      "Ġneg": 4005,
      "der": 4006,
      "oreal": 4007,
      "olog": 4008,
      "sidlakang": 4009,
      "à¸ģà¸ĸ": 4010,
      "à¸§à¹Ģà¸£": 4011,
      "à¸Ńà¸Ńà¸ģà¹Ħà¸Ľ": 4012,
      "à·Ģà¶ľ": 4013,
      "2014": 4014,
      "hai": 4015,
      "à¸ªà¸ĸ": 4016,
      "Ġà¶°à¶»": 4017,
      "ĠÅ¾iv": 4018,
      "àºŀàº½àºĩ": 4019,
      "à¸ĵà¸ªà¸²à¸¡à¸²à¸£à¸ĸ": 4020,
      "Ġà¶¶à·ĥ": 4021,
      "Ġà¶¡à¶±": 4022,
      "ĠAnd": 4023,
      "ebrero": 4024,
      "85": 4025,
      "à¸£à¸¢": 4026,
      "ĠGik": 4027,
      "à¹Ĥà¸Ĺà¸£à¸¨": 4028,
      "Ġespesye": 4029,
      "lens": 4030,
      "à¸Ńà¸Ļà¸§": 4031,
      "Ġà¹Ģà¸§à¸¥à¸²": 4032,
      "Ġmakat": 4033,
      "àº²àºĻàºĪ": 4034,
      "CG": 4035,
      "àºĻà»ģàº¡": 4036,
      "ĠUS": 4037,
      "à¹Ģà¸¡à¸ķà¸£": 4038,
      "Ðµ": 4039,
      "Ġsiy": 4040,
      "utana": 4041,
      "à¸²à¸¢à¸²à¸¡": 4042,
      "Ġà¶ĩà¶¸à¶Ń": 4043,
      "à¶ºà¶ļà¶º": 4044,
      "àºĻàºªàº°": 4045,
      "à¸Ļà¹Ģà¸ģà¸¡": 4046,
      "à¸Ľà¸£à¸°à¸§": 4047,
      "Ġph": 4048,
      "à¸²à¸ĩà¹Ħà¸£à¸ģ": 4049,
      "ambo": 4050,
      "àº²àºľ": 4051,
      "à¸§à¹ĥà¸Ī": 4052,
      "àº«àº²": 4053,
      "à¸Īà¸°à¸£": 4054,
      "ĠOp": 4055,
      "à¸ļà¹Ħà¸Ľ": 4056,
      "ĠàºĦàº°àºĻàº°": 4057,
      "à¶¢à¶±à¶º": 4058,
      "à¹Ĥà¸ł": 4059,
      "Ġà·ģà¶ļ": 4060,
      "Ġà·ĥà¶»": 4061,
      "à¸Ļà¸¡à¸²à¸ģ": 4062,
      "à¸²à¸¬": 4063,
      "Ġà¸ŀà¸¥": 4064,
      "à¹Ģà¸Ńà¸ģà¸ªà¸²à¸£": 4065,
      "Ġà¶Ńà¶»à¶ľ": 4066,
      "Ġkomyun": 4067,
      "à¸²à¹Ģà¸Ĭ": 4068,
      "Ġà·Ħà¶»à·Ħ": 4069,
      "emp": 4070,
      "Ġà¶¸à¶«": 4071,
      "àºļàº²àºį": 4072,
      "600": 4073,
      "lr": 4074,
      "Ġila": 4075,
      "ĠBar": 4076,
      "à»ĤàºĦàºĩàºģàº²àºĻ": 4077,
      "Ġpat": 4078,
      "wan": 4079,
      "à¸ªà¸§à¸Ļ": 4080,
      "àºĩàºĶ": 4081,
      "oss": 4082,
      "à¸ŀà¸£à¸°à¸ŀ": 4083,
      "84": 4084,
      "àºĶàºģàº²àºĻ": 4085,
      "Ġà·ĥà¶¯à·Ħ": 4086,
      "àº°àº«àºįàº²àºį": 4087,
      "ogle": 4088,
      "à¸£à¸²à¸ĵ": 4089,
      "ĠPebrero": 4090,
      "uno": 4091,
      "Ġà¶¸à¶»": 4092,
      "à¸Ńà¸ģà¸§": 4093,
      "Ġà»Ģàºģ": 4094,
      "à¹Ĥà¸Ī": 4095,
      "03": 4096,
      "outh": 4097,
      "àºĽàº°àºģàºŃàºļ": 4098,
      "à¸Ħà¸§à¸²à¸¡à¹Ģà¸Ľ": 4099,
      "ith": 4100,
      "à¶³à·Ģ": 4101,
      "Ġmob": 4102,
      "lat": 4103,
      "à»ģàºĪ": 4104,
      "ulog": 4105,
      "à¸²à¹ģà¸¥": 4106,
      "à¸ļà¸£à¸ĸ": 4107,
      "Ġkatap": 4108,
      "86": 4109,
      "à·Ģà¶ºà¶§": 4110,
      "iew": 4111,
      "à¸Ļà¹Ģà¸ķà¸Ńà¸£": 4112,
      "à¸Ĺà¸Ńà¸ĩ": 4113,
      "Ġpar": 4114,
      "Ġbu": 4115,
      "go": 4116,
      "Ġhuman": 4117,
      "iver": 4118,
      "à¸Īà¸²à¸ģà¸ģà¸²à¸£": 4119,
      "ral": 4120,
      "à¸²à¹Ģà¸«à¸ķ": 4121,
      "Ġà»Ģàº§": 4122,
      "Æ°á»": 4123,
      "ihok": 4124,
      "à·Ħà¶Ń": 4125,
      "Ġà¹ģà¸ĸ": 4126,
      "à¸Īà¸°à¸Ĺà¸³à¹ĥà¸«": 4127,
      "à¸ĩà¸ªà¸£": 4128,
      "à»Ĥàº®àºĩ": 4129,
      "2012": 4130,
      "à¸«à¸¥à¸Ńà¸Ķ": 4131,
      "àº«àº¡": 4132,
      "à¸Ĥà¸Ń": 4133,
      "Ġkanunay": 4134,
      "à¸Ķà¹Ģà¸Ľ": 4135,
      "à¸²à¸¢à¸ª": 4136,
      "Ġgawas": 4137,
      "à¸ªà¸¡à¹Ģà¸Ķ": 4138,
      "udad": 4139,
      "à¸Ńà¸ĩà¹Ģà¸¥": 4140,
      "à¸£à¸²à¸Ħà¸²à¸ĸ": 4141,
      "eral": 4142,
      "ĠKin": 4143,
      "Ġup": 4144,
      "Ġà¶¶à¶½à¶º": 4145,
      "à¹ģà¸ªà¸Ķà¸ĩ": 4146,
      "àº½àº¡àº¢àº²àº¡": 4147,
      "Ġmit": 4148,
      "à¸Ļà¹Ģà¸Ħà¸£": 4149,
      "à¹Ģà¸¡à¸¥": 4150,
      "eta": 4151,
      "Ġà¹Ħà¸Ĺà¸¢": 4152,
      "Ġà¶¶à¶§à·Ħ": 4153,
      "Ġprob": 4154,
      "àº²àºĩàºķ": 4155,
      "Ġex": 4156,
      "Ġbug": 4157,
      "indow": 4158,
      "ept": 4159,
      "àº²àº§àº§": 4160,
      "Ġà¹Ĥà¸Ķà¸¢à¹Ģà¸īà¸ŀà¸²à¸°": 4161,
      "à¸ķà¸ªà¸²à¸«à¸ģà¸£à¸£à¸¡": 4162,
      "à¸¢à¸ļà¸£": 4163,
      "à¸Ľà¸£à¸°à¸ªà¸ĩà¸Ħ": 4164,
      "Ġpagpakig": 4165,
      "ĠAir": 4166,
      "Ġà¶»à¶§à·Ģà¶½": 4167,
      "yaw": 4168,
      "à¸£à¸²à¸¡": 4169,
      "à¶¯à¶±à¶º": 4170,
      "leb": 4171,
      "à¸²à¸ģà¸ı": 4172,
      "à¸§à¹Ģà¸¥": 4173,
      "à¹Ħà¸¥à¸Ħ": 4174,
      "laing": 4175,
      "à¸ĸà¸Ļà¸Ļ": 4176,
      "harian": 4177,
      "à¸Ńà¸Ļà¸«à¸Ļ": 4178,
      "à¸Ĺà¸£à¸²à¸ļ": 4179,
      "panya": 4180,
      "Ġmopakigbahin": 4181,
      "à¶«à¶±": 4182,
      "à¸²à¸¨à¸²à¸ªà¸ķà¸£": 4183,
      "à¸²à¸Ļà¸Ńà¸²à¸«à¸²à¸£": 4184,
      "Ġàº«àº¥": 4185,
      "Ġà¶¶à¶¯": 4186,
      "ĠiP": 4187,
      "ĠEd": 4188,
      "à¶½à¶¯": 4189,
      "Ġà¶Ńà¶¶": 4190,
      "ĠKay": 4191,
      "ors": 4192,
      "ukiran": 4193,
      "à¸ķà¸Ļà¹Ģà¸Ńà¸ĩ": 4194,
      "à¸²à¸Ļà¹Ħà¸Ķ": 4195,
      "à¸¢à¸Ĭ": 4196,
      "àºµà»ī.": 4197,
      "à¸±à¹Ĭ": 4198,
      "à¸Ńà¸«à¸Ļ": 4199,
      "à¸Ĥà¸Ńà¸ĩà¸ķ": 4200,
      "EN": 4201,
      "àºĻà»ĥàºĪ": 4202,
      "à¸ŀà¸§à¸ģà¹Ģà¸Ĥ": 4203,
      "ĠCo": 4204,
      "àºŃàº°àºĻ": 4205,
      "aron": 4206,
      "à¹Ĥà¸®": 4207,
      "Ġà¸Īà¸³à¸Ļà¸§à¸Ļ": 4208,
      "à·ı...": 4209,
      "Ġtaas": 4210,
      "noj": 4211,
      "à¸Ħà¸§à¸²à¸¡à¸ķ": 4212,
      "ĠGr": 4213,
      "àº²à»ĥàºĪ": 4214,
      "Ġà¸ģà¸§": 4215,
      "Ġà¸Ļà¸³": 4216,
      "à¸ŀà¸¢à¸²à¸¢à¸²à¸¡": 4217,
      "Ġdugang": 4218,
      "Ġà¶ħà¶»à¶¸": 4219,
      "à¶¸à·ħ": 4220,
      "Ġchat": 4221,
      "à¸ĩà¹Ģà¸Ĥ": 4222,
      "Ġà·ĥà¶§": 4223,
      "umb": 4224,
      "à¸Ńà¹ģà¸¡": 4225,
      "==": 4226,
      ".....": 4227,
      "àºµ.": 4228,
      "à¸°à¸¥": 4229,
      "à¸¥à¸¡": 4230,
      "àºĻàºģàº²àºĩ": 4231,
      "Ġà¶Ńà¶±": 4232,
      "à¹Ĥà¸Ĭà¸§": 4233,
      "à¸ģà¸²à¸£à¸Ķ": 4234,
      "âĢĶ": 4235,
      "Ġting": 4236,
      "Ġmos": 4237,
      "à¸Īà¸ŀà¸£à¸°": 4238,
      "à¸²à¸«à¸£": 4239,
      "à¸¡à¸«à¸²à¸§": 4240,
      "ĠSam": 4241,
      "tub": 4242,
      "à¸Ńà¸ĩà¸ľ": 4243,
      "à¸ĵà¸ªà¸¡à¸ļ": 4244,
      "à¸Ļà¹ĥà¸«à¸¡": 4245,
      "àºĩàº¥": 4246,
      "à¸²à¹Ģà¸¡": 4247,
      "àº³àºĻàº§": 4248,
      "àº«àº¥àº²àºį": 4249,
      "Ġà¸ģà¸²à¸£à¸£": 4250,
      "Ġà¶¶à¶»": 4251,
      "àº³àºĻ": 4252,
      "wat": 4253,
      "Ġà¸Ľà¸£à¸°à¸ģà¸²à¸¨à¸ĭ": 4254,
      "à¸Ńà¸Ļà¸ª": 4255,
      "yag": 4256,
      "Ġà¶ºà¶±à·Ģ": 4257,
      "àº²àºĪàº°": 4258,
      "rema": 4259,
      "Ġà¸¿": 4260,
      "2013": 4261,
      "Ġà¶ĳà¶ļà¶¸": 4262,
      "Ġâ": 4263,
      "Ġà¸ŀà¸§à¸ģ": 4264,
      "à¹ģà¸¢à¸ģ": 4265,
      "à¸łà¸²à¸§": 4266,
      "Ġhem": 4267,
      "82": 4268,
      "à¸Ļà¹Ģà¸¥à¸¢": 4269,
      "AS": 4270,
      "à·ħà¶ļ": 4271,
      "àº®àº½àºĻ": 4272,
      "ĠIt": 4273,
      "à¸§à¸Ļà¸Ĺ": 4274,
      "Ġà¶īà¶ļ": 4275,
      "à¸Ķà¸§à¸ĩ": 4276,
      "à¸Ĳà¸ļà¸²à¸¥": 4277,
      "ekto": 4278,
      "Ġà¶ĩà¶¯": 4279,
      "àºģàº²àºĩ": 4280,
      "jed": 4281,
      "Ġkamat": 4282,
      "à¸¥à¸Ħ": 4283,
      "Ġdis": 4284,
      "àº·âĢĭ": 4285,
      "ull": 4286,
      "à¸²à¸¢à¸£": 4287,
      "àºĻàºĦàº§àº²àº¡": 4288,
      "Ġpara": 4289,
      "àº§àº½àºĩàºĪ": 4290,
      "à¸©à¸ĵ": 4291,
      "àºģàº²àºĻàºĬ": 4292,
      "Ġsp": 4293,
      "àºļàº¥": 4294,
      "à¸¢à¸ĩà¹ĥà¸«à¸¡": 4295,
      "àº²àºĻàºķ": 4296,
      "Ġà»ľ": 4297,
      "indows": 4298,
      "lu": 4299,
      "à»ĦàºĹ": 4300,
      "à¶Ńà¶±à¶º": 4301,
      "à¹ģà¸ĭ": 4302,
      "àºĶàº§": 4303,
      "acebook": 4304,
      "Æ°á»Ŀ": 4305,
      "ĠâĢĿ": 4306,
      "66666666667": 4307,
      "à¸²à¸ĩà¸¡à¸²à¸ģ": 4308,
      "à¸Ľà¸Ĺ": 4309,
      "Æ°á»Ŀng": 4310,
      "à¸¢à¸£à¸ķ": 4311,
      "2559": 4312,
      "Ġà¶¶à¶½à¶´": 4313,
      "àºģàº²àºĻàºļ": 4314,
      "uban": 4315,
      "reen": 4316,
      "ungog": 4317,
      "62": 4318,
      "ĠàºĽàº°à»ĢàºĹàºĶ": 4319,
      "à¶¯à¶ºà¶ļ": 4320,
      "Ġas": 4321,
      "à¸ĺà¸Ļ": 4322,
      "à¸Ńà¸Ńà¸ģà¸Īà¸²à¸ģ": 4323,
      "àºĶàºķàº²àº¡": 4324,
      "à¸£à¸²à¸¢à¸ģà¸²à¸£": 4325,
      "àºŀàº§àºģà»ĢàºĤ": 4326,
      "à¶ļà¶ºà¶ļ": 4327,
      "à¸§à¸¢à¸Ĺ": 4328,
      "à¸§à¸Ķà¸¥": 4329,
      "à¸Ńà¸ĩà¹Ģà¸ª": 4330,
      "Ġgihatag": 4331,
      "à¹Ģà¸ģà¸²à¸«à¸¥": 4332,
      "à¸Ľà¸£à¸°à¸Ĺà¸²à¸Ļ": 4333,
      "ous": 4334,
      "à¸Ńà¸Ńà¸ģà¸¡": 4335,
      "Ġlabaw": 4336,
      "Ġà¸Ńà¸³à¹Ģà¸ł": 4337,
      "à¸²à¸ĩà¸Ń": 4338,
      "AM": 4339,
      "à¸Ńà¸ĩà¸£à¸²à¸§": 4340,
      "à¸²à¸ªà¸²à¸¡à¸²à¸£à¸ĸ": 4341,
      "Ġà¶¸à·ĥ": 4342,
      "ros": 4343,
      "Ġà¸¡à¸²à¸£": 4344,
      "à¸£à¸°à¸§": 4345,
      "load": 4346,
      "à¸ĩà¸«à¸¥à¸²à¸¢": 4347,
      "Ġà¸£à¸§à¸¡à¸Ĺ": 4348,
      "95": 4349,
      "ekt": 4350,
      "alazi": 4351,
      "àº°àºĦ": 4352,
      "Ġhangt": 4353,
      "Ġsin": 4354,
      "àºļàº¡": 4355,
      "à¸Ńà¸¥à¸¥": 4356,
      "à¸¡à¸¥": 4357,
      "ement": 4358,
      "àºķàº²": 4359,
      "Ġà¸ªà¸²à¸¢": 4360,
      "Ġà¸Ńà¸²à¸£": 4361,
      "à¸Ńà¸ĩà¹Ģà¸Ľ": 4362,
      "nos": 4363,
      "iboreal": 4364,
      "Ġà¶¯à¶¸": 4365,
      "ĠRo": 4366,
      "Ġà¶Ī": 4367,
      "ungdan": 4368,
      "à¹Ģà¸¨à¸£à¸©à¸Ĳà¸ģ": 4369,
      "àº²àºĻàºĤàºŃàºĩ": 4370,
      "Ġhemiboreal": 4371,
      "àºĬàº²àºį": 4372,
      "àºģàºĤ": 4373,
      "Ġà¶´à¶§": 4374,
      "à¶¸à¶ľ": 4375,
      "Ġprodukto": 4376,
      "à¸²à¹Ģà¸Ĺ": 4377,
      "Ġac": 4378,
      "à¸¢à¸Ķà¸Ļ": 4379,
      "à¹Ģà¸£à¸²à¸¡": 4380,
      "YEJ": 4381,
      "attoo": 4382,
      "à¸ģà¸ģà¸²à¸£": 4383,
      "àºĶàºĦ": 4384,
      "à¹Ģà¸Ńà¹Ģà¸Ĭ": 4385,
      "Ġà¶łà¶±": 4386,
      "Ġà¶Ŀ": 4387,
      "à¸Ńà¸ĩà¸«à¸¥": 4388,
      "Ġyo": 4389,
      "Ġdistrito": 4390,
      "ĠÄ¾": 4391,
      "itu": 4392,
      "EC": 4393,
      "à¸§à¸Ĥà¸Ńà¸ĩ": 4394,
      "71": 4395,
      "à¸ĩà¸ªà¸²à¸¡à¸²à¸£à¸ĸ": 4396,
      "à¹ģà¸ŀà¸£": 4397,
      "à¸²à¸ĩà¹Ģà¸ģ": 4398,
      "able": 4399,
      "Ġà¶»à¶Ń": 4400,
      "Ġag": 4401,
      "Ġà»ĢàºĶ": 4402,
      "yal": 4403,
      "gan": 4404,
      "ink": 4405,
      "Ġpagpal": 4406,
      "Ġok": 4407,
      "à¸Ľà¸£à¸°à¸Ķ": 4408,
      "Ð¸": 4409,
      "ii": 4410,
      "à¸±à¹ĭ": 4411,
      "Ġmatang": 4412,
      "Ġà¸«à¸¥à¸§à¸ĩ": 4413,
      "àº³à»ĢàºĻ": 4414,
      "ega": 4415,
      "à¸ļà¸Ńà¸ģà¸§": 4416,
      "min": 4417,
      "enc": 4418,
      "à¸Ńà¸ģà¸¥": 4419,
      "à¸Ĺà¸³à¹Ħà¸Ķ": 4420,
      "à¸£à¸Ķ": 4421,
      "àºĻà»ľ": 4422,
      "àºĩà»ģ": 4423,
      "hailand": 4424,
      "à¸¡à¸²à¸ģà¹Ĩ": 4425,
      "Ġà¸¥à¸ĩ": 4426,
      "à¸¡à¸ĩà¸²à¸Ļ": 4427,
      "Ġpaghatag": 4428,
      "àºĽàº°àºĹàº²àºĻ": 4429,
      "UC": 4430,
      "inas": 4431,
      "Ġsamtang": 4432,
      "ale": 4433,
      "à·ĵ,": 4434,
      "à¹ģà¸¢": 4435,
      "Ġit": 4436,
      "àºģàºĩàº²àºĻàº": 4437,
      "à¹Ħà¸ģà¸¥": 4438,
      "Ġà¹ģà¸¥à¸°à¸¢": 4439,
      "Ġà¶ħà¶±à¶Ń": 4440,
      "64": 4441,
      "asabot": 4442,
      "Ã¶": 4443,
      "ime": 4444,
      "333333333333": 4445,
      "Ġsing": 4446,
      "à¸¨à¸Ī": 4447,
      "à¸§à¸¡à¸Ĺ": 4448,
      "Ġà¶ħà¶©à·Ģ": 4449,
      "Ġnap": 4450,
      "à¸ļà¸£à¸Ļà¸Ķ": 4451,
      "à¹ģà¸¥à¸°à¸ģà¸²à¸£": 4452,
      "Ġà¸¡à¸²à¸ģ": 4453,
      "à¹Ģà¸£à¸²à¸Īà¸°": 4454,
      "kasadpang": 4455,
      "IS": 4456,
      "wa": 4457,
      "à¸¡à¸ļ": 4458,
      "à¸¡à¸Ļà¸ķà¸£": 4459,
      "à¶»à¶§à¶Ń": 4460,
      "à¸¥à¸ª": 4461,
      "à¶Ńà¶ºà¶ļ": 4462,
      "Ġimp": 4463,
      "Ġlawas": 4464,
      "Ġà¸ŀà¸¤": 4465,
      "à¸¥à¸²à¸Ħà¸¡": 4466,
      "à¸²à¸Ĺà¸²à¸ĩ": 4467,
      "uran": 4468,
      "à¹ģà¸Ĺà¸ĩà¸ļà¸Ńà¸¥": 4469,
      "à¸ģà¹Ģà¸Ľ": 4470,
      "IC": 4471,
      "ech": 4472,
      "Ġà¶ºà·Ħ": 4473,
      "à¸īà¸ļ": 4474,
      "à¸ĩà¸Īà¸²à¸ģà¸Ĺ": 4475,
      "à¶ºà¶ºà¶±": 4476,
      "àºĻà»ĥàºĻ": 4477,
      "à¸ģà¸¥à¸²à¸ģ": 4478,
      "à¸Ńà¸Īà¸²à¸ģ": 4479,
      "à¸ĵà¸ķ": 4480,
      "à¸Ķà¸Ńà¸¢": 4481,
      "Ġà¸Īà¸²à¸ģà¸Ļ": 4482,
      "à¸ģà¹ģà¸ķ": 4483,
      "à¸ģà¸¥à¸²à¸¢à¹Ģà¸Ľ": 4484,
      "Ġpinak": 4485,
      "à¸¡à¹Ģà¸Ľ": 4486,
      "à¸ģà¸²à¸£à¹ģà¸Ĥ": 4487,
      "Ġubang": 4488,
      "ĠCan": 4489,
      "Ġvideo": 4490,
      "Ġsup": 4491,
      "à¶»à¶¸à¶º": 4492,
      "à¸²à¸Ļà¸«à¸Ļ": 4493,
      "Ġà»ĢàºŃ": 4494,
      "Ġkining": 4495,
      "à¸²à¸Ļà¸Ħà¸£": 4496,
      "à¸Ńà¸ļà¸£à¸¡": 4497,
      "à¸ĩà¸«à¸¥": 4498,
      "Ġà¸Ľà¸¥": 4499,
      "mm": 4500,
      "àºģàºŃ": 4501,
      "se": 4502,
      "àº¡àº°àºĻ": 4503,
      "à¸ļà¸Ĥà¸Ńà¸ĩ": 4504,
      "à¸ļà¹Ģà¸Ķ": 4505,
      "Ġngalan": 4506,
      "à»ĥàºĻàº§": 4507,
      "yan": 4508,
      "ĠĠĠĠĠĠĠĠĠĠĠĠĠĠĠĠ": 4509,
      "Ġmab": 4510,
      "àºŃàºĻà»Ħàº«àº§": 4511,
      "Ġbatok": 4512,
      "Ġà¹Ĥà¸Ĺà¸£": 4513,
      "Ġ?": 4514,
      "Ġpas": 4515,
      "à¸ķà¸Ńà¸Ļà¸Ļ": 4516,
      "à¸Ńà¸ģà¸ķ": 4517,
      "à¸¢à¸Ļà¸ª": 4518,
      "à¹Ĥà¸Ķà¸¢à¹Ħà¸¡": 4519,
      "àºģàºŃàºļ": 4520,
      "urg": 4521,
      "âĢ¢": 4522,
      "à¶ħà¶±": 4523,
      "Ġpagpan": 4524,
      "aytay": 4525,
      "Ġcasino": 4526,
      "Ġ$": 4527,
      "Ġel": 4528,
      "à¸ģà¸²à¸£à¹Ģà¸£": 4529,
      "à¸ªà¸£à¸£à¸Ħ": 4530,
      "Ġà¹ģà¸ľ": 4531,
      "à¸Ńà¹Ģà¸¡à¸£": 4532,
      "ĠPar": 4533,
      "usab": 4534,
      "Ġà»ĢàºĦ": 4535,
      "à¸³à¸ª": 4536,
      "à¸°à¸ģ": 4537,
      "row": 4538,
      "non": 4539,
      "Ġà¹Ģà¸Ńà¸Ł": 4540,
      "à¸ģà¹Ħà¸Ķ": 4541,
      "ware": 4542,
      "Ġnam": 4543,
      "Ġrel": 4544,
      "Ġà¶ĩà¶³": 4545,
      "ence": 4546,
      "à¸ĩà¹ģà¸¥": 4547,
      "à¸Ļà¸Ľà¸£à¸°": 4548,
      "àºĻà»ĥàº«": 4549,
      "www": 4550,
      "Ġbata": 4551,
      "Ġpanag": 4552,
      "Ġmakita": 4553,
      "ĠReg": 4554,
      "à¸¡à¸²à¸ª": 4555,
      "à¸ķà¸Ńà¸Ļ": 4556,
      "à¸Ńà¸ĩà¹Ģà¸£": 4557,
      "ix": 4558,
      "ular": 4559,
      "¥Ħ": 4560,
      "Ġà¹Ģà¸¡à¸ķà¸£": 4561,
      "Ġsil": 4562,
      "à·Ħà¶º": 4563,
      "àºĶàºķàº°": 4564,
      "ahi": 4565,
      "àºĬàº²àº§": 4566,
      "Ġà¸Łà¸£": 4567,
      "à¸Ńà¸ĭ": 4568,
      "à·Ĭ...": 4569,
      "à¸Ĥà¸ĵà¸°à¸Ĺ": 4570,
      "à¶±à¶½": 4571,
      "à¸Ļà¸ķà¸Ńà¸Ļ": 4572,
      "Ġà¶Ĩà·Ħ": 4573,
      "pit": 4574,
      "à¸ļà¹Ģà¸Ľ": 4575,
      "Ġkabukiran": 4576,
      "à¸³à¸ķà¸²à¸¥": 4577,
      "tan": 4578,
      "à¸ªà¸ª": 4579,
      "à¸Ľà¸łà¸²à¸ŀ": 4580,
      "à¸Ļà¹ģà¸£à¸ĩ": 4581,
      "à¸Ķà¸ĭ": 4582,
      "àº«àº²àºĻ": 4583,
      "à¸ķà¸°à¸§": 4584,
      "Ġmakahimo": 4585,
      "à¸ĩà¹Ģà¸ª": 4586,
      "ando": 4587,
      "à¹ģà¸¥à¸Ļà¸Ķ": 4588,
      "à¸łà¸²à¸¢à¹ĥà¸ķ": 4589,
      "à¸Ĺà¸¢à¸²à¸¨à¸²à¸ªà¸ķà¸£": 4590,
      "ena": 4591,
      "150": 4592,
      "àº²àºĩàºª": 4593,
      "à¸£à¸²à¸¢à¸ĩà¸²à¸Ļ": 4594,
      "Ġsc": 4595,
      "àºļà»ĦàºĬàºĹ": 4596,
      "Ġulohang": 4597,
      "alagad": 4598,
      "à¸įà¸Ĺ": 4599,
      "à¸Ĵà¸Ļà¸ĺà¸£à¸£à¸¡": 4600,
      "à¸Īà¸°à¸Ĭ": 4601,
      "à¸Ńà¸Ļà¸²à¸Ħ": 4602,
      "à¸£à¸²à¸¢à¹Ħà¸Ķ": 4603,
      "inaw": 4604,
      "ĠWindows": 4605,
      "Ġà¸ķà¸Ńà¸ļ": 4606,
      "à¸§à¹Ĥà¸¡à¸ĩ": 4607,
      "à¸²à¸¡à¸²": 4608,
      "alig": 4609,
      "à¶½à¶ľ": 4610,
      "rol": 4611,
      "IT": 4612,
      "Ġgikinahanglan": 4613,
      "adala": 4614,
      "à¸łà¸²à¸©à¸²à¸Ń": 4615,
      "à¸Ńà¸Ļà¹Ĩ": 4616,
      "iman": 4617,
      "ĠMag": 4618,
      "Ġmam": 4619,
      "à¸²à¸ŀà¸£à¸°": 4620,
      "à¸Ńà¸¡à¸ķ": 4621,
      "àºĸàº²àºĻàºĹ": 4622,
      "Ġà¶ļà¶®": 4623,
      "à¸¢à¸§à¸Ĺ": 4624,
      "à¸¢à¸Ķà¸Ļà¸²à¸¡": 4625,
      "à¸¡à¹Ħà¸Ķ": 4626,
      "à¹Ħà¸ģ": 4627,
      "itabo": 4628,
      "gam": 4629,
      "à¹Ģà¸§à¸¥à¸²à¸Ĺ": 4630,
      "à¸Ļà¸Ńà¸ģ": 4631,
      "Ġà¶ºà¶§": 4632,
      "Ġà¸Ľà¸£à¸°à¸Īà¸³": 4633,
      "àºĦàº§àº²àº¡àºª": 4634,
      "Ġà¶Ķà¶ļ": 4635,
      "à¶´à¶½": 4636,
      "à¸¡à¹ĥà¸Ļ": 4637,
      "à¸ªà¸²à¸Ļ": 4638,
      "anhi": 4639,
      "àºĩàº§àº½": 4640,
      "Ġlaing": 4641,
      "Ġpagtan": 4642,
      "à¸ļà¹Ģà¸£": 4643,
      "à¸Ļà¸Ĳà¸²à¸Ļ": 4644,
      "à¸ģà¸«": 4645,
      "à¶±à¶ľ": 4646,
      "à¸Ķà¸Ľ": 4647,
      "à¸Ķà¹Ħà¸Ķ": 4648,
      "àº²àºĻàºĦ": 4649,
      "Ġpagkuha": 4650,
      "Ġà¶ħà¶ºà¶§": 4651,
      "Ġ@": 4652,
      "àºĶàºĶ": 4653,
      "ĠàºĹàº²àºĩ": 4654,
      "alain": 4655,
      "à¹Ģà¸¢à¸²à¸§": 4656,
      "Ġàºģàº°àºĬàº§àºĩ": 4657,
      "Ġpagkat": 4658,
      "à¶»à¶«à¶ºà¶ļ": 4659,
      "à¹Ĥà¸Ļà¸Ńà¸Ńà¸Ļà¹Ħà¸¥à¸Ļ": 4660,
      "Ġreg": 4661,
      "à¸Ĥà¸Ļà¸²à¸Ķà¹ĥà¸«à¸į": 4662,
      "ril": 4663,
      "ED": 4664,
      "àº¡àºĦàºŃàºĩ": 4665,
      "eto": 4666,
      "àºªàº°àº«àº°àº¥": 4667,
      "à¹Ģà¸£à¸²à¹Ħà¸Ķ": 4668,
      "à¸ªà¸³à¸£": 4669,
      "à¶¸à·Ģ": 4670,
      "Ġà¸¡à¸«à¸²à¸§": 4671,
      "ĠPol": 4672,
      "Ġà¶īà¶ľ": 4673,
      "alip": 4674,
      "à¸²à¸Ļà¸²à¸Ļ": 4675,
      "à·Ģà¶»à¶«": 4676,
      "lase": 4677,
      "72": 4678,
      "-.-âĹ¼-.-âĹ¼-.-âĹ¼-.-âĹ¼": 4679,
      "ike": 4680,
      "Ġà¸ĩ": 4681,
      "78": 4682,
      "à¸¡à¸Ĥà¸Ńà¸ĩ": 4683,
      "à¸Ĥà¸ĵà¸°": 4684,
      "àº½àº§àºĤ": 4685,
      "ez": 4686,
      "à¸§à¸¢à¸ĩà¸²à¸Ļ": 4687,
      "Ġsh": 4688,
      "àº½àºļ": 4689,
      "àºŃàº²àºĬ": 4690,
      "Ġà¹ģà¸¥à¸°à¸ª": 4691,
      "à¶ºà·Ģà¶±": 4692,
      "inn": 4693,
      "Ġgayud": 4694,
      "à¸ģà¸²à¸£à¸ļ": 4695,
      "à¸Ńà¸²à¸¨": 4696,
      "à¹Ħà¸Łà¸¥": 4697,
      "à¸ļà¹Ħà¸Ķ": 4698,
      "à¸Ĥà¸²à¸Ķ": 4699,
      "ict": 4700,
      "àº²àºĸ": 4701,
      "àºĬàº²": 4702,
      "à»ģà»ľ": 4703,
      "àºŃàºļàºĦ": 4704,
      "Ġsite": 4705,
      "ĠSc": 4706,
      "Ġàºķàº²àº¡": 4707,
      "à¸Ĭà¸¢": 4708,
      "à¸Ļà¸²à¸ĩ": 4709,
      "ikan": 4710,
      "àºĦàº§àº²àº¡àº®": 4711,
      "à¸ģà¸²à¸£à¸Ń": 4712,
      "à¸Ńà¸²à¸Īà¸Īà¸°": 4713,
      "à¸¡à¸²à¹Ģà¸Ľ": 4714,
      "à¸ģà¸²à¸¢à¸Ļ": 4715,
      "à¸ĩà¸ģà¸£": 4716,
      "à¹Ģà¸ģà¸°": 4717,
      "à¸Ļà¸Īà¸£": 4718,
      "à¸ªà¸Ńà¸£": 4719,
      "à¸«à¸¥à¸²à¸¢à¸Ħà¸Ļ": 4720,
      "à¸ķà¸Ĥà¸Ńà¸ĩ": 4721,
      "àº¼àº¸": 4722,
      "iter": 4723,
      "à¸§à¸¢à¸§": 4724,
      "Ġà¸Īà¸°à¸¡": 4725,
      "à¸²à¸Ļà¸ļà¸²à¸Ĺ": 4726,
      "ropikal": 4727,
      "à·ģà¶±à¶º": 4728,
      "à¹Ĥà¸¥à¸«": 4729,
      "Ġà¹Ģà¸«à¸¡à¸²à¸°": 4730,
      "Ġà·ĥà·Ħà¶·": 4731,
      "gay": 4732,
      "piritu": 4733,
      "73": 4734,
      "ĠOk": 4735,
      "Ġdes": 4736,
      "×Ĳ": 4737,
      "OS": 4738,
      "ĠPilip": 4739,
      "à¸ļà¸ªà¸¡": 4740,
      "à¸¢à¸Ńà¸Ķà¹Ģà¸¢": 4741,
      "lano": 4742,
      "Ġà·Ģà¶ľà¶ļ": 4743,
      "Ġà¶ĩà·Ħ": 4744,
      "à¶¯à·Ģ": 4745,
      "Ġà»ģàº«": 4746,
      "ĠKinahabogang": 4747,
      "Ġlib": 4748,
      "àºĩà»Ŀ": 4749,
      "à¹ĥà¸Ļà¸Ń": 4750,
      "à¹Ĥà¸łà¸Ħ": 4751,
      "à¸Ńà¹Ģà¸Ĥ": 4752,
      "ora": 4753,
      "aton": 4754,
      "Ġum": 4755,
      "68": 4756,
      "low": 4757,
      "ĠGoogle": 4758,
      "ampo": 4759,
      "à¸²à¸ĩà¸Īà¸²à¸ģ": 4760,
      "ĠMayo": 4761,
      "ĠIntern": 4762,
      "Ġmin": 4763,
      "à¸²à¸¢à¸łà¸²à¸ŀ": 4764,
      ".-.-.-.-.-.-.-.-.-.-.-.-.-.-.-.-.-.-.-.-.-.-.-.-.-.-.-.-.-.-.-.-": 4765,
      "à¸¡à¸Ī": 4766,
      "àºµà»īâĢĭ": 4767,
      "ĠUsa": 4768,
      "Ġà¶±à¶©": 4769,
      "à¸ŀà¸¢à¸²à¸ĺ": 4770,
      "à»ĥàºĻàºª": 4771,
      "à¸§à¸ļ": 4772,
      "II": 4773,
      "àºĩàº«àº¡": 4774,
      "àº²à»ĦàºĽ": 4775,
      "ĠAc": 4776,
      "à¸Ļà¸Ļà¸³": 4777,
      "à¹Ĥà¸£à¸Ľ": 4778,
      "Ġà¸Ħà¸Ńà¸Ļ": 4779,
      "àºĶàº¢": 4780,
      "à¶±à·Ģà¶½": 4781,
      "ĠâĢ¦": 4782,
      "Ġdayon": 4783,
      "iss": 4784,
      "à¸¥à¸Ļ": 4785,
      "Ġà¶Ķà·ĥ": 4786,
      "AC": 4787,
      "à¸ģà¸³à¸«à¸Ļà¸Ķ": 4788,
      "Ġà·ĥà¶§à·Ħà¶±": 4789,
      "Ġàºģàº²àºĻàºª": 4790,
      "à¶°à·Ģ": 4791,
      "ĠMo": 4792,
      "à¸ŀà¸²à¸Ļ": 4793,
      "à¸ģà¹Ħà¸¡": 4794,
      "Ġlak": 4795,
      "à¸Ĺà¸³à¸Ħà¸§à¸²à¸¡": 4796,
      "UCN": 4797,
      "ea": 4798,
      "ĠFor": 4799,
      "........": 4800,
      "àºĻà»Ģàºķ": 4801,
      "à·ģà¶ļ": 4802,
      "à¹ģà¸¥à¸°à¸£": 4803,
      "ĠIUCN": 4804,
      "ubag": 4805,
      "Ġnalazi": 4806,
      "ĠEl": 4807,
      "ĠMay": 4808,
      "à¸įà¸«à¸²": 4809,
      "à¸²à¸ļà¸£": 4810,
      "à¸ĩà¹Ģà¸ŀ": 4811,
      "Ġàºŀàº²àºį": 4812,
      "à·Ģà¶ºà¶±": 4813,
      "à¸ļà¸¢": 4814,
      "à¸²à¸£à¸ģ": 4815,
      "à¸ģà¸£à¸°à¸Ĺà¸£à¸§à¸ĩ": 4816,
      "à¶»à¶ºà¶±": 4817,
      "ical": 4818,
      "Ġà¶Ķà¶±": 4819,
      "à¸Ľà¸ķ": 4820,
      "à¹ģà¸ģà¸£": 4821,
      "date": 4822,
      "à¸ĩà¸ģà¸§": 4823,
      "à¸ļà¸«": 4824,
      "à¸§à¸¢à¸ª": 4825,
      "à¸ĩà¹ĥà¸«à¸į": 4826,
      "ao": 4827,
      "à¶§à¶ļ": 4828,
      "àºĩàºŀ": 4829,
      "ĠJeh": 4830,
      "eklase": 4831,
      "laseklase": 4832,
      "BOBET": 4833,
      "Ġà¶ħà¶¸à¶Ń": 4834,
      "Ġà¶ħà¶ºà¶Ń": 4835,
      "Ġmagh": 4836,
      "ugar": 4837,
      "Ġhigayon": 4838,
      "rael": 4839,
      "ownload": 4840,
      "ni": 4841,
      "mer": 4842,
      "alang": 4843,
      "ĠGiklaseklase": 4844,
      "Ġà¶Ĩà·ĥ": 4845,
      "à¹Ģà¸Ńà¸ª": 4846,
      "Ġtum": 4847,
      "à¸Ħà¸²à¸ª": 4848,
      "Ġmagt": 4849,
      "à¸ķà¸£à¸²à¸": 4850,
      "ĠEstado": 4851,
      "à¶µ": 4852,
      "Ġgihimo": 4853,
      "120": 4854,
      "à»Ħàºª": 4855,
      "ES": 4856,
      "oth": 4857,
      "ĠâĢĭâĢĭ": 4858,
      "à¸²à¸«à¸¡à¸²à¸¢": 4859,
      "Ġà¹ģà¸¥à¸°à¸Ĺ": 4860,
      "yano": 4861,
      "à¸³à¸ļà¸¥": 4862,
      "erson": 4863,
      "à¶ºà¶ºà¶ļ": 4864,
      "à¸ĩà¹Ģà¸¡": 4865,
      "à¸²à¸Ļà¸£": 4866,
      "Ġpamilya": 4867,
      "à¸Ńà¸ĩà¸¢": 4868,
      "ogon": 4869,
      "Ġnasel": 4870,
      "à¸§à¸«": 4871,
      "à¸ļà¹Ĥà¸£à¸Ħà¸ªà¸°à¹Ģà¸ģ": 4872,
      "à¹Ħà¸Ľà¸¢": 4873,
      "à¸ķà¸³à¹ģà¸«à¸Ļ": 4874,
      "Ġ%": 4875,
      ".,": 4876,
      "ĠCr": 4877,
      "à¸°à¹Ħà¸£": 4878,
      "à¸Īà¸³à¸Ļà¸§à¸Ļà¸¡à¸²à¸ģ": 4879,
      "ser": 4880,
      "Ġà»Ģàºª": 4881,
      "àºĻàº°àºĦàºŃàºĻàº«": 4882,
      "Ġà¶¸à·Ģ": 4883,
      "à»Ħà»Ŀ": 4884,
      "à¸Ńà¸ģà¸Ĺ": 4885,
      "à·Ĵ..": 4886,
      "àº½àºĶ": 4887,
      "ĠQu": 4888,
      "à¹ģà¸£": 4889,
      "à¹Ģà¸Ńà¸²à¹Ħà¸§": 4890,
      "po": 4891,
      "×Ĳ×Ĳ": 4892,
      "à¸Ķà¸ĩà¸²à¸Ļ": 4893,
      "à¸¢à¸Ļà¸Ĺ": 4894,
      "à¹Ħà¸Ľà¸ģ": 4895,
      "àº¥àº°àº«àº§": 4896,
      "à¸Īà¸ī": 4897,
      "àº²à»Ģàº¡": 4898,
      "à¸«à¸¥à¸§à¸ĩà¸ŀ": 4899,
      "ĠDili": 4900,
      "àºĹàº°": 4901,
      "à¸Ļà¸°à¸Ħà¸£": 4902,
      "Ġà¶ļà¶»à¶´": 4903,
      "ipon": 4904,
      "à¸Ľà¸£à¸²à¸ģà¸ı": 4905,
      "à¸²à¹Ģà¸ĭ": 4906,
      "Ġà¶ĭà¶´à¶¯": 4907,
      "OV": 4908,
      "une": 4909,
      "Ġà¶»à¶®": 4910,
      "à¹ĵ": 4911,
      "à¸³à¹Ģà¸Ļ": 4912,
      "à¸Īà¸³à¸ģ": 4913,
      "à¸ļà¹Ģà¸¥": 4914,
      "à¸ĩà¹ģà¸¡": 4915,
      "à¸Ĭà¸²à¸ģà¸²à¸£": 4916,
      "à¹Ģà¸Ľà¸£": 4917,
      "iÅ¡": 4918,
      "à¹Ģà¸£à¸²à¸ģ": 4919,
      "Ð½": 4920,
      "àºģàº³àº¥": 4921,
      "ke": 4922,
      "Ġunang": 4923,
      "à¸ģà¸°": 4924,
      "à¸Ńà¸ĺ": 4925,
      "àº³àº¡àº°": 4926,
      "oma": 4927,
      "ld": 4928,
      "à¸«à¸¡à¸²à¸¢à¸ĸ": 4929,
      "Ġà¶Ĩà¶ºà¶Ń": 4930,
      "isg": 4931,
      "ĠIsrael": 4932,
      "à¶ºà¶ļà¶Ń": 4933,
      "abut": 4934,
      "à¶Ńà¶»à¶ļ": 4935,
      "àº¡àºģ": 4936,
      "à¹Ħà¸®": 4937,
      "àº²àºĩàº§": 4938,
      "Ġtanom": 4939,
      "put": 4940,
      "à¹Ĥà¸Ńà¹Ģà¸ģà¸°": 4941,
      "à·Ĥà¶±": 4942,
      "ĠðŁ¥Ħ": 4943,
      "à¸Ħà¸²à¸Ķ": 4944,
      "à¸Ļà¸«à¸£": 4945,
      "XX": 4946,
      "àº§àºįà»Ģàº«": 4947,
      "à»Ĥàº«àºį": 4948,
      "ĠJehova": 4949,
      "à¸§à¹Ĥà¸¥à¸ģ": 4950,
      "Ġà¹ĥà¸Ļà¸§": 4951,
      "à·Ĵ...": 4952,
      "à¸ŀà¸¤": 4953,
      "àº¡àº²àºĶ": 4954,
      "à»ĥàºĻàºķ": 4955,
      "igo": 4956,
      "ĠItal": 4957,
      "Ġà¶ļà¶»à¶ľà¶Ń": 4958,
      "Ġà¶¶à¶º": 4959,
      "oft": 4960,
      "à¸ªà¸²à¸ĺ": 4961,
      "ance": 4962,
      "vel": 4963,
      "à¶ºà·Ģà¶»à¶º": 4964,
      "ette": 4965,
      "à¸ªà¸Ńà¸ĩ": 4966,
      "à¸łà¸²à¸©à¸²": 4967,
      "à¶©à¶¸": 4968,
      "àºĩàºĽàº°àºķ": 4969,
      "Ġàºŀàº§àºģà»Ģàº®": 4970,
      "Ġà¹Ĥà¸Ħà¸£": 4971,
      "ĠHill": 4972,
      "Ġlalaki": 4973,
      "à¸²à¸¢à¸Ķ": 4974,
      "àºĻà»ģàº¥àº°": 4975,
      "ect": 4976,
      "à¸¢à¸¥": 4977,
      "erbisyo": 4978,
      "àºģàº²àºĻàºĤ": 4979,
      "orsk": 4980,
      "Ġà¸ŀà¸Ļ": 4981,
      "Ġà¹ģà¸Ħ": 4982,
      "son": 4983,
      "Ġà¸Ħà¸¥à¸Ńà¸ĩ": 4984,
      "Ġhari": 4985,
      "à¹ĥà¸ļà¸«à¸Ļ": 4986,
      "Ġed": 4987,
      "àºľàº°àº¥": 4988,
      "ĠMon": 4989,
      "Ġà¹Ĥà¸£à¸ĩà¹ģà¸£à¸¡": 4990,
      "à¸²à¸Ļà¸Ķ": 4991,
      "Ġà¸¯": 4992,
      "ÑĢ": 4993,
      "Ġprogr": 4994,
      "Ġmanan": 4995,
      "Ġà¶Ĩà¶ľà¶¸": 4996,
      "à¸²à¸£à¸²à¹Ĥà¸Ńà¹Ģà¸ģà¸°": 4997,
      "Ġà»ĦàºĽ": 4998,
      "ĠDav": 4999,
      "àºĻàºĻàº°": 5000,
      "à·Ħà¶ļ": 5001,
      "ulay": 5002,
      "Â²": 5003,
      "Ã¼": 5004,
      "à¸¢à¸§à¸°": 5005,
      "à¸ļà¹Ĥà¸ķ": 5006,
      "à¸¢à¸Ļà¸ķà¸£": 5007,
      "Ġdihang": 5008,
      "ason": 5009,
      "ba": 5010,
      "eman": 5011,
      "Ġisip": 5012,
      "à¸¨à¸²à¸¥": 5013,
      "Ġà¶łà¶»": 5014,
      "ustom": 5015,
      "à»ĥàºĻàº¥": 5016,
      "AL": 5017,
      "àºªàº°à»Ģàºŀàº²àº°": 5018,
      "à¶ĥ": 5019,
      "à¶ĳà·Ħ": 5020,
      "Ġà¸ŀà¸¤à¸¨à¸Ī": 5021,
      "Ġxxx": 5022,
      "col": 5023,
      "àºŃàºĻàº®": 5024,
      "à¸ļà¸£à¸£à¸¢": 5025,
      "à¸Ķà¹ģà¸¥à¸°": 5026,
      "erno": 5027,
      "hel": 5028,
      "àºªàº°à»ģàºĶàºĩ": 5029,
      "à¸¡à¸Ńà¸ĩ": 5030,
      "à¸Īà¸Ļà¸ĸ": 5031,
      "pa": 5032,
      "àºĻàº²àºį": 5033,
      "àº§àºĶàº¥": 5034,
      "Ġà¶Ĩà·ģ": 5035,
      "itis": 5036,
      "Ġà¶ĩà¶»": 5037,
      "à¸Ĳà¸²à¸Ļà¸°": 5038,
      "94": 5039,
      "ĠÃģ": 5040,
      "Ġinter": 5041,
      "àºŃàºª": 5042,
      "ible": 5043,
      "à¹ģà¸®": 5044,
      "Ġà¸Ńà¸¢à¸²à¸ģ": 5045,
      "à¸ļà¸£à¸£à¸¢à¸²à¸ģà¸²à¸¨": 5046,
      "ĠCent": 5047,
      "Ġpart": 5048,
      "à¸Īà¸°à¸ĸ": 5049,
      "àºĩàºŃ": 5050,
      "Ġà»ģàº¥": 5051,
      "Ġà¶ºà¶º": 5052,
      "Ġza": 5053,
      "74": 5054,
      "à¸ĩà¹Ģà¸¨": 5055,
      "Ġà¶ĩà¶½": 5056,
      "Ġanhi": 5057,
      "oto": 5058,
      "Ġnegos": 5059,
      "âĤ¬âĤ¬âĤ¬âĤ¬âĤ¬âĤ¬âĤ¬âĤ¬": 5060,
      "uz": 5061,
      "igugma": 5062,
      "àºĻà»Ģàºŀ": 5063,
      "96": 5064,
      "à¹Į)": 5065,
      "Ġakon": 5066,
      "à¶¸à¶ºà¶ļ": 5067,
      "Ġà¶¢à¶±à¶´": 5068,
      "à¸¡à¸ł": 5069,
      "ĠÂ»": 5070,
      "Ġà¸Ńà¸²à¸Ĺ": 5071,
      "Ġà¶ľà·ĥ": 5072,
      "aha": 5073,
      "98": 5074,
      "à¸§à¸£à¸£à¸ĵ": 5075,
      "à¸ķà¸²à¸¢": 5076,
      "ĠBer": 5077,
      "àº²àºĪàº²àºģ": 5078,
      "Ġtattoo": 5079,
      "àº²àº£": 5080,
      "à¸Ľà¸«à¸¥": 5081,
      "à¹Ħà¸Ľà¸ĸ": 5082,
      "à¸ļà¸Ľà¸£à¸°à¸ģ": 5083,
      "àºŃàºĹ": 5084,
      "à¸Ĺà¸§": 5085,
      "à¸£à¸²à¸Ĭà¸ģà¸²à¸£": 5086,
      "Ġà·ĥà¶§à¶±": 5087,
      "urn": 5088,
      "àºĶàºĪàº°": 5089,
      "Ġà·Ģà¶±à·Ģ": 5090,
      "à¹Ĥà¸Ńà¸Ļ": 5091,
      "à¸ģà¸£à¸°à¹ģà¸ª": 5092,
      "Ġà·ĥà¶½": 5093,
      "à¹Ĥà¸ļà¸£à¸²à¸ĵ": 5094,
      "Ġproc": 5095,
      "US": 5096,
      "imp": 5097,
      "Ġanhianhi": 5098,
      "à¸ģà¸£à¸Ńà¸ļ": 5099,
      "ĠÃ³": 5100,
      "8888": 5101,
      "Ġgihapon": 5102,
      "à¹Ĥà¸£à¸ĩà¸ĩà¸²à¸Ļ": 5103,
      "Ãł": 5104,
      "à¸Ńà¸ĩà¸Ĺà¸³": 5105,
      "àº²àºģàº²àºĶ": 5106,
      "àºĩàºĽ": 5107,
      "aceae": 5108,
      "ley": 5109,
      "à¸§à¸Ĭ": 5110,
      "à¸²à¸ªà¸¡": 5111,
      "à¸Ļà¹Ħà¸ŀà¸£": 5112,
      "Ġà¹ģà¸¥à¸°à¹Ģà¸Ľ": 5113,
      "à¸²à¹Ĩ": 5114,
      "à¸Ńà¸¢à¸Ĺ": 5115,
      "à¸Īà¸ļ": 5116,
      "à¶½à¶»": 5117,
      "Ġpre": 5118,
      "asal": 5119,
      "<<": 5120,
      "à¸Ľà¸£à¸°à¸¡": 5121,
      "à¸Ļà¸ł": 5122,
      "à»Ģà»Ŀ": 5123,
      "à¸Ńà¸¡à¸ª": 5124,
      "àºļàºŃ": 5125,
      "à¸ĵà¸Ħ": 5126,
      "ĠSBOBET": 5127,
      "à¸¡à¸«à¸Ļ": 5128,
      "à¸µ.": 5129,
      "àºĶàºķàº°àºŀ": 5130,
      "Ġvis": 5131,
      "à¹Ģà¸īà¸¥": 5132,
      "à¸Ļà¸«à¸¢": 5133,
      "Ġà¶ĳà¶±à¶¸": 5134,
      "à·ĥà¶³": 5135,
      "Ġklase": 5136,
      "ĠopÅ¡tina": 5137,
      "ines": 5138,
      "Ġà¶Ĩà·ĥà¶±": 5139,
      "ĠLa": 5140,
      "oph": 5141,
      "Ġà¸£à¸Ńà¸ļ": 5142,
      "à¸§à¸Ļà¸«à¸Ļ": 5143,
      "à¸°à¸§": 5144,
      "à¸ķà¸²à¸¡à¸Ĺ": 5145,
      "àºģàºĶ": 5146,
      "Ġatub": 5147,
      "yang": 5148,
      "à·ħà¶³": 5149,
      "à¸¢à¸Ńà¸¢": 5150,
      "à¸²à¸Ķà¹Ģà¸Ī": 5151,
      "à¸§à¹Ģà¸¡": 5152,
      "ĠMeh": 5153,
      "à¸¡à¸²à¸ķ": 5154,
      "Ġà·Ĥ": 5155,
      "rong": 5156,
      "à¸³à¸ļ": 5157,
      "à¸Ļà¸³à¹Ħà¸Ľ": 5158,
      "àº§àº²": 5159,
      "Ġà¶¶à¶±": 5160,
      "à¸Ļà¸ģà¸§": 5161,
      "à¸Ķà¸Ł": 5162,
      "à¸²à¸£à¸²à¸Ĭ": 5163,
      "à¸Ńà¸Ńà¸¢": 5164,
      "à»ī,": 5165,
      "ID": 5166,
      "àºĩàº²àº¡": 5167,
      "àº²àºĻàºŀ": 5168,
      "van": 5169,
      "apan": 5170,
      "za": 5171,
      "à¸Īà¸²à¸Ļ": 5172,
      "edia": 5173,
      "à¸ļà¹Ģà¸ŀ": 5174,
      "à¸§à¸Ļà¸ģà¸²à¸£": 5175,
      "Ġasa": 5176,
      "Ġkatapusan": 5177,
      "ota": 5178,
      "olo": 5179,
      "unta": 5180,
      "ĠMat": 5181,
      "à¹ģà¸¥à¸°à¸Ħà¸§à¸²à¸¡": 5182,
      "à¸¡à¸²à¸ķà¸£à¸Ĳà¸²à¸Ļ": 5183,
      "à¶°à¶ºà¶ļ": 5184,
      "à¸ļà¹Ģà¸ĩ": 5185,
      "à¸ĩà¸Ĺà¸³à¹ĥà¸«": 5186,
      "ĠRep": 5187,
      "Al": 5188,
      "à¸Īà¸°à¸ŀ": 5189,
      "à¹ĥà¸Ļà¸«": 5190,
      "Ġà¹ģà¸¥à¸°à¸Ń": 5191,
      "àºĻàºŁ": 5192,
      "à¸¢à¸ĩà¹ģà¸Ħ": 5193,
      "à¶ºà¶´": 5194,
      "ĠSal": 5195,
      "à¸²à¸ĩà¹Ģà¸Ķ": 5196,
      "à¸Ĩà¸©à¸ĵ": 5197,
      "site": 5198,
      "à¸Ĥà¸¢à¸²à¸¢": 5199,
      "àº²àº«àº°àºģ": 5200,
      "Ġkinadak": 5201,
      "àºŃàºĩàºª": 5202,
      "à¸¥à¸ģ": 5203,
      "Ġà¸ªà¸ķ": 5204,
      "à¹Ģà¸¡à¸Ļ": 5205,
      "à¸ļà¸¡à¸²": 5206,
      "à¸ªà¸Ĺ": 5207,
      "à¸Ńà¹Ģà¸Ĺ": 5208,
      "àºļàºĻ": 5209,
      "abilin": 5210,
      "ĠBo": 5211,
      "unga": 5212,
      "Ġà¶Ĩà¶¯à¶»": 5213,
      "icro": 5214,
      "Ġà¸ªà¸³à¸Ļ": 5215,
      "à¸Ļà¸Ŀ": 5216,
      "à¸«à¸§à¸²à¸Ļ": 5217,
      "àºªàº°àº«àºĻ": 5218,
      "àºļàºĤ": 5219,
      "Ġmags": 5220,
      "Ġà»ĢàºĻ": 5221,
      "666666666667": 5222,
      "à¸§à¸ĩà¸¨": 5223,
      "à¸«à¸¡à¸²à¸¢à¹Ģà¸¥à¸Ĥ": 5224,
      "à¹Ĵà¹ķ": 5225,
      "à¸²à¸ĩà¸Ħà¸§à¸²à¸¡": 5226,
      "à¸Ńà¸Ļà¸«à¸¥": 5227,
      "usyon": 5228,
      "Ġà¶Ĩà¶ºà¶Ńà¶±": 5229,
      "à¶Ńà¶»à·Ģ": 5230,
      "à¸²à¸«à¸²à¸ģ": 5231,
      "2000": 5232,
      "ĠÅ¡": 5233,
      "à¸ĩà¸ģà¸²à¸¢": 5234,
      "à¸¥à¸¯": 5235,
      "Ġ*": 5236,
      "Ġà¶īà¶§": 5237,
      "ĠMehiko": 5238,
      "à¸Ħà¸Ļà¸Ń": 5239,
      "âĺĢâĺĢâĺĢâĺĢ": 5240,
      "ium": 5241,
      "0000": 5242,
      "à·Ģà·Ħà¶±": 5243,
      "à¸ĩà¹Ģà¸Ń": 5244,
      "à¸«à¸¥à¸Ńà¸Ķà¹Ģà¸¥": 5245,
      "à¸³à¸£à¸°": 5246,
      "à¹ĸ": 5247,
      "à¹Ĥà¸Ľà¸£à¹Ĥà¸¡à¸Ĭ": 5248,
      "à¶»à¶ł": 5249,
      "Ġà¸«à¸Ļà¸Ńà¸Ļ": 5250,
      "à¸«à¸¥à¸²à¸¢à¹Ĩ": 5251,
      "Ġgigamit": 5252,
      "organ": 5253,
      "à·ģà¶ºà¶ļ": 5254,
      "àº²à»Ģàº¥": 5255,
      "otel": 5256,
      "ingharian": 5257,
      "àº¡àº§": 5258,
      "à¸Ķà¸Ĺà¸³": 5259,
      "à¸Ļà¸ķà¸²à¸¡": 5260,
      "à»Ģàº§àº¥àº²àºĹ": 5261,
      "à¶¸à·Ħ": 5262,
      "à¹ģà¸¥à¸°à¸ķ": 5263,
      "Ġà¶¸à¶Ł": 5264,
      "ĠHD": 5265,
      "à·ĥà¶§à·Ħà¶±": 5266,
      "angkon": 5267,
      "à·Ģà¶«": 5268,
      "Ġà¹Ĥà¸£à¸ĩà¹Ģà¸£": 5269,
      "Ġà¹Ģà¸Ł": 5270,
      "Ġà¹Ĥà¸£": 5271,
      "ife": 5272,
      "àºŃàºģàºĪàº²àºģ": 5273,
      "à¹Ħà¸Ĥà¸¡": 5274,
      "Kini": 5275,
      "Kapital": 5276,
      "àº§àº¡àºĹ": 5277,
      "à¹ģà¸§": 5278,
      "à¸²à¸§à¸£": 5279,
      "à¸Ńà¸²à¸Īà¸²à¸£à¸¢": 5280,
      "Ġà¸£à¸°à¸«à¸§": 5281,
      "à¸§à¸ĩà¸Ĺ": 5282,
      "à¸ĩà¸«à¸²à¸Ħà¸¡": 5283,
      "Ġtali": 5284,
      "Ġà¶ĳà¶ºà¶§": 5285,
      "97": 5286,
      "à·Ĭ..": 5287,
      "3333333333333333333333333333333333333333333333333333333333333333333333333333333333333333333333333333333333333333333333333333333333333333333333333333333333333333333333333333333333333333333333333333333333333333333333333333333333333333333333333333333333333333": 5288,
      "àº²àºĻàºªàº²àº¡àº²àºĶ": 5289,
      "à¸ŀà¸£à¸°à¸Ńà¸ĩà¸Ħ": 5290,
      "à¶±à·Ħ": 5291,
      "Ġà¶ħà¶´à¶»": 5292,
      "Ġmib": 5293,
      "ĠSi": 5294,
      "Ġà¹Ĥà¸Ħ": 5295,
      "Ġà¹ģà¸¥à¸°à¸ķ": 5296,
      "à¸²à¸ĩà¸Ĭ": 5297,
      "à¸²à¸Ļà¸Ĥ": 5298,
      "àºªàº³àºĦ": 5299,
      "91": 5300,
      "ji": 5301,
      "Ġnab": 5302,
      "àºįàº²àºĶ": 5303,
      "à¸ļà¹Ģà¸ª": 5304,
      "à¸Ļà¹ģà¸ķ": 5305,
      "à¸µà¹Ĭ": 5306,
      "à¸Ńà¸ĩà¹Ħà¸Ķ": 5307,
      "yn": 5308,
      "à¸Ĭà¸¡à¸ŀ": 5309,
      "à¹Ģà¸§à¸Ĺ": 5310,
      "à¹ĥà¸Ļà¸ŀ": 5311,
      "ĠSw": 5312,
      "Ġmip": 5313,
      "ĠGu": 5314,
      "lot": 5315,
      "àºªàº½àºĩ": 5316,
      "Ġmagd": 5317,
      "Ġpres": 5318,
      "rek": 5319,
      "Ġby": 5320,
      "àº¸âĢĭ": 5321,
      "à¸²à¸Ķà¸£": 5322,
      "à¸ĩà¸«à¸¡": 5323,
      "à¸³à¸Ķ": 5324,
      "à¹Ģà¸ĸ": 5325,
      "à¸ģà¸£à¸°à¸ķ": 5326,
      "àº²àºĩàºĹ": 5327,
      "àº°à»ľ": 5328,
      "Ġà¹Ĥà¸«à¸¥à¸Ķ": 5329,
      "à¸ģà¸²à¸£à¸ļà¸£": 5330,
      "à¸ŀà¸§à¸ģà¹Ģà¸Ĥà¸²": 5331,
      "à¹Ĥà¸£à¸ĩà¸ŀà¸¢à¸²à¸ļà¸²à¸¥": 5332,
      "à¹Ģà¸¥à¸¢à¸Ĺ": 5333,
      "à¶ļà¶©": 5334,
      "ola": 5335,
      "Ġwww": 5336,
      "à¸ļà¸ĸ": 5337,
      "à¸ĩà¸Ńà¸Ńà¸ģ": 5338,
      "à¸²à¸Īà¸°à¸¡": 5339,
      "htt": 5340,
      "800": 5341,
      "ding": 5342,
      "àºŃàºĩàº¡": 5343,
      "à¸²à¸Ńà¸Ńà¸Ļà¹Ħà¸¥à¸Ļ": 5344,
      "à¸ªà¸£à¸°": 5345,
      "à¸Ķà¸¢à¸Ńà¸Ķ": 5346,
      "à¸²à¸«à¸¡": 5347,
      "àºŃà»ĥàº«": 5348,
      "Ġdula": 5349,
      "Ġàº«àºĩàº§àº½": 5350,
      "à¸ªà¸ĭ": 5351,
      "à¸Ńà¹Ģà¸Ĭ": 5352,
      "à¸Ľà¸Ľ": 5353,
      "àº°àºĻàº°àºĹ": 5354,
      "iyos": 5355,
      "insk": 5356,
      "à¸ĩà¸Īà¸²à¸ģà¸Ļ": 5357,
      "à¸Ĺà¸²à¸ĩà¸Ķ": 5358,
      "à¸²à¸Ĭà¸Ļ": 5359,
      "à¸²à¸Ńà¸Ńà¸ģ": 5360,
      "ĠPoint": 5361,
      "àºĶàº¡": 5362,
      "Ġbin": 5363,
      "63": 5364,
      "à¸ģà¸Ĺà¸£": 5365,
      "à¸Ĳà¸¡à¸Ļà¸ķà¸£": 5366,
      "Ġà¶īà¶»": 5367,
      "à¸ģà¸£à¸°à¹Ģà¸Ľ": 5368,
      "à¸łà¸²à¸§à¸°": 5369,
      "ida": 5370,
      "ago": 5371,
      "à¶®à¶ļ": 5372,
      "ĠÃī": 5373,
      "à¶½à¶ºà¶§": 5374,
      "Ġà¸ķà¸Ńà¸Ļà¸Ĺ": 5375,
      "à¸²à¸Ļà¹Ģà¸Ķ": 5376,
      "à¸²à¸Ļà¸«à¸¥": 5377,
      "à¸Ľà¸ģà¸Ħà¸£": 5378,
      "83": 5379,
      "ower": 5380,
      "àº²àºĻàºļ": 5381,
      "Ġkahim": 5382,
      "HA": 5383,
      "à¹Ģà¸ĭà¸Ļ": 5384,
      "à¸¬à¸²": 5385,
      "à¸Ľà¸£à¸°à¸ģà¸Ńà¸ļà¸Ķ": 5386,
      "à¸Ńà¹ģà¸¥à¸°": 5387,
      "Ġkontin": 5388,
      "Ġsubt": 5389,
      "aran": 5390,
      "lem": 5391,
      "àºļàºĽàº°àºģ": 5392,
      "si": 5393,
      "à¸ģà¸¡à¸²à¸ģ": 5394,
      "Ġgah": 5395,
      "rat": 5396,
      "ĠPan": 5397,
      "Ġà¶´à¶«": 5398,
      "lass": 5399,
      "Ġà¹ģà¸¡à¸Ļ": 5400,
      "à¸ªà¸ĩ": 5401,
      "Ġab": 5402,
      "ugay": 5403,
      "Ġser": 5404,
      "à¸Ĺà¸¢à¸²": 5405,
      "à¸Ĥà¸Ļà¸²à¸Ķà¹Ģà¸¥": 5406,
      "à¶Ńà¶§à¶¸": 5407,
      "????": 5408,
      "à¸Ńà¹ĥà¸Ļ": 5409,
      "à¸¢à¸«à¸²à¸¢": 5410,
      "ĠOn": 5411,
      "Ġà¶Ĭà¶º": 5412,
      ";.": 5413,
      "Ġà·ħà¶Ł": 5414,
      "à¸ģà¸²à¸£à¹Ģà¸Ķ": 5415,
      "à¸Ķà¸²à¸§à¹Ģà¸Ĺ": 5416,
      "Ġpod": 5417,
      "à¸Ķà¸ľ": 5418,
      "Ġnato": 5419,
      "eng": 5420,
      "àº°àºĻàº²": 5421,
      "Ġà¶¶à·Ģà¶¯": 5422,
      "ony": 5423,
      "ged": 5424,
      "à¸§à¸ļà¸£": 5425,
      "Ġà¹Ģà¸¥à¸¢": 5426,
      "à¸Ĺà¸²à¸ĩà¸Ĺ": 5427,
      "Ġà»ĢàºĹ": 5428,
      "à¸Ńà¸ªà¸Ńà¸ĩ": 5429,
      "Ġà¶ĩà¶¸à¶»": 5430,
      "à¸ļà¸²à¸£": 5431,
      "Ġatubangan": 5432,
      "àº²àºĻàº¥": 5433,
      "à¸Ľà¸£à¸°à¸Ĺ": 5434,
      "form": 5435,
      "à»ĦàºŁàºŁ": 5436,
      "Ġkontinente": 5437,
      "indot": 5438,
      "à¶»à¶´à¶§": 5439,
      "Ġà¹ģà¸ŀ": 5440,
      "à¹Ħà¸Ĺ": 5441,
      "à¹ģà¸ªà¸Ļ": 5442,
      "à¸¢à¸Ńà¸¡à¸£": 5443,
      "à¸¥à¸ķ": 5444,
      "àºĻàº«àº²": 5445,
      "à¸§à¸¡à¸¡": 5446,
      "!!!": 5447,
      "àº²àºįàºĦ": 5448,
      "àºĶàºķàº°àºĽ": 5449,
      "ĠMga": 5450,
      "à¶Ĭ": 5451,
      "Ġà¶ļà¶´": 5452,
      "alad": 5453,
      "ĠRes": 5454,
      "Ġà¸Ńà¸Ķ": 5455,
      "à¸Ķà¹Ħà¸Ľ": 5456,
      "à¸Ńà¸ĩà¸¥": 5457,
      "à¸Ħà¸£à¹Ģà¸¥": 5458,
      "Ġà¶ĩà¶ľ": 5459,
      "à¶©à·ĥà¶§à·Ħà¶±": 5460,
      "ubud": 5461,
      "roid": 5462,
      "à¸ªà¹Ħà¸ķà¸¥": 5463,
      "à¸ĩà¸²à¸Ļà¹Ħà¸Ķ": 5464,
      "Ġnagd": 5465,
      ";;;.": 5466,
      "ĠàºĽàº°àºĬàº²àºĬ": 5467,
      "agan": 5468,
      "Ġnagb": 5469,
      "à¸Ńà¹Ģà¸ĩ": 5470,
      "à¹ĥà¸Ķà¹Ĩ": 5471,
      "à¸²à¸ĩà¸Ĥà¸Ńà¸ĩ": 5472,
      "ĠItalya": 5473,
      "Ġnaghatag": 5474,
      "Ġhigala": 5475,
      "Ġà¶«": 5476,
      "Ġangay": 5477,
      "Ġà¸Ħà¸²à¸ª": 5478,
      "à¸«à¸²à¸Ķ": 5479,
      "ool": 5480,
      "âĹı": 5481,
      "ount": 5482,
      "alt": 5483,
      "AG": 5484,
      "Ġà¸£à¸²à¸¢à¸ģà¸²à¸£à¸Ļ": 5485,
      "Ġà¹Ģà¸ĩ": 5486,
      "à¸Ńà¹Ģà¸ģ": 5487,
      "ille": 5488,
      "à¸Ļà¸¢à¸²à¸¢à¸Ļ": 5489,
      "à¸¡à¸²à¹ģà¸¥": 5490,
      "Ġà¹Ģà¸«à¸¥": 5491,
      "Ġà¸ªà¸°": 5492,
      "à¹Ĥà¸Ļà¸¡": 5493,
      "anaw": 5494,
      "à¶¯à¶¸": 5495,
      "Ġà·Ģà·Ħ": 5496,
      "ĠSept": 5497,
      "Ġà¶¢à¶ºà¶ľ": 5498,
      "awon": 5499,
      "ys": 5500,
      "ĠTagaytay": 5501,
      "à¸§à¹Ģà¸Ħà¸£": 5502,
      "à¶»à¶¸à·ĥ": 5503,
      "à¸Ńà¸Ļà¸²à¸Ħà¸ķ": 5504,
      "à¸ĩà¹Ģà¸Ĺ": 5505,
      "àº¡àºĻ": 5506,
      "Ġà¶ĭà¶¹": 5507,
      "ĠJer": 5508,
      "itor": 5509,
      "Ġà»Ģàºŀàº²àº°": 5510,
      "awas": 5511,
      "Ġlangit": 5512,
      "ĠSiya": 5513,
      "ĠDr": 5514,
      "ivers": 5515,
      "à·ģà¶ºà¶§": 5516,
      ".\"": 5517,
      "Ġà¸ģà¸¥à¸²à¸ģ": 5518,
      "Ġkasarangan": 5519,
      "àº°àºįàº²àºį": 5520,
      "ľàº°àº¥": 5521,
      "ĠOr": 5522,
      "ĠPilipinas": 5523,
      "à¸¢à¸§à¸Ĭ": 5524,
      "Ġamihanang": 5525,
      "à¸²à¹Ģà¸¢": 5526,
      "à¹ģà¸Ńà¸£": 5527,
      "Ġinyo": 5528,
      "ode": 5529,
      "ote": 5530,
      "àºĶà»ĦàºĶ": 5531,
      "à¸¢à¸Ńà¸¡": 5532,
      "à¸Ļà¸°à¸Ħà¸°": 5533,
      "à¸²à¸§à¸Ĺ": 5534,
      "à¸Īà¸°à¸ª": 5535,
      "àº°àº«àºĻ": 5536,
      "Ġlugar": 5537,
      "àº¼àº»à»Ī": 5538,
      "àºŃàº¡àºģ": 5539,
      "Ġep": 5540,
      "Ġban": 5541,
      "àºĻàºĪàº°": 5542,
      "Ġgy": 5543,
      "Ġà¶Ĩà¶ł": 5544,
      "à¶´à·Ģ": 5545,
      "ĠCon": 5546,
      "Ġà¶»à¶§à¶ļ": 5547,
      "ics": 5548,
      "ĠàºĻàº°àºĦ": 5549,
      "à¸¡à¸Ħà¸£": 5550,
      "ÎµÎµÎµÎµÎµÎµÎµÎµÎµÎµÎµÎµÎµÎµÎµÎµ": 5551,
      "à¹Ģà¸ªà¸¡": 5552,
      "ĠàºĿ": 5553,
      "à¹Ķ": 5554,
      "Ġà¸Ńà¸²à¸Ħà¸²à¸£": 5555,
      "à¶·à¶º": 5556,
      "à»ģàºľàºĻ": 5557,
      "ush": 5558,
      "àºĻàº¡àº²": 5559,
      "Ġmananap": 5560,
      "à¸ļà¹Ħà¸¡": 5561,
      "à¸²à¹Ģà¸Ī": 5562,
      "àº²àº«àº²àºĻ": 5563,
      "Club": 5564,
      "Ġà¸ĸà¸Ļà¸Ļ": 5565,
      "à¸ģà¸İà¸«à¸¡à¸²à¸¢": 5566,
      "Ġmakad": 5567,
      "****": 5568,
      "Ġnagap": 5569,
      "à¸¥à¸Ľà¸°": 5570,
      "Ġà¹ģà¸Ĺà¸ĩà¸ļà¸Ńà¸¥": 5571,
      "à¸Ļà¸ªà¸³à¸«à¸£": 5572,
      "à¸Ļà¹Ħà¸Ľà¹Ħà¸Ķ": 5573,
      "àºĩà»ģàº¡": 5574,
      "à¸Ńà¸ļà¸ĸ": 5575,
      "Ġunsang": 5576,
      "Ġà·Ģà¶»à¶¯": 5577,
      "àºĩà»Ģàºª": 5578,
      "àºļàºŀàº°àºį": 5579,
      "Ġà¶¶à¶«": 5580,
      "Ġserbisyo": 5581,
      "Ġbuk": 5582,
      "ulongan": 5583,
      "Ġgob": 5584,
      "Ġà·Ħà¶¯à¶±": 5585,
      "Ġpal": 5586,
      "Ã¤": 5587,
      "atan": 5588,
      "Ġà¸ķà¸Ńà¸Ļà¸Ļ": 5589,
      "à¸§à¸Ļà¸¡": 5590,
      "à¸Ńà¸ĩà¸Ļà¸Ńà¸Ļ": 5591,
      "àº½àºĻà»ģàºĽ": 5592,
      "à¶Ķà¶º": 5593,
      "Ġumogon": 5594,
      "Ġsubtropikal": 5595,
      "à¸ļà¸ķà¹Ģà¸ķà¸Ńà¸£": 5596,
      "away": 5597,
      "à¸ķà¸²": 5598,
      "Ġà¸Ķà¸²à¸§": 5599,
      "à¸łà¸²à¸ŀà¸Ĺ": 5600,
      "Ġ{": 5601,
      "Ġà¶ĩà¶±": 5602,
      "à¸¥à¸ĭ": 5603,
      "à¸¢à¸²à¸ĩ": 5604,
      "à¸Ħà¸Ńà¸¡": 5605,
      "Ġà·ĥà¶½à¶ļ": 5606,
      "à»ģàº®": 5607,
      "à¶»à¶ľ": 5608,
      "àºĻà»ĢàºŃàºĩ": 5609,
      "à¶Ńà¶ºà¶§": 5610,
      "à¸ĵà¹Ħà¸Ķ": 5611,
      "à¸²à¸§à¸ģ": 5612,
      "à¸ģà¸£à¸¢à¸²à¸Ļ": 5613,
      "Ġkar": 5614,
      "yc": 5615,
      "Ġpagkaon": 5616,
      "à¶ħà¶©": 5617,
      "Ġà·ĥà¶ļà·ĥ": 5618,
      "Ġà¹Ģà¸ľ": 5619,
      "Ġà¸ªà¸§à¸¢": 5620,
      "à·ħà¶¯": 5621,
      "ĠSch": 5622,
      "àº§àº¡àºģ": 5623,
      "Ġpun": 5624,
      "à»ĤàºĽ": 5625,
      "Ġà¶ħà·Ģà¶¶": 5626,
      "Äĳ": 5627,
      "Ġàºªàº²àº¡àº²àºĶ": 5628,
      "à¸Ħà¸Ļà¸£": 5629,
      "àºŃàºĩàºĸ": 5630,
      "à¸Īà¸°à¸Ĺà¸³": 5631,
      "Ġà·ĥà¶¸à¶Ń": 5632,
      "eal": 5633,
      "orld": 5634,
      "à¶ºà¶»": 5635,
      "à¸ļà¸Ľà¸£à¸°à¸Ĺà¸²à¸Ļ": 5636,
      "à¸§à¸¢à¹Ħà¸Ĺà¸¢": 5637,
      "à¸Ļà¸ļà¸Ļ": 5638,
      "à¸ģà¸©à¸²à¸Ħà¸§à¸²à¸¡": 5639,
      "à¸ŀà¸¥à¸²à¸ªà¸ķ": 5640,
      "ĠRome": 5641,
      "à»ĥàºĻàºĤ": 5642,
      "Ġà·ħà¶¸à¶º": 5643,
      "Ġà¹Ģà¸Ńà¸Łà¸ĭ": 5644,
      "à¸ªà¸«à¸£": 5645,
      "àºªàº²àº¡": 5646,
      "Ġàºŀàº°": 5647,
      "Ġà»Ģàºĸ": 5648,
      "²ãģ": 5649,
      ";;;.;;;.": 5650,
      "ingpit": 5651,
      "Ġsist": 5652,
      "à¸²à¸Ļà¸Ń": 5653,
      "Ġà¸¯à¸¥à¸¯": 5654,
      "Ġpul": 5655,
      "Ġhttp": 5656,
      "ĠopÅ¡tini": 5657,
      "rabaho": 5658,
      "à¸Ńà¸ĩà¹ĥà¸«": 5659,
      "à¸ŀà¹Ģà¸Ķ": 5660,
      "last": 5661,
      "Ġnagl": 5662,
      "àºĻà»ĢàºĪ": 5663,
      "Ġsu": 5664,
      "bayon": 5665,
      "à¸²à¹Ĥ": 5666,
      "àºĶàºĬàºŃàºļ": 5667,
      "à¸Ķà¸Ĭà¸Ńà¸ļ": 5668,
      "àºŀàº°àºĻ": 5669,
      "subaru": 5670,
      "àº°àºįàº²àºįàº²àº¡": 5671,
      "Ġsayon": 5672,
      "ĠPark": 5673,
      "Ġpulo": 5674,
      "ional": 5675,
      "à¶¤": 5676,
      "enyo": 5677,
      "orth": 5678,
      "àºĽàºŃàºĶ": 5679,
      "Ġà¸łà¸²à¸¢à¹ĥà¸Ļ": 5680,
      "à¸ªà¹Ģà¸ĭ": 5681,
      "à¶±à¶ºà¶±": 5682,
      "Ġlanggam": 5683,
      "Ġunya": 5684,
      "Ġsiyudad": 5685,
      "àºĽàº°àºĹ": 5686,
      "à¸Ńà¹ĥà¸Ĭ": 5687,
      "à¸§à¸ĩà¸Īà¸£": 5688,
      "Ġbalaod": 5689,
      "vo": 5690,
      "atib": 5691,
      "ĠâĹı": 5692,
      "à¹ĮâĢĿ": 5693,
      "à¸Ħà¸§à¸²à¸¡à¸§": 5694,
      "à¸Ńà¸²à¸Ĭ": 5695,
      "à¸ĵà¸«": 5696,
      "Ġà¹ģà¸¥à¸°à¸£": 5697,
      "àºªàº°àºŀàº²": 5698,
      "Ġnakita": 5699,
      "à¸ŀà¸ķ": 5700,
      "ugnaw": 5701,
      "Å¾av": 5702,
      "Ġkalabot": 5703,
      "à¸¡à¸«à¸²à¸Ļà¸Ħà¸£": 5704,
      "à¸ģà¸²à¸£à¸ģ": 5705,
      "àºĩàºľ": 5706,
      "à¸²à¸¢à¸Ļà¸Ńà¸ģ": 5707,
      "Ġbukid": 5708,
      "over": 5709,
      "ÑĤ": 5710,
      "otan": 5711,
      "à¹ĥà¸Ļà¹Ģà¸Ķ": 5712,
      "enn": 5713,
      "Ġà¹ģà¸Ī": 5714,
      "Ġà¸Ħà¸²à¸£à¸²à¹Ĥà¸Ńà¹Ģà¸ģà¸°": 5715,
      "à¹ī,": 5716,
      "à¸ģà¸£à¸°à¸Ķà¸²à¸©": 5717,
      "à¹Ħà¸ĭà¸Ļ": 5718,
      "ĠÅº": 5719,
      "mp": 5720,
      "à¶©à¶½à¶º": 5721,
      "AD": 5722,
      "RO": 5723,
      "66666666666666": 5724,
      "à¸ĩà¹Ģà¸¨à¸ª": 5725,
      "amatay": 5726,
      "Ġmet": 5727,
      "ukad": 5728,
      "à¸ģà¹ĥà¸Ī": 5729,
      "à¸Īà¸°à¹ĥà¸Ĭ": 5730,
      "Ġà¹Ģà¸ŀà¸¥à¸ĩ": 5731,
      "Ġpagtuo": 5732,
      "Ġgibuhat": 5733,
      "Ġnadm": 5734,
      "à¶łà¶±à¶º": 5735,
      "à¸ģà¸£à¸°à¸Ĺà¸³": 5736,
      "à¸²à¸ĩà¸ªà¸£à¸£à¸Ħ": 5737,
      "à¸²à¹ģà¸ģ": 5738,
      "Ġini": 5739,
      "àºĻà»ĢàºĬ": 5740,
      "à»ĥàºĻàºĦ": 5741,
      "à¸Ħà¸Ń": 5742,
      "à¹Ģà¸ŀà¸²à¸°": 5743,
      "à¸ªà¸Ńà¸Ļ": 5744,
      "à¸Ħà¸Ļà¹Ħà¸Ĺà¸¢": 5745,
      "Ġà¸Ľà¸£à¸°à¸ķ": 5746,
      "AA": 5747,
      "Ad": 5748,
      "Ġmakab": 5749,
      "àºģàº¢": 5750,
      "àºŃàºģàº«": 5751,
      "JC": 5752,
      "à¶©à¶º": 5753,
      "rin": 5754,
      "92": 5755,
      "Ġmaayong": 5756,
      "à¹ģà¸ķà¸ģ": 5757,
      "ĠBu": 5758,
      "à·ħà¶Ń": 5759,
      "Ġnadmorsk": 5760,
      "àº²àºĻàº«": 5761,
      "ahibalo": 5762,
      "à¸¢à¸ļà¸²à¸¢": 5763,
      "ormasyon": 5764,
      "à¸ģà¸Ŀ": 5765,
      "à¸¡à¸²à¹ĥà¸«": 5766,
      "à»Ĥàº®": 5767,
      "àºĻàº¥àº°": 5768,
      "Ñģ": 5769,
      "ĠRiver": 5770,
      "Ġ..": 5771,
      "à¹Ģà¸ģà¸£": 5772,
      "Ġhinungdan": 5773,
      "Ġà¶Ĩà¶´": 5774,
      "à¶Ķà¶¶": 5775,
      "que": 5776,
      "Ġà¸ģà¸²à¸£à¸Ĺ": 5777,
      "93": 5778,
      "à¸«à¸¥à¸§à¸ĩà¸Ľ": 5779,
      "à»Ĥàº¡": 5780,
      "à¶ľà¶»": 5781,
      "Ġgamit": 5782,
      "Ġà¹Ģ": 5783,
      "à¸ĸà¸²à¸ļ": 5784,
      "ĠÅ¾ivelo": 5785,
      "Äįk": 5786,
      "Ġà¹Ĥà¸Ķà¸¢à¸Ĺ": 5787,
      "à¸Ĥà¸Ńà¸ĩà¸Ļ": 5788,
      "à¸¡à¹ģà¸¥à¸°": 5789,
      "à¸Ļà¹ģà¸¡": 5790,
      "à¸Ĥà¸Ńà¸ĩà¹Ģà¸£": 5791,
      "àº²àºĩà»ľ": 5792,
      "Ġà¶Ńà·Ģà¶¯": 5793,
      "Ġà¶Ńà·Ģà¶¸à¶Ń": 5794,
      "76": 5795,
      "Ġsugal": 5796,
      "à¹ĥà¸Ļà¹Ģà¸£": 5797,
      "agad": 5798,
      "lok": 5799,
      "Ġvisini": 5800,
      "à¸Ĥà¸Ńà¸ĩà¸£": 5801,
      "à¹Ģà¸Ĺà¸Ħà¸Ļ": 5802,
      "àº°à»ģàºĻàºģ": 5803,
      "àº¥àº²àºĦ": 5804,
      "itt": 5805,
      "TS": 5806,
      "àºĻàºĸàº²àºĻ": 5807,
      "à¸§à¸¢à¸Ħ": 5808,
      "à¸²à¸Ńà¸²à¸Ī": 5809,
      "à¸ĩà¹Ħà¸§": 5810,
      "ĠAleman": 5811,
      "eso": 5812,
      "à»Ħàºķ": 5813,
      "àº²àºįàºģàº§": 5814,
      "à¸ĩà¹Ģà¸Ĭ": 5815,
      "Ġà¸«à¸¡à¸§à¸ģà¸ģ": 5816,
      "à¸Ļà¹Ģà¸ĩ": 5817,
      "Ġnaghimo": 5818,
      "Ġà¶ľà¶»": 5819,
      "hanan": 5820,
      "à¸Ļà¸Ĭà¸Ńà¸ļ": 5821,
      "à¸ķà¸Ńà¸¥": 5822,
      "à¹Ģà¸¥à¸¢à¸Ħà¸£": 5823,
      "kaw": 5824,
      "Ġà·Ħà¶§": 5825,
      "Ġnadmorskoj": 5826,
      "à¶±à¶»": 5827,
      "à¸Ńà¸Ļà¸¡": 5828,
      "ensya": 5829,
      "à¸ĩà¹ģà¸§à¸Ķà¸¥": 5830,
      "Ġà·Ģà¶¯": 5831,
      "Ġà¶Ĩà¶°": 5832,
      "ise": 5833,
      "Ġnaga": 5834,
      "Ġlin": 5835,
      "Ġà¹ģà¸¥à¸°à¸Ļ": 5836,
      "à¸²à¸Ńà¸ģà¹Ģà¸¥": 5837,
      "à¸µà¹ĭ": 5838,
      "uto": 5839,
      "ĠTa": 5840,
      "sagol": 5841,
      "à¸¡à¸Īà¸²à¸ģ": 5842,
      "à¹ģà¸Ķà¸Ļ": 5843,
      "à¸²à¸ĩà¸²à¸Ļ": 5844,
      "Ġà¹ģà¸Ł": 5845,
      "Ġà¸£à¸²à¸Ħà¸²à¸ĸ": 5846,
      "à¸ģà¹Ģà¸Ľà¸¥": 5847,
      "amaagi": 5848,
      "à¶¸à¶§à¶Ń": 5849,
      "erg": 5850,
      "²ãģ²ãģ": 5851,
      "Ġà·ĥà¶´": 5852,
      "Ġà¹Ģà¸£à¸²à¸ģ": 5853,
      "àº²àºĻà»ĦàºĶ": 5854,
      "à¸£à¸ł": 5855,
      "Ġbil": 5856,
      "àº²àº«àº²àºģ": 5857,
      "ert": 5858,
      "Ġà¶±à·Ģà¶Ń": 5859,
      "à»ĤàºĦàºªàº°": 5860,
      "isyal": 5861,
      "Ġgipang": 5862,
      "2558": 5863,
      "Ġdalan": 5864,
      "atay": 5865,
      "Ġà»ĥàºĻàº§": 5866,
      "à¸²à¸Ĭà¸Ļà¸°": 5867,
      "à¸Ńà¸Ļà¹Ħà¸Ĥ": 5868,
      "ije": 5869,
      "Ġnegosyo": 5870,
      "Ġwebsite": 5871,
      "à»Ģàº£": 5872,
      "700": 5873,
      "à¸Īà¸°à¹Ģà¸Ĥ": 5874,
      "Ġà¸Ĥà¸ĵà¸°à¸Ĺ": 5875,
      "à¸ĩà¹Ģà¸Ĺà¸ŀà¸¯": 5876,
      "ĠOb": 5877,
      "umd": 5878,
      "ple": 5879,
      "à¸Ńà¸ģà¸ĭ": 5880,
      "à¸Ķà¹Ģà¸£": 5881,
      "à¶±à·Ģà¶¯": 5882,
      "à¹Ģà¸Ńà¸Ł": 5883,
      "ĠVal": 5884,
      "San": 5885,
      "Ġbaybayon": 5886,
      "àºģàº²àºį": 5887,
      "ija": 5888,
      "Ġiznos": 5889,
      "oftware": 5890,
      "à¸ļà¹Ģà¸§": 5891,
      "à¹Ĥà¸Ĥ": 5892,
      "Ġà¹ģà¸Ĥ": 5893,
      "à¸ģà¸Ł": 5894,
      "à¶ĳà¶¸": 5895,
      "jedn": 5896,
      "àºĻàºĦàº§": 5897,
      "ua": 5898,
      "ube": 5899,
      "Ġen": 5900,
      "àºļàº§": 5901,
      "à¸ĩà¸Ħà¸£à¸²à¸¡": 5902,
      "à¸²à¸¢à¸¡": 5903,
      "à¸Ĺà¸Ĺ": 5904,
      "Ġà»Ģàº«": 5905,
      "Ġpagpangita": 5906,
      "Ġà¶ĭà·ĥà·ĥ": 5907,
      "à·Ģà·Ģ": 5908,
      "àº²àºĦàº§àº²àº¡": 5909,
      "ĠCristo": 5910,
      "Â»": 5911,
      "Ġacc": 5912,
      "à¹Ģà¸ªà¸Ļ": 5913,
      "à¸²à¸¢à¹Ħà¸Ľ": 5914,
      "à¸²à¸¢à¹ĥà¸Ļ": 5915,
      "Ġà¸ģà¸¡": 5916,
      "ual": 5917,
      "inal": 5918,
      "àºĩà»ģàºķ": 5919,
      "Ġà¶´à¶¯à¶±à¶¸": 5920,
      "ĠPl": 5921,
      "à¸Īà¸°à¹ĥà¸«": 5922,
      "à¸ķà¸³à¸£à¸§à¸Ī": 5923,
      "à»ĥàºĻàºĽ": 5924,
      "àºĶàº³à»ĢàºĻ": 5925,
      "à»Ģàº¥àºĤ": 5926,
      "Ġsave": 5927,
      "uli": 5928,
      "alibotan": 5929,
      "Ġà¸ªà¸Ľà¸Ńà¸£": 5930,
      "à¸²à¸ªà¸³à¸«à¸£": 5931,
      "à¸ĩà¹Ģà¸Ĺà¸ŀà¸¡à¸«à¸²à¸Ļà¸Ħà¸£": 5932,
      "à¸ŀà¸ª": 5933,
      "à¹ģà¸Ń": 5934,
      "ett": 5935,
      "àºģàºĦàºŃàºĩ": 5936,
      "Ġà¶ħà¶´à¶ľ": 5937,
      "amot": 5938,
      "Ġlu": 5939,
      "iguro": 5940,
      "à¸§à¸£à¸£à¸Ħ": 5941,
      "à¸ĩà¸ļà¸Ľà¸£à¸°à¸¡à¸²à¸ĵ": 5942,
      "Tag": 5943,
      "à¶ºà·ħ": 5944,
      "IL": 5945,
      "ĠMC": 5946,
      "yst": 5947,
      "à»Ŀàº²àºģ": 5948,
      "àº°à»ģà»ľ": 5949,
      "Ġmakatabang": 5950,
      "à¸ªà¹Ĥà¸¡à¸ªà¸£": 5951,
      "à¸ļà¸ģà¸¥": 5952,
      "Ġà¹Ģà¸¥à¸Ļà¸ª": 5953,
      "à¸¢à¸ĩà¸ª": 5954,
      "ĠIS": 5955,
      "Ġsala": 5956,
      "ĠYot": 5957,
      "à¸ģà¸²à¸£à¸Ĺà¸³": 5958,
      "à¸ģà¸²à¸£à¸Ĥ": 5959,
      "Ġà¹ĥà¸Ħà¸£": 5960,
      "à¸ģà¸²à¸£à¸Ĺà¸³à¸ĩà¸²à¸Ļ": 5961,
      "à¸Ĺà¸°à¹Ģà¸¥": 5962,
      "àºĩàº®": 5963,
      "aa": 5964,
      "ĠOpÅ¡t": 5965,
      "àº²àºĩà»ĢàºĽ": 5966,
      "Ġ!": 5967,
      "Ġpinulongan": 5968,
      "Kon": 5969,
      "Ġà¸ķà¸¥à¸Ńà¸Ķ": 5970,
      "àºĹàº°àºįàº²": 5971,
      "à¸Ļà¸²à¸¢à¸Ļ": 5972,
      "ĠWalay": 5973,
      "àºĩàºĪàº°": 5974,
      "ĠKan": 5975,
      "sab": 5976,
      "àºŃàº¡àºĶ": 5977,
      "Ġpagbuhat": 5978,
      "à¸²à¸ĩà¸£à¸§à¸Ķà¹Ģà¸£": 5979,
      "à¶§à·Ģ": 5980,
      "Ġkasadpang": 5981,
      "à¸²à¸Ļà¸§": 5982,
      "Ġà¹ģà¸¥à¸°à¸ģ": 5983,
      "Ġsagol": 5984,
      "Ġgrad": 5985,
      "ices": 5986,
      "Ġà¸ģà¸£à¸ģ": 5987,
      "à¸¡à¹Ģà¸¥": 5988,
      "à¸Ńà¸Ńà¸ģà¸ģà¸³à¸¥": 5989,
      "à¸ĩà¸Ĺà¸³": 5990,
      "àºĶàºĽ": 5991,
      "gaygay": 5992,
      "eno": 5993,
      "aligya": 5994,
      "à¸²à¹Ģà¸Ń": 5995,
      "à¸ļà¹ĥà¸Ī": 5996,
      "à¹Ĥà¸Ĩà¸©à¸ĵ": 5997,
      "à¸§à¹Ģà¸Ľ": 5998,
      "à¸Ńà¸²à¸Ħà¸²à¸£": 5999,
      "ene": 6000,
      "àºŃàºĻà»Ħàº¥": 6001,
      "dasdasdasdasdasdasdasdasdasdasdasdasdasdasdasdas": 6002,
      "àºĻàºĻàº°àºŀàº²àºļ": 6003,
      "tubre": 6004,
      "ĠNor": 6005,
      "à¸Ŀà¸²à¸ģ": 6006,
      "àºŃàºĻàºļ": 6007,
      "Ġimport": 6008,
      "Ġà¸Ńà¸²à¸ģà¸²à¸£": 6009,
      "à¸£à¸Ńà¸¢": 6010,
      "à¸¥à¸ĩà¹Ħà¸Ľ": 6011,
      "à¸Ńà¸ĩà¹ģà¸¥à¸°": 6012,
      "Ġpamaagi": 6013,
      "Ġhunahuna": 6014,
      "àº¡àºŃ": 6015,
      "ĠRus": 6016,
      "à»ģàºŀ": 6017,
      "à¸ķà¸ģà¸£à¸£à¸¡": 6018,
      "à¹ģà¸ľà¸¥": 6019,
      "àº§àºĹ": 6020,
      "OT": 6021,
      "àºĻàºŃàºŃàºģ": 6022,
      "à¶ħà¶¯": 6023,
      "Ġtrabaho": 6024,
      "à¸²à¸ĩà¸Ī": 6025,
      "à¸Īà¸²à¸ģà¸Ļ": 6026,
      "Ġà¹Ĥà¸Ĭ": 6027,
      "ukan": 6028,
      "à¹Ģà¸¥à¸¢à¸§": 6029,
      "àºĩà»ĥàºĻ": 6030,
      "à¶¸à¶ļà¶§": 6031,
      "Ġbas": 6032,
      "ĠAw": 6033,
      "àºĻà»ĢàºĶ": 6034,
      "ĠSup": 6035,
      "à¸§à¸ļà¸£à¸§à¸¡": 6036,
      "à¸Ńà¸ĩà¹Ħà¸¡": 6037,
      "à¸Ńà¸ĩà¹Ħà¸Ľ": 6038,
      "Ġmid": 6039,
      "666666666666": 6040,
      "Ġnagsugod": 6041,
      "ats": 6042,
      "à¸´,": 6043,
      "àºŃàº§": 6044,
      "à¸§à¹ĥà¸«": 6045,
      "àºģàº²àºĻàºģ": 6046,
      "iÄĩ": 6047,
      "Ġà¶¯à·Ħ": 6048,
      "soon": 6049,
      "à¸²à¸ļà¸Ļ": 6050,
      "à¸Ļà¹Ĥà¸Ķà¸¢": 6051,
      "à¸¡à¹ĥà¸«": 6052,
      "à¸²à¸§à¸ªà¸²à¸£": 6053,
      "Ġà¶¸à¶¯": 6054,
      "àºģàº°àºķ": 6055,
      "àºģàº²àºĻàº«": 6056,
      "à¸Ľà¸£à¸°à¹Ģà¸¡": 6057,
      "ipay": 6058,
      "àºģàº²àºĻàºĽàº°àºķ": 6059,
      "ext": 6060,
      "ĠCast": 6061,
      "Ġà¸Ķà¸²à¸§à¸Ļ": 6062,
      "àº°àº«àº²àºĻ": 6063,
      "66666666666666666666666666666666666666666666666666666666666666666666666666666666666666666666666666666666666666666666666666666666666666666666666666666666666666666666666666666666666666666666666666666666666666666666666666666666666666666666666666666666666666666666666666666666666666666666666666666666666666666666666666666666666666666666666666666666666666666666666666666666666666666666666666666666666666666666666666666666666666666666666666666666666666666666666666666666666666666666666666666666666666666666666666666666": 6064,
      "ĠGam": 6065,
      "erk": 6066,
      "asing": 6067,
      "à¸ķà¸Ĭ": 6068,
      "à¹ģà¸ļà¸£à¸Ļà¸Ķ": 6069,
      "sc": 6070,
      "Ġokr": 6071,
      "ĠiPhone": 6072,
      "à»įà»īâĢĭ": 6073,
      "à»ĭ": 6074,
      "à¸£à¸²": 6075,
      "à¹Ħà¸ŀ": 6076,
      "à¸Ńà¸Ļà¹Ħà¸«à¸§": 6077,
      "à¸Īà¸²à¸ģà¸Ĺ": 6078,
      "Ġà¸Ħà¸§à¸£": 6079,
      "à¸¡à¸²à¸¥": 6080,
      "àº¥àº²àºĶ": 6081,
      "Ġpol": 6082,
      "illa": 6083,
      "sto": 6084,
      "Ġàºŀàº²àºģ": 6085,
      "Ġwalog": 6086,
      "ĠPCG": 6087,
      "Ġà¶»à¶§à¶§": 6088,
      "Ġsistema": 6089,
      "à¸ģà¸Īà¸°": 6090,
      "ĠOktubre": 6091,
      "Ġsunod": 6092,
      "yerno": 6093,
      "à·ĥà¶ºà¶ļ": 6094,
      "anka": 6095,
      "ĠdrÅ¾av": 6096,
      "ĠDiyos": 6097,
      "ĠSeptiyembre": 6098,
      "à¸ģà¸²à¸£à¸§": 6099,
      "Ġà¸Ľà¸£à¸°à¸Īà¸³à¸Ľ": 6100,
      "à¸Ńà¸ĩà¸Ľ": 6101,
      "aj": 6102,
      "mail": 6103,
      "apad": 6104,
      "àº²àºĻàºĻàº²àºĩ": 6105,
      "arong": 6106,
      "Ġà¶ľà·Ħ": 6107,
      "Ġoper": 6108,
      "àºļàºĦàº§àº²àº¡": 6109,
      "à¸Ńà¸ĩà¸Ĺà¸²à¸ĩ": 6110,
      "à¸ļà¸ļà¸£": 6111,
      "Ġà¶¯à¶Ń": 6112,
      "ĠWh": 6113,
      "àºģà»ĤàºĻ": 6114,
      "ĠBel": 6115,
      "à¸Ľà¸£à¸°à¸ģà¸§": 6116,
      "à¸§à¸ĩà¸«à¸Ļ": 6117,
      "à¸²à¸ĩà¹Ħà¸¡": 6118,
      "Ġà¹ģà¸¥à¸°à¹Ħà¸Ķ": 6119,
      "à¸ĺà¸Ļà¸²à¸Ħà¸²à¸£": 6120,
      "àºĻàºĪàº²àºģ": 6121,
      "eksyon": 6122,
      "àºĻàº¥àº²àº§": 6123,
      "à¸ŀà¸ļà¸ģ": 6124,
      "à¸Ńà¸Ħà¸£": 6125,
      "à¸ģà¹Ģà¸Ĥ": 6126,
      "à¸ĩà¸¡à¸²à¸ģ": 6127,
      "à¸²à¸£à¸²à¸ĩ": 6128,
      "à¸²à¹Ģà¸Ļ": 6129,
      "àº²àºįàºĤàºŃàºĩ": 6130,
      "àº²àºĻàº®": 6131,
      "ider": 6132,
      "Ġà¶ļà¶³": 6133,
      "à¶īà¶Ń": 6134,
      "àºģàºĤàºŃàºĩ": 6135,
      "Ġà¸Ńà¸ĩà¸Ħ": 6136,
      "à¸Ńà¸Īà¸°": 6137,
      "ĠGClub": 6138,
      "?âĢĿ": 6139,
      "ox": 6140,
      "à·ļ...": 6141,
      "àº²à»ĥàºĻ": 6142,
      "Ġpangh": 6143,
      "Ġrelasyon": 6144,
      "PS": 6145,
      "àºģà»ĤàºĻà»Ĥàº¥": 6146,
      "me": 6147,
      "Ġniana": 6148,
      "ĠAbril": 6149,
      "àºģàº²àºĻà»Ģàº¡": 6150,
      "Ġfree": 6151,
      "kapital": 6152,
      "3466666": 6153,
      "ĠàºŁ": 6154,
      "àºĩà»ģàº§àºĶàº¥": 6155,
      "Ġà¶¶à¶©": 6156,
      "àº¹âĢĭ": 6157,
      "à¸²à¸§à¸ļ": 6158,
      "Ġà¶Ĩà¶ºà¶Ńà¶±à¶º": 6159,
      "à»ĥàºĶàºģ": 6160,
      "2009": 6161,
      "àº²àºĩàºĤ": 6162,
      "à¸§à¸Ľà¸£à¸°à¹Ģà¸Ĺà¸¨": 6163,
      "Ġà¸Ńà¸²à¸¢": 6164,
      "à¸ļà¹ĥà¸Ĭ": 6165,
      "AB": 6166,
      "Ġnako": 6167,
      "unang": 6168,
      "Ġà·Ģà¶ºà·ĥ": 6169,
      "Ġà¶¸à¶»à¶«": 6170,
      "ĠPal": 6171,
      "à»ĥàºĻàºļ": 6172,
      "Ġà¶´à¶»à¶¸": 6173,
      "ĠKas": 6174,
      "yr": 6175,
      "à¸°à¸Ħ": 6176,
      "à¸Ķà¹Ģà¸ŀ": 6177,
      "à¸Ńà¸ĩà¸¨": 6178,
      "à¸¢à¸ĩà¸£à¸²à¸¢": 6179,
      "Ġà·ĥà·Ħà¶º": 6180,
      "hod": 6181,
      "Ġih": 6182,
      "orta": 6183,
      "à¸ļà¸ľà¸¥": 6184,
      "ĠAlemanya": 6185,
      "ï¼": 6186,
      "à»Ĥàºįàºļàº²àºį": 6187,
      "Un": 6188,
      "à»ĤàºĹàº¥àº°": 6189,
      "Ġorgan": 6190,
      "àºĽàº°àºĪàº³": 6191,
      "à¸ģà¸²à¸¢": 6192,
      "à¸¢à¸§à¸Ĭà¸²à¸į": 6193,
      "à¸Ńà¸¢à¸Ķ": 6194,
      "à¸²à¹Ħà¸«à¸£": 6195,
      "Ġindi": 6196,
      "Ġwh": 6197,
      "à¸¥à¸²à¸Ļ": 6198,
      "à¸Ļà¸ªà¸²à¸¡à¸²à¸£à¸ĸ": 6199,
      "à¸¤à¸Ĺà¸ĺ": 6200,
      "Ġhatag": 6201,
      "ĠÂ·": 6202,
      "Ġtek": 6203,
      "à¸§à¹Ħà¸¡": 6204,
      "à¸ĵà¸¡": 6205,
      "Ġà¶¯à·Ģà·ĥà¶ļ": 6206,
      "ator": 6207,
      "ĠCat": 6208,
      "Ġnagkalain": 6209,
      "à¶½à¶´": 6210,
      "Ġart": 6211,
      "à¶ºà·Ħ": 6212,
      "Ġhingpit": 6213,
      "Ġà¸Ħà¸Ńà¸£": 6214,
      "à¸¢à¸ĩà¸Ĺ": 6215,
      "à¸ģà¸«à¸¥": 6216,
      "à»ĥàºĻàºŀ": 6217,
      "Ġ**": 6218,
      "ose": 6219,
      "àºķàº°àº«": 6220,
      "Ġkamot": 6221,
      "à¸Ļà¸§à¸²à¸Ħà¸¡": 6222,
      "à¸Ńà¸³à¸Ļà¸²à¸Ī": 6223,
      "à¸ļà¸£à¸£à¸Ī": 6224,
      "Ġà¸łà¸²à¸Ħ": 6225,
      "à¸ķà¹Ĥà¸Ļà¸¡": 6226,
      ".-.": 6227,
      "àºĶàº²": 6228,
      "à¶¯à¶§": 6229,
      "àºŃàºĩàº§": 6230,
      "lant": 6231,
      "à¸¡à¹Ħà¸¥à¸Ħ": 6232,
      "Ġà¶´à¶¸": 6233,
      "à¸¨à¸§": 6234,
      "à¸ªà¹Ģà¸ķ": 6235,
      "à¸§à¹ģà¸¥à¸°": 6236,
      "à¸ŀà¸²à¸£": 6237,
      "àºĩàºį": 6238,
      "Ġkahimtang": 6239,
      "Ġkalidad": 6240,
      "ĠMi": 6241,
      "Ġmen": 6242,
      "àº²àºĩàºĦ": 6243,
      "à¹Ģà¸Łà¸Ńà¸£": 6244,
      "ĠMas": 6245,
      "Ġ<": 6246,
      "upÅ¡t": 6247,
      "à»Ģàº«àºĶ": 6248,
      "à¹ģà¸Ĭà¸¡à¸Ľ": 6249,
      "à¸¢à¸Ļà¸Ĭ": 6250,
      "à¸ģà¸²à¸£à¹Ģà¸Ľ": 6251,
      "à¸²à¸ĩà¹Ģà¸Ĭ": 6252,
      "à¸ĩà¸ªà¸Ļà¸²à¸¡": 6253,
      "à¸¡à¸²à¸Ĺ": 6254,
      "Ġà¸Ħà¸ĵà¸°": 6255,
      "Ġà¹Ĥà¸ķ": 6256,
      "àºĽàº²": 6257,
      "à¸§à¸¢à¸Ķ": 6258,
      "Ġkons": 6259,
      "Ġà¹Ģà¸Ĥà¸ķ": 6260,
      "Ġà¶ĭà¶¯à·Ģ": 6261,
      "àºŃàºĩàºĻ": 6262,
      "Ġpagkab": 6263,
      "ĠSol": 6264,
      "à¸Ħà¸§à¸²à¸¡à¸ªà¸²à¸¡à¸²à¸£à¸ĸ": 6265,
      "à¸Ķà¸Ļà¸ķà¸£": 6266,
      "à¹Ħà¸ª": 6267,
      "à¸ĩà¸«à¸£": 6268,
      "à¸ķà¸£à¸ĩà¸Ļ": 6269,
      "uoran": 6270,
      "ederal": 6271,
      "usog": 6272,
      "àºĻà»ĢàºĤ": 6273,
      "Ġsum": 6274,
      "âĢ¦.": 6275,
      "Ġà¹Ħà¸£": 6276,
      "à¶»à¶®": 6277,
      "505": 6278,
      "adlok": 6279,
      "Ġcon": 6280,
      "àºŀàº°": 6281,
      "Ġdo": 6282,
      "EO": 6283,
      "aduol": 6284,
      "à¸Ńà¸ªà¸Ńà¸ļ": 6285,
      "à¸¢à¸§à¸°à¹Ģà¸ŀà¸¨": 6286,
      "à¸Ħà¸Ńà¸¡à¸ŀ": 6287,
      "à¸Īà¸Ĺ": 6288,
      "Ġà¹Ģà¸¥à¸Ĥ": 6289,
      "ater": 6290,
      "Ġkalabotan": 6291,
      "ĠCal": 6292,
      "ĠWala": 6293,
      "Ġbato": 6294,
      "log": 6295,
      "à¸ĩà¸Ľà¸£à¸°à¹Ģà¸Ĺà¸¨à¹Ħà¸Ĺà¸¢": 6296,
      "à¸¢à¸ķ": 6297,
      "Ġsavez": 6298,
      "Ġgab": 6299,
      "à»Ĥàºŀ": 6300,
      "Ġà¹ģà¸¥à¸°à¹Ħà¸¡": 6301,
      "ibl": 6302,
      "à¶ºà¶ºà¶§": 6303,
      "tor": 6304,
      "Ġà¶ĭà¶«": 6305,
      "àºªàº°àº¡àº²àºĬ": 6306,
      "Pag": 6307,
      "à¸²à¹Ģà¸ļ": 6308,
      "à¸§à¸Īà¸£": 6309,
      "à¸łà¸²à¸ŀà¸¢à¸Ļà¸ķà¸£": 6310,
      "......": 6311,
      "à¶»à¶ļà¶§": 6312,
      "à¸§à¸¡à¸ĩà¸²à¸Ļ": 6313,
      "à¹Ģà¸Ħà¸£à¸Ķ": 6314,
      "à¸§à¸²à¸¢": 6315,
      "à¸£à¸²à¸Ħà¸¡": 6316,
      "Ġà¸¡à¸ģ": 6317,
      "ĠFacebook": 6318,
      "ĠBi": 6319,
      "ĠNews": 6320,
      "CC": 6321,
      "àºĩà»ĥàº«": 6322,
      "Ġà¸Ńà¸Ļ": 6323,
      "à¸ŀà¸£à¸£à¸ĵ": 6324,
      "àºģàºŀ": 6325,
      "work": 6326,
      "àº²à»ĢàºĻ": 6327,
      "ĠRepubl": 6328,
      "tain": 6329,
      "à·Ħà·Ģ": 6330,
      "àºŃàº¡àºĹ": 6331,
      "àºŃàºĻàº¡": 6332,
      "à¸İà¸²à¸Ħà¸¡": 6333,
      "Ġà¸Ħà¸³": 6334,
      "àºªàº°àº«àºĩ": 6335,
      "Ġsimb": 6336,
      "wala": 6337,
      "Ġà¸¨à¸£": 6338,
      "à¸ķà¹ģà¸¥à¸°": 6339,
      "à¸Īà¸°à¸¢": 6340,
      "à¸²à¸§à¸Ķ": 6341,
      "à¸ŀà¸Ńà¹ĥà¸Ī": 6342,
      "à¸Ľà¸¥à¸²": 6343,
      "Ġàº¥àº²àºį": 6344,
      "ambal": 6345,
      "à¸Ļà¸²à¸Ħà¸¡": 6346,
      "à¸ķà¸ģà¹ģà¸ķ": 6347,
      "à¸Īà¸ģà¸²à¸£": 6348,
      "tr": 6349,
      "EL": 6350,
      "ĠdrÅ¾avi": 6351,
      "ayad": 6352,
      "à»ĥàºģ": 6353,
      "aryong": 6354,
      "Ġàº¥àº°àº«àº§": 6355,
      "à¹Ģà¸ĺà¸ģ": 6356,
      "Ġà¶´à·Ħà·ħ": 6357,
      "unidad": 6358,
      "ĠDep": 6359,
      "punta": 6360,
      "à·ļ..": 6361,
      "à¸ģà¸²à¸¥à¸Ĺ": 6362,
      "burg": 6363,
      "49666666": 6364,
      "Ġintern": 6365,
      "Ġà¸ķà¸Ńà¸Ļ": 6366,
      "à¸Ļà¸Ĺà¸²à¸ĩà¸ģà¸²à¸£": 6367,
      "à¸Īà¸²à¸Ļà¸Ķà¸²à¸§à¹Ģà¸Ĺ": 6368,
      "à¹Ĥà¸Ķà¸¢à¸ªà¸²à¸£": 6369,
      "bungtod": 6370,
      "ĠBlack": 6371,
      "ream": 6372,
      "Ġgugma": 6373,
      "Ġsaveznoj": 6374,
      "ulang": 6375,
      "api": 6376,
      "à¸²à¸ī": 6377,
      "à¸Ķà¸«à¸¥": 6378,
      "à¸Ńà¸ĩà¸ĭ": 6379,
      "à¸Ĭà¸¡à¹Ģà¸Ľ": 6380,
      "àºģàº²àºĻàºĤàºŃàºĩ": 6381,
      "àº§àºĩàº§àº½àºĩàºĪ": 6382,
      "àº²àºĹàº²àº¥": 6383,
      "usalem": 6384,
      "àº·:": 6385,
      "àºĤàº²àºį": 6386,
      "2008": 6387,
      "àº²à»Ģàº§": 6388,
      "à¸¡à¹Ĩ": 6389,
      "à¸Ļà¹ģà¸«à¸¥": 6390,
      "à¸łà¸²à¸¢à¸Ļà¸Ńà¸ģ": 6391,
      "lema": 6392,
      "Ġhangtod": 6393,
      "ĠMac": 6394,
      "à¶»à·ħ": 6395,
      "à·Ģà¶·": 6396,
      "à¸Ķà¹Ħà¸¡": 6397,
      "à¸Ķà¹Ģà¸Ĥ": 6398,
      "amit": 6399,
      "ĠLake": 6400,
      "orya": 6401,
      "ĠNi": 6402,
      "inatian": 6403,
      "rÅ¡": 6404,
      "Ġà¶Į": 6405,
      "Ġà¹ĥà¸Ļà¸Ĭ": 6406,
      "Ġà¶«à¶º": 6407,
      "Ġlok": 6408,
      "333333": 6409,
      "àºŃàº¡àºķ": 6410,
      "Ġà¹Ĥà¸Ķ": 6411,
      "à¸Ńà¸Ļà¸Ĥà¸Ńà¸ĩ": 6412,
      "à¸Ķà¹Ģà¸ª": 6413,
      "à¸ļà¸ģà¸²à¸£à¸£": 6414,
      "ets": 6415,
      "Ġkalibotan": 6416,
      "àº¡àºĬ": 6417,
      "Ġà¶Ķà¶¶à¶ľ": 6418,
      "UN": 6419,
      "Ġsagolsagol": 6420,
      "àºĻàºģàº°àºĹ": 6421,
      "à»ĤàºĦàºĩàºģàº²àºĻàº": 6422,
      "Ġwith": 6423,
      "à»ģàºļ": 6424,
      "à¸¡à¸Ńà¸ļ": 6425,
      "à¸§à¹Ģà¸Ĥ": 6426,
      "à¸£à¸²à¸Ł": 6427,
      "à¸ģà¸©à¸°": 6428,
      "eho": 6429,
      "à¸ĩà¹ĥà¸Ĭ": 6430,
      "à¸Ļà¹Ģà¸ªà¸²à¸£": 6431,
      "Ġkol": 6432,
      "Ġkinam": 6433,
      "99999999": 6434,
      "ere": 6435,
      "ove": 6436,
      "ahatag": 6437,
      "Ġkr": 6438,
      "àºģàº§àºĶàºģ": 6439,
      "à·Ĭ)": 6440,
      "Ġob": 6441,
      "Ġgitawag": 6442,
      "ĠàºĦàº³": 6443,
      "à¶¶à·Ģ": 6444,
      "sp": 6445,
      "à¶¯à¶ºà¶§": 6446,
      "ĠHJC": 6447,
      "à¸Ļà¹ģà¸£à¸ģ": 6448,
      "à¸Ħà¸ĵà¸°à¸ģà¸£à¸£à¸¡à¸ģà¸²à¸£": 6449,
      "Ã¨": 6450,
      "omb": 6451,
      "ĠAndroid": 6452,
      "wag": 6453,
      "ĠThailand": 6454,
      "isita": 6455,
      "à·Ļà¶Ĥ": 6456,
      "ĠMicro": 6457,
      "ĠNo": 6458,
      "ock": 6459,
      "à¸¢à¹ģà¸¥à¸°": 6460,
      "à¸ķà¹ĥà¸Ī": 6461,
      "à¸łà¸²à¸Ħà¸¡": 6462,
      "à¸ľà¸¡à¸ģ": 6463,
      "à¸ļà¸Ħà¸§à¸²à¸¡à¸ªà¸³à¹Ģà¸£": 6464,
      "à¸Ļà¸Ĺà¸³à¹ĥà¸«": 6465,
      "Ġkamatuoran": 6466,
      "Ġhttps": 6467,
      "à»ĤàºĪ": 6468,
      "ner": 6469,
      "ĠProvince": 6470,
      "ound": 6471,
      "à¹Ģà¸¢à¸²à¸§à¸Ĭà¸Ļ": 6472,
      "à¸¥à¹Ģà¸¥": 6473,
      "Ġà¹ģà¸ļ": 6474,
      "ux": 6475,
      "Ġàºģàº§": 6476,
      "à·Ĥà¶ºà¶ļ": 6477,
      "à¸ĩà¸ªà¸Ńà¸ĩ": 6478,
      "à¸Ńà¸¢à¸ģà¸§": 6479,
      "ulta": 6480,
      "Ġà¶±à¶ľà¶»à¶º": 6481,
      "arta": 6482,
      "Ġàº£": 6483,
      "Ð¾Ð": 6484,
      "Ġà¶ħà¶¸à¶Ńà¶ļ": 6485,
      "àºļàºĬ": 6486,
      "à¸¥à¸Ń": 6487,
      "Ġà¹ģà¸¥à¸°à¸ģà¸²à¸£": 6488,
      "ĠYEJ": 6489,
      "àºĶà»ĥàºĻ": 6490,
      "ugna": 6491,
      "onom": 6492,
      "à¸²à¹ģà¸ķ": 6493,
      "àºŀàº£àº°": 6494,
      "Ġmagb": 6495,
      "Ġplay": 6496,
      "àº«àº²àºį": 6497,
      "Ġà¶ħà¶¸à¶Ńà¶»à·Ģ": 6498,
      "Ġprograma": 6499,
      "à¸²à¸¢à¹Ħà¸Ķ": 6500,
      "àºļàºŀàº°àºįàº²àºģ": 6501,
      "ici": 6502,
      "alit": 6503,
      "Ġà¹Ģà¸«à¸£": 6504,
      "à¸£à¸¨": 6505,
      "à¸²à¸¢à¸Ĺà¸Ńà¸Ķ": 6506,
      "ustomer": 6507,
      "Ġper": 6508,
      "àºĩà»ľ": 6509,
      "ĠState": 6510,
      "àºĶàºĸàº°àºļ": 6511,
      "àºªàº°àºŀàº²àºļ": 6512,
      "ham": 6513,
      "Ġà¹ģà¸Ļà¸§": 6514,
      "à¸ŀà¸£à¸°à¹Ģà¸Ī": 6515,
      "à¸¢à¸ĩà¸ģ": 6516,
      "àº²àºªàº²àºĶ": 6517,
      "inosang": 6518,
      "Ġà¶´à·Ħà¶Ń": 6519,
      "italyano": 6520,
      "Ġkinaminosang": 6521,
      "Ġuga": 6522,
      "à¸Ķà¹Ģà¸ģ": 6523,
      "à¸ļà¸ĩà¸²à¸Ļ": 6524,
      "à¸ļà¸Ĺà¸³": 6525,
      "ĠOff": 6526,
      "à¸Ħà¸§à¸²à¸¡à¸ªà¸³à¸Ħ": 6527,
      "à¹ĥà¸Ļà¸ļ": 6528,
      "à¹Ģà¸¥à¸¢à¸Ħ": 6529,
      "ĠNik": 6530,
      "uso": 6531,
      "à¶¢à¶ļ": 6532,
      "arm": 6533,
      "ĠBisan": 6534,
      "RA": 6535,
      "Ġproblema": 6536,
      "ĠUnivers": 6537,
      "à¹ģà¸¥à¸°à¸§": 6538,
      "à¸£à¸°à¸¥": 6539,
      "à¸¡à¸²à¹ĥà¸Ĭ": 6540,
      "à¸²à¸ĩà¹ģà¸Ļ": 6541,
      "à»ģàºª": 6542,
      "à»Ī,": 6543,
      "à¸Ńà¸³à¸Ļà¸§à¸¢à¸ģà¸²à¸£": 6544,
      "à¸§à¹Ħà¸Ķ": 6545,
      "àºĶàºį": 6546,
      "Ġisa": 6547,
      "aria": 6548,
      "àºĶàº«": 6549,
      "à¸¢à¸§à¸¢": 6550,
      "à¸Ĵà¸Ļà¸²à¸ģà¸²à¸£": 6551,
      "ebu": 6552,
      "àº¼àº´à»ī": 6553,
      "hatag": 6554,
      "munisipyo": 6555,
      "ĠBan": 6556,
      "ĀĀ": 6557,
      "à¸Ļà¸Ħà¸¥": 6558,
      "à¸¤à¸©à¸łà¸²à¸Ħà¸¡": 6559,
      "à¸ĩà¸ĩ": 6560,
      "à¸§à¸Ļà¸Ĥà¸Ńà¸ĩ": 6561,
      "à¸¡à¸²à¹Ģà¸¥": 6562,
      "à¸Ńà¸Ľà¸Ľ": 6563,
      "Ġà¹Ħà¸§": 6564,
      "à¸ķà¸Ńà¸¢": 6565,
      "Ġkana": 6566,
      "à¹Ģà¸ĭà¸¥à¸¥": 6567,
      "àº´ÂŃ": 6568,
      "Ġperson": 6569,
      "àºĦàº§": 6570,
      "à¸Ńà¸ĩà¹ĥà¸Ļ": 6571,
      "à¸Īà¸°à¸Ķ": 6572,
      "à¸¥à¹Ģà¸ŀ": 6573,
      "à¸«à¸²": 6574,
      "ĠWest": 6575,
      "à¹ģà¸ªà¸ĩ": 6576,
      "Ġsoftware": 6577,
      "lakip": 6578,
      "Ġkinatib": 6579,
      "àº²àºĹàº²àº¥àº°àºĻàº°": 6580,
      "à¸¡à¹Ģà¸¡": 6581,
      "à¹ĥà¸Ļà¸ģà¸²à¸£à¸£": 6582,
      "yante": 6583,
      "ĠJerusalem": 6584,
      "ilo": 6585,
      "ĠNov": 6586,
      "250": 6587,
      "alk": 6588,
      "à·ħà¶Ł": 6589,
      "apa": 6590,
      "àºĻàº²àºĩ": 6591,
      "à¸ĩà¹Ģà¸ķ": 6592,
      "à¸¢à¸Ń": 6593,
      "à¸Ħà¸ª": 6594,
      "à¸²à¸Īà¸°à¹Ħà¸Ķ": 6595,
      "à¸ģà¹ģà¸¥": 6596,
      "Ġà¶īà¶©à¶¸": 6597,
      "àºĶà»ģàº¥àº°": 6598,
      "à·ĴâĢįà·ĬâĢį": 6599,
      "ĠEng": 6600,
      "Ġamo": 6601,
      "slr": 6602,
      "igital": 6603,
      "à¸¢à¸ļà¹Ģà¸Ĺ": 6604,
      "ĠEspanya": 6605,
      "Ġà¶ĭà¶»": 6606,
      "ĠàºĽàº°àºķ": 6607,
      "ĠSem": 6608,
      "àºŃàºĻà»ĢàºĬ": 6609,
      "à¶ĳà¶ļ": 6610,
      "àºĶàºªàºŃàºļ": 6611,
      "iÅ¡t": 6612,
      "à¸²à¸Ļà¸Ľ": 6613,
      "à¹ģà¸¡à¸§": 6614,
      "àºģàº³àº¡àº°": 6615,
      "ĠàºĻàº³": 6616,
      "à¹ģà¸¥à¸°à¸Ĺ": 6617,
      "à¸©à¸²à¸¢à¸Ļ": 6618,
      "Ġà¶ºà·Ħà¶´à¶Ń": 6619,
      "Ġngipon": 6620,
      "à¸ģà¸³à¸Ī": 6621,
      "à¸ĩà¸«à¸§à¸°": 6622,
      "Ġà¹Ĥà¸ĭ": 6623,
      "à¹Ħà¸Ľà¹ģà¸¥": 6624,
      "Ġbuhaton": 6625,
      "àºŀàº²àºª": 6626,
      "à¶°à¶ļ": 6627,
      "à¸²à¸Ļà¸ĭ": 6628,
      "à¹ģà¸¥à¸°à¸Ļ": 6629,
      "à¹Ģà¸ĺà¸Ķ": 6630,
      "à¸Ńà¸²à¸£à¸¡à¸ĵ": 6631,
      "à¸°à¸£": 6632,
      "https": 6633,
      "OM": 6634,
      "\",": 6635,
      "Ġà¸¥à¸Ķ": 6636,
      "à¸²à¸¢à¸Ĥà¸Ńà¸ĩ": 6637,
      "à¹Ĥà¸Ķà¸¢à¹Ģà¸īà¸ŀà¸²à¸°": 6638,
      "àº²àºĩàºĶ": 6639,
      "uu": 6640,
      "ĠFran": 6641,
      "Ġà¶½à·ĥ": 6642,
      "à·Ģà¶±à·Ģ": 6643,
      "aro": 6644,
      "à¸¡à¹Ģà¸ģ": 6645,
      "à¸§à¹ģà¸ķ": 6646,
      "à¸Ńà¸ĩà¸¢à¸Ļà¸ķ": 6647,
      "The": 6648,
      "ram": 6649,
      "Ġter": 6650,
      "à·Ļà·ı": 6651,
      "Ġà¹Ģà¸®": 6652,
      "Ġslr": 6653,
      "à¸¥à¸¢à¸ģà¸£à¸£à¸¡": 6654,
      "à¸ĵà¸Ĺ": 6655,
      "à¸ŀà¸²à¸ĵ": 6656,
      "à¹Ģà¸«à¸¢": 6657,
      "Ġà¸£à¸°à¸Ķ": 6658,
      "Ġ----": 6659,
      "à¸²à¸§à¸Ĥà¸Ńà¸ĩ": 6660,
      "Ġpangutana": 6661,
      "ĠAirport": 6662,
      "bon": 6663,
      "iteran": 6664,
      "àºķàºŃàºļ": 6665,
      "Ġpagm": 6666,
      "Ġkasinatian": 6667,
      "à¸¡à¸łà¸²à¸ŀ": 6668,
      "à¸²à¸¢à¸Ĥ": 6669,
      "à¸ĩà¹Ģà¸Ī": 6670,
      "à»ĥàºĻàºĽàº°": 6671,
      "PA": 6672,
      "Ġgobyerno": 6673,
      "àºļàºªàº°à»ľ": 6674,
      "Ġà¸£à¸Ńà¸ĩà¹Ģà¸Ĺ": 6675,
      "à¸ªà¸¡à¸²à¸Ħà¸¡": 6676,
      "à¹Ĥà¸Ķà¸Ķà¹Ģà¸Ķ": 6677,
      "à¹Ĥà¸¢à¸ķ": 6678,
      "à¸§à¸Ļà¸£": 6679,
      "aut": 6680,
      "à¹Ħà¸Ľà¸ª": 6681,
      "à¸Ļà¸ŀà¸£": 6682,
      "ĠAM": 6683,
      "ret": 6684,
      "Ġà¶ħà¶»à¶ľ": 6685,
      "à»Ĥàº£": 6686,
      "à¶§à·ĥà¶ļ": 6687,
      "à¸ĩà¹ĥà¸«à¸¡": 6688,
      "Ġà¹Ģà¸ŀà¸£à¸²à¸°à¸§": 6689,
      "Ġkaso": 6690,
      "its": 6691,
      "Ġà·Ħà¶¬": 6692,
      "indog": 6693,
      "âĢĿ.": 6694,
      "ric": 6695,
      "àºĻàº²àº¡": 6696,
      "à¶»à¶ľà¶Ń": 6697,
      "àº¼à»Ī": 6698,
      "àº°àºļàº§àºĻ": 6699,
      "à¸²à¸¯": 6700,
      "Ġà¸Ľà¸£à¸°à¸ĺà¸²à¸Ļ": 6701,
      "à¸£à¸²à¸ª": 6702,
      "Ġà¶¢à¶½": 6703,
      "Ġsumala": 6704,
      "Ġà»Ģàºķ": 6705,
      "aghanan": 6706,
      "Ġà·Ħà¶Ńà¶»": 6707,
      "ĠPa": 6708,
      "ibal": 6709,
      "à¸§à¹ģà¸Ĺ": 6710,
      "àºĶàºĸ": 6711,
      "à¹Ģà¸£à¸²à¸ķ": 6712,
      "àºĻàºªàº³": 6713,
      "Ġà¸ģà¸³à¸¥": 6714,
      "ustr": 6715,
      "ĠNorth": 6716,
      "ĠHol": 6717,
      "ikasyon": 6718,
      "ikip": 6719,
      "kon": 6720,
      "Ġamahan": 6721,
      "à¸°à¸Ħà¸°": 6722,
      "à¸²à¸Ļà¸Ī": 6723,
      "Ġpakig": 6724,
      "Ġà¸Ħà¸Ńà¸Ļà¹Ĥà¸Ķ": 6725,
      "Ġimportante": 6726,
      "Ġlis": 6727,
      "ĠFern": 6728,
      "àºģàº³àºĻ": 6729,
      "Ġtabang": 6730,
      "à¹Ģà¸Ħà¸¡": 6731,
      "alayan": 6732,
      "à¸¡à¸ĩà¸Ħà¸¥": 6733,
      "à¸§à¸ĸ": 6734,
      "à¸ŀà¸²à¸ģ": 6735,
      "à¹ģà¸Ĭ": 6736,
      "Ġà¸ªà¸²à¸Ĥ": 6737,
      "Ġus": 6738,
      "à¸Īà¸ģ": 6739,
      "ĠBay": 6740,
      "Si": 6741,
      "Ġà¶°à¶±": 6742,
      "Ġduol": 6743,
      "ĠUnya": 6744,
      "ihokan": 6745,
      "àº°àºŀàº²": 6746,
      "ĠNas": 6747,
      "à»ģàº¥àºģàºĽ": 6748,
      "Ġpl": 6749,
      "Ġà¶ĳà¶Ńà¶ļ": 6750,
      "ĠàºĤàºŃàºĩàºĹ": 6751,
      "àºŃàºĻà»Ħàº¥àºĻ": 6752,
      "à¸§à¸²": 6753,
      "à¸Ħà¸§à¸²à¸¡à¸Ļ": 6754,
      "à¸¡à¸Ĭà¸Ļà¸Ħà¸Ļ": 6755,
      "à¸Ļà¸ĩ": 6756,
      "uma": 6757,
      "à¸ŀà¸¢à¸²à¸ģà¸£": 6758,
      "tangan": 6759,
      "àºļàºģàº²àºĻàºª": 6760,
      "ition": 6761,
      "Ġsul": 6762,
      "à¸²à¸§à¸¡": 6763,
      "Ġà¶ºà¶Ń": 6764,
      "à¹Ģà¸ĺà¸": 6765,
      "Ġà¶Ĩà¶¯à¶»à¶º": 6766,
      "Ġà¹ĥà¸ª": 6767,
      "ling": 6768,
      "ĠCont": 6769,
      "ĠJudio": 6770,
      "danan": 6771,
      "à¸ļà¹Ħà¸Ĺà¸¢": 6772,
      "Ġà¸¡à¸²à¸Ķà¸£": 6773,
      "à¸¢à¸¢": 6774,
      "à¸Ļà¸«à¸¡": 6775,
      "à¸Ħà¸²à¸£": 6776,
      "à¸©à¸Ĳ": 6777,
      "ĠSug": 6778,
      "à»īà»į": 6779,
      "uti": 6780,
      "àºģàº²àºĻàº¢": 6781,
      "Ġà¶´à·Ģà·ĥà¶º": 6782,
      "Ġà·ģà¶»": 6783,
      "à¸ļà¹Ģà¸Ĥ": 6784,
      "lebolog": 6785,
      "à¹ģà¸ŀà¸ĩ": 6786,
      "Ġà¶´à¶±à¶Ń": 6787,
      "php": 6788,
      "Ug": 6789,
      "Ġpagtukod": 6790,
      "iteranyo": 6791,
      "Initalyano": 6792,
      "Ġkahoy": 6793,
      "ars": 6794,
      "àºĻàº°àºĦàºŃàºĻ": 6795,
      "à¸Ńà¸ĩà¹Ģà¸Ĥ": 6796,
      "à¸ªà¸ļ": 6797,
      "asak": 6798,
      "Ġika": 6799,
      "mart": 6800,
      "aghanon": 6801,
      "Ġbro": 6802,
      "110": 6803,
      "à¸Ĥà¸²": 6804,
      "à¸²à¹Ģà¸§": 6805,
      "à¸Ńà¹Ģà¸Ľà¸¥": 6806,
      "hong": 6807,
      "Ġàºģàº²àºĻàºĦ": 6808,
      "àº°àºĻàº²àºĦ": 6809,
      "àº²àºĻàºĪàº°": 6810,
      "àºŃàºĩàºķ": 6811,
      "à»Ģàº¢": 6812,
      "à»ģàºĶàºĻ": 6813,
      "Ġà¶¸à·Ħà¶±": 6814,
      "à¸ģà¸©à¸²à¸Ĺ": 6815,
      "à¹ģà¸ªà¸Ķà¸ĩà¸Ħà¸§à¸²à¸¡": 6816,
      "à¸¢à¸ĩà¸Ķ": 6817,
      "à¸Ĭà¸²à¸§à¸ļ": 6818,
      "Ġà¹Ĥà¸Ħà¸£à¸ĩà¸ģà¸²à¸£": 6819,
      "Ġà¹Ģà¸Ľà¸¥": 6820,
      "Ġà¶¢à¶º": 6821,
      "à¶ĳà·ĥ": 6822,
      "à¸Ļà¸Ĺà¸ļ": 6823,
      "ira": 6824,
      "ulette": 6825,
      "awong": 6826,
      "à¸ľà¸¥à¹Ħà¸¡": 6827,
      "à¸Ļà¸³à¹Ģà¸ªà¸Ļà¸Ń": 6828,
      "à¸Ńà¸Ĥà¸²à¸¢à¸Ĥà¸Ńà¸ĩ": 6829,
      "à¸ªà¹Ģà¸Ľ": 6830,
      "isu": 6831,
      "Ġà¹Ģà¸ªà¸£": 6832,
      "à¸ģà¸ģà¸§": 6833,
      "Ġà¹ĥà¸ļ": 6834,
      "à»ĥàº«àº¡": 6835,
      "ona": 6836,
      "Ġà¶¯à·Ħà¶¸": 6837,
      "esa": 6838,
      "àºĹàº°àºįàº²à»Ħàº¥": 6839,
      "____": 6840,
      "à¸ļà¹ģà¸ķ": 6841,
      "à¸Ľà¸£à¸°à¹Ģà¸Ķ": 6842,
      "Ġà¸į": 6843,
      "à¸Ļà¹ĥà¸«à¸į": 6844,
      "Ġà¹Ģà¸¡à¸Ļ": 6845,
      "à¸Ļà¸ļà¸£": 6846,
      "à¹Ģà¸£à¸²à¹Ħà¸¡": 6847,
      "ahayag": 6848,
      "Ġsig": 6849,
      "rap": 6850,
      "à¹Ĥà¸¥à¹Ģà¸¡à¸ķà¸£": 6851,
      "ouse": 6852,
      "Ä«": 6853,
      "à¶ºà¶¯à¶¸": 6854,
      "à¶ŀ": 6855,
      "ĠRead": 6856,
      "à¸§à¸¢à¸Ļ": 6857,
      "Ġà¸Ħà¸§": 6858,
      "Ġà·Ħà¶º": 6859,
      "inuod": 6860,
      "ĠàºĻàº²àºĩ": 6861,
      "à¸¥à¸Ĭ": 6862,
      "à¸¡à¹Ģà¸¢": 6863,
      "à¹Ħà¸ķ": 6864,
      "à¸Ħà¸§à¸²à¸¡à¹Ģà¸ª": 6865,
      "à¸ļà¸Ħà¸§à¸²à¸¡à¸Ļ": 6866,
      "Ġà¹Ģà¸«à¸¡à¸²à¸°à¸ªà¸³à¸«à¸£": 6867,
      "Ġà¶īà·Ħà¶Ń": 6868,
      "ze": 6869,
      "Ã´": 6870,
      "'s": 6871,
      "ingong": 6872,
      "yonal": 6873,
      "Ġnanag": 6874,
      "à¶Ńà¶»à¶ºà¶ļ": 6875,
      "ĠMak": 6876,
      "à¸²à¸Ļà¸Ĺà¸²à¸ĩ": 6877,
      "à¸ģà¹Ģà¸ģà¸Ńà¸£": 6878,
      "à¸Ļà¹Ĥà¸£à¸Ħ": 6879,
      "Ġà¹Ģà¸ķà¸£": 6880,
      "à¸«à¸Ńà¸¡": 6881,
      "à¸¨à¸²à¸ªà¸Ļ": 6882,
      "à¸ĵà¸«à¸ł": 6883,
      "à¸Ńà¸¢à¸ģ": 6884,
      "à¸¥à¸Ķà¸¥à¸ĩ": 6885,
      "Ġà¹ĥà¸ģà¸¥": 6886,
      "ingkamot": 6887,
      "àº§àº¢": 6888,
      "Po": 6889,
      "ĠTagged": 6890,
      "ĠCor": 6891,
      "àºĻà»Ģàº¥": 6892,
      "101": 6893,
      "ĠSe": 6894,
      "ĠIng": 6895,
      "à¸Ļà¸¥à¸°": 6896,
      "à¸Ħà¸Ļà¹Ģà¸Ķ": 6897,
      "à¸²à¸Ļà¸Ĭ": 6898,
      "à¸Ļà¸Ńà¸²à¸Ī": 6899,
      "ĠIsland": 6900,
      "àºĻà»ĢàºŃàºģ": 6901,
      "à¸²à¸ĩà¸ļ": 6902,
      "rip": 6903,
      "Ġbe": 6904,
      "ca": 6905,
      "Ġà¹ģà¸ªà¸Ķ": 6906,
      "Ġà¹ĥà¸Ļà¸Ľ": 6907,
      "à¸Ķà¹Ģà¸Īà¸Ļ": 6908,
      "à¸Ńà¹Ģà¸ªà¸Ļà¸Ń": 6909,
      "à¹ĥà¸Ļà¸Ħà¸£": 6910,
      "à¸ĵà¸ģ": 6911,
      "à¸²à¸ľà¸¥": 6912,
      "à¸ĩà¸ľà¸¥à¹ĥà¸«": 6913,
      "à¸Īà¸Ķ": 6914,
      "Ġà¶ĳà¶±à·Ģ": 6915,
      "àºģàº°àºª": 6916,
      "Ġà¶¯à¶¬": 6917,
      "top": 6918,
      "à¶»à·Ģà¶½": 6919,
      "Ġà»ģàºģ": 6920,
      "Ġunder": 6921,
      "vice": 6922,
      "igh": 6923,
      "à¸²à¸Ĭà¸²à¸ķ": 6924,
      "à¶ľà¶¸à¶º": 6925,
      "àºĪàº³àºĻàº§": 6926,
      "àº³àº«": 6927,
      "Ġkabalayan": 6928,
      "Ġmediteranyo": 6929,
      "ukom": 6930,
      "ĠIl": 6931,
      "Ġà¶Ľ": 6932,
      "fer": 6933,
      "à»ģàºĦ": 6934,
      "àº²à»Ģàºª": 6935,
      "St": 6936,
      "à»Ģàºģàº¡": 6937,
      "à¸Ļà¸Ńà¸Ļà¸§": 6938,
      "à¸Ľà¸£à¸°à¸Ĭà¸²à¸Ĭà¸Ļ": 6939,
      "Ġopisyal": 6940,
      "Ġpederal": 6941,
      "à¶®à¶º": 6942,
      "à¸Ńà¸¢à¸¥à¸°": 6943,
      "iwat": 6944,
      "Ġbak": 6945,
      "Ġgidaghanon": 6946,
      "àºģàº²àºĻàºĻ": 6947,
      "ĠBibl": 6948,
      "à¸ģà¸Ĳà¸²à¸Ļ": 6949,
      "à¸²à¸ĩà¸ĸ": 6950,
      "Ã¢": 6951,
      "àºŃàºĻàºĻ": 6952,
      "Ġà¶»à¶ļ": 6953,
      "Ġte": 6954,
      "à»Ħàºģ": 6955,
      "ĠUniversity": 6956,
      "à¶§à¶¯": 6957,
      "Ġà¶ħà¶¶": 6958,
      "à¸ŀà¸ļà¸§": 6959,
      "à¸Ħà¸°à¹ģà¸Ļà¸Ļ": 6960,
      "à¸Ļà¸ķà¸£à¸²à¸¢": 6961,
      "àºŀàº½àºĩà»ģàºķ": 6962,
      "earch": 6963,
      "ubat": 6964,
      "ĠPre": 6965,
      "Ġ}": 6966,
      "Ġàºªàº°àº«àº²àºį": 6967,
      "à»ĢàºŁ": 6968,
      "Ġsalapi": 6969,
      "à¸²à¸¢à¸§": 6970,
      "Ġà¹Ģà¸£à¸²à¸¡": 6971,
      "à¸Ļà¹Ģà¸ŀà¸£à¸²à¸°": 6972,
      "à¸´.": 6973,
      "Ġà¸Ĺà¸£": 6974,
      "ĠMao": 6975,
      "UR": 6976,
      "àºĻàº«àºĻ": 6977,
      "àº²àºĽàº°à»ĢàºĹàºĶ": 6978,
      "Ġkalihokan": 6979,
      "ĠDel": 6980,
      "els": 6981,
      "àºĻàºģàº²àºĩàºŀ": 6982,
      "itle": 6983,
      "ãĥ": 6984,
      "ĠàºĽàº°àºĹàº²àºĻ": 6985,
      "cus": 6986,
      "ikt": 6987,
      "Ġlanaw": 6988,
      "Ġà¹ģà¸¥à¸°à¸Ħ": 6989,
      "à¸¢à¸¡à¸Ĺ": 6990,
      "Ġcomment": 6991,
      "à·Ĥà¶Ń": 6992,
      "ese": 6993,
      "à¶ļà¶¸à¶ļ": 6994,
      "ĠGen": 6995,
      "Ġkaayong": 6996,
      "Ġà¶ĭà¶´à¶ļ": 6997,
      "àºĻàºĽàº°à»Ĥàº«àºį": 6998,
      "Ġyou": 6999,
      "iha": 7000,
      "ĠComune": 7001,
      "Ġà¶Ĵà¶ļà¶§": 7002,
      "å¤": 7003,
      "Ġsol": 7004,
      "à¹Ģà¸§à¸¥à¸²à¸Ļ": 7005,
      "à¸ļà¸Īà¸²à¸ģ": 7006,
      "à¸ªà¸łà¸²à¸ŀ": 7007,
      "Ġà¶ºà·ħ": 7008,
      "Ġdaw": 7009,
      "Suba": 7010,
      "apos": 7011,
      "667": 7012,
      "ĠàºĽàº°àºĹ": 7013,
      "ville": 7014,
      "à¸Ľà¸§à¸Ķ": 7015,
      "à¸įà¸ģ": 7016,
      "à¹Ĥà¸Ħà¸£à¸ĩà¸ªà¸£": 7017,
      "ication": 7018,
      "undalo": 7019,
      "àºªàº²àº«àº°àºģ": 7020,
      "Ġseg": 7021,
      "ĠVi": 7022,
      "Ġà»ĥàºĻàºĤ": 7023,
      "ĠAmahan": 7024,
      "à¹ģà¸Ńà¸¥": 7025,
      "à¸Ńà¸ĩà¹Ħà¸Ĺà¸¢": 7026,
      "à¸Ħà¸§à¸²à¸¡à¸¡": 7027,
      "à¹Ĥà¸Ķà¸¢à¸Ĺ": 7028,
      "à¸Ĺà¸³à¸Ħà¸§à¸²à¸¡à¸ªà¸°à¸Ńà¸²à¸Ķ": 7029,
      "à¸¡à¸ĭ": 7030,
      "à¸Ķà¹Ģà¸Ĺ": 7031,
      "à¸ģà¸²à¸£à¹Ģà¸Ľà¸¥": 7032,
      "à¸§à¸¢à¸Ħà¸§à¸²à¸¡à¸ªà¸°à¸Ķà¸§à¸ģ": 7033,
      "ĠstanovniÅ¡t": 7034,
      "Ġàº§àº½": 7035,
      "à¶»à¶ļà¶¸": 7036,
      "ĠGro": 7037,
      "Ġbulak": 7038,
      "aga": 7039,
      "ono": 7040,
      "Ġà¶Ĩà¶Ń": 7041,
      "Ġbuot": 7042,
      "à¸ķà¸£à¸ĩà¸ģ": 7043,
      "à¹Ģà¸Īà¸²à¸°": 7044,
      "à¸īà¸¥": 7045,
      "à¹Ģà¸ģà¸¡à¸Ļ": 7046,
      "Ġà¸ļà¸²à¸£": 7047,
      "à¸Ļà¸ŀà¸£à¸°": 7048,
      "à¸Ńà¸Ļà¹ģà¸ģ": 7049,
      "à¸Ĺà¸¢à¸²à¸Ļ": 7050,
      "Ġnahimong": 7051,
      "àºģàº²àºĻà»ĢàºĽ": 7052,
      "Ġpagban": 7053,
      "Ġà¶¢à¶½à¶º": 7054,
      "à»ģàºį": 7055,
      "ĠGe": 7056,
      "à¸Īà¸°à¹Ħà¸Ľ": 7057,
      "Ġlig": 7058,
      "Ġà¸Ļà¸Ńà¸ģà¸Īà¸²à¸ģ": 7059,
      "Ġà¸ģà¸£à¸ģà¸İà¸²à¸Ħà¸¡": 7060,
      "ating": 7061,
      "7777": 7062,
      "Ġtekn": 7063,
      "Ġà·ĥà¶¸à¶±": 7064,
      "à¸¡à¹Ģà¸ŀ": 7065,
      "à¸¨à¸¥": 7066,
      "à¸Łà¸Ł": 7067,
      "à¸²à¸ĩà¹ĥà¸Ļ": 7068,
      "à¸Ħà¸§à¸²à¸¡à¸Ĭ": 7069,
      "Ġàºªàº³àº¥": 7070,
      "Ġmagk": 7071,
      "xy": 7072,
      "à¸ĩà¹Ģà¸«à¸¥": 7073,
      "à¸Ķà¹Ģà¸ľà¸¢": 7074,
      "à¸²à¸Ļà¸ľ": 7075,
      "à¸Ńà¸ĩà¹Ģà¸Ķ": 7076,
      "à¸Ńà¸ĩà¹Ģà¸ģ": 7077,
      "à¸ļà¸Ħà¸Ļ": 7078,
      "ĠTungod": 7079,
      "à»ĢàºŀàºĶ": 7080,
      "à¶¥à¶º": 7081,
      "Ġà¶ļà·ĥ": 7082,
      "nd": 7083,
      "IG": 7084,
      "Ġnaka": 7085,
      "soft": 7086,
      "Ġtulo": 7087,
      "à¹Ģà¸Ńà¸ĩà¸ģ": 7088,
      "à¸ģà¹Ģà¸ŀ": 7089,
      "à¸Ĥà¸Ńà¸ĩà¸¥": 7090,
      "à¸Ļà¸Ńà¸²à¸«à¸²à¸£": 7091,
      "Ġà¸Īà¸°à¹Ħà¸Ķ": 7092,
      "à¹Į.": 7093,
      "àºŃàºĩà»ĦàºĶ": 7094,
      "ĠDavid": 7095,
      "à¹ģà¸¥à¸°à¸Ħ": 7096,
      "Ġbugnaw": 7097,
      "usang": 7098,
      "Ġaw": 7099,
      "ci": 7100,
      "à¸ĩà¹Ģà¸Ļ": 7101,
      "à¸Ķà¸²à¸§à¸Ļ": 7102,
      "à¹Ĥà¸ŀà¸ªà¸ķ": 7103,
      "Ġimpormasyon": 7104,
      "àºĹàº°àºįàº²àºªàº²àºĶ": 7105,
      "South": 7106,
      "Ġbatan": 7107,
      "Ġul": 7108,
      "unong": 7109,
      "à¸ļà¸£à¸¡": 7110,
      "àºĻà»ĢàºĹ": 7111,
      "ĠKita": 7112,
      "àºĽàºŃàºĶà»Ħàºŀ": 7113,
      "àºŃàºĬ": 7114,
      "uck": 7115,
      "à¸ļà¹ĥà¸Ļ": 7116,
      "à¸²à¸¡à¹Ģà¸Ļ": 7117,
      "ador": 7118,
      "à¸¢à¸Ħ": 7119,
      "ĠUp": 7120,
      "àº²àº¡àº°": 7121,
      "irk": 7122,
      "etwork": 7123,
      "àºĩàº«àº²": 7124,
      "Ġà¶¥": 7125,
      "à¸Ļà¹ĥà¸Ļà¸ģà¸²à¸£": 7126,
      "à¸²à¸Ļà¹Ħà¸Ľ": 7127,
      "à¸²à¸ĩà¸¥": 7128,
      "àºĽàº°àºĹàº²àºĻàº²àºĹ": 7129,
      "air": 7130,
      "ismo": 7131,
      "àºģàº«": 7132,
      "!!!!": 7133,
      "à¸ķà¸²à¸¥": 7134,
      "à¸²à¸ķà¸²à¸¡": 7135,
      "à¸Ļà¹Ģà¸§": 7136,
      "Ġà¸Ħà¸§à¸²à¸¡à¸£": 7137,
      "à¸Ńà¸¢à¹ģà¸¥": 7138,
      "à¸£à¸ĩà¸Ħ": 7139,
      "à»ģàºķàºģàºķ": 7140,
      "view": 7141,
      "àº¡àºĽ": 7142,
      "ĠCond": 7143,
      "rod": 7144,
      "Ġà¸«à¸¥à¸§à¸ĩà¸ŀ": 7145,
      "àºĶàºĹàº°àºª": 7146,
      "àº²à»ģàºĤàº§àºĩ": 7147,
      "eth": 7148,
      "à¸¡à¸²à¸Ļ": 7149,
      "à¸§à¸²à¸Ļ": 7150,
      "à¸ļà¸Ńà¸¢": 7151,
      "à¹Ģà¸Īà¸Ń": 7152,
      "à¸ªà¸°à¸ªà¸¡": 7153,
      "à¸Ĭà¸Ĭ": 7154,
      "à¸³à¸¢": 7155,
      "à¸ģà¹ĥà¸«": 7156,
      "à¸ģà¹Ģà¸ļ": 7157,
      "eld": 7158,
      "Ġbarangay": 7159,
      "àºĸàº²àºļ": 7160,
      "àºŃàº²à»Ģàº¡": 7161,
      "saya": 7162,
      "àºŃàºģàºķ": 7163,
      "à¸£à¸²à¸ĩà¸§": 7164,
      "à¸§à¸¢à¸Ĥ": 7165,
      "Ġà¸ģà¸²à¸£à¸Ī": 7166,
      "à¸Ńà¸²à¸«à¸²à¸£à¸Ĺ": 7167,
      "Ġà¹Ĥà¸Ľà¸£à¹ģà¸ģà¸£à¸¡": 7168,
      "Ġà¶´à·Ģà·ĥà¶±": 7169,
      "OL": 7170,
      "Ġmok": 7171,
      "ikipedia": 7172,
      "ĠKristo": 7173,
      "Ġà¶¸à¶º": 7174,
      "Ġà¶¯à·Ħà·ĥ": 7175,
      "tion": 7176,
      "Ġpanon": 7177,
      "onia": 7178,
      "à¸Ķà¸ŀà¸¥à¸²à¸Ķ": 7179,
      "à¸£à¸²à¸©": 7180,
      "à¸§à¸²à¸ĩà¹ģà¸ľ": 7181,
      "à¸³à¸Ī": 7182,
      "ision": 7183,
      "Ġinst": 7184,
      "ami": 7185,
      "ĠSur": 7186,
      "Ġà¶´à·Ħà¶»": 7187,
      "Ġne": 7188,
      "à¸¢à¸²à¸ĺ": 7189,
      "à¸²à¸Ļà¹Ģà¸£": 7190,
      "Ġà¶»à¶«": 7191,
      "à¸Ĭà¸³à¸£à¸°": 7192,
      "à¸ģà¸²à¸£à¸ľ": 7193,
      "à¸²à¸£à¸ĵà¸°": 7194,
      "à¸²à¸Ļà¹Ģà¸Ĥ": 7195,
      "à¸Īà¸°à¹Ģà¸¥": 7196,
      "à¸£à¸²à¸¨": 7197,
      "ĠSouth": 7198,
      "ave": 7199,
      "àº²àºĻàºĬ": 7200,
      "ico": 7201,
      "ugat": 7202,
      "à¹ģà¸§à¸£": 7203,
      "à¹Ģà¸ĺà¸ĳ": 7204,
      "à¸¢à¸ļà¸ģ": 7205,
      "Ġà¸Ĭà¸Ļ": 7206,
      "à¸Ńà¸ªà¹Ģà¸ķà¸£": 7207,
      "à¸Ħà¸Ńà¸Ļà¹Ĥà¸Ķ": 7208,
      "à¸ĩà¸Ńà¸²à¸¢": 7209,
      "Ġpost": 7210,
      "ĠInternational": 7211,
      "ĠàºŃàº²àºĬ": 7212,
      "Ġà»ĦàºĬ": 7213,
      "ibil": 7214,
      "à¸Ńà¸°à¹Ħà¸£à¸ģ": 7215,
      "à¸Ńà¸Ļà¹Ħà¸Ķ": 7216,
      "à¸ļà¹ĥà¸«": 7217,
      "Ġà·Ħà¶Ń": 7218,
      "àºģàºªàº°àºĻàº°": 7219,
      "Ġà»ĤàºĶàºįàºªàº°à»Ģàºŀàº²àº°": 7220,
      "Ġkauban": 7221,
      "àºĶàºĹàº°àºĻàº°": 7222,
      "à¶ºà¶§à¶¸": 7223,
      "ãĢ": 7224,
      "Ġ>>": 7225,
      "Ġer": 7226,
      "à¸ĺà¸¢à¸¡": 7227,
      "à¸ĩà¸Ĺà¸²à¸ĩ": 7228,
      "à¸§à¸Ļà¸ª": 7229,
      "à¸ģà¸£à¸°à¸ļà¸§à¸Ļà¸ģà¸²à¸£": 7230,
      "à¸ģà¸©à¸²à¸ª": 7231,
      "ĠstanovniÅ¡tva": 7232,
      "à¸Īà¸°à¹Ģà¸£": 7233,
      "Ġpagpili": 7234,
      "àºªàº°àº«àº§": 7235,
      "àºļà»ģàºļàºļ": 7236,
      "Ġpagpalambo": 7237,
      "àº§àºĤ": 7238,
      "ning": 7239,
      "à¸Ħà¹Ģà¸ģ": 7240,
      "Ġà¸Ķà¸£": 7241,
      "à¸Ķà¸ģà¸²à¸£à¸Ĺ": 7242,
      "à¸ªà¸³à¸£à¸§à¸Ī": 7243,
      "à¹Ĥà¸¥à¸«à¸°": 7244,
      "à¸£à¸ĸà¹Ħà¸Ł": 7245,
      "à¸Ńà¸¢à¸ª": 7246,
      "Ġà¶ħà·Ħà¶±": 7247,
      "à¸Ńà¸ģà¹ĥà¸Ĭ": 7248,
      "Ġà¸Ķà¸Ńà¸ģ": 7249,
      "à¹Ģà¸ĺà¸ĳà¹Ģà¸ĺ": 7250,
      "à¹Ģà¸Ŀ": 7251,
      "à¸Ļà¹Ģà¸Ń": 7252,
      "à¸Ĳà¸Ńà¹Ģà¸¡à¸£": 7253,
      "à¸£à¸²à¸Ĭà¸ª": 7254,
      "Ġà·Ģà¶łà¶±": 7255,
      "Ġkinatibuk": 7256,
      "2554": 7257,
      "iled": 7258,
      "ĠDistr": 7259,
      "Ġlokal": 7260,
      "ku": 7261,
      "asab": 7262,
      "ĠFernando": 7263,
      "Ġisda": 7264,
      "Ġà¹ģà¸Ļ": 7265,
      "à¸Ńà¸ĩà¸Ńà¸¢": 7266,
      "akpan": 7267,
      "àºŃàº²àºį": 7268,
      "Ġà¶ħà¶³": 7269,
      "Ġkong": 7270,
      "Ġà¶ļà·Ģà¶¯": 7271,
      "Ġunta": 7272,
      "uf": 7273,
      "ster": 7274,
      "à¸µ)": 7275,
      "à·Ģà·Ħ": 7276,
      "Ġà¸ģà¸£à¸¡": 7277,
      "à¸Ĺà¸¯": 7278,
      "à¸²à¸Ľà¸¥": 7279,
      "MS": 7280,
      "à¸ªà¸¡à¸Ħà¸§à¸£": 7281,
      "ystem": 7282,
      "à¸ļà¸³à¸£": 7283,
      "àºĻà»Ģàº®": 7284,
      "ĠGre": 7285,
      "6666666667": 7286,
      "Ġhim": 7287,
      "ohn": 7288,
      "à¸Ńà¸ĩà¸ģà¸¥à¸²à¸ĩ": 7289,
      "Ġà¹ģà¸§": 7290,
      "à¸Ļà¸Ńà¸²à¸Ĺ": 7291,
      "à¸Ĺà¸Ļ": 7292,
      "à¸§à¸ĩà¸ģà¸²à¸£": 7293,
      "à¸ģà¸³à¸ģ": 7294,
      "à¸Ńà¸¢à¹ĥà¸«": 7295,
      "à¸Ńà¸ĩà¸Ħà¸³": 7296,
      "apil": 7297,
      "sayud": 7298,
      "à¶±à¶ļà¶§": 7299,
      "Ġà¶ħà·Ģà¶¯": 7300,
      "ĠMal": 7301,
      "ikanan": 7302,
      "FA": 7303,
      "2557": 7304,
      "àº²àº¥àº°": 7305,
      "1000": 7306,
      "ĠIkaw": 7307,
      "à»Ģàº«àºĻ": 7308,
      "ĠEspiritu": 7309,
      "à¸²à¹ģà¸Ĥ": 7310,
      "àº²à»ģàº¥àº°": 7311,
      "à¸¢à¸«": 7312,
      "à¸Ńà¸Ļà¸Ħà¸¥": 7313,
      "àºģà»ĤàºĻà»Ĥàº¥àºĬ": 7314,
      "à¸Ļà¸Ľà¸£à¸°à¸Īà¸³": 7315,
      "pag": 7316,
      "àº¥àº°àºĪ": 7317,
      "ings": 7318,
      "à»ģàºĤàºĩ": 7319,
      "ĠChar": 7320,
      "Mat": 7321,
      "PI": 7322,
      "ĠàºĻàº°àºĦàºŃàºĻàº«": 7323,
      "àºģà»ģàºĤàº§àºĩ": 7324,
      "Ġà¶ĳà¶ļà¶Ł": 7325,
      "ated": 7326,
      "ingali": 7327,
      "àº²à»Ŀàº²àºį": 7328,
      "ĠII": 7329,
      "Ġà¸¡à¸ģà¸£à¸²à¸Ħà¸¡": 7330,
      "mad": 7331,
      "ily": 7332,
      "Ġsini": 7333,
      "àºĶà»ĢàºĬàºį": 7334,
      "aba": 7335,
      "àºŃàºŃàºģà»ģàºļàºļ": 7336,
      "ela": 7337,
      "Ġnakad": 7338,
      "Ġà·ĥà¶¸à¶º": 7339,
      "Ġà¶ļà·ħà·Ħ": 7340,
      "à¸Ĺà¹Ĥà¸Ł": 7341,
      "à¸ļà¹Ģà¸Ħà¸¥": 7342,
      "à¸Īà¸°à¹Ģà¸ģ": 7343,
      "Ġà¸Ļà¸²à¸ĩ": 7344,
      "à¸ĩà¹ģà¸ļà¸ļ": 7345,
      "à¸ªà¸ł": 7346,
      "à¹ĥà¸Ļà¸£à¸°à¸Ķ": 7347,
      "à¸£à¸²à¸Ħà¸²à¸Ĺ": 7348,
      "br": 7349,
      "ĠÂ«": 7350,
      "Ġà¶¢à¶±à¶º": 7351,
      "à»ģàºĬ": 7352,
      "Ġà¶ĭà¶´à¶±": 7353,
      "Ã³n": 7354,
      "à¶³à¶¸": 7355,
      "à¸Ħà¸¥à¸²à¸ģà¸£": 7356,
      "à¸°à¸ķ": 7357,
      "Ġà¸Īà¸£": 7358,
      "à¸łà¸²à¸¢à¸«à¸¥": 7359,
      "à¸īà¸°à¸Ļ": 7360,
      "ĠCap": 7361,
      "à¹ģà¸ļà¸ķà¹Ģà¸ķà¸Ńà¸£": 7362,
      "ĠKag": 7363,
      "ST": 7364,
      "Ġigsoon": 7365,
      "anong": 7366,
      "à¸²à¸ĩà¸«": 7367,
      "à¸²à¸ŀà¸§à¸ģ": 7368,
      "à¸¡à¸²à¸Ķ": 7369,
      "à¸«à¸¡à¸²à¸¢à¸Ħà¸§à¸²à¸¡à¸§": 7370,
      "Ġà¸£à¸²à¸Ĭ": 7371,
      "à¶»à¶·": 7372,
      "ĠSak": 7373,
      "lock": 7374,
      "Ġsem": 7375,
      "à¸Ńà¸Ĺà¸³": 7376,
      "à¸ģà¹Ħà¸Ľ": 7377,
      "à¸°à¹ģà¸Ļà¸Ļ": 7378,
      "à¸Ńà¸Ļà¹Ģà¸Ķ": 7379,
      "Ġhe": 7380,
      "Ġà¸Ĭà¸¡": 7381,
      "130": 7382,
      "àºĻà»Ģàº¡": 7383,
      "ãĦ": 7384,
      "à¶Ķà·Ģ": 7385,
      "Ġkak": 7386,
      "àº§àº½àºģàºĩàº²àºĻ": 7387,
      "Ġà¶Ńà·Ħà¶±": 7388,
      "àº²àº°àºª": 7389,
      "ĠSkupÅ¡t": 7390,
      "ĠLine": 7391,
      "apy": 7392,
      "à¸ģà¹Ģà¸Ķ": 7393,
      "à¸Ķà¹ģà¸ķ": 7394,
      "à¸Ľà¸£à¸°à¸«à¸¢": 7395,
      "Ġà¹Ģà¸£à¸²à¸Īà¸°": 7396,
      "ural": 7397,
      "Ġuma": 7398,
      "Ġpropes": 7399,
      "àºģàº²àºĻàºľàº°àº¥": 7400,
      "ĠDesa": 7401,
      "à¸ªà¸²à¸Ĥ": 7402,
      "à¸Ħà¸Ħ": 7403,
      "à¸Ĭà¸Ļà¸°à¹Ģà¸¥": 7404,
      "à¹Ģà¸ľà¸¢à¸§": 7405,
      "à¸Ĥà¸ª": 7406,
      "Ġmoadto": 7407,
      "Ã±": 7408,
      "àº¡àºŀ": 7409,
      "Ġà¶ħà¶Ńà¶§": 7410,
      "----------------": 7411,
      "àºĶàºļàº²àºĶ": 7412,
      "à¶´à¶§": 7413,
      "Ġpinakaduol": 7414,
      "Ġà¸Ħà¸Ļà¸Ĺ": 7415,
      "Ġà¹Ģà¸Ķà¸Ńà¸°": 7416,
      "ingkasing": 7417,
      "à¸Ļà¹ģà¸ģ": 7418,
      "Ġà¸ªà¸ĸà¸²à¸Ļà¸Ĺ": 7419,
      "à¸ķà¸Īà¸²à¸ģ": 7420,
      "Ġà¸ªà¸§": 7421,
      "Ġà»Ģàºļ": 7422,
      "lain": 7423,
      "Ġà¶ĭà·ħ": 7424,
      "iri": 7425,
      "Ġnagat": 7426,
      "ĠPhÆ°á»Ŀng": 7427,
      "Ġà¶ħà¶»à¶±": 7428,
      "Ġà¸«à¸§à¸¢": 7429,
      "à¸ģà¸Ĭà¸Ļ": 7430,
      "Ġà¸ģà¸£à¸°à¹Ģà¸Ľ": 7431,
      "Ġluuk": 7432,
      "oloh": 7433,
      "Ġà¶¶à·Ģà¶ļ": 7434,
      "ĠàºģàºŃàºĩàºĽàº°àºĬ": 7435,
      "pesyal": 7436,
      "Ġbr": 7437,
      "yd": 7438,
      "à¶ºà¶ļà¶ºà¶±": 7439,
      "don": 7440,
      "à¹ģà¸Ńà¸ļ": 7441,
      "à·Ĥà¶«à¶ºà¶ļ": 7442,
      "à¸Ĥà¸Ńà¸ĩà¸Ń": 7443,
      "à¸ģà¸Ńà¸ĩà¸Ĺ": 7444,
      "à¸ļà¹Ģà¸Ħà¸£": 7445,
      "Ġà¹Ĥà¸Ķà¸¢à¹Ħà¸¡": 7446,
      "à¹Ĥà¸«": 7447,
      "imit": 7448,
      "Ġpagdumala": 7449,
      "Ġle": 7450,
      "àºĩàºģàº²àºĻàºª": 7451,
      "à¸ļà¸Ľà¸£à¸ª": 7452,
      "à¸³à¹Ģà¸ĩ": 7453,
      "à¸ģà¸©à¸²à¹Ĥà¸£à¸Ħà¸ªà¸°à¹Ģà¸ģ": 7454,
      "à¸²à¸Ľà¸£": 7455,
      "à¸ªà¸Ńà¸ļà¸ĸà¸²à¸¡": 7456,
      "à¸ĩà¸§à¸¥": 7457,
      "ahigayon": 7458,
      "Ġbuh": 7459,
      "ĠIyang": 7460,
      "ĠFr": 7461,
      "atch": 7462,
      "Ðº": 7463,
      "Ġà»ĥàºĻàºĽ": 7464,
      "Ġà»ĥàºĻàº¥": 7465,
      "Ġporn": 7466,
      "aryo": 7467,
      "à¸ĩà¸©": 7468,
      "à¸¢à¸Ńà¸ĩ": 7469,
      "à¸ļà¸Ńà¸£": 7470,
      "à¸Ńà¸²à¸Ĺ": 7471,
      "Ġsab": 7472,
      "Ġà¹Ģà¸§à¸¥": 7473,
      "à¹ģà¸¥à¸°à¹Ģà¸Ľ": 7474,
      "à¸§à¹Ĩ": 7475,
      "à¸²à¸ģà¸§": 7476,
      "Ġpopisu": 7477,
      "âĢ¦]": 7478,
      "Ġlag": 7479,
      "à»ģàºŃ": 7480,
      "àº²àºĩàºļ": 7481,
      "àº²àºĻàºĽàº°à»ĢàºĹàºĶ": 7482,
      "berg": 7483,
      "Ġoras": 7484,
      "à¸Ĭà¸²à¸Ĭ": 7485,
      "Ġà¹ģà¸¥à¸°à¸§": 7486,
      "à¸İà¸£": 7487,
      "à¹ĥà¸Ļà¸¢": 7488,
      "Ġà¹Ģà¸ŀà¸£à¸²à¸°à¸¡": 7489,
      "à¸Ľà¸£à¸°à¸ªà¸ļà¸Ħà¸§à¸²à¸¡à¸ªà¸³à¹Ģà¸£": 7490,
      "upo": 7491,
      "ete": 7492,
      "àº½àºĩà»ģàºķ": 7493,
      "AP": 7494,
      "wit": 7495,
      "alif": 7496,
      "abl": 7497,
      "Ġà¸ŀà¸¤à¸©à¸łà¸²à¸Ħà¸¡": 7498,
      "Ġadmin": 7499,
      "Ġà¶Ńà·Ħà·Ģ": 7500,
      "àºģàºļ": 7501,
      "àº²àºĻàºĻàº²àºį": 7502,
      "Ġàºģàº²àºĻàº®": 7503,
      "Ġà¶¢à¶±à·Ģ": 7504,
      "cc": 7505,
      "Ġà·ĥà¶º": 7506,
      "à¸Ľà¸£à¸°à¸ĺà¸²à¸Ļ": 7507,
      "à¸³à¸ŀ": 7508,
      "à¹Ģà¸¢à¸Ńà¸£": 7509,
      "à¹ģà¸¥à¸°à¸Ĥ": 7510,
      "ahum": 7511,
      "Ġpo": 7512,
      "Ġà¶Ĩà¶±": 7513,
      "''": 7514,
      "egal": 7515,
      "àºĻàº³à»ĥàºĬ": 7516,
      "ĠBa": 7517,
      "Ġà¶Ńà¶¯": 7518,
      "Ġà¶»à·Ħà·ĥ": 7519,
      "à»ĢàºŃàºģàº°àºª": 7520,
      "à¶§à·ħ": 7521,
      "àºĶàºĹàº°àºĻàº°àºĹàº³": 7522,
      "à¸¡à¸łà¸²à¸©": 7523,
      "Ġà¹Ģà¸ī": 7524,
      "à¸¡à¸«à¸²à¸Ĭà¸Ļ": 7525,
      "jen": 7526,
      "Ġti": 7527,
      "emplo": 7528,
      "Ġmakak": 7529,
      "Ġàºŀàº°àºĪ": 7530,
      "Ġbungtod": 7531,
      "add": 7532,
      "Ġà·Ģà¶º": 7533,
      "ĠàºĽàº°àºĪàº³": 7534,
      "à¸Ĭà¸²à¹ģà¸¥": 7535,
      "à¸Ńà¸¢à¸Ļ": 7536,
      "ugu": 7537,
      "à¸Ħà¸Ĺ": 7538,
      "à¸Īà¸Ńà¸Ķ": 7539,
      "ĠBerlin": 7540,
      "àºªàº²àºį": 7541,
      "ãĤ": 7542,
      "2019": 7543,
      "Ġpros": 7544,
      "Ġpagpam": 7545,
      "à¸§à¸ĩà¸Ļ": 7546,
      "Ġà¹Ģà¸¡à¸©à¸²à¸¢à¸Ļ": 7547,
      "à¸Ķà¸«à¸§": 7548,
      "Ð»": 7549,
      "à·ĬâĢĻ": 7550,
      "wal": 7551,
      "ĠIP": 7552,
      "11111111": 7553,
      "Ġà¶ļà¶»à¶Ń": 7554,
      "ĠPlay": 7555,
      "à¹ĥà¸Ļà¸Ľà¸£à¸°à¹Ģà¸Ĺà¸¨": 7556,
      "à¸§à¸Ļà¸ľà¸ªà¸¡": 7557,
      "à¸ļà¸ªà¸ĸ": 7558,
      "à¸Īà¸Ńà¸¡": 7559,
      "à¸Ļà¸łà¸²à¸ŀ": 7560,
      "Ġà¸Īà¸³à¸«à¸Ļ": 7561,
      "à¸²à¹ģà¸¡": 7562,
      "àºģà»Ĩ": 7563,
      "Ġà¶īà·Ģà¶»": 7564,
      "ĠCl": 7565,
      "à¸ļà¸²à¸ģ": 7566,
      "à¹Ģà¸ªà¸ĺ": 7567,
      "à¸¡à¸¨": 7568,
      "à¸²à¸ŀà¹Ģà¸Ī": 7569,
      "à¸ļà¸Ł": 7570,
      "Ġà¸Ľà¸£à¸°à¹Ģà¸łà¸Ĺ": 7571,
      "àº«àº¡àº²àºį": 7572,
      "IM": 7573,
      "Ġà¶¸à·Ħà¶¢à¶±": 7574,
      "ĠPer": 7575,
      "à¸ļà¹Ģà¸Ī": 7576,
      "à¸Ļà¸Ľà¸£à¸°à¸ĺà¸²à¸Ļ": 7577,
      "à¸²à¸ĩà¸ŀ": 7578,
      "à¸²à¸ģà¸£à¸°": 7579,
      "à¸²à¸¢à¸Ħ": 7580,
      "à»Ģàº«àº¥": 7581,
      "àºªàº°àºĶ": 7582,
      "Ġà¶ĩà¶Ł": 7583,
      "Ġà¶Ńà¶»à¶ľà¶º": 7584,
      "ĠHe": 7585,
      "àºĤàºŃàºĩàºķ": 7586,
      "onus": 7587,
      "Ġiznosi": 7588,
      "à¶»à¶ļà¶®": 7589,
      "ĠWorld": 7590,
      "à¸²à¸§à¸ĸ": 7591,
      "à¸łà¸²à¸£à¸ģ": 7592,
      "à¸Ńà¸Ńà¸²à¸Ĭ": 7593,
      "à¸¡à¸łà¸²à¸©à¸ĵ": 7594,
      "à¸Ķà¸ĩ": 7595,
      "à¹Ĥà¸Ħà¸Ļ": 7596,
      "à¹ģà¸¥à¸°à¸ľ": 7597,
      "à¸§à¸Ļà¸¥à¸Ķ": 7598,
      "à¸ĩà¹Ģà¸Ħà¸£": 7599,
      "à¸¨à¸²à¸Ī": 7600,
      "Ġà¸Īà¸°à¹Ģà¸Ľ": 7601,
      "Ġgani": 7602,
      "apas": 7603,
      "Ġqu": 7604,
      "pas": 7605,
      "160": 7606,
      "Ġàº¥àº°àºļ": 7607,
      "coin": 7608,
      "à¸ĵà¹Ħà¸¡": 7609,
      "à¸ĺà¸¢à¸²": 7610,
      "à¸Ńà¸ļà¸Ĺ": 7611,
      "à¸ĩà¸«à¸§à¸¢": 7612,
      "à¸Ļà¸Ĺà¸²à¸ĩà¹Ħà¸Ľ": 7613,
      "Ġà·ĥà·Ģ": 7614,
      "àº¡àºŃàºļ": 7615,
      "à¶ľà¶½à¶ºà¶±": 7616,
      "Ġins": 7617,
      "Ġkani": 7618,
      "ĠDa": 7619,
      "esta": 7620,
      "àºŀàº²àºģàºª": 7621,
      "àºļàº®àºŃàºĩ": 7622,
      "à»ģàºľàºĻàºģàº²àºĻ": 7623,
      "Ġà¶Ĩà¶½": 7624,
      "àº®àºŃàºĩ": 7625,
      "à¶ľà¶¸à¶±à¶º": 7626,
      "yt": 7627,
      "km": 7628,
      "à¸Ļà¹Ħà¸Ĺà¸¢": 7629,
      "à¹ģà¸Ļà¸§à¸Ħ": 7630,
      "à¸¢à¸§à¸Ļ": 7631,
      "Ġà¸ªà¸¥": 7632,
      "Ġà¸Ĥà¸ĵà¸°": 7633,
      "of": 7634,
      "Ġpab": 7635,
      "à¸łà¸²à¸©à¸²à¹Ħà¸Ĺà¸¢": 7636,
      "à¶´à·ħ": 7637,
      "index": 7638,
      "Ġkadaghanan": 7639,
      "Ġà¶īà¶³à¶½": 7640,
      "isk": 7641,
      "à¸º": 7642,
      "Ġà¹ĥà¸«à¸¡": 7643,
      "à¸¡à¹Ģà¸£": 7644,
      "Ġà¸ªà¸²à¸£": 7645,
      "à¸Ļà¸ŀà¸Ļ": 7646,
      "à¸Ķà¸Ńà¸ģ": 7647,
      "à¹ģà¸¥à¸°à¸Ń": 7648,
      "ain": 7649,
      "à¶īà¶±": 7650,
      "ĠFl": 7651,
      "àº²àºŀàº§àºģ": 7652,
      "Ġval": 7653,
      "be": 7654,
      "Ġgabii": 7655,
      "à¸¢à¸Ĥà¸Ńà¸ĩ": 7656,
      "à¸ļà¸«à¸¥": 7657,
      "à¸²à¹Ħà¸Ľà¹ģà¸¥": 7658,
      "à¸Ļà¹Ģà¸«à¸¡": 7659,
      "à¸§à¸¢à¸¡": 7660,
      "Ġà¸Ļà¸Ħà¸£": 7661,
      "à¸§à¸ŀ": 7662,
      "à¸²à¹ĥà¸Ħà¸£": 7663,
      "à¸ªà¸²à¸¡à¸²à¸£à¸ĸà¹ĥà¸Ĭ": 7664,
      "eryal": 7665,
      "ĠKr": 7666,
      "à¶»à·Ħà¶«à¶º": 7667,
      "ĠOs": 7668,
      "à¶ºà¶¸à¶ļ": 7669,
      "mun": 7670,
      "Ġà¶Ńà¶½": 7671,
      "Ġ[âĢ¦]": 7672,
      "RE": 7673,
      "à¸ļà¹Ģà¸ļ": 7674,
      "Ġà·ĥà¶¸à·ĥ": 7675,
      "à¸²à¸ĺà¸£à¸£à¸¡": 7676,
      "Ġà¸ŀà¸§à¸ģà¹Ģà¸Ĥ": 7677,
      "Ġà¸«à¸¥à¸§à¸ĩà¸Ľ": 7678,
      "à¸²à¸¢à¸Ń": 7679,
      "Ġà¹ģà¸¥à¸°à¸ľ": 7680,
      "à¶ľà¶Ńà¶º": 7681,
      "à¶Ńà¶ºà¶±": 7682,
      "ĠPort": 7683,
      "à¸£à¸²à¸Ķ": 7684,
      "idente": 7685,
      "à¸ģà¸ªà¸Ļ": 7686,
      "Ġà¸Ħà¸§à¸²à¸¡à¸Ħ": 7687,
      "à¸Ĭà¸į": 7688,
      "à¸ŀà¸¤à¸ķ": 7689,
      "Ġà·ħà¶¸": 7690,
      "Prema": 7691,
      "à»Ģàº«àº¡": 7692,
      "Ġkahan": 7693,
      "àº²à»ĥàºĪà»ĥàºª": 7694,
      "ahe": 7695,
      "à·Ģà¶½à¶¯": 7696,
      "Ġmahitabo": 7697,
      "ĠHuman": 7698,
      "àºĩà»Ģàºģ": 7699,
      "àº²àºĦàº°àºĻàº°": 7700,
      "ugh": 7701,
      "à¸ĺà¸ł": 7702,
      "à¸£à¸²à¸Ī": 7703,
      "à¸ļà¸Ĺà¸ļà¸²à¸Ĺ": 7704,
      "à¸²à¸Ńà¸¢à¸²à¸ģ": 7705,
      "Ġmaytag": 7706,
      "Ġpagtabang": 7707,
      "à¶ĩà¶Ń": 7708,
      "àº¥àº°àºŃ": 7709,
      "Ġà¶īà·Ħà¶½": 7710,
      "àºªàº³àº¥": 7711,
      "ondon": 7712,
      "Ġà¶ľà·Ħà¶±": 7713,
      "àº²àº«àº²àºģàº§": 7714,
      "Ġàºŀàº§àºģà»ĢàºĤ": 7715,
      "ĠDistrict": 7716,
      "Nag": 7717,
      "Filed": 7718,
      "à¸¥à¸ĩà¹Ģà¸¥": 7719,
      "à¸ļà¸Ħà¸Ļà¸Ĺ": 7720,
      "à¸Ńà¸Ļà¸³": 7721,
      "Ġà¶ħà¶ºà¶ľ": 7722,
      "à¸ĵà¹ģà¸¡": 7723,
      "à¶±à¶ľà¶±": 7724,
      "ĠST": 7725,
      "Ġindustr": 7726,
      "ĠWeb": 7727,
      "ency": 7728,
      "à¸Ļà¸Ńà¸ģà¸Īà¸²à¸ģà¸Ļ": 7729,
      "à¸Ķà¸ŀà¸£à¸°": 7730,
      "à¸²à¸ĩà¹Ģà¸ŀ": 7731,
      "à¸Īà¸¡": 7732,
      "à¸ģà¸²à¸£à¹Ģà¸ŀ": 7733,
      "33333333333": 7734,
      "à¸ģà¸Ĭà¸²à¸¢": 7735,
      "ĠRegion": 7736,
      "àº²àº«àº²àº¥": 7737,
      "Ġhusto": 7738,
      "à¶³à¶º": 7739,
      "àºĩà»ĢàºĤàºĶ": 7740,
      "ĠPC": 7741,
      "Ġà¶ĩà¶ºà¶§": 7742,
      "àºŃàºĤ": 7743,
      "à¹Ĩà¸ģ": 7744,
      "Ġà¸Ńà¸°": 7745,
      "à¹Ģà¸ĭà¹Ĥà¸¥": 7746,
      "à¸²à¸ĵà¸²à¸Ī": 7747,
      "à¸²à¸²": 7748,
      "ester": 7749,
      "Ġsuba": 7750,
      "Ġà¶¸à¶©": 7751,
      "àº²à»Ģàºĸ": 7752,
      "Ġà¶ĳà¶¶": 7753,
      "Ø§": 7754,
      "àºĶà»ĢàºĽ": 7755,
      "che": 7756,
      "àº¡àº¡": 7757,
      "Ġà¸łà¸²à¸¢à¹ĥà¸ķ": 7758,
      "à¹ģà¸Ľà¸£": 7759,
      "à¸£à¸²à¸¢à¸Ĭ": 7760,
      "à¸³à¸ģà¸§": 7761,
      "CD": 7762,
      "andam": 7763,
      "àºĩàº²àºĻàºª": 7764,
      "Ġtaga": 7765,
      "àºįà»ģàºľ": 7766,
      "Ġugahon": 7767,
      "à¸²à¸Ļà¸¢": 7768,
      "Ġà¹ģà¸Ľà¸¥": 7769,
      "à¸Ńà¸Ķà¸Ķà¸³": 7770,
      "à¸ģà¸Ĺà¸£à¸Ńà¸Ļ": 7771,
      "à¸§à¸²à¸£": 7772,
      "à¸Ĺà¸¡": 7773,
      "à¸ļà¹Ģà¸ģ": 7774,
      "Ġà»ģàºľ": 7775,
      "nan": 7776,
      "Ġà¶»à·Ģ": 7777,
      "à»ģàºĻàºģ": 7778,
      "Ġtaliwala": 7779,
      "Ġà¶¸à¶Ńà¶º": 7780,
      "Ġpersonal": 7781,
      "à¹ģà¸Ńà¸ŀ": 7782,
      "à¸²à¸Ļà¸ļ": 7783,
      "à¹ĥà¸Ļà¸¥": 7784,
      "à¸Ħà¸ķ": 7785,
      "à¸²à¹ģà¸Ĭà¸¡à¸Ľ": 7786,
      "à¸ķà¸Ń": 7787,
      "Ġnaglakip": 7788,
      "oyal": 7789,
      "àºĶàºĦàº§àº²àº¡": 7790,
      "unhod": 7791,
      "à¶ľà¶§à¶¸": 7792,
      "ĠTur": 7793,
      "à¸¡à¸ģà¸²à¸£": 7794,
      "à¸¡à¹Ħà¸¡": 7795,
      "à¸£à¸°à¸ģ": 7796,
      "à¸²à¸§à¸ķ": 7797,
      "à¸²à¸Īà¸Ń": 7798,
      "à¸ģà¸£à¸°à¸Ĭ": 7799,
      "à¸Ķà¹ģà¸¥": 7800,
      "Ġà¸ªà¹Ģà¸Ľ": 7801,
      "à¸§à¸¢à¸¥à¸Ķ": 7802,
      "àº²àºįàºĤ": 7803,
      "may": 7804,
      "ĠHar": 7805,
      "Ġà¶ħà¶´à·Ħà·ĥ": 7806,
      "embro": 7807,
      "RR": 7808,
      "àºļàº«": 7809,
      "à»ĢàºĪàºį": 7810,
      "eri": 7811,
      "ohan": 7812,
      "ĠTra": 7813,
      "Ġkur": 7814,
      "à¸Ļà¸£à¸ĸ": 7815,
      "à¸²à¸ĩà¹Ģà¸ķ": 7816,
      "à¸ĵà¸Īà¸°": 7817,
      "à¸Ńà¸ļà¸Ń": 7818,
      "à¸ģà¸©à¸²à¸ķ": 7819,
      "à¸ĩà¸ªà¸³à¸«à¸£": 7820,
      "Ġà¹ĥà¸Ļà¸ģà¸²à¸£": 7821,
      "à¸Ħà¸Ńà¸£": 7822,
      "à¸²à¸Ĺà¸£": 7823,
      "àº²à»ĥàº«": 7824,
      "lia": 7825,
      "àºĶà»Ģàº¥": 7826,
      "Ġà¶ºà¶¸à¶ļ": 7827,
      "Ġhangtud": 7828,
      "ĠYotsuba": 7829,
      "792": 7830,
      "àºĩàºĪàº²àºģàºĻ": 7831,
      "âĢĭ.": 7832,
      "Ġbusa": 7833,
      "ental": 7834,
      "àºĶàºĽàº°àºª": 7835,
      "Ġà¹ģà¸Ļà¸°à¸Ļà¸³": 7836,
      "à¹Ģà¸Ĭà¸ªà¹Ģà¸ķà¸Ńà¸£": 7837,
      "à¹Ģà¸«à¸¡à¸²à¸°à¸ģ": 7838,
      "à¸ĩà¸Łà¸£": 7839,
      "à¸²à¸Ļà¸Ĥà¸Ńà¸ĩ": 7840,
      "à¸ĩà¹Ģà¸ģà¸ķ": 7841,
      "à¸ĺà¸£": 7842,
      "ovrÅ¡": 7843,
      "unsa": 7844,
      "à¶ľà¶ºà¶§": 7845,
      "LD": 7846,
      "117": 7847,
      "à¸Ĭà¸²à¸£": 7848,
      "ames": 7849,
      "gbot": 7850,
      "à¹Ģà¸Ńà¸²à¸ģ": 7851,
      "à¸£à¸²à¸©à¸İà¸£": 7852,
      "à¸Ķà¸Ľà¸ģà¸ķ": 7853,
      "à¸²à¸ĩà¸Ĭà¸²à¸ķ": 7854,
      "à¹Ģà¸ľà¸¢à¹ģà¸ŀà¸£": 7855,
      "à¸ļà¸ľà¸¡": 7856,
      "edro": 7857,
      "àºŃàºĻàº¥": 7858,
      "Ġmore": 7859,
      ",âĢĿ": 7860,
      "Ġpanim": 7861,
      "Ġà¶ľà¶«à¶±à¶ļ": 7862,
      "Ġkamatayon": 7863,
      "Ġsukad": 7864,
      "ĠàºĽàº°àºģàºŃàºļ": 7865,
      "ido": 7866,
      "Ġà¹ģà¸¡à¸Ļà¹Ģà¸Ĭà¸ªà¹Ģà¸ķà¸Ńà¸£": 7867,
      "à¸Ľà¸£à¸°à¸ģà¸§à¸Ķ": 7868,
      "à¸Ķà¹ĥà¸Ī": 7869,
      "bukid": 7870,
      "àºŃàºĩàºĪàº²àºģ": 7871,
      "à¸§à¸ľ": 7872,
      "108": 7873,
      "àºĩà»ĦàºĽ": 7874,
      "àºģàºģàº°àºķ": 7875,
      "imong": 7876,
      "Ġà¶ĭà¶±à¶Ń": 7877,
      "à·ĥà¶¯": 7878,
      "Ġà¶ĳà¶¢": 7879,
      "à¸Ńà¸Ļà¸Īà¸°": 7880,
      "2556": 7881,
      "à¸Ħà¸³à¸ª": 7882,
      "à¹Ĥà¸Ķà¸¢à¹ĥà¸Ĭ": 7883,
      "àºĻàºģàº²àºĻàºª": 7884,
      "Ġà¶ħà·Ģà¶¸": 7885,
      "eting": 7886,
      "Ġmiadto": 7887,
      "à¹Ģà¸ĭà¸¥": 7888,
      "à¶©à¶½": 7889,
      "di": 7890,
      "Ġlac": 7891,
      "Ġpund": 7892,
      "2006": 7893,
      "jeni": 7894,
      "à¶±à·Ģà¶±": 7895,
      "âĢ¦âĢ¦": 7896,
      "ĠChi": 7897,
      "ĠAll": 7898,
      "à¸Ńà¸Ļà¸¢": 7899,
      "à¹ģà¸¥à¸°à¸ŀ": 7900,
      "à¹Ĥà¸Ńà¸¥": 7901,
      "adrid": 7902,
      "à¸Ħà¸Ħà¸¥à¸Ĺ": 7903,
      "orma": 7904,
      "à¹Ħà¸ĭà¸Ķ": 7905,
      "ĠThai": 7906,
      "MA": 7907,
      "àºŃàºĻàº§": 7908,
      "àºĻàºŃàºģ": 7909,
      "àº¥àº°àºĻ": 7910,
      "Ġàºªàº°àº«àº°àº¥": 7911,
      "\".": 7912,
      "Ġlalake": 7913,
      "à¸ģà¸¢à¸łà¸²à¸ŀ": 7914,
      "à¹Ģà¸Ĺà¸¨à¸ģà¸²à¸¥": 7915,
      "àº¡àºĤàºŃàºĩ": 7916,
      "tog": 7917,
      "àºŃàº²àº«àº²àºĻ": 7918,
      "ĠHer": 7919,
      "à¶Ķà·Ħ": 7920,
      "Ġkun": 7921,
      "à¶»à¶¸à¶ºà¶ļ": 7922,
      "àºģàº²àºĻà»ĢàºĦ": 7923,
      "alam": 7924,
      "à·ı)": 7925,
      "105": 7926,
      "àºŃàºĻàºķ": 7927,
      "Ġcl": 7928,
      "à¸Ļà¹Ģà¸Ĺà¸Ńà¸£": 7929,
      "à¸²à¸Ľà¸£à¸°à¸ķ": 7930,
      "ĠGip": 7931,
      "à¸Ļà¸Ńà¸ģà¸Īà¸²à¸ģ": 7932,
      "bal": 7933,
      "Ch": 7934,
      "ĠBas": 7935,
      "onan": 7936,
      "ias": 7937,
      "ĠJuan": 7938,
      "Home": 7939,
      "Ġmateryal": 7940,
      "ĠDes": 7941,
      "ĠGrand": 7942,
      "Ġdisenyo": 7943,
      "ĠGingharian": 7944,
      "anda": 7945,
      "Ġà¸«à¸¥à¸²à¸¢": 7946,
      "à¸§à¸¢à¸£": 7947,
      "à¸Ħà¸§à¸²à¸¡à¸«à¸¡à¸²à¸¢": 7948,
      "Ġà¸ªà¸Ļà¹ĥà¸Ī": 7949,
      "à¸ĩà¸Ł": 7950,
      "Ġà»ĥàºĻàºĻ": 7951,
      "ĠOnline": 7952,
      "Ġà¶Ńà·Ħà¶±à¶¸": 7953,
      "àº¡àºªàº°àº«": 7954,
      "Ġà¶¶à¶»à¶´à¶Ń": 7955,
      "àº¡àºĹàº°àº§": 7956,
      "ayaw": 7957,
      "à¸Ķà¸«à¸£": 7958,
      "à¹Ģà¸Ľà¹Ģà¸Ľà¸Ńà¸£": 7959,
      "à¸ģà¹Ģà¸ªà¸ļ": 7960,
      "à¸Ħà¸³à¸§": 7961,
      "à¸Ńà¸ĩà¸Ľà¸£": 7962,
      "Ġàºģàº²àºĻàºļ": 7963,
      "ikuha": 7964,
      "Ġpropesyonal": 7965,
      "àºĶàºĹàº°àºªàº²àºĶ": 7966,
      "olohiya": 7967,
      "Ġpred": 7968,
      "nog": 7969,
      "ĠMadrid": 7970,
      "à¸Ħà¸³à¸ĸà¸²à¸¡": 7971,
      "à¸Ńà¹Ħà¸Ľà¸Ļ": 7972,
      "Ġsred": 7973,
      "ĠPagk": 7974,
      "àº²à»Ħàº¡": 7975,
      "ĠNational": 7976,
      "ugp": 7977,
      "ĠSil": 7978,
      "à¶Ńà·Ģà¶Ń": 7979,
      "Ġà¶±à¶ľà¶»": 7980,
      "à»ĥàºļ": 7981,
      "à¹Ļ": 7982,
      "à¸ĩà¸Ķà¸ĩà¸²à¸¡": 7983,
      "à¸¥à¸ĩà¸Ĺà¸°à¹Ģà¸ļ": 7984,
      "à¸Ļà¹Ģà¸ģà¸¡à¸ª": 7985,
      "à¸²à¹ģà¸£à¸ģ": 7986,
      "ĠCam": 7987,
      "à»Ĥàºģ": 7988,
      "à»ĥàºĻàº«": 7989,
      "àºŃàºĽ": 7990,
      "Ġlakip": 7991,
      "à¸ļà¹Ħà¸§": 7992,
      "à¸ļà¹Ģà¸£à¸²": 7993,
      "Ġlum": 7994,
      "à¹Ģà¸ĺà¸į": 7995,
      "à¸Ķà¸³à¸£à¸ĩ": 7996,
      "Ġcont": 7997,
      "Ġà¶ºà¶ļ": 7998,
      "Ġunsay": 7999,
      "Ġà¶ĭà¶ľ": 8000,
      "âĢĻâĢĻ": 8001,
      "à¶»à¶®à¶¸": 8002,
      "jelo": 8003,
      "Ġkondili": 8004,
      "à¸ĩà¹ģà¸ģ": 8005,
      "à¸§à¹ģà¸Ĺà¸Ļ": 8006,
      "à¸µà¹ī.": 8007,
      "à¸Ļà¹Ĥà¸į": 8008,
      "à¹Ĳà¹Ĳ": 8009,
      "à¹ĥà¸Ļà¹Ģà¸¡": 8010,
      "à¸Ńà¸¡à¸²": 8011,
      "Ġà¸Īà¸°à¸ķ": 8012,
      "à·ĥà·Ģ": 8013,
      "ĠKom": 8014,
      "Ġpagsa": 8015,
      "Ġà¶Ńà¶±à¶Ń": 8016,
      "ĠMe": 8017,
      "àº²àºįàºª": 8018,
      "àºªàº°à»Ģà»ľ": 8019,
      "Ġindustriya": 8020,
      "Ġà¸ģà¸£à¸°à¸Ķ": 8021,
      "Ġmakig": 8022,
      "à¸²à¸Ļà¹Ģà¸Ľ": 8023,
      "ava": 8024,
      "ĠMin": 8025,
      "àº²àºįàºĶ": 8026,
      "Ġàºģàº²àºĻàºĽ": 8027,
      "ĠSanto": 8028,
      "à¸¡à¹Ħà¸Ľà¸Ķ": 8029,
      "à¸¢à¸ģà¸£": 8030,
      "à¸Ńà¸ĩà¹Ģà¸Ĭ": 8031,
      "ĠEdge": 8032,
      "à¸Ńà¸ĩà¹Ĩ": 8033,
      "Ġà¸ªà¹Ģà¸ķ": 8034,
      "ĠKar": 8035,
      "à¸¡à¸Ńà¸¢": 8036,
      "OO": 8037,
      "unog": 8038,
      "ĠIm": 8039,
      "ngaw": 8040,
      "×Ĳ×Ĳ×Ĳ×Ĳ": 8041,
      "à¸Ļà¹Ģà¸«à¸ķ": 8042,
      "à¸Ĥà¸Ļà¸ª": 8043,
      "Ġà¸Ĺà¸£à¸ĩ": 8044,
      "Ġpunto": 8045,
      "Ġint": 8046,
      "Ġkalend": 8047,
      "à¸§à¸¥à¸°à¸Ħà¸£": 8048,
      "àº¥àº§àºĩ": 8049,
      "àºĶàº®": 8050,
      "mon": 8051,
      "iji": 8052,
      "à»ĢàºĦàº²àº°": 8053,
      "à¶¸à¶§à¶º": 8054,
      "haw": 8055,
      "ĠCre": 8056,
      "àº²à»Ģàº®": 8057,
      "àºĩàºģàº²àºĻàºĪ": 8058,
      "à¸²à¸Ļà¹Ģà¸§": 8059,
      "à¹Ģà¸Ķà¸Ńà¸£": 8060,
      "à¸Ľà¸£à¸°à¸ªà¸²à¸Ĺ": 8061,
      "Ġà¸ªà¸Ļ": 8062,
      "Ġsayo": 8063,
      "ĠàºĻàºŃàºģàºĪàº²àºģ": 8064,
      "Ġnindot": 8065,
      "Ġmon": 8066,
      "ĠBern": 8067,
      "Ġhalad": 8068,
      "Ġà·Ģà¶»à¶ļ": 8069,
      "à·ħà¶º": 8070,
      "Ġplano": 8071,
      "170": 8072,
      "à¸Ńà¸Ńà¸°à¹Ħà¸£": 8073,
      "à¸¡à¸²à¹Ħà¸Ķ": 8074,
      "à¸ªà¸ĸà¸²à¸Ļà¸ģà¸²à¸£à¸ĵ": 8075,
      "à¸ŀà¹Ģà¸Ķà¸Ĺ": 8076,
      "à¸°à¸¡": 8077,
      "à¸Ħà¸¥à¸Ńà¸ĩ": 8078,
      "à¸Ļà¹Ģà¸¥à¸ª": 8079,
      "Ġà¹ģà¸Ńà¸£": 8080,
      "Ġà¸ªà¸§à¸Ļ": 8081,
      "Ġà·ĥà¶ļ": 8082,
      "Ġkasingkasing": 8083,
      "ossip": 8084,
      "angl": 8085,
      "Ġà¶Īà¶Ń": 8086,
      "salig": 8087,
      "à¹ĥà¸Ļà¸ģà¸²à¸£à¹Ģà¸¥": 8088,
      "à¸ģà¸ģà¸¥": 8089,
      "à¸ļà¸Ńà¸Ļ": 8090,
      "à¸²à¸Ļà¸Ĥà¸²à¸¢": 8091,
      "Ġà¹Ħà¸Ł": 8092,
      "à¸¥à¸ĩà¸¡": 8093,
      "hag": 8094,
      "àº°àºįàº²àºĶ": 8095,
      "itcoin": 8096,
      "ĠAG": 8097,
      "àº²à»ģàº¡": 8098,
      "Ġlik": 8099,
      "à¸ļà¸²à¸Ķà¹Ģà¸Ī": 8100,
      "à¸Ńà¸¢à¸ķ": 8101,
      "à¸¡à¸°à¹Ģà¸£": 8102,
      "à¸Ļà¹Ģà¸ĭ": 8103,
      "à¸Ķà¹ĥà¸Ĭ": 8104,
      "à¸²à¸Ļà¹ĥà¸Ļ": 8105,
      "à¸ĩà¸«à¸²à¸£": 8106,
      "à¸¢à¸Ļà¸ģ": 8107,
      "à·Ĥà¶ļà¶º": 8108,
      ");": 8109,
      "Ġàºŀàº°àºĻ": 8110,
      "àºŃàºĩàºĤàºŃàºĩ": 8111,
      "utom": 8112,
      "àº§àºĻàºĹ": 8113,
      "Ġkagam": 8114,
      "àºŃàºĻà»ĦàºĤ": 8115,
      "à¸Ĭà¸ģà¸²à¸¥à¸Ĺ": 8116,
      "Ġkarong": 8117,
      "unt": 8118,
      "à¸²à¸Ļà¸Ńà¸¢": 8119,
      "à¸įà¸Ĥà¸Ńà¸ĩ": 8120,
      "à¸Ľà¸Ļ": 8121,
      "Ġà»Ģàº¥àºĤ": 8122,
      "Ġ]": 8123,
      "àºŃàºĩàºĪ": 8124,
      "ews": 8125,
      "yanan": 8126,
      "Ġå": 8127,
      "alhin": 8128,
      "àºĽàº°àº¡àº²àºĻ": 8129,
      "ĠGl": 8130,
      "àºĪàº°àº¡": 8131,
      "Ġà·Ħà·ĥ": 8132,
      "à¸³à¸§": 8133,
      "Ġà¸ļà¸Ńà¸¥": 8134,
      "à¸ŀà¸£à¸£à¸Ħ": 8135,
      "à¸Ľà¸£à¸°à¸Ĭà¸²à¸ª": 8136,
      "à¸Ļà¹Ģà¸Ļà¸Ńà¸£": 8137,
      "à¸Ĥà¸Ńà¸ļ": 8138,
      "Ġpanginahanglan": 8139,
      "àºŀàº²àºįà»ĥàºĻ": 8140,
      "à¸ģà¸¡à¸²à¸ģà¸¡à¸²à¸¢": 8141,
      "Ġkatungod": 8142,
      "ĠNa": 8143,
      "ÃŃo": 8144,
      "Ġà¶¯à¶»à¶±": 8145,
      "àº§àºĪ": 8146,
      "Ġgyud": 8147,
      "ĠàºŃàº²àºĶ": 8148,
      "ĠÅ¾ivjelo": 8149,
      "udio": 8150,
      "à¸ļà¹ģà¸Ĺà¸ĩà¸ļà¸Ńà¸¥": 8151,
      "à¸°à¸ª": 8152,
      "à¸Ńà¸¡à¸¡": 8153,
      "à¸Ľà¸£à¸²à¸ģà¸²à¸£": 8154,
      "à¸ĺà¸£à¸£à¸¡à¸Ķà¸²": 8155,
      "à¹Ħà¸ĭà¸ª": 8156,
      "à¸įà¹Ģà¸ª": 8157,
      "Ġà¹ģà¸Ĭà¸¡à¹Ģà¸Ľ": 8158,
      "à¸¨à¸ŀ": 8159,
      "à¸ĵà¸łà¸²à¸ŀà¸Ķ": 8160,
      "ĠAmer": 8161,
      "Ġtingog": 8162,
      "ĠNe": 8163,
      "àºĪàº²àº¥": 8164,
      "asalamat": 8165,
      "Ġà¶ĳà¶ļà¶º": 8166,
      "Ġlibre": 8167,
      "à¹Ģà¸Ńà¸²à¸Ĭà¸Ļà¸°": 8168,
      "à¸ªà¸°à¸Ķà¸§à¸ģà¸ªà¸ļà¸²à¸¢": 8169,
      "à¸§à¸¢à¹Ģà¸«à¸ķ": 8170,
      "à¸¢à¸Ļà¸§": 8171,
      "ĠÄĳ": 8172,
      "ĠLife": 8173,
      "Ġà¶¢à¶±à¶´à¶Ń": 8174,
      "àº°àºģàº³": 8175,
      "ĠGreen": 8176,
      "press": 8177,
      "ĠSP": 8178,
      "Ġà¶ħà·ħ": 8179,
      "Ġvar": 8180,
      "anyag": 8181,
      "fi": 8182,
      "uhaan": 8183,
      "Ġkaliwat": 8184,
      "à¹ĥà¸Ļà¸ĩà¸²à¸Ļ": 8185,
      "Ġà¹Ĥà¸¡": 8186,
      "Ġapp": 8187,
      "Ġespesyal": 8188,
      "lang": 8189,
      "Ġpubl": 8190,
      "à»ĤàºĬ": 8191,
      "à¸Ķà¹Ģà¸¡": 8192,
      "à¹Ģà¸Ħà¸Ĭ": 8193,
      "à¹ģà¸Łà¸Ļà¹Ģà¸ŀ": 8194,
      "à¸Īà¸§": 8195,
      "à¸ģà¸²à¸£à¹ĥà¸«": 8196,
      "Ġà¸¡à¸²": 8197,
      "à¸Ĺà¸³à¸«à¸Ļ": 8198,
      "Ġprocjeni": 8199,
      "ceb": 8200,
      "888": 8201,
      "àº°àº«àºĻàº²àºĶ": 8202,
      "DA": 8203,
      "Ġapil": 8204,
      "Usa": 8205,
      "ĠàºŃàºŃàºģ": 8206,
      "kan": 8207,
      "Ġ....": 8208,
      "ĠÃĸ": 8209,
      "Ġproseso": 8210,
      "à¸Ļà¸ľà¸¡": 8211,
      "à¸ŀà¸ĺ": 8212,
      "à¸ªà¸ĸà¸²à¸ļ": 8213,
      "à¸Īà¸ª": 8214,
      "à¸ªà¸³à¸Ń": 8215,
      "à¸Ńà¸ł": 8216,
      "Ġà¸Ĺà¸³à¹Ħà¸¡": 8217,
      "à¸£à¸²à¸ªà¸²à¸Ĺ": 8218,
      "Ġà¶¸à¶±à·ĥ": 8219,
      "Ġnahitabo": 8220,
      "Ġtubag": 8221,
      "obile": 8222,
      "ĠAwst": 8223,
      "ven": 8224,
      "àºŃàºĩàºļ": 8225,
      "title": 8226,
      "àºģàºªàº²àº«àº²àº¥": 8227,
      "Ġà¸ļà¸Ļ": 8228,
      "apat": 8229,
      "eter": 8230,
      "à¸Ńà¸ªà¸¡": 8231,
      "à¸Ķà¹Ģà¸ķ": 8232,
      "àº§àºįàºŀ": 8233,
      "à¹Ĥà¸Ĺà¸£à¸Ĺ": 8234,
      "Ġnahimo": 8235,
      "àºĽàº²àºģ": 8236,
      "Ġist": 8237,
      "BC": 8238,
      "àºĪàº°à»ĦàºĶ": 8239,
      "ĠSugbo": 8240,
      "à¹Ģà¸Īà¸Ńà¸ģ": 8241,
      "à¹Ĥà¸¡à¸Ĺ": 8242,
      "à¸ĩà¹Ħà¸Ĺà¸¢": 8243,
      "Ġà¸Ńà¸ĩà¸¨": 8244,
      "ĠàºŃàº²à»Ģàº¡": 8245,
      "ĠBal": 8246,
      "isgot": 8247,
      "àº²àºĻàº¢": 8248,
      "àºļàºĶ": 8249,
      "Ġmosunod": 8250,
      "Äįkoj": 8251,
      "Ġà·ĥà¶»à·ĥ": 8252,
      "àºŃàºĻàºŀ": 8253,
      "ĠSr": 8254,
      "àºĶàºģàºŃàºĩàºĽàº°àºĬ": 8255,
      "à¸ĵà¸ŀ": 8256,
      "à¹ģà¸ļà¸ļà¸Ĺ": 8257,
      "àº°àºĬ": 8258,
      "àºªàº²àºģ": 8259,
      "àº§àºįà»ĥàº«": 8260,
      "ĠCenter": 8261,
      "ates": 8262,
      "lack": 8263,
      "Ġpanimalay": 8264,
      "ĠPres": 8265,
      "Ġà¶¯à¶©": 8266,
      "udyante": 8267,
      "à¸Ńà¸¨": 8268,
      "àº²àºįàºģ": 8269,
      "àºŃàº®": 8270,
      "àºĽàº°àºģàºŃàºĻ": 8271,
      "àº²àºĩàºĦàº§àº²àº¡": 8272,
      "àº³àºĻàº²àºĶ": 8273,
      "iday": 8274,
      "à¹Ģà¸Ńà¸²à¸¡": 8275,
      "à¸²à¸§à¸Ļà¸²à¸Ļ": 8276,
      "à¸ģà¸²à¸£à¸Ľ": 8277,
      "à¸Ńà¸ĩà¸Ħà¸£": 8278,
      "saluran": 8279,
      "ingg": 8280,
      "àºªàº°àºĸàº²àºĻàºĹ": 8281,
      "à¶¹à¶½": 8282,
      "àº²àºĻàºĤ": 8283,
      "Ġà¶µ": 8284,
      "111": 8285,
      "Ġà¶¢à¶ºà·ĥ": 8286,
      "ĠJohn": 8287,
      "Ġmih": 8288,
      "àº²àºįàº¢": 8289,
      "ikong": 8290,
      "Ġà¸Ŀà¸£": 8291,
      "à¸£à¸²à¸§": 8292,
      "à¸Ńà¸ĩà¸ģà¸¥": 8293,
      "à¸²à¸ĩà¸Ńà¸¢": 8294,
      "à¸Ļà¸ªà¸°": 8295,
      "à¸ģà¸²à¸£à¹Ģà¸Ĥ": 8296,
      "à¸ģà¸©à¸£": 8297,
      "uhaton": 8298,
      "Ġà¹Ĥà¸Ķà¸¢à¹ĥà¸Ĭ": 8299,
      "Ġginikanan": 8300,
      "ĠOpÅ¡tina": 8301,
      "à·Ģà¶Ńà¶Ń": 8302,
      "ĠSemalt": 8303,
      "ĠMore": 8304,
      "Tags": 8305,
      "HE": 8306,
      "ĠLED": 8307,
      "Ġpatay": 8308,
      "Ġbase": 8309,
      "zz": 8310,
      "àºĶà»ľ": 8311,
      "ĠphÆ°á»Ŀng": 8312,
      "à¹Ģà¸ģà¸¡à¸Ĺ": 8313,
      "à¹Ģà¸ĺà¸Ĭ": 8314,
      "à¸Ķà¹Ģà¸«à¸ķ": 8315,
      "kong": 8316,
      "pat": 8317,
      "we": 8318,
      "àºĩàºĦàº§àº²àº¡": 8319,
      "àºŃàºĻàºĤàºŃàºĩ": 8320,
      "à¸Ļà¸ļà¸²à¸Ħà¸²à¸£": 8321,
      "à¸¨à¸²à¸ªà¸Ļà¸²": 8322,
      "à¸ĩà¸Ĩ": 8323,
      "Ġà¹Ģà¸«à¸ķ": 8324,
      "à¸²à¸£à¸²à¸Ĭà¸ģà¸²à¸£": 8325,
      "à¸Ķà¸«à¸¡à¸²à¸¢": 8326,
      "à¸Ĥà¸ĵà¸°à¸Ļ": 8327,
      "à¸Īà¸Ń": 8328,
      "Ġà¹ģà¸Ľ": 8329,
      "Ġpari": 8330,
      "Ġà¶ħà·ĥà¶±": 8331,
      "Ġtamb": 8332,
      "âĤ¬âĤ¬âĤ¬âĤ¬âĤ¬âĤ¬âĤ¬âĤ¬âĤ¬âĤ¬âĤ¬âĤ¬âĤ¬âĤ¬âĤ¬âĤ¬": 8333,
      "uki": 8334,
      "à¶ķ": 8335,
      "Ġsit": 8336,
      "ugas": 8337,
      "à»ģàºĹàºĻ": 8338,
      "eme": 8339,
      "FF": 8340,
      "àº²à»ĢàºĤ": 8341,
      "à¸Īà¸²à¸Ħ": 8342,
      "à¸ģà¸²à¸£à¸Ķà¸³à¹Ģà¸Ļ": 8343,
      "à¸ļà¸Ħà¸²à¸ª": 8344,
      "à¸ģà¸£à¸°à¸Īà¸²à¸¢": 8345,
      "à¸Ńà¸Ļà¸ŀ": 8346,
      "àºŃàºĻàºª": 8347,
      "Ġàº¡àº²àºĶ": 8348,
      "Ġpagpa": 8349,
      "àº½àº§àºĬ": 8350,
      "Ġà¶Ķà¶´": 8351,
      "ones": 8352,
      "Ġà¶ĳà¶Ńà¶±": 8353,
      "-.-âĹ¼-.-âĹ¼-.-âĹ¼-.-âĹ¼-.-âĹ¼-.-âĹ¼-.-âĹ¼-.-âĹ¼": 8354,
      "Ġdali": 8355,
      "Ġsex": 8356,
      "lex": 8357,
      "ious": 8358,
      "Ġgrupo": 8359,
      "à¸ļà¸²à¸ĩà¸ª": 8360,
      "àº²àºĩàºĽàº°": 8361,
      "à¹Ģà¸Ĺà¸£": 8362,
      "Ġà¹ģà¸¥à¸°à¸Ķ": 8363,
      "ikulo": 8364,
      "Ġà¸ªà¸ĸà¸²à¸Ļ": 8365,
      "Ġbulawan": 8366,
      "Ġà¶Ĭà¶±": 8367,
      "àº®àºŃàºļ": 8368,
      "Ġàºģàº²àºĻàºŀ": 8369,
      "à¶ľà¶«à¶ļ": 8370,
      "Ġgihatagan": 8371,
      "Ġproy": 8372,
      "Ġnil": 8373,
      "2007": 8374,
      "å¥": 8375,
      "à¸ĩà¸ł": 8376,
      "à¸ĩà¸Ħà¸Ļ": 8377,
      "Ġà¹ģà¸Ńà¸ļà¸ĸ": 8378,
      "Ġestudyante": 8379,
      "à¸¡à¹Ģà¸Ĥ": 8380,
      "à¸ªà¸ĩà¸ª": 8381,
      "à¸²à¸Ĭà¸¡": 8382,
      "à¹Ĥà¸Ľà¸£à¹ģà¸ģà¸£": 8383,
      "à¹Ĥà¸ª": 8384,
      "à¸ķà¹Ģà¸Ļ": 8385,
      "Ġnamo": 8386,
      "par": 8387,
      "ĠÄį": 8388,
      "isc": 8389,
      "ĠBen": 8390,
      "awala": 8391,
      "ulatan": 8392,
      "Ġmakas": 8393,
      "aham": 8394,
      "ĠTV": 8395,
      "ĠPe": 8396,
      "àºŃàºĩà»ĥàº«": 8397,
      "à¶ºà¶½à¶º": 8398,
      "à¸ģà¸©à¸²à¸Ľ": 8399,
      "à¸ªà¸Ļà¹Ģà¸Ĺà¸¨": 8400,
      "à¹Ĥà¸Ľà¸£à¸Ķ": 8401,
      "à¸¸à¹ĭ": 8402,
      "ocial": 8403,
      "Ġà¸ģà¸£à¸ĵ": 8404,
      "à¹Ħà¸ĭà¸Ħ": 8405,
      "àºļàºĤàºŃàºĩ": 8406,
      "ts": 8407,
      "àºĻàºĽàº°à»ĢàºĹàºĶ": 8408,
      "ĠDon": 8409,
      "anses": 8410,
      "Ġà¶»à¶¢à¶Ń": 8411,
      "Ġkalag": 8412,
      "Ġkalipay": 8413,
      "ĠMicrosoft": 8414,
      "133": 8415,
      "himo": 8416,
      "à¸ģà¸£à¸°à¹Ģà¸Ĺ": 8417,
      "à¸ļà¸²à¸ĩà¸Ńà¸¢": 8418,
      "Ġgamiton": 8419,
      "à¸§à¹Ģà¸ģ": 8420,
      "Ġà¸¢à¸²à¸ĩ": 8421,
      "à¸«à¸²à¸£à¸Ī": 8422,
      "à¸ģà¸¥à¸¡": 8423,
      "Ġà¸Ĥà¸Ń": 8424,
      "An": 8425,
      "àº§à»ĦàºĽ": 8426,
      "Ġà¶¯à·ĥ": 8427,
      "IP": 8428,
      "àºĶà»ĢàºĬ": 8429,
      "Ġgubat": 8430,
      "abuhi": 8431,
      "Re": 8432,
      "à·Ĥà¶ºà¶§": 8433,
      "à¸§à¸¢à¸ĭ": 8434,
      "à¸Ļà¸Ħà¸Ļà¸Ĺ": 8435,
      "à¹ģà¸¥à¸°à¸ģ": 8436,
      "àºĶàºķàº°àºŀàº²àºļ": 8437,
      "ealth": 8438,
      "à¶±à¶ľà¶Ń": 8439,
      "à¶«à¶¯": 8440,
      "Ġà¸ªà¸¡à¹Ģà¸Ķ": 8441,
      "àºªàº°àºĶàº§àºģ": 8442,
      "Ġluwas": 8443,
      "ĠWe": 8444,
      "à¶¥à¶ºà¶±": 8445,
      "à¹ģà¸¥à¸°à¹Ħà¸¡": 8446,
      "à¸Ķà¸Ħà¸£": 8447,
      "à¸Ħà¸§à¸²à¸¡à¸Ķ": 8448,
      "à¸Ļà¹ģà¸Ļ": 8449,
      "Ġà¹ģà¸¥à¸°à¸ĸ": 8450,
      "Ġmus": 8451,
      "ĠopÅ¡tinsk": 8452,
      "à¸Ľà¸ª": 8453,
      "ĠàºĻàº²àºį": 8454,
      "Ġtur": 8455,
      "à»ĢàºªàºįàºĬ": 8456,
      "Ġmilyon": 8457,
      "à¶¢à·Ģ": 8458,
      "ĠSte": 8459,
      "IV": 8460,
      "ablo": 8461,
      "erkado": 8462,
      "à¶»à·Ħà¶º": 8463,
      "à·Ĭ\"": 8464,
      "ingkod": 8465,
      "Ġmata": 8466,
      "àºĩà»Ģàº®": 8467,
      "à·ĥà·Ħ": 8468,
      "Ġà¶Ķà¶½": 8469,
      "à¹Ĺ": 8470,
      "à¸²à¸ĩà¹ĥà¸Ķ": 8471,
      "à¸Ļà¸ªà¸ĸà¸²à¸Ļà¸Ĺ": 8472,
      "Ġà¸Ľà¸£à¸°à¸ª": 8473,
      "à¸ģà¸²à¸£à¸ĸ": 8474,
      "Ġà¹Ĥà¸Ľà¸£à¹Ĥà¸¡à¸Ĭ": 8475,
      "à¸Ļà¹Ģà¸§à¸¥": 8476,
      "à¸Ħà¸§à¸²à¸¡à¸Ľà¸¥à¸Ńà¸Ķà¸ł": 8477,
      "Ġà¹ģà¸ĭ": 8478,
      "à¸ĩà¸£à¸ĸ": 8479,
      "à¸²à¸Ĥà¸²à¸¢": 8480,
      "à¹ģà¸Ļà¸§à¸Ĺà¸²à¸ĩ": 8481,
      "Ġhiman": 8482,
      "125": 8483,
      "âĺĢâĺĢâĺĢâĺĢâĺĢâĺĢâĺĢâĺĢ": 8484,
      "ĠChang": 8485,
      "Ġkaugalingong": 8486,
      "ĠàºŃàº²": 8487,
      "à¶ħà¶¸": 8488,
      "àºĩà»ģàº¥àº°": 8489,
      "à¶ľà¶½à¶±": 8490,
      "Ġesk": 8491,
      "rade": 8492,
      "anao": 8493,
      "à·Ģà¶¸à¶±": 8494,
      "à¸¡à¸ªà¸³à¸«à¸£": 8495,
      "Ġà¸Ĭà¸²à¸§": 8496,
      "à¹Ĥà¸Īà¸Ĺà¸¢": 8497,
      "à¸²à¹Ģà¸ĩ": 8498,
      "à¸Ńà¸Ļà¹Ģà¸Ľ": 8499,
      "à¸Īà¸£à¸£à¸¢": 8500,
      "à¸ģà¸²à¸£à¸ľà¸¥": 8501,
      "jj": 8502,
      "Ġpero": 8503,
      "àº·à»īâĢĭ": 8504,
      "Ġpresyo": 8505,
      "Ġpad": 8506,
      "180": 8507,
      "ski": 8508,
      "Ġaduna": 8509,
      "Ġkusog": 8510,
      "à¸Ńà¸ķà¸ģà¸¥": 8511,
      "à¸¡à¸²à¸ĸ": 8512,
      "à¸ļà¸£à¸£à¸Ķ": 8513,
      "à¹ģà¸¥à¸°à¸¢": 8514,
      "Ġà¶´à·Ħà¶½": 8515,
      "Ġprof": 8516,
      "ĠPin": 8517,
      "àºĤàº°àºŀàº²àºļ": 8518,
      "àºŀàº°àºįàº²àºįàº²àº¡": 8519,
      "à¶©à¶»": 8520,
      "andi": 8521,
      "à¶¯à¶»à¶º": 8522,
      "ugan": 8523,
      "àºģàºŃàºĩàºĹ": 8524,
      "imal": 8525,
      "iktima": 8526,
      "ilhan": 8527,
      "cel": 8528,
      "àº¥àº§àº¡": 8529,
      "àºģàº²àºĻàºĶ": 8530,
      "vent": 8531,
      "Ġproyekto": 8532,
      "umdom": 8533,
      "adlaw": 8534,
      "%,": 8535,
      "Ġà¶½à¶Ł": 8536,
      "à¹ĺ": 8537,
      "à¸ĩx": 8538,
      "à¸ļà¹Ĥà¸¥à¸ģ": 8539,
      "à¹ĥà¸Ļà¸ģà¸¥": 8540,
      "Ġà¹ģà¸£à¸ĩ": 8541,
      "Ġà¹Ĥà¸¥": 8542,
      "à¸§à¸ĩà¸§": 8543,
      "à¹ĥà¸Īà¸Ĺ": 8544,
      "à¸Ļà¸ķà¸ģ": 8545,
[...]
