#version: 0.2
Ġ Ð
Ð ¾
Ð µ
Ð °
Ð ¸
Ñ Ĥ
Ð ½
Ñ ģ
Ñ Ģ
Ð¾ Ð
Ġ p
i n
Ġ s
Ð »
Ġ a
Ġ d
Ä ĥ
r e
r i
Ð º
t e
Ñ ĥ
a i
Ġ c
t i
Ñ ĭ
Ñ ı
a s
Ä Ĺ
Ð ¼
e n
Ð ²
Ġ n
Ġ m
a l
Ġ k
r a
o s
ĠÐ ¿
Ñ Į
Ġ v
Å ³
Å ¡
t a
Ð ´
Ñģ ÑĤ
u s
u l
Ġd e
Ġ i
t o
i e
ĠÐ ²
Ñ ĩ
Ġ l
a n
a r
Å ¾
Ġ Ñģ
Ðµ Ð½
i s
i a
ÑĢ Ð°
o n
ĠÐ ½
Ð¾Ð ²
ĠÐ ¸
Ð ·
u n
â Ģ
Ġ b
l e
o r
Ġ Ã
e s
Ñ ħ
Ġ t
Ð ¿
i m
ĠÐ ¾
r o
ĠÃ ®
Ð ¹
Ä ħ
Ð ±
Ġ f
Ġ g
e r
ĠÐ º
o m
a m
ĠÃ® n
ÑĢ Ðµ
Ð ³
a u
Ðµ ÑĤ
l i
Ä į
ĠÐ ´
Ð½ Ð¸
Ð¾Ð »
t u
Ä ¯
Ġi r
Ð½ Ñĭ
c i
Ñ İ
a t
Ġ o
Ð¾Ð ¼
Ð¾ ÑĢ
ÑĤ Ðµ
Ð¾Ð ´
a re
r u
Ġ j
Ġ âĢ
Å «
ĠÐ ¼
Ð½ Ð¾
Ñ Ī
È Ľ
Å £
Ġn e
Ð» Ð¸
ĠÐ½ Ð°
Ñ Ĩ
Ġ e
Ð ¶
Å Ł
Ð¾Ð ³
u i
ÄĹ s
È Ļ
ÑĢ Ð¸
a d
Ã ¢
Ð» ÑĮ
Ð½ Ð°
i l
Ñģ Ðº
Ð» Ð°
en t
u m
Ġ P
Ð¾Ð ¹
e i
i Å³
ÑĤ ÑĮ
ÐµÐ½ Ð¸
e l
Ġ re
u o
ÑĤ Ð°
Ġs u
v o
Ġ S
Ã ¡
j e
Ġ (
ĠÐ ±
Ðµ ÑĢ
Ġp a
c e
Ġl a
Ġ A
i o
u r
Ðº Ð°
Ġ in
Ð¾ ÑĤ
Ġ Ä¯
i r
t in
Ñ ī
ĠÐ ·
. .
c h
Ġ Ñĥ
u ri
Ð² Ð°
o v
Ñ Ħ
Ġp ri
Ġ T
Ġ M
Ñģ Ñı
i t
Ġ Å¡
á »
i k
Ġp o
ĠÐ½ Ðµ
e t
ÑĤ Ð¾
Ġ C
Ġ D
d e
ÅŁ i
Ã¢ n
Ðµ Ð¼
ÑĢ Ð¾
ÑĤ Ð¸
ÈĻ i
Ð» Ñı
Ġa p
Ġp ro
o k
Ġi Å¡
o l
Ġc u
Ð¾Ð³ Ð¾
ĠÐ ³
i i
Ġs a
i c
Ġ Ñĩ
i ai
Ġ te
ÑĨ Ð¸
Ġ un
Ðº Ð¸
ĠÐ¿ Ð¾
Ġ ti
Ġs Äĥ
Ð¾Ð ±
Ð» Ðµ
Ġ V
2 0
Ġs e
Ġd in
Ġ Å¾
Ġ ÅŁi
ÑĢ Ñĥ
ĠÐ· Ð°
t Äĥ
Ġ ÑĢÐ°
Ġ ÈĻi
ĠâĢ ĵ
Ġ B
Ġ L
Ñ į
Ġ to
Ð¼ Ð¸
Ġa t
Ð´ Ð°
Ð¾ Ð½
Ġp as
s i
Ġ ÑĤ
Ġp e
Ġ -
ÑģÑĤ Ð°
Ġn u
r in
Ð¾Ð² Ð°
Ġ z
p e
Ġp re
k o
i en
al i
ÄĹ j
ÑģÑĤ Ð²
Ä Ļ
Ġ K
ĠÐ °
ul ui
l a
t y
ent ru
Ġ N
Ġ ta
Ġ R
a te
Ġc are
Ã Ń
Ð¾Ð º
Ð¾Ð ¶
Ġ u
m e
i d
ra n
j a
m a
Ġa u
Ġ Ñį
Ġa r
o d
ĠÐ »
ai s
Å¡ k
Ġa n
ĠÐ¾ Ð±
Ġp entru
ĠâĢ ŀ
ÑģÑĤ Ð¸
i u
Ã ½
Ġ I
Ġa c
v e
es te
ia u
ĠÐ¾ ÑĤ
n e
Ñĩ Ðµ
Ð´ Ðµ
c Äĥ
Ġc Äĥ
ĠÐº Ð°
ÈĽ i
ĠÐ Ł
ĠÐ Ĵ
Ġs p
m o
t Å³
j os
Ġc on
e d
á º
ĠÐ¿ ÑĢÐ¸
ĠÐ ¡
v a
Ġc e
Ġ J
t as
v i
Ð¾Ð» ÑĮ
re a
Ġ E
Ñĩ Ð¸
Ð² Ð¸
Ð¼ Ð°
Ð¾ Ñģ
Ġm ai
e m
ai p
k i
âĢ ľ
n g
ÐµÐ½Ð¸ Ñı
Å£ i
in e
y b
Ġa l
Ð½ Ðµ
Ñĩ Ð°
Ã ©
in k
r Äĥ
Ġ G
Ð· Ð°
Ð½Ñĭ Ñħ
Ð¾Ð ·
Ñģ Ð¸
Ġk ad
au g
s t
Ð½Ñĭ Ðµ
im o
d a
Ġn a
to ri
Ġ h
ĠÐ² Ñĭ
Ð´ Ð¸
m p
l o
20 1
Â Ń
to r
0 0
Ġd ar
u t
us i
k y
Ð½ Ð¾Ð¹
.. .
Ġp er
a z
in g
Ð¾Ð ¿
Ġ y
ĠÐ µ
Ġs i
ĠÐ ļ
Ġv is
ÑĤÐµ Ð»ÑĮ
Ã º
Ñģ Ð¿
k s
a Å¾
d o
ti s
ÑģÐº Ð¸
Ġp ar
ĠÐ¿ ÑĢÐ¾
ta te
g i
Ñģ Ðµ
Ġu Å¾
Ġ este
Ð½Ñĭ Ð¹
Ð½ Ð¾Ð³Ð¾
Ġb u
Ġ ÑĢÐµ
Ġ Ä
Ġk uri
d i
k a
o c
al e
ÄĹ l
ĠÐ¿ ÑĢ
v en
Ð³ Ð¾
t re
Ġ Å
Ðµ Ð¹
ÑģÑĤ ÑĮ
ÑĢÐµ Ð´
ĠÐ¸ Ð·
Äį i
Ġ Â
a ri
Å ¥
t r
ÑĪ Ð¸
j o
Ġs k
Ñĥ Ñİ
Ġy ra
Ġ ÑĦ
z i
Ñī Ð¸
te r
Ð³ Ð°
d u
Ġ r
os t
n i
ĠÐ ľ
an d
a p
1 9
ai k
ĠÐ Ŀ
m i
u p
Ġ ÑģÑĤ
Ġd o
ÐµÐ½Ð¸ Ðµ
s ta
Ġb Å«
t ra
Ġ "
b a
os e
ĠÐ ¶
ĠÐ´ Ð»Ñı
Ġ ÑĤÐµ
e ri
Ġti k
Ð° Ð½
b i
Ġ F
Ġf i
k l
j Å³
Ġ ÑĤÐ°
Ñİ ÑĤ
e a
Ġc h
a k
ĠÐ¿ Ð¾Ð´
y s
âĢ Ŀ
g a
e le
Ð° Ð¼
Ġ O
Ġg al
ĠÑĩ ÑĤÐ¾
s p
ÑĢ Ñĭ
ĠÐ ŀ
Ġ ra
ie tu
ĠÑĢÐ° Ð·
Â »
Ðº Ð¾
ÐµÑĤ ÑģÑı
l or
ĠÐ¼ Ð°
Ð¼ ÐµÐ½
Ðº Ñĥ
Ð ¡
i g
ie k
Ġ ro
c a
d in
Ġp l
Ð¿ Ð°
t ul
Ð» Ð¾
ĠÐ Ķ
i ci
Ð¼ Ðµ
m s
Ġc a
ĠÐ ł
Ġn o
Ðº ÑĤ
ĠÐ± Ñĭ
Ð ŀ
ĠÑģ Ð²
m en
ĠÐ Ĳ
d y
b o
d Å¾
Ġe x
z a
Ġn uo
ĠÑģ Ð¾
Ð» Ñĥ
Ðµ ÑĢÐµ
Ġp ra
b u
Ð½Ð¸ Ñı
Ð¾Ð´ Ð¸
are a
im as
Ã¢n d
Ġa s
Ġ U
Ġp at
ri i
u k
Ð Ł
Ð³ Ð¸
m in
ri e
Å« s
Ð¶ Ðµ
Ġs un
Ñģ Ð°
ie s
u b
an t
Ñģ ÑĮ
Ñī Ðµ
f or
r as
s k
Ð² Ðµ
ĠÂ «
c u
Ġm e
Ġpri e
ia us
Ġt re
t Äħ
ĠÐ¿ Ð¾Ð»
at Äĥ
ÑĪ Ðµ
v ar
Ġv y
Ñĭ Ðµ
Ð Ĵ
ti k
Ġf a
ĠÐ ĺ
Ñĥ ÑĤ
Ġc om
ĠÐ ¢
Äį iÅ³
Ð½Ð° Ñı
g al
) .
te n
Ġ Ñħ
Ð¾Ð´ Ð°
m on
Ð¿ Ð¸
in a
o p
Ġv al
Ġl e
m as
ÑĨÐ¸ Ð¸
v er
v os
Å« r
ÑĢ Ð¾Ð²
an i
Ġf ost
Ġd a
Ġt ai
) ,
ÑģÑĤ Ð¾
ĠÄ ĳ
Ð½ Ñı
Ġs ta
a us
ĠÐ¸ Ð½
ĠÐº Ð¾ÑĤ
j am
il or
o g
Ð¸ Ð·
Ġbu vo
Ġn au
l u
Ð Ĳ
Ð½ Ð¾Ð²
Ġm ok
Ġa le
Ġ H
Ġm et
h o
ÑĤ Ñĭ
n a
v y
Ġg y
Ðº Ð¾Ð²
v ai
re s
Ġ or
Ġs au
Ñĥ Ð´
om en
Ã ł
Ġk ar
Ġv ien
Ð ļ
f e
ĠÅ ł
ĠÐ¿ ÑĢÐµÐ´
Ġ Ñı
Ð½Ð¾ Ðµ
1 0
Ð Ŀ
e li
ÄĹj o
p a
z e
ĠÐ ĳ
re n
ĠL ietu
os i
Ġn es
Ð» ÐµÐ½
Ä ¾
ÑģÐº Ð°
Ð½Ð¸ Ðµ
Ġm o
Ġm ul
in i
ĠÐ² ÑģÐµ
Ã ´
Äį iau
Ġv a
Ġa m
ĠÐ´ Ð¾
ÑĤ Ð¾Ð¼
Ġk aip
Ð· Ð¸
ĠÐ¼ Ðµ
b ai
t ai
Ġsa vo
n o
Ġp rin
Ġd i
Ġd aug
Äį ia
ĠÐºÐ° Ðº
Ð¶ Ð¸
ĠÐºÐ¾ÑĤ Ð¾ÑĢ
g e
i te
Ġm ed
Ñĭ Ñħ
Ġm in
j Äħ
Ġo b
t ri
v al
Ġv e
d am
Ð½ Ð¾Ð¼
i Å¡k
İ n
ÄĹ m
ÑĢÐ° Ð²
t os
Ñ ĳ
Ð° ÑĢ
Ð¾ Ðµ
ĠÑĤÐ° Ðº
ĠÐº Ð¾Ð¼
om is
Ðµ Ðº
Ġsun t
Ð» Ð¾Ð²
s ti
Ġk on
v in
Ð½Ñĭ Ð¼
al Äĥ
ta n
Ðµ Ð·
p o
Å£ ii
ĠÐ» Ð¸
ie i
Ñĭ Ð¹
un e
Ð´ Ñĥ
Ð ĺ
Ð° Ð»ÑĮ
ĠÐ´ Ðµ
ÈĽ ii
Ġm a
Ġp u
Ġ ÑģÑĤÐ°
ei k
ÑĤ Ñĥ
ÑĨ Ðµ
ĠÐ¼ Ð¾Ð¶
tu ri
Ð» Ñİ
Ð± Ð¾
u ro
Ġt h
ÑģÑĤÐ² ÐµÐ½
Ġd al
Ġv ie
g ra
ta t
g u
ta r
s e
ci jos
y g
m Äħ
Å¾ i
ÄĹ ti
ti v
Ġb et
ÑĢ Ð¾Ð²Ð°
en d
Ð½Ð¾ ÑģÑĤÑĮ
ÄĹ je
im Äħ
Ġd u
ÐµÐ½ ÑĮ
c es
ĠÐº Ð¾Ð½
Ð½Ð¾ ÑģÑĤÐ¸
ÑĢ Ñı
Ġac es
ÑĩÐµ ÑģÐºÐ¸
ĠÐ ĵ
Ð¸ Ð½
ĠÑģ Ð¿
ra t
ÑģÑĤÐ° Ð²
in ti
Ñģ Ñģ
ÑĤ Ð¾ÑĢ
Ġre ik
Ġa k
un g
in ÄĹs
s a
Ġt ur
in iÅ³
ÑĤÑĮ ÑģÑı
ÄĻ s
Ġap ie
te le
Ġp r
Ġg ali
Ġa d
Æ °
l as
Ð¶ Ð°
im a
Ã½ ch
Ð ¢
e k
in o
ÑģÑĤ Ð²Ð°
az Äĥ
Ð ľ
. ,
Ġj e
Ð ł
ĠÑģ Ð¸
Ġs c
Ðº Ðµ
k u
Ġm i
Ġ ur
ĠÐ¸ Ð»Ð¸
Ġa j
Ġs us
b e
Ġp ad
Ġp ir
Ð¾ Ð½Ð°
ÑģÐº Ð¾Ð¹
iai s
ÐµÐ½ ÑĤ
o ri
to j
Ġk om
ra Å¡
- -
20 0
am e
Å«s Å³
Ġpas i
b il
Ġd is
Ġj u
ti c
i le
ÑĢÐ° Ð½
Ã¢ t
Ġta r
Ñĥ ÑĢ
Ð± Ð¸
Ġv er
ĠÐ¾ Ñģ
âĢ ¦
Ġa ce
te ri
ÑĦ Ð¸
Ð· Ñĭ
Ġk ai
Ġb ei
1 5
ÑĪ Ð°
c t
ĠÐ² Ð¾Ð·
ĠÐ Ĺ
y ti
Ð¾Ð³ Ð¸
Ð² ÐµÑĢ
m ul
ra u
Ġs pe
it Äĥ
f ic
Ġf or
Ġs o
Ġn um
Ġt r
m Äĥ
Å£ Äĥ
el or
ĠÑį ÑĤÐ¾
Ġl u
s o
Ð° Ð¹
Ġl oc
ĠÐ² Ð°
Ð Ķ
li o
Ġ Äį
m b
ĠÐ¾ Ð¿
Ã ³
Ð° Ðº
Ġb e
1 2
ÈĻ ti
ÅŁ ti
ĠÐ £
Ġm an
Ð² ÐµÑĤ
Ġne p
Äĥ r
k as
Ġgy ven
Ġj au
la us
tate a
Äį io
n Ã©
Ġ ÑĤÐ¾
ĠâĢ Ķ
ĠÐ½ Ð¸
ub li
ĠÐ² Ðµ
li Å³
ĠÐ² Ð¸
Ġin ter
ÑĢÐ° Ð·
Ġor g
j i
on al
ĠÐ¿Ð¾ Ñģ
ÈĽ Äĥ
Ġt uri
Ð ķ
Ġf o
Ð¾Ð»ÑĮ ÐºÐ¾
i p
m Ã¢n
ĠÐ½ Ð¾
1 8
Ġn or
ÑĤ ÑģÑı
te a
Ñģ Ð»Ð¸
Ġat s
Ð¼ Ð¾
ÑģÑĤÐ² Ð¾
v ie
Ġk o
Ġt aip
k Å¡
y je
k ai
i b
t ÄĹ
Ñī Ð°
d ar
Ð¾ÑĢ Ð¸
ĠÑģ Ðµ
p l
Ġk al
Ġv or
Ð¶ Ð´
Ġk it
ĠÐ¶ Ðµ
Ġ ÑĨ
ĠR om
Ġm od
c o
a v
ol o
z Äĥ
Ð¾ Ð¸
Ġl ui
m an
ĠÐ¿ ÐµÑĢÐµ
Ð¼ Ñĥ
Ñħ Ð¾Ð´Ð¸
Ð¾Ð» Ðµ
ĠLietu vos
Ð± Ð¾ÑĤ
ĠÐ» Ñİ
t us
ĠÐ´ Ð°
d uo
Ġv i
m os
g is
Ġ ÑĢÑĥ
g Äĥ
Ðº Ð¾Ð¼
Ġ |
Ġe le
ĠÐ¿ ÑĢÐµ
Ġde s
d ÄĹ
Ġi mp
ÑĨÐ¸ Ñı
ÑģÐº Ð¾Ð³Ð¾
in io
en i
Ġc re
Ð» ÐµÐ½Ð¸Ñı
Ð½ ÑĥÑİ
te l
im e
ÐµÑĤ Ðµ
Ð° Ð»
ĠÅ¡ i
Ġd id
3 0
ri s
Ġo ri
a un
ĠI n
in is
ĠD e
Ġf ie
Ð¾Ð»ÑĮ Ð·
up Äĥ
ce p
in d
ĠÐ Ľ
Ġf Äĥ
Ġin for
Ð»Ðµ Ð¹
ĠÃ İn
Ġ ru
an e
Ġau to
Ð¾ Ñĩ
en e
Ð½ Ñĥ
ĠÅ¡ al
Ġl ai
is te
am a
as i
Ā Ā
ĠÐ± ÑĥÐ´
m Å³
Ġd ÄĹl
o je
Ġt ra
am s
in ink
Ġk ok
ic Äĥ
t ro
Ð± Ðµ
ÑĤÐ¸ Ð²
Ġpa g
n y
ar Äĥ
ki te
ci al
Ð¾Ðº Ð°
Ġla bai
Ġo d
c ul
ÑĨ Ð°
Ð¾Ð» Ð¸
v ir
Ġd ien
in ÄĹ
Ñı ÑĤ
ÈĽ ie
Ġc um
Ġ es
Ã ®
c ut
a b
Å£ a
ĠÐ ķ
ÅŁ te
Ġ ,
ĠÑģ Ð°Ð¼
an a
ÑĢÐµ Ð¼
jo je
p i
Ġpo li
d us
Ð¾Ð´ Ñĥ
âĢľ ,
ci ja
Ġorg ani
ÈĻ te
ĠÐ ¤
Å¾ ia
Ġsu p
ĠÐ¼ Ð¸
1 1
Ġm aÅ¾
Ġj Å³
Ġj o
Ġc o
Ñ Ĭ
m u
Ġ /
ĠÐĿ Ð°
al a
ar te
Ð»Ðµ Ð´
Ġk ur
ĠA n
Ġc el
ty b
Ġv o
Ġi ki
ÑĦ Ð¾ÑĢ
ĠÐ´ ÑĢÑĥ
k e
Ġk as
ti es
d en
Ġ ÑĪ
Ġv ad
bi li
ĠÐµ Ð³Ð¾
Ġa f
t ru
Ġde c
ch i
Ġk i
Ñĥ Ñĩ
Ġ rÄĥ
Ġar ba
ÑģÑĤÐ² Ð¸
a ra
a ul
Å£ ia
ĠÑĩ Ð°
Äįi us
ta re
Ġn h
Ġan i
Ð½Ð¸ Ð¼Ð°
un i
Ñİ ÑīÐ¸
Ġv ei
ĠÐ¸ ÑģÐ¿
d om
ĠÅ¾ mon
Ġo f
ĠÐ° Ð²
Æ° á»
ĠÑģ Ñĥ
ov a
Ð¼ ÐµÑĢ
1 4
ĠÐ¾ Ð½
es ti
Ġi ar
Ġb end
Ð¼ Ñĭ
an g
Ð¾Ð± Ñĭ
Ġv ar
ÈĽ ia
Å£ ie
Ġt ran
m ai
je k
ĠÐ Ń
Ġi l
ÑİÑĤ ÑģÑı
ĠÐ´ Ð¸
Ġp al
ÐµÐ½Ð¸ Ð¸
Ð½Ð¸ Ð¸
201 8
Ġl aik
ÑģÐºÐ° Ñı
v el
yb ÄĹs
Ġ Z
ri o
ru p
Ġm u
5 0
l y
1 6
Ġg ra
n h
v ÄĹ
j u
Ġsu k
r ai
Ð½Ñĭ Ð¼Ð¸
ĠÐ¾ Ð´
ÈĽ a
âĢ ŀ
Ñħ Ð¾Ð´
ÑĤÐµ ÑĢ
te ik
Ġv aik
Ġ ÑĢ
n os
ĠbÅ« ti
Ġk tor
Ð± Ð°
ĠR e
Ġte is
Ðµ Ð´
ĠC on
Ġmet Å³
ĠâĢ ľ
Ġpar ti
Ġdar b
ÄĹ g
Ñģ Ñĭ
Ġre z
ĠÐ¿ Ð¾Ð¼
ad a
Ġp Äĥ
Ġce le
ĠÑį ÑĤ
Ð ĳ
on e
ĠN e
Ġpa p
k ov
ĠS e
ÑģÑĤÐ¾ Ñı
ali z
Ġmok y
ĠE uro
Ġm Äĥ
k os
m is
Ġsu b
Ġ W
s Äĥ
Ġ ri
l Äĥ
er g
ĠRom Ã¢n
p or
ĠÐ± Ð¾Ð»ÑĮ
ĠÐ¿ Ð°
Ġpro f
Ġti mp
v Äĥ
ÐºÐ° Ð·Ð°
ÑģÐºÐ¸ Ð¹
ai d
Ñĥ Ð¶
t al
ĠÐ¿ Ðµ
Ġlu c
áº ¡
ĠÐ· Ð½Ð°
ĠÅ ½
in an
il n
Ġpo ate
tu r
k ti
n Äĥ
Ð¾ÑĢ Ð¾
to v
Ðº Ð¾Ð½
en g
on a
ĠÐ± ÐµÐ·
Ġk iek
Ð £
Å« n
Ġne i
1 3
áº ¿
Ġt u
Ġs ti
Ġk eli
j Ãº
r y
Ġn us
v eik
Ġpre z
Ġdal y
Ġinfor ma
to are
Ġpa gal
ÑĤÐµ ÑĢÐ¸
Ñģ ÑģÐ¸
ĠÐ¿ ÐµÑĢ
Ġd upÄĥ
uri le
Ġg re
Ðµ ÑģÐ¿
a g
Ðµ ÑĢÐ°
ĠÐº Ñĥ
ÐµÑĤ Ð°
Å ł
Ð¾Ð³ Ð´Ð°
1 7
Ġp us
Ġme tu
i á»
Ð½Ð¸ ÐºÐ°
ÑģÑĤ Ñĥ
Ġs Äħ
tin g
Ð¼ Ð¾Ð¶
Ã¢ r
ĠÐ §
Ġk e
am i
es n
tu o
ĠÐ¸ Ð³
Ġap s
Ġs en
ÑĤ Ð¾Ð²
ÄĹm is
Ðµ Ð²
Ġf un
r ul
p re
u ose
ĠÐ² Ð¾
i us
Ġaces t
ÑĢÐ° Ð²Ð¸
Ġs usi
im Å³
Ġace as
uo ti
ĠÑģ Ð»Ñĥ
Ð ĵ
in iai
ri le
Ġa re
ĠÐ² ÑĢÐµÐ¼
ti e
ÐµÐ½Ð¸ Ð¹
a c
Ġs iste
ie ms
ĠÑĩ Ðµ
ĠÐ´ Ð¾Ð»
u Äĥ
ĠÃ®n tre
on o
Ġg er
ĠÐ¿ Ð»Ð°
c are
Ġi s
n Ã½
h e
r Ã¡
Ġa b
Ġ ...
Äį iai
Ġa ve
ĠÐ³ Ð¾ÑĢ
m ent
tor ul
Ġs im
Ġnau do
Ġti ek
in Äĥ
ÑĢ Ð¾Ð¼
un Äĥ
1 00
ĠÐĹ Ð°
Ðº Ð¾Ð¹
ÐµÑĤ Ð¸
Ð Ľ
Ġpa k
Ð Ĺ
Ġe l
om e
au k
sti tu
Ġc Ã¢nd
Ġb al
Ġde sp
Ġcom p
Ð¼ Ð¾ÑĤ
Ġb us
as e
v imo
u d
ÑģÑĤ ÑĢÐ°
Ġc op
Ð¾Ñģ ÑģÐ¸
ĠÑĤ Ð¾Ð»ÑĮÐºÐ¾
Ġj is
ĠP o
ÄĹ n
ĠÐ¼Ð¾Ð¶ Ð½Ð¾
Ð¾Ð»ÑĮÐ· Ð¾Ð²Ð°
ĠÐ¿ Ð¸
b le
Ð½Ð¸ Ð¹
om a
Ð² Ð»Ñı
c at
ov an
" ,
Å¾ io
ĠÐ½ Ð¾Ð²
Ġmul t
ĠÐ¼ Ñĭ
2 5
Ġg am
g o
Ġn am
Ġpro gra
v an
e Å¡
Ġc i
Ð¿ ÑĢÐ°Ð²
re p
ri a
v as
Ð² Ñĭ
Ġne t
Ġv ir
um o
Ð» ÐµÐ¼
Ġj os
Ã ª
Ã¢n Äĥ
a in
Ġsk ir
âĢĿ ,
ĠA r
Å«r os
Ġto k
ĠÐ¸ Ñħ
ĠÑĢÐ° Ð±Ð¾ÑĤ
áº £
s n
Ġfa ce
Ġm ar
on i
ÄĹ tÅ³
v iÅ³
Ã¡ c
Ð» ÐµÐ½Ð¸Ðµ
Ã İn
h i
Ð² Ð¾
Ñĩ Ð½Ð¾
ĠÑģ Ð¾Ð²
t rÄĥ
ÑĤÐµ Ð»Ñı
Ð½Ð¸ Ðº
Ġp la
Ð½Ðµ Ð¹
j as
Ñħ Ð°
ĠÃ®n t
Ġv ai
Ġv Äĥ
Ġtar p
Ġm Å«sÅ³
Ġz a
Ð» ÑģÑı
Ġ rin
ĠÐ» Ðµ
Å« k
Ġp or
ĠÑĦ Ð¸
ur s
ĠÑģ Ð¾Ð±
Ġt ri
Ġp ubli
es c
ĠÐ¾Ð± Ð»Ð°
am en
Ġt ink
Ġn ÄĹ
Ġl ei
Ġc ent
Ġdesp re
Ñģ Ñĥ
ĠÃ® mp
Ð» Ð¾Ð¶
ĠÃ®n tr
Ġn Ã¡
Ġpa Å¾
Ð¿ Ñĥ
o u
Ġj ei
Ġc Ã¢
Ġda cÄĥ
ĠÐ¿ Ð¾Ð²
Ġta Äįiau
f i
Ð¾Ð³ ÑĢÐ°
or d
Ġan t
Ġac este
Ð»Ðµ ÐºÑĤ
ÑĤÐµÐ»ÑĮ Ð½Ð¾
Ġ ran
ĠÑĢÐ° Ð±Ð¾
Ġgal ima
Ġprie Å¡
ci i
ĠÐ¾ ÑĢ
pe ri
ĠT ai
Å Ī
Ġdin tre
ta rea
Ġdaug iau
Ġo p
ĠÐ¿ÑĢ Ð¾Ð²
Ñģ Ð¾Ð²
j an
Ġte n
u je
Ð²Ð° ÑĤÑĮ
Ñĥ Ð±
Ð¾Ð´ Ðµ
Ð° Ð·
ĠÐ¶ Ð¸
ĠÐł Ð¾ÑģÑģÐ¸
Ð¾ÑĤ Ð¸
vo je
á» Ļ
2 4
g us
om s
Ð· Ð½Ð°
ÐµÐ½ Ð°
Ġn ici
s tyb
ĠÐ¿ÑĢÐ¾ Ð¸Ð·
bu ie
Ġg e
yb os
19 4
Ð» Ð¾Ñģ
Ð¾Ð¼ Ñĥ
ĠÑĥ Ñģ
pe ra
as Äĥ
ty s
v ien
Ð² Ñĥ
Ð³ Ñĥ
Ð» Ñĭ
re c
Ð¾ÑĤ Ð¾Ð²
Ġin te
Ðº ÑĢÐ°
p os
g y
im ai
Ġs tu
Ġm ies
Ð´ Ð¾
u tin
Ð¾Ð»Ðµ Ðµ
Ġas men
m us
st ru
ĠÅ¾ e
Ã £
t Ä¯
ĠÐ¿ Ð¾ÑĢ
Ġf il
li ai
ĠN a
Ġs Ãº
ĠÐ¿Ð¾Ð» Ñĥ
Ð¾Ð» Ð¾Ð³Ð¸
Ġto t
Ġre g
en er
Ð² Ð¾Ð´
Ġv id
Ġ [
ĠÐ¿ Ð¾ÑĤ
Ġm en
Ġp am
ÑĨÐ¸ Ð¾Ð½
Ġto ate
ĠÑģÑĤ ÑĢÐ°
Ð¿ Ð¾Ð»
ie r
o are
t ÄĹs
d os
s te
ÑĤ Ð¾Ð±Ñĭ
d as
sta n
00 0
an k
Ġfo arte
Ð´Ð¸ Ð½
ĠÃ®n c
v ÄĹs
o b
ĠÐ¼Ð¾Ð¶ ÐµÑĤ
c om
es i
Ġm are
Ġper s
ne j
ĠB u
Ġm es
Ð¿ ÑĢÐ¸
áº ¥
ĠÐ¿ Ð¾Ð·
Ġap ro
Å¾ e
âĢ ĵ
as cÄĥ
ur Äĥ
Ġs var
Ġp are
im us
g os
Ġp os
Ð± Ð¾ÑĢ
k Äħ
ri Å³
ĠÑģ Ð°Ð¹
ĠÃ º
f el
ĠP ro
Ã® n
Ð´ Ñĭ
Ġs um
mb rie
m ok
Ð± Ñĭ
Ġ :
ĠÑĦ Ð¾ÑĢ
el is
g in
Ġpro du
Ġe i
Ġn i
Ġch i
Ġat si
Ġl i
ÑģÑĤ ÑĢ
201 7
ĠÐ¾ÑĢ Ð³Ð°
Ð¾Ðº Ñĥ
Ġkuri e
Ġv ia
Ġpre k
Ġg rup
Ġde p
Ġsp al
ĠÄ¯ vai
Ñĩ ÐµÐ½ÑĮ
ti ve
ï ¿
âĢľ .
Ġv Ã½
Ġun ui
ï¿ ½
n Ã¡
ĠÐº ÑĢÐ°
Ġti es
Ġa v
er Äĥ
Ð¾ ÑĢÐ°
Ð»Ðµ Ðº
um s
Ġp h
Ġ â
ÐµÐ½Ð¸ Ñİ
Ġpo t
Ġno i
b ar
Ġh o
Ġ w
Ġd ir
Ð¾Ð± Ð¸
Ġz Ã¡
ky ti
Ġa i
am as
ĠÐ³ Ð¾Ð´Ð°
ĠÑį ÑĤÐ¾Ð¼
ÑĢ ÐµÐ½
ÑģÑĤÐ° Ð½Ð¾Ð²
k on
Ġdo ar
ci jÄħ
ĠÐ ¥
osi os
ĠÑĤÐ°Ðº Ð¶Ðµ
Ġsk ai
ci p
Ġs al
ĠÐ±ÑĥÐ´ ÐµÑĤ
ĠÐ²ÑĢÐµÐ¼ Ñı
u te
ch e
y d
ol og
ĠÐ¼ ÐµÐ½
b Äĥ
Ġte le
Ġl um
Ð ¤
t ului
Ġmul te
" .
Ġc m
Ġpro ble
ĠP ar
ÑĤÐµ Ð»ÐµÐ¹
d ien
dÅ¾ ia
Ð»Ð¸ ÑģÑĮ
ie c
Ġkom p
Ġ .
d ic
k Å³
t ais
ĠÐ¾Ð± ÑĬ
ch n
ĠÅ¾ mo
Ġtre buie
iaus iai
Ã¡ l
Ð¸ Ñģ
Ð° Ð»Ð¸
ra c
y n
Ð³ ÑĢÐ°
ĠA l
tu i
s l
Ġd aÅ¾
pe c
Ġk h
Ġpro p
dÅ¾ i
ru o
ÑĢÐ° Ðº
fe c
Ðº Ð»Ñİ
ĠÐ ¯
ÐµÐ¼ Ñĥ
im i
á» ĳ
v id
Ġdu omen
Ġpa ti
Ġb ine
ĠÑĢÐ° Ñģ
Ġs er
Ð¾Ð²Ð° Ð½Ð¸Ñı
Å£i on
ÑĨÐ¸ Ð°Ð»ÑĮ
ÐµÐ½ Ñĭ
to jÅ³
ĠÐºÐ¾ÑĤÐ¾ÑĢ ÑĭÐµ
ty ti
dam i
Ġpas aul
Ġ X
Ġb y
I I
Ġreik ia
2 3
Ġd rau
ĠV is
Ġa ko
Ġau kÅ¡
ÑĤÐ¸ Ñı
Ð·Ñĭ Ð²Ð°
is ti
ĠÐ´ Ð°Ð½
ĠnÄĹ ra
ĠÂ »
c on
c um
ÑĢÐµ Ð±
201 6
ĠÐŁ ÑĢÐ¸
ĠÐº Ð¾ÑĢ
tin ÄĹs
n ÃŃ
Ġreik al
m at
tin a
Ñĥ Ñģ
ÑģÑĤ Ðµ
ĠÐµ ÑģÐ»Ð¸
Ġa ti
Ġval styb
ÑĦÐ¾ÑĢ Ð¼Ð°
Ġis tori
ĠÐ° Ðº
Ġp en
ĠÄ¯ si
Ġ ul
Ġf e
ÑĮ Ñİ
ÈĽi on
Ġc az
ta ri
Ġpl an
Ġv re
Ġn g
Ã© ho
Ðº ÑĢÑĭ
min is
Ðµ ÐºÑĤ
Ġpr ÃŃ
an ti
Ġj ie
k laus
Ġkal b
un ea
Ġf ol
ĠÑĥ ÑĩÐ°
Ð»Ð° Ð²
ia me
ÑĨ Ñĭ
il ie
Ġpo p
ĠÑĤÐµ Ñħ
s ul
4 0
ĠÐĴ Ñĭ
ĠÐ² Ñģ
2 2
ĠÐ¸ Ð¼Ðµ
ĀĀ ĀĀ
Ġro mÃ¢n
ĠÅ¡ v
ĠÐ»Ñİ Ð±
Ġve de
ĠÑĩ ÑĤÐ¾Ð±Ñĭ
in Ä¯
Ġp Ã¢nÄĥ
k us
Ð»Ð¾Ñģ ÑĮ
l at
Ġr y
ri aus
Ġk am
ĠRomÃ¢n ia
ÑĢ Ð¾Ðº
l ov
en te
Ġpo d
un ci
Ġt y
Ð¾Ð¼ Ð¸
Ð´Ð° ÑĢ
Ð´ ÐµÑĢ
Ġde z
ĠT e
Ġs to
Ñı Ð·Ð°
Ð´Ðµ Ð»Ð°
Ð³ Ð¾Ð²
l an
ia m
Å¡k ai
ÑģÑĤÐ°Ð² Ð»Ñı
Ġn ie
Ð»Ð¸ Ñĩ
ĠÐºÐ¾Ð¼ Ð¿
ul t
ĠÐ¿ Ð¾Ð¿
ÑĨÐ¸ Ñİ
d ÄĹl
ĠbÅ« tÅ³
Ġp ov
Ġpro jek
um ne
ĠÑĥ Ð¶Ðµ
to n
Ġte r
Ñĥ Ð»ÑĮ
f ici
l ai
Ð° Ñģ
Å¾ in
du ce
ĠT a
ÐµÐ½Ð¸ ÐµÐ¼
Ġper so
Ġs te
-- --
g Å³
Ġl or
Ġf inan
ĠÃ®nt Ã¢
Ðº Ð»Ð°
Ġc ei
Ġc ad
A S
Ġr Å«
Ġm ÄĹn
ĠÑģÐ² Ð¾Ð¸
ĠiÅ¡ s
dam as
Äį iu
au ti
ed in
e j
ĠÐ²Ð¾Ð· Ð¼Ð¾Ð¶
ĠS u
ÐºÐ° Ð·
ĠP re
en ta
Ġl ietu
ĠÑı Ð²Ð»Ñı
im u
ĠÑģÐ² Ð¾
a ce
Ð¿ Ðµ
ĠN u
ĠÑį Ðº
ĠC h
n u
uo jam
Ġg r
Ãª n
j ung
Ġmu z
Ġpas k
as a
Ġv eik
q u
Ġluc ru
Ġsi tu
ĠÑĩÐµ Ð»Ð¾Ð²
ĠÐ¾Ð± ÑĢÐ°Ð·
l ink
Ġj og
Ġaceas tÄĥ
Ġra Å¡
ĠÐµ ÑģÑĤÑĮ
l in
Äįi os
Ð¾Ð½Ð° Ð»ÑĮ
em s
Ġspe cial
ty v
ĠÐºÐ° ÑĢ
Ġ x
ĠÐ¾ ÑĩÐµÐ½ÑĮ
ĠÐ¿ Ñĥ
ĠÐļ Ð°
ÑĢÐ° Ð¶
ĠÐ± Ð¾Ð»ÐµÐµ
Â» .
g en
Ġdar bo
re ik
ĠÐ±Ñĭ ÑĤÑĮ
ÑģÑĤ ÐµÐ¼
la p
Ġp ui
te i
lo g
Ġorgani z
ĠÐ¼ Ð¾Ð³
Ġti ks
tra uk
Ġc er
âĢĿ .
bi le
Ġun i
Ã½ m
v ad
j us
ri lor
ia ms
Ġkuri s
u ra
Ġre s
Ġpar te
ÑģÑĤÐ° Ð²Ð¸
ĠÐ´Ð¾Ð» Ð¶
ÃŃ m
ini us
ĠA p
tu ra
Ġse c
j ai
ÑĢÐ¾ Ñģ
ĠÐ´ Ð¾Ð¼
c k
Ġc ap
tori i
Ð¹ Ð½
Ġspe ci
Ð»Ð° ÑģÑĮ
Ã´ ng
Ä ı
ĠÐ¸ Ð¼
Ġs ve
6 0
2 1
ĠÐºÐ° ÑĩÐµ
Ġsp or
st fel
vo l
ĠÑģ Ð°
Ġk laus
Ġpre d
ĠÑģÐ¿ Ðµ
ÑĢÐµ Ñģ
Ñĭ Ð¼
z an
dy ti
ti li
Â» ,
Ð½ ÐµÑĤ
Ġta k
s c
Ġne b
Ġauto mo
Ġg i
ĠÑģ ÑĢÐµÐ´
ĠfÄĥ rÄĥ
ĠL a
ĠÐºÐ¾Ð¼ Ð¿Ð°
l aug
m ÄĹ
ik a
Ð½Ð¸ ÐºÐ¸
Ġg eri
r on
Ġun ei
ĠÑģÐ»Ñĥ ÑĩÐ°
Ġ ÅŁ
o li
ent ul
ĠÐ°Ð² ÑĤÐ¾Ð¼
a cÄĥ
Ð¹ ÑĤÐµ
ÈĽ e
Ġe ra
ĠV iln
ĠÐ¼Ð° ÑĤÐµÑĢÐ¸
Ġf ap
Ġs aug
ren d
ĠÐ¼ Ð¾
Ð¾Ð± ÑħÐ¾Ð´Ð¸
ĠD ar
Ġ ÈĻ
ĠÅ¡ e
ĠÐ²Ñĭ Ñģ
Ġm ie
19 9
Ġex p
ï¿½ ï¿½
ĠÑģ Ð¾Ð·
Ð´ Ð¾Ð²
ĠÐ´ÑĢÑĥ Ð³Ð¸
Ġrez ul
Ð° ÑĤ
ÑģÑĤ ÑĢÐ¾
Ġe uro
Ã ¬
ÑīÐµ ÑģÑĤÐ²
in ÄĻ
Ñħ Ð¸
ĠÄĳ á»
ÑģÑĤ ÑĢÑĥ
Ġto dÄĹl
Ġte chn
ĠcÄĥ tre
ĠA u
m ing
Ġv Ãł
ĠP ri
da vo
on as
fe k
ĠÐ±Ñĭ Ð»Ð¾
Ġt var
u omen
si te
el b
ÈĽ in
ĠI Å¡
Ð½Ðµ Ðµ
um Äħ
ÐºÐ¸ Ðµ
2 8
ĠÐ¼ Ð½
ĠP a
Ġorgani za
Ġv á»
ti m
an tis
Ġs om
Ġv ÄĹl
Å£ e
ĠÐ¿ÐµÑĢ Ð²
d Äĥ
Ð½Ð¸ ÐºÐ¾Ð²
Å£ in
ÑĢ Ð¾Ð´
ir ink
ĠÅ¾ em
2 6
Ġmin is
Ġv and
Ġk aÅ¾
ĠÑĢÐ° ÑģÐ¿
ĠdaÅ¾ n
Ġur mÄĥ
Ġo ra
Ñĩ ÐµÐ½
Ñı Ð²
ĠÐ¾ÑĢÐ³Ð° Ð½Ð¸
Ġce a
o t
Ð¿ ÐµÑĢ
Ġl yg
Ġrin k
Ð²Ðµ Ð´
Ð¾Ð» Ñı
2 7
Ġpu te
Ð¾Ð½ Ðµ
ro v
Ġa Å¡
ĠÐ½Ðµ Ð¾Ð±ÑħÐ¾Ð´Ð¸
Ġs tr
ĠÐ² ÐµÑĢ
ĠÐ´ ÐµÑĤ
o i
ÑģÐºÐ¸ Ðµ
f eri
Ġd ra
Ġm al
Ġchi ar
ÑĢÐµ Ð¼ÐµÐ½
Ġvad ov
Ġun de
l t
dÅ¾ io
Ġ Äįia
ĠP as
Æ ¡
ÑģÐºÐ¸ Ñħ
Ð³ Ð¾Ð´
yb ÄĹ
ĠuÅ¾ si
ÐµÐ½ ÑĤÐ°
ĠÄ Į
ÑĢÑĥ Ð¿
Ġfun c
ĠÐ½ ÑĥÐ¶
Ġdo uÄĥ
Ġz i
á» §
im ui
Ð¾Ð» Ð½Ð¸
Ð»Ð° ÑĤ
ÑĢÐµ Ð´Ðµ
Ð¾Ð¶ Ð¸
tu rÄĥ
ĠÑģ ÐµÑĢ
li k
uo ja
ia t
Ġg im
ÑĪÐ¸ Ñħ
ĠÐ» ÐµÑĤ
Ġp un
ÐºÐ¸ Ñħ
d ÄĹj
Ñĩ ÐµÐ½Ð¸Ðµ
Ġex is
Å£ iei
ĠÐ¾ Ð½Ð¸
an Äĥ
Ġne g
minis tra
ĠÐŁ Ð¾
Ġs ky
re ng
k iai
ĠM o
Ġpro c
kl os
Ġg ar
n Ã½ch
po zi
Ġj aun
Ġac um
ĠÐ²Ð¸ Ð´Ðµ
ĠÐ± Ð°
Ġin stitu
ĠÐłÐ¾ÑģÑģÐ¸ Ð¸
Ġ ÑĨÐµ
ĠLietu voje
Ġk Äħ
li u
ĠÐ¿ Ð¾ÐºÐ°
un a
m ar
ĠÐ´ ÐµÐ½ÑĮ
Ð²Ð° ÐµÑĤ
ÑĪ ÑĮ
um as
Ġpri em
201 5
el a
ÑĤÐµ Ð»Ð¸
Ġfi ind
Ġl ie
Ġkiek vien
Ðº Ð¾Ð»
toj ai
ĠÑĤÐµ Ð¼
pre z
da v
Ġo c
Ġd rep
Ġs ch
ĠÑĢÐµ Ð·
Ð¾ÑĢ Ð¾Ð²
r us
Ġpro ces
Ġk a
l ie
sp or
ÑĤ ÑĢÐ°
Ð¾Ð¶ Ðµ
ĠÑģÐ¸ ÑģÑĤÐµÐ¼
Ġin c
ĠÑĩ ÐµÐ¼
ÑĦ Ðµ
ÄĹ k
ÑĢÐ¾Ð²Ð° Ð½
ĠÃ®n cep
ol a
_ _
Ġp an
os ta
Ð¾Ñģ Ð¾Ð±
ĠÑį ÑĤÐ¸
Ġro z
ic a
v is
Ã ¤
l yg
d Å³
ĠÐĿ Ð¾
ĠU ni
Ġn iek
le k
Ġc Ã¢t
iá» ĩ
Äĥ s
p ubli
re i
Ð¸ Ð¼
È ĺ
ĠÐ¿Ð¾Ñģ Ð»Ðµ
Ġgal im
usi as
ĠB e
uri lor
ĠÐ¸ÑģÐ¿ Ð¾Ð»ÑĮÐ·Ð¾Ð²Ð°
ci jÅ³
Ġb an
Ġj i
áº Ń
w w
ĠÐ½Ð° Ñģ
Ñĩ ÐµÑĤ
ĠÅ¡ il
ÑĢÐµ Ð´Ð¸
! !
Ġ Y
v il
Ġm as
ĠÐ¸Ð½ ÑĦÐ¾ÑĢÐ¼Ð°
Ġpri vin
Ġp ie
ĠM ar
ti cÄĥ
ÐĿ Ð°
Ġpa teik
Ð± Ñı
ĠÐ¾Ð± ÑĢÐ°
.. ..
m et
ti a
r os
ÐºÐ° Ð¼Ð¸
p Äĥ
li us
ÑĢÐ° Ð»ÑĮ
Ð¸ ÑĤ
ĠJ ei
Ð §
ĠM i
ĠÑģÐ¾Ð· Ð´Ð°
sta ty
ti ce
ĠÑĤ Ð¾Ð¼
yb ÄĻ
ĠÐ½Ð° ÑĪ
ÑĢ Ð¾Ð¿
Ã¡ n
Ġn r
Ð² Ð¾Ð´Ð¸
Ð½ Ð¾Ð²Ð°
Å ½
ĠÐ ¨
Ġlai ko
Ġ #
Ġ +
Ġil g
Ġd om
ĠÐ½Ð° ÑĩÐ°
ĠÑĤ Ð¾Ð³Ð¾
Ġre c
ik os
Ð¸ ÑĤÐ°
y k
Ġz ile
Ġra j
Ġnor s
ĠÑį Ð»ÐµÐºÑĤ
Ġave a
ĠÐŀ Ð±
Ġl en
Ġmed Å¾ia
Ġpas laug
Ġk el
ÑģÐº Ð¾Ð¼
ÑĩÐµÑģÐºÐ¸ Ñħ
f er
Ġl an
ĠÐ¶ Ð¸Ð·
Ġtran s
Ġpag rin
om et
Ġk ult
Ð» Ð¾Ð¼
le c
Ġc ul
p rin
Ñı Ñħ
tin iÅ³
Ð ¯
Ġ >
olo gi
201 4
Ġ qu
en s
ĠÑĢÐ°Ð±Ð¾ ÑĤÐ°
Ġpro dus
Ð½ Ð³
ĠÄ ®
an u
Ġimp or
Ġm un
ĠÅ¡ io
al o
r Å³
ĠÐ¼ ÐµÑĤ
Ġaps aug
Å¡ i
l ÄĹ
Ñĩ ÐµÐ½Ð¸Ñı
Ð» ÐµÑĤ
Ġk Å«
Ġg a
Ð¾Ñģ Ñĥ
umne ze
er s
ĠÐº Ð¾Ð³Ð´Ð°
tin ÄĹ
Ġju os
Ð¾Ð³ Ð°
Ġvien as
ce a
iÅ¡k ai
ÐºÐ° Ð½
Ġd ok
Ġno as
Ġsitu a
en ie
Ġc un
ĠÅ¾ i
ĠÐ ¦
ĠÐĿ Ðµ
8 0
Ġt ru
r Äħ
ĠÐ² Ð¾Ð¿
ĠÐ¼ Ñĥ
Ġpa Å¡
c m
Ġat ve
ĠÐºÐ¾ÑĤÐ¾ÑĢ ÑĭÐ¹
Ð½ ÑĥÑĤ
g n
ĠÑįÑĤ Ð¾Ð³Ð¾
Ġin f
ĠÐ¿ ÑĢÐ°Ð²
ÑĪ ÐµÐ½Ð¸Ñı
iaus ia
ĠL e
Ġv Å¡
áº §
ĠÐ± Ðµ
r ÄĹ
Ġno ri
Ġr as
Ġl Ãł
2 9
usi os
Ġp este
Ġre prez
Ġan ul
b al
Ġd ÄĹ
Ġmet ais
Ġda bar
ĠÐ´Ðµ Ð»Ð°
c er
7 0
Ä¾ a
ĠA t
ĠÄ¯ mon
Ñĥ Ð½
Ġat unci
ĠÐ² Ð¾Ñģ
Ð³ Ð¾ÑĤÐ¾Ð²
ra te
dy mo
ra d
ol d
ra g
ĠÑģ Ðº
l is
ok ie
ĠÐ± ÐµÑģÐ¿
Ġkar tÄħ
ÑĪ ÐµÐ½
ĠÐµ Ðµ
me le
Ġkuri os
ÑĢÑĥ Ð´
b y
Ð»ÑĮ Ð½Ð¾
ĉ Ċ
Ð½Ð¾Ð¼ Ñĥ
ĠB al
ÑģÑĤÐ² Ðµ
Ġju de
on d
ti on
I N
Ġm ate
ÑĥÑİ ÑīÐ¸
ÄĹj a
Ġt uo
Ð¶ Ð´Ñĥ
Ġn en
Ġ ÑĢÑĭ
Ġpe rio
to je
ÑĩÐµÑģÐºÐ¸ Ðµ
Ġre ng
Ġb i
for m
Ġpriem on
v Äħ
ÑģÑĤÐ² Ñĥ
ĠÅ ŀ
ĠÐ´ ÐµÐ¹
Ġsa vi
ĠÐºÐ° Ð¶Ð´
Ġb Äĥ
ĠÐµ ÑīÐµ
Å¡ ie
ÐºÐ° Ñħ
ĠÐ¿ ÑĢÐ°Ð²Ð¸
Ġp ras
ÑģÑĤÑĥ Ð¿
ra tÄĥ
Ġin v
Ġu tili
Ġ um
Ð¼ ÐµÑĤ
ÑģÐº Ð¾Ðµ
Ġta m
ĠÐľ Ð°
Ġale bo
ÈĽ iei
in iu
Ġprivin d
Ð¾ ÑģÑĤ
an ia
Ġj Ä¯
un s
Ġfo to
Ġo pera
u a
me ri
ĠÃ®n cÄĥ
le s
Ð¾ ÑģÐº
Ð Ń
h n
p s
v Å³
ĠÐ¸Ð½ ÑĤÐµÑĢ
Ġal te
ĠÐ´ Ñĥ
ÄĹj imo
Ġm at
au do
ĠTa Äįiau
az a
ver s
ĠfÄĥ cut
Ġp ran
k ÄĹ
Ð¾Ð³ÑĢÐ° Ð¼
z d
ĠÐĴ Ð°
in es
Ġle g
ĠÐ¼ÐµÐ½ Ñı
toj as
ÑĤÐ¾ ÑĢÐ°
Ġth á»
Ġm on
ĠÐ¾Ñģ Ð½Ð¾Ð²
á» ĩ
Ġk l
Ġs veik
ĠS p
ÄĹj us
ĠD umneze
m ÄĹs
Ð´Ðµ Ð¹
a j
Ġb un
ĠÐ±Ñĭ Ð»
ul i
Ġtik rai
ĠÃ® i
Ġk il
Ġpas ta
Ġfie care
ÑĨÐ¸ Ð¹
ali tate
p aÅ¾
Ġt ÄĹ
ÑĢÐ¸ Ñı
ĠÅ¾mon iÅ³
Ġcad rul
Ġs tra
Ġsu teik
Ġpu tea
Ġdien Äħ
Ġvy k
Ġvie Å¡
Ð½ ÑĮ
io g
Ð»Ð¸ ÑĩÐ¸
Ġk ari
ĠÅ¾ in
ĠÐº Ð¾Ð»
Ġdec Ã¢t
k re
Ġl ais
u Å¾
ĠÐ¾ Ð½Ð°
fe ren
Ġse m
Ġla b
Ġaj u
ÑĩÐ¸ ÑĤÐ°
Ġm erg
sk ai
ĠÐ¸Ð½ ÑĤÐµ
gy ven
uo Å¡
Ġf el
Ġap link
Ġa stfel
ĠÑĢÐµ Ð³Ð¸
Ġl eng
ÑĪÐµ Ð³Ð¾
Ġav ut
Ð½Ð¾ÑģÑĤÑĮ Ñİ
ĠÑĢÐ°Ð±Ð¾ÑĤ Ñĭ
ÑĩÐµ ÑģÐºÐ¾Ð¹
Ġ en
Ġ os
tori us
Ð´ ÐµÑĤ
j ant
ÑĢÐ° ÑĤÑĮ
n ul
tan t
Ġkit Å³
A T
Ġm us
ĠÑĤ Ñĭ
Ã¡ m
Ġmed ic
n yg
l en
Ġad ministra
Ľ i
Ġinter ne
ĠT o
Ġsp rend
ĠÐ² Ð·
Ġcom un
Æ°á» Ŀ
Ñī ÐµÐ¹
L a
Ð¾Ð´ Ñĭ
to jo
ĠÐº Ð»Ð°
Ð»Ð¾Ð² Ð¸
Ġparti zan
Ġj ed
Ġne vo
Ñı Ð±
Ġcon s
Ð¾Ð³ Ð¾Ð²
Ġ om
vir tin
on g
in ta
Ġs t
ĠÑıÐ²Ð»Ñı ÐµÑĤÑģÑı
D e
Ġce ea
ĠV y
ak ar
in imo
Ġdir b
Ġpas a
ÐµÐ½ Ðµ
Ġb ai
ĠÐ¿Ð¾Ð»Ñĥ ÑĩÐ¸
Ġm Ã´
Ġc au
ÑīÐµ Ð³Ð¾
Ġele k
Ġsa v
Ð²Ð° ÑĢ
ing as
ĠÐ¿ Ð°ÑĢ
ĠÑģ Ð´ÐµÐ»Ð°
Ġs an
Ġk ri
Ġprodu k
Ð ¥
b ul
Ġinte res
ĠÑħ Ð¾ÑĢÐ¾
d ai
Ã¡ d
Ġser vi
c an
o ti
Ð¾ÑĤ Ð²ÐµÑĤ
val d
ĠP entru
p at
ri us
ĠDumneze u
Ġs f
ĠÐĺ Ð½
ĠÐ¾Ð¿ ÑĢÐµÐ´Ðµ
am os
ÑģÑĤ ÑĢÐµ
re k
Ġc ar
Ð½Ð¸ Ñİ
Ġti p
up ra
od ÄĹl
Ð»Ð° Ð³
Ð³Ð° Ð·Ð¸
Ð²Ð° Ñı
o j
sa ky
I n
ĠÑĤ Ð¾ÑĢ
. )
ĠcÃ¢ te
ÑĩÐ° ÑĤÑĮ
eli o
Ġa sta
Æ°á» £
om i
Ã¡ ch
v imas
Ġa si
Ġsa vai
ĠA d
Ġvien Äħ
ĠÑĤÐµ Ð»Ðµ
t n
s lo
ÄĹs i
ĠÐ» ÑĥÑĩ
Ġpri m
ĠÃ® l
áº¥ t
Ġpro te
an ie
Ġa g
Ġc al
ĠI r
Ġtele f
tin is
ĠÐ¾ÑĤ Ð½Ð¾
E R
im en
Ð¾Ð³ Ð»Ð°
Ġun or
Ġ ÑĢÐ¾
Ġte ig
Ġfa c
ĠM ari
201 3
Ġso cial
ĠÐ¾Ð±Ð»Ð° ÑģÑĤÐ¸
b at
Ġsch im
ĠÑģÐ¿ Ð¾ÑģÐ¾Ð±
ÑĮ Ñı
ĠA c
nos Å¥
ra re
Ñĥ Ð¼
Ġt á»
3 5
ĠÐ´Ð° Ð¶Ðµ
h od
Î ¿
Ġcon tin
Ġd vi
Ġsi Å«
ĠÐ¿Ð¾ Ñĩ
Ġf in
vo j
ci u
t ÄĻ
Ġpar duo
Ġap li
vy k
ĠP e
ĠA s
Ð¾ ÑģÑĤÐ¸
Ġl ig
ÐµÑĢÐµ Ð·
k al
er n
Ġman o
Ġvir Å¡
ĠÐĿ Ð¾Ð²
ĠÐ³ Ð¾Ð»
ĠÐ¼ Ð¾Ð»
Ñī ÐµÐ½
Ġa de
ĠÑĨ Ð²ÐµÑĤ
Ġcop ii
ĠEuro pos
nÃ© ho
ĠÑĤ Ð¾Ð²Ð°
es cu
l ad
ÑĥÐ»ÑĮ ÑĤÐ°
ÑĢÐµ ÑĤÑĮ
Ð¿ ÑĢÐµ
mi te
tik rin
A N
um i
Ġas em
ĠmÄĹn es
ĠÐ² Ð°Ð¼
Ð ¨
ĠÐ²ÑģÐµ Ñħ
Ġmies to
Ġl ik
Ġv as
l ine
ce d
i os
Ġprof esi
Ġj uo
Ñī ÐµÐ½Ð¸Ñı
ĠÐ¿Ð¾Ð¼ Ð¾
Ġ Èĺ
b ui
Ġnus ta
Ġne d
Ġna j
ĠÐķ ÑģÐ»Ð¸
ĠÐ ĸ
ĠÐ° ÑĢ
Ġk re
ĠÐ¿ Ð¾Ðº
Ġsu dar
is ta
ÄĹs e
A R
ÑĢÐ¾ Ð¸
Ġtran spor
Ġpre cum
ĠÐ¿ÑĢ Ð¾Ð±
ÈĽ ele
oc ia
Ð¾Ð²Ð° ÑĤÑĮ
ÑĪÐ¸ Ðµ
ent Å³
Ð± Ñĥ
Ġl im
Ñģ Ð»Ñĥ
ĠV al
Ġi de
tik os
Ġc elor
ĠÐŃ ÑĤÐ¾
Ġe u
p ro
cu re
Å« ra
Ġmet us
Ġsvar b
Ð¿Ð¸ ÑĤÑĮ
ÅŁ a
Ð¾ÑĢ ÑĤ
ĠÐ¿ÑĢ Ð¾Ð´Ñĥ
Ġt ine
v it
Ġc Ã³
Ġc á»§
b Å«
ĠÑģÐ¾ Ð¾Ð±
Ġat Ã¢t
ĠÑĢÐ°Ð· Ð²Ð¸
ÑĪ ÐºÐ¸
y m
Ġp il
Ð²Ð° Ð½Ð¸Ñı
s u
Ġkar tu
Ġre gi
ien ÄĹ
z at
ĠÐ¿ÑĢÐ¾ ÑĨÐµ
Ð¼ÐµÐ½ ÑĤÐ°
Ġm om
Ð» Ð¾Ðº
Ð²Ð° ÐµÑĤÑģÑı
p ri
ĠÐ¿Ð¾Ñģ Ð»ÐµÐ´
to m
Ġv ari
Ġcá»§ a
ÑĩÐµÑģÐºÐ¸ Ð¹
áº¡ i
sk ir
Ġ on
Å£ii le
turi le
ĠÐ¿Ð¾Ð» Ð¸
Ġpap ras
ĠC om
Ð»Ð¸ Ñı
te lor
Ġf ru
Å£ ele
ĠÐ³ Ð´Ðµ
ÑĥÐ± Ð»Ð¸
dÅ¾ iÅ³
p ad
Ð·Ð° ÑĨÐ¸Ð¸
ing a
Ð¾ÑģÑĥ Ð´Ð°ÑĢ
ĠÑĥ ÑģÑĤÐ°Ð½Ð¾Ð²
Ð½Ð¾ ÑģÑĤ
l iau
Ð´ ÑĮ
ĠÃ®n sÄĥ
Ġd ru
Ġn ar
ÑģÑĤ Ð¾Ð²
Ġk nyg
ĠÐ¿ÑĢÐ¾ ÑģÑĤÐ¾
en ea
Ġm ari
Ġap Äĥ
ÑĤ ÑĢ
Ð»Ð° Ð¹Ð½
ĠÑģÑĤ Ð¾Ð¸
y st
Ġduomen Å³
ĠÐ³ Ð¾Ð²
ĠÐº Ð»Ð¸
Ð»ÑĮ Ð½ÑĭÐµ
d Äħ
Ð»Ð° Ð½
ĠG al
el ÄĹ
ÑģÑĤ Ñĭ
9 0
ĠÐ¿Ð¾Ð· Ð²
201 2
Ġk las
ÑģÑĤÑĢ Ð¾Ð¹
ĠÐ¼Ð¾Ð³ ÑĥÑĤ
Ġktor Ã©
ÈĻ a
ĠP ir
Ð½Ðµ Ñģ
ÑİÑīÐ¸ Ñħ
ta u
Ġs ing
f Äĥ
z on
Ġin di
ÑĩÐµ ÑģÐºÐ¾Ð³Ð¾
ĠÑģÐ¾ Ð¾ÑĤÐ²ÐµÑĤ
ĠÑģ Ð¼
Ġpar od
Å£ ilor
ĠÑĢÑĥ Ð±
Ġcon tra
ra rea
ra z
ĠÑĤÐµ ÑĢ
in as
Ġdis p
l am
Ġp lo
Ð»ÑĮ Ð½ÑĭÐ¹
Ġties iog
ti vi
ty n
Ġat ro
Ġdaly v
c ate
Ġm Ã¡
ri u
Ġmi li
Å¡ io
ĠÐ´ Ð¾Ð¿
ĠÐĶ Ð»Ñı
ĠL i
ty je
4 5
i jos
Ġi m
al ul
k ur
ko je
Ð¾ ÑĤÐµ
ĠK ar
Ġcomp le
p te
ÑĦ ÑĦ
k ar
g s
ĠT aip
Ġun ul
Ġori ce
Ġvis i
Ġsp re
ÄĹj as
ÑĢÐ¾ Ð½
ĠÐ¾ ÑģÑĤÐ°
Ġk li
et Äĥ
ĠÑĥÑģ Ð»Ñĥ
Ġ ÑĤÐ¸
ĠÐ¸ ÑģÐº
Ð¿Ð¸ ÑģÐ°
ĠN or
um a
Ð¾Ð´ ÐµÑĢ
i ul
ĠÐ±ÐµÑģÐ¿ Ð»Ð°ÑĤ
ĠÐ²ÑĭÑģ Ð¾Ðº
Ġg ener
am b
em b
ĠÐ³ Ð¾Ð´Ñĥ
Ġd ÄĹm
âĢ Ļ
v ei
Ġad res
Å¡ ti
Ð¸ ÑĤÑĮ
Ð² Ð¾ÑĢ
ÑĢ Ð¾Ð±
ÑĪ ÐµÐ½Ð¸Ðµ
Ñħ Ð¾Ð²
Ġk ain
ai l
ĠC u
nos ti
ks ta
ari e
ĠÑĦ Ð¾ÑĤ
Ġkuri Å³
Ġpas irink
ÈĽii le
Ð³ Ðµ
Å¾ iÅ³
gra f
Ġni vel
3 1
Ġpa vy
ĠÅ¾ aid
am p
ĠÄ¯ s
Ġv en
v us
ÑĤÐ¾Ð¼ Ñĥ
ĠÐ½ ÐµÑĤ
ÑħÐ¾Ð´Ð¸ ÑĤ
Ġsp une
p ti
Ġe ks
Äįi Äħ
am ai
Ġau tori
u ver
ĠViln iaus
Ġpa to
Ġi e
u al
ĠÑģÐµ Ð±Ñı
Ġk Å«r
N e
Å¡ im
Ð¾Ð²Ð° Ñı
ĠÐ¼ Ð½Ð¾Ð³Ð¾
ĠM a
ga us
us e
ĠÐ° Ð´
Ġaceas ta
ĠR es
Ġnu ro
Ġj Å«sÅ³
ĠÑĢÐµÐ· ÑĥÐ»ÑĮÑĤÐ°
ti Å¡k
Ġto ki
ĠÐľ Ð¾ÑģÐº
ÄĹ ms
Ġpad ar
Ġpl Äĥ
le id
ĠÐ¼Ðµ Ð¶Ð´Ñĥ
ĠÐ²ÑģÐµ Ð³Ð¾
al ai
ĠÐ´ÑĢÑĥ Ð³
Ð½ ÐµÑĢ
ÐºÐ¸ Ð¼
u os
ĠÐ² Ð»Ð°
ĠÐ±Ð¾Ð»ÑĮ ÑĪÐµ
Ð²Ð° ÑİÑĤ
p tÄĥ
A L
Äĥ m
ĠÐº Ð¸
ĠÑĦ Ð°
Å¡ ÃŃ
Ġd ate
ĠÐ¿ÑĢ Ð¾Ð³ÑĢÐ°Ð¼
P ro
Ġprin cip
ĠÃ®ncep ut
au d
Ġs me
g ia
O N
st ai
ol u
ĠÐ¾ÑĤ ÐºÑĢÑĭ
ĠÑĥÑĩÐ° ÑģÑĤ
gis tra
Ġda ta
Ġpa ra
j Ä¯
ti i
at ul
ĠÐ¾Ñģ Ð¾Ð±
Ð¾Ð²Ð° Ð½Ð¸Ðµ
am o
k t
ing ai
ĠÑģ ÐµÐ¼
Ñį ÑĤÐ¾Ð¼Ñĥ
Ġsavi vald
ĠÐ½Ðµ ÑģÐº
Å¡ ko
ĠÑģÐ² Ñı
ĠÑĩ ÐµÑĢÐµÐ·
Å³ jÅ³
Ġasem enea
I S
h a
yb a
ĠÐ½Ð¸ Ñħ
ĠM an
ii le
rie Å¡
m ului
ĠÐ´ Ð¾Ð±
ÑĢÐ¾Ð²Ð° ÑĤÑĮ
is ten
ja us
Å¾ iaus
Ġce va
usi Äħ
dam a
ĠÐ± Ð°Ð½
in os
Ñı Ð¼
ĠÑĤ ÑĢÐµÐ±
in ÄĹje
r Å«
ĠÑĢÐ° Ð¹
Ð¾ÑĤ Ð¾ÑĢ
tin io
c uri
ĠU n
Ġse k
Ð½Ð¸ ÐµÐ¼
Ġres pec
Ġ Ñİ
c ov
Ñı ÑĤÑĮ
c urs
at y
an ÄįiÅ³
g z
Ġtre i
ma g
ĠÐ± Ð¸
Ġpap il
o f
ĠÅ¡i uo
ĠÐ³ Ð¸
Ġno u
ri ai
Ġb o
ul ia
in ig
p er
ĠBu cure
Ġd at
ie ct
k om
ÑĪ ÐµÐ¹
Ġdez vol
tiv Äĥ
Ġk ol
ĠÐ¢ Ð°Ðº
Ð² Ð¾Ð¹
ĠB et
3 6
ĠÐľ Ð¸
Ġpasi Å«
kl ad
ĠD i
Ġl au
E N
Ġ ÈĻti
it ai
Ð´Ð° Ð½
ĠÐ½ÑĥÐ¶ Ð½Ð¾
Ġte ik
Ñĩ ÐºÐ¸
ĠÐŁ ÑĢÐ¾
ĠO r
ĠÐ³ Ð°
ĠÐĴ ÑģÐµ
c ol
ĠÐ¶ ÐµÐ½
ĠÑĩÐµÐ»Ð¾Ð² Ðµ
ĠÃ®n ain
Å¾i Å«r
ÑİÑīÐ¸ Ðµ
ÑģÑĤ ÐµÑĢ
te s
Ġ ÑĪÐ¸
ÐºÐ° Ñı
ĠP er
ti mo
is i
Ð¾Ð¶ Ð´
ĠÅ¾mon ÄĹs
Ġty ri
ĠÐ¿ÑĢ Ð¾Ð´
ĠÅ¾ od
om as
Äį as
Ġal t
ĠÑĢÐ° ÑģÑģ
pa Äį
c ia
Ġre la
Ħ ĸ
ÑĪÐ¸ Ð¹
ĠÐ± Ñĥ
Ġe ven
oc ie
Ġdec la
un ii
p as
ĠV il
Ġgali te
al is
ÈĽ ine
Ġti e
Ġs ul
ĠÑĥÑģ Ð»Ð¾Ð²Ð¸
Ġbend ra
ur n
ÑĤÐ¾ÑĢ Ð¸
ĠÑģÐ»ÑĥÑĩÐ° Ðµ
ĠÐ¾ÑĤ Ð´Ðµ
ĠÐ²Ñĭ Ð¿Ð¾Ð»
ĠÃ®ntÃ¢ l
g as
ĠÐŀ ÑĤ
L ietu
Ġaces ta
Ð»ÑĮ Ð½ÑĭÑħ
Ġ ÅŁti
Ġte ri
Ð¾Ð»Ð¸ ÑĩÐµ
Å¾ as
ÐºÐ¸ Ð¹
Ġj Äħ
Ġur ma
Ġn im
ĠC e
ĠÐº Ð¾
Ġan ks
jam e
Ġm ÄĹg
ĀĀĀĀ ĀĀĀĀ
or ul
vi Å¡k
Ġne ces
Ġsp us
ĠÑģ ÐµÐº
Ġg Äĥ
ĠÐ´ÐµÐ¹ ÑģÑĤÐ²Ð¸
ĠÐ¿ÑĢ Ð¾ÑĤÐ¸
ĠS a
ĠÐ³ ÑĢÐ°
Ġdok um
Ġpri ma
ĠÅ¾ ie
Ġv ed
ĠÐ±Ñĭ Ð»Ð¸
ĠÑĤ Ñĥ
Ġvi zi
ĠÐ´ Ð²Ð¸
Ġs ri
Ġde ci
ĠÐ³ Ð¾Ð´
n Ãº
Ġstu d
ĠS f
ĠÅł i
v u
ĠÐ¼ Ð¸Ð½
d ÄĹti
Ġpa vad
Ġa ici
Ġsup ra
ar ta
ti jos
Ġdarb uo
i fic
p ta
Ġt Äĥ
Ġm ir
Ġcaz ul
ĠÐ½ÐµÐ¾Ð±ÑħÐ¾Ð´Ð¸ Ð¼Ð¾
ci jas
ĠÐ³ Ð»Ð°
Ðº ÑĨÐ¸Ð¸
ĠM ed
ÐµÑģÐ¿ Ðµ
á» į
m uo
O R
Ġvien a
Ġre aliz
Ñģ ÑģÐ°
ĠÐ¾ Ðº
Ã¢n du
Å¾ u
iu ose
ÑĢ ÑĮ
ÑĤ ÑĢÐ¸
ĠS i
Ġcop il
d is
Ġpri klaus
ÑĨÐ¸ Ð°Ð»Ð¸
ÐµÐ½ÑĤ Ð¾Ð²
A V
ÑĢÐ° Ð±Ð¾ÑĤ
ĠÐ¾ Ð´Ð¸Ð½
ĠÐ¾Ð½ Ð»Ð°Ð¹Ð½
ĠE x
ĠAn d
Ġpri s
g ul
ÐµÑĤ Ñĭ
Ġs ie
Ġprof es
Ġnum ai
Ġ Å«k
Ð»Ð¸ Ð½
ÑĩÐ¸ Ð½Ð°
yd is
ÑĢÐ° ÑĤ
l ul
3 8
Ð¾Ð»Ð½Ð¸ ÑĤÐµÐ»ÑĮ
Ñı Ð½
Ġj ok
ĠÑģ Ð»ÐµÐ´
in te
ĠÑĥ ÑĢÐ¾Ð²
ĠdÄĹm es
ĠÑģÐ¾ ÑģÑĤÐ¾Ñı
p ra
ĠE l
rea zÄĥ
p lu
ĠA m
Ð² Ð»Ðµ
ĠÑĥ Ð¿ÑĢÐ°Ð²
ine a
ÑģÐ¿ Ðµ
Ġe ur
Ġace ea
ÑīÐ° Ñı
ĠÐ¿ Ð»Ð¾
Ġve Ä¾
Ġpagrin din
á» ¯
Ġpran eÅ¡
ĠÐĿ Ð¸
Ġm ais
vi zi
ova Å¥
au j
ÑģÑĤ Ð¾ÑĢÐ¸
Ġas upra
f a
Ð² Ð¾Ð·
ĠÐ¾Ð± ÐµÑģÐ¿Ðµ
ĠÃ®n ce
R e
aip sn
Ġne Ä¯
Ġâ Ħĸ
Ð²Ðµ ÑģÑĤ
Ð¶ Ð´Ð°
ai Å¡k
to k
Ã¡ r
ĠC o
kl ÄĹs
am eni
Ð ¦
201 1
Ġce re
Ð¶ ÐµÐ½
Ġe a
m ie
ÈĽ ilor
Ð½Ð¸ Ð¼
Ġp inig
á» ĭ
ĠM e
Ð¶ ÐµÐ½Ð¸Ñı
3 7
t t
ter n
Ġsu f
ĠÐ³ Ð¾ÑģÑĥÐ´Ð°ÑĢ
ar d
Ġvis uomen
ĠÅ¾ en
ĠÐ¾ÑĤ Ð²ÐµÑĤ
ĠÅ¡ Ä¯
Ð¿ ÑĢÐ¾
ĠÐ¿ÑĢ Ð¾Ð´Ð°
ĠA le
tor ului
Ġj oc
Ġte m
h u
Ġv ys
ĠÄį o
Ġpri si
Ġo k
ĠâĢ Ŀ
p in
Ġvei ks
ĠÐ¼ Ð½Ðµ
ĠÐº ÑĥÑĢ
Ġgy v
Ð° Ð²
Ð³ Ð¾ÑĢ
bil Äĥ
ÑĢÐ° Ñģ
Ð¾Ð¶ Ð°
Ġs tri
Ġcon f
ĠT ik
ĠÐ¢ Ðµ
m al
ĠÑģÐ² Ð¾Ðµ
or o
Å¡ y
ĠK aun
ĠÐ½Ð° Ð¿
z are
Ġl ink
ĠÑĤ ÑĢÑĥ
te b
Ð³Ð¾Ð´ Ð½Ñı
ar ul
usi us
Ã¬ nh
tr on
Ġk ap
Ġsi te
ÐºÐ°Ð· ÑĩÐ¸
e b
ch is
Ð±Ð¾ ÑĤÐ°
g ti
Ġme to
p u
ĠÐ¿ÑĢÐ¸ Ð¼ÐµÐ½
Ġpas iek
ÑĤ Ð²ÐµÑĢ
an tys
Ñı Ð²Ð¸
el ÄĹs
ic k
Ġp si
ĠÅ¡e im
Ġg ro
ĠÑĢÐ°Ð· Ð¼Ðµ
ĠÑģÐ² Ð¾Ð¹
ĠÐ´Ð¾Ð¼ Ð°
tr as
ĠK ai
Ð³ Ð´Ð°
ĠÑĨ ÐµÐ½ÑĤ
Ä ®
ÑĥÑİ ÑĤ
Ġre n
Ġk raÅ¡
Å£ ine
ib er
ÑĤÐ¸ Ðµ
Ġcon si
v es
Ġso ci
tori lor
ĠÐ¿ÑĢÐ¾Ð± Ð»ÐµÐ¼
ĠrÄĥ sp
3 4
ĠÐ²Ð° Ñģ
a pe
Ġki ti
Ġmok sl
l im
au ja
ĠÐ·Ð° ÑīÐ¸
e ro
Ġe fec
Ġprez en
un d
Ġj am
Ð½Ð¸ Ñħ
P o
Ġtimp ul
ÑĢÑı Ð´
Ðµ Ð´Ðµ
ĠÐ¿ÑĢÐµÐ´ Ð¾
ĠJ Å«sÅ³
Ġvis Å³
ĠÐ·Ð° ÐºÐ¾Ð½
Ġp om
ÑģÑĤÐ² Ð¾Ð¼
re le
Ð»Ñı ÑĢ
ĠÑħ Ð°
ĠÑĩ Ñĥ
Å¾ iau
aip ÄĹ
A B
ĠM old
Ġs iek
Ġm Ã¢n
áº¿ t
ĠU Å¾
Ð¼ÐµÐ½ Ð½Ð¾
ĠÐ¾Ð± ÑıÐ·Ð°
ĠÑĤ ÑĢÐ°
ÑĨ Ñĥ
l ia
Ġpro iec
Ð» ÐºÐ¸
Ð¼ Ð¾Ð½
Ġvis Äħ
Ð¹ ÑĤÐ¸
ĠK a
ÑĢÑĥ Ð³
ĠÑįÑĤ Ð¾ÑĤ
Ġo ameni
il a
Ð´ Ð¾ÑĢÐ¾Ð²
ĠÐ±Ñĭ Ð»Ð°
Ġ ÑĨÐ¸
Ġnep ri
ĠÄ¯ reng
Ð»ÐµÐº Ñģ
b us
Ð¿ Ð¾
in imas
Ġlietu viÅ³
ĠÐº ÑĤÐ¾
áº ¯
Æ°á»£ c
ĠD om
z ut
Ġn usi
ĠÑģÐ°Ð¹ ÑĤÐµ
Ġd oc
ĠÅ¡v ent
Ġ Äįi
Ð½Ð° Ð»Ð¸
Ġsveik at
201 0
ni us
z area
Ð¾Ð²Ð° Ð½
Ġvalstyb ÄĹs
Ð´Ðµ ÑģÑĮ
gi jos
ĠÐº Ð¾Ð»Ð¸ÑĩÐµ
Ġse x
kl Äħ
ÐºÐ¾ Ðµ
jam a
ĠÐºÐ¾Ð¼Ð¿Ð° Ð½Ð¸Ð¸
ĠÑģ Ð¾Ð³Ð»Ð°
ĠCon stan
Ġfol os
Ġger ai
ĠÑįÑĤ Ð¾Ð¹
e azÄĥ
ri j
Ġre sp
raÅ¡ y
Ġl ip
ti fic
ĠÑĥ Ñĩ
tin e
ĠÑģ Ð¾Ð´ÐµÑĢ
ĠÐ¼ Ð¾Ð¼
ĠÐ¿ÑĢÐ¾Ð¸Ð· Ð²Ð¾Ð´Ð¸
Ġtar n
Ġch o
Ġ ÑĢÐ¸
ĠÐ°Ð²ÑĤÐ¾Ð¼ Ð¾Ð±Ð¸
ĠÐ² Ð¾Ð»
Ġpat s
is t
l Å³
ĠK l
ÄĹj Å³
te azÄĥ
ÐµÐ½ Ð½Ð¾
Ġmate ri
for ma
s er
á» ±
ĠÐ¢ Ð°
ka us
Ġac ord
Ð» Ð¾ÑĤ
ĠV ien
ÃŃ v
Ġd omen
ÑģÑĤ Ð¾Ð¹
Ġrezul ta
Ġl y
Ð»Ð° Ð³Ð°
c in
ĠÑĤ ÑĢÐ°Ð½
ÑĪ ÐºÐ°
Ġne bu
Ġc Ã¡c
ĠÐ¼Ð¾Ð¶ ÐµÑĤÐµ
Ġil gis
ost ru
b as
ÑĦÐµ ÑģÑģÐ¸
b ia
ĠÐ° Ð½
Ġs trÄĥ
Ġsu r
ĠÐ´ Ð¾ÑĢ
tin k
ĠÐ±Ð¾Ð»ÑĮ ÑĪ
Ġun a
ĠÑģ ÐºÐ°
Ġl auk
Ġuni ver
ĠJ is
Ð»ÑĮ Ð½Ð¾Ð³Ð¾
ĠÑĥ Ð³
ent as
ÑīÐµ Ðµ
l Ã¡
ĠÐ¾Ð± Ð¾ÑĢ
k iÅ³
ĠâĢ ¦
p le
Ġcon di
Ġd os
Ġperio ada
ĠM ai
u g
ÐºÐ»Ñİ ÑĩÐ°
Ġd ie
ĠÐļ Ð°Ðº
in ko
ĠÐ»Ðµ Ð³
Ðµ Ð´Ð¸
ali za
Ġm or
in s
Ġm emb
Ġan un
Ġfor ma
ÐŁ ÑĢÐ¸
ĠÑĩÐµÐ»Ð¾Ð² ÐµÐº
Äĥr ul
en ia
ĠÐ¿Ðµ ÑĢÐµÐ´
b os
ĠÐ¡ Ð¾
Ñĩ Ð½ÑĭÐµ
ĠÐŁ Ð¾Ð´
ĠÐĶ Ð°
Ġv in
Ġ ÑģÑĤÐ¸
ĠÐ´ Ð²Ñĥ
Ä¯ Å¾
Ã¡ va
z n
Ġcon stru
i ta
Ġdal is
Ġats is
a ta
Ð² Ð½Ð¾
5 00
ÑĢÐ°Ðº ÑĤÐ¸
áº¿ n
Ġktor Ã½
Ñĩ Ð½ÑĭÐ¹
lio te
3 2
and ien
Ġc li
Ġ ener
ÑģÑĤÐ°Ð² Ð»ÐµÐ½
ri t
Ġinv esti
Ġa iÅ¡k
Äį iais
Ġgyven imo
tu ose
ĠÐ¿ÑĢÐ¾Ð¸Ð· Ð²Ð¾Ð´
Ġnevo ie
ÑĨ ÐµÐ½
v ÄĻ
ĠÐ¿Ð¾Ð¼Ð¾ Ñī
Ġc ine
ĠÐ¼Ð°ÑĤÐµÑĢÐ¸ Ð°
Ġtelef on
ĠÑĥ Ð´Ð°
Ġteri tori
Ġats ak
ÑĨÐµ Ð²
U S
Ġnie ko
is eri
Ġp osi
g an
Ġk uo
p ie
z ie
Ġraj ono
ib liote
Ðµ Ð»
f ik
ÑħÐ¾Ð´ Ñı
I T
Ġperso ane
Ġexis tÄĥ
U R
tri vit
ĠÐ³Ð¾ÑĢ Ð¾Ð´
gyven din
li ci
ÐµÐº ÑĤÐ¸Ð²
ĠvÅ¡ et
Ġla p
Ġp ana
es t
Ġth e
Ð²Ð° Ð»Ð¸
ÑĪÐ¸ Ð¼
Ġd ia
Ġpo zi
Ġtur ÄĹtÅ³
Ñī ÐµÐ½Ð¸Ðµ
ĠÐł Ð°
ĠÑį ÑĤÐ°
o jo
Ġpati r
Ð²Ð° Ð½Ð¸Ðµ
Ġ us
Ð²Ð° ÐµÐ¼
Ð¼ ÐµÐ½Ð¸
vai z
c el
ĠsÄħ lyg
ĠÐ¾Ñģ Ñĥ
ĠÐ¸Ð½ÑĤÐµ ÑĢÐµÑģ
Ð¿ Ñĭ
Ġstu di
Ġt as
Ġul ti
Ð½Ðµ Ð³Ð¾
Ð» Ð¾Ð²Ð°
Ġc or
Ġf ir
ĠJ o
vi Äįius
3 9
ĠÐĺ ÑģÐ¿
Ġtra di
Å« rin
ze azÄĥ
ÑĢÑĥ Ð·
Ġdi rek
inink Å³
ÑĤÐ¸ Ð½
to jam
ia ma
Ġt ais
Å¡ iÅ³
in ys
Ġne pa
ÑĮ Ðµ
ĠÐ ®
/ /
Ġvis us
Ġpa b
ed a
ĠÑģ Ð¿Ð¸
ĠÐ½Ð° Ð´
ĠÐ¶Ð¸Ð· Ð½Ð¸
Ġs tre
ĠÄ ¾
ro m
á»Ļ t
Ð¾ÑĢÐ° Ñı
O S
á» ©
Ð°Ð½ Ð´
ÑıÐ± ÑĢÑı
um e
in t
ĠÃ®n vÄĥ
Ã¡ t
ĠT h
Ġfi z
os ti
Ġt Äħ
ĠâĢ ¢
ĠÐ½Ð° Ð¿ÑĢÐ°Ð²
Ġd r
Ġl uni
ĠÄĳ Æ°á»£c
l s
Ġt rÄĥ
ĠÐºÐ¾ÑĤÐ¾ÑĢ ÑĭÑħ
Ġac ces
Ġac tiv
Ð¾ ÑĢÐµ
Ġmod ific
Ñı Ñģ
Ġkult Å«ros
Ð²Ð¸ ÑģÐ¸
ĠÐ¼Ð° ÑĢ
Ġko vo
Ð¿ Ð»Ð°
p il
el Ä¯
Ġtre cut
ĠÐ· ÐµÐ¼
Ð¶Ð´ ÐµÐ½Ð¸Ñı
ĠD acÄĥ
ÑĤÐµÐ»ÑĮ ÑģÑĤÐ²Ð°
ÑĤÐ¸ Ð¹
ĠP et
ÑĢÐ¸ Ð¸
ĠÐ¸ÑģÐ¿ Ð¾Ð»ÑĮÐ·
19 8
ÑĦ Ð¾Ð½
Ġpal ai
ĠÑģ ÐºÐ°Ð·Ð°
á» ¥
inink ai
j on
Ġale s
ĠcÃ¢te va
ĠÐ² Ð½Ð¸Ð¼Ð°
ĠÅ¡i os
ĠR o
n om
tic ol
Ġfun k
ÑģÑĤÐ²ÐµÐ½ Ð½Ð¾
ĠB o
Ġc las
Ġta d
lu j
ĠÅŀ i
Ġc ri
= =
er ci
Ġautomo bi
Ġte at
ÄĹj ai
f o
ĠÐ² Ð½Ðµ
k ta
Ġe chi
ate g
Ġk ele
j au
ÐºÐ¾Ð½ Ð¾Ð¼Ð¸
ĠÐ´ÑĢÑĥÐ³Ð¸ Ñħ
is c
ÑĩÐ° Ñģ
Ġtre bui
z it
Ġsuk ur
tin iai
r ÃŃ
og ra
l iek
ĠÐ´ Ð¾ÐºÑĥ
ĠÑĩ Ð¸Ñģ
y v
ĠÅ¾ u
Ð± ÑĥÑĢ
Ġo amen
g ai
ta tÄĥ
ĠT ar
de re
Ð½ ÐµÐ½Ð¸Ñı
Ġb ran
ĠÑģ Ð¾ÑĤ
ĠÐºÐ¾ÑĤ Ð¾ÑĢÐ°Ñı
ĠiÅ¡ k
a y
ĠÄį as
Ĥ ¬
yb iÅ³
Ġparti cip
Ġl ite
ÑĢÐµ Ð¹
ent Äĥ
P as
ĠÐ½Ðµ Ð¿
Ġpar tea
Å¡ e
Ġ er
Ġe con
li g
ÐµÐ½ Ð½ÑĭÑħ
Ġd an
ent ului
ÐºÑĤ Ð¾ÑĢ
Å£i onal
Ġp le
ÑīÐ¸ Ñħ
Ġfap tul
ĠÐ¼Ð° Ð³Ð°Ð·Ð¸
ari o
ĠSe x
ĠE ste
ĠÐ¸Ð¼Ðµ ÐµÑĤ
Ġaceste a
al us
ĠÐ·Ð° Ð´Ð°
Ġs od
ĠÅ¡ iÅ³
g eri
Ġm il
Ñĩ Ð½Ð¾Ð¹
ĠRomÃ¢n iei
ĠÄ¯ staty
ĠÐŀ Ð½
7 5
d ÄĹjo
c atÄĥ
Ġpare ig
ĠÑį ÑĦÑĦ
n es
ul e
Ġf am
un t
E S
Ġy paÄį
ĠÐ¿Ð¾Ð·Ð² Ð¾Ð»Ñı
in u
to ra
: //
ÐµÑĢ Ñħ
ÐµÑĢ Ñĭ
ci onal
z u
ÑİÑīÐ¸ Ð¹
Ġb ol
Ġsta t
Ġob jek
A r
g Äħ
ÐµÐº ÑĤÐ°
Ġj ums
al ia
Ð¾ÑĤ Ñı
d ul
c area
ĠÐ½ÐµÑģÐº Ð¾Ð»ÑĮÐºÐ¾
Ġde tal
Ġeven im
ÈĽi onal
Ġb az
re j
c ie
Ð± Ð»Ð¸
ĠÃ® mb
ÄĹm ÄĹ
ĠÐ°Ð²ÑĤÐ¾Ð¼ Ð°
ĠÑģ Ð»Ðµ
ĠÐ¿ Ð¾ÐºÑĥ
Ġdaly va
Ġb unÄĥ
Ð½Ð¸ ÑĤÑĮ
k ra
ÄĹj imas
ĠmÃ´ Å¾e
Ġd y
Ð´ Ð¾Ð±
Å¾ iai
ĠÑĢÐ°Ð· Ð»Ð¸Ñĩ
ĠÐ²Ñģ ÐµÐ¼
Ġ Ġ
ÑģÑĤÐ° Ð½
ĠÐ²ÑģÐµ Ð³Ð´Ð°
an o
ti ci
Ġab s
Äį iaus
Ġvaik Å³
Ġk or
Å¡ te
b or
ten t
ĠÐ¾ Ð³
Ġpl at
ÑĢÐµ ÑĤ
Ġg ene
up a
ĠiÅ¡ si
Ð½ Ð¾Ð»Ð¾Ð³Ð¸
esti val
ĠÑĦ ÑĥÐ½
Ġpre a
te m
Ġp ur
Ð² ÑĭÐµ
at Å«r
Äħ jÄħ
n ului
Ð¼ ÐµÑĤÐ¸
ĠÑģÑĤ ÑĢÐ¾Ð¸
Å£ ei
ĠÐĹÐ° ÐºÐ°Ð·ÑĩÐ¸
Ġdi rec
ĠÄ¯ ran
ÃŃ n
Ġkur Ä¯
ÑģÐº Ðµ
ĠJ u
Ġt ro
g ÄĹ
Ġc ir
Ġpri mul
s le
Ð¼Ð¾ÑĤ ÑĢÐµÑĤÑĮ
Ġa ÅŁa
Ñĩ Ñĥ
Ġm ine
l amen
in tas
dien Ä¯
ali tatea
Ġm ic
ĠD ie
Ġa ÈĻa
iu je
ĠÐ¸ ÑģÑĤÐ¾ÑĢÐ¸
ĠÑħÐ° ÑĢÐ°Ðº
Ġof ici
Ð´ ÐµÐ½
Ġe ta
de le
Ġn ostru
me d
d an
N u
ÐºÑĤ Ñĥ
Ġg at
dÅ¾ iai
ĠÐ² Ð¾Ð´
ĠÐ¡ Ð°
Ġpir k
ru omen
Ġdo i
Ġvand ens
Ġcun os
Ã ²
Ñĳ Ð½
ĠÑģÑĤÐ° ÑĤÑĮ
m are
os to
Ñħ ÑĢÐ°
Ġpasi ro
Ġlab iau
19 5
Ġgam in
ĠÐĲ ÑĢ
âĢ¦ ]
ie ji
Ñı Ð¼Ð¸
ĠÐ³ Ð»Ð°Ð²
ĠÐ³ ÑĢÑĥÐ¿
dÅ¾i ui
ĠÐ¾ ÑĦÐ¸
Ġm ea
ÑĤÐµ Ð¼
inink as
ĠÐ² Ð½ÑĥÑĤ
z ia
0 9
ÐµÐ¹ ÑĩÐ°Ñģ
ĠÐ¿Ðµ ÑĢÐ¸
ĠS k
ĠÐ¡ ÑĤÐ°
ĠÐ³Ð¾Ð² Ð¾ÑĢÐ¸
p us
Ġkeli on
en sk
ĠÐ¿Ð¾ÐºÐ° Ð·Ð°
Ðº ÑģÐ¸
3 3
Ġkh Ã´ng
ĠdaÅ¾n ai
g ar
ĠÑĦÐ¸ Ð»ÑĮ
ni ce
ĠÐļ Ð¸
Ġpers onal
ÑĢÐµ Ð²
Ġpir m
Ġof eri
Ñı ÑĤÐµÐ»ÑĮ
Ġpr Ã¡
tin ÄĻ
Ð¼Ð¾ ÑģÑĤÑĮ
Ð «
Ġapro ape
Ð½Ð° Ð»
m ov
Ġsve ta
ĠÐ» Ð°
Ġk m
du ca
kon om
Ġro man
ĠÐ²ÑĢÐµÐ¼ ÐµÐ½Ð¸
l us
ĠÐ¿ÑĢÐ¾Ð² ÐµÐ´
ĠÃ®nain te
6 5
ĠmÄĥ s
ate Ä¾
m ui
ali u
ĠÐ²Ð¸Ð´Ðµ Ð¾
Ġv akar
tin ai
ĠÃ İ
Ñĩ ÑĮ
d ik
ĠÑįÐº ÑģÐ¿
ĠM on
Ġpre s
Ġl o
Ġp ia
Ġimpor tan
c ar
ĠÐ±ÑĥÐ´ ÑĥÑĤ
P re
Ġapsaug os
ĠÐ½Ð° Ð¼
Ġsta bili
Ġv Ã¢r
Ġsus id
ĠÄ¯vai ri
Ġspal vos
ĠRes publi
Ġpri val
Ġv ine
Ġb ene
ĠD o
Ġparduo tu
ĠuÅ¾ tikrin
Å«n as
tuo ti
ĠÄ¯ stai
Ð¼Ð¾ ÑģÑĤÐ¸
ĠÐ¿ Ð¾Ð»ÑĮÐ·Ð¾Ð²Ð°
Ġsu tar
Ġtru mp
ĠÐ¿ ÑĢÐ°ÐºÑĤÐ¸
ĠÐ´ Ð²Ð°
Ġsu dÄĹ
jam as
ĠÐł Ðµ
ti t
an gi
ÑĩÐµ ÑģÐºÐ°Ñı
ĠÐ·Ð° Ð±
ĠÐ¼Ð° ÑĪÐ¸
Ġne gal
ĠÐ² ÑĤÐ¾ÑĢ
ģ u
Ð¾Ð¿ Ð¸
an da
Ġkom and
Ġta u
j Å«
ul a
ĠÃ®ntÃ¢ mp
tÄĥ Å£i
lio ane
ĠL en
Ġ *
Ð¶ ÐµÐ½Ð¸Ðµ
ĠÑģÐ¾Ð± ÑģÑĤÐ²ÐµÐ½
Ã ¹
Ġnuo lat
Ġp ier
ĠÐĲ Ð²
ĠS Äĥ
w s
ĠÑģÐµ Ð±Ðµ
A n
Ġap oi
Ð¾Ð¿ Ð°Ñģ
Ð¾Ð³ÑĢÐ° ÑĦÐ¸
ĠKaun o
ĠÐļ Ð¾Ð½
Ð»ÑĮ Ð½Ð¾Ð¹
ĠÑģÐ¿Ðµ ÑĨÐ¸Ð°Ð»ÑĮ
Ġl ÄĹ
Ġs ale
Ð»Ð°Ð³ Ð¾Ð´Ð°
I C
ĠÐĴ Ð¸
Ġv ii
ch ip
ĠÑģ ÑĩÐ¸ÑĤÐ°
ĠsÄĥ u
b er
por t
ĠÐ²Ð¾Ð¿ ÑĢÐ¾
ĠD in
ĠÐ¿ÑĢÐ¾ÑĤÐ¸ Ð²
Ġat li
ĠÐĺ Ð·
Ġjei gu
Ð¼Ð¸ Ð½Ð¸
ĠÑĢÐµ Ð±
ÐĹ Ð°
Ġin ten
ĠÅł ia
ov ie
Ġa te
tÄĥ zi
Ġvo i
tÄĥ ÈĽi
im ti
Ġex peri
4 4
p ar
Ġc l
ÑģÑĤÐ¾ Ñĩ
Ġto liau
Ġi ch
Äį ÃŃ
Ð½Ñı ÑĤÑĮ
Ġbend ruomen
ĠA k
p t
de o
ÑīÐ¸ Ð¹
ĠÑĢÑĭ Ð½
Ð¾Ð» Ð¾Ð¶
ei d
ĠÐ¾Ð±Ð¾ÑĢ ÑĥÐ´
it al
ĠsÄĥ nÄĥ
ĠÐ¼ ÑĥÐ¶
c ta
fi ce
ĠÐł Ð°Ð·
ĠÑĥ ÐºÐ°Ð·Ð°
ÅŁ edin
ĠV e
ĠÐ² ÑģÑĤÑĢÐµ
ÑĤÐ° Ð¼Ð¸
ĠI l
ĠÐ³ Ð¾ÑĤÐ¾Ð²
ÑģÑĤ ÑĢÐ°Ð½
Ð½Ð° Ð½
ĠKl aipÄĹ
Ġmi lioane
Ðº Ñģ
ÐµÐ¼ Ð°
ĠÐ³Ð¾ÑĢ Ð¾Ð´Ð°
ĠG e
á» Ł
j imo
ki ri
g h
áº ·
Ð²Ð¸ Ð´
o a
ĠÅ¾mo gaus
Ġin tra
__ __
ĠÐ¼ Ð¾Ð´Ðµ
Ġmo teri
k ri
Ġac ela
Ð½Ð° ÐºÐ¾
Ġs l
ing i
Ġsa kÄĹ
ĠÐ¾Ð± ÑīÐµ
ĠK al
Ð½ ÐµÐ¼
ĠÐŁ Ð¾Ñģ
Ġp i
Ġm y
Ġgre i
ĠD aug
0 1
Ġbu de
ÑģÑĤÐ°Ð²Ð»Ñı ÐµÑĤ
ĠÐ¼ Ð¼
Ġ: )
ÑĤÐµÐ»ÑĮ Ð½ÑĭÑħ
Ġnoas trÄĥ
Ð» ÐµÐ½Ð¸Ð¸
Ġde ja
ĠN r
ĠÐ¼Ð½ Ð¾Ð³Ð¸
Ġvar Å¾
Ġsta n
n az
ĠÄ Ĳ
uo ta
v ÄĹje
Å¡k a
Ġbend ro
ĠÅ¡v ies
ÑģÑĤÐ²Ð¸ Ðµ
ui t
ĠÐ¡ Ðµ
to ja
Ñı Ð´
a Å¡
ra k
Ġe di
ĠÐļ Ñĥ
ĠÐºÑĥ Ð¿Ð¸ÑĤÑĮ
Ġdes fÄĥ
ĠÅ¾mo gus
Ġta da
Ġgy dy
ÑĢÐµ Ð¿
Ġkit Äħ
ir Å¾
ĠMold ova
Ġnau j
ali os
res c
ĠT ur
Ãł y
Ġ[ âĢ¦]
Ð ĸ
Ġga ran
s is
Ġv ais
ĠÐ½Ðµ Ðº
ĠÐ¿ Ð¾Ð±
tu p
nÃ½ m
am nÄĥ
ĠÐ¼Ðµ ÑģÑı
Ġsuk n
ĠÐº Ð½Ð¸
un de
Ġsuf le
Ġb and
Ġto ks
to mis
Ġdid esn
ĠIn ter
ÑģÐº ÑĥÑİ
Ġg lo
Å« ri
Ġar t
al Å³
ĠÃ® ÅŁi
ĠÐļ Ð¾Ð¼
Ġnu osta
Ġs tru
200 9
ĠÐ½Ð° ÑģÑĤÐ¾Ñı
n is
S D
si li
Ð² ÑĢÐ°
ĠÐ¶Ð¸ Ð²
ÑĨÐ¸ Ð¾Ð½Ð°Ð»ÑĮ
Ð¸ Ð»Ð¸
et ul
Ġnusta ty
Ġpas id
ĠÃ® ÈĻi
ver tin
Ġp et
ĠÑĥ Ð¿
Ð»Ñĥ Ð±
ĠÐ£ ÐºÑĢÐ°
Ġdien os
Ġtr ong
ĠÐ´ Ð¾Ð²
Ġpri vi
Ġpasa ko
ĠÑħÐ¾ÑĢÐ¾ ÑĪ
ir d
âĢ Ķ
Ġvá» Ľi
ĠÐ¿Ð¾Ð´ Ð´ÐµÑĢ
Å« d
ov i
ÈĻ e
Ġver tin
ĠÐ· Ð´Ð¾ÑĢÐ¾Ð²
ra j
en a
Ġter min
Ġre u
Ð´Ð¸ Ð²Ð¸
Ð½Ð¸ ÑĨÐ°
l usi
Ð¾Ð» Ð°
Ġm á»Ļt
Ġbu v
Ġat liek
Ð¾ÑĢ ÑĤÐ°
Ġvis iÅ¡kai
Ġnu om
Ġde ven
ÑĩÐ° ÑĤ
Ð¿ÑĢÐ¸ Ð¼ÐµÑĢ
Ġcon tro
ĠÐ±ÐµÑģÐ¿Ð»Ð°ÑĤ Ð½Ð¾
ĠÂ ¦
pi on
Ġvis ada
ĠÐ² Ð¾ÑĤ
st ul
Ġm ums
z o
Ġf em
ÑĤÑĥ ÑĢ
lo c
iu a
Ġmok es
Ð· Ð¼
A I
Ġb ibliote
Ġh tt
s to
Ġpe ri
ad Äĥ
ĠÐ»Ñİ Ð±Ð¸
i Å¡
Äĥ rii
Ġap y
en to
4 8
Ñĭ ÑĤ
Ð» Ð¾Ð½
in tÄĥ
ĠÑĨ ÐµÐ½
Ðµ Ð»Ð¸
uk Å¡
a vo
t h
ÅŁ it
Ġlum e
Ġpasaul io
ĠÐ¿ÑĢÐµÐ´ Ð»Ð¾Ð¶
osi us
Ð¡ Ð¢
Ġatve ju
ĠÐ¿Ð¾Ð» ÑĥÑĩ
Ġf ak
Ġkuri o
ĠD id
r ÄĻ
Ġb log
Ġne at
u bi
ĠÐ»Ñİ Ð´ÐµÐ¹
ÑĢÐ¸ Ð°Ð½
Äįi as
p ia
Ð¿ ÐµÑĢÐ°
in Å³
Ġcre d
0 5
ĠÐ¶ÐµÐ½ ÑīÐ¸
ti mi
ro b
ĠÅ¾ ino
g im
Ġdi feri
ĠÑĤÐ° Ð¼
n iÅ³
ĠT ok
ĠÑĢÐµ Ð¼Ð¾Ð½
Â «
ĠÐ¾Ð± Ñĭ
Ġpui kiai
Ġloc ul
ĠL u
Ñĩ Ð½ÑĭÑħ
Ġi den
ateg ori
Ġvie tos
0 7
Ã¡l ne
ĠÐº Ð²Ð°ÑĢ
ĠuÅ¾si en
Ñĥ ÐµÑĤÑģÑı
d ie
ÅŁ e
ĠÐ²Ð° Ð¶
Lietu vos
eÅ¡ ko
áº¡ n
U n
Ġbe veik
le a
Ġlaik Äħ
C on
ĠP or
ÑĩÐµ Ð³Ð¾
te k
ĠÐ¸Ð· Ð¼ÐµÐ½
Ġg Ã¢nd
Ġr us
Ġj iems
ĠÐ¸Ð½ÑĤÐµÑĢ Ð½ÐµÑĤ
ĠK aip
Ð² Ñı
ra m
ĠÑĩÐ° ÑģÑĤ
v or
Ñĳ ÑĤ
E T
ÑģÑĤÑĢÐ° ÑĨÐ¸Ð¸
Ġsp a
Ġb ro
Ġs vo
ĠÑģÐ¿Ðµ ÑĨÐ¸Ð°Ð»Ð¸
ĠÐ¿ÑĢÐ¾ ÑĦÐµÑģÑģÐ¸
Ġv aÅ¾
Ä Ĥ
ÑĤÐµ ÑĢÐ°
ien os
Ġnam Å³
Ġatro do
ĠÐ¿ÑĢÐµÐ´ Ð¿ÑĢÐ¸
un ile
ĠÐ¾ ÐºÐ°Ð·Ð°
c ri
a h
Ġ ÑĪÐ°
ÑĪÐ° Ñı
Ñģ ÑĥÑĤ
ĠÑĢÑĥ Ñģ
Ġm er
Ġpat virtin
tori aus
ĠC ar
ra uk
ta ms
ÑĢÐ¾Ð²Ð° Ð½Ð¸Ñı
Ġd vie
ĠvÄĹl iau
ĠÑģ Ñĭ
ĠÑģÐ²Ð¾ Ñİ
Ġmo ter
Ġpapil dom
ï¿½ï¿½ ï¿½ï¿½
Ġb a
ĠÐ´Ðµ ÑıÑĤÐµÐ»ÑĮ
ta k
Ð¼ÐµÐ½ ÑĤ
Ġac tivi
ta m
---- ----
Ġvede re
áº§ n
ÑĩÐµ Ð±
v Ã¡
Ġor o
ki us
ĠÑģÐ²Ð¾ ÐµÐ¹
Ġran kov
Ġon line
l ÄĹs
Ð¾Ð± ÑĢÐ°Ð·
tin Ä¯
tojam s
ru t
im is
Ð± Ð¾Ð»ÑĮ
ĠÃ®ntÃ¢l ni
Ġre k
ĠÑģ Ð»Ð¾Ð¶
Ġn ov
ĠÐ¸Ð½ ÑģÑĤÑĢÑĥ
ÑģÑĤÐ° ÑĤÐ¾
Ġe mo
Ġl em
Ġta po
Ġfinan s
cu te
Æ°á» Ľ
ÑģÑģ Ð»ÐµÐ´
in h
Ġma g
Ġk v
5 5
Ð» Ð¾Ð³
Ġan ti
ĠÐ·Ð½Ð° ÑĩÐ¸
Ġab y
Ġc ur
ĠÐ° Ð¿
Ġs ocie
ĠÃ®n g
ĠS Äħ
Ġvas ar
ptÄĥ mÃ¢n
Ġdo b
ĠÐ¾Ð¿ ÐµÑĢÐ°
Ġt aik
Ġre f
Ñģ Ð½Ð¾
Ġg en
Ġne reik
Ġe fek
la v
ÑĤÐµÐ»ÑĮ Ð½Ð¾Ð¹
Ġele c
m y
z dÅ¾iui
ĠpÄĥ rin
Ġin stru
cu tÄĥ
ta v
âĢ ¢
Ġal Äĥ
Ġat sp
ÐµÑĢ ÑĤ
Äĥ ri
A M
ĠÑĤ ÑĢÐ¸
Ġvis as
ĠT au
Ð´ Ð¶
P ri
Ġpro iect
Ð¸Ð· Ð¸
Ġnebu vo
ĠÑĢÐ°Ñģ ÑģÐºÐ°
Ġnoas tre
Ã¡c ie
ad em
Ñĭ ÑĤÐ°
iaus iÅ³
c te
ÑĪÐµ Ð»
ĠÃ®nc er
Ġsa us
Ġd atÄĥ
ci d
3 00
p ras
Ġpri sta
n ÄĹs
ĠÐ¾Ð±Ð»Ð° ÑģÑĤÑĮ
Ġ Q
Ġw ww
or g
ÄĹj au
Ġindi vid
ĠÄ¯ gyvendin
ta utin
Ġar ti
Ñĩ ÐµÑĢ
itÄĥ ÈĽi
ĠÐ¶Ðµ Ð»Ð°
Ġre iÅ¡k
Ġats tov
ĠP al
en Ã©
aÅ¾ ny
Ġpre gÄĥ
Ġi tin
ĠÑĥ ÑĩÐ¸
ĠÐ½Ð° Ð·
ĠÃ®n d
ĠÑģÐ¾Ð² ÐµÑĢ
Ġpers on
Ġvai z
Æ°á»Ŀ i
el ia
Ġpa bai
P ar
ÑĤÐµ Ð»ÐµÐ¼
Ġstr aipsn
Ġan ga
ĠÐ²Ð¾Ð·Ð¼Ð¾Ð¶ Ð½Ð¾ÑģÑĤÑĮ
ĠÐ·Ð° Ð½Ð¸Ð¼Ð°
Ġse zon
Ð´Ðµ Ð»Ð¸
Ġl ung
ĠÅ¡ ok
Ġl iber
Ð²Ðµ ÑģÑĤÐ¸
Ġr Ã¢nd
Ġc an
ĠÑĩÐ° ÑģÑĤÐ¸
Ġta mp
z ii
ĠÐĲ Ð½
Ð¿Ð° ÑĢÐ°
Ġaj uns
tu rii
ĠÐ½Ð° ÑĢÑĥ
Ġave m
Ġz o
e x
ĠT V
ĠÐľ Ñĭ
men te
Ġtarp tautin
Ġe k
Ġe t
Ð¿Ð¸ ÑĤÐ°
turi lor
itÄĥ Å£i
o le
tu al
Ġk an
ÐºÑĥ ÑĢ
Ð½Ðµ Ð²
Ġmo Å¾
ĠÐ½Ðµ Ð¼
Ġasi gu
n ai
ĠÐ¾ÑģÑĥ ÑīÐµÑģÑĤÐ²
Ġsavivald ybÄĹs
Ġsa ko
Ġvei klos
ÑĤÐµÐ»ÑĮ Ð½ÑĭÐµ
in iais
n as
ÑĢÐ¾Ð¼ Ðµ
t ne
ĠÐ½Ðµ Ð³Ð¾
ad e
ĠÐŀ Ð´
) ;
ĠÐ¿Ð¸ ÑĤÐ°
s ty
Ġnei Å¡
Ġpro ced
ĠÑı Ð·Ñĭ
ĠÐ¸ Ð¼ÐµÐ½Ð½Ð¾
rep Å¡
Ġm l
m er
ĠA ces
ĠÐĽ Ð¸
g at
ĠR usi
Ġteis ÄĹs
Ġvie tÄħ
0 8
ÑĤÐ¸ ÑĤÑĮ
Ð½ ÐµÐ½
Ġt al
Ġfol osi
Ðµ Ð»ÑĮ
Ġan g
Ġpir min
Å¾i us
c ent
Ð³ Ð»Ð°
ÑĦÐ¸ ÐºÐ°
ĠT ran
ĠÄ¯ dom
Ð°Ð» Ñĭ
Ġsc ris
ÑģÑĤ ÑĢÐ¸
Ġac olo
Ġpir mÄħ
ĠÐ³Ð¾ÑģÑĥÐ´Ð°ÑĢ ÑģÑĤÐ²ÐµÐ½
ĠH o
Ñĥ Ð¼Ð°
ĠÅ¡ vie
b it
Ġsu Å¾
Ġsp un
Ġgener al
ĠC hi
uk as
uo jan
Ġvad in
Ġvand en
Ġorg an
l aid
re gistra
ĠÐºÐ¾Ð½ ÑĤÑĢ
Ġpa ci
Ġspecial is
Ġvis ai
ĠÅ¡al ies
ĠÐµ Ð¼Ñĥ
ĠÐ°Ðº ÑĤÐ¸Ð²
re unÄĥ
Æ° Æ¡
ĠÑĥ Ð´Ð¾Ð±
ÑĨÐ¸ ÐµÐ¹
Ġsu g
l os
Ġko lek
ĠJ uo
Ðķ ÑģÐ»Ð¸
r un
Ġk ry
ĠI I
Ġuniver site
Äĥ n
Ġkon tro
Ð½ Ñİ
uo tas
* *
u jÃº
Ñĭ Ð¼Ð¸
pa ra
ÑĤ ÐµÐ½
kl Å³
Ð¿ÐµÑĢ ÑĮ
ĠÐ¼Ðµ Ð´Ð¸
sk ri
Ð½Ð° Ð¼Ð¸
Ġlum ea
Ġd or
Ġpra c
ĠM inis
Ġprez id
Ð´Ð° ÑĤÑĮ
at al
Ġde Å¡im
Ġme u
de rea
re ct
bÅ« t
Ġo ch
Å¡k as
ĠÐ¸Ð· Ð²ÐµÑģÑĤ
Ġdi za
6 8
ĠPo li
Ġke Äı
Ñĳ Ð¼
ĠÑģÐ´ÐµÐ»Ð° ÑĤÑĮ
ÑģÑĤÐ²Ð¸ Ñı
g yti
Ð´Ð° ÐµÑĤ
ik al
Ġasmen s
Ġde fek
ĠÑģÐ¾Ð² ÑĢÐµÐ¼ÐµÐ½
ÑģÑĤÐ¾Ñı Ð½
Ġtechn ologi
Ġgre u
Ġnau d
ĠÑĩÐµÐ»Ð¾Ð²Ðµ ÐºÐ°
ÈĽion ale
ĠÐ¿ÑĢÐµÐ´ ÑģÑĤÐ°Ð²Ð¸
Å£i ilor
Ġb Äĥr
Ġgar s
ÑģÑĤÑĥ Ð¿Ð°
Ð³ Ð»Ñı
p ir
ÐŁ Ð¾
Ġe konom
Ġbe z
ÈĻ it
o tri
ĠÐ¼Ðµ ÑģÑĤ
Ġe chip
Ġu g
ĠN uo
tori Å³
Ġi z
Ð³ Ð¾ÑĢÐ¸
ik Å¡
Ġz on
ÐºÐ° Ð·ÑĭÐ²Ð°
Ġo re
i ja
ĠÐ² ÑĢÐ°
ĠÐ¿Ð¾Ð¼ Ðµ
. âĢľ
tu m
ÑĢ ÑĤ
ĠC Äĥ
Ġk vie
Ġn atÅ«r
to rin
u z
Ġste b
Ġa min
ul iÅ³
Æ°á»Ŀ ng
Ġi mag
iá» ģu
c ra
Ġca rac
Ð¾ÑĢ Ð¼Ð°
ĠV ie
ĠÐ¿Ð¾ ÑįÑĤÐ¾Ð¼Ñĥ
ĠÑģÐ¸ÑģÑĤÐµÐ¼ Ñĭ
Ġpl ÄĹ
Ġl ini
ĠÐ¿Ð¾Ð² Ñĭ
Ġj aus
ĠRespubli kos
ĠÐ´Ð²Ñĥ Ñħ
Ð¾Ð· Ð°
ĠP ra
Ñī ÐµÐ¼
Ñģ ÐµÐ¼
Ð½Ð° Ð´
Ġcom pe
Ġs ÄĹk
ĠÐ¡ Ð¸
ÑĢÐ°Ð· Ñĥ
Ñģ Ð¾
ÑĤ Ñı
Ġven it
ĠB ra
in ai
Å£ion ale
ri jos
t Ã¡
ĠÑģ Ð¿Ð°
Ġd v
ĠÑĢÐ¾ ÑģÑģÐ¸
ai e
Ġke p
ĠÐ¤ ÐµÐ´Ðµ
ĠÐ²Ð¸ Ð´
ĠA meri
200 8
ĠÐ´ÐµÑĤ ÐµÐ¹
Ġmom ent
Ġkuri ame
ĠÑģÐ°Ð¹ ÑĤÐ°
an s
Å¾ iu
ie mbrie
ĠS ta
as ta
ÑīÐ¸ Ðµ
Ġade vÄĥ
ÑĦ Ð°
E L
Ãł ng
ĠÄ¯ sp
ÅĪ a
Ð¹ ÑģÐºÐ¾Ð¹
Ġa do
ĠK on
Ð¾Ð» Ð¾Ð²
Ġdecla rat
Ġkomp iu
á» ĵ
ĠÑĤÐµÑħ Ð½Ð¾Ð»Ð¾Ð³Ð¸
ĠCon sili
Ġneg ali
Ġvis kas
Ġprie Å¾as
Ġpo z
ĠÐ²Ð° ÑĢÐ¸Ð°Ð½
Ñĩ Ð½Ð¾Ð³Ð¾
and id
ĠÅ¾em ÄĹs
Ðº Ð¾Ð³Ð¾
l ui
Ġap d
Ð²Ð° ÑİÑĤÑģÑı
V is
al iai
ĠS o
l al
Ġskir ting
Ġpat al
ĠÐ¿Ð»Ð¾ ÑīÐ°
Ġv os
Ġne Å¡io
ĠÐ² Ð¼Ðµ
Ġv il
Ġto atÄĥ
ÑĩÐ¸ ÑĤÑĮ
im ais
Ġsti l
ĠÐ¿ÑĢÐµÐ´ Ð»Ð°Ð³Ð°
ÐµÑĤ ÑĮ
ÑĤÐµÐ»ÑĮ Ð½ÑĭÐ¹
ÑģÑĤÐ²Ð¸ Ð¸
Ġpl as
ro d
ĠÅ¡ is
ĠÐ¿ ÑĢÐ°
c re
ĠÐ±ÐµÐ· Ð¾Ð¿Ð°Ñģ
am Äħ
Ä¾ ad
Ġprogra m
Ġb l
ÑĩÐµ ÑģÐºÐ¾Ðµ
ĠÐ²Ð¾Ð¿ ÑĢÐ¾Ñģ
si u
Ġm iÅ¡k
ras ti
ĠÐ¿ÑĢÐ¾ ÑĪ
v iai
Ġk repÅ¡
J ei
io je
Ġc urs
Ġmoky klos
Ġat lik
ĠÄ¯ k
Ð½Ð¸ ÑĨÑĭ
Ġnuro dy
Ã¢n gÄĥ
Ġna k
ĠmaÅ¾ iau
Ð» Ð»Ð¸
Ãł nh
Ġsveikat os
Ġsan ty
vy ko
Ġap a
ĠÐ² Ð¾Ð¹
ut ÄĹs
er ul
ĠÑģÐ¾ÑĤ ÑĢÑĥÐ´
Å¡ a
á»¯ ng
Ġpas ku
Ġpubli c
Ġinforma cijos
ĠÑĤÐ°Ðº Ð¾Ð¹
Ð» ÐºÐ°
Ġka ina
u y
Ġt rup
de p
ĠE S
0 6
Ġtur ÄĹjo
ĠÑĥ Ð½Ð¸
b l
Ġi eÅ¡ko
ÑĢÐ¾Ð²Ð° Ð½Ð¸Ðµ
d io
Ġgal ÄĹs
Ġl up
di ul
Ð Ļ
ĠÐ¿ÑĢÐ¾ ÐµÐºÑĤ
áº£ n
Ġen erg
Ġvie toje
Ġsc op
p al
ĠÐ·Ð° Ð²Ð¸ÑģÐ¸
Ð±Ð¸ ÑĢÐ°
Ġse pte
A t
ĠS lov
ĠÐ£ÐºÑĢÐ° Ð¸
Ġc am
ĠÐ¼Ð° Ñģ
u omet
Ġak tyv
Ġne turi
ĠÐ· Ð´ÐµÑģÑĮ
r al
Ġmin ute
0 3
Ġd ov
Ð·Ð¸ Ð½Ð¾
Ġkuri uos
Ġsem n
ĠÑģ Ð¼Ðµ
ÐµÑĤ ÐµÑĢ
tic k
ur ul
b in
Ġpsi ch
an Äįios
U L
ĠÅ¡ eÅ¡
tr os
ÑģÐº Ð¾Ð²
bo ok
" :
194 5
T ai
Ġsk elb
ÐĿ Ðµ
Ġd Äĥ
ĠsÄĥ ptÄĥmÃ¢n
áº£ i
ĠÐ½ÐµÐº Ð¾ÑĤÐ¾ÑĢ
I M
Ð² ÑĢÐ¾Ð¿
Ġvre me
te sn
de ra
S e
Ġperso an
I Å¡
ÑģÑĤÐ²Ñĥ ÐµÑĤ
ÑĢÐ¸ ÑĤÐ¾ÑĢÐ¸
Ġval and
ĠÑģÐµ Ð³Ð¾Ð´Ð½Ñı
ko u
) )
ĠP Äĥ
z ate
ĠÑĢÐµÐ± ÐµÐ½
Ġdi de
um Äĥ
a ci
vo k
ĠÐ¿ÑĢÐ¾Ð´ Ð¾Ð»
il ia
ia mas
ĠJ e
ĠEuro pe
n et
kl ÄĹ
V I
ĠÑĤ Ð¾Ð¶Ðµ
ÈĽ ei
o arÄĥ
Ġas ocia
7 7
ĠV i
ĠÐ»ÑĥÑĩ ÑĪÐµ
Ġori gin
d ÄĹs
ĠÐ¸ Ð´Ðµ
i re
Å¾ ÄĹ
Ġaces tui
ĠÐ´Ð¾ ÑģÑĤÑĥÐ¿
ĠÐ¸Ð³ ÑĢÑĭ
Ġprie Å¾i
Ñĩ ÐµÐ¼
Ġb ar
ĠÐ²Ñģ Ñĳ
n t
ĠM es
Ġkuri Äħ
Ġaf la
0 4
ĠÑģÐ²Ð¾Ð¸ Ñħ
Ġdrep t
bili tatea
pe k
Ġelek tron
Ġex em
ĠÐ»Ð¸ ÑĨ
Ð»ÑĮ Ð½Ð°Ñı
Ð» ÐµÑĢ
ĠP rin
ĠÑģÑĤÐ° Ð½
Ġne ma
ĠÐ¿ÑĢÐ¾ Ð¸Ñģ
ĠÑĥ ÑģÐ¿Ðµ
ĠÃ® mi
Ġb at
Ð½Ñĥ ÑĤÑĮ
Ġcontin u
Ġv om
Ð½Ð¾Ð² Ð¸
to Äį
Ġnim ic
Ġk ei
ĠÐ½Ð° ÑĩÐ¸Ð½Ð°
9 9
Ñģ Ð¾Ð¼
Ġdis pozi
Ġte hn
Å«r ÄĹ
vo lu
Ġne be
ĠÄ¯vai riÅ³
ÄĹj imÄħ
uk ai
ĠÐ¼Ðµ ÑģÑĤÐ¾
Ġpr os
j er
Ġno iembrie
Ġ ÈĽ
Ġgeri aus
Ñĥ ÐµÑĤ
n ic
ĠÃ®mp reunÄĥ
ĠÂ ·
ent ai
ĠÐº ÑĢÐ¸
ĠÄ¯ ta
ÄĹl ÄĹ
ĠÅ¡ ie
ĠÐ´ Ð½ÐµÐ¹
ÐĿ Ðĺ
us ti
aun a
ĠÑĩ ÐµÑĢ
Ġnau ja
ĠÐ´ÑĢÑĥÐ³Ð¸ Ðµ
ĠS kai
Ġreprez en
ĠÑģÐ² ÐµÑĤ
ĠÑģÐ¾Ð´ÐµÑĢ Ð¶Ð°
Ġl ang
Ġj as
ĠÈĺ i
ĠG er
at ului
ĠpasiÅ« ly
Ðŀ Ð±
Ġng Æ°á»Ŀi
Ġa meri
ĠÐŁ ÐµÑĢ
ĠÐ± Ð»Ð¸
ch Ã¡d
ĠÐ¿ÑĢÐ¸ Ð½Ñı
lo je
v r
Ġj Å«s
Ð·Ð° ÑĨÐ¸Ñı
ĠÑĥ Ð²Ðµ
ĠÑį ÐºÐ¾Ð½Ð¾Ð¼Ð¸
ĠÅ¾ ini
ĠJ ums
ĠÑĩ Ð¸
ĠÑĥÑĩÐ° ÑģÑĤÐ¸
Ġob iec
Ð¾Ð½ ÑĤÐ°
ĠÐ¡ Ð¾Ð²
Ñģ Ð¾Ðº
Ġvar to
ĠÐ³ Ð°Ð·
Ð´Ñĥ ÐµÑĤ
Å¡k os
Ġfa Å£Äĥ
olo Äį
v at
ĠÐ¿Ð¾Ð»Ñĥ ÑĩÐ°
ĠÐ± Ð¸Ð·
Ġas tÄĥzi
Ġk rÅ«
Ġy pat
un ie
ÐºÐ° Ð¼
ÑĤÐ¸ ÑĢÑĥ
ĠÐ²Ð¾Ð· Ð´Ñĥ
Ġb oli
ĠF ran
ĠÐ²Ñĭ Ð±
Ġsusi tik
Ð¾Ð· Ñı
te rin
O M
ĠÐĶ Ð¸
ĠÐ¾ ÑĩÐµ
Ġk rau
Ġvis a
ĠÅ¡i Äħ
Ġmies te
ÑĤÑĥ ÑĢÑĭ
ĠÃ®n to
Ġran k
4 6
ÐµÐ½ ÑĤÑĭ
ÐĴ Ñĭ
Ġtok iÅ³
Ġz d
Ä Į
ĠÐ¡ ÐµÑĢ
ĠM un
Ġminis teri
ĠÑĢÐµ ÐºÐ»Ð°
li ca
Ġfoto graf
ĠÑĦÐ¾ÑĤ Ð¾
ĠÑģÐ² ÑıÐ·Ð°
ci j
ĠÐ½Ð° ÑħÐ¾Ð´Ð¸
Ġk ov
Ġam Å¾iaus
p ene
Ġer d
Ð¾ Ñı
it y
ĠR us
d er
tin ka
Ġv ol
ĠÐ¿Ð¾ ÑģÑĤÐ¾ÑıÐ½
ane vÄĹ
Ġaf ace
lusi v
Ġdoc um
Ġfa cÄĥ
Ġcer ce
ĠÄ ı
on Å³
s en
teri or
ĠJ AV
Ġb aza
le g
Ġaf lÄĥ
Ġf ur
ks tan
Ð¾ÑĢ Ð¾Ð½
Ġver slo
Ġg ÄĹ
ÐºÐ¾Ð¼ ÐµÐ½
au kÅ¡
Ġc in
Ġsc en
Ġv z
va Å¥
Ġb ani
me azÄĥ
ĠP ran
y mo
ĠÑģÑĤÐ¾Ð¸ ÑĤ
Äįia me
ÑĢÐ°Ð· Ð´
Ð²Ð° Ð»
Ġ ui
Ġal b
Ġdo ua
yb es
Ġi ubi
ĠÑĤÐµÑĢ ÑĢÐ¸ÑĤÐ¾ÑĢÐ¸
Ġk et
fer in
Ġv ls
ĠV okie
Ġs tal
ĠB ri
ĠÐºÐ¾ÑĤÐ¾ÑĢ Ð¾Ð¹
ĠÐ¼ ÐµÑĢ
Ġsiste ma
4 2
ĠA f
ĠÑĤÑĢÐ°Ð½ ÑģÐ¿
ĠG o
l Äħ
ĠcÄĥ r
Ġlei dÅ¾ia
Æ°Æ¡ ng
ki ant
ĠÐºÐ°ÑĩÐµ ÑģÑĤÐ²Ðµ
ÑĢÐ° Ñħ
Ġ &
Ġb une
ĠÐ»Ð¸ Ð±Ð¾
Ð¼Ð° ÑĤÐ¸
ĠÐ½Ð° Ð¸
Ġpu ÈĽin
Å¾ ÄĹs
Ġs m
ru mp
ĠÑĤ ÑĢÐµ
tÄĥ Å£ii
ĠÐ´Ð¸ Ð·Ð°
ri st
Ġtink a
ÑĤÐ¾ÑĢ Ñĭ
yb iÅ¡k
de da
Å¾ vel
Ð»Ñı ÐµÑĤÑģÑı
Ġh a
Ġecon om
ir b
Ġre com
tar p
Ð¼Ð° Ð½
Ð¾ÑĢÐ¾ Ð½Ñĭ
Å¡k Å³
ĠI o
ĠÐ¼ Ð¾ÑĢ
Ġz ona
Ġsta r
Ġsusi j
Ġe il
Ðº ÑĨÐ¸Ñı
Ġe gz
ĠÑĤÐµ ÑĩÐµÐ½Ð¸Ðµ
Ñģ Ð¼Ð¾ÑĤ
Ġnh Æ°
Ð¾Ð± ÑĢÐ°
Ġj uri
Ġg auti
f in
Ñĥ Ð»ÑıÑĢ
Ġp une
de a
ĠÐĳ Ð°
Ð¾ Ð½Ñĭ
P entru
ĠC ent
ĠViln iuje
ÑĦÐ¾ÑĢ Ð¼
Ġnh á»¯ng
Ġd Å¾iau
ĠÑģ Ð»Ð¾Ð²Ð°
Ġpal ik
Ġfa ci
ĠÐ¿Ð¾Ð¼Ð¾Ñī ÑĮÑİ
ĠN o
Ġs il
ÑĤÐµÐ»ÑĮ Ð½Ð¾Ð³Ð¾
Ð»Ð¸ Ð²
to mbrie
ĠÐ¸Ð³ ÑĢÐ¾Ð²
Ġap ri
Ġm ici
Ġg ru
Ã´ so
ĠÄ¯ vertin
Ġâ Ĥ¬
0 2
ing Äħ
ĠBucure ÅŁti
ĠT ra
v Ã¢n
Ãł n
ĠÐ½Ð° Ð´Ðµ
ĠF e
Ġvai ruo
ĠÐ½Ð° Ð´Ð¾
Ġa ta
ce mbrie
ĠÑģÑĥ Ð¼
Ð¾Ð² Ð¾Ð¹
ĠÑĩÐ° ÑģÑĤÑĮ
ĠÐ·Ð° Ð½Ñı
t ali
ti ko
ĠÐ¼Ð¸Ð½ ÑĥÑĤ
Ġk omis
ĠÐ´Ð¾ ÑģÑĤÐ°Ð²
Ġsc ur
vi z
Ġge ro
ti mas
20 00
ĠÑģ ÐµÐ¹ÑĩÐ°Ñģ
Ġpl auk
c ces
Ġa ten
ci joje
Ð¾Ñģ Ð¸
g es
Ġf ond
Ġc rea
ĠÑĢÐ° Ð´Ð¸
ÐºÑĤ Ñĭ
otri va
15 0
Ðµ Ðµ
Ġkuri oje
u Å¡
ÑĢÐ° Ð±Ð¾ÑĤÐ°
ĠÐº ÑĢÐ¾Ð²
im in
ĠJ ie
Ġdarb Äħ
ĠÐ¸ ÑģÑģÐ»ÐµÐ´
Ġs ÄĹ
Ġal tÄĥ
ti l
ĠU AB
Ð½Ñı Ñı
ĠÑģÐ°Ð¹ ÑĤ
ĠV id
Ġi dÄĹj
en ÃŃ
fic a
Ġne k
Ð» Ð¾Ð¹
mai l
Ġsepte mbrie
kl ai
co peri
ĠA ce
ĠC luj
Ġsum aÅ¾
200 7
Ðļ Ð°
od atÄĥ
áº§ u
ĠT odÄĹl
Ġki to
ĠB ar
v ine
v ies
tr ul
ÈĻ edin
ĠR ad
Ġar ticol
Ġl it
Ð´ Ð²Ð¸
Ġp ilie
ĠÄ¯ vyk
Ġri dic
Ð ¬
an ta
ĠÑĤÐµÑħ Ð½Ð¸
4 9
Ġkal ba
ĠÐ¸ Ñİ
ĠÐ´Ðµ Ð²Ñĥ
jung os
v imÄħ
Ġin i
ti va
Ġkok ybÄĹs
ĠÑį Ð»ÐµÐ¼
Ġoamen ii
ÐµÐ½ Ð½ÑĭÐµ
Ġc as
ĠD a
Ġje ho
ĠÐ¿ÑĢÐ¾ÑĨÐµ ÑģÑģ
ĠA ng
e f
Ġter men
ĠÑģ ÑĢÐ¾Ðº
Ġpu Å£in
Ġp on
Ġmod er
ĠI ar
Ġs olu
um u
ÑĩÐµ Ð¹
ĠÐľ Ðµ
Ġne m
Å£ ul
Ġin s
Ġgrup ÄĹs
Ð¼Ðµ ÑĢÐ¸
Ġmin im
d ia
ĠÐĴ Ð°Ð¼
Ð´ ÐºÐ¸
ĠÐ¿Ð¾ÑĢ Ð½Ð¾
ĠÑģ ÑĩÐµÑĤ
v Ã½
ĠÐ¿ÑĢÐ¸ Ð¾Ð±
Ġne mok
ny ch
Ġpla ce
Ġnum ele
Å«n Å³
Ġr ung
Ġmal on
ĠÐºÐ¾Ð½ Ðµ
Ġcent ro
ĠÐ´ ÐµÑĢÐµ
ĠkaÅ¾ k
Ġan d
u ch
ĠT he
ĠÄĳ á»Ļ
Ġkalb os
Ġkre ip
Ġpasaul yje
ĠÑģÑĥ ÑīÐµÑģÑĤÐ²
Ð² Ð»Ð¸
ÑĪÐ¸ Ð½
Ġgre itai
Ġspor to
Ġp ost
no u
Å¡ ia
Ġf estival
Ġe rau
ta us
ĠÑģ ÑģÑĭ
ÑĢÐ° Ð¼
Ġob li
i ri
ky mo
ĠÐ¿Ð¾ Ð¸
ĠÐł Ð¤
ĠÑĢÐµ Ð³Ñĥ
Ġman e
an tas
Ġau g
tÄĥ r
Ð¶Ð¸ ÑĤ
ĠrÄĥ mÃ¢n
Ñħ Ð¾Ð´Ð°
jam i
Ġcon ta
Ġmais to
ÈĽ ul
ĠÅ¾ ais
ĠÐ´Ð¾ ÑģÑĤÐ¸
ÑĦ ÐµÑĢ
ĠÅ¡i andien
Ġpa tik
Ġp ul
Ġsti p
Ġpat ys
ĠÐ¿ÑĢÐ¸ Ð·Ð½Ð°
Ġnam uose
Ġstan dar
ÐµÑĤÐµÑĢ Ð±ÑĥÑĢ
ĠÑģÐ°Ð¼ Ð¾
ant Ä¯
Ġinter na
Ġsk at
ĠÑĢ Ð¾Ð´Ð¸
ĠÐ¾ÑĢÐ³Ð°Ð½Ð¸ Ð·
iá»ĩ n
Ġap skri
ĠbÅ« du
Ġg Äĥs
ver si
Ġautomo bil
is e
. ).
kl as
Ġma jo
Ġof erÄĥ
Ġsa ve
mÃ¢n t
Ġreikal av
Ġg ri
m ÄĻ
ĠÑģ ÑĥÐ´
ĠÐ´ Ð²Ðµ
ĠLen ki
Ðĺ Ð½
Ġstra te
ÑĤÐµ Ð³Ð¾ÑĢÐ¸
Ġprodus e
Ġefec tu
is tÄĥ
ÑĢ Ð¾Ð´Ð°
Ġ %
tu me
Ġnes u
ÑĨÐ¸ Ð½
ke j
Ġgeri au
Ð¶ Ñĥ
Ġna p
b ru
ti ca
Å¾ y
ĠM ok
Ġoc tombrie
Ġpre m
Ð½Ð° ÑĢÐ¾Ð´
Ġfap t
ru i
ĠÐ·Ð° ÑıÐ²
Ġb lo
is k
Ð» ÐµÐ½Ð¸Ð¹
Ð»ÑĮ Ð½Ð¾Ðµ
ĠÐ´Ð¸ Ð°
Ġutili za
Ñī Ñĳ
b ri
ĠÅ½ em
Ġlu at
ÈĽi ilor
Ð½Ð° Ñħ
Ġng h
ir Å¡
dÅ¾i os
li ais
ĠS te
Ġinforma cijÄħ
Ġeur Å³
Ġgr Ä¯Å¾
n Å³
Ġpas ik
Ð²Ð° Ð½
Ġpubli ce
A m
Ġmod el
ĠÅ¾ ia
tu t
ÑĩÐ° ÑģÑĤ
p h
ti ka
I A
Åł i
Ðº ÑĤÐ¸
ut ÄĹ
am in
re d
Ġru o
vi ta
Ġa ikÅ¡
ÑĨÐµ Ð¿
Ð²Ð° ÑĤÑĮÑģÑı
ÑĢÐ° ÑĨÐ¸Ð¸
itÄĥ Å£ii
ĠÐ¿Ð° ÑĢÐ°
ĠÑģÐ»Ñĥ Ð¶
ĠÐºÑĥ Ð»ÑĮ
Ġap ar
Ġkon cer
ĠÐ³ ÑĢÐ°Ð¶
ĠÐ¾ÑĤ Ð»Ð¸
Ð¾Ð¼Ð¸ Ð½Ð°
ĠÅ¡al iÅ³
ĠdaÅ¾n iausiai
Ð»ÐµÐ½ Ð°
Ġnuo trauk
ĠÑĢÐµ Ð¶Ð¸
Æ°á»Ľ c
ĠÐ»Ð¸ ÑĪÑĮ
ĠÐ¿ÑĢ Ð¾Ð¼
ĠÑģÐ¾Ð± Ð¾Ð¹
Ġv Ã¢n
ter ul
ĠÐ¾Ðº ÑĢÑĥ
. ),
ÑģÑĤÐ°ÑĤÐ¾ ÑĩÐ½Ð¾
ĠÐº ÑĢÐµÐ´Ð¸
Ġpo trivit
at as
Ġkl ub
ĠLa bai
n io
Ġl Ã¢ngÄĥ
Ġet c
Ġn er
oare ce
ĠÄ¯mon ÄĹs
Ġvaik ams
l d
Ġd Ã´
ĠSf Ã¢n
ĠM aÅ¾
4 7
ĠÑĤÐ¾ÑĢ Ð³Ð¾Ð²
ĠG uver
Ġcau za
Ġp el
Ġso lici
Ġkar tus
ÑĤÑĥ Ð°
Ð¾ÑĤ Ñĭ
Ġpa ke
Ġg au
Ġpra dÄĹjo
6 7
Ġpre lu
ĠÐ¸ÑģÐº Ð»Ñİ
ÐºÑĤ Ð¾Ð²
Ġvis iems
am Äĥ
te is
ĠÐº ÑĢÑĥÐ¿
Ġnaudo ti
Ð»Ð° Ð´Ð¸
Ġvir tu
Ġpo reik
Ð¼Ðµ ÑĩÐ°
O T
Ġv las
á» ģ
19 7
Ġimpor tant
Ãł i
tr Ã¢n
ĠÑĢÐµ ÑĪÐ¸
ia mi
ĠÐ¾Ð±ÑĢÐ°Ð· Ð¾Ð¼
Ð²Ð° Ñİ
v iu
ĠÐ´ Ð°Ð»ÑĮ
ÑĬ ÐµÐ¼
ĠÑģÐ²Ñı Ð·Ð¸
ĠÅ¡eim os
ĠJu de
200 6
Ġb ent
ð Ł
ĠÐ²Ð¾Ð· ÑĢÐ°
ĠÐµ Ñĳ
l aik
ÑĩÐ¸ Ð½
g iu
Ġlaik as
Ġbendra dar
) :
ĠÐ¿Ð¾Ð´ Ð¾Ð±
Ä ĸ
Ġfem ei
as is
Ġgal ÄĹtÅ³
Ġau gal
Ġluc rÄĥ
Ġv eri
Ġe duca
Ġs cÄĥ
ĠP op
Ġfe me
ĠJ i
ĠÐ± ÐµÑĢÐµ
tori e
ĠÐºÐ¾Ð»Ð¸ÑĩÐµ ÑģÑĤÐ²Ð¾
v ent
ĠÑĤÐµ Ð¿
ale le
ĠB i
ĠÐ½Ðµ Ð¹
Ġmun cÄĥ
Ġaj un
Å£ion alÄĥ
ar g
Ġrez er
tin ink
ĠÑĢÐµ ÐºÐ¾Ð¼ÐµÐ½
Ġkari uomen
ul ie
Ġktor Ã¡
ĠÐ¿Ð¾Ð·Ð²Ð¾Ð»Ñı ÐµÑĤ
Ġg aus
kre ip
p y
Ġvis o
ĠÐ½ÐµÐ¾Ð±ÑħÐ¾Ð´Ð¸ Ð¼
ĠV as
ĠÐ±ÑĥÐ´ Ñĥ
Ð¾Ð½ Ð¾Ð²
li i
ĠÅ¡ iek
ab ar
ci jai
n ie
Ð¨ ÐĲ
klaus om
ĠF or
Ġno uÄĥ
it as
tÄĥ ri
Ġte x
ĠÑĢÐ° ÑģÑĤ
ĠÐ´ÐµÐ½ÑĮ Ð³Ð¸
c en
ĠÑĢÐµ Ð°Ð»ÑĮ
ĠÑģÐ¾ ÑĨÐ¸Ð°Ð»ÑĮ
c Å«
ĠÐŁ Ð°
tu d
Ġpat ru
Ġkas dien
ink a
ĠÐ²Ñĭ Ð±Ð¾ÑĢ
Ð¾Ð¶Ð´ ÐµÐ½Ð¸Ñı
ĠÑĢÑĥÐ± Ð»ÐµÐ¹
ĠÃ®n se
ĠÑĤÐµÐ»Ðµ ÑĦÐ¾Ð½
ÑĢÐ¸ Ð¹
Ġe li
Ð· Ð¾Ð²
k la
Ġma x
Ġtok ia
Ġp uo
ĠÐ¸Ð½ÑĦÐ¾ÑĢÐ¼Ð° ÑĨÐ¸Ð¸
!! !
um in
Ġfa ÈĽÄĥ
Ġki ta
Ġvis kÄħ
Ġprofesi onal
ÑīÐ° ÐµÑĤ
Ġtre ce
ĠÑħ Ð¾Ñĩ
ĠE ur
ic ul
Ġpad ÄĹ
tur or
Ð» Ð¾Ð¿
ÑģÐ¸ ÑĤ
Ġu ÈĻ
Ġpask elb
Ð´Ðµ Ð»ÑĮ
ĠS er
Ġdomen iul
ĠÐ¼Ñĥ Ð·Ñĭ
Ġschim b
ĠRe publi
t rin
tori ai
Ġcon duce
Ġsp oloÄį
ÃŃ s
ÑĤ ÐºÐ¸
ĠÐ¿ÐµÑĢ Ñģ
ĠbÅ« klÄĹs
f es
ĠÐ¼Ð¸ Ð½Ð¸
ra us
g no
ĠÑĤÐµ Ðº
ĠÐ½Ð° Ð·ÑĭÐ²Ð°
Ð» ÐµÐ½Ð¸ÐµÐ¼
Ġan ului
Ð¾Ð· Ð¸
Ġdid Å¾i
ĠJei gu
ĠM are
Ġcon te
Ġvis os
o ji
Ð³ÑĢÐ° Ð½Ð¸
Ġi unie
am ent
Ġper k
ÑģÐºÐ¸ Ð¼
ĀĀĀĀĀĀĀĀ ĀĀĀĀĀĀĀĀ
Ñī Ñĥ
Ġkit os
ĠÑįÑĤÐ¸ Ñħ
Ã¡ s
Ġre gis
Ġpask ir
ĠÐ´Ð°Ð½ Ð½ÑĭÑħ
al as
g urÄĥ
Ġtur in
ĠÐ¿Ð¾ Ð½Ñı
one azÄĥ
ÑĢÑĥ Ð¶Ð¸
i rea
Ġdis cu
Ġd en
gs ÄĹjo
de m
an te
Ġprez ent
Ñĥ Ð´Ð¸
Ġv eni
ÑĤÐ¸ Ð¸
ĠÐ¼Ðµ ÑģÑĤÐ°
ĠÅ¡ ven
ÐµÑĢ Ð¾Ð²
ĠsiÅ« l
Ġg uver
Ġautomobi liÅ³
Ġ, ,
ĠÐºÐ°Ð¶Ð´ ÑĭÐ¹
Ġar ch
Ġmar tie
toare le
Ñĩ ÐºÐ°
ĠU r
Ġgeri a
p ul
ĠÐ´Ð¾Ð»Ð¶ Ð½Ñĭ
ĠÑģ Ð¼Ð¾Ð¶
ĠÐºÑĢÐ° ÑģÐ¸
ÐĿ Ðŀ
ĠÄĳá» ĥ
ĠÑģ Ð½Ð¸
La bai
Ð¾ÑĢ Ñĭ
pe rat
Ġt ris
itÄĥ ÈĽii
Ġd ydis
b ol
ĠveÄ¾ mi
ĠÐŀ Ñģ
Ġd ovan
Ġne re
ĠM as
Ð¾Ð¼ Ð°
ĠÐ¾Ð´ Ð½Ð¾Ð¹
ĠK ad
Ġservi ci
m es
Ġsi un
ÑĢ Ñİ
c tul
Ð¾ÑĢ ÑĤÐ¸
Ġco lec
ĠÐ¼Ð°ÑĤÐµÑĢÐ¸Ð° Ð»Ð¾Ð²
II I
ĠromÃ¢n e
ĠÐ¸ Ñģ
ĠÑĦÐ¸ Ð½Ð°Ð½
b an
Ġvien o
Ġpri paÅ¾
Ġa ratÄĥ
ĠÑĢÐ°Ð· Ð´Ðµ
Ã½ mi
p ren
tin ÄĹje
Ġkit as
Ġa fec
ĠÃ®mp otriva
Ġb iu
Ġun ele
Ð»Ð°Ð³Ð¾Ð´Ð° ÑĢÑı
iÅ³ jÅ³
p ol
Ð¶Ð° ÑĤÑĮ
Ġa Å¾
ÑģÑģ Ñĥ
li z
ĠÑį Ð½ÐµÑĢ
Ġkeli Å³
ÐĶ Ð»Ñı
u re
ĠT re
ĠÐ¿ÑĢÐ¾Ð² Ð¾Ð´Ð¸
ĠÐ¸ ÑģÑĤÐ¾Ñĩ
ĠÑĥ ÑģÑĤÑĢÐ¾Ð¹
Ġto m
ĠiÅ¡ g
ĠÃ®n ÈĽele
ĠÐ´ Ð½Ñı
D ar
ĠÐ¿Ð¾ÑĢ ÑıÐ´
c Ã¢nd
ÑĨ Ð¾Ð²
Ġry Å¡
ĠÐ´Ð¾Ð¿ Ð¾Ð»Ð½Ð¸ÑĤÐµÐ»ÑĮ
Ġb es
Ġtu turor
Ġcum pÄĥ
ĠÑħÐ¾ÑĢÐ¾ÑĪ Ð¾
Ġg rÄĥ
Ġexperi en
ĠÃ®n registra
Î º
Ġc os
cul a
ĠÑĢÐ°Ð±Ð¾ÑĤ Ñĥ
ĠE u
i li
Ġpri staty
o vo
ĠÐ¾Ð¿ Ð»Ð°
ĠÑģ Ð¾Ð¿
Ġlig on
Ġsi gu
ta ment
sk ej
6 4
Ġde cembrie
Ġb io
Ġk un
Ġpod Ä¾a
Ġprek iÅ³
Ġdien Å³
ĠÄ¾ ud
ĠÑįÑĦÑĦ ÐµÐºÑĤÐ¸Ð²
Å ©
Ġpo e
ve Å¾
ĠÐ¿Ð¾Ð¿ ÑĥÐ»ÑıÑĢ
ĠÃ®n Å£ele
Ð»ÐµÐºÑģ Ð°Ð½Ð´
t var
ÑģÑĤÐ² ÑĥÑİÑīÐ¸
eli Å³
P e
Ġpad ÄĹti
ĠÂ» Â»
ĠÐ¿ÑĢ Ñı
ĠÐ¿Ð¾Ð² ÐµÑĢÑħ
Ġod os
Å« ro
ĠÐ²Ñĭ Ð¿Ñĥ
Ġs voj
Ġs kiri
áºŃ n
Ġaceste i
Ðł Ðŀ
Ġne ap
Ġke turi
ĠÑįÐ»ÐµÐºÑĤ ÑĢÐ¾Ð½
Ġa men
ĠÐºÑĢÐ° Ñģ
Ġsiste mos
ĠÑģÐ²Ð¾Ðµ Ð³Ð¾
ÃŃ nh
g ea
Ġpas teb
um os
ÑĪ Ñĥ
gus t
Ñı ÑĤÑģÑı
Ä¯ sta
ĠÐ´Ð²Ð¸ Ð³Ð°
men s
Ġneb Å«
ÑĤÐµÐ»ÑĮ ÑģÑĤÐ²Ð¾
ov e
ĠÑģ ÑĢÐ°Ð·Ñĥ
st ra
ĠÑħ Ð¾Ð»
á» Ń
Ġmuz ikos
esn is
ĠÐ¿ÑĢÐ¸ Ð½Ð¸Ð¼Ð°
Ġ =
ia usias
Ġkar o
Ġpop ie
ĠÐļ ÑĢÐ°Ñģ
ÑĪÐ° ÑĤÑĮ
Ð· Ðµ
Ġdar Å¾
I V
Ġprie ten
Ġprim it
do je
ĠuÅ¾sien io
Ġthá» ĥ
Ġmok slo
ĠÑĢÑĥ ÐºÐ¾Ð²
Ġpaslaug Å³
Å¡ tu
Ġras ti
ÑĢÐ¸ Ð½
ĠÑĤÐ° ÐºÐ¸Ñħ
ĠB Å«
Ð» Ð¾Ð³Ð¾
Ġpad id
Ġj a
Ð¾Ð» Ð½
Ġh od
tate le
ĠI s
ÑĨ ÐµÐ½ÑĤ
toj us
ĠÄĳ Ã£
ÑĤÐ° Ñħ
Ð¾ Ñħ
ĠÑĢÐµ Ð°Ð»Ð¸
in y
on ul
Ġf ar
to l
Ġmi j
Ġproble ma
ĠÃ®nce pe
ÑĤÑĥ ÑĢÐ°
Ġto bul
Ġpla Äįiau
ÑĤÐ° Ð¼
ĠÐ¡ ÑĤ
Ġpute m
Ġme il
ys e
ĠÐ¿Ð¾ÑĤ Ð¾Ð¼Ñĥ
Ġdes coperi
ĠK e
ĠiÅ¡ mok
ÑĤÐ° ÑĨÐ¸Ð¸
av imo
Ġpl us
il o
Ð¾Ð¿ ÑĢÐ¸Ñı
Ġt ras
4 00
Ġc ate
ge rea
Ðµ ÑģÑĤÐ¸
ÑģÐ¸ Ð»Ð¸
tÄĥ ÈĽii
ÑģÐ¸ Ð¸
ĠÅ¾i vo
Ġfor m
ĠÐ¿Ð¾Ð´ Ð³Ð¾ÑĤÐ¾Ð²
im s
Ġm m
Ġlaiko tarp
ĠÐ¼Ð¾Ð¼ ÐµÐ½ÑĤ
ĠP anevÄĹ
Ġap si
ĠÃ®nc Ã¢t
Ġfru mo
Ñģ ÐµÑĢ
o ara
ĠÑĩÐ° ÑģÑĤÐ¾
Ġc ol
ĠÐ¿Ð¾ÑĤ Ð¾Ð¼
ĠÐ¼ÐµÑĤ Ð°Ð»
din ÄĹs
Ġinfor m
Å£ at
Ġt vir
iek vien
ĠD upÄĥ
ĠÐ¿Ð¾Ð´ Ð°
Ġde r
Ġdrau d
Ġz iua
Ñı Ð²Ð»Ñı
Ġw eb
ĠLietu va
6 6
Ġsf Ã¢r
ÑĤÐµ ÑģÑĮ
h ov
tri bu
Äĥ rÄĥ
á» £
Ġteig ia
Ġobli ga
ing os
ÑģÑĤÐ°Ð²Ð¸ ÑĤÑĮ
zi jos
ĠiÅ¡ skir
ĠÄį em
Ã®n d
Ġre al
ĠÑĢÐ°Ð· Ð¼ÐµÑĢ
Ġcon for
ĠV ai
ĠÅ¡ im
Ġa duce
Ð½Ð¸ ÑĤ
Ġj ung
j asi
á» ķ
T e
in ei
ĠÐ²Ð½Ð¸Ð¼Ð° Ð½Ð¸Ðµ
Ġpra k
Ġvaik ai
ÑģÐº Ð¾Ð¼Ñĥ
h Ä¾ad
ni ci
ĠSe imo
d es
Ġkit us
ĠuÅ¾ s
E D
ĠÐºÐ¾Ð½ ÑģÑĤÑĢÑĥ
Ġb aÅ¾ny
o re
Ð½Ð¾ÑģÑĤ ÐµÐ¹
Ġloc al
ĠÑĦ Ð¸Ð·Ð¸
ĠÐ° Ð³
Ġvie ta
ĠÃ®nse amnÄĥ
Ġc en
e cu
ĠÑĤ ÑĢ
Ġpana Å¡
Ġ '
Å«r Äħ
ĠÐ°Ð² ÑĤÐ¾
Ġs lap
ĠÑĢÐ°ÑģÐ¿ Ð¾Ð»Ð¾Ð¶
Ġsta tyb
Ġp Äĥr
ĠÐ´ÐµÑıÑĤÐµÐ»ÑĮ Ð½Ð¾ÑģÑĤÐ¸
ĠÐºÐ¾Ð¼ Ð°Ð½
ĠÐ§ Ðµ
Ð¸ Ð»
Ġsiste m
Å¡k Äħ
Ġpam at
ĠÐ½Ðµ Ð·Ð°
Ġre kl
ĠÐ¾ Ñħ
ĠÐ¿ÑĢÐ¸ Ð¼ÐµÑĢ
ĠÐºÐ¾ÑĤÐ¾ÑĢ Ð¾Ð³Ð¾
ĠÃ®n che
Ã¢ y
Ð»Ðµ Ðµ
Ġgra Å¾
ĠBucure ÈĻti
ĠÐ¿ÑĢÐ° Ð²Ð°
fe ct
ĠÐ¾Ñģ Ð½Ð¾Ð²Ð°
Ġnau jas
Ġatli kti
Ð´ ÑĭÑħ
Ð»Ð° Ð´
Ġc etÄĥ
Ðµ Ð´Ð¸Ð½
ĠÑģÐ¸ ÑĤÑĥÐ°
ĠÄĮ ia
Ġprofesi on
ÑģÑĤÐ²ÐµÐ½ Ð½ÑĭÑħ
ĠÐ³ ÑĢÑĥ
ĠvÄĥ zut
Ġp ic
ÈĽion alÄĥ
ĠbÅ« na
Ġkar tais
ĠÑĩÐµ Ð³Ð¾
Ġrec un
el s
tre m
ĠÑĥÑģÐ»Ñĥ Ð³Ð¸
Ġinforma cija
Ñĩ ÐµÑĤÐ°
ĠÐ½ Ð¸Ð·
ĠÐ¿ÑĢÐµ ÐºÑĢÐ°
Äįio je
Ð¾ Ð½Ð¸
ĠÑģÑĤ ÐµÐº
Ġvor ba
ĠÐ¿ ÑĢÐ°Ð·Ð´
ĠM od
Ġb irÅ¾
Å¾ ai
tÄĥ m
ĠÅ¾ al
anu arie
ve d
Ġfor mul
4 1
ve de
Ġreik Å¡
ĠÐ·Ð°Ð± Ð¾Ð»Ðµ
ĠY ra
Ġket vir
ÑģÑĤÐ° Ð½Ð°
ĠÐ½Ð° Ð»Ð¸ÑĩÐ¸
Ġby Å¥
ĠS U
Ð½Ð¸ ÑĨ
Ð³Ð¾ÑĢ Ð¾Ð´
Ġcomun ic
ĠdÄĹmes Ä¯
Ð´ÐµÑĤ ÑĮ
Ġm ani
uojam a
ĠÐ½Ð°ÑĪ ÐµÐ¼
Ġmod ul
ĠN et
Ġmom entul
Ġz e
ÐµÐ½ Ð¾
P a
duo ti
Ġpri va
Ġats to
tuo ja
Ġl og
201 9
li en
chÃ¡d za
ĠÐ¾Ð±ÐµÑģÐ¿Ðµ ÑĩÐ¸
A C
Ð¾Ð± ÑīÐµ
Ð¶Ð´ ÐµÐ½Ð¸Ðµ
Ġz is
Ð±Ð¾ ÑĢÐ°
Ġto tul
ĠN es
Äį o
Ġrek omen
ĠÐ´Ð¾Ð»Ð¶ ÐµÐ½
Ã¡ v
Ð¼ÐµÐ½ ÑĤÑĭ
Ġkad a
Ġpri ve
Ġnau jÄħ
Ġpa vir
ĠÑģÑĤ Ð¾Ð»
ĠÐ² ÐºÑĥ
ĠprieÅ¾i Å«ros
Ġre pe
Ð½ Ð¾Ðº
ĠÐ¸ÑģÐ¿Ð¾Ð»ÑĮÐ·Ð¾Ð²Ð° ÑĤÑĮ
ĠÑĩÑĥ Ð²
ĠÑģÑĢÐµÐ´ ÑģÑĤÐ²Ð°
Ġvei klÄħ
A c
ĠÑĥ ÑĤÐ²ÐµÑĢ
ĠÑģÑĤ Ð¾ÑĢÐ¾Ð½Ñĭ
Ġd aik
Ð²Ð»Ðµ ÐºÐ°
. âĢĿ
ĠÐ»ÑİÐ± Ð¾Ð¹
din ÄĹ
k is
Ġpre ci
ĠÐ·Ð° ÐºÐ°Ð·Ð°
ĠD es
ĠÐ¡ Ð°Ð½
ic ia
Ġvia c
Ġk ie
ĠÐ³Ð¾Ð» Ð¾Ð²
Ġtranspor to
leid Å¾ia
p Äħ
og le
A u
Ðº Ð¾Ð²Ð°
Ð´ ÑĥÑĤ
Ã¢ m
ĠÐ¿Ð¾Ð»ÑĥÑĩÐ¸ ÑĤÑĮ
ĠÐ¿ÑĢ Ð¾Ð¿
gi ja
j un
8 5
G B
9 5
ĠÑĤÐ° ÐºÐ¸Ðµ
Ġpas ak
ĠC um
ĠÐ±Ñĭ ÑģÑĤÑĢÐ¾
Ġc alitate
ĠÐ¿ÐµÑĢÐµ Ð´Ð°
ĠP R
Ġsun k
4 3
Ġapli ca
Ġgalim ybÄĻ
Ġvy ko
Ġar Äĥ
ÑĢÐµ Ð·
N or
yst ÄĹs
tu kas
Ġde mon
g re
ĠÑĪ ÐºÐ¾Ð»
ĠÐºÐ¾Ð½ ÐºÑĥÑĢ
áºŃ t
Ġdalyva vo
Ġlim ba
ĠmÄĹnes Ä¯
Ġpriklaus o
ÑģÑĤÐ²ÐµÐ½ Ð½Ð¾Ð¹
ĠÐºÐ° Ð·Ð¸Ð½Ð¾
Ġk hi
tÄĥ rii
Ġ ÑĪÐµ
ĠÐ½Ð¸ Ðº
Ġdin tr
Ġprop rie
Ġn as
am Å³
Ġof er
ari a
Ð³Ð° Ð½
ĠÑĥÐ¿ÑĢÐ°Ð² Ð»ÐµÐ½Ð¸Ñı
/ .
p Å³
ĠÐ¡ Ð¨ÐĲ
este a
Ñĭ ÑĪ
Ð¾Ð· Ð½Ð°
ĠsÄħ raÅ¡
Ġpre ven
Ð¿ Ð¾Ð²
ÑģÐµ Ð´Ð°
Ġgyven imÄħ
en Ã½
ĠÐ¿Ð¾ Ð½Ð¸Ð¼Ð°
ĠkÅ« no
rin k
tu mÄĹ
Ġskai ty
vo d
Ġde oarece
Ġf on
ĠÑĢÐ¾ÑģÑģÐ¸ Ð¹
ĠÐ² ÐºÐ»ÑİÑĩÐ°
Ġna tur
Å£in ut
ÈĽin ut
ad ien
p el
Ġi ulie
b ate
ĠLietu vÄħ
ÐºÐ° ÑĢ
ĠvÅ¡ ak
ĠÅ«k io
Ġpre ÅŁedin
Ġabs ol
st Äħ
ÑħÐ° Ð½Ð¸
Ð´Ð¸Ð²Ð¸ Ð´Ñĥ
Å¾ o
ĠÐº ÑĢÑĭ
ti Å¡kai
ĠÑĥ Ð·Ð½Ð°
ĠÐĽ Ñİ
Ð» ÑĭÑħ
n ÄĹ
v z
ra ta
Ġnum e
ĠÐŀ Ð½Ð¸
Ġt Å«
ks o
ĠN ic
Ðµ ÑĢÐ¸
Ġm ama
Å«k st
z id
Ð»ÐµÐ½ ÑĮ
ĠÐºÐ²Ð°ÑĢ ÑĤÐ¸
c le
ĠÐ¾ Ð´Ðµ
Ã´ i
ĠÐ¶Ð¸Ð· Ð½ÑĮ
Ġcre din
Ð¾Ð» ÐµÐ·
ÑĤÑĭ Ð¹
ÑģÐº Ñĥ
Ġan um
Ġsp rij
ge re
Ġne Å¾
ran ta
Ġdefek tÅ³
ĠÑĥ ÐºÑĢÐ°
Ġap ib
ĠV ar
ÑĩÐµÑģÐºÐ¸ Ð¼
ĠÐ»Ñİ Ð´Ð¸
x ima
Ð½Ð° ÑĤ
Ðµ Ð»Ð°
ch od
Ġt Å«kst
ĠmedÅ¾ia gos
ÑĦÐ¸ ÑĨÐ¸
f t
ĠS h
ĠÐ¿Ð¾Ð»Ð¸ ÑĤÐ¸
ap te
ĠP at
Ġpadar yti
ĠÐ½Ð° Ñĥ
Ġprivi re
as trÄĥ
ing Å³
re u
ĠÐ²Ðµ ÑģÑĮ
ÑĤÐ° Ð½
100 0
Ġlan s
Ġsu cces
Ġv rea
ĠÐ²Ð½Ðµ ÑĪ
Ġdiferi te
Ð² Ð¾Ðµ
Ġpad eda
Ġse ri
ĠÐ¿ÑĢÐµÐ´ ÑģÑĤÐ°Ð²Ð»ÐµÐ½
Ġta p
ĠÐ½Ð° Ð¹ÑĤÐ¸
Ġhtt p
v ÃŃ
ĠÐ° Ð±
ok Å¡
á» ĥ
Ġvy ksta
Ðļ Ð°Ðº
Ġ ris
Ŀ i
Ġi anuarie
ĠprÃŃ pad
v ia
Ġrung tyn
O L
Ġk odÄĹl
Ġa chi
ĠMi h
ÑĩÐµ Ðº
ĠÐµ ÑīÑĳ
Ġs ovie
Ðľ Ð°
Ġanks Äįiau
Ġg ran
Ġjok iÅ³
ĠÐ²Ð½ÑĥÑĤ ÑĢÐµÐ½
ĠÐ° Ð»
Ġreprez intÄĥ
Ġb áº¡n
Ð± Ð¸Ð½
in Äħ
ĠÐ¿ÑĢÐ¸ Ð½
Ġme ci
Ġre Å¾
ĠÑĤ Ñı
y ta
Ġf ra
á»ĳ i
ĠT rump
ĠÐº ÑĢÑĥ
y kl
Ġb ri
Ġpri es
ĠÐ¼Ð° ÐºÑģÐ¸
Ġm Äĥr
ĠÐ´ Ð»Ð¸
ta ÈĽi
Ġro ku
200 4
in imÄħ
Ġsa ul
ĠÑĩÐ¸Ñģ Ð»Ðµ
Ð¾ ÑĪ
l au
Ġdes chis
Ġvi deo
Ðł ÐĲ
Ġle gÄĥ
Ð»ÐµÐ½ Ð½ÑĭÑħ
ĠÅ¡ t
Ã¢ mb
Ġmuz ik
Ġveik ia
mo je
ĠÐ·Ð½Ð° ÐºÐ¾Ð¼
ĠÑĥÑģÐ»Ñĥ Ð³
ĠÑģÐ°Ð¼ ÑĭÑħ
Ġpirmin ink
ĠÐ½ Ð¾ÑĢÐ¼Ð°
áº ©
tin ius
ÐºÐ¾Ð» Ð¾
Ġra m
z bo
ĠÐ½ Ð¾Ð¼
ĠÅ¡ ird
ÑģÑĥ Ð»ÑĮ
Ð» ÑĭÐ¹
ĠÑĦÐ¾ÑĢ Ð¼Ð°
ĠÐ´ Ð¾Ð³Ð¾Ð²
Ġaces tora
j imas
ĠÐ½Ð° ÑģÐµ
uo ju
Ġrecom and
ĠÐ²Ñĭ ÑĪÐµ
ĠSkai tyti
Ġpa vas
ÑĢÐ° Ð¼Ð¸
Ġc Ã´ng
ĠP la
Ð»ÐµÐ½ Ñĭ
Ġgim naz
Ð± Ð¾Ð»ÐµÐµ
ĠÐºÐ° ÑĤÐµÐ³Ð¾ÑĢÐ¸
ĠAle x
in iams
Ðµ ÑĪÑĮ
ÄĹj ÄĻs
ĠÐ¸Ð· Ð³Ð¾ÑĤÐ¾Ð²
ÐµÐ½ Ð½ÑĭÐ¹
ÑģÐ»Ñĥ Ð¶Ð¸
ÄĹ me
ĠÑĤÑĭ ÑģÑı
Ġap tar
Ġpa var
Ġj ÄĹg
Ġnu k
Ġora ÈĻ
Ġdvie jÅ³
N a
D acÄĥ
es e
ĠP h
Ðŀ ÑĤ
Ġmo de
ri m
oc a
ĠÐ½Ð°ÑĪ ÐµÐ¹
Ġsvar bu
Ð¾Ð·Ñı Ð¹
ĠÄ¯ raÅ¡
Ð¾Ð² Ð¸
Ġs os
ĠÑģ ÑĢÐµÐ´Ð¸
ÑĪ ÐµÐ¼
ov Ã©
ww w
ĠÐ¼ÐµÑĢ Ð¾Ð¿ÑĢÐ¸Ñı
Ġa ÈĻte
Å¡ en
ĠÐĲ Ð»ÐµÐºÑģÐ°Ð½Ð´
Ġat skir
ĠÐ²Ðµ Ð´ÑĮ
Ġac tu
ĠÐ´ ÐµÐ½Ðµ
ĠalÄĥ turi
Ġcent re
ĠÑĢÐµÐ³Ð¸ ÑģÑĤÑĢÐ°ÑĨÐ¸Ð¸
ÐµÐ½ ÑĤÐ¸
Ġde ose
Ã¹ ng
Ð´ Ð¾Ð¼
ĠD an
ming ai
ĠÐ½Ðµ Ð±Ð¾Ð»ÑĮ
ici pi
Ġkar to
Ġpato g
rii le
ĠA Å¡
uri a
Ġdar yti
Ġspe cta
tra u
Ð¿ Ð¾Ð´
áº ½
n it
d atÄĥ
Ġte ma
ra do
ĠEuro pa
ĠNor s
ĠÑĤÐµÐ¼ Ð¿ÐµÑĢÐ°
um Å³
ĠÅ¡ ak
ĠÐľ Ð°ÑĢ
Ġpak ei
E C
ki os
ĠÑģÐ¸ Ð¼
ĠR y
gu Å¾ÄĹs
Ġvisuomen ÄĹs
ÑģÑĤÐ²ÐµÐ½ Ð½Ð¾Ð³Ð¾
Ġte ren
Ñĩ Ð½Ð°Ñı
ace book
ÑģÑĤÑĮ Ñİ
on iÅ³
Ġc res
5 6
ĠKlaipÄĹ dos
ĠÐ¿ÑĢÐµÐ´Ð¿ÑĢÐ¸ Ñı
Ġpartizan Å³
Ġv es
Ġtamp a
ĠÑĢÐ°Ð·Ð²Ð¸ ÑĤÐ¸Ñı
ĠE n
ĠÐºÐ¾ÑĤÐ¾ÑĢ Ð¾Ðµ
ÑĤÐµÐ»ÑĮ Ð½Ð¾Ðµ
ÑģÑĤÐ²ÐµÐ½ Ð½ÑĭÐ¹
g Å¾
ĠÑģÐº Ð¾ÑĢÐ¾
tel ÄĹ
ĠC el
ĠÅ¾ ai
ĠÐ´ÐµÐ»Ð° ÑĤÑĮ
Ġpov eik
tru o
Ġv ÄĹ
ĠÐ·Ð° ÐºÐ°Ð·
is m
Ġtele vizi
ĠÑĪÐ¸ ÑĢÐ¾Ðº
Ġbu d
ÑģÐ¸ ÑĤÑĮ
Ġs mul
ĠÐ´Ð¾ ÑģÑĤÐ°ÑĤÐ¾ÑĩÐ½Ð¾
Ġac el
ur ÄĹs
ri c
ĠÐ¾ÑĩÐµ ÑĢÐµÐ´
Ġk to
ĠÐ¿ÑĢÐ°Ð² Ð¾
Ġcomp an
Ð¾Ð³ Ñĥ
Ġre duce
ĠÑĤ Ð¾Ð»
ĠÐ¿Ð¾Ðº ÑĢÑĭ
ĠÅł is
Äħ s
k ia
Ġna Å¡
ĠÐ¿ÐµÑĢÐ¸ Ð¾Ð´
Ġcon form
ĠÐ½Ð° Ð±
au jan
ĠÐ¿ÑĢÐ¾Ð² ÐµÑĢ
Ġnep as
le p
ĠÐ½Ð°Ð¿ ÑĢÑı
Ð³ ÑĢÑĭ
C u
en ii
194 4
k io
ĠÑıÐ²Ð»Ñı ÑİÑĤÑģÑı
ĠV er
a ct
Ð»ÑĮ Ñı
ĠÐ¾ ÑĦÐ¾ÑĢÐ¼
le is
Ġapd ovan
Å¡k iÅ³
dÅ¾ ius
ĠreiÅ¡k ia
Ġmerg ai
ĠÐĽ Ðµ
ĠÐº ÑĢÐµ
ĠÑģÑĤÐ° ÑĢ
Ð¼Ð¸Ð½Ð¸ ÑģÑĤÑĢÐ°
ĠAs ocia
Ġpun ct
Ġe p
Ð² ÑĭÑħ
ĠÐ¼ÐµÐ½ ÐµÐµ
tel ÄĹs
ĠÑĥ ÑĩÐµÐ±
da j
Ġnivel ul
Ġdarb Å³
Ð³Ð¸ Ð¸
ĠÐ¼Ð¾Ð» Ð¾Ð´
ĠÐºÐ»Ð° ÑģÑģ
ĠÑģÐ»Ðµ Ð´ÑĥÐµÑĤ
ĠÐ° Ð½Ð°Ð»Ð¸
ĠÃ®nt rea
Ðŀ Ðŀ
Ã³ n
Ðº ÐµÑĤ
d ant
Ġreg ul
ĠÐ¸Ð³ ÑĢÐ°
Ġele ment
Ġcon stitu
E M
Ġd im
ve j
ĠTai gi
ĠÐ¾ ÐºÐ¾Ð½
ĠÐ¾Ð´ Ð½Ð¾
om os
Ġsup er
k et
ies c
ĠC a
Æ¡ n
ÑĢÐ¸ Ð½Ð°
Ġd ur
ĠÐ¿Ð¾ ÑģÐµ
ĠÑģ Ð»Ð¾Ð²
ĠÐ¾ Ð³ÑĢÐ°Ð½Ð¸
ĠÐĴ Ð¾
ĠB end
ik Å³
Ġj ai
v ais
Ġpra Å¡
ĠX X
Ð»Ñı ÑĤÑĮ
Ġau gust
ĠG ra
du c
Ġg ir
ĠÑĤ Ð²Ð¾ÑĢ
Ġpre to
b Å³
Ġexem plu
Ġprojek to
P ir
Ġa van
Ġsu pl
ĠÐŁ ÑĢÐµÐ´
Ġfin al
Ġsc rie
ĠK om
v om
b and
ĠÐ¼ Ñı
ÑģÑĤÑĥ Ð¿Ð¸
ÑĢÐ¸ ÑĤÐµ
ie re
Ġne a
an h
Ġleng vai
A D
Ġu p
Ġcu prin
Ġdrep tul
um ul
ĠÐ² ÑĢÐµÐ¼ÐµÐ½
k Ã¡
ĠÅ¾ urn
Äį nÃ©
ĠÐºÐ¾Ð¼Ð¿Ð° Ð½Ð¸Ñı
Ð»ÑĮ Ð½ÑĭÐ¼
Ð¼ÐµÐ½ ÑĮ
Ġcon curs
Ġi ub
ĠO b
Ġvid utin
Ġs Ã¢n
ĠÐ·Ð° Ð¿Ð°
Ġprek ybos
ĠU S
Ġgyven tojÅ³
ĠÐ°Ð² ÑĤ
ĠÃ®n sc
ĠD ydis
Ġf eri
ÑĤÐµÐ»Ñı Ð¼
ĠF il
Ġe vid
ĠÑģ Ð½Ð°
Ð¾ÑĤ Ð¾
kri Äįio
v et
Å«n ai
Ð¾Ð± ÑĢÐ°Ð¶
i ilor
ĠÐłÐ¾ÑģÑģÐ¸ Ð¹ÑģÐºÐ¾Ð¹
% ,
ÑīÐµ ÑģÑĤÐ²Ð°
ÑĢÑĥ ÐµÑĤ
Ġcu vin
ĠB iseri
ĠÐ´ ÐµÑĢ
Ġan im
ari i
Ġkeli as
Ġsky riaus
Ġ Å£
b ie
Ġservi cii
Ð¾ÑĢ Ð¾Ð¶
ĠÑĢÐ°Ð· ÑĢÐµ
ĠlÄĹ Å¡
ĠS en
Ġd umne
jam os
Ð¾Ð» ÐµÑĤ
Ġl una
Ġa be
Ġpa j
fe ra
Ġk t
Ġskai Äįius
Ġsuteik ia
Ġb ur
Ġc at
Ġkompiu teri
ĠkÅ« rin
ÑģÐ¸ Ñı
Ã¤ Äį
Ġnau jÅ³
Äįi Å«
on sa
Ġin dus
ÐĴ ÑģÐµ
ĠÐº Ð¾Ñģ
Ġver sl
Ð·Ð¸ Ð¸
Ġproble me
Ġmo tiv
tr Äħ
ĠcÄĥ lÄĥ
p li
Ġn ad
Ġprin tre
ĠÐ¼Ð¸ ÑĢÐ°
ĠÑĤ ÑĥÑĤ
st vo
rÃ¡ v
ÑĪÐµ Ðµ
Ġdru m
no t
1 20
Ð¡ Ðļ
ĠÐ¿ÑĢÐ¾ÑĦÐµÑģÑģÐ¸ Ð¾Ð½Ð°Ð»ÑĮ
Ð ®
ĠÐ¿Ð¸ÑĤÐ° Ð½Ð¸Ñı
ÑħÐ¾Ð´ ÑıÑĤ
ĠÐ¼ Ð»
Ð» ÐµÐ½Ð¸Ñİ
Ð¾Ð´ Ð¾Ð²
Ġcent ras
Ġsa k
ĠÐ¾Ð´ Ð½Ð¾Ð³Ð¾
Ġra ud
si on
ile a
Ð¼Ð¸ Ð½
ver se
vo ri
I L
ov Ã¡
ĠN au
Ð»Ñĥ Ñĩ
Ñİ ÑīÐµÐ¹
ĠÑģÐ¸ÑģÑĤÐµÐ¼ Ð°
od Å¾io
m it
5 8
Ġc Ã¢n
ĠP ag
... ]
Ġdirb ti
to area
Ġ Å£Äĥ
Ġpet re
g oje
Ġna cional
ĠuÅ¾ saky
ÑĤ Ð¾Ð¹
d al
b el
ĠÐ¼Ð¾ Ñī
Ġkom un
Ġfil m
ĠÑĩ Ð¸ÑĤÐ°
ÑĩÐ¸ Ðº
Ġinc lusiv
Å¡k i
ÄĹl ÄĹs
Ġmen o
ĠÐ´Ñĥ Ð¼Ð°
Ġati tink
ĠM at
ÑİÑīÐ¸ Ð¼
Ġsun tem
Ġpa ten
Ġda tori
ĠÐ½Ð¸ ÑĩÐµÐ³Ð¾
Äįia ms
p are
Ġos ob
Ġk elis
Ġs lu
ang os
Ġre mon
B e
ĠÐ± Ð»Ð¾Ðº
ovan ie
Ġs ien
ais iais
Ġprote c
ĠÐ¾ÑĢÐ³Ð°Ð½Ð¸ Ð·Ð°ÑĨÐ¸Ð¸
Ð¶ Ð½ÑĭÐµ
Ġdisp oni
ĠÃ® ÈĽi
le men
Ñī ÑĥÑİ
ÑĤÐ¾ÑĢ Ð¾Ð²
Ġb ate
t s
ĠJ os
ĠÐ¿Ð¾Ð» Ð½Ð¾ÑģÑĤÑĮÑİ
bili tate
ĠÐ°Ð½ ÑĤÐ¸
ĠÐ»Ð¸ ÑĨÐ°
ĠK o
l ais
Ġho tÄĥr
ĠÑģ ÑĢÐ°Ð²
u ta
ÑĮ ÑĤÐµ
Ġ ÑĢÑıÐ´
un ilor
Ġ| --
ĠÐ¿Ð»Ð° ÑģÑĤÐ¸
ĠÑģÑĤ Ðµ
ĠÐ¸ÑģÐº ÑĥÑģ
Ð· Ð¾ÑĢ
Ð¾ÑĢ Ñı
ĠL at
Ġe mis
ĠÑģÐµÑĢ Ð²Ð¸
z ul
ĠÐ·Ð° Ð¿
Ġde f
ĠÐ´Ð¾Ð± Ð°
Ð¾ ÑĤÐ°
p en
ĠÐ¿ÑĢÐ¾ ÑĦÐ¸
Ð¸ ÑĢ
T o
ĠÐŁ Ñĥ
ĠÐ²Ð¾Ð¿ÑĢÐ¾ ÑģÑĭ
Ġru g
ÄĹl is
ÑĪ ÐµÐ½Ð¸Ð¸
d aug
it ÄĹs
Ġpo tre
ĠT ies
á»ĳ ng
g et
ĠÐ¡ Ñĥ
g ii
ĠÐ¿Ð¾Ð´ ÑĤÐ²ÐµÑĢ
ĠConsili ului
Ġdra bu
I D
Ġrespec tiv
ti onal
Ð½ Ð¾Ð¿
ĠG i
yb Å³
ĠkÅ«r yb
ĠP SD
ci on
dy mas
Ġlab iausiai
Ġpinig Å³
ÑĩÐ¸ Ñģ
Ġpas is
ĠK as
and Å¾io
ĠÑģÐ¾ ÑģÑĤÐ°Ð²
mon ÄĹs
ĠR Äĥ
r Ä¯
ĠC ur
ĠÐ³ ÐµÑĢ
Ġ ?
tu ok
Ð½Ð¸ ÑĨÐ¸
h an
ĠD ÄĹl
ĠvaÅ¾ i
Ġautomo bili
Å¾iÅ«r ÄĹti
Ġd l
Ġdien a
Ġtur ÄĹti
Ġru gÄĥ
z as
Ġp ies
200 5
Äįi ui
ĠÑĥ Ð²Ð¸
Ñı ÑĤÐ¸
ĠÑĢÐ°Ð±Ð¾ ÑĤÐµ
Ġpan audo
Ġan tre
Ð³ ÑĢÑĥÐ·
Ġp ig
ĠÐ¸Ð½ Ð´Ð¸Ð²Ð¸Ð´Ñĥ
Ġperio adÄĥ
Ġimp li
ĠÑģÐ¾Ð²ÐµÑĢ ÑĪÐµÐ½
ĠÐºÐ°Ðº Ð¾Ð¹
ĠÐŁÐ¾Ñģ Ð»Ðµ
ali us
9 8
ĠÑģÑĤ ÑĢÑĥ
Ð²Ð° ÑĢÐ¸
Ġpro ba
Ñģ ÑģÐµ
rist os
Ġk ab
Ġdokum ent
ĠÅ¡ iu
ĠÅ¡al ia
ĠkaÅ¾ d
ĠA us
v ÄĻs
ĠÐ¾ ÐºÐ¾Ð»Ð¾
Ġje j
an Äįius
Ð¼ Ð¾Ð²
ĠÑģÐ²Ð¾Ð¸ Ð¼
Ð¾ ÑıÑĤ
ĠÐ¿Ð¾ÐºÑĥ Ð¿
Ġac cep
ĠÐ¾ ÑĢÐ¸
Ġprodu c
ĠÐ½Ð¸ ÐºÐ°
kal b
ĠÐ² Ð¾Ð´Ñĭ
vi li
g ur
Ġtem perat
Ġte ks
tu ia
ĠÐ³Ð° ÑĢÐ°Ð½
ĠS R
da g
uo jant
ĠD u
Ġmuz ie
ĠÐł ÐµÑģÐ¿
ĠÐĶ Ð¾
Ġsim plu
Ġcopii i
Ġdal Ä¯
ĠÑĤ Ð¾ÑĤ
ani z
Ġlucru ri
Ġh á»į
ÄĹl y
Ð½Ð° Ð·Ð½Ð°
ĠÑĤ ÑĢÑĥÐ´
ini le
ÐŁ ÐµÑĤÐµÑĢÐ±ÑĥÑĢ
Ġpri im
Ġnum Äĥrul
ĠC ap
á»Ļ i
ĠÐ¶Ð¸Ð² Ð¾ÑĤ
ĠÑĥÑĩ ÑĢÐµ
Ġnam o
Ġtá» «
ĠI on
k ie
Ġg ana
Ġconsi de
Ġpar lamen
ĠS im
Ġc amp
ĠÄı al
Ġvor b
ÑĪÐ° ÐµÑĤ
% .
Ġdy dÅ¾io
Ġsudar o
Ġkun ig
Ġsk on
ĠÑģÑĤÐ° Ð»Ð¸
ĠÑĢÐ°Ð¹ Ð¾Ð½Ð°
r Ã¢n
ĠC or
Ġgr Äħ
di al
ĠÑģ Ð¾Ñģ
x e
Ġs tÄĥ
Ð´ ÑĢÐ°Ð²
5 7
n iai
le i
Ġb iseri
ĠÐ¿Ð¾ ÑıÐ²Ð¸
ĠÑģ Ð»Ð¸
Ð¿ Ð»Ð¸
ĠÐ¼Ð¸ Ðº
ÑĤÑĭ Ñħ
P S
Ġsu ge
vin ink
ĠÐ¸Ð½ÑĦÐ¾ÑĢÐ¼Ð° ÑĨÐ¸Ñİ
Ġma Å¡
in ant
Ġa er
ĠO n
ele Å¾
Ġav Ã¢nd
ĠÐĴ Ð°Ñģ
Ðļ Ð¾Ð¼
Ġpo uÅ¾
Ġoc az
p id
Ġ rie
en ÈĽi
um en
ĠÑģÐºÐ° ÑĩÐ°ÑĤÑĮ
ĠbÅ« tent
ĠÑĥÐ½Ð¸ Ð²ÐµÑĢ
ÑĢ Ð¾ÑĤÐ¸
Ġpus lap
iá» ĥ
ĠÅł il
Ð´Ð¸ ÑĨÐ¸Ð¾Ð½
Ġf ii
xima tiv
ĠÑĤ Ð¾Ð³Ð´Ð°
Ġpoli tik
p jÅ«
ĠÑģÐ² Ð¾Ð±
N A
tumÄĹ te
Å¡ÃŃ ch
ĠB er
ĠT ad
Ġj us
ĠÑģ Ð±Ð¾ÑĢ
tu it
ÑģÑĤÐ² Ð¾Ð²Ð°ÑĤÑĮ
Ġg ink
Ġgal ime
ĠAu to
ÐºÐ»Ð° Ð´
Ġmag az
ĠÑĢÐ°Ð±Ð¾ ÑĩÐ¸
Ġt os
Ġsavai tÄĻ
Ð¾Ð¶ ÐµÑĤ
ĠÑģ Ñħ
ta ti
Ġsigu ran
Ð»ÐµÐ½ Ð½ÑĭÐµ
Ġmax im
Ġ )
Ġt Å³
Ð»Ñı ÐµÑĤ
r g
ĠÄ¯s ik
Ġpro vo
ĠÑĤÐµÑĢÑĢÐ¸ÑĤÐ¾ÑĢÐ¸ Ð¸
ale a
Ġvid ur
Ġe fici
Äĥ l
as tÄĥ
Ġpriemon iÅ³
Ġna riÅ³
Ġpra Å¡y
rag ÄĹs
Ã¡ ci
Ġ ðŁ
á» ī
kar t
Ġge ra
Ġpa aiÅ¡k
ĠÑĦÑĥÐ½ Ðº
Ġaj ung
Ġnum Äĥr
6 2
Ġbene fic
ĠÐ± Ð¾ÑĢ
ĠÐ¿Ð¾Ð» Ð¾Ð¶
t me
ĠÐ¿Ðµ Ñģ
ÈĽ at
Ġg rie
Ð¼ÐµÐ½ ÑĤÐ¾Ð²
n at
Ġkar Å¡
ĠuÅ¾ duo
Ã© m
ÑĮ ÐµÑĢ
ĠÑĢ Ð¾Ð·
Ġd ai
Ð±Ðµ Ð»ÑĮ
Ð¡ Ð¡
din a
an ul
ĠÐŁ Ð¾Ð»
Ġh or
ĠÐ¸ ÑĤ
io jo
ĠraÅ¡ y
ĠÑģÐ¿ Ð¾ÑĢ
ĠÑĢÐ° Ð¼
ĠPar lam
ÑĦÐ¾ÑĢ Ð¼Ð¸
ĠromÃ¢n i
ÑĥÑİ ÑĤÑģÑı
Ġde stul
ĠÄĳ áº¿n
Ġn Ãły
dÅ¾io je
ĠÐĶ Ðµ
Ð» ÑĭÐµ
ĠÐ½Ð° Ð¿ÑĢÐ¸Ð¼ÐµÑĢ
ĠÐ¾Ð³ ÑĢÐ¾Ð¼
. :
b area
ĠÑĢÐ°ÑģÐ¿ ÑĢÐ¾
Ġdi rect
Ġkiekvien Äħ
ĠÐłÐµÑģÐ¿ ÑĥÐ±Ð»Ð¸
ĠÐ¿Ð¾ Ñħ
8 00
ĠÃ®n al
Ġdarb us
stru k
ĠT r
en ti
ĠÑĩ ÐµÑĤ
Ġk rÃ¡
mas is
Ġvia Å£a
ĠÑħ Ð¸
Ð»Ðµ Ð·
ĠÑģÐ»ÐµÐ´ ÑĥÑİÑīÐ¸
ÑĢ Ð¾Ð¹
P er
Äįia m
ĠIl gis
ĠRusi jos
ta rÄĥ
Ġi a
ĠÑĢÐµ Ñģ
ÑĩÐ° ÐµÑĤ
Ġma to
Ġkon feren
ĠtÄĥ u
Ð¾Ð²Ð° Ð»
ĠÑĢÐ°Ð·Ð»Ð¸Ñĩ Ð½ÑĭÑħ
ĠÅ¡ ia
Ġpas ir
ĠÐ¤ÐµÐ´Ðµ ÑĢÐ°ÑĨÐ¸Ð¸
Ã¡c ia
h y
Ġne tur
Ġlan ky
ĠÐ»ÐµÐ³ ÐºÐ¾
Ġs voje
ĠÐ² ÑģÑı
Ġste ng
j ul
n auj
t ose
ĠM u
Ġpro mov
Ġfur ni
Ġcine va
i ra
Ð°Ð½ Ðº
v Ã©
ĠÐ´ÑĢÑĥÐ³ Ð¾Ð¹
ĠÑĥ Ð¼
Ġth u
Ġg ale
ri sti
Ġkon kre
Ġal in
g res
Ġvede a
Ð¼Ð° ÑĤÑĢÐ¸
ĠÐ±Ð° ÑĤÐ°
ĠÐ¾ÑĢÐ³Ð°Ð½Ð¸ Ð·Ð°
yb e
ĠÐ¼ ÐµÐ½ÑĮ
d on
ĠÐ¸Ð¼Ðµ ÑİÑĤ
ĠÑĤÐµ Ð¿ÐµÑĢÑĮ
ig h
ĠÐºÐ°ÑĩÐµ ÑģÑĤÐ²Ð°
Ð´Ð° Ð½Ð¸Ñı
ĠÑģÐ¾Ð¾ÑĤÐ²ÐµÑĤ ÑģÑĤÐ²Ð¸Ð¸
Ġmij lo
ĠÐĴ Ðµ
ĠT ri
Ġv ic
ĠPir k
Ġcre ÈĻte
Ġv nt
ĠÑĢÐµÐ¼Ð¾Ð½ ÑĤ
c ur
b Äħ
ĠR a
Ġkomp ani
tin es
z iu
ĠU E
in Å£Äĥ
á»© c
ĠÐºÐ¾Ð¼Ð¿ Ð»ÐµÐº
Ġmo bil
ĠÐ¾ ÑģÑĤ
Ġati dar
ĠÑĤ ÑĥÑĢ
ĠÐŀÐ´ Ð½Ð°ÐºÐ¾
al u
ĠÃ®n de
Ġta ri
i z
to li
ĠÑģÑĤ ÑĢÐ°Ð½
Ġf im
ĠÐ½Ðµ ÑĦ
Ã®n t
g er
Ġti t
Ġk up
Ġsun ku
Ġde rin
ÐºÐ»Ð° Ð´Ñĭ
ing o
Ġl Äĥ
vi Äį
ĠÐ½Ð° Ð·Ð½Ð°
ĠÐ¿Ð¾Ñĩ ÑĤÐ¸
ÄĹ liÅ³
l and
Ġver si
Ġfe bru
ĠÐ²Ð¾Ð» Ð¾Ñģ
tin as
ĠÐĴ Ð»Ð°Ð´Ð¸
ĠÑģ Ð¾Ð±Ñĭ
ĠmaÅ¾ ai
Ġk od
ĠkraÅ¡ to
Ġrezul tat
ĠM Äĥ
ĠÐ¿Ð¾Ð» ÐµÐ·
ĠÐ¾ÑĤÐ½Ð¾ ÑģÐ¸
ĠÐ±ÐµÐ·Ð¾Ð¿Ð°Ñģ Ð½Ð¾ÑģÑĤÐ¸
Å¾ em
ĠÄ¯ pras
Ġkai mo
Ġt Ã¢r
ĠÑĥÑĩÐ°ÑģÑĤÐ¸ Ðµ
á»ģ n
Ġpras id
á»ĩ n
ĠprÃŃ s
Ġapri lie
ti z
ĠÐĴ Ð¾Ð»
Ġk va
ĠÐºÐ¾Ð¼Ð¿ ÑĮÑİ
Â °
ÑĤÐµÐ»Ñı Ð¼Ð¸
Ġajun ge
ran e
Ð¾Ð»ÑĮ Ð½Ð¾
ĠÑı ÑĢ
Ġvia ÈĽa
Ġfor mos
Ġob ser
Ġtu omet
Ġlai m
Ð¶ Ð½ÑĭÑħ
o area
ĠÐ²Ñĭ Ð´Ð°
Ġsc o
vai gÅ¾
Ġferi ci
Ġechi pa
Ð¢ Ðŀ
ĠÑĥÑģÐ»Ð¾Ð²Ð¸ ÑıÑħ
ĠDi rec
Ġcun o
Ð±Ð° ÑĤÑĭ
Ġex ecu
Ġdi pl
ÐµÐ¼ ÑĭÐµ
ter min
ĠA stfel
Ġtok io
ÐµÐ½ Ð½Ð¾Ð³Ð¾
ĠL au
ĠÐŁÐ¾ ÑįÑĤÐ¾Ð¼Ñĥ
Ġch em
Ġpri mi
Ġdep arte
ÄĹ ta
Ñİ ÑīÐµÐ³Ð¾
ĠÐ¿Ð¾ÐºÑĥ Ð¿Ð°
rÄĻ sti
Ġduomen is
Ð¾Ð»Ð¾Ð³Ð¸ Ð¸
ĠÃº Äį
o ra
ĠÐ¿ Ð¾Ð³
6 3
uo ks
dÅ¾ iu
Ġml n
te Ä¾
du cÄĥ
Ð´Ðµ Ð±
Ġkiekvien as
ĠÐ¾ÑĦÐ¸ ÑĨÐ¸Ð°Ð»ÑĮ
ÑģÑĤÐ²ÐµÐ½ Ð½ÑĭÐµ
C h
Ġval d
n ik
Ġmet ai
Ġmul ti
ĠÐ¼Ðµ ÑħÐ°Ð½Ð¸
ĠÐº Ð¾Ð»Ðµ
Ġmajo ri
Ð¶Ð´ Ñĭ
lie ka
ĠÐ¾Ð¿ ÑĭÑĤ
ĠlÃł m
2 50
ĠÐ± Ñİ
k up
Ġin tro
ing umo
ĠJ uk
gi ant
ĠÃ®n chis
ĠK az
ĠS unt
ĠÐ¿Ð¾Ð· Ð¸
Ġaf ir
ĠP rie
ĠÐ¿ Ð¾Ð¶Ð°
Ġpre vede
ĠÐ¾Ð±ÑĬ ÐµÐºÑĤ
Ð· Ñĥ
Ð¾ÐºÐ° Ð·Ð°
Ġa zi
È ļ
6 9
ĠÑĢÐ°Ð· ÑĢÐ°Ð±Ð¾ÑĤ
ĠpregÄĥ ti
Ġcre ÅŁte
ĠÐŀ Ð½Ð°
Ġaces tor
ĠÐ¿Ð¾Ð´Ð´ÐµÑĢ Ð¶
man oma
ÑģÑı ÑĤ
ali zÄĥ
in kite
Ġpu tern
Ġc ame
Ġ ÈĽÄĥ
ĠÑħÐ°ÑĢÐ°Ðº ÑĤÐµÑĢÐ¸
Ġkam b
Ġvai ko
Ġpaslaug as
on Äħ
Ðº Ð¾ÑĢ
u ÄįiÅ³
Ġco re
Ġir gi
ĠÐŁ ÑĢÐµ
Ġteis ÄĻ
Ġdeven it
Ġsiste mul
Ġto Å£i
ĠÑģ Ð¼Ð¾ÑĤ
Ġat saky
ĠÐ½Ðµ Ð´Ð¾
Ġm el
ch a
ĠÐ±Ð¾Ð»ÑĮÑĪ Ð¾Ð¹
Ð½Ð° Ð»Ð°
Ġsusi paÅ¾
Ġkok ybiÅ¡k
Ġpateik ti
6 00
le d
ap ras
ĠC re
ĠÑģÑĤÐ° Ð²
ĠdesfÄĥ ÅŁ
ĠÐ¾Ð±ÑĢÐ°Ð· Ð¾Ð²Ð°Ð½Ð¸Ñı
ĠbÄĥ trÃ¢n
Å¡ al
Ġparte ne
Ð¾Ð»Ð¸ ÑĤ
Ġin icia
ÐŁ ÑĢÐ¾
ĠÃ ¡
e to
Ġat sk
Ġac asÄĥ
8 8
Ġci ti
uojam as
Ġpo l
ÑĤÐµÐ»ÑĮ Ð½Ð°Ñı
Ġri m
ĠB a
Ġk op
al b
ĠB an
ĠÐ² Ð·Ð°
ĠI a
Ġg iá»
Ġde si
ĠsÄĥ r
iá»ĩ t
ĠÐ¼ÐµÐ´Ð¸ ÑĨÐ¸Ð½
et as
Ġnau jo
Ġkon k
Ġz m
ĠÐ½Ð¸ Ð¼
Ġveik la
ĠÐºÑĢÐ° Ð¹
v io
esn ÄĹ
le isti
p lo
ĠadevÄĥ rat
ĠM il
Ġal ie
ĠÑĥ Ð´Ð¾Ð²
ÐºÐ¸ Ð¼Ð¸
Ġpo ten
Ġloc uri
v iln
S u
ka viÅ¡k
Ġinte g
Ġlite rat
ĠF o
ÑĪ ÐµÐ½Ð¸Ð¹
Ð¾Ð² ÑĭÑħ
ĠVy tau
. "
Ġe Å¡te
Ġreg uli
ĠbÅ« tina
Ġsukur ti
Ġin st
Ġskir tas
ĠÐ¿Ð¾ÑĤ ÑĢÐµÐ±
Ð² Ð¾Ð»
ĠÐ·Ð° Ð´
Ġpop ul
ĠÐļ Ð°ÑĢ
Å© ng
aik Å¡
ĠÐ²Ð¾ Ð¾Ð±ÑīÐµ
Ġ Å«
Ġmed Å¾io
d ei
ĠÐ¾ÑĤ Ð´ÑĭÑħ
Ġs áº½
sle d
n us
ut os
ĠÑĥ Ð»Ð¸
Ġdes chi
Ġreprezen tan
Ðº Ð¾Ð»ÑĮ
Å£i uni
ĠÑĤÐ¸ Ð¿Ð°
Ð²Ðµ Ð·
Ġtar si
ĠÐĶ Ð¶
Ġvá» ģ
ĠÑģÑĤÐ° Ð»
ÑģÑĤÐ² ÑĥÑİ
el ti
Ġresp onsa
ĠB el
z or
ĠÐ´Ðµ Ð»Ð¾
de auna
Ġd au
ĠS al
ĠÐ¡Ð°Ð½ ÐºÑĤ
ĠÐºÐ° ÑĤÐ°
Ġs lov
Ñĩ Ð½Ð¾Ðµ
Ġta ms
ÑĢÐ° Ð¶Ð°
Ġat min
ĠÅ¡ un
Ġm no
k m
Ġdu re
ĠÑĢ Ð¾Ð´
um ai
ov as
Ġru gsÄĹjo
ĠC omis
Ġcu vÃ¢n
ĠÐ²Ð¼Ðµ ÑģÑĤÐµ
N au
ĠÐºÐ¾ÑĤÐ¾ÑĢ Ð¾Ð¼
Ð»Ñĥ Ð°
ĠÑģÑĢÐµÐ´ ÑģÑĤÐ²
ĠÑĦÐ¸Ð½Ð°Ð½ ÑģÐ¾Ð²
E O
Ġm ink
ÑĤÐµ Ð»Ñİ
Ġk y
Ġd uo
Ġdid Å¾ia
Ġtra uk
Ġsec re
Ġkit aip
K aip
Ġaface ri
Ġpir mo
p la
Ġconstru c
ÑĪÐµ Ðº
Ġprogra ma
ÈĻti i
.... ....
Ð· Ñı
Ð²Ð¸ ÑĤÑĮ
va ri
im ir
ĠmedÅ¾ia ga
Ġho tel
Å¡k us
dy tas
ĠÑģ Ð»Ð°
ma to
ari s
din io
Ġd á»¥
Ġg av
Ġa ÅŁte
ĠÐ¼Ð°ÑĤÐµÑĢÐ¸ Ð°Ð»Ñĭ
Ġlaik u
Ġsp ate
ĠJ Å«s
Ġs kaus
Ġk g
pe ci
Ġd vas
ĠT u
Ġse z
ĠrÄĥ mas
Ġse min
ĠT ele
Ġkar tÅ³
Ġn Äĥ
t ÃŃ
Ġkele tÄħ
ali Äħ
ĠgÄĥ si
Ġvien os
ĠÐ¾ Ð·Ð½Ð°
Ġkuri as
5 2
gis la
h ol
Ġefek tyv
Ġs ol
ĠÐĺÐ½ ÑĤÐµÑĢ
to p
ÑĤÐµ Ð¹
E A
Ġb ola
T R
ĠÐ²Ð¾Ð·Ð¼Ð¾Ð¶ Ð½Ð¾
Ġtok ie
Ġâ Ĩ
ty va
Ñħ Ð¾
Ġstu den
Ġkok s
Ð½ Ð½ÑĭÐµ
Ġsukn elÄĹ
Ð¿ ÑĢ
Ġkomp lek
Ġru den
is tÅ³
ĠÑħ Ð¾ÑĤÑı
ĠÐ·Ð° Ð¿Ð¸
ĠÐľÐ¾ÑģÐº Ð²Ðµ
E x
ĠÐ´Ð¾Ð» Ð»Ð°
Ġm ik
l Ä¯
ĠÐ¾Ð´ Ð½Ð°
ar t
ĠI II
ĠS up
do b
ĠBal tijos
ĠC ul
ĠÐ· Ð²Ñĥ
Ġju cÄĥ
Ġloc u
ĠÐ½Ð¾Ð² ÑĭÐµ
ĠÐ½Ðµ Ñģ
ÑĪ Ð»Ð¸
ĠInter na
Ġkad angi
ĠÐ¼Ð°ÐºÑģÐ¸ Ð¼Ð°
Ġg h
ÑĤÐµÐ»ÑĮ Ð½ÑĭÐ¼
Ġan aliz
Ġa ib
k ol
bo ra
ĠbÅ« s
inÄĹs e
Ġpar tne
Ð¼ Ð¾Ð¹
Ġf lo
ĠÐĶ Ñĥ
Ġapro ximativ
ĠÐ³ÑĢÐ°Ð¶ Ð´Ð°Ð½
ĠÐł Ñĥ
Ġasi gurÄĥ
din iÅ³
Ġvia ÈĽÄĥ
d icÄĥ
ĠÐ¿ÑĢÐ¸Ð¾Ð± ÑĢÐµ
Ġf ri
Ġe is
Ġk de
Ġdumne avo
Ð² ÑĭÐ¹
b ur
ĠÐ³Ð»Ð° Ð·Ð°
áº ±
Ġcom erci
ĠÑĨ ÐµÐ½Ð°
ĠÑĤÐ¾ Ð½
Ġger os
ĠÐ¸Ð½Ð´Ð¸Ð²Ð¸Ð´Ñĥ Ð°Ð»ÑĮ
5 9
ĠÐ½Ð° ÑĪÐ¸
um it
Ġpre mi
ÑģÑĤÐ¸ ÑĤ
ĠÐ¼Ð° Ð»ÐµÐ½ÑĮ
Ġm á»
Ġvy ks
Ġtoki os
Ġkit ais
ĠÐ§ ÐµÑĢ
Ġpavy zdÅ¾iui
Ġreik ÄĹtÅ³
ĠG re
ÄĹ d
ĠVis i
Ġmul ÈĽi
ĠV a
ĠÐ½Ð° Ð¹
un k
Ġgyven ti
Ġpir ma
ÄĹ dami
V ien
ĠAces t
le r
ĠÐ²Ðµ Ð»Ð¸
ĠSÄħ jungos
ÑıÐ² Ð»ÐµÐ½Ð¸Ñı
Ñħ Ð½Ð¸
i ului
en Ã¡
Ġora ÅŁ
Ġskir ti
tori a
Ġex erci
ĠÅ¾mon ÄĹms
din ti
el ÄĻ
c op
Ġg rin
Ġaplink os
Ġch el
ĠÐ½Ð¾ ÑıÐ±ÑĢÑı
7 8
á»ĳ c
tel ui
Ð° Ð¼Ð¸
Ġ !
ĠÐ¶ ÑĥÑĢ
ĠÅ¾ ym
K ai
val u
Ñİ ÑīÐ°Ñı
Ġac ÈĽi
ĠÐĴ Ð¾Ð·
ĠrÄĥsp uns
Ġin tele
ĠÐ¿ ÑģÐ¸
I E
p tat
f ika
Ã´so b
Ġs eni
Ġar tim
Ġanga ja
ĠĠ ĠĠ
ÅŁti i
lo Å¾
Ġnor m
ĠsÄĥr bÄĥ
ĠÐ½Ð° ÑĢÐ¾Ð´
k az
Ġme reu
ĠÑģÑĤ ÑĢÐµ
Ġf ran
u tÄĥ
Ġb au
ĠÐ³ Ðµ
Ġat k
ĠM er
B al
si as
ĠS tan
Ġc áº£
ĠÑģ ÐµÐ·
ĠÐ¦ ÐµÐ½ÑĤ
200 2
Ġkomand os
Ġp ik
st re
Ġza h
g ui
Ġs ar
Ġe c
Ġne gu
ĠÑĢÐµÐ·ÑĥÐ»ÑĮÑĤÐ° ÑĤÐµ
iniu ose
Ġb olo
ĠÐ§ Ð°
ÃŃ ch
5 3
Ġk au
A s
ogra f
ĠÅ¡io l
v ing
ÐĿ ÐĲ
ĠÐ¾ÑĤÐ»Ð¸ ÑĩÐ°
U Å¾
Ð¾Ð½ Ñĥ
ĠÐ¼Ð¸ ÑĢ
Ġda ca
ÐµÐ½ Ð½Ð¾Ð¹
ÐµÐ½ ÐµÑĢÐ°
ĠQ u
ma tav
ĠÐ¿Ñĥ Ð½
Ġfor mÄĥ
Ġprek ÄĹs
ĠÐºÐ¾Ð½Ðµ ÑĩÐ½Ð¾
Ġspal va
ĠG ar
ran da
Ġspal io
Ġj urul
ÑĢÐ¸ ÑĤ
ĠÐ½Ð°ÑħÐ¾Ð´Ð¸ ÑĤÑģÑı
ĠÐ¢ Ð¸
A l
cid ent
Ġr ai
ĠÑį ÑĤÑĥ
Ð¾ÑĢ Ð¾Ð´
Ð·Ð¸ Ð´
au a
ĠÅłia uliÅ³
ĠÐ±Ð¸Ð· Ð½ÐµÑģ
Ġk ategori
ĠÃ®nc re
Ġpat y
p res
r ului
arta ment
Ġstr Ã¡n
na Äį
Ġcon sul
ĠÐ¿ÑĢÐ¾ ÐµÐºÑĤÐ°
ĠÐ¿Ð¾Ð´ Ð°ÑĢ
ÑĤÐ¸ ÐºÐ°
ĠmedÅ¾ia gÅ³
ĠW in
ĠÐ´ÐµÑĢÐµ Ð²
ĠÐ¿ÑĢÐµÐ´ Ð½Ð°Ð·Ð½Ð°
t ÄĹje
ĠPanevÄĹ Å¾io
ÐµÐ¼ ÑĭÑħ
Ġm ig
ĠÐ¿ Ð°Ð¼
Ġat nauj
Å¡ et
ĠÐ´Ð¸Ð·Ð° Ð¹Ð½
Ġg Ã¢n
ĠÐ¿ÑĢÐ¾ ÑģÑĤ
ĠÑģÐ¾ ÑħÑĢÐ°
ro id
ro g
Ġex tra
Ġpo ÈĽi
P R
Ġp aie
Ġsu tik
Ġmul Å£i
aliz are
Ġs esi
Ġpar uoÅ¡
ĠpaÅ¡ al
Ġeuro pe
ĠnÃ¡ s
ÑĢ ÐµÐ½Ð¸Ñı
vi Äįiaus
Ġra por
Ð²Ñĭ Ð¼
Ñģ Ð¾Ð»
ĠV lad
Ãº p
ky s
ĠÐºÐ¾Ð» Ð»ÐµÐº
Ġre da
Ġre cep
ĠH ristos
Ġg el
ĠÐĳ Ð¾Ð»ÑĮ
om o
Ġinterne to
ĠÐ¿ÐµÑĢÐ² ÑĭÐ¹
ĠConstan ÈĽa
Ġve Å¾
5 4
ĠC od
po je
are i
Ġri z
I R
ĠÐ¾ÑĤ ÑģÑĥÑĤ
Ð½Ð¸ ÑĨÑĥ
Ġachi zi
âĢ ĺ
ĠÐŁ ÐµÑĤ
Ġvia Å£Äĥ
Ġpre vÄĥ
d r
Ġval oare
ĠÐ± Ð°Ð·
Ð³Ð¸ Ð½Ð°
ai m
Ġd us
Å« no
Ġu ÅŁ
to do
ÑģÐµ Ð¹
ĠâĨ Ĵ
ĠÐ§ ÑĤÐ¾
Ð»Ð¸ ÑĤÑĮ
ĠÑģÑĤ Ð¾ÑĢÐ¾Ð½
ko vo
Ġdarb as
Ġl in
ĠÄĳ Ã³
ar o
Ġt Ã½m
Ġex trem
Ġinter net
Ð´Ð¸ ÑĤÑĮ
ĠiÅ¡ lai
ÑĢ Ð¾ÐºÐ°
D in
ĠK re
ĠT uo
Ġtiks las
Ġin teri
T A
x t
Ġpop ulia
ĠVil nius
Ġpa raÅ¡
k in
Ġbai g
Ġval dymo
ĠÃ®n s
ta dienÄ¯
Ġfam ilie
ĠbÄĥr bat
ĠÑģÐ¾Ð² ÐµÑĤ
Å¾i Å«
ĠÑĤ Ð¾Ð¿
194 6
Ġdien omis
Ġdu ce
ĠÑĤÐ° ÐºÐ¾Ðµ
ĠÐ°Ð²ÑĤÐ¾Ð¼Ð° ÑĤÑĭ
Å ŀ
Ġpagal bos
Ġs la
Ġp ici
Ð¾Ñĩ ÐºÐ¸
Ġkain os
Ġg ai
Ġstru c
Ñĩ ÐºÑĥ
li c
g he
Ġ uo
Ġnici odatÄĥ
Ð½ ÐµÐ½Ð¸Ðµ
Ġkel iau
ĠÑģÐ° Ð¼Ð¸
ĠÐ´ ÐµÐ¼
Ġm ele
ĠE UR
Ġra pid
ĠvieÅ¡ bu
Ġm Ãł
Ġfebru arie
Ġfo t
ĠÐ¼Ð½Ð¾Ð³Ð¸ Ðµ
Ġaces tuia
Ġf ut
olog ie
Ð¼Ð° Ñı
Ġad Äĥ
Ðĵ Ðŀ
ĠÐ¿Ð¸ ÑģÐ°
Ġsing ur
ĠÐľ Ð°Ðº
Ġfa Å£a
ÐŁ Ð¾Ð´
g rin
ĠÐ²Ñĭ ÑħÐ¾Ð´
Ð½Ð¸ ÐºÐ¾Ð¼
Ð¶ ÐµÐ½Ð¸Ð¸
ĠÑģÑĤÑĢÐ° Ð½Ñĭ
Ð»Ð° Ð¼Ð¸
Ġcin ci
Ġb ra
Ġexis ten
ÑģÑĤÐ°Ð½Ð° Ð²Ð»Ð¸
ĠÐ½Ð°Ð¸ Ð±Ð¾Ð»ÐµÐµ
ĠÐ¡ ÐºÐ°
Ġnh iá»ģu
Ġskir ta
Ġb azÄĥ
s tÄĥ
Ġur mare
Ġnau jos
us iÅ³
ĠÐµ Ð´Ð¸
V D
Ġa mp
M A
áº¥ y
ĠÄ¯ vy
Ðľ Ñĭ
ĠÐ¿Ð¾Ð¼Ð¾ ÑīÐ¸
en Å£i
Ġko le
r Ä¯Å¾
Ġk ul
Ð»Ð¸ ÑĤ
s y
ĠÐ² ÐºÐ»Ñİ
v esti
ĠÅ¾mon es
Ġaib Äĥ
Ġiden ti
Ð¼ÐµÑĢÐ¸ ÐºÐ°Ð½
ĠO ri
ĠiÅ¡ or
ĠÑįÐºÑģÐ¿ Ð»ÑĥÐ°
ĠmÄĹg sta
uo tÅ³
tu mo
ĠÑģ ÑĦ
Ġpam ok
ĠÐ¼ÐµÐ¶Ð´Ñĥ Ð½Ð°ÑĢÐ¾Ð´
Ñı ÑģÑĮ
ĠÐ¾ÑģÐ½Ð¾Ð² Ðµ
i ui
ĠÑįÐ»ÐµÐºÑĤ ÑĢÐ¸
Ġv io
Ġh Ãłng
Ñİ ÑģÑĮ
ĠpaÅ¾ as
ĠA ly
ĠÐĵ Ð°
ĠdÄĹmes io
ĠÐ¾ Ð¶Ð¸
ĠAlex and
Ġm isi
fic Äĥ
ĠÑģÐ¾Ð¾Ð± ÑīÐ¸
ĠÐ¤ Ð¸
Ġper mite
in ul
Å£ elor
Ġs ine
ĠÐ½Ð¾Ð² ÑĭÐ¹
Ð¼Ñĥ Ð»Ñı
pe ct
x i
D ÄĹl
ad ar
Ġkon sul
Ġdalyv auti
ov ej
Ġnum aty
ĠÑĤÐ°Ðº Ð¾Ð³Ð¾
y mas
ĠrÄĥ u
ĠÐ½Ð° Ð»
ĠÐ¿ÑĢÐ¸Ð¼ÐµÐ½ Ñı
Ġd ub
Ð½Ð¸ Ð½
ĠVal styb
Ġv od
Ġch e
Ġin tre
ĠT imi
ĠsuÅ¾ ino
ĠL oc
ĠÐ¿Ð¸ ÑģÑĮ
ĠD abar
Ð½Ð° Ð¼
er t
ĠÅ¾ini as
Ð»Ñİ Ð´
k Ã½ch
jung ti
an as
g io
ÑģÑģÐ¸ Ð¸
Ġt áº¡i
Ġle gi
ĠÐ² Ð»Ð¸Ñı
Ġgra Å¾i
ĠÐ·Ð° ÐºÑĢÑĭ
ĠD is
ĠÅ¡ vel
Ġduomen ys
Ġse lec
Ð½Ð¸ ÑĤÐµ
Ġpag er
ok o
ÑģÑģ Ñĭ
ĠÐ¾Ð±ÑĢÐ°Ð· Ð¾Ð²Ð°
Ġniek as
ĠÑģÑĤÐ¾Ð¸ Ð¼Ð¾ÑģÑĤÑĮ
Ġj umÄĥ
ĠÐ¡ Ð°Ð¼
Ð¾Ð² ÑĭÐµ
ĠÑģÑĤ ÑĥÐ´
it rauk
Ġf er
ĠÐļ Ð¾ÑĢ
ta vo
Ġsk ry
k Ã©
ĠÑĢÐµÐ±ÐµÐ½ ÐºÐ°
Ġkon tak
pjÅ« Äįio
cu ra
ĠÐ¼Ð¾Ð´Ðµ Ð»Ð¸
ĠÄ¯si gyti
ĠÑģÑĤ ÐµÐ½
pare ig
Ð¼Ð° Ð³Ð°Ð·Ð¸
for man
] .
is ie
Ġilg ai
ĠÑģÐ¾Ð² ÑģÐµÐ¼
áºŃ p
Ġimp o
Ð± ÐµÑĢ
Ð´ ÐµÐ¼
Å« ni
ĠI S
ĠÐ´Ð° Ð²
et Å³
ĠÐ°Ð² ÑĤÐ¾ÑĢ
Ġdra gos
k ui
ĠÐļ ÑĢÑĭ
Ġf isc
Ġaju torul
Ġma ÈĻ
Ġsl uoks
ĠÐ¿Ð¾Ð´ ÑĢÐ¾Ð±
ĠÐ¿ÑĢÐ¸ ÑĩÐ¸
Ġmoteri s
s as
ĠÐľ Ñĥ
or t
z er
Ġj uk
Ġsoci ale
Ġ á»Ł
ĠÐ´Ð°Ð½ Ð½ÑĭÐµ
ÑģÑĤÐ² ÑĥÑİÑĤ
Ġturi me
ci o
ÑģÑĤÐ¸ ÑĤÑĮ
Ġs and
ĠF lo
Ġaju ta
ÑĤ Ð¾Ðº
D upÄĥ
Ġm ad
ar as
Ð´Ð° ÑİÑĤ
tel is
oa ÈĻte
Ġnor mal
Ġte l
Ġvid aus
p es
Ð¸ Ð¹
tik ÄĹ
Ġre feri
ĠÐŁ Ðµ
Ġkom anda
Ġd ul
Ġa us
Ġdo ri
Ġinc lu
vi us
ĠF acebook
ĠGo ogle
Ġuni vers
Ġtur ÄĹs
ĠJ ur
Ġpra dÅ¾ioje
Ġaf lat
Ġpu tut
ĠSlov ensk
e c
T he
ĠÑģ Ð¾Ð»
Ġpapras tai
ĠÐ·Ð° ÐºÐ»Ñİ
Ġs tov
Ð¼Ñĭ Ñģ
ĠIo an
il l
Ġac o
, ...
ĠÐ¾ÑģÐ¾Ð± ÐµÐ½
Ġpubli cÄĥ
Ġvi z
ed y
m ais
Ġpaslaug os
ĠM ir
Ðļ ÐĲ
ine le
s ky
ri an
Ġkv ali
ĠÅ¾ vaigÅ¾
Ñĥ Ð»
ĠÐ²Ð° ÑĪ
Ġimportan te
Ġg ab
Ġgene ra
200 3
ĠKa une
ĠÐ´Ð¾Ð»Ð¶ Ð½Ð°
ĠâĢ ĺ
Ġcom uni
Ġpare ng
Ñĩ Ð½ÑĭÐ¼
Ġpre ÈĻedin
ĠÑĢÐ°Ð· Ð½ÑĭÑħ
ĠÑĢÐµÑģ ÑĥÑĢ
Ã¡ ng
or k
ĠdesfÄĥ ÈĻ
Ġprogra mos
ĠÑĢÐ° Ð²
ĠG ri
ĠP aul
ÄĹj ome
Ġgal ÄĹjo
ĠK iekvien
ĠdÄĹl to
Ġkuri uo
ĠÐ¾Ð± Ð½Ð°
en z
van ie
ĠM al
le Å¾
ĠÑģÑĥ Ð±
tu ie
ĠÄĳá» ĭ
rÄĹ Å¾
ĠtÅ« kstan
Ġte mp
Ġalt fel
ĠÐ¾Ð±ÑĬ ÐµÐ¼
ĠÑĢÐ° ÑģÐº
Äĥ tÄĥ
Ġsum a
Ġat mos
li p
yb Äħ
ĠÑģ Ð¼Ð¾ÑĤÑĢÐµÑĤÑĮ
Ġtais yk
Ġmed zi
Ð´Ð¸ Ð½Ð°
v ys
ÑĩÐ° Ð¹
Ġapy link
tin ga
van ia
teri s
Ġcop iilor
Ġle gisla
Ġk u
Ġvadov as
Ġe ro
il s
Ġdecla ra
ĠÐ¾ÑĤ Ð»Ð¸Ñĩ
Ġsp iri
Ġdarbuo tojÅ³
pe re
ia usi
Ð¶ Ð½Ð¾Ð¹
ĠC Ã¢nd
Ġd ail
Ġg eleÅ¾
ĠDie vo
Ġ- -
Ġniek ada
ĠÐ¿Ð¾Ñģ ÐµÑĤÐ¸
C e
ĠÐºÑĢÐµÐ´Ð¸ ÑĤ
ĠR u
Ġb ÄĹg
g Å¡
Ġsul auk
Ġsp au
ĠÐ²Ð¾Ð·Ð¼Ð¾Ð¶ Ð½Ð¾ÑģÑĤÐ¸
Ġpri mÄĥ
ĠÐ¿Ð»Ð° Ð½Ð¸
ĠÑįÑĤÐ¸ Ð¼
ĠÐ¼Ðµ ÑģÑĤÐµ
in tis
Ġc Å©ng
ĠÐ¿ÑĢÐ¾Ð´Ñĥ ÐºÑĨÐ¸Ð¸
Ġtik rÅ³
Ñĩ ÐµÐ½Ð¸Ð¸
ĠÐķ Ð²ÑĢÐ¾Ð¿
ĠV ic
Ġtri mis
an Äįio
y tÄĹ
8 6
ÑĤÐ° ÑĢ
Ġautomobi lio
Ġloc ale
Ġta pti
Ġpra kti
Ġulti ma
jÃº ce
Ġmul tÄĥ
Ð² ÑĪÐ¸Ð¹
do ws
Ð·Ð° Ð´
ĠÐ½Ð°ÑĩÐ° Ð»Ð°
Ġv okie
Ġro do
ĠÐ°Ð²ÑĤÐ¾Ð¼Ð° ÑĤÐ¸
ĠÐ¾Ð±ÑĢÐ° Ð±Ð¾ÑĤ
Ð²Ð° Ð¹ÑĤÐµ
Ġdal ies
Ðķ Ðł
Ġug dymo
Ġbu curi
ĠÐ¸Ð³ ÑĢÑĥ
os Å¥
Ġener ge
ĠÐ¡Ð¾Ð² ÐµÑĤ
j ais
imen tare
Ġistori jos
ĠÐĺÑģÐ¿ Ð¾Ð»Ð½Ð¸
jÃº ci
ic ei
ÐºÐ° Ð±
c un
Ġc andid
ĠÐ¿Ð¾Ð» Ð¾Ð¶Ð¸
Ġas isten
ĠPro gra
Ġlietu viÅ¡k
Ð¾Ð± Ð°
Ġm Ã¢
200 1
Ð¸ Ð¼Ñĥ
Ġroz hod
Ġ Äĥ
Ġf oc
Ġele v
Ð»Ñı Ñħ
Ġsc ri
ĠÑİ ÑĢÐ¸
ĠÐ° Ð»ÑĮ
ĠÑĨ ÐµÐ½Ñĭ
ĠÑģ ÐµÑĤÐ¸
Ð¿Ð° Ð½Ð¸Ñı
ĠLat vi
Ġinter ven
Ġat vy
Ðł Ð°
a ka
ĠÐ·Ð° Ð²
Ġnes i
Ġb ank
ĠÐ¿ÑĢÐ¾Ð¸Ð·Ð²Ð¾Ð´ ÑģÑĤÐ²Ð°
as ca
Ġtok Ä¯
Ġe volu
Ġpati ek
ny ga
ar tÄĥ
ĠA ukÅ¡
Ġp ien
ÑıÐ± ÑĢÑĮ
ĠÅ¾ ing
ĠÑģÑĤÐ°Ð½ Ð´Ð°ÑĢ
Ġpaj ÄĹg
ÑĩÐµ ÑģÐºÑĥÑİ
ĠÑĤÐ¾Ð²Ð° ÑĢÐ°
Ġd ol
Ġto ÈĽi
Ġpar dav
ÄĹ da
Ġsub jek
5 1
Ġc entru
ĠÐŁ ÑĢ
in us
ÐŁ Ð¾Ñģ
ÑĤÑĮ Ñı
in iame
Ð¾Ð¿ Ð°
ĠÐ¸Ð³ ÑĢÐ°ÑĤÑĮ
ĠÐºÐ° ÐºÐ¸Ðµ
Ġatsak om
Ġm uri
ĠiÅ¡ laid
Ġval ori
Ġun ii
ĠÑħ Ð¾Ð·ÑıÐ¹
Ð½ Ð½ÑĭÑħ
ĠVy riaus
y t
Ð¿Ð° Ñģ
di jos
ĠcÄĥ u
ĠÐ·Ð° ÑĤÐµÐ¼
Ġin stan
ĠÑĢÐ°Ñģ ÑĪÐ¸
Ġad us
Ġm omen
co le
k ÄĹs
Ð¢ Ðµ
ĠÐ¸Ð³ÑĢÐ¾Ð² ÑĭÐµ
ĠÐ½Ð° Ð¿Ð¸ÑģÐ°
Ð´ ÑĨÐ°
Ġex c
A p
Ġto tal
Ġul tim
ĠÐ¿ÑĢÐ¸ ÐµÐ¼
tor ÄĹ
Ġatsi Å¾vel
Ð¸ ÑĢÐ°
as t
ĠP l
Ð¸ Ð½Ð°
Ġk ino
feren t
ĠvÃł o
Ġp uoÅ¡
Ġstru kt
Ñĩ Ð½Ð¾ÑģÑĤÑĮ
ĠÐ¾Ð± Ñĥ
Ð±Ð¸ ÑĢ
ce re
Ðº Ð²Ð¸
Ġte j
Ð»Ð¸ Ð¹
6 1
ĠÐ¾Ð± ÑģÐ»ÑĥÐ¶Ð¸
Ġnim eni
Ġper man
re gis
Ð³Ð¾ Ðµ
Ġre sta
Ġpe re
ĠcÃ¢ ÈĻti
Ġd Ã¢n
ĠRe g
ÑīÐ¸ Ð¼
Ġistori ja
ti ja
ĠÑĥ Ð»ÑĥÑĩ
ie l
f on
ĠuÅ¾ k
p on
Ðµ ÑĨ
Ġtvar ka
ĠÑĢÐµ ÑĪÐµÐ½Ð¸Ðµ
Ð´Ð¸ ÑĤÐµ
á» ı
Ġcompe ti
ĠÑģÐ¼Ð¾Ð¶ ÐµÑĤÐµ
is tas
ĠÐ¾ ÐºÑĤ
sk e
gal io
ĠÑĨÐµ Ð»ÑĮ
ĠÅ¾ y
Ġe v
ĠÐº Ð»Ñİ
te c
Ġnus ikal
ĠÐ¾Ð± ÑĥÑĩ
Ġat ri
Ġcunos cut
Ġtvar k
Ġcontro l
u ale
Ġpri mar
ĠÐ¿ÑĢÐ¾ ÑģÑĤÑĢÐ°Ð½
ĠÃ®n f
pe Äį
Ð¸ Ñĩ
Ġnu os
ĠÐ½Ð° ÑĥÑĩ
ĠÐ¼Ð½ Ð¾Ð¶Ðµ
ĠÐ¼Ð¸ Ð»Ð»Ð¸
Ġvy riaus
Ġgrup ÄĹ
Ġve chi
ta min
tru c
ÄĹn Å³
ri mo
Ġadres a
Ġrekomen duo
z ÄĹs
ĠÑģÐºÐ°Ð·Ð° ÑĤÑĮ
ĠÐ¿ÑĢÐ°ÐºÑĤÐ¸ ÑĩÐµÑģÐºÐ¸
Ð¶ Ð½Ð¾
ĠÐ¿Ð¾Ð»ÑĥÑĩ ÐµÐ½Ð¸Ñı
Ġactivi tatea
ĠsiÅ« lo
ĠmÃ´Å¾e te
ĠbÅ« d
Ġes u
Ġkok ia
Ãº c
I X
Ġne uÅ¾
Ð¿Ñĥ ÑĤÐ°
Ġne Å¾in
ĠT uri
Ð½Ð¸ ÑĨÐµ
Ġplo tis
Ð¼ Ñı
Ġsu reng
ĠÐ½Ð° ÑĪÐ¸Ñħ
Ġl un
Ġevenim ent
Ġl ank
ÑĢÐµ Ð³Ð¸
Ġinter pre
Ġg az
ĠÐ³Ð¾ÑĢ Ð¾Ð´Ðµ
ola e
Ġpak ank
Ð¼ÐµÐ½ Ð°
Ġdate lor
Ġs am
ne a
ÑģÐ¸ Ð±Ð¾
Ġsaus io
ĠÐµ Ð¹
ĠÑģ Ð¾Ðº
Ġex cep
Ð¢ Ð°Ðº
ĠG ro
ĠÐºÐ¾ÑĢ Ð¿Ñĥ
ĠÑĢÐ°Ð· Ð½Ð¾
ĠÐ¼ Ð¾Ð±Ð¸
va Å¾ia
ĠÐ½Ð° ÑĪÐµÐ³Ð¾
Ð´Ð° Ð½Ð¸Ðµ
al y
ĠbirÅ¾ elio
Ġlais vÄĹs
ĠzÃ¡ klad
ĠÐ¿Ð¾Ð¼ Ð¾Ð³Ð°
uli ar
Ġtr Ãªn
ĠP rieÅ¡
Ġnepri klausom
Ñĥ Ðº
Ã² ng
Ãª u
Å«r Å³
Ã¢ l
ut Ä¯
o te
Ð²Ð¾Ð· Ð¼Ð¾Ð¶
Ġkon f
ĠrÄĥmÃ¢n e
dag og
Ġf ron
Ġd ve
Ð½Ñĥ Ð»
ÑĤÐ° Ðº
anti ems
Ġfru mos
ĠcÃ¢ ÅŁti
ĠGer man
Ġexp lo
Ġposi bil
ĠÐĵ Ð»Ð°Ð²
ĠÐ± Ð¾Ð»ÐµÐ·
P ra
ĠÐ¿ÑĢ Ð¾Ð³
ĠÑĤÐ° ÐºÐ¸Ð¼
ĠÐ¼Ðµ Ð´
Ġpo ky
ĠÐ¾ÑĤ Ð¼ÐµÑĤÐ¸
I K
ÑĤ Ð¾ÑĤ
Ġindus tri
el yje
ĠS us
Ġktor ÃŃ
Ġde b
ĠS an
Ġge guÅ¾ÄĹs
cea va
ĠÑĤ Ð¾Ð¼Ñĥ
ĠT ÄĹ
ĠÑģÑĤÐ° Ð½Ð¾Ð²Ð¸
Ġcon sta
ĠÐ³Ð¾Ð» Ð¾Ñģ
h er
Ġkok i
an ÄįiÄħ
ĠÑĩÐ° ÑģÐ¾Ð²
ĠÐ¸ÑģÐ¿Ð¾Ð»ÑĮÐ·Ð¾Ð²Ð° Ð½Ð¸Ñı
Ġsa van
Ġza Äį
Ġna riai
Ġc arte
Ġme ch
Ġc asÄĥ
da vimo
Ġsie kiant
Ð¾Ð´ ÐµÐ¹
vy zdÅ¾iui
Ġd uk
Ġk omen
n uo
Ġpri me
Ġag ent
ĠI tali
ĠuÈĻ or
ĠÑĥ Ð²ÐµÑĢ
Ð»Ð¸ Ð½Ð°
ĠÐ²ÑģÐµ Ð¹
ĠÑĥÑĢÐ¾Ð² Ð½Ñı
Ġdid elis
Ġras ite
al og
Ġi med
k usi
Ġva can
ÑĢÑĥ ÐµÑĤÑģÑı
Ð± ÑĢÐ°
Ġpad ÄĹs
ĠÐ³ ÑĢ
ĠÐŀ ÑĢ
ĠÑģÐ°Ð¼ ÑĭÐµ
Ã¡ ciu
Ġat vir
Ðĺ Ð·
Ġuniversite to
ĠC S
ĠMih ai
Ġa gen
Ġpag am
Ð± Ð¾Ð»
ĠÐŁ Ð¸
Ġkil omet
____ ____
ĠuÅ¾ pil
ĠÄ¯ ro
ÑĤÐµÐ»ÑĮ Ð½Ð¾ÑģÑĤÑĮ
ĠÐ´ ÑĢ
ĠÐ²Ð° Ð»
Ġteig ÄĹ
ĠÐ¿ÑĢÐ¸Ð½ ÑĨÐ¸
Ġal im
Ġam b
o ch
ĠÃ®ntÃ¢mp lÄĥ
Ġlite ra
Par duo
ĠÐ²Ð¾Ð· Ð½Ð¸Ðº
ĠÐ± ÑĢÐ°
Ġpabai goje
T a
Ġcul tur
ĠÐºÐ¾Ð¼ Ð¸
Ġc ola
Ã¡ i
áº¥ p
ĠÄ¯mon iÅ³
re l
ar ului
Ġmer ge
ĠK ri
Ġnereik ia
Ġrealiz at
Ġsp ar
fi in
ty vin
ĠJ au
Ġc asa
ĠG y
Ġre lig
Ġat lyg
Ġlei d
ĠÑģÐµÑĢ ÑĮ
Ġsu tri
ĠÐ¾ÐºÐ¾Ð½ ÑĩÐ°
ĠÐĵ ÐµÑĢ
Ġpas lap
Ġdien as
ne Å¡
ĠÐ¿ÑĢÐ¸ ÑıÑĤ
ÐµÐ· Ð´
Ġsal ari
ÑĩÐµ ÑģÑĤÐ²Ð¾
ĠÐ¼Ð¸ ÑĢÐµ
o rii
ã ĥ
Ġa tei
Ġlucru rile
Ġp iln
z Ã¢nd
ĠÐ°ÑĢ ÑħÐ¸
Ð²ÐµÐ´ ÐµÐ½Ð¸Ñı
ĠSu ceava
zi ce
Ġde dic
ĠÐ¢Ð°Ðº Ð¶Ðµ
Ġs va
Ġdezvol tarea
Ġinterne tu
ĠÐ·Ð°ÐºÐ¾Ð½ Ð¾Ð´Ð°
Ġnu gar
Ġs tai
ÐĴ ÐĲ
Ġauto bus
Ð¼Ðµ ÑģÑĤ
ÐµÑĢ ÐºÐ°
ĠÅłi uo
Ġpriemon ÄĹs
Ġlie pos
ĠÐ¾ Ð¿Ð¸ÑģÐ°
Ġlai ky
ĠÑı Ð½
uo tos
Ġpoli cijos
ÑĤÐ¾ Ð½
Ġsus ir
eli ai
dep end
ĠÑĥÐ²Ðµ Ð»Ð¸ÑĩÐ¸
ĠÐ¿Ð¾Ð¿ Ð°
ÑģÑĤÐ¸ÑĤ ÑĥÑĤ
Ġa da
Ġpui ki
Ðł Ðµ
Ġh id
es ni
ĠH D
Ġdv s
Ġc iu
Ġlu a
A ces
z mo
Ġg ia
ĠÐ½Ðµ Ð´Ðµ
Ġpa Äįiu
Ġelec tri
Ġlap kriÄįio
ĠÐ½Ð° Ð·Ð°Ð´
ĠÐ¸Ð· Ð¾Ð±ÑĢÐ°Ð¶
ĠpaÅ¾ eid
ĠÐ¾ ÐºÐ°Ð·ÑĭÐ²Ð°
ĠÐ½Ð¾Ð² ÑĭÑħ
Ġde termin
Ġsus ik
ĠB as
ĠÑĦÐ¾ÑĤ Ð¾Ð³ÑĢÐ°ÑĦÐ¸
Ġto ho
Ñĥ ÑģÐºÐ°
ran t
ĠÑģÐ²Ð¾Ð¸ Ð¼Ð¸
li uk
ÄĹj ÄĻ
mok ra
Ġbiu dÅ¾
ĠÐ¼Ð½Ð¾Ð³Ð¸ Ñħ
áº «
Ġtr ys
Ġprez enta
ĠÑĢÐ°Ð¼ ÐºÐ°Ñħ
un da
in du
Ġdumneavo astrÄĥ
ĠÑĢÐµ ÑĪÐµÐ½Ð¸Ñı
kai tÄĹ
Ġad icÄĥ
ĠDom nului
Ð² ÑĪÐ¸Ñħ
Ġd upa
ĠJ ung
Ġdir ba
Ġpute ÈĽi
p to
jam Å³
ĠÑģÐ°Ð¼Ð¾ ÑģÑĤÐ¾Ñı
ĠÐ¿ Ð¾Ð¶
Ġgy n
Ġpri tai
ĠuÅ¾ dar
ch u
curs ul
ĠsÄĥnÄĥ tate
um us
Ġth i
Ġa bu
Ġ[ ...]
Ġsen s
ĠM ic
Ġpagal ba
Ġob icei
ti mÄħ
ĠÐŁ Ð¾ÑĢ
Ġsri tyje
ĠÐ²ÑĤÐ¾ÑĢ Ð¾Ð¹
ĠÑģÐºÐ°Ð·Ð° Ð»
Ġc ali
ĠM Å«sÅ³
ĠÐ¸Ð½ ÑĦ
Ġdes tin
ÑĤÐ¸Ð² Ð½ÑĭÐµ
d irb
ern iu
ĠÅ¾in oma
Ñħ Ñĥ
ĠC am
Ð´Ðµ Ð»
ĠÑĤÐ¾Ð²Ð° ÑĢ
aliz area
Ñĳ ÑĢ
Ġpra dÄĹti
d ys
ĠTe is
ĠÑģÐ² Ðµ
D aug
Ġak tu
Ġface m
ĠÐľ Ð¸Ð½
ĠÐ¼Ð¾Ð¼ ÐµÐ½ÑĤÐ°
ĠÐºÐ¾Ð¼ Ð½Ð°
Ġnuom on
Ġnam us
Ġnh Ãł
Ġkiti ems
Ġl á»
ĠÑħÐ°ÑĢÐ°ÐºÑĤÐµÑĢÐ¸ ÑģÑĤÐ¸
Ġneces are
ĠÐ¾ÑĤÐ²ÐµÑĤ ÑģÑĤÐ²ÐµÐ½
ks as
Å ²
ĠÑĩ Ð»ÐµÐ½
Ġs in
Ġdá»¥ ng
Ġz n
T E
ĠÐ´Ð¾Ð¼Ð° ÑĪ
ĠÐ¿ÑĢÐ¾Ð³ÑĢÐ°Ð¼ Ð¼Ñĭ
Äį nÃ½
Ġpasa kyti
ĠÑĦÐ¸ ÑĢ
p ÄĹ
ĠÐ½ÐµÐ¼ Ð½Ð¾Ð³Ð¾
Ġm ak
E ste
ĠS ib
f an
ov Ã½
v ate
ran d
ĠÐ¾ ÑĪÐ¸
ĠÐ¿ÑĢÐ¾Ð¸Ñģ ÑħÐ¾Ð´Ð¸ÑĤ
Ġte ra
Ð»Ñİ Ð´Ð°
Ð¾Ð»Ð¾Ð³Ð¸ Ñı
ĠÐ¿Ð¾ ÑģÑĤÐ°Ð²
am na
Ġda in
Ġl at
ĠÐ·Ð° Ð²ÐµÑĢ
ĠLenki jos
Ġpop ula
in inko
ta vimo
Ġl áº¡i
Ġl Äĥs
ĠÑģÐµÐº Ñģ
Ġc and
de Å¡im
ĠV akar
ĠL ie
tu vas
s it
7 9
Ġg us
ĠÑĩ ÐµÑĤÑĭ
Ġdi feren
áº¿ u
Ġtru k
Ġpasi tik
ĠÐ²Ð·Ð° Ð¸Ð¼
Ġvi á»ĩ
ĠL ond
pl at
n ia
m adien
Ġfeme ie
ĠÐ¾Ð¿ ÑĤÐ¸
ĠÐ¿Ð»Ð° Ð½
Ġre a
ĠÐ¥ Ð°
Ġmat yti
ĠRom ania
ĠÐ¿ÑĢÑı Ð¼Ð¾
ÐµÐ´ Ð¶
ri ei
vei ks
Ġscur t
sle i
ĠgÄĥs it
ÑīÐ° ÐµÑĤÑģÑı
Ã¡ Å¡
Ð¿ Ð¾Ð½
c is
Ð¾Ð¹ ÑĤÐ¸
Ġpasi p
g iÅ³
Ġpra ei
ĠC op
Ġz ic
ĠÐºÐ° Ð¿Ð¸ÑĤÐ°
Ġasmen Å³
Ñį Ð½
rÄħ s
Ġv ite
Ġg ol
Ð¾Ð»ÑĮ ÐºÑĥ
Ġgal io
t aik
ra vo
Ġauto ma
ĠÐ³ ÑĢÐ¸
Ġsvar bi
Ġmateri al
Ġcon cep
ĠÑĥ Ðº
Ġd ang
Ð·ÑĭÐ²Ð° ÐµÑĤ
ri cul
ĠÑħ ÑĢÐ°
Ġv Ã¡m
Ġsec uri
ĠÐ¿ÑĢÐµÐ´ Ð¼ÐµÑĤ
Ð²Ð¸Ð´ ÐµÑĤÐµ
A k
on ai
ÑĢÐ°Ð½ ÐµÐ½Ð¸Ñı
Ġcontin uÄĥ
Ġinf lu
ĠÐķ Ð³Ð¾
Ġm ini
Ġve is
ĠÑģ ÐºÐ¸
ĠÐ£ÐºÑĢÐ°Ð¸ Ð½Ñĭ
Äĥ rile
Ġap rec
ĠÐĹÐ°ÐºÐ°Ð·ÑĩÐ¸ ÐºÐ°
Ġvien u
ĠÑĥ Ð½Ð¸ÐºÐ°
Ġk ro
ĠS ch
vi ci
ren t
Ġsaug umo
ti ei
Ġd ig
je m
ĠÐºÐ°ÑĩÐµ ÑģÑĤÐ²Ð¾
ĠÅ¡io je
Ġa ro
Ġarch ite
ĠK ur
m ei
C om
Ġgi Ã¡
Ġcontinu are
ÑĩÐµ ÑģÑĤÐ²Ð°
ĠÐ³ Ð»ÑĥÐ±
Ð¾Ð³ Ðµ
ro u
ab ri
Ð³Ð° Ð½Ð¸
Ġkl aid
ĠSU A
Ġnar ys
ik ai
ĠÑģÐ°Ð¼ Ð¾Ð¼
Ð½Ð¸ÐºÐ° Ð¼Ð¸
Ġbendruomen ÄĹs
ĠÅ¡ ta
Ġ ~
ĠL R
N uo
Ġperso anÄĥ
ÑĢÐ° Ð¹
ĠÐ¿ÑĢÐ¾Ð±Ð»ÐµÐ¼ Ñĭ
ĠAp ie
Ð¸ Ñħ
ĠÐ± ÑĢÐ¸
ĠÃ®mb unÄĥ
Ġap Å¡
ĠÐĲ Ð´
Ġse rie
eri a
id a
Ġinter me
ti ems
ÐĶ Ð°
Ġsti pri
ÑĨÐ¸Ð¾Ð½ Ð½ÑĭÑħ
Ġprin tr
in ÄĹmis
Ġ rieÅ¡
Ġkri kÅ¡
Ġmed viln
on is
ĠÄįem pion
ĠÅ¡ iame
Ġte k
ĠÐºÐ»Ð° ÑģÑģÐ¸
Ġproduk tÅ³
Ġfinan ci
Ð»Ð¸ Ð¸
Ġfolos it
ÑĪÐ¸ ÑģÑĮ
ia te
ĠrÄĥ zbo
Ġtvar ky
jam pol
z ute
AT O
M o
ĠÐ¿ÑĢÐ¾Ð²ÐµÐ´ ÐµÐ½Ð¸Ñı
Ġprop une
Ġf u
Ġis torin
ĠÐ½Ð° ÑħÐ¾Ð´Ñı
ĠP ui
ĠÄ¯si tik
Ġs á»±
Ġval dy
ĠConstan Å£a
Ðĺ ÐĿ
ĠÄ¯ saky
z ei
Ġleng v
Ġsta re
toj ui
Ġkeli o
Ġan tra
Ð»Ð¸ Ð±Ð¾
Ġpe dagog
ÐĿ Ð¾Ð²
ĠÐ¼Ð° ÑĤ
áº· c
Ġtie Å¾
ĠÑĥ Ð¿Ð°
ĠvÃ¢r stÄĥ
Ġmet al
Ġcompe ten
Ñĥ ÑĩÐ¸
ÑĪ ÐµÑĤ
ĠÑħ Ð¾
Ð± ÑĥÐ´
ĠÑģÐ»ÑĥÐ¶ Ð±Ñĭ
Ġm ii
ĠÐ¿ÑĢÐ¾Ð´Ð¾Ð» Ð¶Ð°
ĠÐ°Ð¿ Ð¿Ð°ÑĢÐ°
Ãº Äį
ik as
ĠÐ¼Ð¸ ÑĢÐ¾Ð²
Ġatsto vai
s ime
Ã® t
kl is
ce le
tu re
Ġpake isti
ĠÅ¡iuo laik
ĠÑĤÑĢÐµÐ± Ð¾Ð²Ð°Ð½Ð¸Ñı
Ġvede rea
M S
Ġbendradar bia
Ġl ov
Ġpri imti
h op
ĠÑģ ÐµÑĤ
Ġmed iu
ĠÐºÐ¾Ð¼Ð¿ Ð»ÐµÐºÑģ
r d
Ġme mo
Ġsu d
Ġvlas t
ĠÐ¾Ð±Ð¾ÑĢÑĥÐ´ Ð¾Ð²Ð°Ð½Ð¸Ñı
Ġpasiek ti
u Å¾i
ĠÐ¸Ð½ÑĦÐ¾ÑĢÐ¼Ð° ÑĨÐ¸Ñı
Ġfa ÈĽa
Ġdim inea
ĠÑįÐ»ÐµÐºÑĤ ÑĢÐ¾
Ġa tin
ĠÑĦÐ¾ÑĢ Ð¼Ð¸
Ġh iá»ĩn
dom a
ÑĢÐ¸ ÑģÑĤÐ¸
ti er
ok ite
ĠC l
áº£ o
Ġiden tific
ĠÐ± Ð»Ð°Ð³
in ama
ĠÐĴ Ð¾ÑĤ
n iu
p od
Ð´Ð¸ Ñı
Ð¾Ð²Ð° Ð»Ð¸
Ġk lu
ĠT el
ĠC as
s il
ting as
ĠG ener
Ð¾Ð¿ ÑĢÐ¾
Ġproble mÅ³
Ġviá»ĩ c
Ñģ Ð°Ð½
dom as
ĠÐ±Ñİ Ð´Ð¶
Ġkon ku
tan as
P h
ĠÃ® Å£i
Ä º
Ġcarac ter
Ġschim bÄĥ
ov Ã½ch
ÑĭÑĪ Ð»ÐµÐ½
ĠhotÄĥr Ã¢
ĠÐļ ÑĢÐ¾Ð¼Ðµ
Ġc lÄĥ
ĠÑĢÐ°Ð±Ð¾ÑĤÐ° ÐµÑĤ
Ð¶ Ð½ÑĭÐ¹
Ġap are
ost ÃŃ
matav imai
ĠÅł v
li t
ĠÅ¡al yje
Ð± Ð¾Ð¹
Ġinf rac
Ġteik ia
ĠÐ¾Ð¿ÑĢÐµÐ´Ðµ Ð»ÐµÐ½
Ġregi on
Ġjaun imo
T I
Ġknyg os
Ġtra dic
7 2
Ġkvie Äįia
Ġtre ni
ÑģÑĤÐ²ÐµÐ½ Ð½Ð¾Ðµ
Ġspal vÅ³
ĠÐĴÐ»Ð°Ð´Ð¸ Ð¼Ð¸
Ġenerg ie
imen si
ĠÄ¯ trauk
Ġpos ky
ÈĽ uri
U N
Ġper forman
ÑĨ ÐµÐ½Ð¸
Å« p
Ġi ma
ĠÐ²Ðµ Ñģ
Ġofici al
Å¾ a
eli u
Ð¿ ÑĢÐ°Ð²Ð¸
Ġta n
Ġm am
Ġvre o
ĠÑħÐ°ÑĢÐ°Ðº ÑĤÐµÑĢ
Ġdi verse
Ġm it
ĠN em
ĠÐ¾ ÑĨÐµÐ½
p is
Ġak adem
Ġpavir Å¡
Æ°á»£ ng
ĠÃ®ncÄĥ l
Ġdar bai
ĠÑĤÑĭÑģÑı Ñĩ
te ze
ĠÄĳ áº§u
ĠM ul
Ġar g
in sk
ik o
Ðľ Ðĺ
men a
Ð¾Ñĩ Ð½ÑĭÐµ
ĠÅ¡vie timo
ti ment
mÃ¢n tul
Ġn Äĥs
Ġtu os
Ðµ Ð²Ð°
Ð½ Ð¾Ð²Ð°Ð½Ð¸Ñı
ĠÐ¼Ð° ÑģÑĤÐµÑĢ
ĠÐ±Ñĥ Ðº
ĠÄĳá»Ļ ng
ÑģÑĤÐ° ÑĤÐ¸
n er
Ġs mar
Ġproba bil
or din
mu ose
1 10
ĠÐ¾ÑĤ Ð¿ÑĢÐ°Ð²
ĠÐ²Ð¾Ð· Ð´ÐµÐ¹
ĠÐ¾ÑĤ Ð·Ñĭ
Ġmoter Å³
ĠÐ° ÑĤ
j or
ĠÑĢÐ°Ð±Ð¾ÑĤÐ° ÑĤÑĮ
ĠÐº Ð¾Ð¶
ĠÐ¿ ÑĥÐ±Ð»Ð¸
Ð´ ÐºÐ¾
Ġteis iÅ³
Ġch á»ī
Ġpri mele
Ã¡l ny
Ð¾ÑĢ Ð¾ÑĤ
ik i
eri s
ĠE s
ĠÐ² ÑģÐ¿
ĠÐ¼Ð½ Ð¾Ð³
ĠÐ¾Ð±ÑĢÐ° ÑĤÐ¸
ĠÐ½ Ñĥ
Ġale geri
Å¡ o
ĠÑĦ ÑĥÑĤ
Ġtok iu
Ð¾Ñģ Ð¿
eri Å³
ĠC er
am es
Ð¶ Ð´Ðµ
Ġprodu cÄĥ
ĠÑĢÐ°ÑģÑģÐºÐ° Ð·Ð°
Ġman ag
mon i
Ġsa vinink
Ġnus pren
ĠI N
Ġi mi
ĠdidÅ¾i ul
at Å³
ĠC an
ĠP ie
ĠiÅ¡ band
ni Å¥
Ġvie tÅ³
on os
Ġgru odÅ¾io
Ðļ Ñĥ
ĠÐºÐ¾ÑĤÐ¾ÑĢ ÑĥÑİ
ĠP ak
ĠKa ina
tÄĥÅ£i le
Ġm ÄĹs
ĠÐ²Ð»Ð° ÑģÑĤÐ¸
nÃŃ k
ĠÑĤ ÑĢÐµÑĤÑĮ
ĠÐ¡ Ð°Ð¹
ĠJ us
ĠT en
c inÄĹs
Ġpa tikrin
ĠÐ±Ð»Ð¸ Ð·
ĠÃ®ntrea ga
Ð»Ñĥ Ð¹
Ð± ÑĢÐ¸
Ð· ÑĮ
ĠvÄĥ d
ÑģÐµ ÑģÑģÑĥ
Ãº ng
ch et
Ġb as
ĠÐ± Ð»Ð°Ð³Ð¾Ð´Ð°ÑĢÑı
ĠÐ¿ ÑĭÑĤÐ°
ĠÐ¿Ð¾ÑģÑĤÐ¾ÑıÐ½ Ð½Ð¾
ĠÐ´Ð¾ÐºÑĥ Ð¼ÐµÐ½ÑĤÐ°
Ä ©
ĠUni vers
Å¥ a
ĠÐ¾Ð±ÑıÐ·Ð° ÑĤÐµÐ»ÑĮÐ½Ð¾
ĠÑĤ ÐºÐ°
ĠkrepÅ¡ inio
ĠÐ²ÑĭÐ± ÑĢÐ°ÑĤÑĮ
ĠÐĽ Ð°
ĠÐ¾Ð±Ð¾ÑĢÑĥÐ´ Ð¾Ð²Ð°Ð½Ð¸Ðµ
n od
P O
ĠÃ®ntÃ¢lni ri
m yn
ĠÐ·Ð°Ð²Ð¸ÑģÐ¸ Ð¼Ð¾ÑģÑĤÐ¸
Ġt rea
ÐºÐ¾Ð» Ð°
ĠÐ¿Ð°ÑĢ ÑĤ
Ġur meazÄĥ
tin iu
Ð¸ÑĤÐ° Ð¹
lo b
s m
le gi
ĠÑĥ Ð·
ĠmaÅ¾ daug
Ġsta tului
Ġkry p
ĠÐ¿ÑĢÐ¾Ð´Ñĥ Ðº
Ð´Ð¸ Ð¸
ĠÑģÐ¾ ÑģÑĤÐ°Ð²Ð»ÑıÐµÑĤ
ĠÐ·Ð° ÑıÐ²Ð¸
k ami
ĠÐ¡ Ð¿
ĠjumÄĥ tate
Ġeuro pene
st va
ti le
Ġministeri jos
Ġvi tamin
Ġener gijos
Ġaco peri
ĠÄ¯sp Å«d
Ġpa te
ĠiÅ¡ Å¡
Ġbenefic ia
Ġte ko
Ġap ara
Ġdep Äĥ
ĠÐ¾ ÑīÑĥ
ĠÐ¿ Ð¾Ð»ÑĮÐ·
Ð´ Ð¾ÑĢ
ÑģÐ¾Ð» ÑİÑĤ
b ÄĹ
ĠD ra
tin i
ĠPran cÅ«
Ġor din
ĠAces ta
tu mas
ĠÐ½Ð¸ Ð¶Ðµ
Ðķ ÐĿ
Ġinterme diul
tu kai
Ġtrans mis
Ġdvi ra
Ġdo resc
t deauna
Ġklas ÄĹs
Ġc ite
Ġin dic
ĠÐ¾ÑģÐ¾Ð± ÐµÐ½Ð½Ð¾
Ð· Ð¼Ð°
Ġnema Å¾ai
Ġk os
ĠP an
Ġkom ite
ĠÐ± Ð°Ð»
Ġta x
Ġcore sp
b ra
Ġu gn
ÑĪÐ¸ ÑĤÑĮ
Ġpare iÅ¡k
ĠÐ¿ÑĢÐµÐ´ ÑĥÑģ
Ð¾Ð³Ð¸ Ðµ
ĠÃ®ncep Ã¢nd
s amb
Ġk atal
ĠU kra
Ġkari Å³
Ġch ce
ĠÐ² Ð¿
ĠÐ¼Ð°ÑĤÐµÑĢÐ¸Ð° Ð»Ð°
ĠÐ´ÐµÐ¹ÑģÑĤÐ²Ð¸ ÑĤÐµÐ»ÑĮÐ½Ð¾
Ã© mu
ĠÅ¾u vo
Ġnu gal
ĠÐĳ Ð¸
Ġned id
ĠC i
ani za
ĠÐľ Ð¾Ð»
Ð½Ñı ÐµÑĤÑģÑı
Ġactivi tate
Ãł o
Ġcap aci
Ġvor be
ĠÐľÐ¾ÑģÐº Ð¾Ð²
Ð· ÐµÑĢ
Ġb ul
v Ã¡d
Ġd ÄĹs
Ġf as
Ġpo tri
ĠÑģÐ¾ ÑģÑĤÐ¾
ĠÐ°Ð² Ð³Ñĥ
Ġpun k
ĠT i
Ġpas in
ĠÐ° ÑģÑģ
Ġposi bilitatea
Ġrezul tate
ĠÑģ ÐµÐ½ÑĤ
Ġly de
Ġkonk urs
ĠÐ±Ð¾Ð»ÑĮ ÑĪÐ¸Ð½
ĠpaÅ¾ ym
Ġj az
ĠÐ¾Ð±ÑĬ ÑıÑģ
ĠM us
G al
in ÄĹti
Ġmo to
ÑĢÐ° Ð±Ð°ÑĤÑĭ
Ġsk amb
Ġse p
Ġbal andÅ¾io
ĠJ a
n Äħ
Ġma ÅŁ
be c
Ġas cul
Ġat osto
ÑĪ ÐºÐ¾Ð¼
Ð½Ð¸ÑĨÐ¸ Ð¿Ð°
Ġpr al
ĠraÅ¡ o
Ġspeci ali
? ?
Ġpap uoÅ¡
» ¿
Ġal ko
± c
ï »¿
ĠÐ·Ð° Ð¼
ĠÑģÐ¸ Ð³
áº ¹
Ġcuvin te
tÄĥÈĽi le
Ġre ven
ĠÐºÐ¾Ð¼ ÑĦÐ¾ÑĢ
ĠP lo
Ġinforma ÈĽii
Ñĩ Ð½Ð¾ÑģÑĤÐ¸
Ñħ Ð²Ð°
áº »
Ġkariuomen ÄĹs
ÑĤ Ð½ÑĭÐµ
ĠrÅ« Å¡
dam os
Ġnh áº¥t
ÑĪ Ð»Ð°
Ñĳ Ð»
Ġpl okÅ¡
Ġfel ul
iá»ĩ u
Ġties Å³
ĠVil kaviÅ¡k
ĠF inan
Ð¾ Ñĥ
Ġsta tis
ĠÅ¾ yd
ÑĤ Ð½Ð¾
j de
ĠRepubli ca
9 2
Ġkuri a
Ġne ga
ĠÐ¿ÑĢÐ¾ ÑģÐ¼Ð¾ÑĤ
Ġkel ia
Ð´Ð¸ ÑĤ
Ġth Ãłnh
ÑĢÐ¾Ð² ÐºÐ¸
ĠÐ´Ð¾Ð»Ð¶ Ð½Ð¾
Ġgyven ime
ĠÐ¾ Ð½Ð¾
ĠÐ¸Ð·Ð¼ÐµÐ½ ÐµÐ½Ð¸Ñı
Ġsim bo
Ġneb us
ĠI T
ĠP alai
Ġkon struk
Ġd od
Ġgyven a
Ġm is
ĠiÅ¡ ven
Ġkuri ose
ĠÐ¿ÑĢÐµ Ð¿
ĠÄ¯staty mo
Ġsti prin
ĠÐ¿Ð¾ÑĢ ÑĤÐ°
ĠÈĻti u
Ġex act
Ġfor mat
ne le
ĠÐ´Ð¾Ð² Ð¾Ð»ÑĮÐ½Ð¾
áº· t
ÑĢÐµÐ¼ÐµÐ½ Ð½Ð¾
Å£i une
ĠÑĤÐ¾Ð²Ð° ÑĢÐ¾Ð²
Ġsiste mÄħ
it Äħ
ĠMinis terul
Ġk r
Ð¼ Ð¼
ÑĤÐ¾ Ñĩ
ĠÐ¼Ð° Ð³
in Å£a
ĠmÄĥs urÄĥ
M a
ĠÐ¿ÑĢÐ¸ ÑĢÐ¾Ð´
Ġra di
Ġt ale
ĠA S
Ġb á»ĭ
ĠÐ¿Ð¾ ÑģÑĤÑĢÐ¾
ĠÑĦ Ð¾Ð½
ĠnÃ¡ m
ĠÑģ Ð²Ð°
ĠÐ¿Ð¾Ñĩ ÐµÐ¼Ñĥ
Ġr Ã¢
Ġa st
ĠÐļÐ° Ð·Ð°
ĠP av
r Å«s
Ð²Ð° Ð»Ð°
Å¡ ta
Ġse ama
Ġpre mie
Ġmok iniÅ³
Ġsup rasti
cu ro
var bu
Ġne z
Ġmod ern
ĠÑģÐ¼ Ð¾Ð³
ĠÑĢÑĥÐºÐ¾Ð² Ð¾Ð´Ð¸
Ġta vo
Ð¶ ÐµÐ¼
ĠÐ¾ ÑĤÐµ
ÅŁi i
Ġz as
Ġanum ite
Ġv aid
Ġdrau g
Ġs yst
Ġgalim ybÄĹ
ĠÑħ ÑĥÐ´
or ge
Ġvy ras
ĠÐ¿Ð»Ð¾ÑīÐ° Ð´
Ġsu aug
ĠÐ´Ðµ Ð»Ðµ
ĠK or
le j
Ġpier d
ĠsÄħ skai
Ġs á»ĳ
ĠÐ·Ð° Ð¿Ñĥ
ĠÐ² Ð¾Ðº
ĠPri mÄĥ
ĠÑĢÐ°ÑģÐ¿ÑĢÐ¾ ÑģÑĤÑĢÐ°Ð½
Ð° Ð³Ð°
ĠÐµ Ð´Ð¸Ð½
ÑĤÑĥ ÑĢÐ°Ð»ÑĮ
tic ul
Ġmo tive
ĠÃ®nvÄĥ Å£Äĥ
is mul
en ÈĽÄĥ
mÅ³ jÅ³
ĠP ol
ĠP od
Ð²Ð¸ Ð°
ĠÑĥÑĢÐ¾Ð² ÐµÐ½ÑĮ
ĠN K
Ġfot bal
ĠÐłÐ¾ÑģÑģÐ¸ Ñı
ĠÐºÐ°Ð¶Ð´ Ð¾Ð³Ð¾
Ġat ra
Ġtarp u
ĠÐ·Ð° Ð¿ÑĢÐµ
st ÄĹs
ĠÑĨ ÐµÐ½Ðµ
Ġat kreip
eri i
ran i
ĠÐ· Ð¾Ð»
Ġvien in
Ð°Ð»ÑĮ Ð½Ð¾
g ir
Ġde mo
Ġt Ã¢n
ĠL o
Ġvaik us
Ġpus ÄĻ
Ð¶ ÐµÑĤ
Ġpir Å¡
ÑĩÐµ ÑģÐºÐ¾Ð¼
ĠÐ¼ÑĥÐ·Ñĭ ÐºÐ°
Ġnu Å¾u
Ġal tele
Ġl imi
ĠÐ¿ÑĢÐ¸ Ð³Ð¾ÑĤÐ¾Ð²
ĠÐŀ ÐŀÐŀ
ĠmÄĥ car
Ðł Ð°Ð·
ci le
ĠÐ¿ÑĢÐ¾ Ñģ
ĠsÃº Äįas
Ġun e
Å« ras
ÃŃv ne
Ġto p
ĠB Äĥ
ĠC ol
tar ul
ĠÐ½Ðµ Ðµ
ĠÐ¾Ð± Ðµ
Ġrez ol
to ran
Ġlauk ia
ĠÃ®nceput ul
ĠÄ¯ Å¾
yd Ä¯
Ġqu y
ra Å¥
Ġre m
ĠNe w
v ÄĹti
Ġtik ro
on us
ĠTau ragÄĹs
ĠTran spor
ĠÐ½Ð° ÑģÑĤ
Ġfol ose
ĠÐ³ ÑĢÑĥÐ·
ÑĩÐ° Ð»Ð°
Ġstal o
ĠNic olae
ã Ĥ
Ġvid uje
ÑģÐº Ð¾
z ÄĹ
ky je
Ġrankov ÄĹmis
Ġti po
Ġpute re
Ì ģ
ÑĪ ÐµÐ½Ð¸Ñİ
Ġn Ã³
Ġn Äĥm
ĠÐ²Ñģ Ñİ
ov al
Ð¾Ð¶ Ð½Ð¾
ĠÐ·Ð° Ð³
Ġro kov
Ġdef ini
Ð¿Ðµ ÑĩÐ°ÑĤ
Ġlik o
Ġjoc uri
ĠÐ½Ð° Ð¿Ð¸
Ġreikal Å³
Ð½Ñı ÐµÑĤ
ĠkÅ« dik
Ġcontra c
ĠÑĨÐ²ÐµÑĤ Ð°
Ġph áº£i
to re
T ik
Ġmoksl Å³
Ġu z
ĠÐ³ Ð¾Ð´Ñĭ
ĠÐ³Ð¾Ð²Ð¾ÑĢÐ¸ ÑĤ
ÑĤÐ¸ Ð»
ĠÐ£ ÑģÐ»Ñĥ
Ġto tu
ĠÐ»Ðµ Ñģ
ĠÐĲ Ð»
ĠIn stitu
Ġimp re
Ã´ z
ki ria
Ġpask ol
Ġdraud imo
Ġk nyga
ĠEuro pene
Ġb erniu
ÑĦ ÑĤ
Ġevenim ente
Ð»ÑĮ Ð·Ñı
ÑĢÑĭ Ð¹
s au
ÑĤÐµ ÑĢÐµÑģ
ok s
Ġmun icipi
ĠÄĳá» ĵ
Å«n us
Ġpa tari
ĠD aÅ¾
Ġpra dÄĹ
Ġate it
Ð¾Ð²Ð° Ð½Ð¸Ð¹
Ġatsis a
Ġauto mat
ĠÑģÑĤÐµ Ð¿
Ġoamen ilor
Ġprincip al
ĠÐ²Ð°ÑĢÐ¸Ð°Ð½ ÑĤ
ĠÑĢÑĭÐ½ ÐºÐµ
ÑĢ Ð¾Ð´Ðµ
pe ten
Ġorganiz at
ĠÑĤÑı Ð¶Ðµ
ia re
áº± ng
Ġprofes ori
Ġt in
ĠÑģÐ°Ð¼ ÑĭÐ¹
Ġz v
Ñī ÐµÐ½Ð¸Ð¸
Ġgam tos
E G
Ð¼Ð° ÑĢ
ĠÐºÐ° Ð¼
ĠÐ¸ÑģÑĤÐ¾ÑĢÐ¸ Ð¸
o ta
O V
um ui
Ġfa ta
im ok
Ġpasirink ti
Ġl ing
ĠÐ¿ÑĢÐ¸ Ñģ
Ġgrei Äįiau
Ġklaus imus
Ġsp aus
8 7
ÑģÐ° Ð¼Ð¸
Ġnori te
ÑĩÐ¸ ÑĤÑĭ
Ã´ r
Ġnet gi
ÑĢÐ¸ Ðº
Ġkomp le
Ġmani fes
ĠÐļ Ð¾Ð»
Ġap mok
Ġgal ÄĹ
áº¯ c
Ġne Å¡
S R
ĠV o
di ja
Ġcor p
Å¥ aÅ¾
Ġhá»į c
ik Äħ
ĠÑĤÑĢÐ°Ð½ÑģÐ¿ Ð¾ÑĢÑĤ
ĠgalÄĹs ite
Ġrink tis
en ÄĹ
ĠÐ²Ð°Ð» ÑİÑĤ
ut ul
Ġ $
ĠÐ¸Ð³ ÑĢÐ¾Ðº
nÃŃ kov
Ġdo ilea
Ġvaik as
Ðµ Ð»ÐµÐ½
Ġvy t
Ġl iu
ologi jos
Ð¿Ð° ÑĢ
M i
ĠÐºÐ¾Ð¼Ð¿ Ð»ÐµÐºÑĤ
Ð¾ÑĢ ÑĥÐ¶
on ia
ĠÑĤÑĢÐµ Ñħ
in am
to jÄħ
ÑģÑĤ Ð¾Ð¼
ĠWin dows
Ġacela ÈĻi
Ð°Ð¼ ÐµÑĤ
Ġapro pie
ÑĢÐ¸ ÑĤÑĮ
ĠÅ½ in
ĠÐ³ÑĢÑĥÐ¿ Ð¿Ñĭ
of t
ĠÐ¾ÑĤ Ðº
tar ÄĹ
ÑĢÐµ Ð±Ð¸
Ġpakank amai
ĠÐ° Ð½Ð³
ĠÐ²Ð¾Ð· Ð²ÑĢÐ°
ĠE i
Ġsing urÄĥ
Ġeks per
ĠÐĴ ÐµÐ»Ð¸
Ġproiec tul
Ġtar ybos
Ġs es
ĠcÄĥ ci
Ġpas ig
Ġki tok
gra fi
ĠA N
Ġulti mul
Ġgyven tojai
Ġas pec
ĠÐ½Ð¾Ð¼ ÐµÑĢ
Ð¶ ÐµÑĤÑģÑı
Ð¾Ð¹ Ð´ÐµÑĤ
ĠÐ·Ð° Ð¼Ðµ
f u
at os
Ġzi ce
Ġproiec te
Ġki Å¡en
Ġro l
Ġnusta tyti
ĠDom nul
Ġscop ul
ik e
ĠÑģÐ°Ð¼ Ð¾Ðµ
ÑģÐº Ð¾Ð»ÑĮÐºÑĥ
ĠÐº Ð¾Ð¶Ð¸
Ð² ÑĪÐ¸Ðµ
Ġar un
Ġtur ÄĹ
Ġth Ã¬
Ġgat vÄĹs
ĠV ol
Ð¾Ð» Ð¾Ð³
w er
Ġpersoan ele
Ġde vin
ÑĤÐ¸Ð² Ð½ÑĭÑħ
Ġnes k
ĠÐ½ Ð¾Ñģ
ĠbÅ« das
Ð¡ Ðµ
Ðµ ÑħÐ°
Ġe tik
Â ®
ti r
Ġsu fici
K ar
t m
c mai
ĠÐ¾ ÑĩÐ¸
Ġm eri
Ġt virtin
Ġdo re
Ġvine ri
ĠÐ° Ð¼ÐµÑĢÐ¸ÐºÐ°Ð½
omi ce
áº¡ o
ta me
Ġpoli ticÄĥ
Ġel ges
ÄĹ tis
Ġinv es
ĠDar bo
Ġindivid ual
yb oje
y tas
Ð·Ð¸ ÑĢÐ¾Ð²Ð°Ð½
Ġsus irink
Ġtem pera
ĠÐŁ Ð»Ð°
Ã² n
men to
Ð¾ÑĤ ÑĢÐµÐ±
Ġmie st
ĠÐ´ÑĢÑĥ Ð·
Ġie Å¡k
ĠAd ministra
ĠBu vo
Ġkur ti
ĠÅ£ arÄĥ
I O
Ð¾Ð³ Ð¾ÑĢ
ĠÑĤÐ° Ð½
j te
Ġdate le
b ina
ĠÐ·Ð° Ð±Ñĭ
Ġcon tribu
Ġmok slei
Ġsec ol
8 9
ÄĹj os
Ġjude cÄĥ
Ġper gal
Ġpus ÄĹs
ĠÑįÑĤÐ¾Ð¼ Ñĥ
Ġimed iat
tic ole
Ġpasirink imas
j omis
Ġprojek tÄħ
Ġamin te
jan tis
ei dÅ¾ia
ĠÐ¿ÑĢ ÑıÐ¼
ÐĽ Ð¬
ĠÑģ Ñİ
Ð»ÑĮ Ð½ÑĥÑİ
Ġfa bri
Ðļ Ðŀ
ĠÅ¡ iai
b un
Ġvre m
ÑĦ Ð¾Ð½Ð°
ÑĩÐµÑģÐºÐ¸ Ð¼Ð¸
ĠÐ¼ Ð¾Ð½
ĠÐ¼Ð°ÑĤÐµÑĢÐ¸ Ð°Ð»
Ð¶Ð¸ ÑĤÐµ
Ġpavad uo
m m
ÑĮ Ð¸
ÈĽi uni
ĠÑĦÐ¾ÑĢ Ð¼Ñĥ
en Å£Äĥ
ĠÐ¿ÑĢÐ°Ð²Ð¸ Ð»Ð¾
ÐŁ ÑĢÐµÐ´
Ġat as
tu je
Ġpasta ng
ĠA sta
Ġgal vo
Äį iausiai
Ġvasar os
et ais
ĠpaÅ¡ tu
ĠÐ¿ Ð»
Ġn Æ°á»Ľc
Ð¸ Ð´
le sc
Ġprof il
ÄĹj usi
á» ħ
ĠÐļ Ð¾Ð³Ð´Ð°
vos i
ĠÄ¯ skai
k loje
ĠS tar
to ti
ĠÑĢÐµÐ³Ñĥ Ð»Ð¸
umin icÄĥ
ĠÑģÐ¾Ð± Ð¸ÑĢÐ°
D a
Ġtur to
ĠÈĽ arÄĥ
Ġm and
ĠK i
ĠÐŁ Ð°ÑĢ
ĠD rag
Ð²Ð¸ Ð³Ð°
ĠÐ²Ð¸ Ð´Ð°
n au
Ġsp o
cij omis
Ġconf ir
ĠprÃŃpad e
P A
ĠgÄĥ se
ÑĢÐµÐ³Ð¸ ÑģÑĤÑĢÐ¸
c iniÅ³
ĠÐŁ ÐµÑĢÐµ
ĠÐ²Ð½ÑĥÑĤ ÑĢÐ¸
Ð»Ðµ Ð³
ĠÅ¡ var
Ð±Ð¸ Ð»Ð¸
ĠÑĤÐµ Ð±Ðµ
Ġom ul
it ul
Å¾ iais
ÑģÐ° Ð´
Ġcate go
R A
Ġsim bol
on at
ĠÑĤÑĢÑĥ Ð´Ð°
Ġgyven imas
Ġte h
Ã¡ p
ĠÐŁ ÑĢÐ°Ð²Ð¸
Ġknyg Å³
ri ad
Ġace a
ĠDe ci
Ġde m
Ð¾ÑĤÐ¸ ÑĤÐµ
b et
Ð¸Ð½ Ñĥ
Ġkuri ems
Äį ky
Ð»ÐµÐ½ Ð¾
ĠÐµ Ð²
T aip
re e
Ġre gistra
Ñĩ Ð½ÑĥÑİ
ĠÑģÐ¾ ÑģÑĤÐ°Ð²Ð»Ñı
ĠÐº Ð½Ð¾Ð¿
ĠÐº ÑĢÐµÐ¿
ĠÐ¡ ÑĤÑĢÐ°
ÐĴ Ðŀ
men Å³
ĠÐ° Ð½Ð°Ð»
g em
ĠÐ²Ð¾Ñģ ÑģÑĤÐ°Ð½Ð¾Ð²
Ġvii tor
ĠÃ®ng ri
e u
Ġpras i
Ã¤ Å¥
ĠÐ¾Ð´ Ð½Ð°ÐºÐ¾
ĠÐ¶Ðµ ÑģÑĤ
7 3
Ġpor no
Ġcel ui
ĠÐ·Ð½Ð°ÑĩÐ¸ ÑĤ
ĠÐ¸ÑģÐ¿Ð¾Ð»ÑĮÐ· Ñĥ
ara k
Ð¹ÑĤÐµ ÑģÑĮ
Ġul ei
Ð¿Ð° Ð´
in ii
esn ÄĹs
ÑģÑĤÐ²ÐµÐ½ Ð½Ð°Ñı
ĠPa gal
Ġsk u
ĠÐ¸Ñİ Ð»Ñı
tuie li
ĠÐ±Ñĥ Ð¼Ð°
ÑĪ Ð½Ð¾
Ġle is
Ġpra ÄĹjus
ĠiÅ¡ ei
Ġvas ario
il an
ĠÄ¯ g
ĠÑĢÐ° Ð·Ð°
Ġbendro vÄĹs
Ġry Å¡k
ĠÐ¿Ð° ÑĤ
Ġt Ã½ch
Äįi asi
in ÈĽÄĥ
Ġpasaul Ä¯
ap a
ÐµÐ½Ð¸ Ð½
Ġleg ate
ĠÐ½Ðµ Ð´Ð²Ð¸
R om
Ġeis mo
ĠÅ¡iu os
b en
versi tatea
ĠÐ²ÐºÑĥ Ñģ
Ġglo b
Ġt Ã½
Ð¸ ÑĤÑĮÑģÑı
Ġcon dus
ĠS T
Ġpoli tici
uojam i
Ġge res
ĠV aik
Ġsprend imas
Ñĩ Ð½Ð¾Ð¼
Ġintra t
ĠÑģÐ¾Ð³Ð»Ð° Ñģ
Ġvaiz do
Ġv el
Ġin ima
ĠÐ°Ð´ ÑĢÐµÑģ
Ġraj one
Ġap skai
Ġfil os
Ġto l
Ġap im
je d
Ġe for
ĠÐ¿ÑĢÐµÐ´ ÑģÑĤÐ°Ð²Ð»Ñı
ĠEurope anÄĥ
ĠÐ¾Ð´ Ð½Ð¸Ð¼
ĠÐ²ÑģÑĤÑĢÐµ ÑĩÐ°
ĠT ada
Ġtri jÅ³
va Å¾i
el l
ĠR ob
Ġlum ii
Ġmet ri
Ð´ ÐµÑĤÑģÑı
rau ti
Ġatve jais
Ġre publi
Ġinte gra
B u
im ams
Ġproiect ului
ĠÑĥÑģÐ»Ð¾Ð²Ð¸ Ñı
Ġsukn elÄĹs
ĠÐ´Ðµ Ð²
ÑĪ ÐºÑĥ
din iai
Ð³Ð¸ Ñı
Ġpri ori
Ġor d
ÑģÐ° Ñħ
ĠÐ¿ÑĢ Ð¾Ðº
7 4
ĠP ia
Ġpad al
Ġpriemon es
Ġmai tin
ar cÄĥ
Ð¶ ÐºÐ¸
Ġsupra fa
ĠÐ¼Ðµ Ð»
Ðº ÑĢÐµÑĤ
Ġvy res
or od
iÅ³ sti
ĠÑĢÐ°Ð¹ Ð¾Ð½
ĠsÄħlyg as
sk Ã©
ĠÐµ Ð¶Ðµ
k ienÄĹ
an tÄĥ
ĠpÄĥ cate
Ġpra de
aug o
ĠÐ½ÐµÐ´Ð²Ð¸ Ð¶Ð¸
Ġbal s
ĠG he
Ġan ii
Ġn ul
jos e
ĠÐ¼ Ð¾Ð¸
Ġkain Äħ
ĠÑĤÐµ Ð±Ñı
ĠÐ¾ÑĤ Ð»Ð¸ÑĩÐ¸
ĠKal ÄĹ
ĠÐº Ð³
Ġdec is
ĠÐ´ÐµÐ½Ðµ Ð³
k lo
Ġes ame
tÄĥ rile
ier curi
ti mis
Ġal ta
ĠB la
Ġa ki
ÐµÐ½ Ð½ÑĭÐ¼
vÄĹ ta
ĠM ate
Ġdis kusi
== ==
li ui
Ġaju tÄĥ
ĠÑģÑĤÐ°Ð½Ð¾Ð²Ð¸ ÑĤÑģÑı
ĠÐĿ Ñĥ
v Ã¢r
ĠÑģÐ²Ð¾Ð± Ð¾Ð´
Ġatas kai
Ġsufle tul
Ġale r
ĠÐ¿ÑĢÐµ Ð¿Ð°ÑĢÐ°
Ġmoder ni
Ð¾Ðº Ð¾Ð¹
Ġe g
Ġm asÄĥ
Ġm icÄĥ
ĠE di
h to
ĠÐ¿ÐµÑĢÑģ Ð¾Ð½Ð°
ÐºÑĥ Ð»ÑĮ
ta ni
Ġpersoan elor
a ÈĽi
P rin
Å¡ iu
Ð»Ðµ Ð¶Ð°
ta Å£i
Ġk ru
ÑĢÐ° Ð·Ð¸
Ġcopil ul
ÑĢÐ¾ ÑģÐ¸
ĠÐ´Ðµ ÐºÐ°Ð±
Ġpa veiks
ĠS pe
Ġtej to
v au
á»± c
ÑģÐµÑģÑģÑĥ Ð°
v n
Ġrug pjÅ«Äįio
ĠlegÄĥ turÄĥ
ĠP ubli
ĠÑĤ ÑĢÐ°Ð²
Ġi mo
ĠÐ´Ð¸ ÑĢÐµ
Ġgero kai
ĠÐ¿ÑĢÐ¾ÑĨÐµ Ð´Ñĥ
ÑĪ ÑĥÑİ
ty vi
Ġdirek torius
Ġpsich olog
Ġr Ã´z
Ġpo h
iau Å¡
ĠÐ³ Ð¾
Ġkam bar
inink ÄĹ
km erg
ter ului
ĠÐ·Ð°Ð²Ð¸ÑģÐ¸ ÑĤ
Ġnep ak
ÐµÐ¼ Ð¾Ð¹
Ãº t
Ġver tyb
ÑĤÐ° Ñı
ĀĀĀĀĀĀĀĀĀĀĀĀĀĀĀĀ ĀĀĀĀĀĀĀĀĀĀĀĀĀĀĀĀ
Ġtoki Äħ
Ġan tro
ĠGuver nului
Ġsup ranta
Ġmes aj
Ġgal bÅ«t
ã ģ
ĠÅ¡ird ies
j imÄħ
Ġor Äĥ
Ġkalb ÄĹjo
mi tate
p alai
ĠÐº Ð¸Ñģ
Ġh lav
ĠÐ± Ð¾Ðº
ĠÐľ Ð°Ð¹
Ġhtt ps
ĠÈĻ co
Ġtr Å«k
ĠÐ¾ÑĤ Ð²Ðµ
ĠuÅ¾tikrin ti
in tÅ³
aliz at
U T
ĠÐ¿ÑģÐ¸ Ñħ
ĠÑĢ Ð¾Ð»Ð¸
á»£ p
Ġle ge
ĠÐ¼Ð¾Ð³ Ñĥ
Ä¾ ko
Ġpra mo
ĠÅ¾ing sn
ĠÐ· Ð²
Ġasigu ra
ĠÐ°Ðº ÐºÑĥ
ĠÑģ Ð¼ÐµÑĢ
te ni
Ġma jÃº
Ġpartizan ai
Äħ jÄ¯
Ġci vil
ĠÐĺÑģÐ¿ Ð¾Ð»Ð½Ð¸ÑĤÐµÐ»ÑĮ
ĠEurope an
199 0
â Ĥ¬
ĠN am
ĠÐŃ Ð»ÐµÐºÑĤ
E uro
Ð»Ð° ÐºÑĤÐ¸
ĠVie Å¡
Ġmuri t
amen te
ĠÑģÐ¾Ð± ÑĢÐ°
ĠÐ¿Ð¾ Ð½
Ġc anti
ĠÐ¸Ð¼ ÐµÑĤÑĮ
r Ã©
Ġprop ri
Ġinf ras
Ġdr ÄĹg
Ġre ac
oa ÅŁte
ien ÄĹs
Ġprival o
ĠÑģ Ð½Ðµ
ĠÃ®mp Äĥr
ĠÐ½ÐµÑģÐº Ð¾Ð»ÑĮ
Ñĥ Ð¿
ĠÐŁ Ðŀ
ĠMari jampol
ĠÐºÐ¾Ð¼ Ð¼Ñĥ
ĠÐ´Ð¸Ð° Ð³
Ġz ap
Ġmar Å¡k
ĠurmÄĥ toarele
nÃ½ mi
ĠÐ°Ð± ÑģÐ¾Ð»ÑİÑĤ
ĠÐ¿ ÑıÑĤ
ĠV ir
Ġl ic
ĠÐĳ Ñĭ
Ġf en
Ġac u
Ġ ÑĢÑı
ÄĹl iau
ĠÑįÑĦÑĦ ÐµÐºÑĤ
ĠÐ¾ÑĩÐµÑĢÐµÐ´ ÑĮ
ÈĽ elor
c ului
Ġr ÄĹm
ĠÐ´ÐµÐ¹ÑģÑĤÐ²Ð¸ Ñı
ĠTe at
j om
Ġh e
Ġm ei
ĠG u
d el
Ġoc up
Ġpop uliar
h ite
ĠÑģ Ð»Ð¾
ver ti
ĠN h
Ġkon kur
Ð´Ðµ Ð»Ð¸Ñı
ĠÑĦÐ¾ÑĢ Ð¼Ñĭ
ĠÐ¿ÑĢÐ¸ Ð»Ð¾Ð¶
Ġdia g
ĠAly taus
Ġap ari
Ġten ka
ĠÐ°Ð´ ÑĢÐµ
Ð´Ð° Ð³
Ã¢mb ÄĥtÄĥ
Ġmemb ru
uri o
al l
Ġman au
Ġfam ilia
uri i
Ġcal cul
ting os
ĠÐºÐ° ÑģÐ°
Ġvien i
Ġme is
Ġpak laus
Ġau gin
eri o
ĠÐĲÐ½ Ð´
áº© m
ÑĢÐ¾Ð¼ Ð°
ĠÑģÐµÐ¼ ÐµÐ¹
Ġo are
e p
z ele
an ele
ÑĩÐ¸ ÐºÐ¾Ð²
ĠÐ¿ÑĢÐµÐ´Ð¾ ÑģÑĤÐ°Ð²Ð»Ñı
Ġgrie Å¾
k er
Ġgalim ybes
I P
Ġne ig
Ġvasar Äħ
Ã¢ u
ĠÐºÐ°ÑĢ ÑĤÐ¸Ð½
ĠM area
Ġm oni
Ġeli be
m osi
Ġduomen imis
ĠN ATO
Ġcomple t
Ġvar toj
ĠÅ¡il umos
V y
ĠÐ¿Ð¾Ð¼ Ð¾Ð³
Ġex tin
s ak
ĠÐ²Ñĭ Ð¸
ze ze
ut ÄĻ
Ġp Ã´
Ġparti ci
ĠÐ² Ð´
ĠÑĩÐµÑĤÑĭ ÑĢÐµ
f f
w n
Ġtur ny
Ġpa vel
Ġdar o
Ðº ÑģÐ°
ĠÐ¿ÑĢÐ¸ ÑħÐ¾Ð´Ð¸
ĠÑģÑĤÐ° ÑĢÐ°
ĠUni unii
r ale
ta cijos
Ġmy l
in amas
ĠS un
ok ia
Ġval dÅ¾ios
Ġpa ÄįiÅ³
ĠÐºÐ¾ÑĤÐ¾ÑĢ ÑĭÐ¼
ÑĦ Ñĭ
ĠÐ¼Ñı Ð³
ĠÐ¼ÐµÐ½ÑĮ ÑĪÐµ
leÅ¾ it
ĠÐ¾ÐºÑĤ ÑıÐ±ÑĢÑı
Ġz men
ÐĽ ÐĲ
Å¡k u
k Ä¯
j at
ĠJ ap
Ġtre n
al iÅ³
ĠÐ½Ð¸Ðº Ð¾Ð³Ð´Ð°
Ġch uy
ĠÐŁ Ð¾ÑĤ
ĠpÄĥ st
ĠÐ² Ð¾Ð´Ð¸
ÑĪ ÑĤÐ°
Ġver s
ĠP en
ĠÑĦÐ¾ÑĢ ÑĥÐ¼
Å£e an
ie d
Ġpa ties
Ġ eng
Ġsiek ia
Ġten to
Ġkai myn
Ñĩ ÐµÐ½Ñĭ
ĠUni te
ĠÑĥ Ð¼ÐµÐ½ÑĮ
te mp
Ġme gz
Ġsus p
Ġkonku ren
Ġkeli Äħ
ĠÑģ ÑĥÑĤ
en iai
ĠÅ¾i Å«r
Ġdatori tÄĥ
Ġapro barea
ie si
Ġge b
ĠÑĦ Ð°Ð¹
Ġo lim
ĠÐ´Ðµ ÑģÑı
ĠÐºÐ¾Ð½ ÑģÑĥÐ»ÑĮ
a bil
iÅ¡k io
ĠÑĢÑĥ ÐºÐ¸
Ð·Ñĭ Ð²Ð°ÑĤÑĮ
Ġsu vok
j ov
Äįi Å¥
Ġmul Å£
Ð¿Ð¸ Ð¾Ð½Ð°
K A
Ð¶ ÐµÐ¹
Ġsti mul
Ġtine ri
je le
din is
ĠÐ¿ÑĢÐµÐ´Ð¾ ÑģÑĤÐ°Ð²
ĠR i
ĠÐ¼ Ð¾Ð¹
de g
7 6
ti ile
Ġparticip at
ĠÑģÑģÑĭ Ð»
Ġur m
c ine
ĠÐ¿ÑĢÐ¾Ð³ÑĢÐ°Ð¼ Ð¼Ð°
ĠÑĩ ÑĤ
ĠÅ¡ie met
ĠÐ¡ÐºÐ° ÑĩÐ°ÑĤÑĮ
Ġpros tre
u Äį
Ġsk Ãº
Ġkur s
ĠÐ¿ÑĢÐ¸ Ð±Ñĭ
Ġnau ji
Ġc olo
di ce
ĠÐ²Ñĭ Ð³Ð¾Ð´
ĠÅ¡al yse
Ġsutri k
Ġtra tament
ĠP i
Ġd imensi
k ais
Å¥ ou
ĠÐ° ÑĥÐ´Ð¸
Ġpre Å£
Ġra umen
ĠÐ²Ð¾Ñģ Ð¿
p ov
Ġin tr
ĠÐ²ÐµÑĢ Ñħ
am entul
ĠR eik
ĠA g
tin o
ĠÃ®n chi
ĠÃ®nde pl
ĠÐ²Ñĭ Ð´Ðµ
am u
Ġat vi
e ze
Ġdis tan
Ġkelion ÄĹs
on u
ĠÅŁ co
zÄĥ rii
Ġre ali
Ġpici oare
Ġsum ok
Ð· ÐµÐ¼
ĠD E
ĠI P
ĠVokie tijos
ÑĤ ÑĭÐµ
Ġpl au
pe le
Ð¡ Ð°
ĠÑģÑĤÐ° Ð»Ð¾
Ġh á»£p
ĠÐ½Ð°ÑģÐµ Ð»ÐµÐ½Ð¸Ñı
Ġf al
ĠT er
Ġto mu
Ġk raj
Ġan samb
ĠÐ½Ðµ Ð»ÑĮÐ·Ñı
ĠÐ±Ð°Ð½ Ðº
s tu
ĠÐĿÐ¾Ð² Ð¾ÑģÑĤÐ¸
Ġo bi
Ġsprend imÄħ
se c
j ate
ĠÑĢÐµ Ð´Ð°
Ġse ara
el ul
Ġprogra mÄħ
ĠÐ¿ÑĢÐ¸ Ð²Ñĭ
Ġak is
ĠÐ²Ð· Ð³Ð»Ñı
ÑĨÐ¸Ð¾Ð½ Ð½ÑĭÐµ
ÅŁ tin
ĠÅ ¥
Ġso li
ĠÐ¾ ÑģÑĤÐ°Ð½Ð¾Ð²
Ġslu Å¾
Ġcontra ct
U M
Ġf ami
po i
M es
te ra
Ð·Ð¸ Ñı
ene j
Ġexp li
Ġ ÈĽin
Ġelek tros
Ġgal vos
res cu
Ġpred sta
Ġpl Ã¢n
ter ne
l ank
ĠÐ» Ð¾Ð¶
Ġturi te
Ġguver n
Ġs áº£n
ÐºÐ¸ Ð½
Ġli v
Ġv Ã´
Ġvre i
ĠÐ¿ÐµÑĢÑģ Ð¾Ð½Ð°Ð»ÑĮ
Ñī ÐµÐ½Ð¸Ð¹
á»ĥ n
Ð»ÑĮ Ð½Ð¾Ð¼
Ð¼ Ð¾Ñģ
ĠÑĤ ÐµÐ½
ĠÑģ Ð¼ÑĭÑģ
Ġc icÄĥ
Ã ¨
ĠÐ°Ð´ Ð¼Ð¸Ð½Ð¸ÑģÑĤÑĢÐ°
Ġacela ÅŁi
ĠÐº Ð¾ÑģÑĤ
ci t
Ð¿Ð° ÑĢÐ°ÑĤ
ĠÅ¾ivo t
Ġnici un
Ġservi ciu
Ġde a
ĠÑĦÐ° ÐºÑĤ
Ġg as
sk Ã½
Ġpov este
Ġl ed
Ġval oarea
Ġch ÃŃnh
ĠÑĥÐ²Ðµ Ð»Ð¸Ñĩ
Ġnh Ã¢n
Å ª
Äį ka
Ð°Ð»ÑĮ Ð½ÑĭÐµ
ĠÑģÐ¾ ÑģÑĤÐ°
ĠE le
Ġak imir
ÑĤÐ¸Ð² Ð½Ð¾Ð¹
ĠiÅ¡ sp
ĠÐłÐµÑģÐ¿ÑĥÐ±Ð»Ð¸ ÐºÐ¸
ĠÅ¾em ÄĹ
Ġcre de
e is
Ġj ap
ÄĹl Ä¯
ĠÄ¯ran ga
ari ad
ÑĩÐ¸ ÐºÐ¸
ĠclÄĥ di
ĠÑĥÐºÐ°Ð·Ð° Ð½
ĠÐ¿ÐµÑĢÐ² Ð¾Ð³Ð¾
Å£i unea
ĠÐĺ Ð²Ð°
S i
g etul
ĠÐ½Ð° Ð±Ð¾ÑĢ
Å ¢
Ġta re
Ġstraipsn io
ĠB ul
Ġcl ar
tin os
ĠrugÄĥ ci
Ġun ik
ĠÐ´Ð°Ð½ Ð½ÑĭÐ¹
ci un
ĠÐ¾Ð´ Ð½Ð¾Ð¼
Ð¾Ñģ ÑĢÐµÐ´
ĠÑĥ Ð±Ðµ
Ġpro bl
Ġl aipsn
ÐŃ ÑĤÐ¾
Ġkult Å«rin
ĠrÅ« pin
ÄĹj ui
fici al
ĠÄ¯si pareig
uje m
Ġprojek tas
la bai
or ului
Ã İ
ĠÑģÐ¾Ð·Ð´Ð° Ð½Ð¸Ñı
Ġvin de
9 6
Ð³ ÐµÐ¹
ĠÐ¿Ñĥ ÑĤÐµ
en o
ta b
Ġob sa
ĠÄ¯ veik
ĠS il
r ys
Ġfie r
ĠEuro poje
Ġprodu ce
Ġstatyb os
iec tul
ĠÑĥÐ½Ð¸Ð²ÐµÑĢ ÑģÐ¸ÑĤ
ÐµÐ´ ÑĮ
ti ek
! âĢĿ
Ġbu vus
Ġtre bu
ĠÐ½Ð°Ð» Ð¾Ð³Ð¾Ð²
li Å£i
ĠÑĢÐ°Ð· ÑĢÐ°Ð±Ð¾ÑĤÐ°
l ys
Ð² ÐµÐ¹
Ġk Ãº
Äįiu ose
Ġban ii
ĠÑĦÐ¾ÑĢ Ð¼Ðµ
Ġprezen tat
Ã¡ to
S T
Ð»ÑĮ Ðµ
Ġ| ----
Ġpra deda
Ġvad as
ĠÐºÐ¾Ð½ ÐºÑĢÐµÑĤ
vi Å¥
Ð¾Ð² Ð¾Ð³Ð¾
Ġpo por
Ġgam ybos
Ġsub stan
ĠÐ¿Ð¾ÑĤ Ð¾Ð»
Ð¾ÑĤ Ð½Ð¾
Ġe valu
Ġsur prin
Å¡ ej
ĠÑģÐ°Ð¼ ÑĭÐ¼
ĠÐ¼ÐµÑģÑı ÑĨÐµÐ²
ĠÐ´Ð°Ð»ÑĮ Ð½ÐµÐ¹
Ġbl ok
Ð± Ð°Ð½
Ġloc ui
Ġrecun os
Ġleng va
Ġta utos
Ġmin er
ĠÑģÐ¾Ð¾Ð± ÑīÐ°ÐµÑĤ
ĠÐ¾ Ð¿Ð°Ñģ
ĠÐ¿ÑĢÐ¸ ÑģÑĥÑĤ
Ġsu ta
ÑĪ Ð¾Ð¹
Ġpasi ruo
ĠÐ°Ð²ÑĤÐ¾Ð¼Ð¾Ð±Ð¸ Ð»Ñı
Ġnaudo tis
Ġin depend
ĠÐºÐ°ÑĤÐµÐ³Ð¾ÑĢÐ¸ Ð¸
Ġsk ol
Ð²Ð¸ Ð½
ĠM ag
tin u
M an
20 20
ĠÐ¾ÑĪÐ¸ Ð±
ÑİÑīÐ¸ Ð¼Ð¸
ter s
ÑĨÐ¸Ð¾Ð½ Ð½Ð¾Ð³Ð¾
Ġmoky klÅ³
Ġmik ro
Ġsa va
ĠÐ´ÑĢÑĥ Ð³Ð°
Ġl iau
ch id
re g
ĠÐ¿ÑĢÐ¸ Ð½Ð°Ð´
ÑĢÐ¾ Ð½Ð¸
ĠÄ¯ vyko
Äįi omis
Ġan ume
audo ti
en Å£a
Ġcon t
j uo
isc op
ÑĨÐ¸Ð¾Ð½ Ð½ÑĭÐ¹
Ġmul ÈĽ
Ð¾ÑĤ Ñĥ
Ġcola bo
ÑĤÐ¸ ÑĦÐ¸ÐºÐ°
ĠÑģ Ð¸Ð½
Ġkok ios
ÑĤÐ¸ Ñİ
on s
O P
ĠÑĥ ÑģÑĤÐ°Ð½Ð°Ð²Ð»Ð¸
Ġrus Å³
ĠÐĳ Ñĥ
Ġk ir
Ġsavan ori
Ġcent rul
ci den
im uose
ÐĲ Ð²
áº¡ t
cia re
asa ko
Ġs ma
Ta Äįiau
Ġtarn ybos
Ġpoli tic
Ġpra dÄĹj
dom i
ĠÐ½Ð° Ðº
sk Ã©ho
ĠA cum
ro ve
yb ei
Ġmoky kloje
tin iais
Ġtra fic
Ġreg im
Ġju dÄĹj
Ġg aun
Ġfil me
g ina
ĠG ala
ĠÑģÐ»ÐµÐ´ ÑĥÑİ
Ġves tu
Ġistori jÄħ
Ġmili ar
Ġ( âĢŀ
ĠS au
ĠÅ¡e ima
Ġng Ãły
ÑĢÑĥ Ñģ
Ġbud Ãº
Ðĵ Ð»Ð°Ð²
ĠIn forma
Ġpro ga
Ġrin kos
ĠÐ»ÑİÐ± Ð¾Ð²
ĠÐ¾ÑĤÐ½Ð¾ ÑĪÐµÐ½Ð¸Ñı
Ġra dio
ĠÐ¼Ñĥ Ð½Ð¸ÑĨÐ¸Ð¿Ð°
ĠieÅ¡ko ti
Ġpartene ri
ÑĢ Ð¾Ð·
ĠÐºÑĥÑĢ Ñģ
tri bui
Ġpre sÄĥ
k Ã½
ite Ä¾
Aces t
ÄĹj ams
Ġk arei
ĠÐ·Ð´Ð¾ÑĢÐ¾Ð² ÑĮÑı
ĠÐ²Ð· ÑĢÐ¾Ñģ
ÃŃ me
ĠÑģÐ¸ Ð»Ñĥ
Ġdezvol tare
p ai
ticol ul
ĠÄį ek
Ġpa Äįios
Ġpo Å¾iÅ«
Ð»Ñı Ð½
min ÄĹ
Å«n Äħ
ĠÐ¿Ð¾Ð¼ Ð¾Ð¶ÐµÑĤ
ĠE d
Ġgar b
Ġp rÄĥ
ĠÐ¿ÑĢÐ°Ð²Ð¸ Ð»ÑĮÐ½Ð¾
ÑĤ Ð¾Ð³Ð¾
i asi
ĠÑģÐ»ÑĥÑĩÐ° Ð¹
ÑģÑĤÑĥÐ¿ Ð»ÐµÐ½Ð¸Ñı
ĠtÃ¢r ziu
Ġre le
Ġnum ero
ĠÑıÐ½ Ð²Ð°
ĠÑĢÑĭ Ð±
ĠOr g
Ġch arak
Ġkuri uose
Ġkok Ä¯
Ġsveta inÄĹje
Ġti tul
Ðľ ÐĲ
Ġti r
Ð´ÐµÑĢ Ð¶Ð¸
ĠvÅ¡et ky
Ñİ ÑīÐµÐµ
Ġprelu c
á»Ļ c
Ġod atÄĥ
Ġto cmai
y tÅ³
al io
are le
Ġconfor mitate
h li
c ina
Ġde l
ĠÐ´ ÐµÑĤÐ°
Ġren un
Ñĩ ÐµÐ½Ð¸ÐµÐ¼
Ġger as
Ð² ÐµÐ½
ĠÐºÐ»Ð° ÑģÑģÐ°
m ani
ÑĢÐ¾Ð² ÐºÐ°
Ð² Ð¾Ð±
nod uch
Ð¾Ðº Ð¾
Ġ <
b are
ĠÄ¾ud ÃŃ
Ġreg ulia
uri s
ĠÐ¿ÑĢÐµ Ð¸Ð¼Ñĥ
** **
ĠÅ¡ ir
ĠiÅ¡ gyven
Ġstudi jÅ³
Ġt Ãº
ĠS por
ri mas
ir as
ĠÑģÐ¾ ÐµÐ´Ð¸Ð½
Ġa vi
c ÃŃ
ĠÑģÐµÑĢÑĮ ÐµÐ·
ĠÑħ Ð¾ÑĤÐµ
Ġr Ã½ch
ÄįiÅ³ jÅ³
Ġkrau jo
gi os
ĠÐ¢ Ñĥ
Ġgra Å¾iai
ÑĪÐ¸ Ð¼Ð¸
Ġs vei
ĠÑĥ ÑĩÐµÑĤ
ĠÐ¼Ð° Ð»Ð¾
Ġkari ai
ĠÐ¸Ð· Ð¼ÐµÐ½Ð¸
ĠÐ¿ÐµÑĢÐ² Ð¾Ð¹
Ð² ÑĪÐµÐ³Ð¾
ĠÐ½Ðµ Ð¼Ðµ
Ġimp lemen
Ġni ÈĻte
Ġper mis
ĠR am
Ð¼Ð¸ Ð¸
ti me
p uo
ĠÐ¿Ð¾Ð¼Ð¾Ñī ÑĮ
ĠÑģ Ð¼Ð°
A Å¡
ar s
ta dien
ĠO ra
Ġtyri mÅ³
ĠPas aul
Ġinterne te
yb ai
ĠÑģ ÐºÑĢÑĭ
ĠÐº ÑĢÑĥÐ³
Ġpo Äįas
Ġpen k
ĠÐ½Ðµ Ð¿ÑĢÐ¸
Ð¼ Ð¾ÑĢ
ĠÐ² ÐµÑĤ
Ġd rÄħs
Ġne tru
Ġin vita
Ġc es
f as
de ri
194 7
ad o
ĠÐ»Ð¸ ÑĤÐµÑĢÐ°
Ġam bas
Ġc od
Ġk andid
ĠÐºÐ¾Ð½ ÑĨÐµ
ĠN i
L e
Ġco rec
Ġchel tuieli
ĠÐ»Ðµ ÑĩÐµÐ½Ð¸Ñı
to ma
ĠÑİÑĢÐ¸ Ð´Ð¸
M ed
18 0
ĠÐ³ ÑĥÐ±
R u
7 1
V al
n el
is to
st ÄĹ
Ġpa vo
Ġc ategori
ing u
c lu
Ġsiste mului
ÑĢÐµ Ð²Ð°
ĠO d
m iÅ³
ĠÑģÑĤÑĢÑĥ ÐºÑĤÑĥ
ĠÐ¿Ð¾Ñģ Ð¾Ð±Ð¸
ĠÐºÑĥ Ñħ
en Å³
Ġur Äį
ĠP asi
ĠÐ¿Ð»Ð° ÑĤÐµ
ÑģÑĤ ÐµÐ¹
re m
ĠÐº Ð¼
Ġt Ã´i
ĠS aul
Ġzile i
ĠLe gea
ĠÐ¿Ð¾Ð´ Ð¿Ð¸
Ð±ÑĥÐ´ ÑĮ
Ð¾Ð½ ÑĤ
Ġorganiza cijos
ĠÐ±Ð¸Ð· Ð½Ðµ
ĠÐ±Ð°Ð½ ÐºÐ¾Ð²
ĠB en
Ġati tinka
Ġtrans for
Ġmed ia
ĠÐ´Ñĥ ÑħÐ¾Ð²
ĠÐ²Ð¾Ð· Ð½Ð¸ÐºÐ°
Ð³ÑĢÐ° Ð´
Ð¾ÑĢ Ð¾Ð½Ðµ
ĠÐ¾ÑĢÐ¸ Ð³Ð¸Ð½Ð°
ÑĨÐ¸ Ð¾Ð½Ð°
Ġlaik ais
ĠÑģÑĤ ÑĢÐ¾
to graf
k es
ÄĹ lio
ĠJ usti
Ġpasako jo
ĠÐ¼ Ð¾Ð´Ñĥ
ĠÐ´Ð° Ð²Ð½Ð¾
ĠgeleÅ¾ ink
Ġv Ã¤Äį
Ġsu Å¡
Ġad aug
199 9
ĠP ap
ĠdÄĹ Å¾
lal te
Ġsil p
Ġb og
Ġh Æ¡n
Ġpam ink
ĠÐ¾Ð±Ñĭ ÑĩÐ½Ð¾
ĠÄĳá»ĭ nh
Ġger man
Ġc urÄĥ
Ġoch ii
ĠÑĢÑĭÐ½ ÐºÐ°
Ġzile le
en ÈĽa
Ġcarac teri
Ġap g
Ġdal yje
ĠPa vyzdÅ¾iui
Ġvadov au
k Ãº
ĠÅ¾ iniÅ³
M aÅ¾
Ġvie tas
Ġv yb
Ġreprez enta
ĠÐ½ÐµÐºÐ¾ÑĤÐ¾ÑĢ ÑĭÐµ
Ġneces ar
Ġsavai t
Ġpas kai
ies iems
ĠAf ri
ĠP V
te liÅ³
ĠÐ½Ð¾Ð² Ð¾Ð³Ð¾
ĠÐĺÐ½ÑĤÐµÑĢ Ð½ÐµÑĤ
Ġpubli cat
Ġvy rÅ³
Ð² Ð¾Ð²
aliz ate
ĠÐ¿ÑĢÐµÐ´Ð»Ð°Ð³Ð° ÐµÑĤ
un dÄĥ
ÐĿ Ð¾
ĠÅ¡ iais
Ġdarbuo tojai
ĠsfÃ¢r ÅŁit
ĠÑģÑĤÑĢÐ° ÑħÐ¾Ð²
cij oms
ĠbÄĥr ba
ĠÐ¼ Ð¾Ð´
ĠS tu
ĠÐ¿ÑĢÐµÐ´ Ð¿Ð¾Ð»
ÑģÐºÐ° ÑĤÑĮ
ti fik
Ġne vy
Ġngh iá»ĩ
org he
ĠÑĩÐµÑĤ Ð²ÐµÑĢ
Ġne po
ĠÐ¿Ð¾Ñģ Ð²Ñı
in iam
ĠÑĥ Ð±Ð¸
Ð¸Ð½ Ð³
Ñĥ Ð¼Ðµ
rin ÄĹs
ĠÑģÐ¿ ÑĢÐ°Ð²
Ðº Ð¾Ð³
Ġqu an
ÑĤÐ¸ Ð¼
Ð½Ð¸ ÐºÑĥ
ĠÐ¢ ÑĥÑĢ
ĠÐ²Ð° ÑĪÐµÐ³Ð¾
ĠÐ» Ð¾Ð³Ð¸
ĠÐ²Ð° ÐºÐ°Ð½
Å£ it
Ð°Ð»ÑĮ Ð½Ð¾Ð¹
re iÅ¡k
ĠÅ¾mo gui
ĠÐ³Ð¾ÑĢ Ñı
ÑİÑīÐ¸Ñħ ÑģÑı
ĠÐķ Ð²
ĠÐ·Ð°ÑīÐ¸ ÑĤÑĭ
Ġpon Ãº
d ra
Ð»Ð° Ð¼
tin ti
ĠX V
Ġde vine
men Ä¯
Äį nÃ½ch
Ġpsi h
Ġke isti
ĠÐ¿Ð¾ÑĤ ÑĢÐµÐ±Ð¸
Ġmoky mo
Ġstra da
Ðº Ð¾Ð»Ðµ
ÈĽi une
Ġde Å¡
ĠiÅ¡s is
Ġp y
Å¡ to
Äį e
kl us
h al
ĠÐ¾Ð±ÑĬ ÑıÐ²
ĠÅ¡ y
Ðº Ð»
ĠAce asta
ĠÐ½Ðµ Ð²Ð¾Ð·Ð¼Ð¾Ð¶
ĠÐ¿ÑĢÐ¸ Ð³Ð»Ð°
Ġne lai
ĠÐ¿ÑĢÐ¾Ð³ÑĢÐ°Ð¼ Ð¼
Ã¡ o
ÑĢÐµ Ð·Ð°
Ġtik ras
ĠpaÅ¾ y
ÑĢÑĥ ÑİÑĤ
ĠÅ¡al is
Ġas muo
Ġapdovan oj
ĠÑģÐº Ð¾Ð»ÑĮÐºÐ¾
ĠJ an
z Å³
ch o
teri oare
ĠÑĤÑĢÑĥ Ð±
ĠPre zid
ti ri
ovan Ã©
Ġtreni ruo
ĠÐ± ÑĢÐµÐ½
ÑĤ Ð½ÑĭÐ¹
Ġte ori
Å¾in s
L A
vaiz duo
Ġj ame
ĠvarÅ¾ yb
du k
Ġzon Äĥ
Ð´Ð° Ð»Ð¸
ĠÐ¼Ðµ Ñĩ
D id
ĠF a
Ġpab rÄĹ
Ġpri ed
ÑħÐ¾Ð´Ð¸ ÑĤÑĮ
Ġcons um
Ġkamb ari
Ġvokie ÄįiÅ³
Ð¿Ð¾Ð» Ð½Ðµ
Ġvreme a
Ð¿ Ð¾Ñĩ
Ġpal yg
inÄĥ u
rÃŃ klad
ĠcicÄĥ liÅ£i
ici i
ĠÄ¯ kur
ĠÐ¿ÑĢÐµÐ´Ð¿ÑĢÐ¸ Ð½Ð¸Ð¼Ð°
Ġs ca
V il
Ġexp ri
et ai
Ġm ali
Ð² Ð¾ÑĢÐ¸
Ġver ta
Ġf an
ki jos
Ġdes c
Ġvalstyb iÅ³
ĠÑģÑĤ ÑĢ
Ġtechn ika
gal vo
ĠÐ²Ñĭ Ð³Ð»Ñı
h or
ÐŁ ÐµÑĢ
ÑīÐµ ÑģÑĤÐ²Ð¾
Ġcir cula
Ġm ÄĹly
d ului
Ġne ch
u rat
rin a
ĠÑģÑĤÐ° Ð½ÐµÑĤ
ĠrÅ« gÅ¡
ĠÑĢÐ°Ð¹ Ð¾Ð½Ðµ
f il
Ġdalyv iai
ĠDe z
ie rea
Ġpamat yti
Äı aka
ĠÃ®ntÃ¢lni re
Ġmajori tatea
Ã¡ nh
Ġklaus imas
Ġco okie
ĠpouÅ¾ ÃŃ
ty se
itÄĥÈĽi le
ĠÐ·Ð° Ðº
ĠÐ·Ð° Ð¿Ð¾Ð»
Ġputern ic
Ġvy rai
dam e
ĠÐ¿ ÐµÐ½
ĠÑĥ Ð»
ĠÐµ ÑģÑĤÐµ
Pas ak
is mului
ĠÐ±Ð¾ÑĢ ÑĮ
Ġle c
ĠÐ·Ð°Ð±Ð¾Ð»Ðµ Ð²Ð°Ð½Ð¸Ñı
ĠÐ¾ÑĤ ÐºÐ°Ð·Ð°
ĠÐ½Ð° Ð³ÑĢÑĥÐ·
Ġprez intÄĥ
Ġdokum entÅ³
ĠKad angi
Ġv am
Ġran kÅ³
ines s
Ġspeci ale
ĠÐĲ Ðº
8 4
ĠiÅ¡ vy
ÑĨÐ¸Ð¾Ð½ Ð½Ð¾Ð¹
Ġsk ly
Ġca o
Ð»Ð° Ñı
ien e
ĠÐ¸ÑģÐºÐ»Ñİ ÑĩÐ¸
tr ului
Ð¶Ð¸ Ð½
Ġocaz ia
Ðľ ÐĹ
ĠÐ½Ð¾Ð² Ð¾ÑģÑĤÐ¸
ĠÐºÐ° Ð½
Ġeurope an
pta utin
M e
ĠC os
Ġnauj ien
Ġgal o
y a
Ġpierd ut
Ð½Ð¸ Ð»
ĠP on
Ġin trÄĥ
ĠÐ³ Ð¾ÑģÑĤÐ¸
ĠÂ»Â» Â»
ÑģÑĤÐ¸ Ð½
ĠÐ· Ð¸Ð¼
ke viÄįius
Ġdal iÅ³
gu y
Ġcre di
ĠÐ¸ÑģÐ¿ Ð¾Ð»
ĠÐ¿ÑĢÐµ ÑģÑģ
Ġce z
Ġpra dÅ¾iÅ³
cÄĥ ri
Ġb ilie
Ġ ï¿½ï¿½ï¿½ï¿½
Ġtoki us
Ġtechnologi jÅ³
ĠÐļÐ¾Ð¼ Ð¿
Ġpat Ä¯
ĠdÅ¾iau gs
ĠÐĹ Ð´ÐµÑģÑĮ
re ze
g ine
Ð² ÑĪÐ¸ÑģÑĮ
ĠÐºÐ¾Ð¼ Ð¼ÐµÐ½ÑĤÐ°
ĠÅł ie
ĠÐ¾Ð´ Ð½Ñĥ
ÑĢÐµ Ðµ
en k
Ġat Ã¢
Ð¶Ð´ ÐµÐ½Ð¸Ð¹
ĠÐ¸ Ð¼Ñĥ
ĠI tal
Ġned aug
Ġat Å¡
is tai
O C
ĠP il
Ġstri uk
8 2
ĠM in
ĠPar ti
ĠÐ¿Ð¾ ÑģÐºÐ¾Ð»ÑĮÐºÑĥ
Ġpl in
ĠÐ¿Ð¾Ð½ ÑĢÐ°Ð²Ð¸
Ġpar t
ĠÐ½Ð° ÑĤÑĥÑĢÐ°Ð»ÑĮ
ĠV Äĥ
ÑģÐºÐ¸ Ð¼Ð¸
ĠP N
Ġrepe de
Ð¾Ð¿ ÑĢÐ¸
Ġteat ro
Ġparduotu vÄĹje
ĠÐĳ ÐµÐ»
Ġa sp
ĠÑĢÑıÐ´ Ð¾Ð¼
ÐµÐ¼ ÑĭÐ¹
ĠÐ½Ð° ÑĨÐ¸Ð¾Ð½Ð°Ð»ÑĮ
Ġsp ind
Ð´Ð¸ Ð¼
b iau
Ġd rea
Ġultim ii
ĠÐ¿Ð¾Ð²ÐµÑĢÑħ Ð½Ð¾ÑģÑĤÐ¸
ĠÐ³ ÐµÐ½ÐµÑĢÐ°
Ġtranspor t
M ai
Ð¿ Ð¾Ð¼
Ġpasiro dÄĹ
Ð¾ÑģÐ¸ Ð±Ð¸ÑĢ
Ġs tik
ale j
ĠnebÅ« tÅ³
ĠgrÄħ Å¾in
ĠÐ¿ÑĢÐµÐ´ ÑģÑĤÐ°Ð²Ð»ÑıÐµÑĤ
z atÄĥ
ĠÐļ ÑĥÑĢ
ĠÐ¿Ð¾ ÑıÐ²Ð»Ñı
ĠÐ¼Ð° ÑģÑģÐ°
re t
Ġti áº¿
ĠÐ½ ÐµÑĢ
Ñī ÐµÐ¼Ñĥ
Ġfunc ÈĽie
Ġnor int
ĠÄ¯sik Å«r
to log
ĠG ed
res ti
Ġeng le
vy je
Ġleg ii
ĠpaÅ¡ to
ĠÐ´Ð¸Ð·Ð° Ð¹
ÐµÐ´ ÐµÐ½Ð¸Ñı
Ġmeil ÄĹs
Ġfi zice
Ph one
ĠJ onas
ĠT ak
Ġkiekvien o
ĠtÄĹ vai
ÐµÐ½ÑĤÐ¸ Ð»Ñı
Ð¢ Ð°
Ð»Ðµ Ð²
Ġse diul
Ð¢ ÐĲ
G e
Å¡ tas
op Å¡
ĠV el
Ġdaug uma
Ġsuteik ti
ĠÐ²Ñĭ Ð·
á»ĭ ch
Ġcom por
ia mos
ĠÐº Ð¾Ð³Ð¾
ci pl
ĠÐ¸Ð· Ð´ÐµÐ»Ð¸Ñı
ĠÑģÐ²Ð¾Ð¹ ÑģÑĤÐ²Ð°
ĠÐ¼Ð¸Ðº ÑĢÐ¾
ĠÑĦ ÐµÐ´Ðµ
ĠÐ° ÑĢÐµÐ½
Ġcopil ului
ÑīÐ° ÑĤÑĮ
ar gÄĥ
Ġst Ã¡
k ad
ĠÄ¯ var
ĠromÃ¢n Äĥ
ĠÑģÐ¾Ð²ÐµÑĢÑĪÐµÐ½ Ð½Ð¾
ĠÐ³Ð¸ Ð´
en ilor
ĠG ali
n Ä¯
Ġlit Å³
Ġin sp
Ġs ienos
Ð²Ð¸ Ñĩ
Ġn om
Ġsuge b
Ġgalim ybÄĹs
ÐºÐ¾ Ð½Ð°
ĠÑģÐ²Ð¾ ÐµÐ¼
ĠÐºÐ¸ Ð½Ð¾
Ġaps is
ÑģÑĤÑĢÐ° Ð¸
itÄĥÅ£i le
ĠÐ½ÐµÐ¿ Ð¾ÑģÑĢÐµÐ´
ĠGerman ia
ĠÑĤÐ¾ ÑĩÐ½Ð¾
ĠÐ¿Ð¾Ð´ ÐºÐ»Ñİ
gi jÄħ
ĠÑĪ ÑĤÐ°
il iei
ve k
val aik
ĠT am
ru ia
Ġto var
Ð»Ñı ÑİÑĤ
Ġpas ite
Ġdipl om
ni fica
ÑģÐ¼Ð¾ÑĤ ÑĢÑı
Ð² Ð¾Ð¸
ĠÑģÐ¾ÑĤÑĢÑĥÐ´ Ð½Ð¸
ÐµÐ¼ ÑģÑı
Ġale ge
7 00
Ġmo dele
Ġtvar kymo
Ġc it
ĠÐ¾Ð±ÑıÐ·Ð° Ð½
Ñĩ Ð¾Ðº
Ġtr Æ°á»Ŀng
v Äĥr
ĠsÄĹk mingai
ĠdarÅ¾ ov
M ar
Ð·Ð¸ Ð½
Ġob las
Ð»Ð¸ Ð·
Ð½Ñİ Ñİ
Ġne ja
ĠÐ¾ÑĤÐ´ÑĭÑħ Ð°
Ġl aip
ko ra
Ġmin uÄįiÅ³
ty vos
ĠdeÅ¡im t
Ġcom en
s tyti
ĠÑħ Ð²Ð°
Ðŀ Ñģ
Ġcom para
ĠÄĳ i
Ñħ Ðµ
o tas
Ġx u
Ġl Å«
os pod
Ġt ÄĻs
Ġne teis
ĠVokie ti
on y
ĠÑģÑĤÐ° Ð»Ð°
ÐĿ Ð«
Ð² Ð¾Ð´Ð°
Ġvis oje
ĠÐ²Ðµ ÑĩÐµÑĢ
ÑģÑĤÐ°Ð² ÐºÐ°
Ġd re
uk Å³
ĠvÅ¡et ko
Ġpun cte
ĠsÄĥ i
Ġlip sa
Ġpus ÄĹje
áº¥ n
Ġmoky kla
n ut
l om
Ġvei ki
ĠÐ³ÑĢÐ° ÑĦÐ¸
ĠÐ³ Ð»Ñĥ
Ġmokes ÄįiÅ³
Ġprodus ele
pu ta
ĠÑģÐ°Ð¼ Ð¾Ð³Ð¾
Ġparti jos
ĠÐ³ Ð°ÑĢ
met Ä¯
Ġsi gur
Ð½ Ð¾Ð·
Ġpo bÅ«
Ġpro ti
ĠÐºÑĥ Ð´Ð°
aik ÄĹ
Ġas a
i ce
Ġparduotu vÄĹs
Ġsus ÈĽine
Ġpubli ci
á»© ng
Æ¡ i
ÑĢÐµ Ð»
Ġc ale
ti mÅ³
an ÃŃ
tie ji
Ġspor t
Ð½Ð¸ÐºÐ° Ð¼
sk Ã¡
ĠU ng
Ġcom is
ĠÐ¼Ð° ÑģÑģ
Ġl es
Ġlans at
ĠuÅ¾ trauk
Ð± Ð¾Ð²
ĠOn line
ĠÐºÐ½Ð¸ Ð³Ð¸
Ġto to
Ġj Å«ros
ĠÑģÑĦ ÐµÑĢÐµ
ti ks
ĠÐº Ð¾Ð¿Ð¸
ĠÐ§ ÑĤÐ¾Ð±Ñĭ
Ġproces ul
ĠÐľÐ¸ Ð½Ð¸
ĠÐ´Ð²Ðµ ÑĢÐ¸
ĠTies a
Ġlig os
Ġskai Äįi
ĠÐ·Ð° ÑĢÐµÐ³Ð¸ÑģÑĤÑĢÐ¸
o pera
ti ma
c as
ĠM ac
ÑĤÐ¸ Ð²Ð°
14 0
ĠÑĥÐ´Ð¾Ð² Ð¾Ð»ÑĮ
ĠÑĤÐ° ÐºÐ°Ñı
ÑĤÐ¸ ÐµÐ¼
Å£i le
áº« n
Ä Ĳ
Ġpotre b
Ġmok iniai
ĠC ite
Ġpro pa
Ġlau ko
ĠÅŁti u
Ġ ;
ĠT Ã¢r
Ġdaug elis
Ġk iauÅ¡
Ġin gre
Ġd ydÄ¯
ĠÐ´Ð²Ð¸ Ð¶ÐµÐ½Ð¸Ñı
ta rii
Ġm Å«
Ġz ariad
Ġo t
Ġsta b
Ġtehn olog
Ġm asa
Ġpa tar
Ġtik rÄħ
Ġger Äħ
ĠÑģÐµ Ð»ÑĮ
Ð°Ð»ÑĮ Ð½ÑĭÐ¹
w are
ĠÑĤÐµÑħÐ½Ð¾Ð»Ð¾Ð³Ð¸ Ð¸
ĠÐ¿ÑĢ Ð¾Ð¶Ð¸
ĠÐºÐ¾Ð½ ÑĤÐ°
i Å¥
Ã¡ cii
ost ul
Ġsus Å£ine
ĠapÄĥ rut
ĠC ele
Ġpers ona
Ġtrans mite
Ġro k
Ġtarp us
Ġn Ãªn
ĠÑĢÐµÐºÐ»Ð° Ð¼
Ñħ Ð°Ð½
ĠÐ¿Ð¾ ÑĤÐµ
ĠÑĢÐµ ÑĨÐµÐ¿
Ġpag ina
es u
Ñĥ Ð³
Ġrie bal
Ġk ho
s pec
raÅ¡ ÄĹ
ÑĪ Ð½Ð¸Ð¹
in yje
ve den
Ġnuo trau
ĠÑĤÐµ Ð»Ð°
Ñĥ ÑģÑĤÐ¸
ÑģÑĤÐ¾Ð¹ ÑĩÐ¸
S k
ĠÐ¶ÐµÐ½ÑīÐ¸ Ð½
V iln
Ġsav imi
Ġdra ma
áº£ ng
f ul
Ġ omen
pl us
Ġo da
ĠU ten
Ġta Å¡kÅ³
ĠJ Å³
Ġmi Å¡
Ġar tis
A d
ĠÑģ Ð½Ð¾Ð²Ð°
ĠÑĪÐºÐ¾Ð» Ñĭ
Ġper fec
ĠÐºÐ¾ÑĢ Ð¾ÑĤ
Ð¶ ÐºÐ°
ĠÐ´Ð¾Ð± Ð°Ð²
ÑīÐ¸ Ðº
Ġprek es
Ġrez isten
ĠR aud
Ġf rec
Å¾ uo
ĠÐ± Ð¾Ðµ
Ġgra tuit
Å¾ inti
to u
ming as
Ġpinig us
Ġtink amai
ĠM oni
ĠK omis
Ġper fect
Ġs á»Ń
ĠÐ¶Ðµ Ð»ÐµÐ·
ĠÐ²Ð°Ð¶ Ð½Ð¾
Ġsp Ã´sob
ĠÐ´ Ð¾Ðº
al Äħ
Ġpri etais
Ġl unÄĥ
ÈĽion at
Ġre li
Ġdetal ii
ĠK ini
r alÄĥ
ĠVilkaviÅ¡k io
ĠÑĢÐµÐºÐ¾Ð¼ÐµÐ½ Ð´Ñĥ
Ġst ran
ci lor
Ġpri ÄĹm
Ġur gen
ĠÐ²Ðµ Ð´Ñĥ
ĠtÄĹ vÅ³
ĠD av
ra r
ÑĤÐ¸ Ð½Ð°
ÐµÐ½ Ð½Ð°Ñı
ĠS tra
ĠÐ²Ð· Ñı
Ð¼Ñĥ Ð¼
e zi
Ļ Ĥ
ĠÑĥ ÑĤ
ĠÐ¸ÑģÑģÐ»ÐµÐ´ Ð¾Ð²Ð°Ð½Ð¸Ñı
ĠV in
ro z
ĠZ a
ĠS to
194 8
Ġs Ã®nt
ĠÃ®n tor
Ġindivid u
Ġcl ub
ĠU kmerg
Ġaceste ia
Ð¸ Ð»ÑĮ
ĠÐ½Ðµ Ð´Ð°
ĠÐ¿ÑĢÐµÐºÑĢÐ° Ñģ
tik Äħ
ĠÐ´Ð°Ð½ Ð½Ð¾Ð¹
ĠÑĩÐ¸ ÑģÑĤ
Ġdol ari
Ġno ua
a Å£i
ĠE sti
Ð´ Ð½ÐµÐ²
Ġcon dam
Ġpask ui
Ð¿ÐµÑĢ Ð²ÑĭÐµ
ĠÐ²Ð¾Ð¹ Ð½Ñĭ
ĠÐ² Ð°Ð½
Ð¼Ð¾ÑĤ ÑĢÐµÐ½
al ii
Å« ksta
mus e
Ġpirminink as
ÑĤÐµÐ»ÑĮ Ð½Ð¾ÑģÑĤÐ¸
Ġcomp on
ÑĤ Ð½Ð¾Ð¹
ÑģÑĤ ÐµÐ¼Ñĥ
ĠÐ¼ÐµÑģÑı ÑĨ
Ðº Ð»Ð¸
ĠrÃ¢nd ul
Ġg rij
Ġcli en
Ġjo i
ĠÑģÐµ ÑĢÐ¸Ð¸
Ġsu im
Ġsvarb us
ĠH e
ar tea
ÑĥÑİÑīÐ¸ Ðµ
ĠÐ¼Ð°Ð³Ð°Ð·Ð¸ Ð½
Ġsim il
Ġta ble
Ġp vz
ĠÐ¸Ð¼ ÐµÐ½Ð¸
Ġpat inka
Ġaf arÄĥ
Ġv ok
gi asi
d are
Ð¢ Ðķ
ĠÐ½Ð¸ Ð¼Ð¸
Ġga vo
Ġcon cer
ĠÐ½Ð° ÑģÑĤÑĢÐ¾
ĠÐ¤ Ð¾ÑĢ
ĠÑģÐ¾ ÑģÑĤÐ°Ð²Ð¸
T re
ĠC are
Ġde le
Ġta tÄĥ
ĠÐŁ Ð¾Ñĩ
Ġdesi gn
Ġsta tul
ĠA rad
Ġes ant
Ġreikalav imus
Ġsus is
Ġil ga
ĠkaÅ¾ kÄħ
Ġnustaty ta
t virtin
Ġthe o
Å¾ dy
bi Å¥
ĠÑģÐ¸ Ð»ÑĮÐ½Ð¾
Ġcaz uri
ĠÐ¿Ð¾ÑĢÑıÐ´ ÐºÐµ
ĠÐ´Ðµ ÑĪÐµ
w e
Ð½Ð¾ÑģÑĤ ÑĢÐ°Ð½
ĠÐĳ Ðµ
ĠÐ¼Ð½Ð¾Ð¶Ðµ ÑģÑĤÐ²Ð¾
Ġap raÅ¡y
Ġt ul
Ġnaudo jamas
ĠÐ°Ð³ ÐµÐ½ÑĤ
id ab
Ġmar Å¡
de li
ĠÐĲ Ð»ÐµÐº
Ġdru h
ĠD ob
O D
ĠÑģÐ¾ ÑĩÐµÑĤÐ°
Ġbene fici
Ġvy h
Ġnor ÄĹ
to no
ÑĤÐ¾ÑĢ Ð¾Ð¼
ĠÐ½ÐµÐºÐ¾ÑĤÐ¾ÑĢ ÑĭÑħ
ĠNa Å£ional
Ġpo ils
ĠÐ² Ð¿Ð¾Ð»Ð½Ðµ
ĠÑĨÐ¸ ÑĦ
ĠÐ°Ð²Ð³Ñĥ ÑģÑĤÐ°
Ġp aukÅ¡
re lor
ĠÐºÐ»Ð¸ ÐµÐ½ÑĤÐ¾Ð²
ĠÐ¿Ð¾Ð´Ð´ÐµÑĢ Ð¶Ð¸
Ġaf ara
Ġde mokra
9 4
ĠÃ®ntre bÄĥ
tru kt
Ġau ten
Ġcres cut
k el
Ġc Æ¡
Ġantre n
Æ° a
Ġsaul ÄĹs
ĠÐ¿Ð°ÑĢÐ° Ð¼ÐµÑĤ
ĠkrikÅ¡ Äįi
Ð²Ð¸Ð´ÐµÑĤÐµ Ð»ÑĮ
ĠÐ²Ð¾Ðº ÑĢÑĥÐ³
Ġk ni
Ġg o
tiv ul
ĠÃ®n fiin
ÑĨ Ð²ÐµÑĤ
ĠÃ®nto tdeauna
ĠÐ´Ð¾ÐºÑĥ Ð¼ÐµÐ½ÑĤÐ¾Ð²
Ġb od
Ã¡ Å¾
Ġasmen ys
li an
E X
ĠÑģÐ»ÑĥÑĩÐ° ÑıÑħ
ĠÐ¾Ð± Ñģ
be z
in ami
Ġta utin
ĠJ on
ĠÑĢ Ð¾Ð¶Ð´ÐµÐ½Ð¸Ñı
ĠConstan tin
Ġau d
co u
Ġthá» Ŀi
r ÄĹs
ĠRom an
Ġfran ce
il al
ÐºÐ¾Ð² ÑĭÐµ
ĠÐ¼ Ð¾Ð½ÑĤÐ°
ĠÐ¿ÑĢÐ¾Ð² Ð¾Ð´
Ġm Ã¬nh
Ġnak tÄ¯
Äįi oms
H o
Ð½Ð¸ ÐºÐµ
ÑĨÐ° Ð¼Ð¸
Ð¶Ð° Ð¹
re z
Ġti l
Ġes an
Ġse g
Ġfrumo ase
Ġbu cÄĥ
Ġm ers
Ġtran sp
Ġi ba
m ien
Ġpo tom
Äį ne
z nÃ¡
ĠiÅ¡s aug
ap tea
Ġproble mÄĥ
Ã´ n
ĠÐ´Ð° ÐµÑĤ
Ġmin un
ran ki
Å¡k e
Ġpute rea
ra v
Ġpoli tikos
vie timo
Ġni ÅŁte
ĠprieÅ¾as ÄįiÅ³
Ġe ÈĻti
ĠPÄĥ rin
ĠAn t
ÈĻ tin
Ġdir bo
áº¯ t
ĠÐ¿ÑĢÐ¸ Ð²Ð»ÐµÐºÐ°
ĠÐ¿ÑĢÐ¾Ð¼ ÑĭÑĪÐ»ÐµÐ½
Ġnici o
Ġk lin
Ġklu bo
Ġan trÄħ
ĠÐ±ÐµÑĢÐµ Ð¼ÐµÐ½
Å«ro je
Ġpre ÈĽ
T V
Ġr áº¥t
o ase
id er
Ġcre at
en ÃŃm
ĠÅ¾urn alis
s Å¥
n ui
an Ã©
t ÄĻs
Ġperi od
ĠaukÅ¡ Äįia
ĠÐ¼Ð¾Ð´Ðµ Ð»ÑĮ
ĠÐ¿Ð° ÑĨÐ¸
ov ali
ĠÑĢÑĥÐºÐ¾Ð² Ð¾Ð´
ĠÑĢÐ°Ñģ ÑħÐ¾Ð´
Å«ri mo
ĠnÄĥs cut
ÑĢÐµ ÑģÑģ
Ð¼Ð¾ÑĤ ÑĢ
f al
Ġfen omen
9 7
Ġ Å£in
ÐĴ Ð¾
ĠÅ¾ vil
ĠdaÅ¾n iau
Ð¼Ð¸Ð½Ð¸ ÑģÑĤÑĢÐ°ÑĨÐ¸Ð¸
Ġnam ai
ri d
Ġd rus
Ñī ÐµÐ½Ñĭ
ĠÑĥÑģÑĤÑĢÐ¾Ð¹ ÑģÑĤÐ²Ð°
ĠÑĢÐµ ÑģÐ¿
sk Ã½ch
Ġvei do
Ġme ta
Ġruo Å¡
Ġnegal ima
ĠÐĲÐ² ÑĤÐ¾
ar ce
Ġdaug ia
ĠÐ¾ ÑħÑĢÐ°
Ġnie Äįo
us Äĥ
Ġmas aÅ¾
vo u
ĠK ol
Ġpir kti
Ġkov os
ĠÑĥ ÑģÐ¸Ð»Ð¸
Ġpasik ei
ĠÐ¸Ð½ÑĤÐµ ÑĢÐµ
ĠÐºÐ»Ð¸ ÐµÐ½ÑĤÐ°
ĠÐ±Ð¾Ð»ÑĮÑĪ Ð¾Ðµ
ĠÐ²Ð¸ Ð´Ð¾Ð²
ĠÐ½Ð°Ð»Ð¸ÑĩÐ¸ Ð¸
Ð½ Ð´
kas i
Ġpoli tice
or ld
Ġf run
Ġg esti
Ġpri v
Ġexis ta
d at
ĠÑģÑĤÑĢÐ° Ð½Ðµ
Ñĩ ÐµÐ½Ð¸Ð¹
Ġk ak
ĠÐ¿ÑĢÐ¸Ð¼ÐµÐ½ ÐµÐ½Ð¸Ñı
ks im
ĠbÅ« rio
ĠÑĢÐ°Ð±Ð¾ÑĩÐ¸ Ñħ
ĠÄ¯stai gÅ³
ar u
ai tÄĹ
Ġdru mul
ĠLietu vai
ĠÐ¾ÑĤ Ð¿ÑĢÐ°Ð²Ð¸
Ġky la
Ġla bora
Ġaktyv iai
ĠÄ¯g Å«
Ġsc rii
ĠGe orge
ĠÑĨÐµÐ»ÑĮ Ñİ
Ġfa ra
ÄĹ ra
ĠL ai
ĠÐºÐ¾ÑĢ ÑĢÐµ
ĠÑĥÑĢÐ¾Ð² Ð½Ðµ
d erÄĥ
ĠPor no
ch y
ÃŃ te
Ġin ova
Ġpar cursul
re di
Ġpo Äį
h icul
Ġat Å¾
á»¥ c
ĠÐ´ÐµÐ»Ð° ÐµÑĤ
ri ais
Ġace le
Ġistori a
ĠÐ¢ ÐµÐ¼
ĠÅ¡ kol
ĠÐ·Ð° ÑģÐµÐ´Ð°
ro je
á»ĳ t
ÑģÑĤÐ¸ ÑĤÑĥ
ÃŃ ma
Ġnuo taik
K on
Ġb ak
23 8
ĠConsili ul
Ġpra cov
b io
ĠÐ´ ÑĢÐµÐ²
Ðŀ Ð´
z y
ĠÑĩÐ° ÑīÐµ
Ð»ÐµÐ½ Ð½ÑĭÐ¹
Ġmateri ale
ĠÐĸ Ð¸
Ġve ÈĽi
D o
ĠÅ¡ au
ĠÐ¼ÐµÐ½ ÐµÐ´Ð¶
Ġvre au
Ġten is
D i
ĠH ol
Ġpen si
Ġat sa
-------- --------
tr Å³
Ġpasta ty
Ġpa aug
Ġe las
A ce
re ve
ÈĽ it
sk is
ĠÐ¾Ð± Ð½Ð¾Ð²
ÐĽ Ðĺ
Ġprasid ÄĹjo
ĠÐ¿ÑĢÐµÐ´Ð»Ð¾Ð¶ ÐµÐ½Ð¸Ñı
ap tÄĥ
Ġindi ferent
ĠÄĳá»ĵ ng
ĠÐ° Ð¿ÑĢÐµ
Ġi dei
Ġvaik ui
Ġskirting Å³
ĠÐºÑĥÐ»ÑĮ ÑĤÑĥÑĢÑĭ
ter na
ĠÐ¼Ð° Ñı
uojam os
gi ce
ĠÐ¸ÑģÐ¿Ð¾Ð»ÑĮÐ·Ð¾Ð²Ð° Ð½Ð¸Ðµ
ĠmÄĹnes io
Ġg an
Ġb liz
Ġatsi randa
ĠðŁ ĻĤ
Ġseni Å«ni
Ð±Ðµ Ð»Ð¸
ĠÑģÐµÐ½ÑĤ ÑıÐ±ÑĢÑı
ĠÐ»ÑİÐ±Ð¸ Ð¼
ĠK an
Ġspecta col
Ġpa ka
ĠÄį ÃŃ
de rii
ap Äĥ
val g
ĠUni versitatea
Ð¶ Ð½Ð¾Ð³Ð¾
Ġpara mos
A P
ĠÐ²Ð¾Ð·ÑĢÐ° ÑģÑĤÐ°
r yb
Ġ ÈĽi
men tele
tel ÄĻ
ic al
ĠÑģÑĤ Ð¾Ð»Ð¸
ĠÐĿ ÐĲ
Ġinten s
Ġmoter ys
ÑģÑĤ Ñı
9 3
Ġsvarb iausia
uojam e
ĠSf in
Ġkuri ais
deÅ¡im t
ÑĢÐ°Ð»ÑĮ Ð½Ð¾Ð³Ð¾
Ġkre di
Ġsk an
Ġs lo
vin iÅ³
raÅ¡ yti
Ġv ÃŃ
ĠtikrÅ³ jÅ³
ĠÐ¸Ð· Ð´ÐµÐ»Ð¸
Ġc Ã²n
Ġpr ale
li b
ĠneÅ¾ ino
Ġpavy z
ĠromÃ¢n esc
Ã® r
ĠÑģÐµÐ· Ð¾Ð½
ang h
Ð³ Ð¾Ð½
uk us
fic at
ĠF C
ĠÐ½Ðµ Ñĥ
ĠÐ¼Ñĭ ÑĪ
Ð¶ Ð½Ð°Ñı
Ġar ticole
Ġal tor
9 00
ĠiÅ¡ vad
Ġd á»±
ĠSe c
Ġs iu
ĠÐ³Ð»Ð° Ð·
ĠÑĤÑĥÑĢ Ð½Ð¸
ĠDaug iau
ĠPalai dinÄĹs
Ġistori e
ÑĤÐ° Ð»ÑĮ
en os
Ġfinan ciare
oni jos
Ġg il
P oli
E u
ĠÑģÐ»Ð¸ ÑĪÐºÐ¾Ð¼
ĠÑģÐ¾ÑģÑĤÐ¾Ñı Ð½Ð¸Ð¸
ĠÐ³Ð¾Ð² Ð¾ÑĢ
ĠÑĦ Ð°Ðº
Ġnep am
ia usiÄħ
Ġa bi
ĠÐĵ Ð¾ÑĢ
ame ra
k Ã½m
Ġdaly kÅ³
Ġno ul
ani jos
Ð¾ ÑĦ
Ġkam uo
ho w
enta ms
ĠiÅ¡k il
ĠÐ¾ ÑĨÐµÐ½Ð¸
ra ms
ĠÐ² ÑħÐ¾Ð´
ĠÐº ÑĢÐ¾Ð¼Ðµ
Ġl ib
ĠÐ¿ÑĢÐµÐ´ Ð²Ð°ÑĢÐ¸
ĠÑĢÐµÐ³Ð¸ Ð¾Ð½Ð°
Ġmir ties
Ġs inh
vin ti
Ðŀ Ðł
Ġri bo
ĠAnd rei
Ð» Ð¾Ð±
Ġkreip tis
Ġi eri
ÑĪÐµ Ð´
Ġdal ys
Ġl ista
ĠP ov
Ġstr Ã¢n
s im
ĠÐ² Ð¸Ð·
M I
Ġs erg
Ġli ce
Ġdeven i
ĠÅ¾ia d
ĠAmeri kos
ent us
Ġgre it
din o
ĠL t
ĠÐĴ ÐµÑĢ
ĠÄ¯mon ÄĹ
ai tis
ĠÐ´ Ð»Ð¸Ð½
ĠÐ¿ÑĢ Ð¾ÑĤÑı
Ð°Ð½ ÑĤÐ°
ĠÐ¼ ÑĥÐ»ÑĮ
Ð½ ÐµÐ½Ð¸Ñİ
Ð½Ð¸ Ð±ÑĥÐ´ÑĮ
ta bil
Ġmiliar de
Ġdid elÄĹ
ÈĽe an
Ġstil iaus
Ġmodific area
Ġper skai
Ġkod as
Ġpui kus
ĠAlexand ru
Ġpareig as
Ġres toran
tive le
ĠA L
ĠÑģÐ¸ ÑģÑĤÐµÐ¼Ñĥ
Ð± Ð¾Ð¼
ÐµÐ¼ Ð¾Ð³Ð¾
ĠÑħÐ¾Ð» Ð¾Ð´
ĠÑģÑĤÐ° ÑĤÑĥ
ĠprevÄĥ zute
ĠD anie
ÑĢÐ° ÑĤÐ¸
min ÄĹs
Ð¾Ð¶Ð´ ÐµÐ½Ð¸Ðµ
Ġsk au
ĠÃ®mb rÄĥ
Ġris c
gim naz
em i
l yti
Ġei ti
8 1
ĠpreÅŁedin tele
ÑĦÐµÑĢ ÐµÐ½
tÅ³ jÅ³
Ġvis uomet
ĠRomÃ¢n e
ĠÑģÐ¾Ð´ÐµÑĢ Ð¶Ð¸ÑĤ
Ġslov ensk
Ġk le
Ð»Ð¸ Ð¼
s pe
todo x
K ad
Ġth Ã´ng
toj u
Ð¾Ð² ÑĭÐ¹
sta t
? !
Ġpos ÄĹ
Ġado lesc
ĠiÅ¡ li
Ġpavad inimas
1 30
ÑĢÐ¸ ÑĨÐ°
ĠÐ¨ Ð¸
c inÄĹ
Ġsusi tari
ĠS ud
p an
ĠG rup
Ġnaudo jami
Ġsav ÄĻs
T au
Ð±Ð¸ Ð½Ð°
Ġilg iau
ĠÅ¡vent ÄĹ
Ġpaten k
ĠÐ¿ Ð»Ð¾ÑĤ
ĠvÅ¡et kÃ½ch
ĠS C
ĠÑģÑĤÑĢÐ¾Ð¸ ÑĤÐµÐ»ÑĮÑģÑĤÐ²Ð°
ĠÑģÑĤÐ°ÑĤÑĮ Ð¸
M ok
ÑģÐ¿ Ð¾ÑĢÑĤ
Ġj urn
Å¡ ÃŃm
ĠÐ¾ÐºÑĢÑĥ Ð¶Ð°
men ys
ĠÑģÐµ ÑĢÐ¸
ĠÐ´Ð° Ð»ÐµÐµ
ĠÐĽ Ñĥ
Ġap lan
ĠÐ¼Ð° Ð»Ñĭ
ĠAc adem
Ġpro curo
ÈĻ tri
ĠÐ¾Ð± ÑģÑĥ
ÈĻi i
Ġvy Å¡
Ġune ori
Ġsun te
ĠÅ¾mo gÅ³
leid o
Ġgimnaz ijos
Ġb el
da ri
ÄĹj Äħ
Ġop timi
S Äĥ
ÑĢ Ð´
Ġsup or
EN T
ĠÑģÐ¾Ð² Ð¼ÐµÑģÑĤ
ÑĤ ÐºÐ°
Ġb ui
ĠÐ¸Ð½ Ð²ÐµÑģÑĤÐ¸
Ġse arÄĥ
ĠÅ¡ tai
Ġnu trauk
ĠMari a
Ġmate ma
Ġg ul
Ġp ip
Ġv rÃ¡
Ġz iln
Ñħ Ð¾Ð¼
Ġkar al
Ġth áº¿
Ñģ Ð¼
ĠuÅŁ or
Ġjed noduch
Ġro lul
ĠÐ¿ÑĢÐµÐ´Ð¿ÑĢÐ¸Ñı ÑĤÐ¸Ñı
Å¾ inÄĹ
Ġkalb ÄĹti
ĠF i
m il
ĠÐĶ Ð°Ð½
on ului
ĠÅłia urÄĹs
B A
di ci
ÐµÑĤÐµ ÑģÑĮ
ÑĪÐ° ÐµÑĤÑģÑı
Ġsem nifica
ÑĩÐ¸ ÐºÐ°
ĠÐŃ Ðº
ko ch
ĠÐ»ÑİÐ± Ð¾Ð³Ð¾
ÈĽi unea
ĠN ici
ĠÐ¼Ð° Ð»ÑĮ
ĠÑĢ Ð¾Ð»ÑĮ
Ġreda k
lÄĹ p
ĠÅŁ ef
Ġcer ut
Ġprogra mul
Ġgr ÄĹs
Å¡ u
Ġapib Å«
Ġjude ÈĽul
ĠÐ¸ Ð´ÐµÑĤ
Ð¾Ð¼ Ð°Ð½
Ġechip Äĥ
Ñĩ ÑĤÐ¾
Ġm iercuri
Ġinstru ment
Ġknyg Äħ
Ġver tÄĹ
194 9
Ġin ven
or as
ti la
ti u
Ġproble mas
ĠÅ ¢
Ġkom peten
Ðº ÑĥÑİ
co re
Ġan ali
ĠH ar
ÐĴ Ð°
Ġfie cÄĥ
yn as
ĠÐ¡Ðµ Ð²ÐµÑĢ
ĠS ig
Ġbuv au
ĠÐ° Ñį
z in
Ġbu ge
s tup
ĠK el
ĠÑĥ Ð¶
ĠÐ¿ÑĢÐµÐ´ ÑģÑĤÐ°Ð²
Ð¾Ñĩ Ð½ÑĭÐ¹
Ġpir masis
Ð»ÑĥÐ¹ ÑģÑĤÐ°
Ð¾ÑģÑģÐ¸ Ð¹
Ġdiza ino
ĠÑĤÐµ Ð¾ÑĢÐ¸
Ð²Ðµ Ð»Ð¸
ĠB ro
yg ar
Ð¡ Ð¸
Ġambas ad
Ġtele viz
ĠÐĳ ÐµÐ·
ĠÐºÐ°ÑĢ ÑĤÑĭ
ĠÐºÐ¾Ð¼Ð¿ÑĮÑİ ÑĤÐµÑĢ
Ġpres up
Ġger b
Ġin de
ĠÐºÐ°Ð¶Ð´ Ð¾Ð¹
ĠÐºÐ° Ð¼ÐµÑĢ
Ð°ÑĢ ÑĮ
inink ams
ĠÃİn sÄĥ
ĠÐ´Ðµ Ð¿ÑĥÑĤÐ°
on io
Ġfor me
ĠN U
Ð³ÑĢÐ° ÑĤÑĮ
Å¾y mi
Ġaju tor
ĠRe ad
uo jasi
Ġgalim ybiÅ³
ĠS c
Ġmedic inos
Ġnum it
B et
ting ai
ĠKar al
riaus iai
Ġna Å£ional
one ze
ĠÐ¾Ð´ Ð½Ð¾Ð²
Ġe tn
ĠÐ¼ÐµÑĢÐ¾Ð¿ÑĢÐ¸Ñı ÑĤÐ¸Ñı
Ð¸ ÑģÐ¿
ĠR Å«
ĠK ris
ĠÐ²Ð·Ð°Ð¸Ð¼ Ð¾Ð´ÐµÐ¹
ĠRepubli cii
Ġpa voj
Ġma Å¥
ĠmÃ´ Å¾u
Ġch esti
ĠÑįÐºÑģÐ¿Ð»ÑĥÐ° ÑĤÐ°ÑĨÐ¸Ð¸
ĠÑĨÐµÐ½ÑĤ ÑĢ
po li
ĠcumpÄĥ rÄĥ
Ġpak uo
Ġaf i
Ġthá» ±c
Ġte da
Ġs tate
Ġspe kta
ĠÐĹ ÐµÐ¼
Ñģ ÐµÐ½
ĠÐ´ Ñĭ
ĠÐ½Ð°ÑĩÐ° Ð»Ðµ
un eri
ĠÐ³Ð¸ Ð¿
ĠV ik
Ð¾Ð½ Ð´
P ui
Ġp ÄĹs
Ġdid Å¾iaus
Ġat lieka
eli ui
Ġch u
ĠÐ¿ÑĢÐ¾ ÑĤÐµ
ĠSp al
Ġridic at
Ñĥ Ð²
K aun
ÑĤÐ¸Ð² Ð½Ð¾
ĠÐ²Ð¾Ñģ Ð¿Ð¸ÑĤÐ°
Ġsf in
Æ°á» Ł
ĠsfÃ¢r ÈĻit
ĠÐ¦ Ð²ÐµÑĤ
Ġpen s
ĠÐ½Ðµ Ð¸Ð·
Ġpavad in
Ð´ÐµÐ¼ Ð¸
ÅŁ ul
riaus iÅ³
Ġl ÄĹk
ĠÅ½in oma
ĠD NA
Ġc Ã¡ch
Ġsprend imus
Ġteis ÄĹ
Ġtra g
ĠÐ³ÑĢ Ð½
nej Å¡ie
ĠÑĦ ÐµÐ²
ĠuÅ¾ sis
Ð²Ð¾ ÑĢÐµ
ÑĢÐµÐ¼ Ñı
tu mÄħ
ĠÅ¡vent ÄĹs
Ġporeik ius
ĠGal ima
Ġtiks l
Ġspeci fice
Ġkok ie
ĠÐ¿Ð° Ð½Ðµ
ÑĦÐ¸ Ð»ÑĮ
F i
d ui
tu vÄĹs
ĠÐ· ÑĥÐ±
Äį ov
Ġtri mite
ĠÐ´Ð²Ð¸Ð³Ð° ÑĤÐµÐ»Ñı
ĠÐ²Ðµ ÐºÐ°
ÅĪ uje
ĠÐ·Ð° Ð¼ÐµÑĩÐ°
Ġanun Å£at
Ð¾Ð³ÑĢÐ° Ð´
Ġpor n
Ġperson ale
Ġh ar
tele s
ie ri
Ġnus p
Ġdaug iausia
Ġte me
ĠAce astÄĥ
Ġs iau
ing us
Å£ion at
ÑĤÐ¸ ÑĢÐ¾Ð²Ð°
Ð½Ð¸ Ð»Ð¸
á»ĳ n
Ä¾ vek
od ami
Ġveiks mÅ³
nÃŃ ct
Ġlung ul
ĠÑģÐ°Ð¼Ð¾ÑģÑĤÐ¾Ñı ÑĤÐµÐ»ÑĮÐ½Ð¾
Ġ ..
ÑĤÑĭ Ð¼
k an
ĠÐ²ÐµÑģÑĮ Ð¼Ð°
ĠÑģÐ¿ Ð¾ÑĢÑĤ
ĠÑħ Ð¾ÑĤÐ¸ÑĤÐµ
Ð¿ Ð¾ÑĢÐ°
ĠÑĤÐ¾Ð²Ð° ÑĢÑĭ
ok iÅ³
ĠÐ½Ð¾Ð² Ð¾Ð¹
ĠÄ¯gyvendin ti
Ġanks to
Ġbu get
ĠÐ½ÐµÐ´Ðµ Ð»Ñİ
ĠGhe orghe
ĠÐ¿Ð¾Ñģ Ð¼Ð¾ÑĤÑĢÐµÑĤÑĮ
v are
ĠÐ° ÐºÑĤÑĥ
ologi ce
Ġmoky klÄħ
Ġsp ital
ĠC ine
Ð¾Ñĩ Ð½ÑĭÑħ
ĠÐ´Ð°Ð½ Ð½ÑĭÐ¼
ĠVas ile
ĠmarÅ¡ ru
ĠÐ´Ð¸ Ð°Ð¼ÐµÑĤ
ÑĢÐ°Ð»ÑĮ Ð½Ð¾Ð¹
Ġpor tal
ĠÐ½ Ð¾Ð³
Ġace ÅŁti
om Å³
Ð¾Ñĩ ÑĮ
ĠÐ·Ð½Ð° Ñİ
Ġtyri mo
ĠÐ¾ÑģÑĥÑīÐµÑģÑĤÐ² Ð»ÑıÐµÑĤÑģÑı
Ġnaudo jant
ĠE duca
ÑģÑĤÐ¸ ÐºÐ°
ĠiÅ¡g ir
Ġde g
ĠÐ¼Ð°ÑĪÐ¸ Ð½
eng ti
Ð³ ÐµÑĤÐ¸
j onas
ĠÑģ Ð°Ð½
Ġkuri am
ke ting
Ð¸ Ð¿
Ġsuaug us
Ġtrup utÄ¯
ĠÑĥÑĩÐ°ÑģÑĤ Ð½Ð¸ÐºÐ¾Ð²
er os
ti za
Ġkh Ã¡ch
ĠdÅ¾iau g
ĠmÄĥs uri
ĠÑĥÐ·Ð½Ð° ÑĤÑĮ
ĠÐŁ Ð¾Ð»Ð¸
Ð° ÑĤÐ¸
Ġsu te
Ġoferi t
Ġaki vaiz
ai a
Ġministeri ja
Ġdep arta
Ġpra dÅ¾ios
Ġom ului
8 3
ar ba
ÑĪ ÐµÐ½Ð¸ÐµÐ¼
Ġpavas ar
Ġdaly viÅ³
so li
ĠÑģÐ°Ð¼ Ð¾Ð¹
ĠÑĤÑĭ Ñģ
aus kas
ĠÐ°Ð²ÑĤÐ¾Ð¼Ð¾Ð±Ð¸ Ð»ÐµÐ¹
ĠÐŃ ÑĤÐ¾ÑĤ
Ġdep las
ams ung
Ġvai zd
Ġpie Å¡
ĠÐ¼Ð°ÑĪÐ¸ Ð½Ñĭ
Ġsun kiai
ĠÐł ÑĥÑģ
Ġgal utin
Ð½Ðµ ÑĨ
Ð°Ð»ÑĮ Ð½ÑĭÑħ
Ġe ki
O K
Ð»Ðµ ÐºÐ¾
ĠsÄĥptÄĥmÃ¢n Äĥ
ni te
Ġmed iul
Ġiz ol
uo tÄħ
ĠÐ¿Ñĥ ÑĤÐ¸
Ġdragos te
Ġsp ren
ÐºÑĤ ÑĥÑĢ
vo ren
be jo
ĠÑĥÑĩÑĢÐµ Ð¶Ð´ÐµÐ½Ð¸Ñı
Ġve zi
Ġv ig
Ġfa cut
Ġcul oare
ĠÐµÐ² ÑĢÐ¾
m ate
ĠU l
ĠNor ve
g ub
ĠB ui
ĠK ita
Ġpartizan as
ĠÐ¢ Ð¾Ð»ÑĮÐºÐ¾
Ġes ate
Ð½Ð¾ Ñģ
ĠÐ¾ÑĢÐ³Ð° Ð½Ð¾Ð²
ĠÐº Ð»Ñĥ
ÑĤ Ð½ÑĭÑħ
toj ais
L i
M Å«sÅ³
ĠVien as
Ġregis truo
b erg
bu d
ĠG abri
Ġv Ã¡s
zn am
ĠvÃ½ rob
Ġob chod
te re
ĠÐ» Ñĥ
ĠsÄĥptÄĥmÃ¢n i
Po trivit
ÐĲ ÐĹ
Ġrez id
ĠÐ¼ Ð³
ĠMan o
t men
Ġthá» ©
Ġinforma Å£ii
ĠC asa
Ġto hto
Ġameri can
ĠiÅ¡ven gti
Ġrekl am
ĠT im
g ali
ĠÃ®nd rÄĥ
Ð¾Ð½Ðµ ÑĩÐ½Ð¾
ĠmoÅ¾ nÃ©
Ġor as
ĠÐ¿Ð¾Ð² ÑĤÐ¾ÑĢ
ĠÐ¿Ðµ Ð´Ð°Ð³
ĠÐ¸ Ð½Ð¾ÑģÑĤÑĢÐ°Ð½
x x
ĠÐ¡ Ð¿Ð°
ĠN oi
Ġde kora
ver sti
Ġstrate g
im osi
Ġ Å£i
Ġsava ranki
Ð´ Ñı
Ġkele i
ĠAnd roid
ĠÃ®n so
ÑĩÐ° ÑģÑĤÐ¸
Æ°á»Ł ng
Ġpo kalb
ĠÑģÐ¾Ð¾ÑĤÐ²ÐµÑĤ ÑģÑĤÐ²ÑĥÑİÑīÐ¸
ĠPas ak
ÈĽi le
ĠÐ¾Ð¿ ÑĥÐ±Ð»Ð¸
dy tÅ³
S p
Å¾ er
ĠÐļ Ð°Ð¼
Ġban ko
3 70
ĠÑĢÐµÐ³Ñĥ Ð»ÑıÑĢ
ĠÐ¾ÑĢÐ³Ð°Ð½Ð¸Ð· Ð¼Ð°
Ð»Ð° Ð²Ð°
ĠÑı Ð²
nÄĥ sti
ĠAt unci
cÄĥ m
Ġb ile
ĠS ub
ĠaukÅ¡ tos
ĠsusipaÅ¾ inti
ĠÄ¯vertin ti
b ÄĹg
Ġfi li
Ġap ygar
Ġdi vizi
Ġd uminicÄĥ
ĠK laus
ĠpÄĥ re
Ġconsi derÄĥ
ÑĦÐ¸ÑĨÐ¸ ÑĢÐ¾Ð²Ð°Ð½
ÐµÐ½ Ð½Ð¾Ðµ
Ġpat rauk
dÅ¾ iau
Ð²ÐµÑĢ ÑĮ
M inis
sÄĥ ri
Ġpo Å£i
ĠC au
Ġconta ct
Ð¾ ÑģÑĤÑĮ
Ġsp rÃ¡v
Ġperso ana
Jei gu
et Äħ
ĠÐºÐ¾Ð½ÑģÑĤÑĢÑĥ Ðº
ĠE v
Ð»Ð¸ Ð²Ð¾
Ð´Ð¾ Ñħ
ĠÐ¿ÑĢÐ¾ÑĨÐµ ÑģÑģÐµ
G ra
ĠÐ½ÐµÑģÐºÐ¾Ð»ÑĮ ÐºÐ¸Ñħ
Ġgali u
Ð°Ð»ÑĮ Ð½Ð¾Ð³Ð¾
R E
ĠÑģÐ¸ÑĤÑĥÐ° ÑĨÐ¸Ð¸
Ð²Ð° Ð½Ð¸ÐµÐ¼
Ġcon se
Ġm Ã¢nÄĥ
Ġvie tose
ÑģÑĤ Ð¾Ðº
ĠA poi
ĠrÅ« pes
Ġsu rin
vi ÄįiÅ«
ĠSo cial
ĠÐºÐ¾Ð¼Ð¿Ð° Ð½Ð¸Ð¹
Ġcom and
ĠÐ¾Ð±ÐµÑģÐ¿ÐµÑĩÐ¸ Ð²Ð°ÐµÑĤ
Ġco ord
Ġkonf lik
Ġk ran
ce ri
ĠÐ¿ÑĢÐ¾Ð¸Ð· Ð¾ÑĪ
Ġminis tras
Ġmá» Ľi
ĠÐ² Ð¸Ð½
ÑģÑĤÐ¾Ð² ÐµÑĢ
ĠÐ´Ð¾ ÑħÐ¾Ð´
ĠÐ³ ÑĢÐµ
ĠÅ¾ino ti
Ġlig Å³
Ġkon te
Ġprac tic
16 0
ĠbÅ« davo
ĠurmÄĥ ri
ĠÐľÐ¾ÑģÐº Ð²Ð°
C a
ÈĻti a
áº¡ nh
Ġs oc
Ġklas ik
ĠÐº Ð¾Ð´
Ġpro gimnaz
Ġfinanci ar
Ġcom er
ĠÐ¸Ð½ Ð¾Ð³Ð´Ð°
Ġj ais
ĠÐ¡ Ð²ÐµÑĤ
ĠÑĨÐµÐ½ÑĤ ÑĢÐ°
Ġvede m
ĠÐºÐ¾Ð½ÑĤÑĢ Ð¾Ð»ÑĮ
Ð»ÐµÐ½ Ð½Ð¾Ð¹
ser va
Ġil gal
Ġto ti
Ġfi x
ent Äħ
Ð¾Ñģ Ð°
pe rio
I US
ĠÐĴ ÐµÐ´ÑĮ
ĠÐ¢ Ð°Ð¼
sk u
n ov
Ġkar jer
Nor s
Ð»ÑĮ Ð½Ð¸Ðº
to jos
Ġpo ra
ĠmÄĹnes iÅ³
ÄĹj ant
ĠÐŀÑģ Ð½Ð¾Ð²
ĠL ui
ÐŁ Ðĺ
ĠÑıÐ½Ð²Ð° ÑĢÑı
Ġa ÈĻ
ĠÄĳ iá»ģu
Ġsta di
rie re
ia c
ĠÐ£ÐºÑĢÐ°Ð¸ Ð½Ðµ
Ġteig imu
Ġo v
ĠÐ´Ð¾Ð» Ð³Ð¾
Ġlink s
du ra
Ġin im
Ġk osti
ÑĤÐµ ÑĢÑĭ
gi Å¡k
ĠÐ´Ð¸Ð°Ð³ Ð½Ð¾ÑģÑĤÐ¸
Ġre cu
Ġpun ctul
ĠÐ¼ Ð¾Ð·
ĠÐº Ð»ÑĥÐ±
ÄĹ ga
ĠÐ¿Ð¾Ð¶ Ð°ÑĢ
ĠÐ´ÐµÐºÐ°Ð± ÑĢÑı
ba us
ti mus
Ġdalyv auja
Ġaptar na
Ġinf o
ĠÐ½Ð°Ð¿ÑĢÐ°Ð² Ð»ÐµÐ½Ð¸Ñı
Ġcu k
ĠÃ®ncÄĥ r
Ġok up
Ġto le
h id
ĠÐĶ ÑĢÑĥ
ĠÐ± Ð»Ð°
en Ã½ch
vÄĹ p
ĠÐ¿ Ð°Ðº
ĠcÄĥ sÄĥ
Ð¾ÑĢ Ñĥ
ĠÑĤÐ° Ð¹
Ġgar so
ĠÄ¯ teik
ini ui
ĠÑģÐµ ÑĢÐ¸Ñı
m Ã¤
Ġc alitatea
ĠkaÅ¾ kas
Ġnaudo jimo
Ġpas ien
Ġkli entÅ³
ĠÃ®ntre prin
ĠÐº Ð»ÐµÑĤ
Ð»Ð° Ñħ
Ġo chi
ÐŁÐ¾Ñģ Ð»Ðµ
ĠÐ¾ÑĢÐ³Ð°Ð½Ð¸ Ð·Ð°ÑĨÐ¸Ñı
ĠpÄĥ mÃ¢nt
ĠR ok
Ġde loc
av imas
dy mÄħ
c la
ĠÑģ ÐµÑĢÐµ
ĠG a
i jÄħ
Ãª m
stan t
Ġra port
Ġz Äĥ
Ð»Ñĭ Ð¼
Ġresta u
Ġasmen ims
ÑĤÐµÐ»ÑĮ Ð½ÑĥÑİ
Ġcompan iei
Ġlem n
ÑĨÐ¸ Ð¾Ð½Ð¸
ĠÐ´ÑĢÑĥÐ³Ð¸ Ð¼Ð¸
Ġreu ÈĻit
v Ã¤
Ġre ci
ĠX IX
ÑĨÐ¸Ñı Ñħ
Ġminis tro
u c
p Ã¢n
Ġsme gen
Ġvie Å£ii
Ġdov ed
Ġklaus imÄħ
Ġcurs ul
ĠÐĺ Ð¼ÐµÐ½Ð½Ð¾
ĠÑĢÐµÐ°Ð»Ð¸ Ð·Ð°ÑĨÐ¸Ð¸
ĠI ng
ĠÐºÐ¾Ð½ ÑĨÐ°
ĠÐĶ ÐµÑĤ
Ġcon cent
Ð´Ðµ Ð¾
ĠdÄĹ ka
ĠÐ¼ÐµÑģÑı ÑĨÐ°
Ġgy dymo
ĠrÄĥsp un
i to
Ġno apte
ru m
ĠI V
ĠÐ¿Ð¾Ñģ ÑĢÐµÐ´
Ġdaly kas
ĠD ÄĹ
ĠE r
ÑĤÐµ Ðº
ĠAr t
ĠÄį lov
ÑīÐ° ÑĤÑĮÑģÑı
P D
Ġabe jo
Ġvi zu
I G
s ka
Ġvien od
ĠÐ¿Ð¾Ð· Ð½Ð°
Ġtiesiog iai
Ġimportan tÄĥ
ti Å¥
Ð´Ð° Ð»
ÑĩÐ¸ Ðµ
ÑĮ ÐµÐ²
ĠS or
ĠÐ°Ð±ÑģÐ¾Ð»ÑİÑĤ Ð½Ð¾
ĠÑģÐ² ÐµÑĤÐ°
ĠÐļ Ð½Ð¸
Ð¡ Ð¾
ĠSib iu
ul is
Ġfam iliei
ĠV iá»ĩt
ĠÐ¼Ð¾ ÑĢÐµ
d ies
Ġtelefon u
ĠPo ate
Ġper duo
Ġde gra
ĠÃ®n su
is a
ĠÐ´ ÐµÑĤÐ¸
in ÈĽa
Ð° Ñħ
Ð´Ð° ÐµÑĤÑģÑı
ĠÐºÐ¾Ð¼Ð¿ Ð¾Ð½
ĠÐ¸Ñİ Ð½Ñı
li ka
ĠÐ» Ð°Ð¼
Ġutili zarea
ĠNa ÈĽional
c olo
ÐºÐ¾ ÑĢÐ°
din ink
Ġpod mien
ĠA b
ĠMinis terului
Ġre mar
Ġc io
Ġsufle t
ĠP D
y l
Ġpreto Å¾e
ĠMarijampol ÄĹs
Ġs Ã¢mbÄĥtÄĥ
rin ÄĹ
ÑĤÑĥ ÑĢÐµ
ĠÐ¿ÑĢÐ¾ÑĦÐ¸ Ð»Ð°ÐºÑĤÐ¸
ÑģÑĤÐ²Ð¸ ÐµÐ¼
Ð¾Ð´Ð° ÑĢ
ÐĲ Ðŀ
ĠC rai
Ġc ie
zÄĥ ri
dy ta
ĠÐ½Ð¸ Ð¶
Ġsky ri
le y
o z
ĠÐľÐ¾ÑģÐº Ð²Ñĭ
Ġg ry
ĠB us
ĠÐŁ Ð¾Ð»ÑĮÐ·Ð¾Ð²Ð°
ĠDid Å¾i
Ġang lÅ³
Ġpan aik
tan ie
Ġnuo Å¡
ĠÄ¯ manoma
v imui
J uo
ĠC rÄĥ
tr ai
ab reve
Ġat gal
Ġpris im
Ðł Ðķ
ĠÅł al
Ġdur Å³
ĠVien a
vie tÄĹ
ĠF estival
ĠÐ¿ÑĢÐ¸ Ð±Ð¾ÑĢ
Ġsta ty
ĠÑģÐ¾ÑģÑĤÐ¾Ñı Ð½Ð¸Ðµ
Ð»ÐµÑĤ Ñĭ
ĠÐ±ÑİÐ´Ð¶ ÐµÑĤ
ĠÐ¿Ñĥ ÑĤÐµÐ¼
ĠÐ¾Ñģ Ð²Ðµ
Ġd var
ĠÐ¿ÑĥÑĤÐµ ÑĪÐµ
Ġs tro
Ġprojek tÅ³
esn Ä¯
Ġn os
Ġrin koje
ovan ia
ĠÐ¿Ð¾ÑģÐ¾Ð±Ð¸ Ðµ
Ġimag ini
ĠF ie
Ġd Ã¡
Ġprista to
ÑĢÑĭ Ð²
ĠarÄĥ tat
ĠÐ³ Ð¾ÑģÑĤ
Ġavan ta
ĠÑģÑĥÑīÐµÑģÑĤÐ² ÑĥÐµÑĤ
ÑĤÑĮ Ðµ
ĠÐ½Ð° Ð²ÐµÑĢ
ĠlÄĹÅ¡ Å³
ap oca
io ji
ĠÑĥÐ¿Ð° ÐºÐ¾Ð²
ĠChi ar
Ġre ce
ÐĽ Ðŀ
P ag
Ġag re
ĠH a
ĠuÅ¾si ÄĹm
Ġnuspren dÄĹ
Ġsus tab
Ð¢ Ðĺ
ĠiÅ¡ pl
ĠÐ½ÐµÐ¾Ð±ÑħÐ¾Ð´Ð¸Ð¼Ð¾ ÑģÑĤÐ¸
ÑģÑĤÐ² Ð¾Ð²Ð°
ĠÑĢÐ° Ð²Ð½Ð¾
ĠÐ´Ð°Ð½ Ð½Ð¾Ð³Ð¾
ĠÐ¿ÐµÑĢÐ² ÑĥÑİ
Ð¡Ð¡ Ðł
ĠÑģÑĤÑĢÐ° Ñħ
ta vimas
Ġpab ÄĹg
Ġdokument us
ĠA ir
Ġi Phone
ĠN ord
ĠÐ¿Ð¾ÑĤ ÐµÐ½
ĠDid Å¾io
ĠÃ ´
Ġvie tov
Ġco leg
ĠÐ°ÑģÑģ Ð¾ÑĢÑĤÐ¸
ÄĹj imus
ĠA i
Ġne toli
Ġcon ferin
Ġpus ÄĹ
ĠJ ÄĹ
Ġto r
Ġpl ane
l ini
ĠÐ½Ð° Ð¼Ð¸
ÑģÑĤÐ²ÐµÐ½ Ð½ÑĭÐ¼
Ġat vyk
vin s
ĠÐ¿Ð¾Ð¼Ðµ ÑīÐµÐ½Ð¸Ñı
ĠÐ»ÑİÐ± Ð¾Ð¼
ĠÐł ÐµÐº
ĠÐ´Ð¾Ð¼ Ðµ
ĠÐ² ÑĢÐµÐ´
ĠÐ¶ Ð°
Ġb una
ĠN ov
Ġvari k
b olo
Ġlietu viai
199 8
Ġjaun uo
. -
Ñģ Ð¾Ð½
peri od
ĠA B
Ð² Ð¾Ð³Ð¾
Äį a
ĠÐ¿ÑĢÐµ Ð²Ñĭ
ĠÐ¸ÑģÐ¿Ð¾Ð»ÑĮÐ· ÑĥÐµÑĤÑģÑı
Ġw e
Ð¾ Ñī
ĠÄ¯stai gos
ĠpasiÅ« lyti
Ġmai Å¡
dy je
d ais
esn iÅ³
Ġh ai
Ġkai me
me a
ĠU N
Ġk aul
ĠÐ¿ÑĢÐµ Ð²ÑĢÐ°
Ġfost ul
Ġulti mele
Ġsocial inÄĹs
Ð¿ ÐµÑĢÐµ
ĠÑģ Ð½Ð¸Ð¼Ð°
ÄĹj imÅ³
ĠÐ¿ÑĢÐ¾Ð¸Ð·Ð²Ð¾Ð´Ð¸ ÑĤÐµÐ»ÐµÐ¹
ÑĭÑħ Ð°
Ġturi s
Ġklaus imÅ³
ĠÐĺ Ð³
Ġpro vin
ĠTimi ÈĻ
fe rend
Ġbat ali
Ð´ Ð½Ð¾
ÑģÐµÑģÑģÑĥÐ° ÑĢÑĭ
ĠsÄħ mon
ÑĢÑĭ Ðµ
au kti
ĠA mb
Ġdiag nos
ĠM os
Ġniek tor
Ġal tul
Ġgrij Äĥ
um b
ĠÐ·Ð° ÑĤÑĢÐ°
ĠÑģÑĤÑĢÐ° ÑĤÐµ
ĠÐĿÐ° Ð¿ÑĢÐ¸Ð¼ÐµÑĢ
ĠÑģÐ¾Ð¾ÑĤÐ²ÐµÑĤ ÑģÑĤÐ²ÑĥÑİ
D es
Ġb ron
n ei
Ð±Ð»Ð¸ Ð¾ÑĤÐµ
tiÅ¡k as
Ġna vi
Ġc áº¥p
Ġex cel
Ġ ÑīÐµ
ie ÄįiÅ³
ĠÐ¾ Ð¿Ð¸
Ġvi cep
ĠP ad
ĠD el
Ġri ad
Ġre st
ĠÐ¼Ð°Ð³Ð°Ð·Ð¸ Ð½Ðµ
ca ÈĽi
Ġm Äħ
ÑĢÐ¸ Ð¼
ÑĤÐ¸Ð² Ð½ÑĭÐ¹
ĠÑģ ÐºÐ¾
Å¾ Äħ
ĠP C
ĠÐĹÐ°ÐºÐ°Ð·ÑĩÐ¸ ÐºÐ¾Ð¼
oni os
ti te
Ġlen k
Ġne Ã®n
Ġple cat
ĠVyriaus ybÄĹs
Ð¾ÑĤ Ð¾Ð¹
ia ur
reik ia
ĠÐ¿Ð¾ÑģÐ»ÐµÐ´ Ð½Ð¸Ðµ
ĠÐ¿Ð°ÑĢÑĤ Ð½ÐµÑĢ
ĠÐ¾Ð±ÑĬÐµÐºÑĤ Ð¾Ð²
Ã´ Å¾e
Ġsu der
ÑĢÐ¾ÑĤÐ¸ Ð²
ĠÐ´Ð°Ð»ÑĮ ÑĪÐµ
ĠÑģÐ¾Ð·Ð´Ð° ÑĤÑĮ
Ġktor Ã½ch
ĠÃ®nvÄĥ ÈĽÄĥ
Ġas pect
Ġsku toÄį
ĠÐŁ ÑĢÐ°Ð²
ĠT y
Ġinstitu cijos
ÑģÐº Ð¾Ð»ÑĮÐºÐ¾
c inis
ia zÄĥ
Ġsaug os
ie ÅŁte
ÐĿ Ð¸
ming a
Ġskai ÄįiÅ³
ĠÅ½em ai
ĠcuvÃ¢n t
ĠÑģÐ¸ Ð»Ñĭ
Ġcele lalte
ĠÐ¿ÑĢÐµÐ´Ð½Ð°Ð·Ð½Ð° ÑĩÐµÐ½
Ñĩ ÑĤ
ĠPar duo
ĠÑģÐ¿ ÑĢÐ°
Ġrealiz ate
ÈĻ ul
Ġfolosi te
ĠÑħ Ð¾Ð´Ðµ
Äį nej
Ġnu Å¡
Ġe mi
ĠÐ¸Ð½ Ð½Ð¾Ð²Ð°
Ġturi u
ĠÅ¾ais ti
ĠR im
Ġpen kta
Ġkok iÅ³
et ÄĹ
ĠÅ¾i Å«
Ġautomobil Ä¯
ĠV io
ĠP u
Ġvien uo
Ġna grin
Ġsp rÃ¡
ĠÃ®ncer cat
Ġk at
ĠÐľÐµ Ð¶Ð´Ñĥ
Ġv hod
don an
Ð½ ÐµÑĤÐµ
Ġnaj lep
ĠÐ¶ÐµÐ½ÑīÐ¸ Ð½Ñĭ
Ġse ks
Ġlyg io
Ð³Ð° Ð¼Ð¸
Ðł Ðĺ
ĠT plus
ĠM ik
Ġh Ã¬nh
Å¡k io
ate d
2 20
ick Ã©
Ġcategori a
ĠsudÄĹ ting
Ġas c
ĠÐ¿ Ð°Ð»ÑĮ
ty vas
ĠÐ½ ÑĢÐ°Ð²Ð¸
ĠÐ¾ÑĤÐ½Ð¾ ÑĪÐµÐ½Ð¸Ð¸
ĠÐ²Ñĭ ÑĢÐ°Ð¶
ĠÑģÑĥ ÑīÐµ
ĠÐ± Ð°ÑĢ
fic are
ĠÐ½Ð¸Ðº ÑĤÐ¾
ĠA ve
ÑĢÐ° Ð¿Ð¸
ĠSer vici
ĠÐ²Ð¸ ÑĤÐ°Ð¼Ð¸
Ġsta tus
Ð¿ ÑĤÐ¸
um is
ĠÐ¾Ð·Ð½Ð° ÐºÐ¾Ð¼
toj i
ac k
Ġnu orod
ĠÐ¿Ð¾ ÑģÑĤÐµ
ĠÅŁti e
Ġsug rÄ¯Å¾
zi ja
Ð¶Ð´ ÑĭÐ¹
ĠÅ½em ÄĹs
ĠÐ¾Ð±Ð»Ð° Ð´Ð°ÐµÑĤ
ÐµÑĢ Ð½Ð°
ĠÐ½Ðµ Ð¾Ð±Ñĭ
Ġturi sti
ĠPar dav
Ġintro duce
ĠÅŁ edin
ĠÐ¿ÑĢÐ¸ Ð´ÐµÑĤÑģÑı
Ð»Ð¸ Ð²Ð°
Ġave ÈĽi
ĠÐ¿Ð¾Ð² ÑĢÐµ
Ġcondi Å£iile
Ġnep asi
Ġreik ÄĹs
Ðļ Ð¾Ð½
Ġpirm iausia
Ġarg um
Ġvizi ta
ĠÐĿÐ¾Ð² Ð¾ÑģÐ¸Ð±Ð¸ÑĢ
Ġtre ne
ĠT ot
Ġgyven o
Ġameri c
Ġpus e
ĠÐ¼Ð» Ð½
at ai
ĠIn tern
Ġsezon Äħ
ÑĪ ÐµÐ¼Ñĥ
Ġmin tis
ÐŁÐµÑĤÐµÑĢÐ±ÑĥÑĢ Ð³
Ġsk ub
Ġteritori joje
r ÄĻs
han nis
Ġkiekvien am
y kite
Ġaugal Å³
Ġprista tÄĹ
ĠI ki
tor y
ĠA v
Ġs cu
ĠÐ´Ð¾ÐºÑĥ Ð¼ÐµÐ½ÑĤÑĭ
Ġrela x
aikÅ¡ Äįio
Ġv an
le t
ÑģÑģÐ¸ Ð²
Ġde k
ĠÑĢÐ°Ñģ ÑĩÐµÑĤ
I J
ĠÑĦÐ¾ÑĢ ÑĥÐ¼Ð°
ĠÐľ Ð¾Ð¶Ð½Ð¾
Ġref u
Ġg elb
Ġplauk Å³
Ġkas met
ĠÑĥ ÑģÐ¸
ĠÐ±Ð¸Ð·Ð½Ðµ ÑģÐ°
din i
Ġimag ine
Ġminis trul
Ġspecialis tai
ĠGener al
po ra
Ġv esti
ie Äįiai
Ġjed not
ĠAp ple
Ġre dus
Ġpirk imo
Ġad Ã¢n
Ġpo artÄĥ
Ġservici ile
Ġgat vÄĹje
tin gi
kre m
Ġsek madien
Ġne tikÄĹ
Ġten den
Ġmedic ale
ĠÐ¾ÐºÑĢÑĥ Ð³Ð°
Ġklas iÅ³
ti prin
bo u
ĠÃ®ncre dere
an ks
Ġph áº©m
Ġes mÄĹs
Ġcan cer
Ġprop riu
Ġvys ty
ĠL ais
Ġpov esti
ĠÑĢÐ°Ð·Ð»Ð¸Ñĩ Ð½ÑĭÐµ
ĠÑįÐºÑģÐ¿ ÐµÑĢ
len a
ĠÑĢÐ°Ð·Ð²Ð¸ ÑĤÐ¸Ðµ
che te
an tÅ³
Ġle p
Ġk val
ĠÐ½ Ð¾ÑĢ
is s
ĠÅ¾ alia
aÅ¾ in
Ġvyk dyti
ĠmÄĹnes ius
it alÄĥ
p ei
ĠÐ´ Ð²
ĠR an
Ã½ va
Ð½ÑĮ ÑĪÐµ
ÑĤÐ° ÑĨÐ¸Ñı
ÑĤÐµ Ñħ
ĠBiseri ca
ĠÑģÐ¸ÑģÑĤÐµÐ¼ Ðµ
ĠV ad
ĠÐ°Ð» ÐºÐ¾Ð³
Å£i oneazÄĥ
ĠÐ¸ Ð´
ÑĢÐ¸ ÑĦ
ĠE P
Äĥ rat
Ġel imin
Ġmi ÈĻ
Ġminis tru
ĠÐ¸Ð³ ÑĢ
Ġide ea
Ġats ilie
Ġloc a
Ġsuk Å«rÄĹ
Ġpalai dinÄĹ
ĠÃ®n tin
ĠÐ¿ÑĢÐ¾ ÐµÐº
ĠÐ· ÐµÑĢÐºÐ°
Ġcons uma
dav au
ĠÐ¿ Ð¾Ð³Ð¸
ĠÐ° Ð¼
ĠsÄħlyg os
ĠÑħÐ¾Ñĩ ÐµÑĤ
ra vimo
Ġf iu
fe re
ĠÐ´ÑĢÑĥ Ð³Ð¾Ðµ
ĠMas k
ĠS tat
Ġdescoperi t
tas is
Ġvis ais
ĠÐ¼ Ð°Ð½
Ġsu rink
ĠÄ¯ ste
min a
s ko
Ġd osta
pa ti
Ġprac ticÄĥ
ĠÐ¼ÑĥÐ¶ ÑĩÐ¸
Ġch ip
Ð²ÑĢÐ¾Ð¿ ÐµÐ¹
Ġlaik Å³
ĠNa Å£ionalÄĥ
Ġn un
Ġmet rÅ³
Ġelek trin
ĠA gen
Ð¾Ð»Ð° Ð³Ð°
ĠCent rul
Ġvar du
ce pe
ĠÅ¾vil g
Ġrezulta tai
Ġdocum ente
ÑīÐ¸ ÐºÐ¾Ð²
Ġek ran
Ñħ Ð¾ÑĤ
á» Ĺ
Ġmoky kl
Ðľ Ðµ
ĠÑĤÐµÐ»Ðµ ÑĦÐ¾Ð½Ð°
ĠÐ° Ð²Ð¸Ð°
ĠÄįem pi
Ġvys ok
Ġre ak
Ġne te
Ð¾Ñĩ Ð½Ð¾Ð¹
ĠÐ¼ Ð°Ð¼
Ġpran cÅ«
ĠÐ¿Ð¾Ðº Ð¾Ð»
ÑĩÐ¸ Ð»
Ġrezultat us
ÐºÐ¾ ÑģÑĤÑĮ
Ġstik lo
ĠÑĪ ÐºÐ¾Ð»ÑĮ
Ġpre pa
ĠS A
Ġre mi
ĠÐ¿ÑĢÐ¾Ð´Ñĥ ÐºÑĤÐ¾Ð²
Ġst Ã¢n
Ġap klaus
Ġprisi jung
ed u
Ġaps ilan
ĠÃº pl
ĠÑĥ Ð´Ð¸Ð²Ð¸
Ð±Ðµ ÑĢÐ¸ÑĤÐµ
ĠVakar Å³
ĠK it
ĠVytau tas
Å¡ ÄĹ
Ġlengv iau
Ġsk aid
ĠÐ¼ÐµÑĤ Ð¾Ð´
ĠÑĢÐ°ÑģÑģ Ð¼Ð°ÑĤÑĢÐ¸
ÈĽi oneazÄĥ
ĠÐŀ ÑĩÐµÐ½ÑĮ
z em
ĠÐľÐ° ÑĤÐµÑĢÐ¸
ĠÅł ir
te ascÄĥ
ĠB ur
li ukas
Ġtaisyk liÅ³
ÑīÐ¸ Ð¼Ð¸
pir kti
ĠMo re
199 1
d ate
ĠO pera
ĠÐ¸Ð· Ð±Ð°
Ġdirek toriaus
ĠM ad
gno z
ĠÑĥÑĩÐ¸ ÑĤÑĭ
ĠplÄĹ tros
ĠcetÄĥ ÈĽ
ÑĦ ÐµÐ¹
fic area
Ġsen iai
Ġti ems
Ġsi gn
ÅŁ tri
in tos
Ġbendradar biau
za c
Ġi au
g iai
Ġmi ÅŁ
ĠÑĤÐµÐ¿ Ð»Ð¾
Ġre aliza
iu osi
ĠÐ½Ð°Ð¹ Ð´
Ġnatur ale
Ġter m
á»ĵ i
ĠÑģ ÑĨ
ĠÐ³Ð»Ð°Ð² Ð½Ð¾Ðµ
P rieÅ¡
Ð²ÐµÐ´ Ð¾Ð¼
ĠÑĥÐ¿ÑĢÐ°Ð² Ð»ÐµÐ½Ð¸Ðµ
ĠÐ¿Ð¾Ð± ÐµÐ´Ð¸
ÐºÐ¾ ÑģÑĤÐ¸
Ġpasako ja
vÃ¡d z
Ġpaie Å¡kos
ĠV ÄĹliau
ÑģÐ¿ ÐµÐºÑĤ
Ġam este
Ġh om
tu ko
ĠMu ze
Ġcer tific
ĠP am
Ġv zn
Ġsez ono
ĠÐº Ð¾Ð»ÑĮ
Ġparticip an
ĠadÄĥ ug
ĠÑĢÐµ Ð¹
ÑģÐ¸ Ð¾Ð½
h at
ĠÐ¾ÑĤÐ·Ñĭ Ð²Ñĭ
ĠÑĤÑĢÐ° Ð´Ð¸ÑĨÐ¸Ð¾Ð½
Ġbol na
Ġnen ori
ĠÐºÐ° Ð·Ð°
Ġarchite kt
ĠÑĥ ÑĤÐ¾Ñĩ
Ġfe te
a to
ul io
ĠA re
Ġsprend imÅ³
ĠcÃ¢ mp
ĠÅł ios
Ġbibliote kos
Ġvar das
ĠÐ²Ð¾Ð·Ð´Ñĥ ÑħÐ°
ĠÐ¶Ðµ Ð»
ĠÐ¢ Ð¾
zi le
ÄĹl ÄĻ
ĠÑĤÐµÐ»ÐµÑĦÐ¾Ð½ Ñĥ
ĠÑĢÐ° Ð½
ĠÐ³Ð¾ÑģÑĥÐ´Ð°ÑĢÑģÑĤÐ²ÐµÐ½ Ð½Ð¾Ð¹
ne ho
Ġemis i
Ġrink imÅ³
Ġstud iu
Ġrea bili
Ġpro to
ÑĢÐ° Ð»
ÑĢ ÐµÐ½ÑĤ
Ð³ ÐµÐ½
Ġmie stÄħ
tn er
Ġatsi d
ta ne
ĠÃ®nain tea
Ġlie ka
ĠÐł Ð¸
Ġte s
ÑīÐ° ÑİÑĤ
ĠÐ²ÑĭÐ¿Ñĥ ÑģÐºÐ°
ĠÑĢÐµÐ·ÑĥÐ»ÑĮÑĤÐ° ÑĤ
ĠÐ·Ð½Ð° Ð½Ð¸Ñı
ĠÑĢÐµÐ³Ð¸ ÑģÑĤÑĢÐ°
ĠÑģÑĤÐ¾Ð¸ Ð¼Ð¾ÑģÑĤÐ¸
ĠÑĤÑĥ ÑĢÐ¸
Ð·Ð¸Ð´ ÐµÐ½ÑĤ
Ġori en
Ġdeose bi
Ġfrumo asÄĥ
Ġh ran
ĠÐ¿Ð° ÑĢÑĥ
Ġmoto ci
Ġsen ov
ĠÐ·ÐµÐ¼ Ðµ
Ġz od
Ġra d
Ġmili jon
Ġl Æ°á»£ng
Ġalko ho
Ġmin ÄĹ
ĠGro up
con om
ĠÐ·Ð´Ð¾ÑĢÐ¾Ð² ÑĮÐµ
Ġf lu
ĠNa cional
ĠÑģÐ¿Ð¸ ÑģÐ¾Ðº
ĠÐ´Ð°Ð½ Ð½Ð¾Ð¼
ĠÐ¿ÐµÑģ Ð½Ð¸
ĠÑģ Ð²Ð¸
ĠlÄĥs at
Ġz nÃ¡
Ġsp rÄĻsti
Ð´Ðµ ÐºÑģ
Ġvis ame
Ð»Ñĥ Ð´
Ġsk up
ĠÃ®nregistra t
ĠHo tel
ĠÐķ ÑģÑĤÑĮ
ĠBri tani
tu rin
ĠkÅ«r ybos
te sc
Ġa ÅŁ
Ġchi ru
Ġbu getul
Ġlup tÄĥ
ĠÐ¾ÑĤ Ð¼ÐµÑĩÐ°
ĠÐ¸ÑģÐºÐ»ÑİÑĩÐ¸ ÑĤÐµÐ»ÑĮÐ½Ð¾
Ġdemo cra
Ġli ga
h ul
Ġsitua cija
ĠsÄħ jungos
Å¥ ah
Ġdisponi bile
ÑĩÐ° Ñı
Ġmies tas
ĠÐ´Ð¾ÑĢ Ð¾Ð¶
19 50
ÅŁ ov
ĠÐ²Ð»Ð° Ð´ÐµÐ»ÑĮ
ĠÐ³ Ñĥ
Ġni ch
el ui
ĠÐ¸Ð¼ Ñı
Ġf ik
Ġj ur
ton as
Ġveik ti
Ġle gal
ĠDrag nea
ĠP lan
Ġjude Å£ul
ĠÑģ Ð½Ñı
ĠÑĢÐµ Ð»Ð¸
vÄĹ tas
Ġsoci alÄĥ
zÄĥ tor
Ð²Ð¸ Ñģ
ĠÐ¼ ÐµÑĢÐµ
ĠÐ¢ Ñĭ
Ġc Ã¹ng
Ġliterat Å«ros
Ðķ ÐĿÐĺ
Ġdvie m
ĠT al
ĠdesfÄĥÅŁ ura
ĠpaÅ¾ Ä¯sta
p entru
Ð¾Ð¿ ÑĢÐ¾Ð²
Ġpar cÄĥ
iá»ĥ m
ĠÐĶ ÐµÐ½ÑĮ
ĠLatvi jos
ĠNe p
ĠL iu
Ġpapras ta
Ġl Ã½
Ġn ik
ĠT ie
ĠÐ³Ð¾ÑĢÐ¾Ð´ ÑģÐºÐ¾Ð³Ð¾
ÃŃ z
pre si
ĠiÅ¡lai kyti
Ġce ilal
Ġc ru
Ġz auj
Ġne labai
y tÄĹs
ĠComis iei
Ġtink am
ul te
ĠL T
Ġleg ea
Ġab ia
D A
ie Å¥
Ġvand uo
ĠcetÄĥ Å£
ĠÅł ven
ĠÄ¯si gi
ĠÐºÐ°ÑĢ ÑĤÐ¾
ĠÐ¶Ð¸Ð²Ð¾ÑĤ Ð½ÑĭÑħ
ĠÐ¿ÑĢÐ¸ ÑĪ
ĠÐ³ Ð¾Ñģ
ĠÐ¿ ÑıÑĤÑĮ
Ġbuv ÄĻs
ĠÑģÐ¾Ð¿ ÑĢÐ¾Ð²
5 000
T ar
vei ki
ĠÄ¯skai tant
ĠplÄĥ cut
Ġtai gi
Ġparod a
Ġ Äħ
Ã© n
ĠCrÄĥ ciun
K L
ĠT rai
Ġdomen iu
ĠÐĿÐ¸ ÐºÐ¾Ð»Ð°
C um
Ġvy ri
Ġpri d
Ð¼ Ð¾Ð·
Ġch Ãºng
ĠÐ²Ð° Ð¼Ð¸
ĠÑĨÐµÐ½ÑĤ ÑĢÐµ
ĠÑģ Ð¾Ð¼
ĠÑĤÐ° Ð±
ĠE lek
ĠÐºÐ¾Ð½ ÑĤÑĢÐ°
ĠDe ja
ĠC risti
ĠÑĢÐµÐ³Ð¸ Ð¾Ð½Ð°Ð»ÑĮ
Ã¡ci ÃŃ
Ġb ag
Viln iaus
ais ant
ĠÅ¡i as
ĠÑĤÐµ Ð°ÑĤ
Ġkok ybÄĻ
ĠÐ° Ð·Ð°
to lo
Ð³Ð° Ð»
Ġpor t
I r
Ġaceea ÅŁi
Äį om
ÑİÑīÐ¸Ðµ ÑģÑı
raÅ¡y ta
Ġlyg os
Ġp ale
ÑĤÐµ Ð¼Ð°ÑĤÐ¸
ÐµÑĢ Ð¾Ð¼
ÐºÐ¾Ð² Ð¾Ð¹
ĠÐ¾Ð± Ð¼ÐµÐ½
á»ķ i
ĠÑĦÐµÐ² ÑĢÐ°
Ġpavy zd
ĠÐ¾ÑĤ ÑĩÐµÑĤ
ĠÐĹ Ð½Ð°
Ġatsi rado
eri us
tu vai
Ġspate le
Ġl asÄĥ
Ð»ÑĮ Ð½ÑĭÐ¼Ð¸
ovan Ã½
ĠÅł tai
Ġadministra cijos
Ġvakar Äħ
ĠprieÅ¾as tis
Ġstud ii
iÅ¡k as
Ġnep al
k ime
Ġnes eniai
9 1
Ġlaik raÅ¡
Ġa ero
ÑĤÐ° Ð¹
ĠÑĢÐ°Ð· Ð½ÑĭÐµ
ÑĤ Ð½Ð¾Ð³Ð¾
Ġde ÅĪ
ÑĪ ÑĢÑĥ
ce va
ĠÑĤÐ°Ðº Ð¾Ð¼
ÐµÑģÑĤÐ¸ Ð²Ð°
Ġvys kup
Ġpasid al
ÑģÑĤ ÑĢÐ¾Ð²
Ġl unii
Ġte ras
ĠsuÅ¾ino ti
ĠÑĥÑĤÐ²ÐµÑĢ Ð¶Ð´
Ġadres u
ĠC ei
Ġtom to
le x
vin tÅ³
ĠÑģÑĤ Ð¾Ñı
Ġpat ri
Ġe m
z is
ÑĥÑĤ Ð±Ñĥ
ÑĢÐµ Ð¸
Ġfinan sa
Ġpa jamÅ³
Ġsta rea
ĠfÄĥ cute
pi jos
ĠÃ®nche iat
Ġap ei
ĠÐ·Ð½Ð° ÑĩÐµÐ½Ð¸Ðµ
Ġs lÄĥ
Ġreu ÅŁit
Ġsutar tÄ¯
Ñĥ Ð·
ĠÄ¯sitik in
ĠÑģÐ¸ Ð»
Ġp lien
Ġlai kyti
ĠÐºÐ° ÐºÐ¸Ñħ
ta ria
ak ÄĹ
Ġbucuri e
ĠÑĤÐ¾ ÑĩÐºÐ¸
ĠtÃ¢n Äĥr
b re
ĠÑĢÐ° Ð½ÑĮÑĪÐµ
Ð½Ñĥ Ð»ÑģÑı
vy Å¡
teri o
Ġpr ost
cÄĥ r
ĠnÄĥ ng
Ġtu Å¡
Ġaceea ÈĻi
ÐĵÐ»Ð°Ð² Ð½Ð°Ñı
Ġch áº¥t
ĠTe chn
im ea
Ġnes up
Ġv r
Ġk ra
ĠÑĢÑĥ Ðº
ÑĤÐ° ÐºÐ¸
Ġ/ /
ĠÑģÐ¾Ð±Ñĭ ÑĤÐ¸Ñı
at Äħ
Ġera m
ĠÐ¿ÑĢÐµÐ¿ Ð¾Ð´Ð°
kl ÄĻ
Ġpriemon ÄĹ
Ġklaus imais
Ġstre s
ÈĽ are
ĠÑĨÐµÐ½ Ð°Ð¼
ÐºÐ° ÑĤÐµÑĢÐ¸
Ġj usti
Ġdi alog
Ġpas ek
ĠÐĲ Ð»ÑĮ
rove ÅĪ
Ġre tra
Ġvig oare
ĠC en
ĠiÅ¡ man
Ġsan c
Ð¸ ÑĤÑģÑı
ĠDez vol
ky mas
g l
Ġpri pra
ĠÑĢÐ¸ ÑģÑĥ
ĠÑģÐ¾ÑģÑĤÐ¾ Ð¸ÑĤ
ĠÐĿÐ¸ Ð¶
ĠÐ½Ð°ÑģÑĤÐ¾Ñı ÑīÐµÐµ
Ġtr Ã¬nh
ĠAn un
Ġb uni
ĠUni unea
Ġmech aniz
ĠÃ®ntÃ¢mp lat
ĠM it
ÑģÐ¸ Ð¹
C R
ĠP ab
Ġdeci zia
Ġfunc Å£ie
aid os
Ð²Ð° Ð½Ð¸Ð¹
ĠÐŃ ÑĤÐ¸
ĠÐ´ ÑĢÐ°
Ð½Ð¾Ð² ÐµÐ½Ð¸Ñı
ÐµÐ½ Ñı
ĠÐ¿ÑĢ Ð¾Ð·
ĠÑĤÑĢ ÐµÐ½Ð¸
ĠÐľ Ð½Ðµ
Ġvir us
Ġgyven am
ĠÐ±Ð°ÑĤÐ° ÑĢÐµÐ¹
it ale
inink us
ĠAn ton
Å¾ ad
ĠÑıÐ·Ñĭ Ðº
Ġcomp ania
Ġkiek Ä¯
Ġrealiz area
Ð¾Ð¿ Ð»Ð°
198 9
Ġrec ent
Ġval g
Ġarticol ul
ri ed
e ina
ka ri
din ys
Ġavan s
Ġn on
Ġnap rÃŃklad
vi vald
Ġdis cipl
Ġvanden Ä¯
n ÄĻ
inÄĹ ms
ĠÐ·Ð½Ð°ÑĩÐ¸ ÑĤÐµÐ»ÑĮÐ½Ð¾
C O
ĠÐ¡ Ð¡Ð¡Ðł
ĠÑĤÐµ ÐºÑĥ
N o
Ġrink tinÄĹs
Ñİ Ð¼Ðµ
Ġg in
ĠÑįÐ»ÐµÐºÑĤÑĢÐ¾Ð½ Ð½Ð¾Ð¹
Ġvls Äį
yb ÄĹje
ÐĽ Ð¸
pir k
ĠÑĨ ÐµÑĢ
Ġau tor
ĠiÅ¡s ky
Ġpre ten
ÑģÐ»Ñĥ Ð¶
ĠÅ¡vies os
ĠÄĥ sta
ĠuÅ¾tikrin a
ĠÐ± Ð»
Ġsiguran ÈĽÄĥ
ÑģÑĤ Ð½Ð¾
Ġau ga
Ġreg lamen
Ġv rut
Ġv ul
Ġpor Äħ
ĠCon stitu
io ase
ky ta
199 7
o x
ĠvÃ¢r sta
Ġconsi dera
Ġmi Å¡ko
ĠC ri
ĠÐ½Ð°Ð· Ð²Ð°Ð½Ð¸Ðµ
ĠÑģÐ²Ð¾ ÐµÐ¼Ñĥ
ĠÐ¾Ð´Ð½Ð¾Ð² ÑĢÐµÐ¼ÐµÐ½Ð½Ð¾
ĠÐ² Ð¿ÐµÑĩÐ°ÑĤ
Ð¶Ð¸ Ð¼
ĠÐ¿ÑĢÐ¸Ð¼ÐµÑĢ Ð½Ð¾
Ð»ÐµÐ½ Ð½Ð¾
ÑĤÐµÐ»ÑĮ Ð½Ð¾Ð¼
Ñħ Ð°ÑĢ
ĠÐ¡ Ð¿Ðµ
ĠB aÅ¾ny
ĠÐ´ Ð½Ð¸
ĠÑģÐ¾Ð± Ð°
ali as
Ġpos ta
Ġ ÄĹmÄĹ
ĠÐ¤ ÑĢÐ°Ð½
ĠÃ®ngri ji
ĠÐĵ Ðŀ
ĠnhÆ° ng
Ġatri bu
Ġkto rej
ĠVis as
eni ui
in de
ĠÐ² Ð¾Ð²
Ġh Ãłnh
ĠÅł ve
ĠÐ»Ñİ Ð´
po z
Ġj oje
Ġv on
Ð»Ñı ÑİÑĤÑģÑı
ĠÑĤÑĢÐµÐ± ÑĥÐµÑĤÑģÑı
h ar
it alul
ĠÐ¢Ðµ Ð¿ÐµÑĢÑĮ
ĠÐ²Ñĭ ÑģÑĤÐ°Ð²
Ġu os
ĠB M
ĠÐ²Ð¾Ð·Ð´Ñĥ ÑĪ
viÄį ienÄĹ
ĠB or
v Ã½ch
ĠTo ate
ÐĴ Ðµ
ĠÑĤÐµ Ð¼Ñĥ
ĠÃ®n loc
Ġnaj mÃ¤
Ġpavy ko
Ġtre Äįia
Ġpov e
Ġres urs
apras tai
Ġs luj
Ġt la
ĠÐ¼Ð¸ Ð½Ð¸Ð¼Ð°
ÑĤÐµÐ»ÑĮ ÑģÑĤÐ²Ð¾Ð¼
Ð½ Ð½ÑĭÐ¹
ĠÃ®ntre g
Ġsk am
ĠÐ±Ð»Ð¸ Ð¶Ð°Ð¹
Ġsing ura
Ġfunc ÈĽion
Ġktor Ãº
ĠGed im
Ġfunc Å£ion
ĠÐ·Ð° ÐºÑĥ
ĠRy tÅ³
ĠÐ¾ÑĤ Ð²ÐµÑĢ
tuo ta
ĠaiÅ¡k iai
Ġpriklaus om
Ġt vor
, âĢľ
Ġpagal bÄħ
ĠÐ¼Ð°ÑĢ ÑĤÐ°
ro l
ĠÑĪ ÐºÐ°
ĠÑģÐ² ÐµÑĢÑħ
ĠÐ¡ÐµÑĢ Ð³ÐµÐ¹
ĠÑģÐ¾Ð³Ð»Ð° ÑģÐ½Ð¾
Ġsu feri
Ð´Ð° ÑĨÐ¸Ð¸
ĠA T
Ð¶Ð¸ ÑĤÑĮ
ĠÐŁ Ð¾Ð¼
Ġver de
Ġpatir ties
ĠaÅ¡ tu
ĠÐ·Ð² Ð¾Ð½
ĠÐ³ÑĢÐ°Ð¶ Ð´Ð°
S unt
Ġprive ÅŁte
te fan
Ð»Ð¾ÑĤ Ñĭ
olog ic
ĠÑģ Ð¾ÑĢ
Ġfolos esc
Ġsun aik
Ã¡l nej
ĠI mp
ub e
ĠlucrÄĥ ri
ÄĹ liai
ĠaukÅ¡ tis
ĠItal ia
Ġk en
Ġfor mÄħ
ĠÑĩÐµÐ¼ Ð¿Ð¸Ð¾Ð½Ð°
ĠÑĢÐµÐ¶Ð¸ Ð¼Ðµ
Ð½ Ð¾Ð³Ð¸Ðµ
ia tÄĥ
al ului
Ð¼Ñĭ Ð¼
Ġv Å¾dy
ĠÐ²Ð° ÑĪÐµÐ¹
ĠÐ¯ ÐľÐĹ
Ð²ÐµÐ´ ÐµÐ½Ð¸Ðµ
Ġve terin
I F
Ġde ÅŁi
ĠRus ia
ĠIÅ¡ matavimai
Ġele g
ĠiÅ¡ ties
ÑģÐ¸ Ð¼
ari us
ĠAus tr
Ġpasiruo Å¡
min ti
i joje
Ġpabai gos
v ali
Ġdl h
I B
ÄĹj u
ĠstrÄĥ inÄĥ
tinink Å³
Å£ ului
Ġex pozi
ÐĶ Ð¸
Ðļ Ðĺ
ĠÐ¿ Ð»Ðµ
ĠÐ¿Ð¾Ð´ÑĤÐ²ÐµÑĢ Ð¶Ð´Ð°
Ġdo le
ĠÑįÐ»ÐµÐ¼ ÐµÐ½ÑĤÐ¾Ð²
Ð´Ð¸ Ð´Ð°
Ġdan tÅ³
Ġatliek Å³
ĠÐĴÐ¾Ð· Ð¼Ð¾Ð¶
ĠmÄĥ ri
Ġsusi jus
Ġvor bi
Ġg l
tra c
ĠÐĲÐ»ÐµÐºÑģÐ°Ð½Ð´ ÑĢ
ĠEur Ã³
ai r
ĠJ aun
l Ã¡n
un c
va ra
Ġruden Ä¯
ĠÐ¯ Ð½
Ġle isti
Ġh um
Ġne mal
ĠÐ¿ ÑĤÐ¸
ĠÐ´ÑĢÑĥÐ³Ð¸ Ð¼
ÑĩÐµ ÑĢÐ°
Ġze ce
Ġvor bit
Ġpas ky
Ġfaci li
ur ti
Ġvi Ãªn
Ð²Ð¾Ð´Ð¸ ÑĤ
Ġnep er
ari jos
Ġfa vo
Å¾ is
Ġprop ria
Ġpla ta
Ġfoto grafi
ĠbÅ« tin
ĠmÃ¢n a
Ġh ip
sti e
ÑıÐ² Ð»ÐµÐ½Ð¸Ðµ
ĠÐ»Ð¸ÑĨ Ð¾
Ð´Ñĥ Ð¼Ð°
res ia
Ġkontro li
ÑĢ ÐºÑĥ
Ġab ie
Ġsmul k
Ġapli cÄĥ
ĠaiÅ¡k u
et ÄĹs
Ġak iÅ³
Ġh i
Ġvá» ¥
lor in
Ġp aim
Ġk ve
tar usi
ĠÅ¾aid imÅ³
Ġvis ko
ros oft
ĠsÄħlyg omis
ĠÐ»Ðµ ÑĩÐµÐ½Ð¸Ðµ
ĠA C
Ġp ama
ĠBra tis
D ÄĹ
ĠÑĤÐµÑħ Ð½Ð¸ÐºÐ¸
ÑĮ Ð¼Ð¸
ĠÐ¸ Ð¼Ð¸
V i
Ð» ÑĳÐ½
Ġsavait gal
Ð¾Ð» Ñİ
ĠAd rian
ĠÐ¿Ð¾Ð¿ ÑĢÐ¾Ð±
Ñĳ ÑĤÑģÑı
ÑĤÐ¸Ð² Ð½Ð¾Ð³Ð¾
ĠÑħÐ¾ ÑĤÑĮ
ta mp
ĠmoÅ¾ nosÅ¥
Ġkiek is
Ġkh Ã¡c
ÑĩÐ¸ ÑĤ
ĠSfÃ¢n tul
ÑĤ ÐµÑĤ
ĠÑģÐµÑĢÐ²Ð¸ Ñģ
Ġmno Å¾
Ġno aptea
Ð±ÑĥÑĢ Ð³
d ro
ĠÄĳ ang
Ġin sul
ĠÐ¸ÑģÐ¿ ÑĭÑĤÐ°
Ġdocum en
ĠÐ¾Ð±Ð½Ð° ÑĢÑĥÐ¶Ð¸
Ġsa p
ĠÐ¿Ð¾Ð·Ð² Ð¾Ð»Ð¸ÑĤ
im ie
ÄĻs tu
Ñħ Ð¾Ð¶Ð´ÐµÐ½Ð¸Ñı
ĠÑĥÐºÑĢÐ° Ð¸Ð½
ĠÐ½ÐµÐ¼Ðµ ÑĨ
Ð¾Ð¼ ÐµÐ½
Ġd Å¾io
Ġun ic
ĠÅ¾ id
Ġro din
ÑīÐ¸ ÐºÐ°
Ġkomis ijos
ĠÐĶ Ð¼Ð¸
ĠÈĻ ef
Ġte ro
ĠuÅ¾duo tis
ĠÐ¼Ð°Ñģ Ð»Ð¾
AT E
ĠÑģÑĩÐ¸ÑĤÐ° ÐµÑĤÑģÑı
ÑĨ ÐµÐ¼
ÐµÐ´ Ñĭ
Ñĩ ÐµÐ½Ð°
Ð¿Ð¸ÑģÐ° Ð½Ð¸Ðµ
ĠÐ¿ÐµÑĢÐµ Ð²Ð¾Ð·
nu tie
ĠÐ¿Ð¾Ð» Ðµ
ĠÐ¿ÑĢÐ¸Ð¾Ð± ÑĢÐµÑĤ
ĠspoloÄį nosti
Ġke is
iaus iu
Ġsub iect
Ġpro gres
Ġcomp anie
ĠS tre
ĠÑĢÐ°Ð·Ð½Ð¾ Ð¾Ð±ÑĢÐ°Ð·
Ġb ici
Ġzm lu
Ġreferi toare
ĠÐ¾ ÐºÑĢÐ°
á»ħ n
S a
or b
ĠÑĤÑĢÐ°Ð½ Ñģ
Ġpl y
c inÄĥ
Ġph Ã¡t
ĠÐ¿Ð¾Ð»ÑĮÐ·Ð¾Ð²Ð° ÑĤÐµÐ»ÐµÐ¹
Ġpov in
Ġd ali
Ġvien oje
ÑĪÐ¸ Ð²
ĠÐ·Ð° ÐºÐ»ÑİÑĩÐ°
ĠÐ²Ñĭ ÑģÑĤÑĥÐ¿Ð°
ĠÄ¯ste ig
ĠÐĴÐ»Ð°Ð´Ð¸Ð¼Ð¸ ÑĢ
Ġpro por
ĠÑħÐ¾Ñĩ Ñĥ
Ġsk un
ĠprÃ¡ ve
Ġvo Ä¾
Ġprodus elor
Ġm ent
Ġclas a
Ð¡ ÐŁ
ĠÐĵÐµÑĢ Ð¼Ð°
Ġce as
Ġsta bil
ĠB ut
ĠH er
Ġstabili t
Å¾ ym
Ġau ks
Åłi uo
ĠÐļÐ¸ ÐµÐ²
ane j
al gi
Ġdes tina
ĠtrÄĥ i
ÑĢÐµ ÑĤÐ°
Ġdom nul
ĠÐ½Ð°Ð± Ð»ÑİÐ´Ð°
áº¡ ng
Å£ area
ĠD or
Ġtimp ului
ĠÐ¿ÑĢÐ¸Ð¾Ð±ÑĢÐµ ÑģÑĤÐ¸
Ñĭ Ð´Ñĥ
ĠÐ¿Ð¾Ð» Ð½Ð¾Ð¼
ate le
ĠÐ² ÐµÐ½ÑĤÐ¸Ð»Ñı
Ġpara met
Ġcau zÄĥ
Ġprasi deda
ĠVis a
Ġprive ÈĻte
tÄĥ Å£ilor
á»ĵ ng
Ð° Ð»Ð°
ĠN um
Ġdid elÄĹs
Ġplat for
â Ķ
Ġecon omice
ra ÈĽi
Ġproc ur
Ñİ ÑĢ
ÑģÐ¿ ÐµÐº
ĠÐ£ Ð¿ÑĢÐ°Ð²
ĠÐ²ÐºÐ»ÑİÑĩÐ° Ñı
Ð¶Ð¸ Ð³Ð°
ĠÑĥÑģÑĤÐ°Ð½Ð¾Ð² ÐºÐ¸
Ġnemok amai
Ġsu tvar
Ġdez bate
pl n
Ġran kas
Ġsim t
Ġve rej
ĠÐ¿Ð¾Ð± Ðµ
Ġservici ilor
ĠÐ² Ð¿ÐµÑĢÐ²ÑĭÐµ
Ġvre un
Ġt Æ°
Ġats ik
st us
Ġmuz icÄĥ
ĠÐłÐ° Ð±Ð¾ÑĤÐ°
Ðľ Ð¸
Ġs inte
ĠatÅ¾ vil
ĠÑįÐº ÑģÐº
Ð²Ð° Ð»Ð¸ÑģÑĮ
ĠÐ¼Ð°ÑĢ ÐºÐ¸
ĠÐ²ÐµÑĢ Ð¾ÑıÑĤ
ÑĢÐ°Ð»ÑĮ Ð½ÑĭÐ¹
Ñį Ðº
Ġau zit
ĠZ Ã¡
ĠÑĩÑĥ ÑĤÑĮ
ĠÐ¿Ð¾Ð» Ð¾Ð²Ð¸
Ġkel nÄĹs
Ġla pte
ĠrÄĥzbo i
ĠpÄĥ rÄĥ
ĠÅłi andien
ĠR aÅ¡
Ġfun dam
ir k
ĠÄį er
ĠÐ¡Ðµ Ð³Ð¾Ð´Ð½Ñı
Ġmo bili
Ġv ak
ov ÄĹ
Ġjo acÄĥ
Ì Ģ
Ġde ÈĻi
ĠÐ·Ð°ÐºÐ°Ð·Ð° ÑĤÑĮ
ĠÐº Ð²Ð°
ĠÐ´Ð¾Ð±Ð° Ð²Ð»Ñı
ĠÑģ Ð²Ð¸Ð´ÐµÑĤÐµÐ»ÑĮ
ĠÐ·Ð° ÑĢÐ°Ð±Ð¾ÑĤ
ĠÐºÐ²Ð°ÑĢÑĤÐ¸ ÑĢÑĭ
ĠÄ¯sp Å«
Ġju ca
Ġm p
ĠÅ¡al Ä¯
Ġgeria usias
ĠÐ¿ Ð»Ñİ
Ġlup ta
Ġdin am
ĠÐ½ÐµÐ·Ð° Ð²Ð¸ÑģÐ¸
Ġsprij in
Ġ {
ÐºÐ¾Ð² ÑĭÑħ
in at
Ð¾Ð±ÑĢÐ° Ð·Ð¸
Ð¿ Ð¾Ð·
Ð½Ð° Ð±
ĠÑĩ Ð°Ð¹
Ġnugal ÄĹ
ĠÐĳ ÐµÐ»Ð°
Ġhod no
Ð»Ð¾ Ðµ
ÑģÑģÐ¸ Ñı
Ð½ ÐµÐ¼Ñĥ
ri ja
ÐµÐ² Ð¾Ð¹
Ġjude catÄĥ
Ã¡ rod
ien a
h ie
194 1
ve le
S P
Ġkeli u
IC I
am ne
Ġsusis iek
ĠgÃ¢n di
ĠR en
Ġsemn at
ĠPag rin
ĠSÄĥ nÄĥ
Ġasocia cijos
ĠÐ»Ð¸ Ð½Ð¸Ð¸
ĠÐ¿Ð¾Ð´ Ð²Ðµ
tur al
ĠÑĨÐ²ÐµÑĤ Ð¾Ð²
Ð¸Ð· Ð²Ð¾Ð´
p ak
Ġpro as
Ġde t
Ġju d
ĠÐ¾ Ð·
ĠiÅ¡ n
ĠTar ptautin
Ġ Èļ
Ġatsi tik
Ġinter val
U B
Ñģ Ð½ÑĭÐµ
ta ras
ĠKlaipÄĹ doje
ch ov
Ġal tern
Ġca f
Ġorganiz area
Ġorigin al
ĠÐ·Ð° Ð²Ð¾Ð´
ĠÑĥÐ¿ Ð¾ÑĤÑĢÐµÐ±
ĠÐ¿ÑĢÐ¾ ÑĨ
ÑģÑĤÐ° Ð»
Ġmon dial
ĠrÄĥsp unde
Ġkalb Äħ
Ġatsp al
ĠÑĢÐ°Ð´Ð¸ Ð°
Ġpartici pa
Ġza bez
Ġk ÄĹ
Ġilg io
ĠÑĥ Ð¼Ðµ
Ġs li
Ġap el
ant ai
ĠCur tea
ĠÐŁÐ¾ÑĢ Ð½Ð¾
Ġjok ios
Ġsky rius
Ġgeriaus iai
Ġg auna
Ġlá» Ľ
c urÄĥ
yb ÄĹmis
ĠLietu viÅ³
Ġprezid entas
ĠC al
ĠÐ¡ Ðº
ĠÐ¾ÑĤ Ñģ
Ðº ÑĤÐ¾ÑĢÐ°
Ð¾ÑĤÐ¾ÑĢ ÑĭÐµ
ĠC ara
Ð¡ ÑĤÐ°
ĠÑĩÐ° ÑģÐ°
Ġconf run
ĠE gi
Ġc áº§n
ĠD r
Ġpom oc
ÐŁ Ð°
Ġar bat
Ġinter viu
ĠmoÅ¾ no
Ġmic ro
K e
tud ine
Ñį Ð¹
Ġelec tor
ÑīÐ¸Ñħ ÑģÑı
Ġtais y
tru k
Å£ inÄĥ
Ġta pat
ĠÑģÐ¿ Ð¾ÐºÐ¾Ð¹
ĠÑĢÐµ Ð°Ðº
Ð¶ Ð½Ð¾ÑģÑĤÐ¸
ĠÐ¼Ðµ Ð¶
d uri
te j
ĠÐ¿ÐµÑĢÐµ Ð¼Ðµ
ÑĢÐ¾Ð² ÑĭÐµ
ĠÑģÑĤÐµÐ¿ ÐµÐ½Ð¸
ĠÐ°Ð¿ÑĢÐµ Ð»Ñı
ĠK Äħ
ĠÈĻti e
Ġpri mena
eik iÅ³
Ġd Å¾iu
Åł is
Ġk edy
ĠA ud
ĠÐ½Ð° ÑĢ
Ġk ÄĹl
Ġf us
f erÄĥ
Ġpo uÅ¾i
ĠÐ» ÑĮ
Å¾ Å³
Ð´Ð° Ð¼
ĠÑĢÑĥ ÐºÐ°Ð¼Ð¸
Ġpui k
li jos
Ġilgal aik
Ġpaci en
Ġpatir tÄ¯
ĠÐ°Ð½Ð³ Ð»Ð¸Ð¹
ĠsumaÅ¾ inti
ĠÐ½Ð° Ñĩ
ĠÐ¿Ð¸ ÑīÐµ
Ġl Ãªn
Ġpl inÄĥ
ĠÑĢÐµÑģÐ¿ ÑĥÐ±Ð»Ð¸
v imu
ur b
Ġp Ã¡
Ð¿ Ð°Ð½
ĠÐĿ ÐµÑĤ
Ġap raÅ¡
Ġnuo laid
s on
ĠÐ²ÑĭÐ¿Ð¾Ð» Ð½
Ġpen al
Ġkoki Äħ
to rat
ĠÃ®ns em
ÐĲ ÑĢ
ĠÐ·Ð° Ð¼ÐµÐ½
ĠÐ· Ð²ÐµÐ·
ĠÐ¶Ð¸ Ð´ÐºÐ¾
ÑĢÐ¾ ÑģÑĤ
ĠÐ·Ð½Ð° ÑĤÑĮ
Ġvi de
ĠÐ´Ð¾Ð» Ð³
Ġele mente
ĠÐ½Ð° Ð¿Ð¾Ð»
ĠÐŃ ÑĤÐ°
ĠÐ Ļ
Ġfi g
Ġdi fici
Ġbe bel
R O
h las
Ġga ta
ĠV I
ĠÐľ ÐµÑĤ
it h
ve ri
ĠB og
Ġnghiá»ĩ p
ĠÅ¡ aukÅ¡
ĠÐ´Ð¾ÑģÑĤÐ°Ð² ÐºÐ¾Ð¹
Ġdrea pta
il no
Ġdrau ge
Ġsuk elia
Ġatsp ar
ĠUten os
Ġmed ie
yn ÄĹs
Ġm ys
Ð¿ ÑĤÐ¾Ð¼
Ġp is
ĠR ed
ĠÄ¯ galio
Ð¾Ð½ ÑĥÑģ
ÑĨ Ð°Ð¼
Ð²Ð° Ð½Ð¸Ñİ
Ġqu a
inti ems
ĠÐ¿ÑĢÐ¸ Ð·
Ðŀ ÐĿ
ĠÐºÐ¾Ð»Ð¸ÑĩÐµ ÑģÑĤÐ²Ð°
ĠÐ¾Ð±ÑĬ ÐµÐºÑĤÐ°
ĠÐ¾ÑģÐ½Ð¾Ð² Ð½Ð¾Ð¼
ĠÐ¾ÑĢÐ³Ð°Ð½Ð¸Ð·Ð° ÑĨÐ¸Ð¹
Ð§ ÑĤÐ¾
Ġs n
ĠPV M
ai Å¡
Ġeil ÄĹs
ĠÐºÐ° Ð½Ð°
Ġpien o
Ġpre fe
ĠÄįas ti
Ġcat re
Ġa to
ĠMok y
Ġproble mele
rÃ¡ t
ĠÑģÑĥ Ð¿ÐµÑĢ
ĠÐ¼Ð¾Ð³ Ð»Ð¸
Ġjed en
ĠN ie
Ã ¼
um p
V e
Ġsta u
o fer
Ġsitua cijÄħ
á» ¹
ĠmÄĥr turi
ent ÄĹ
Ġb esi
ĠÑĢÐ° Ð´Ð¾
ĠÐ½Ðµ Ð´ÐµÐ»Ð¸
áº£ m
ĠÑģÑĤÐ¾ÑĢÐ¾Ð½ Ñĥ
Ġe ÅŁti
od a
p iscop
Ġe ina
ĠbiudÅ¾ eto
ĠÐĶ Ð¸Ð½
l Ã¡d
ĠÅ¾iÅ« rov
Ð³Ð° ÑĢ
N S
eid au
Ñį ÑĢ
Ġaplink Äħ
Ġnu osto
Ġpute Å£i
Ġkam p
Ġs nie
ĠÐº Ð²Ð°Ð»Ð¸
ĠÅ¡ peci
ĠA M
Ġc ase
ĠÑħÐ¸ Ð¼Ð¸
Ġpie le
ĠI e
si une
Ð»ÐµÐ½ Ð½Ð¾Ð³Ð¾
ĠÑģÐ¾ Ñħ
ĠÑģÐºÐ¸ Ð´
Ġrezulta tÅ³
Ġziln ic
Ġob ÈĽine
Ġtyri mai
ĠIo hannis
ÐºÐ° Ð´ÐµÐ¼Ð¸
ĠJ oc
ĠD al
ĠDav id
ÃŃ sk
ĠiÅ¡ aug
tion s
ta tii
ĠÐ± ÐµÐ½
te z
Ġcomerci ale
Ġcoresp un
Ġsutar tis
Ã® nÄĥ
Ġatli ko
Å¡k ite
Ġskai tyti
Ñĥ Ð¿ÑĢÐµ
-- -
Ġcompan ii
ĠÑģÑĥÐ± ÑĬ
Ġsti kl
c inio
ĠmÄĥ n
V ie
Ġapskri ties
Ġi er
Ġtip as
ĠK aÅ¾
ĠÐ¡ ÑĤÐ¾
K AS
ĠneÅ¡io ti
sk om
c al
hn ut
ĠÐºÐ¾Ð¼ Ð°Ð½Ð´
ĠÐ¶ Ð°Ð»
Ġnus teb
ÑĩÐ° ÑİÑĤ
ĠÐ½Ð° Ð³
Ġa ur
Ġdis tru
ÑĤÐµÐ»ÑĮ Ð½ÑĭÐ¼Ð¸
ĠÐ»Ðµ ÐºÐ°ÑĢ
Ġs ala
ro ra
Ð¾ ÑĨÐ¸
ÈĽ iu
ĠÐĳ Ð»Ð°Ð³Ð¾Ð´Ð°ÑĢÑı
Ġsu perio
ĠÐ¼Ñĭ ÑģÐ»Ð¸
ĠC Ã¢
ĠÑģ Ð»Ñĭ
ĠÐ´ÐµÐ²Ñĥ ÑĪÐºÐ°
ĠE a
ĠS ing
ÑĢÐµ ÑģÑĤ
Ġsim pto
ro vÄĹ
ĠA ÅŁa
Ġci f
dÅ¾i Äħ
Ġsva jon
Ġi sp
Ġgra tu
Ġave am
Ġso are
Ġafla te
Ð¼ ÑĥÑĢ
Ġexp er
h ra
á»į n
ĠÑĦÑĥÐ½ ÐºÑĨÐ¸Ð¸
ĠÑģÑĤÐ° ÑĤÐ¸
vi ce
eri e
ĠÐ´ÐµÐ²Ñĥ ÑĪÐºÐ¸
ĠÐºÐ¾ÑĢ Ð¾Ð±
ĠÐļÑĢÑĭ Ð¼
ĠÑģÐ¾ÑģÑĤÐ° Ð²Ðµ
ÐŁ ÐµÑĢÐµ
a je
Ġnu oma
ten a
Ġpreci zat
Ġjau Äįia
Ġa vo
Ġta up
ĠÐ´Ð¸ ÑģÐº
Ð²Ð° Ð¹
Ġmagaz in
Ġmemb rii
Ġkok io
ĠiÅ¡Å¡ Å«k
ĠTar p
Ð´Ð° Ð¼Ð¸
ĠÑĥÐ´Ð° Ð»Ð¾ÑģÑĮ
ĠÑģÐµÐº ÑģÑĥ
ĠÐµ Ð²ÑĢÐ¾Ð¿ÐµÐ¹
ĠÐ²Ñĭ Ð¿Ð»Ð°
Ġb la
ĠÑģÑĥ Ð´ÐµÐ±
ĠB ib
Ġab ord
ĠsÄĥrbÄĥ tori
ĠMun icipi
K as
Ġproble mos
ĠSu dÄĹ
ĠIn spec
Ġpier de
Ġsudar ÄĹ
Ġpareig Å«nai
Ðº ÐµÑĢ
Ġvadov ÄĹ
Ġdail ÄĹs
ĠS P
Ġalt ceva
Ã¡l nych
i ant
ĠÐ· ÑĢÐµÐ½Ð¸Ñı
Ġave au
ĠÐ¿ÑĢÐµ Ð´ÐµÐ»Ð°
o ja
Ġpov estea
ĠÐ´ÐµÑıÑĤÐµÐ»ÑĮ Ð½Ð¾ÑģÑĤÑĮ
O b
Ġpri vat
ĠI z
ĠÐŁ ÑĢÐ¾Ð²
Ð½Ðµ ÑĢÐ°
Ġsp olu
ĠvirÅ¡ utin
ve ghe
ĠÐĺ Ñħ
ĠS ala
Ġateit yje
ĠÅ¾yd Å³
Ġre for
m ir
lal t
Ġteat ru
mie ji
ĠÐ°Ð³ ÑĢÐµ
ĠÅ¡iai p
te li
Ì £
Ġjok io
ĠÐ²Ñĭ Ð²Ð¾Ð´
ĠÐ¿ÑĢÐµ Ð¶Ð´Ðµ
ĠÑĤ Ð¾Ð¹
Ð¾Ñĩ ÐºÐ°
ĠÐ²ÑģÐµÐ¼ Ð¸
ĠÐ¿Ð¾ÑĤÐµ ÑĢÑı
ĠÐ· ÐµÐ»ÐµÐ½
ĠÐ·Ð° Ð¿ÑĢÐ¾
Ð¸Ð· Ð²Ð¾Ð´Ð¸
ĠÐ¾Ð±ÐµÑģÐ¿Ðµ ÑĩÐµÐ½Ð¸Ñı
it Å³
Ġbend rÄħ
Ġteis mo
ĠÐ¾Ð±ÑĥÑĩ ÐµÐ½Ð¸Ñı
Ġcur Ã¢nd
ĠÐ¼Ðµ Ð±ÐµÐ»ÑĮ
Ġkom er
ÑĦÐµÑģÑģÐ¸ Ð¾Ð½Ð°Ð»ÑĮ
Ġfir ma
ĠÃº daj
Ġme can
ĠS ve
Ġlung Äĥ
ĠUkmerg ÄĹs
Ġen tu
ĠJo hn
ĠÐ¿ÑĢÐ¸ Ð²Ð»Ðµ
cu ren
ĠgraÅ¾ us
ĠÃ®ntÃ¢ i
t Ã¢nd
ĠVic tor
ima to
ri ui
ĠS ovie
Ġbi ro
Ġproces as
Ġsufici ent
Ð½ ÐºÐ¸
Ġpoveik io
ĠÐ´ÑĢÑĥÐ· ÑĮÑı
od o
ĠÐ¸ÑģÑĤÐ¾ÑĢÐ¸ Ñı
je ro
Ġcon clu
ÐĴ Ð¸
p rie
Ġtik ra
Ġskat ina
Ġreikal ingas
ĠmÃ¡ y
ĠÐ²Ðµ ÑīÐ¸
an to
le gal
Ġpu tin
ĠÐ¾ Ð²Ð¾
Ġpro ce
ĠpraneÅ¡ ÄĹ
Ġtechnologi jos
Ġlau ke
ĠÑģÑĥÐ¼ Ð¼Ñĥ
Å¡i ch
Ġdeose bit
ĠAl ba
ĠK ok
ĠÑħ ÑĢÐ°Ð½ÐµÐ½Ð¸Ñı
Ġpers pek
Ġni Äį
ĠÑħÐ¾Ñĩ ÐµÑĤÑģÑı
k am
ĠÐ¿ÑĢÐ°Ð²Ð¸ Ð»Ð°
Ð¾Ð½Ðµ ÑĨ
ĠrÄĥ s
ĠÐ²ÑĭÐ¿Ð¾Ð» Ð½Ñı
tu kÄħ
ĠL ED
ÑĢÐ¸ ÐºÐ°
Ġmoky tis
Ġpa ÄįiÄħ
ĠÑĨÐµ Ð»Ð¾Ð¼
Ġinclu de
ĠÑĢÐ° Ð½ÐµÐµ
t ku
or s
tr us
Ġgeriaus ia
ĠG ru
Ġgro Å¾io
ÈĽi al
ĠdeÅ¡im tme
b ii
Ġobsa h
Ġlais valaik
ĠIn di
ĠÑģÐµÑĢ Ð´
Ð½Ñĥ ÑĤÑĮÑģÑı
Ġ ono
ĠÐ¿ÑĢÐ¾ÑĤÐ¸Ð² Ð¾Ð¿
ĠÑģÐ¾ ÑĢÐµÐ²
Ġcul ori
Ð¿ Ð¿
Ġnh áºŃn
ĠBiseri cii
ĠÐ¿ÑĢÐµÐ´ ÑģÐµÐ´Ð°
Ġvia ta
ĠiÅ¡ kart
ĠVis os
Ġligon inÄĹs
Ġvzn ik
Ġapskri tai
Ġop in
Ġci tit
J au
ĠÐĹ Ð°Ðº
dÅ¾ia ma
Ġtá» ±
g au
ĠUS B
Ñĩ Ð½ÑĭÐ¼Ð¸
Ġfut bolo
Ð¡Ðµ Ð³Ð¾Ð´Ð½Ñı
ĠÐ²Ñĭ Ð±Ð¸ÑĢÐ°
ĠÐ¼Ð°Ñģ Ð»Ð°
Ð² ÑģÐµ
ĠD umit
p iu
ĠÐŀ Ð´Ðµ
ĠÐ²Ð¾ ÑģÑĤ
Ġo port
Ð¿ Ð»Ð¾Ð¼
Ġc alea
K l
ĠÐ¿ÑĢÐµÐ´ÑĥÑģ Ð¼Ð¾ÑĤÑĢÐµÐ½
esn io
ĠO l
Ġn aik
ov ei
ĠÑĤÐµÐº ÑģÑĤ
Ġdid elÄ¯
ko Ä¾vek
v iams
Ġt un
Ġpuo l
Ġpatir tis
ari lor
Ġe la
ĠÑĢÐµ Ð°
m elor
Ġluc reazÄĥ
Ġdirec tor
a gÄĥ
g omis
ĠÐºÑĢÐ¾Ð² Ð¸
k liai
Ġsal ÄĹje
ĠSa vo
Ġna ÈĽional
ĠÃ®nce arcÄĥ
ĠÐ°Ð½Ð°Ð» Ð¾Ð³Ð¸
Ġcu p
ĠÐ²Ð¾Ñģ Ð¿ÑĢÐ¸
Kaun o
ĠÐ¼ Ð¾Ðµ
Ñģ Ñĳ
Ġv az
Ġs ank
Ð³Ð¾Ð² Ð¾ÑĢ
ĠÑģÑĢÐ¾Ðº Ð¸
ĠO ficial
Ġco rect
ven im
ĠstÃ¡ le
ĠsÄħraÅ¡ Äħ
Ġpers pec
Ġskiri asi
ĠAu tori
Ġver tÄĹs
t ÃŃv
ĠÐ»ÑĥÑĩ ÑĪÐ¸Ðµ
ÄįÃŃ ta
Ġd uris
ĠrÅ« Å¡iÅ³
tuo jan
Ġpov ed
pri klausom
Ġs ani
l ome
ĠÐ´ Ð¾ÐºÐ°Ð·Ð°
ĠÐ·Ð½Ð° Ð¼ÐµÐ½Ð¸
ĠÐ§ ÐµÐ¼
id i
ÐĲ ÐĿ
ĠT inka
osi te
Ġmin tea
Ġmun ca
Ġnu tari
Ġprostre d
ĠÅ¾ie mÄħ
Ġrezul tatele
12 5
ĠneÄ¯ manoma
âĶ Ģ
Ġkom for
Ġmerg inos
st ro
pl Äĥ
Ġsp ol
ĠÑĤÐ¾ÑĢ ÑĢÐµÐ½ÑĤ
ĠAus tri
199 5
ÈĽ inÄĥ
Ġnen us
ĠÐ¿ÑĢÐ¾ÑĨÐµ ÑģÑģÐ°
Ġvai ky
ĠÐ¼ÐµÑĤ Ð¾Ð´Ð¸
ĠÐ½Ð°Ð»Ð¸ÑĩÐ¸ Ðµ
Ġsprend imo
ĠÑĦÐ¸Ð»ÑĮ Ð¼
b ine
ateÄ¾ ov
Ġo di
Ġsavai tÄĹs
Ġsudar yti
ÑĤÐ¸ Ð²Ð¸
ÄĹj osi
Ð°Ð»ÑĮ Ð½Ð°Ñı
Ġz one
ÑĦÐ¸ÐºÐ° ÑĨÐ¸Ð¸
ĠÐ¡ Ñĭ
to liau
Ð²Ð¸ Ð»Ð¸
v ic
ie ka
s ia
Ġap dai
Ġre ferend
Ġcon ven
an Äįias
Ġat ras
Ġpavasar Ä¯
Ġinter n
ĠÐº ÑĢÐµÐ¼
ĠÐ²ÑĭÑģÐ¾Ðº Ð¾Ð¹
ĠÐļÑĢÐ°Ñģ Ð½
ĠÑģÐ¿ÐµÑĨÐ¸Ð°Ð»Ð¸ ÑģÑĤÑĭ
Ġpaskelb ÄĹ
Ġin cep
ĠÐ°Ð´ÑĢÐµ ÑģÑĥ
ĠK ÄĹda
Ðº ÑĤÐ°
Ġvie ÈĽii
Ã ¶
ĠÐ² Ð½ÐµÑģ
ĠÐ¿Ð¾Ð´ ÑħÐ¾Ð´Ð¸ÑĤ
Ġcons ilie
ĠÐ±Ð°Ð· Ðµ
Ġnuos av
ÈĻ Äĥ
á» «
Ð¼Ð¸ Ð½Ð°
l on
ĠÐ²Ð¾Ð´ Ð¾Ð¹
Ġobser va
ri p
Å¡i Å¥
ĠAnd re
x y
' ,
Ġar tÄĥ
Ġmeto d
Ġod bor
li ja
mis i
Ġto li
Ġf antas
Ð¼Ð° Ñħ
ĠM or
ĠÐ¿ Ñĭ
Ð¾Ð² Ñĭ
ĠÑĥÑģÐ»Ð¾Ð²Ð¸ Ð¹
ĠÑĤÐ¸ Ð¿
ÑĨ ÐµÐ¹
Ġ ÈĽine
ĠS amsung
ĠÐ¿Ð¾Ð¼ Ð¾ÑĩÑĮ
Ð¿Ð° Ð·
ĠÐ¾ÑģÐ½Ð¾Ð² Ð½ÑĭÑħ
Ġnom in
ĠÐ·Ð½Ð° ÐµÑĤ
ĠPer so
ĠÐ´ ÑĢÐµ
ria usias
Ġpu os
Ġlum inÄĥ
Ġcal cula
Ġd Å¾ins
Ġsitu at
Ġtra k
Ġne di
ĠVytau to
ĠÐ¿Ð¾Ð»ÑĥÑĩÐ¸ Ð»
ĠÐŀÑģ Ð¾Ð±
Ġpasi bai
ĠatÅ¾vil giu
Ð½Ðµ ÑģÑĤÐ¸
Ġkontro lÄĹs
Ġne tink
ĠÐ¾ÑĤ ÑĤÐµÐ½
ĠÐ¸Ð½ Ð¶ÐµÐ½
ĠÐ¿Ð»Ð° ÑĤ
Ġur mat
ĠÐ¾Ñģ Ð½Ð°
ĠÐ¾Ð±Ð»Ð° ÑģÑĤ
ĠÐĵ Ð¾Ñģ
ĠÐľÐ¾ÑģÐºÐ¾Ð² ÑģÐºÐ¾Ð¹
ĠPN L
Ġa ks
ĠÐºÐ° Ð»ÐµÐ½
Å£ are
Ġautomobil is
Ġc ic
Ð¶ ÑĥÑĤ
ĠM ind
em ei
r n
Ġmoky tojÅ³
ĠromÃ¢ne ascÄĥ
t Ãº
ĠtÃ½ Å¾
Ð¾ÑĤ Ð¾Ðº
ĠN iek
ĠÐ½ÐµÐ¿Ð¾ÑģÑĢÐµÐ´ ÑģÑĤÐ²ÐµÐ½Ð½Ð¾
ĠÐ½ÐµÐ´Ð¾ ÑģÑĤÐ°
ĠÐ¿Ð¾Ð´ Ñģ
ĠÐ°ÑĢÑħÐ¸ ÑĤÐµ
Ġs ÃŃ
ĠÑĢÐµÐ·ÑĥÐ»ÑĮÑĤÐ° ÑĤÑĭ
Ñĩ ÐµÐ½Ð¸Ñİ
Ġl ent
ĠÑĥÑĩ ÐµÐ½Ð¸
ĠMoni torul
ĠÑĪ ÑĤ
ÅŁedin tele
Ġs Å«
da vÄĹ
Ġabsol ut
Ġremon tas
ÑĤÐ¾Ð² Ð¾Ð¹
z el
ĠL aik
Ġpos led
L E
Ġna chÃ¡dza
Ġh and
ki as
Åłi andien
ys is
ang Å³
t Ã©
Ġal imentare
Ġlic en
ĠÐ¶ÐµÐ½ÑīÐ¸ Ð½Ð°
Ġsco ate
ĠÅ¥ aÅ¾
Ġdo rit
ĠÐ¸Ð·Ð²ÐµÑģÑĤ Ð½Ð¾
ĠÐ°ÑĤ Ð¼Ð¾Ñģ
Ġc Ã®nd
ĠmiÅ¡k e
Ġvien am
ÑĤÐ¸ ÑĤ
Ġbal ty
1 15
Ñį ÐºÐ¾Ð½Ð¾Ð¼Ð¸
ĠÄ¯sipareig oj
Ġbi áº¿t
Ġprie teni
ĠÐ´ Ð¾Ð±Ð¸
x tul
Ġim un
ĠNK VD
sk io
ĠZ iua
ĠlÄĹk tu
Ñı ÑĢ
ĠÐ¿ÐµÑĢÑģÐ¾Ð½Ð°Ð»ÑĮ Ð½ÑĭÑħ
ĠÐ´Ð¸ Ð½Ð°Ð¼Ð¸
ÑĢÐ¾Ð² Ð¾Ð¹
Ġbendro vÄĹ
ĠÐļ Ð¾
ĠÑĢÐ°ÑģÐ¿ Ð¾Ð»Ð°Ð³Ð°
ĠÑĢÐµ Ð·Ð¸
Ġc ari
ÑģÐºÐ° Ð·Ð°
ĠÐ¸Ð· Ð´Ð°
ĠV Ã½
l ÃŃ
Ġace lea
ĠÄĳ Ã¢y
uk u
ĠÐ¸Ñģ ÑħÐ¾Ð´
ĠPrimÄĥ ria
ĠÑĤÐºÐ° Ð½Ð¸
Ġsvei ka
ÑĢÐ¾Ð²Ð°Ð½ Ð½ÑĭÐ¹
Ġsusij ÄĻ
zÄĥ toare
Ġata c
Ġats iras
ĠÐ·Ð° Ð¹
ÅŁti lor
ĠiÅ¡ tek
ĠÐ²ÐµÑĢ ÑģÐ¸Ð¸
in ame
Ġpre o
ĠÐºÐ° Ð±Ð¸Ð½
ÑĥÑİÑīÐ¸ Ñħ
ĠÐ²Ð¸ Ð´Ñĭ
st os
ĠÑģÐ° Ð¼Ð°
V as
ÑĤÐµÐ»ÑĮ ÑģÑĤÐ²
Ġsveta inÄĹs
j oms
tuo tas
u osius
Ð¼ÑĥÐ»Ñı ÑĤÐ¾ÑĢ
ĠÄ¯vairi as
19 18
imen tele
Ġide al
Ġp es
ĠÑģ Ð´Ðµ
Ġde rul
Ġve Ä¾a
Ġop tim
Ġflo ri
Ġau di
ĠÐ°Ð´ Ð¼Ð¸Ð½Ð¸ÑģÑĤÑĢÐ°ÑĨÐ¸Ð¸
ĠÐ°Ðº ÑĨÐ¸Ð¸
ĠÐ³ÑĢÑĥÐ¿ Ð¿Ð°
ĠÑĥÐ²Ð¸ Ð´ÐµÑĤÑĮ
ĠÐ´ÐµÐ»Ð° ÑİÑĤ
ĠÑĨÐµ Ð»Ð¸
ĠÐ³Ð¾Ð²Ð¾ÑĢÐ¸ ÑĤÑĮ
Ġteik ti
ĠÄį in
ĠÐº Ð²
ÑĪ ÐºÐµ
ĠÐ¿Ð¾ ÑģÑĤ
Ġmodific Äĥrile
Ġri t
ĠÐ±ÑĥÐ´ ÐµÐ¼
Ġteis es
ÑĮ ÐµÑĢÐ°
Ġie f
ĠÐĹÐ°ÐºÐ°Ð·ÑĩÐ¸ Ðº
Ð»Ð° Ð±
Ġnumero ase
j uoti
C H
Ġminute s
Parduo du
Ġze ci
Ġac cident
Ġmie go
Ġste bu
V P
Ġsvo ju
Ġd Å«
ÑĪÐ° ÑİÑĤ
ÑĢ ÐµÐ½Ð¸Ðµ
Ð² Ð¾Ð¼
nÃŃ ka
ĠÐ¿Ð¾Ð¼Ð¾Ð³Ð° ÐµÑĤ
ĠÃ Ń
Ġas pek
Ð²Ð° Ð»ÑģÑı
ÑĤÐ° ÐµÑĤ
ĠÐ²Ð¾Ð¿ÑĢÐ¾Ñģ Ð°Ð¼
ol Ã³
ĠÐ¿ÑĢÐµÐ´ÑģÑĤÐ°Ð²Ð»ÐµÐ½ Ñĭ
Ġpe ties
te rii
do riÅ³
ĠP ers
ĠÑħ Ð»Ð¾Ð¿
ĠRe gi
Ð¡ ÐĲ
Å¡ as
Ð± ÐµÑĢÐµ
Äįi te
Ã³ a
Ġvald ybos
ĠÐ·Ð° ÑĤ
ĠR as
lan da
ĠS ky
Ġsitua Å£ia
Ġlaikotarp iu
ĠK ult
Ġsup ran
Ġinstitu cijÅ³
Ġmuz ika
Ġa ra
ĠcÄĥ ruia
tick Ã©
dom os
ĠJude Å£ean
ĠLe gii
ĠÑĥ ÑĩÐµÐ½
Ġdom ici
ÑĢÐ¾Ð²Ð°Ð½ Ð½ÑĭÐµ
ĠÐĽ ÑĥÑĩ
Ġod Äħ
v re
ĠÐ¸ÑģÐ¿Ð¾Ð»ÑĮÐ·Ð¾Ð²Ð° Ð½Ð¸Ð¸
ĠÑĥ ÑģÑĤÐ¾Ð¹ÑĩÐ¸
ÑģÐ¿ Ð¾ÑģÐ¾Ð±
Ġiubi re
ĠÐºÑĥÐ»ÑĮ ÑĤÑĥÑĢ
ĠÑį ÐºÑĢÐ°
ĠK odÄĹl
ĠÑĪ ÑĤÑĥ
Ġcolabo rare
in Å£e
Ġel g
Ġsavivald ybiÅ³
ĠÐ¿Ð¾Ð´ ÑħÐ¾Ð´
Ð»Ð¾ Ð½Ð°
une rea
Ġskai tmen
vi te
ĠÅ Ī
g am
Ġbal dÅ³
Ġechip ei
ĠÄ¯ta kos
Ġats arg
pov ed
Ġins pek
ĠÐºÐ¾Ð¼ Ñĥ
Ġde ti
ĠÑĦÐµÐ²ÑĢÐ° Ð»Ñı
w it
ĠÐ±Ñĭ Ð²Ð°ÐµÑĤ
Ð´Ð¸ Ð¹
Ð³ ÐµÑĢ
Y S
ĠÐ»Ð¸ ÑĩÐ½Ð¾
Ġcaracteri sti
ĠÐº Ð¾Ð¿
Ñį Ð½ÐµÑĢ
oni ce
ĠMari us
Ġexp lica
ÐĶ ÐĲ
Ð¢ ÐŁ
ĠAle ks
u ÅŁ
co ala
N apoca
im os
ĠÅł Ä¯
ĠÃ®nd rep
Ġreik ÄĹjo
Ġsutar ties
ĠAc este
ĠdesfÄĥÈĻ ura
194 0
Ġschim ba
Ġoblas ti
Ġcontin ua
Ġra k
Ð¾Ð¼ ÐµÑĤ
Ð¸ Ð»Ð°
iÅ³ s
ĠvÃ½ sled
Ġz naÄį
ÑĢÐ¾Ð²Ð° ÑĤÑĮÑģÑı
ĠÑĥ ÐºÐ°Ð·ÑĭÐ²Ð°
Ġcar tea
ĠÐ¼Ð°ÐºÑģÐ¸Ð¼Ð° Ð»ÑĮÐ½Ð¾
Ġh ay
fic ul
ĠÐ¾Ð± ÑģÑĤÐ¾Ñı
tat ÄĹ
Ã ļ
an Å³
ĠÐ±ÑĢÐ¸ Ð³Ð°
ĠÐ½ÐµÐ´Ð²Ð¸Ð¶Ð¸ Ð¼Ð¾ÑģÑĤÐ¸
Ġnatur al
Ġnes p
Å¾ us
tu ku
Ġnaudo jama
Å£i unile
ĠÐ¾ ÑĢÑĥÐ¶Ð¸
ĠPri ma
ÑĢÐ¸ Ñģ
ĠÐºÐ° Ð´
Ð¾ÑĢ Ð¾Ð¼
Ð¾Ñĩ Ð½Ð¾Ð³Ð¾
ĠÐ¾Ð± ÑīÐµÐ¼
ĠÐ¼ÐµÑĤ ÑĢÐ¾Ð²
ĠÐ¼Ð°ÑĢ ÑĪÑĢÑĥ
ĠÐºÐ¾Ñģ Ð¼ÐµÑĤÐ¸
ĠÐºÐ°Ð½ Ð´Ð¸Ð´Ð°
Ġtechn ikos
Ġtur ne
col ar
ĠK up
Ġmanag em
ĠP ute
ĠkaÅ¾d Ã½
il ai
ĠParlam entului
Ġnh i
Ġfru muse
gi us
ĠT ine
Ð¦ ÐµÐ½ÑĤ
n iausiai
ĠÐł Ñĭ
g ale
Ġ- >
ÄĻ sti
ĠGy ven
199 6
Ġcap ul
ĠÃ®n Äĥl
Ġmo arte
Ġpad ÄĹjo
u ky
Ġlen kÅ³
ĠÃ ļ
ĠÐ¸Ð· Ð±Ðµ
ĠA R
ĠC red
ĠÑģÐ¾Ðº ÑĢÐ°
ĠÐ·Ð°ÑıÐ²Ð¸ Ð»
ĠÐºÐ°ÑĤÐ° Ð»Ð¾Ð³
Ġat ran
ĠÐ± ÑĢÐ¾
ĠÄıal Å¡ie
Ð¡ Ð°Ð¼
ĠÄ¯vai rius
Ġconduce rea
Ġnau jus
Ġdeparta mento
Ġapri bo
tin ei
Ġmo artea
ĠT op
ĠmÄĥn Ã¢n
Ġre kon
ju je
l ÄĻ
usi te
Ġci vili
ĠÑģÐ¼Ð¾Ð¶ ÐµÑĤ
Ãº Å¥
ĠÐ¤ Ð°
Ġindic a
ie ÅŁti
ĠpaÅ¾ ad
ĠÑĢÐ° ÑģÑĤÐ²
Ġsta bile
ĠÄ¯ta mp
inan tis
ĠÐ¿ÑĢÐ¾Ð´Ð° Ð¶
ji ch
te ne
ĠÐĳ Ð°ÑĢ
Ġvanden iu
ĠÐ°Ð·Ð° ÑĢÑĤ
S ta
ĠD on
3 50
Äį nÃ¡
Ġne l
Ġpra b
Ġnereik al
Ġlum ina
Ġk uomet
Ġnori u
gra m
Ġmok ÄĹti
ĠÑį Ð¼Ð¾
Ð¾Ð· Ñĭ
Ġcerce tare
ĠB lu
ÑĢÐ¸ Ð»
Ġsuim tas
ÑĪÐ¸ ÑĤÐµ
ĠÐºÐ¾Ð½ÑĤÑĢ Ð¾Ð»Ñı
Ð´ Ð¾Ð²Ð°
ĠÑģÐ»Ð¾Ð²Ð° Ð¼
ĠPat ri
Ð²Ð¾Ð» Ñİ
ĠL an
Ġprofes or
ĠÐĲ Ð½Ð³
Ġv inÄĥ
ÐĽ Ñİ
ĠCam pion
ĠÄį lÃ¡n
ĠÐ¿ ÐµÑĤ
Ñħ Ð¾Ð¹
Ġtot alÄĥ
Ġpre sa
ĠW i
ĠÐ³Ð¾Ð²Ð¾ÑĢ ÑıÑĤ
Ġpris imin
Ġfiind cÄĥ
ĠMir cea
in imui
Ġthi áº¿t
Ġpap asako
Ġparti d
pl ink
ĠS E
Ġspeci alitate
Ġtur bÅ«t
ĠÐ¸Ð· ÑĥÑĩ
Ð±Ð¾ ÑĢÐµ
ĠÐ¿ÐµÑĢÐ² ÑĭÐµ
ĠÐ¿Ð¾ ÑģÑĤÐ°Ð½Ð¾Ð²
ĠI m
ÐºÐ¾Ð² Ð¾
ĠCrai ova
Ġh rÃ¡
Ġnaudo ja
Ġpalik ti
jaus ty
ĠBratis la
Ġuniver si
en as
Ġnep aÅ¾
sn is
Ġal Å£ii
ĠÐ¾Ð± Ð¾Ð¸
Ġs ind
Ġfin alul
uri e
Ġcomple x
Ġmin te
ĠT om
Ð½ Î¿
ĠÐ¿Ð¾ Ñį
Ġne de
Ð¸ Ðµ
ĠÐ¿ÐµÑĢÐµ Ð²Ð¾Ð´
ĠÐ¼ÐµÑĤÐ°Ð» Ð»Ð¸
ĠÑĢÐ°Ð±Ð¾ÑĤÐ° ÑİÑĤ
ĠÐ³Ð¾ÑĤÐ¾Ð² Ñĭ
Å¾ od
ĠtÃ½ch to
! "
Ġnor ma
ĠÐ± Ð»Ð°Ð³Ð¾Ð´Ð°
Ġes i
q uo
Ð²Ñĭ Ð¼Ð¸
t ran
Ġpo k
ten ka
ĠÐ¾Ð´Ðµ Ð¶Ð´Ñĭ
Ġalim ente
Ġties a
ĠzÃ¡ k
Ġs idab
po j
Ġsri ties
Ġteat ras
ĠÑĢÐ¸ ÑģÐº
Ġluc ra
ie rul
Ð·Ð¸Ð´ ÐµÐ½ÑĤÐ°
ĠÑĨÐµ Ð»ÑıÑħ
ĠÑģ Ð¾Ð¶
ĠÐºÐ¾Ð¼Ð°Ð½ Ð´Ñĭ
ĠÑĢÐµÐ¶Ð¸ Ð¼
ĠÐ½Ð¾ ÑĥÑĤÐ±Ñĥ
ĠTrai an
Ð¸Ð½ ÑĤÐµÑĢÐµÑģ
Ġschim bat
el o
ĠTre buie
ĠÑģÑĤÐµÐº Ð»Ð¾
ĠiÅ¡s irink
Ñİ Ð·
Ġlietu vi
Ġsocie tate
Ġsu Å¾e
Ġl yd
ĠmaÅ¾ as
v ina
Ġpal aik
Ġsm Å«
w o
ĠraÅ¡ ÄĹ
eli us
Ġmar ca
Ġin terior
h ia
Ġre alitate
Ġim peri
Ġpas itrauk
ĠG ir
Ġdok on
áº¥ u
Ġneg ru
ĠÐĳ Ð¾Ð³
Ġna ÅŁte
Ġpasiek ÄĹ
ĠÐ° Ð´Ð°
ĠÐŁ Ð¾Ð¿
Ġsa ky
mÃ¢n tului
res s
ĠsiÅ« ly
Ä Ħ
Å¾ iausia
im ÄĹs
za j
Ð¼Ð° ÑĤ
Ñİ Ð·Ð°
á»ĩ nh
ĠM ol
ĠAn tanas
ĠInter ne
Ġbendradarbia vimo
yst ÄĹ
Ġf atÄĥ
ĠA na
Ð»Ñı Ð±Ð¸Ð½
ren ie
Ñı Ð·
Å£i al
Ġas or
ĠA li
Ġpre l
Ð³Ð¸ ÑģÑĤÑĢÐ°
ia usius
c y
kra us
ĠE g
Äį nÃ©ho
Ġxu áº¥t
ĠÄ¾ ah
ĠÐ¸Ð½ÑģÑĤÑĢÑĥ Ð¼ÐµÐ½ÑĤÐ°
ĠÐ¡ ÐŁ
Ð³ Ð¾Ð¼
tu vÄĹ
Ġtre m
iÅ¡k a
as h
Ġintele k
n ostÃŃ
ÑĢÐµ Ð»Ð¸
ĠÑĢÐ°ÑģÐ¿ ÑĢÐµÐ´Ðµ
mp o
Ġne con
g ys
Ð´ÐµÑĢ Ð¶Ð°
Ġs or
Ġpo atÄĥ
C E
ĠValstyb ÄĹs
g and
Ġnuom one
Ġsecuri tate
ĠSlov ens
ĠAr ticolul
Ġsprij inul
Ġtelevizi jos
ĠÅ¾ie mos
Ġna Å£ionale
ĠÐ´Ð¾ÑģÑĤÐ¸ Ð³Ð°
Ġb áº£o
ĠÐºÐ¾Ð¶ Ñĥ
ĠÐ¿Ð¾Ð´Ð°ÑĢ Ð¾Ðº
ĠCl ub
ĠÐ¿ÑĢÐ¾ ÑģÑĤÐ¸ÑĤÑĥÑĤ
Ġa li
Ð¾ ÑĩÐ¸
h ne
ĠÐ¡ ÑĢÐµÐ´
ĠÐ¾ÑĤÐ»Ð¸ ÑĩÐ½Ð¾
ĠÑĦÐ¸ Ð»Ð¾Ñģ
Ġklub as
i as
ĠÄĮ e
ĠuÅ¾ im
ĠÐ¿Ð¾Ð» Ð½Ð¾
Ġp ÃŃs
T ra
um ului
ĠÐ¢ Ð¾ÑĢ
Ġdid ac
ÑģÑĤÐ° Ñı
bil a
ÑĢ Ð½ÑĭÐµ
Ġr Ã¡m
Ġcandid a
Ġl ovi
Å£a ra
ĠpreÈĻedin tele
Ġvaland Å³
t osios
z naÄį
ĠÐłÐ°Ð· Ð¼ÐµÑĢ
in er
ĠÐ¿ ÑıÑĤÐ¸
Ġneces arÄĥ
ĠÑĥÐ´Ð¾Ð² Ð»ÐµÑĤ
ĠÑĤÑĢÐµÐ± ÑĥÐµÑĤ
ÑĢÐ°Ð· Ð´Ð¾
ĠÐ¨ Ð°
Ġband y
iam ÄĹs
on da
ÑģÑĤÐ¸ ÐºÐ¸
ur se
Ġfe ti
ĠÐ¸ÑģÑĤÐ¾Ñĩ Ð½Ð¸ÐºÐ°
ĠÑģÑĤÑĢÐ° Ð½Ð¸ÑĨÐµ
ĠOrg aniza
Ġdez vÄĥ
o fi
Ġexperien ÈĽÄĥ
Ġvaik ais
Ġameri kie
ĠÅ¾emÄĹ lap
ak e
Ġdide lio
Ġarch y
Ġdaug elio
Ð¦ Ðĺ
ti mai
ÐµÑģÐ¿ Ð»Ð°ÑĤ
Ðĳ Ðŀ
Ġvii toare
l are
i an
ĠÐ¾ÑĤ Ð´Ð°
ot h
ĠRad u
ĠA ÈĻa
ĠÐ½ Ð¾Ð¶
ĠÐ²Ñģ ÐµÐ¼Ñĥ
ĠÑĩ ÐµÐ¼Ñĥ
ĠÑĢÐ¾Ð´Ð¸ ÑĤÐµÐ»ÐµÐ¹
ĠÐ¿ÑĢÐ¾Ð² ÐµÑģÑĤÐ¸
Ġe du
Ġlun gi
cun os
ĠÐ½ Ñĭ
ĠÐ·Ð° Ð¼ÐµÑĤÐ¸
ĠÐ½Ð° ÑģÑĤÑĢÐ¾Ð¹
Ġobiec tiv
Ġini ÈĽia
Ġmergai tei
ĠÑĢÐ°Ð·Ð¼Ðµ ÑīÐµÐ½Ð¸Ñı
Ġoch ran
Ġtrans fer
ĠG am
Ġpat ais
ĠÐ´Ð¾ÑģÑĤÐ°Ð² ÐºÐ¸
Ġgal vÄħ
al aus
Ð½Ð° ÑĩÐµ
ĠL eng
Ġobjek tÅ³
Ġpra v
ĠRe gul
tu ale
do i
ÑīÐ¸ Ð½Ð°
ĠcÄĥ rora
P at
Ġgi an
Ġsky s
Ġsocie tatea
ĠÐºÑĢÐ° Ñı
id as
Ġno ÈĻtri
Ð§ ÑĤÐ¾Ð±Ñĭ
ĠÐ¼ÑĥÐ¶ ÑĩÐ¸Ð½
ĠmÄĥs ura
Ġma ksim
ĠÅ¾od Å¾iÅ³
tik Å³
Ġele vi
ĠÐ¸ÑĤ Ð¾Ð³Ðµ
C Ã¢nd
!! !!
ÑģÐ¾ ÑĤÐ°
ĠAt si
Ġec ran
re ia
ĠÑĢÐ°Ð·Ð´Ðµ Ð»Ðµ
Ġsen a
sta v
ĠzÃ¡ kaz
ĠÈĽÄĥ ri
C o
g ie
Ġro g
Ġapa rat
in asi
ĠÐ¿Ð° ÑģÑģÐ°
on uose
ĠÅ¾mon ÄĹmis
ĠÑĢÐ°Ð· ÑĢÑĥ
tel Ä¯
F or
Ð»Ð° ÑģÑĤÐ¸
Ġpatal p
Ġk inh
kaus kas
ĠÐļ Ð¸ÑĤÐ°
Ġleg ale
ĠÐ¸Ð· Ð¼ÐµÑĢ
Ġsen sul
ĠÐ¼Ñĭ Ñģ
ĠÐ²Ð¾ÑģÐ¿ Ð¾Ð»ÑĮÐ·Ð¾Ð²Ð°
Ñģ Ð°Ð¼
ĠÑģÐµ Ð²ÐµÑĢ
Ġre p
ĠÐ¾ÑĤ Ð´ÐµÐ»Ð°
ĠÐ¿ÑĢÐµÐ´ ÑĭÐ´Ñĥ
ĠÐ²ÑĭÐ¿Ð¾Ð» Ð½ÐµÐ½Ð¸Ñı
Ġ= >
Ġkre d
ÑģÑĤÐ¸ ÑĩÐµÑģÐºÐ¾Ð¹
ĠÃ®nc on
ĠGuver nul
ĠÃ®n ve
Ġmar keting
ĠY ou
Ġt Ã¢m
ĠTimi ÅŁ
Ġnetru kus
ĠS uk
ink e
ĠComis ia
Ġfinans Å³
ĠU cra
Ġpr alai
Ġpristaty mo
Ġlenk tyn
ĠÐ¾Ð¿ÑĤÐ¸ Ð¼Ð°
ĠM ana
Ġamb ele
Rom Ã¢n
Ġal co
ĠÐ¢Ðµ Ð»Ðµ
ĠÐ¡ ÐľÐĺ
ÑĤÐ¸Ð² Ð½Ð°Ñı
Ð¶ ÐµÐ½Ð¸ÐµÐ¼
Ġmedviln ÄĹ
ĠÐ¢ Ð¾Ð³Ð´Ð°
ĠÑĤ ÑīÐ°
ĠÑĢÐ¾ ÑģÑĤÐ°
Ġvaik u
tu a
Ġkei Äįia
Ġpam inÄĹti
Ġkonkur so
rej me
Ġsus tiprin
uje me
ĠÑĦÑĥÑĤ Ð±Ð¾Ð»
Ã Ĥ
I U
Ġmemb ri
and ar
tik ai
Ġlie men
Ð²Ð° Ð¶Ð°
Ð»Ñı ÑĨÐ¸Ð¸
ĠÐ¾ÑģÑĤÐ° ÐµÑĤÑģÑı
ĠÅ¾ av
Ġtink lo
ĠL ik
Ð´Ð° Ñħ
Ġconstitu ie
ĠÐ¿ÑĢÐ¾ÑĤÑı Ð¶ÐµÐ½Ð¸Ð¸
ĠMan au
Ġnau jai
OT O
ĠÑĩÐ¸Ñģ Ð»Ð¾
ĠÐ½Ð° Ð³ÑĢÐ°
ĠMed ia
ĠÐ¸ÑģÐ¿Ð¾Ð»ÑĮÐ·Ð¾Ð²Ð° Ð½Ð¸ÐµÐ¼
ĠÐ£ÑģÐ»Ñĥ Ð³Ð¸
ĠÐ¿Ð¾ ÑģÑĤÑĢÐ°
Ġcompor tament
ĠÑģ Ð°Ð»
amo jo
ĠÄ¯ mok
ĠDie vas
ĠBla ck
il ÄĹ
Ġmies tÅ³
V ai
Ġcon ÈĻti
C D
aujan tis
ĠP aris
Ġpagrindin is
Ð¾Ð±ÑĢÐ°Ð· Ð¾Ð²Ð°
Ġo rele
ĠAl b
Ġpod por
ĠÐ´ ÐµÐº
ÑģÑĤÐ° Ð¼Ð¸
ĠÐºÐ¾ÑĢ Ð¿Ð¾ÑĢÐ°
ĠÐ¼ÐµÑħÐ°Ð½Ð¸ Ð·Ð¼
ĠÐ¾ÑĤÐ¼ÐµÑĤÐ¸ ÑĤÑĮ
ĠÄį len
ĠÐ¿ÑĢÐ¾Ð¸Ð·Ð²Ð¾Ð´ ÑģÑĤÐ²Ð¾
ĠÐ¿Ð¾Ð´ Ð½Ñı
ĠÐ¢Ð° ÐºÐ¸Ð¼
Ġmemb re
Ġglo bos
gh t
ĠÐĽ ÐµÐ½Ð¸Ð½
tori u
. [
ĠA P
' s
ÑĢÐ°Ð· Ð´Ðµ
Ġdrau gÅ³
Ġl as
ruo ti
to ms
Ġmat osi
ĠbÅ« klÄĹ
Ġx e
to me
Ð½Ð° ÑĩÐ°
Äĥs escu
Ð¶Ð´Ð° Ñı
Ð± Ð°Ð¹
Ġini Å£ia
en iu
Ġreikal inga
ĠÐ´Ð²Ñĥ Ð¼Ñı
Â ©
ÐŁ ÑĢÐµ
Ġpubli catÄĥ
am us
ĠÐĸ ÐµÐ½
ĠÐ¾ÑĤ Ð¿Ñĥ
ĠÑģÑĢÐ°Ð² Ð½ÐµÐ½Ð¸Ñİ
Ð± Ð¾Ðº
ing e
Ġtoki as
ĠBra ÅŁov
rÄĥ rii
A pie
ĠS tas
ĠÐ¾ÐºÐ°Ð·Ð° Ð½Ð¸Ñı
cu resti
ĠnuÅ¾u dytas
tiÅ¡k a
Ð¾ÑģÑĤ Ð¾Ð²
ov Ã©ho
Ġsp in
Ġsi g
Ġpu ter
Ġru tier
ĠÅ¾ ib
ĠI sp
Ġdirec torul
Ġo tÃ¡
min iÅ³
Ġsteb ÄĹti
ĠL ite
ĠÐ»Ð¸ ÑĨÐµÐ½
ing umÄħ
Ġpra mon
Ġre pro
Ġser tifik
Ġreng iniÅ³
ĠÐ¸ÑģÐ¿ Ð¾Ð»Ð½
Ġmomen te
Ð²Ð° ÑİÑīÐ¸Ðµ
ĠÐ¿ÑĢÐµÐ´Ð¿Ð¾Ð» Ð°Ð³Ð°
Ġsri tis
ĠÐ¸ÑģÑģÐ»ÐµÐ´ Ð¾Ð²Ð°
ĠÐºÐ¾Ð½ÑģÑĤÑĢÑĥ ÐºÑĨÐ¸Ð¸
ĠÐ¿Ð¾Ð¼Ð¾Ð³ ÑĥÑĤ
Ġta ps
âĶĢ âĶĢ
ap oi
ĠuÅ¾sien yje
ÑĦ Ð»Ð¸
ĠÐºÐ° Ð±Ðµ
ĠÐ¾Ð± ÑīÐµÐ³Ð¾
ĠreÅ¾ isie
ĠLi viu
Ġac tive
Ġes ti
ÄĹj imu
ĠÑĥÐ½Ð¸Ð²ÐµÑĢ ÑģÐ°
us Ä¯
y Å¾
Ġvaik Å¡
Ġper nai
ĠÐºÐ¾Ð½ ÑĨ
ĠÐ»ÑİÐ± ÑĭÑħ
ĠÐ¾ÑĤÐ»Ð¸ÑĩÐ° ÐµÑĤÑģÑı
Ġv Äıaka
ia usios
Ð¡ Ð¾Ð²
ĠÐ·Ð° ÐºÐ°Ð·ÑĩÐ¸
ĠÐ¿ Ð»ÐµÐ½
ĠÅ¡ k
Ð¾Ð± Ñĥ
ĠÐ²Ð° ÑĪÐ¸
ona to
ĠÐ¿Ðµ ÑĩÐ°
Ġkil ogra
Ġregi ono
ĠÃİn tre
ĠÅ¾en kl
Ar t
Ġpar tner
Ð¾Ð¶Ðµ Ð»Ð°
Ġplas tik
Ð²ÐµÑĢ Ð´
Ġpri z
Ġmunicipi ului
ĠÐºÐ¾Ð½ Ð´Ð¸ÑĨÐ¸Ð¾Ð½
ing umas
Ġdemon st
Ġi i
Ġtr Å«ksta
ĠÑĢÐµÐ°Ð»Ð¸ Ð·
E l
ĠÐ¾ÑģÐ¾Ð±ÐµÐ½ Ð½Ð¾ÑģÑĤÐ¸
ĠÐ¾Ð¿Ð»Ð° ÑĤÑĭ
Ġvo j
Å£ iu
ĠÑĢÐµ Ð¹ÑĤÐ¸
Ġnere tai
ĠÑģÐ¿ÐµÑĨÐ¸Ð°Ð»Ð¸ ÑģÑĤÐ¾Ð²
tas e
ĠÐ´Ð¸ÑĢÐµ ÐºÑĤÐ¾ÑĢ
Ġintens yv
ĠÐ³Ð¾ÑģÑĥÐ´Ð°ÑĢÑģÑĤÐ²ÐµÐ½ Ð½Ð¾Ð³Ð¾
Ġs vet
24 0
C el
ĠÐ¿ÑĢÐ¾ÑĦÐµÑģÑģÐ¸ Ð¾Ð½Ð°
ĠÃ®nto arce
Ġe Å¾er
Ġb om
ĠBe je
Ġd ost
Ġcir ca
! )
Ġsu de
Ġsk ers
Ġne tik
Ġpasi Å¾ymi
ĠaukÅ¡ tesn
Ġcame re
ru mo
Ġautomobili ai
k itÄĹs
ĠÃ®n tru
Ġkit ose
Ġpar ten
ĠPro jek
ĠÐ¾Ð±ÑĬ ÐµÐ´Ð¸Ð½
ro vi
ĠÑģÐµÑĢ ÑĤÐ¸ÑĦÐ¸ÐºÐ°
Ġpor to
Ġ Å£ara
ĠÑĤÐ¾ÑĢ Ð¼Ð¾Ð·
Ġsmar t
ĠbaÅ¾ny Äįios
Ð½Ð¾ÑģÑĤ ÑıÐ¼Ð¸
Ġn Ãło
dep Äĥr
ĠÐ½ÐµÐ²Ð¾Ð·Ð¼Ð¾Ð¶ Ð½Ð¾
ĠÐĹÐ° ÑĤÐµÐ¼
ĠPro f
Ġro ch
o asÄĥ
ĠÐ¾ÑĤÐ½Ð¾ÑģÐ¸ ÑĤÐµÐ»ÑĮÐ½Ð¾
ÑĢÑĥ ÑĢ
ĠÅ½ i
Ġhid ro
un gi
Ð¤ Ð¡
ĠTok s
Ġo pozi
ĠnuoÅ¡ ir
ĠSpal va
ĠC io
Ġmor al
iÅ¡k iÅ³
ĠÐ¡Ð¾ ÑĩÐ¸
ĠT em
Ġmoky toja
b li
ogra fi
á»į i
ĠL iber
ĠÑĦÐ¸Ð»ÑĮ Ð¼Ñĭ
ĠÑģÐµÐ¼ ÑĮÐ¸
ĠÐĳÐµÐ»Ð° ÑĢÑĥ
ri mÄħ
ĠÑĥÐ³ Ð¾Ð»Ð¾Ð²
Ġme tams
Ġimpo zit
Ġpagrindin iÅ³
ĠsÃº Å¥aÅ¾
Ġg es
Ðļ Ð¾Ð³Ð´Ð°
Ġk ly
ĠÐĹÐ°ÐºÐ°Ð·ÑĩÐ¸ ÐºÑĥ
r ais
ÐºÐ° ÑĨÐ¸Ð¸
Ġy ou
b od
ĠÃ®ntre bat
ĠÐĿ Ð°ÑĢ
Ġro bo
Ġbran g
ĠÅ¾ yg
Ġkar tos
ov or
Ġdeci zie
dam iesi
ovan ÃŃ
ĠÑĥÐ»Ð¸ ÑĨÐµ
ĠÐ¡ ÐµÐ¹ÑĩÐ°Ñģ
ĠSR L
ĠÐ¾Ð¿ Ñĭ
ĠÐ¼Ð°Ñģ ÑĪÑĤÐ°
ĠP L
ĠÐ´ ÑĭÑħÐ°
........ ........
ri l
Ġcun oaÅŁte
u alÄĥ
Ġvaland as
Ġk áº¿t
Ġegz is
ut Äħ
lal ap
Ġval dÅ¾ia
199 2
ĠsÄħlyg Å³
ĠatsiÅ¾vel giant
Ð½Ð¸ ÐµÐ¹
Ġsk al
auk ÄĹ
Ġa val
Ġm áº·t
ĠS MS
Ġm lad
ĠÑĥÐ²ÐµÑĢ ÐµÐ½
Ġm old
Ġthá» ĭ
ĠÐº Ð¾ÑĢÐ°
Ġnen u
ĠÑģÑħ ÐµÐ¼
Ð¾ ÑĦÐ¸
ĠÐķ ÐºÐ°ÑĤÐµÑĢÐ¸
Ġau torius
ĠÑħ Ñĥ
ĠÑģÑĤÐ¸ Ð»Ðµ
Ġv arÄĥ
Ġs Ã£
ri ams
Ġs tic
Ġe fect
ĠÃºpl ne
om Äħ
2 10
ĠÐ²Ð½Ð¸Ð¼Ð° Ð½Ð¸Ñı
Ġak tÅ³
em on
Ġprogra mului
ĠI de
Ð¾Ð³Ð»Ð° ÑģÐ½Ð¾
Ġc ik
ÑĤÐ¾ ÑģÑĤÐ¸
Ġdeschi de
Ġt Ã¡c
ci te
Ġop t
Ġprin ci
Ġul terior
Ġmoteri ms
ĠÐ¸Ð· Ñĥ
ĠÄ¯ran gos
Å¾i Å«ri
ĠÐ³Ð¾ ÑĢÐ°Ð·Ð´Ð¾
Ġfilos of
Ð» Ð¾ÑĢÐ¸
Ġsanty kiÅ³
to na
ĠÐ·ÐµÐ¼ Ð»Ð¸
ĠÐ¿Ð°Ð¼ ÑıÑĤÐ¸
ĠÑģÐ¾Ð¾Ð± ÑīÐµÐ½Ð¸Ñı
ĠÑįÐº ÑģÐ¿Ðµ
Ġspaus din
ĠÑĪ ÑĤÑĢÐ°
ĠÐ³Ð¾ÑģÑĥÐ´Ð°ÑĢ ÑģÑĤÐ²Ð°
Ġstra dÄĥ
Ġb aus
tin d
ĠK ap
ĠÑģÐ¾Ð³Ð»Ð° ÑģÐ¸
e z
Ġfar ma
ĠI D
stru c
Ð ©
ĠÑģÑĤ Ð¾Ð¹
ĠT uomet
Ġb ase
Ġtemperat Å«ra
ĠÐ´Ð°Ð² Ð»ÐµÐ½Ð¸Ñı
Ġcon ving
Ġparod yti
Ðľ Ðŀ
ĠÐ½Ðµ Ð²ÐµÑĢ
ĠÐ¾Ð±ÑĢÐ°Ð· Ð¾Ð²Ð°Ð½Ð¸Ðµ
Ġmerg ina
ĠÐ¼ÐµÑĢÐ¾Ð¿ÑĢÐ¸Ñı ÑĤÐ¸Ð¹
Ġinte rac
Ġfami li
ĠÐ¸ÑģÐ¿Ð¾Ð»ÑĮÐ· ÑĥÑİÑĤÑģÑı
h am
ĠÑĢÐ¾ ÑģÑĤ
Ġcons er
ĠÐºÐ° Ð¶ÐµÑĤÑģÑı
ĠG h
ÑĢÐ¾Ð²Ð° Ð½Ñĭ
ĠÑģÐºÐ¾ÑĢÐ¾ ÑģÑĤÑĮ
Ġse kre
ĠÐ²Ð· ÑıÑĤÑĮ
Ġinteri orul
um at
ÑĢÐ¾Ð² Ð¸
Ġkamb ario
Ġmed ienos
Ġli Å«d
Ġfond uri
ki ui
ĠFe dera
ĠAnun ÈĽuri
R o
ĠIa ÈĻi
itÄĥ Å£ilor
áº¡ ch
ĠiÅ¡ duo
iai Å¡k
Ġorgani zeazÄĥ
ĠÅ¾mon a
Ġfemei le
Ġelev ii
199 3
ĠsÃ¢n ge
ĠF ond
Ġta b
Ġtrans form
Ġpa pl
ĠÑĪ Ð°Ð½
Ġsc riu
Ġlo áº¡i
ĠM et
ĠÑĤÐµÑħÐ½Ð¾Ð»Ð¾Ð³Ð¸ Ð¹
ĠÐ²Ðµ ÑģÐµ
ĠÐ²Ðµ Ð´
ĠSup er
ĠÑģÑĤÑĢÐ° Ð½Ð¸ÑĨÐ°
Ġnes us
ÑĤÑĥ ÑĢÑĥ
ĠÅł e
ĠÐ¼Ð¾ Ð½Ð¸
ĠÐ¿ÑĢÐ¸ Ð²ÐµÐ´
ĠÑħ Ð¾Ð´Ð¸
ĠÑģÐ¾ÑģÑĤÐ¾Ñı Ð½Ð¸Ñı
1 12
ĠmaÅ¾ a
ĠÑĦÐ¸ Ð³
U G
tin ÄĹmis
Ġman ÄĻs
tin iame
ĠÐ±Ð°Ð½ ÐºÐ°
Ġlaikotarp Ä¯
Ġprogra mÅ³
Ġcomunic at
ĠBal tarusi
li uose
Ġmad os
Ð»Ñı Ð¼Ð¸
tori ei
Ã¡ z
Ð¸Ð½ ÐºÐ¸
Ġtá» ķ
e uro
Ġcele i
ĠK ry
Ġv Ã¬
Ġes Äħ
Ġvis ur
Ġau kso
Ġkelion ÄĻ
ĠC un
i Äħ
ĠiÅ¡ min
Ġsiek ti
Ġsvoje j
T ur
Ġscen ari
ĠÐ´Ñĥ ÑĪÐµ
I l
ĠÐ¼Ð½ ÐµÐ½Ð¸Ñİ
ĠÐ´ÐµÑĢ Ð¶Ð°
rin iÅ³
ÑĤÐ¸ Ð»Ð¸
Ð» ÐµÑĤÐ°
ĠÑģÐ»ÑĥÑĩÐ° ÐµÐ²
ĠÐ¾Ð±ÑīÐµ ÑģÑĤÐ²Ð°
ĠÑĢÐ° ÑģÑĤÐ¸
pra v
ĠÑģÐµ ÐºÑĥ
ĠÐºÐ°ÑģÐ° ÐµÑĤÑģÑı
Ġto Ãłn
ĠÐ¾Ð¿ ÑıÑĤÑĮ
ĠÑģÐ¾ÑĤÑĢÑĥÐ´ Ð½Ð¸ÐºÐ¾Ð²
ĠÐ¿Ð¾Ð· Ð²Ð¾
ĠÑıÐ·Ñĭ ÐºÐ°
si us
Ġcor up
Ġpasaul is
ys el
Ġsk alb
ti cii
ÈĻ u
ĠiÅ¡ leis
ĠF lorin
ĠÄ¯ta kÄħ
Ġste ig
B C
Ð± ÑĢÐ°Ð½
ĠMed ic
Å«r ai
Ġd nes
ĠÐł ÐµÐ¼
ĠÐ»ÑİÐ± Ð¾Ðµ
ĠCom un
ĠW eb
ĠL ab
ĠÐł Ð°Ñģ
Ðķ Ð¢
Ġmul tor
Ð½ ÐµÐ½Ð¸Ð¹
Ġmoni tori
ĠÑĩÐ°ÑģÑĤ Ð½Ð¾ÑģÑĤÐ¸
Ġcom una
ĠÐ¸ÑģÐ¿Ð¾Ð»ÑĮÐ· ÑĥÑİÑĤ
ĠÐ¾ÑĤ ÑĢÐ¸ÑĨÐ°
ĠÅ¡y ps
Ġa ÈĽi
Ġam Å¾
Ġdele ga
Ġjuo k
ĠiÅ¡sky rus
ĠiÅ¡ im
Ġsukur tas
Ġcomunic are
tar ai
on area
Ġpask at
ĠI sl
Ġkon cent
Ġkom pozi
Ġde co
ilno jam
Ġnor d
Ġnen or
Ġinst al
ĠNa Å£ionale
ri au
Ġte raz
u ia
Ġt áº¡o
ÑĢ Ð¾ÑĤ
ĠÑĢÐµ ÑĩÑĮ
Ġa duc
ĠÑĤÐ¾ Ñĩ
ĠÐ¿ÑĢÐ¾Ð´ Ð²Ð¸
ĠÐ¾Ñħ Ð»Ð°
ĠPre d
val a
Ġpra dÅ¾ia
ĠÐľÐ¸Ð½Ð¸ ÑģÑĤÐµÑĢ
ĠÐ½ÑĢÐ°Ð²Ð¸ ÑĤÑģÑı
ĠÐ¿ÑĢÐ¾Ð´Ñĥ ÐºÑĤ
ĠÐ¾ÑĦÐ¾ÑĢÐ¼ Ð»ÐµÐ½Ð¸Ñı
Ð½Ð¸ Ð½Ð°
Ġl is
ĠÐ´ÑĢÑĥÐ³ Ð¾Ð¼
Ġde kla
ÐµÐ· Ð´Ðµ
ĠÐºÐ¾Ð¼Ð¸ ÑģÑģÐ¸Ð¸
Ġkil o
ĠR ap
Ġpran aÅ¡
ÑĢ ÑĤÑĥ
Ġties iai
Ġspecialis tÅ³
jed nÃ¡
je azÄĥ
ĠurmÄĥ toare
ĠÄ¯ tari
Ã¡va jÃº
si unea
Ġekonom ikos
Ġne j
ÐŁ Ð¾Ð»
Ġpasak ÄĹ
ĠÐ¿ÑĢÐ¾Ð¸Ð·Ð²Ð¾Ð´Ð¸ ÑĤÑģÑı
ĠÐ¾ÑĤÐ²ÐµÑĤÑģÑĤÐ²ÐµÐ½ Ð½Ð¾ÑģÑĤÐ¸
ĠÅ¡il tas
ĠTar ybos
ĠoraÈĻ ului
ĠuÅ¾ raÅ¡
Tai gi
Ġp au
ĠL az
ĠÐºÐ¾Ð½ÑĤÑĢ Ð¾Ð»
Ġpatvirtin imo
Ġb á»Ļ
tr y
Ġvy kstan
Ñģ Ð½Ð¾Ð¹
Ġspecial iai
ĠÐ¡ ÐµÐ¼
Ġpoli ÈĽi
ĠÐ¶Ðµ Ð»Ðµ
Ġbu te
Ð³Ð¾Ð´ Ð½Ð¾
Ġpo ze
Ġam bi
Ġprogra me
Ð»Ñİ Ð¼Ð¸
da vin
Ġsp er
Ġpun c
ĠÐ¿Ð¾Ð´ ÑĢÑĥ
ĠÐ´ÐµÐ¹ÑģÑĤÐ²Ð¸ Ð¹
Ġsupl imentare
ĠÐ´Ð¾ÑģÑĤÐ¸ Ð³
Ġpar ink
Ġpadar ÄĹ
Ġdide liÅ³
Ġh á»Ļi
Ġtelef ono
Ñĥ Ñħ
ĠAc estea
em in
au to
Ġveik ÄĹ
Ġmijlo cul
ĠÑįÐº Ð¾Ð»Ð¾Ð³Ð¸
ri os
Ġradi jo
k aip
cÄĥ rii
ĠJ as
Ġparod ÄĹ
ĠnÃ³ i
F R
Ġb áº±ng
Ġpas p
ÐµÐ¼Ð° Ñı
Ġpasta to
ÐµÐº Ñģ
Ġpagrindin ÄĹs
ose x
v Ä¯
ĠÐºÐ¾Ð¼ Ð¼ÐµÑĢ
U D
Ġpri p
ĠÐ´Ð° ÑĤÑĮ
ÑĥÑģ Ð»Ð¾Ð²
Ġactiv itÄĥÈĽi
ĠBri tanie
v area
ĠÐ¿Ð¾ ÑģÑĤÐ°
Ġak men
ĠÐ¾Ð± Ð»
ĠChi ÈĻ
ĠBM W
tan dar
ÑĢÐ° ÑĤÐ¾Ð²
Ð»Ð¾Ð¶ ÐµÐ½Ð¸Ñı
Ġgi Ãºp
on are
ĠÐŁ ÑĢÐ¾Ð´
Ġve ci
ant al
ub ilie
ĠÐ¿Ð°ÑģÑģÐ° Ð¶Ð¸
ĠÐ»ÑĥÑĩ ÑĪÐ¸Ñħ
ol as
ĠÐļ Ð»Ð°
ĠÑģÑĢÐµÐ´ ÑģÑĤÐ²Ð¾
ĠÑģÐ² ÐµÐ´ÐµÐ½Ð¸Ñı
ÑĨ Ð¾
Ġpre sti
Ġc áº§u
Ġkon e
ÐµÑĤ Ð¾Ð½
ÑĤÐ¸ ÐºÐ¸
ĠbÅ« dÄħ
ĠÐĵ Ð¾ÑģÑĥÐ´Ð°ÑĢ
ĠÑģÐ½Ð° ÑĩÐ°Ð»Ð°
Ġne dar
ĠC up
ÐµÑĤ ÑĢÐ¾Ð²
Ġgim ÄĹ
ro vÄĹs
dÅ¾i ant
Ġpriemon ÄĹmis
log ie
S o
Ġva c
Ġser ve
áºŃ y
tu os
ĠÑĤÐµ Ð¼Ð°ÑĤÐ¸
Ġpl im
rau ja
ĠS and
Ġprop us
Ġt áº¿
ĠÄĳ á»ĳi
ĠdÄĹ vÄĹti
ĠN g
vai zd
S A
Ġsub iec
Ðº Ð¾Ð²Ð°Ð½
Ð² ÑĮÑİ
Ð²Ð¸ Ð»
ĠP utin
Ġati tik
ĠÑģÐºÐ¾ ÑĢÐµÐµ
ĠÑĦ ÐµÑģÑĤÐ¸Ð²Ð°
Ġanim ale
Ġf os
ĠpasiÅ«ly mus
Ġre ag
ÈĽ ea
Ġmel od
ĠM erg
ĠP Ã¢nÄĥ
ĠB Äĥsescu
Ġapli carea
Ġtie to
ĠrugÄĥ m
ÑģÐ¸ Ñİ
Ġpr on
Ġper si
Ġle gen
Ġtra duce
ĠmaÅ¾ y
ra cijos
á»¯ a
ul iai
ĠbÅ« tinai
ĠÐ´Ð¾Ð³Ð¾Ð² Ð¾ÑĢÐ°
Ġvad Äĥ
Ġc Ã®
Ġpirmo ji
g are
ca Å£i
Ġt á»ĳt
ĠbÄĥ n
Ġat ÄĹjo
ik lis
Ġapygar dos
Ð¾Ð³ Ð¾Ð´
ĠÐĵ Ð¾Ð»
ĠÐ¿Ð¾Ð²Ñĭ ÑĪÐµÐ½
Ð² Ð¾Ñģ
ĠÐļ Ð°Ð»Ð¸
ĠÑĥ ÑĤÑĢÐ°
Ð¸Ð½ Ð³Ð°
au dy
ÑĤÐµ ÑħÐ½Ð¸
Ġro m
Pa gal
Ġpo zit
ĠDes ig
Å¾ Ä¯
ĠIa ÅŁi
ci an
Ġpoveik Ä¯
Ġneig ia
Ġtiks lais
Ġcon ducÄĥ
ĠÑĦÐ¾ÑĤÐ¾Ð³ÑĢÐ°ÑĦÐ¸ Ð¸
ĠV Ã¡m
Ġad mi
m ies
ĠÐ¿ÑĢÐ¸ Ð²Ð¾Ð´
ci ÃŃ
Ð¶ Ð½Ð¾ÑģÑĤÑĮ
jer as
Ð¾Ñģ Ñĭ
Ġap ran
al tÄĥ
ut ai
ĠAuto mo
ĠÑģ ÑĬÐµÐ¼
Ġh iá»ĩu
ĠÐ³Ð»ÑĥÐ± Ð¾Ðº
ĠfÄĥ cutÄĥ
Ð½Ðµ ÑĪ
S un
ph one
ĠG ol
Ġtaisyk les
Ġdaug ybÄĻ
ĠÐ¿Ð¾Ð· Ð´
ĠÃ®ntrebÄĥ ri
ĠTranspor tas
ĠÐ·Ð° Ð¼ÐµÑĤ
ĠN audo
ĠÐļ Ð»Ð¸
d Ä¯
a ch
ĠEP PO
Ġjuri dice
ĠmarÅ¡k inÄĹ
Ã¡va Å¥
ĠBÅ« tent
Ġtre ia
b ro
ĠÑģÑģÑĭ Ð»ÐºÐ¸
Å¡ iai
vy nÄĹs
ĠÐ¼ÐµÑģÑĤÐ° Ñħ
ÑĤÐ¸ ÑĢÐ¾Ð²Ð°ÑĤÑĮ
Ġinte lig
ĠÑĤ ÑĢÐµÐ½
Ġiar nÄĥ
ĠcÄĥr ÈĽi
ĠvÃ½ ro
Ġsveikat ai
ĠÐ¡ ÑĤÐµ
Ġrungtyn es
ĠS var
ĠÐĶ Ð¾Ð¼
ĠÑĥÑĩÐ°ÑģÑĤ ÐºÐ°
ĠÐ´Ð¾Ð³Ð¾Ð² Ð¾ÑĢ
Ġcar ne
to g
ĠÑĦÐ¸ Ð³Ñĥ
li vos
Ġfap tului
Ġeuro p
al elor
ko ta
Ġtik rin
K om
Ġki tomis
Ġpateik ia
Ġk er
Ġta ve
ĠS iste
ĠFa cul
Ġsing urul
Ġpies e
Ð½Ð¸ Ð¼Ð¸
ta no
ĠL ip
ĠÐºÐ²Ð° Ð´
ĠÐ²Ð½Ðµ Ð´
ĠÑģÐ»Ð¾Ð¶ Ð½Ð¾
ĠÐ¾Ð±ÑĢÐ°Ð±Ð¾ÑĤ ÐºÐ¸
Ġpar davimo
ÑģÑĤ ÑĭÐµ
Ð²Ðµ Ð»
Ġtex t
Ġho áº·c
Ġtiks liai
ĠÐ¸ ÑģÑĤÐ¸Ð½
ĠP os
Ġz bor
Ġsp rac
dar os
med ia
Ġro dik
ĠÐĳ ÑĥÐ´
ar os
. (
Ġteritori ul
Ġki tu
Ġs Å«nus
ĠB irÅ¾
inink ystÄĹs
vo Ä¾
ĠÃİ mp
ĠRan kov
Ġlim ite
ĠSa vivald
ĠR os
ĠÃº spe
Ñİ ÑīÑĥÑİ
T h
Ġprie kyje
ĠÐ´Ð° Ð»ÐµÐºÐ¾
ÑģÐ¸ Ð²
Ġpag rÄ¯
ĠÑįÐ»ÐµÐ¼ ÐµÐ½ÑĤÑĭ
Ð» Ð¾ÑĢ
ino je
ĠA ici
Ġmod elis
ĠvaÅ¾ ia
ÐµÑĢÐµ Ð¹
ĠÃ®nal tÄĥ
ĠD ia
Ġse d
Ġin fek
oc k
Ġdob re
Ġna v
= >
Ġvy uÅ¾
ĠÐ¿Ð¾Ð¶Ð° Ð»ÑĥÐ¹ÑģÑĤÐ°
Kl aipÄĹ
ven i
ĠÐĳ Ð°Ð½
u ko
ĠN ap
one z
Ġpetre ce
Ġt ÃŃnh
Ġsto vy
Ġka vos
Ġnea bejo
ĠPir m
ĠĠĠĠ ĠĠĠĠ
dien te
Ġjuo da
ĠVal ent
Ġs tea
Ġnusta to
ĠÐ¿Ð¾Ð·Ð²Ð¾Ð»Ñı ÑİÑĤ
Ġdrep turile
Ġso ft
ĠuÅ¾ ima
ĠÐ± Ð¾Ð»
Ġtotu ÅŁi
ĠÐ±Ð¸ Ð±Ð»Ð¸Ð¾ÑĤÐµ
Ġpre ced
ĠPet ru
in ÈĽe
ĠÅ¡ uo
s ol
Ġeil ÄĹ
ĠPon ta
Èĺ i
ĠB un
Ġpad aÅ¾
Ġnie len
Ġnea ti
Ġm ala
Ð¸Ð· Ð½ÐµÑģ
Ġproduk tus
Ġpubli ca
Ġbag aÅ¾
Ġin Ã©
ĠA ra
ÐŁ Ðµ
rie k
ÑĢÐ¸ ÐºÐ¸
Ġma jor
Ġth áº¥y
ĠS port
l atÄĥ
ĠA G
ÑĥÑĤ Ñĭ
ĠÅ¾od Å¾ius
ĠÑģ ÐºÐ»Ð°
ĠÐ½Ð°ÑħÐ¾Ð´Ñı ÑĤÑģÑı
ÄĹj imai
ĠvÄĹl ia
ĠÐ½Ð°ÑĩÐ° ÑĤÑĮ
is us
ĠÐ¿ÑĢÐ¸ ÑĩÐ¸Ð½Ð°
Ġpati ko
ĠÅ¡iu kÅ¡
ÐŁ ÑĢ
Ġde fici
Ġsu jung
Ð·Ð° ÑĤÐ¾ÑĢ
ad os
Ġkvali fika
ĠÐºÐ¾Ð½ÐºÑĥÑĢ ÑģÐ°
Ð·Ð¸ ÑĢÑĥ
Ġre gÄĥ
17 0
Ġcon ec
Ġz am
j imÅ³
Ġpri ei
ĠsÄĥ vÃ¢r
ÄĹj imui
ÑĦÐ¾ÑĢÐ¼Ð° ÑĨÐ¸Ñı
ĠÐ¿ÑĢÐ¸ Ð±Ð»Ð¸
Ġnor oc
Ġeconom icÄĥ
ĠB ru
ĠSi Å«
ĠÐ¿Ð¾Ð´ ÑħÐ¾Ð´Ñı
Ð½Ðµ Ð¿
Ġanun ÈĽat
Ġela bo
ĠE ra
p ania
be re
le ment
i rii
Ġnar ÄĹs
Ġal terna
Ġh ero
Ġpagal vo
l ing
Ġav ia
Ġim tis
Ġap at
ĠgÃ¢n de
Ġliau dies
Ġten din
ĠN auj
Ġgrup iÅ³
ĠsÄĥnÄĥ to
ĠbÄĥ ie
Ġturi zmo
bu je
ÐļÐ¾Ð¼ Ð¿Ð°Ð½Ð¸Ñı
ĠN ea
ĠT es
ĠÄĳ iá»ĥm
v ii
Ġh er
ĠÐ¿ÐµÑĢÐ² ÑĭÑħ
Ð½Ð¾ ÑģÐ¸
ĠÐ±Ð¾Ð»ÑĮ ÑĪÐ¸Ðµ
ĠÑģ ÐºÐ°Ð·
Ġpr v
ĠÐºÐ¾Ð½ ÑĦÐ¸
ÐµÐ½ ÑĤÑĥ
ÑĢ Ð½ÑĭÑħ
ĠÐ¿ÑĢÐ¾Ð´Ð° Ð¶Ðµ
ĠÐ¾Ð¿ÐµÑĢÐ° ÑĨÐ¸Ð¸
Ð¾Ðº ÑģÐ¸
ÐµÐ½ Ð½ÑĭÐ¼Ð¸
Ð³Ð° Ñħ
Ġcele b
Ġmno h
ĠÐ±Ð¸ ÑĢ
ĠÐ¿Ð¾Ñģ Ñĭ
ĠÅ½ mo
umo Å¾
ĠG eri
Ġcere rea
ÐĴ Ðĺ
ĠÐ½ÐµÐ¾Ð±ÑħÐ¾Ð´Ð¸Ð¼ ÑĭÐµ
Ġat paÅ¾
Ġdaly kus
ĠÑĢÐµÑĪÐ¸ Ð»Ð¸
C A
viÄįiÅ« tÄĹ
ĠvÃ½ kon
Ġb enz
Ġex amen
v Äĥrul
ĠÐ¿ÑĢÐ¾ ÑħÐ¾Ð´Ð¸ÑĤ
ĠÐ°Ð²ÑĤÐ¾Ð¼Ð¾Ð±Ð¸ Ð»ÑĮ
Ġapro pia
Å«d im
to vaÅ¥
tinÄĹs e
K iekvien
ie ÈĻte
ĠS Ãº
ĠÐĴ Ð¸Ð½
ĠÐ¿Ð¾Ð´ Ð²ÐµÑĢ
tu rat
ĠpobÅ« dÅ¾io
ÐºÐ° Ðº
ĠÑĦ ÑĢÐ°Ð½
aliz atÄĥ
Ġatsisa kyti
Ġvá» ĭ
ĠbÅ« dÅ³
ĠÐ¼Ð¾ÑĢ Ñı
Ġval gyti
ĠÑģÐ¾Ð» Ð½Ðµ
ĠÐ¡ ÑĤÑĢ
ru ri
k ir
ĠiÅ¡ kovo
ĠÑĥÐº ÑĢÐµÐ¿
v ome
Ġmar g
Ġtrebu ia
ĠÅ£Äĥ ri
ĠcreÈĻte re
Ġal oc
ĠnÃ¡ Å¡
ĠÃ®nloc ui
Ġdrau gi
Ġry to
ĠdidÅ¾ia usias
Ġs mag
ĠS veik
Ġreng inio
mÄĹ lio
in ukai
ga vo
Ġtr Æ°á»Ľc
Ġactiv itÄĥÅ£i
ĠÐ¡ Ðŀ
Ġpag ar
Ġre tai
ĠÐºÐ° Ð¿
ĠponÃº ka
mok es
Ã¢n t
h tt
ĠÐ²ÑĭÐ¿Ð¾Ð» Ð½ÐµÐ½
Ġte Å¡
Ð¾Ñģ Ð»Ð°Ð²
ĠÐ´Ðµ ÐºÐ¾ÑĢÐ°
ÑĨÐ¸Ð¾Ð½ Ð½Ð¾Ðµ
ĠÐļÑĥ Ð¿Ð¸ÑĤÑĮ
ĠÑĢÑĥ ÐºÐ°
ĠÐ½Ð°Ð¿ÑĢÑı Ð¶ÐµÐ½Ð¸Ñı
Ġk ia
ĠK am
da Å¥
ĠÐ·Ð°Ð¼Ðµ ÑģÑĤÐ¸
ĠE lena
ĠSlovensk u
ĠÐ¥ ÑĢÐ¸
Ġinfor meazÄĥ
Ġry tÄħ
Ġbici cle
ĠÐ¾Ð·Ð½Ð° ÑĩÐ°ÐµÑĤ
Ġkok ybÄĹ
ĠÐ´Ð¾Ð¼ Ð¾Ð²
ÑĤÐ°Ð»ÑĮ ÑıÐ½
ĠÐ¾Ð±Ð»Ð° Ð´Ð°
Ġinstru k
ÑĢÑĥ Ð±Ðµ
f ace
Ġbal dai
Ġoferi te
G y
sa Å¥
Ñ ĸ
O G
ĠTok iu
10 4
Ġprezen tate
Ġn go
ĠÐ¾ÑģÐ½Ð¾Ð²Ð° Ð½Ð¸Ð¸
Ġklaus y
Ð² ÑĪÐµÐ¹
Ð¶ Ð°Ð½
Ġvien ame
ĠÐ¿Ð¾Ð²ÐµÑĢÑħ Ð½Ð¾ÑģÑĤÑĮ
ÑĢÐ°ÑĤ Ð½Ð¾
ĠÑĤÑĢÐ° Ð´Ð¸
Ñī ÐµÐ½Ð°
Ġpre vÃ¡dz
Ġproduk tai
Ġtais ykl
ĠÐĺ Ð»Ð¸
ĠIntern et
ĠÐ· ÑĢÐ¸
ĠW orld
ĠÅ¡ iam
ĠÐ¾Ð± Ð¾Ð·Ð½Ð°
Ġsup ras
ĠÄ¯si gy
Ġneat s
Ġgeriaus iÅ³
ĠÐ±Ð»Ð¾Ðº Ð¸
Ġgrup ÄĹje
ÑģÑĤ ÐºÐ¸
ĠÃ®n depÄĥr
am entului
yn ÄĹ
Ġpri reik
Ġweb site
ĠÐ´ÑĥÐ¼Ð° Ñİ
ĠÐļ Ð¾Ð¼Ð¸
Ġh á»ĩ
ta ra
Ġtvar kos
ĠÅ¡ por
ĠÐ³ ÑĢÑı
nosÅ¥ ou
ÄĹ tas
O r
Ġsve ÄįiÅ³
Ġvar dÄħ
Ġpos tup
ÑĢÐ¾Ð²Ð°Ð½ Ð½ÑĭÑħ
Ð¾Ð± Ðµ
Ġkiekvien a
Ġs at
Ġph Ã²ng
ĠÐ¼Ð¾Ð¶ ÐµÐ¼
iÅ¡k u
ĠÐ±Ð¾Ð»ÑĮ ÑĪÐ¸Ð¼
ĠÐ´Ð¾ÑĢ Ð¾Ð³
ÄĹ kite
ĠÐºÐ°ÑĢ ÑĤÐ¸
ĠÐ¸Ð½ÑĤÐµÑĢÐµÑģ Ð½Ð¾
ĠÑĢÐµÐ±ÐµÐ½ Ð¾Ðº
ĠÐ¿ Ð¾Ð¹
Ġap artament
ÑģÑĤÑĮ Ñı
Ġko de
ĠS od
Ð»Ðµ Ð±
ĠcreÅŁte re
Ġtrebui t
Ġdob Ã¢n
Ġinten si
Ġ> >
ĠÐ²Ð¼Ðµ ÑģÑĤÐ¾
ir Å¡ti
ĠÐ¾Ñģ Ð²Ð¾Ð±
ĠN ou
ar y
Ġvalstyb ÄĹ
Ġkalb Å³
Ġnep ra
ĠÈĻ edin
ĠNe g
ĠÑħÐ°ÑĢÐ°ÐºÑĤÐµÑĢÐ¸ÑģÑĤÐ¸ ÐºÐ¸
Ġd vo
R U
ĠÑģÐ¿Ðµ ÑĨ
Ġpoli tika
Ġm Ã¢nd
ĠÐ² Ð¾Ð´Ñĥ
ĠSÄħ jung
n enie
Åł il
ÑĨÐ¸Ñı Ð¼Ð¸
ĠÑĥ ÑĤÐµ
Ġcap ital
Ġvarto tojÅ³
ĠkrikÅ¡Äįi on
ĠÑĢÐµÑĪÐ¸ Ð»
B o
ĠÑĥ Ð¼ÐµÑĢ
st rÃ¡
ĠÑĥÑĩÐ°ÑģÑĤ Ð¾Ðº
Ġkomite to
Ġ ==
Ġf rate
ĠÐ¾Ð± Ð»Ð¸
: )
Ġfisc al
Ġpir mas
ĠÐ½Ð° ÑĪÐ¸Ð¼
Ġfundam ent
Ġdevin Äĥ
ĠÐ°Ñį ÑĢÐ¾Ð¿
Ġefectu ate
Ġtu y
Ġutili zare
Ġlaim ÄĹjo
Ġtit lul
Ġran ka
Ġnu kreip
Ġsuta up
ĠnÃ¡ jde
ĠE lec
Ġtink amas
ĠÐ¼Ð½ ÐµÐ½Ð¸Ðµ
Ġpag amin
Ġprista tyti
te d
ĠÑĦÑĥÐ½ Ð´Ð°
Ġsiek iama
Ð´Ðµ Ð²
Ð³Ð¸ Ðµ
Ġsu vo
Ð¾Ðµ Ð²
ĠÐ¿ÐµÑĢÐµ ÑħÐ¾Ð´
ĠgÃ¢nd it
le ste
Ġap lin
ĠÐ·Ð° ÐºÐ°
ĠR eng
ĠÅ«k in
ĠÐ±ÑĥÐ´ ÐµÑĤÐµ
ne ÈĻte
ĠÂ ©
ĠÑĥ Ð´Ð¾
ĠO F
ĠÐ¿ÑĢÐ¾Ð¸Ð· Ð²ÐµÐ´
et os
Ġb ais
ÑĤÐ¸ Ðº
st rak
ĠÑĥÑĩÐµÐ± Ð½Ð¾Ðµ
Ġra z
ien o
Ġcerce tÄĥ
Ð¡ ÑĤ
Ġpam uÅ¡
Ġul terioare
M ano
Ġdu rata
Ġgra de
ĠÄ¯vairi os
Ġde as
Ġtras e
ĠT ul
ĠÅ¾in omas
ĠI atÄĥ
Å¾i Å¥
Ġza Äįia
ĠA ma
ĠÐ¿Ð¾ÑģÐ²Ñı ÑīÐµÐ½
Ġpel nÄĹ
Ġpasin audoti
Ð»Ð¾Ð² Ð¾Ð¹
ĠÐ¼Ð¾Ð» Ð¾Ð´Ðµ
áº¯ n
Ġzauj ÃŃma
ĠÐ± Ð¾Ð½ÑĥÑģ
ĠKe Äı
ĠÑģ ÐºÑĥ
ĠO f
Ġconside rat
ĠD rep
ÑĤÐ¸ÑĢÑĥ ÐµÑĤ
ro p
tÄĥ ÈĽilor
ĠÐ¿Ð¾Ð¸ ÑģÐºÐ°
Ġs are
ĠÑģÐ¾ ÐµÐ´Ð¸
Ġgene ro
ÐĶ Ðķ
ĠÑįÐ»ÐµÐ¼ ÐµÐ½ÑĤÐ°
ĠJude ÈĽean
Æ°á»Ľ ng
Ġve ch
ĠÐ¸Ð¼Ðµ ÐµÑĤÑģÑı
ĠÐ¿Ð¾Ð¿ ÑĭÑĤ
Ġval dyti
V ar
Ðļ ÑĢÐ°Ñģ
ĠÅ½ ie
E K
g ov
ĠÑģÐ¾ Ð¾ÑĢÑĥÐ¶
ĠÑĥ ÑģÑĤÐ°
ĠÅ£Äĥ rii
Å¾ ti
Ġi ti
ĠÐ½Ð°ÑĩÐ° Ð»
ĠÐ¿Ð¾ Ð½ÑıÑĤÑĮ
ĠÐ´Ð¾ÑĢ Ð¾Ð³Ð¸
ĠÈĽ ara
Ġre stul
ĠÐ¼Ð° ÑĤÐµÐ¼Ð°ÑĤÐ¸
Ġpal ank
ĠÐ¿Ð»Ð¾ÑīÐ° Ð´Ð¸
ÑģÑĤÑĢÐ¾ Ð¸
bi liÅ³
Ġat vyko
Ġdu c
Å£i unilor
ĠBu curesti
ĠÐ¼Ð°Ð³ Ð½Ð¸ÑĤ
Ñģ Ð»Ð¾Ð²Ð¸
ĠÅ¡vent ÄĻ
Ã¡ ra
ĠKaun as
ÑĤÐ¾ÑĢÐ° Ð¼Ð¸
Ġfem in
um esc
Ġu veden
ÑĢÐ¾Ð²Ð° Ð»Ð¸
Ġme te
ĠÐĴ ÑģÐµÐ¼
Ġprin s
Ġkval it
ĠÃ ½
Ð¾Ð¿ Ð¾Ð»ÑĮ
Ġtiáº¿ p
ĠMi ch
Ġde pozi
Ġvadin amas
Ġpagal iau
ĠÅ¾ ol
Ġcon soli
ar Å³
ĠÐ·Ð°Ð±Ð¾Ð»Ðµ Ð²Ð°Ð½Ð¸Ð¹
Ġne uro
ĠstrÄĥinÄĥ tate
Ġsanty kius
ĠL and
od amas
ele c
Ð» ÐºÑĥ
Ð¸Ð· Ð¾Ð»Ñı
ĠÐº Ð¾Ð²
Ð¼ÐµÐ½Ð¸ ÑĤÑĮ
ÑģÑĤ ÐµÑĢÐ°
ĠÐ´ÐµÐ¼ Ð¾Ð½
Ġtr ai
Ġpla Äįiai
ĠÐ¿ÑĢÐ¸ Ð½ÑıÑĤÑĮ
ĠraÅ¡ yti
ÑģÑĤÐ¾ ÑĢÐ°
Ġcon ÈĽinut
Ġg um
Ġate ina
ming i
Ġkel yje
Ġapsaug a
ren k
Ġfil mas
Ġconstru it
Ġatkreip ti
tyv Äħ
Ġvorb im
Ġcal d
Ġremon to
Ġiubi rea
ĠÐ´Ðµ Ð»
ÑĪÐµ Ð±
ĠÑĥÑģÑĤÐ°Ð½Ð¾Ð² Ð¸ÑĤÑĮ
Ð·ÑĭÐ²Ð° ÑİÑĤ
ĠOr din
ĠÐ¿Ð¾ ÑģÑĤÑĥÐ¿Ð°
Ġrankov ÄĹs
Ġmeci ul
ĠÑĢÐµÐ¼Ð¾Ð½ ÑĤÐ°
ĠPrancÅ« zijos
ri ce
ĠÐ²Ð½ÑĥÑĤÑĢÐµÐ½ Ð½Ð¸Ñħ
jÃºci ch
Ġpers ik
Ġvy kus
ĠromÃ¢n ii
Ġbend ras
Å«n ui
Pro jek
ro do
Ġprop rii
ĠcuvÃ¢n tul
Ġad un
Ġatk Å«rimo
Ġnor in
Ġmoter s
ĠÐ¿ÑĢÐ¾ÐµÐºÑĤ Ð¾Ð²
Ġsvo g
ĠstÄĥ pÃ¢n
Ðĳ Ð£
Ġsen timent
Ġe gal
ĠY ork
ĠTra kÅ³
ĠOra dea
Ġdis tribu
Ġnum eri
ĠÐ¿ÑĢÐ¾ Ð¸
ri ca
ĠKar tais
ĠÑįÐ½ÐµÑĢ Ð³Ð¸Ð¸
ĠÐľ Ð¾ÑĢ
Ġsta tu
Ġveiks mus
Å£ ea
Ġro v
Ġlem ia
ĠÃ®n regis
ren ia
ĠÐ· Ð´Ð°
Ġkri teri
ĠÑĦ Ð°Ð½ÑĤÐ°
ĠÐ»Ð¸ ÑĪ
li te
Ġatsi rad
Ġr ÄĹ
ĠO lim
Ġpas im
ĠÐ³ÑĢÑĥÐ¿ Ð¿
ĠÐ¿Ð»Ð¾ÑīÐ° Ð´ÑĮ
ÑĨÐ¸Ð¾Ð½ Ð½Ð°Ñı
ĠD ac
ĠÐĹ ÐĲ
Ġeconom ic
Ġvy kon
ĠbÅ« rys
Ġfeme ia
ÑĤÐ° ÑĨÐ¸Ñİ
Ġar hite
Ġconse cin
Ġeta pe
Ġvii torul
Ġnaudo jamos
ra Å£i
imo je
m ams
Ġop ri
Ġconf li
Ġalegeri le
Ġs ty
tori ja
ĠÐ³Ð¸ Ð¿ÐµÑĢ
en sa
ĠÐ»ÑİÐ´ ÑıÐ¼
ĠR od
ÑģÐ° Ð¹
Ġpasi reng
Äħ sias
ĠÐ½ÐµÑģ ÐµÑĤ
ĠD et
ĠÐ¸ÑģÐ¿ Ð¾Ð»Ð½Ð¸
Ġcon ÅŁti
ĠÐ± Ð¾Ñı
ĠÑįÐ½ÐµÑĢ Ð³ÐµÑĤÐ¸
Ġperman ent
ĠÐ¿ÑĢÐ¸ÑħÐ¾Ð´Ð¸ ÑĤÑģÑı
ĠÐ´ Ð¾Ð±Ñĭ
ĠÐ¿Ð¾Ð»ÑĥÑĩÐ° ÐµÑĤÑģÑı
ÑĤÐµÑĢ Ð½Ð°
Ġref lec
ĠÐŁÐ¾Ð´ ÑĢÐ¾Ð±
iá»ĥ u
Ġm amÄĥ
ĠcÄĥ reia
Ġcondi Å£ii
Ġmin imas
Ġlaik ui
ĠTV A
ick Ã½ch
195 1
Ġcun oaÈĻte
Ġpas it
Ġmat yt
S M
Ġmar Å£i
Ġfotograf ie
Ġdu ra
ĠmÃ¢n tui
Ġcondi ÈĽiile
ĠÑĢÐ°Ñģ ÑģÑĤÐ¾Ñı
ĠJ ono
Ð¶Ð° ÐµÑĤ
ĠM uz
ĠVis kas
Ãº r
Ġvirtu vÄĹs
ĠReik ia
ĠÑĢÐ°Ð·Ð´Ðµ Ð»
Ġstriuk ÄĹ
ĠÑģÐ¾Ð·Ð´Ð° Ð½Ð¸Ðµ
ny m
Ġvy ro
ĠY paÄį
Ġsocial iniÅ³
ĠÑĥÑĤÐ²ÐµÑĢ Ð¶Ð´Ð°
ĠÑģÑĤÑĥÐ´ ÐµÐ½ÑĤÐ¾Ð²
ĠM GB
ĠÑħÐ¾ÑĢÐ¾ÑĪ ÐµÐ¼
Ð´Ð¸ Ð°
Ġatsp in
ĠTran sil
ĠDanie l
Ġtotu ÈĻi
d ÄĻ
ar ai
Ġum ane
ĠI gn
ĠRomÃ¢n Äĥ
Ġfra tele
ĠS ur
Ġf rag
ni os
Ġreikalav imÅ³
ĠÅ¡ tÃ¡
Ġle bo
ĠJ am
Ð¸ Ð¼Ð¾ÑģÑĤÑĮ
Ġmijlo ace
Ġto amnÄĥ
Ġorganiza cijÅ³
h la
Ġad ul
ĠO N
Ġdidesn is
ĠÐ¾ÑģÐ½Ð¾Ð² Ð½Ð¾Ð¹
Ġcu rent
ÑĩÐ¸ ÑĤÑĮÑģÑı
ĠÐ»Ð¸ Ð´ÐµÑĢ
ĠÑĩÐ° Ñģ
ĠÐ¿ÑĢÐ¾Ð´Ð¾Ð» Ð¶Ð¸
ÑĩÐµ ÑģÐºÐ¾Ð¼Ñĥ
ĠJuo zas
ov ala
ĠÐļ ÑĤÐ¾
ĠÐ¿Ð¾Ð»ÑĥÑĩÐ¸ Ð»Ð¸
Ġl iek
! âĢľ
Å ķ
Ġmir ÄĹ
ÐµÑĢ ÑĪÐµÐ½
Ġaks esu
ĠÐºÐ¾Ð¼Ð¼Ñĥ Ð½Ð¸ÐºÐ°
tel ÄĹje
ĠpirmÄħ jÄ¯
ĠiÅ¡ var
va jÃº
Ġnori si
ĠÐ¸Ð·Ð´ÐµÐ»Ð¸ Ð¹
Ġpak ar
Ġgim imo
Ġerd vÄĹs
Ġkomun ika
ĠÃ®mpÄĥr tÄĥ
ĠP lat
j ÄĻ
Ġypat ingai
Ġatro dÄĹ
Ġg ras
ĠT ol
Ġafir ma
ĠÑį Ð¿Ð¸
Ġk ank
Ġkomand Äħ
ÑĢÐ¾Ð¸ Ð´
ĠÐ½Ð°ÑģÑĤ Ð¾Ð»ÑĮÐºÐ¾
Ġaps up
ar ch
Ġfrec ven
Ġz ÃŃsk
Åŀ i
ĠÐ²Ñĭ ÑıÑģ
ĠÑģÐ¾Ð¶ Ð°Ð»
ĠÐ²Ð¾Ð· Ð±Ñĥ
ĠÐ¾ÑĤÐ»Ð¸ÑĩÐ¸ Ðµ
ĠÐ²Ñĭ ÑħÐ¾Ð´Ð°
ĠÐ´ÑĢÑĥÐ³ Ð¾Ð³Ð¾
ĠÐ¿ÑĢÐµÐ¿Ð¾Ð´Ð° Ð²Ð°
ĠÐ¿Ð¾Ð² Ð¾Ð´Ñĥ
Ġpia ÈĽa
Ġcel ul
ĠotÃ¡ z
Ġv ib
ĠP us
Ð°Ð»ÑĮ Ð½Ð¾Ðµ
Ġm unci
Ġsto go
Ġju des
Ġma j
' '
Ġsu dÄĹti
ĠÐĹ Ð°Ð¼
Ġpatir timi
Ġre volu
ĠS ol
O B
ĠÐº Ð¾Ð¶Ð°
Ġs ten
Ġban do
ĠaceÅŁti a
Ġtro Å¡k
ĠÐ§ Ð¸ÑĤÐ°
Ġ umoÅ¾
ĠvaÅ¾i uoti
Ġper se
ĠÐ²Ðµ ÑīÐµÑģÑĤÐ²
Ġpo ko
Ġsta mb
ĠprieÅ¾i Å«ra
ĠÐ²Ð¾Ð»Ð¾Ñģ Ñĭ
Ġat rasti
ĠÐ²ÑĭÐ¿Ñĥ ÑģÐº
Ġac te
Ġpalyg inti
y tos
Ġas tea
Ġvadov ai
ĠF ili
ĠÐ¶Ð¸ Ð»Ð¸
ÄĹs ti
Ð¾Ð¶ Ð´Ð°
ĠG el
ÑĩÐµÐ½ Ð¾
s h
ĠÐ² ÑĢÐ¾Ð´Ðµ
li ck
ĠÐ¤ Ð¾ÑĤÐ¾
ĠD ru
ĠÑĢÐ¾Ð´ ÑģÑĤÐ²ÐµÐ½
Ð´Ð¸ ÐºÐ°
Ġsem ne
ÈĻti lor
Ġvorb esc
Ġcunos c
Ġch á»§
ĠapibÅ« din
Ġqu áº£
c im
k inÄĹs
Ġd va
Ġgra v
Ġin se
Ġz ob
Ġdv asi
Ġkompani ja
Ġe ig
Ġte sta
âĢĻ ,
ĠK h
Ġpapildom ai
Ġran kos
Ġatstov as
ĠÐľÐµÐ¶Ð´Ñĥ Ð½Ð°ÑĢÐ¾Ð´
Ġch á»©c
... )
h ic
ĠÐ²Ðµ Ð»Ð¸ÑĩÐ¸
ier ului
Ġna ÈĽionale
ĠÄ¾ud ia
ÑĪ ÐºÐ¾Ð¹
ĠÐ½Ð°Ð¹Ð´ ÐµÑĤÐµ
ĠÃİn tr
? âĢľ
ĠÐ· Ð´ÑĢÐ°Ð²
ĠÐ½Ðµ Ð¼Ñĥ
o zaj
Ð» Ð»ÐµÐºÑĤ
ĠÐ¾ÑĤÐ½Ð¾ ÑģÑı
ĠÐ³Ð¾Ð² Ð¾ÑĢÑı
ĠÐ± Ð°Ñģ
ĠÐ»ÑİÐ± ÑĭÐµ
ÑĤÐ° ÑĤÑĮ
ĠÑĢÑĭÐ½ Ð¾Ðº
ĠÐ·Ð°Ð½Ð¸Ð¼Ð° ÑĤÑĮÑģÑı
ÑĢÐµ ÑĨ
s las
ĠA ko
ĠidÄĹj a
ch es
Ġvienin telis
ĠM y
Ġap u
Ġkal tin
el y
Ġpana Å¡i
Ġspe ran
Ġsiun Äįia
Ġkomis ija
ele s
Ġcontro lul
ĠÐĶ Ð¾Ð±Ð°
Ġmed iului
omen duo
ĠAleks and
dom e
N es
Ġpo dob
Ġpra tyb
Ġdid elÄĻ
Ġreikal auja
ĠÐ¿ÑĢÐ¸Ð½Ð°Ð´ Ð»Ðµ
ÑĤÐµÐ»ÑĮ ÑģÑĤÐ²Ðµ
Ġpre oc
Ġprojek tus
Ġbat ai
ĠiÅ¡ p
li Å«
P C
ĠÐ¿Ð¾ ÑĢÐ°Ð¶
Ġoc upÄĥ
tru oti
ÐĶ Ðµ
3 000
Au to
ĠÂ °
Ġvo t
Ġcor pul
de j
Ġde ra
ĠN ik
ĠÐ¿Ð¾Ð» Ð½ÑĭÐ¹
ĠTo to
Ġpo ti
to ni
ÈĽ ului
t un
ĠC ris
c ord
Ġlie muo
S K
ĠÅ½ u
Ġsp oj
Ġsen si
ĠÅ¾ ir
ĠPas laug
Ġgy va
tyv Å³
ĠÐ»ÑİÐ±Ð¾Ð² ÑĮ
Ġinform Ã¡cie
Ð±Ð¸ ÑĢÐ°ÑĤÑĮ
ĠÐ½Ð°Ð¿ Ð¾Ð¼Ð¸Ð½Ð°
ÑĢÐ¸ ÑĤÐ°
Ð»Ñı ÐµÐ¼
ÑĩÐ¸ Ð²Ð°ÐµÑĤÑģÑı
ca ta
ĠÐ±Ð¾Ð»ÑĮ ÑĪÐ°Ñı
ĠÑĤÑĢÐ°Ð½ÑģÐ¿ Ð¾ÑĢÑĤÐ°
ĠÑĦ ÐµÑĢ
ĠÑģ ÑĢÐ¾ÐºÐ°
ĠÐ¶Ðµ Ð»ÑĥÐ´
Ġunde va
ton ul
ĠlÄĥ sa
tu alÄĥ
ĠEx istÄĥ
es ea
Ð½ Ð¾Ð´
I ON
Ġprogra mas
U ni
au p
ĠÃ®mp ie
Ġne aiÅ¡k
ĠÐĴÐ° ÑĪ
b es
Ġsavivald ybÄĹ
Ġsp unea
ĠM c
Ġkh u
cijos e
Ġpie lea
Ġmus ÃŃ
er Ä¯
ĠPie tÅ³
T U
ĠA D
Ġsur pri
Ġnep ate
Ġdis tin
Ġam Ã¢n
Ġteh nice
Ġan terior
Ġp Ã¢
ĠrÃ¡m ci
Ġsur se
ĠÐ· Ð´Ð°Ð½Ð¸Ñı
Ġolim p
vo liu
ĠÐ¾Ð± Ð¸
ĠEuro pei
ĠÑĤÐµ Ð¼Ñĭ
ĠÑĥÑģÐ¿Ðµ ÑĪ
ĠÐ·Ð°Ð½Ñı ÑĤÐ¸Ñı
c Ãº
ĠÐŁ ÑĢÐ¾Ð´Ð°
ÑĢÐ¾Ð²Ð° Ð½Ð¾
Ġvertin imo
ĠtÅ«kstan ÄįiÅ³
ĠÑĢÐ°ÑģÑĤ ÐµÐ½Ð¸Ñı
ÑĥÐ» ÐºÐ°Ð½
Ġkon tra
ĠÑĦ ÑĢÑĥ
Ġerd vÄĹje
Ġpato gus
Ġfi ul
ĠÄ¯staty mÅ³
Ġsus il
Ġvaiz duo
ĠPasaul io
Ġaplink a
ĠÐĶ Ð¾Ð±
ĠÐ¿Ð¾ÑĢ ÑĤ
Ġpinig ai
te ran
Ġv nÃº
ĠCo legi
ĠmiÅ¡k Å³
g lob
ĠCh ina
Ġkam er
ĠÈĻ an
an ka
ĠÅ¾ ar
Ġpas te
ĠpajÄĹg Å³
ĠP r
Ġextra ordin
ĠÅ¾aid imo
ĠÑĤÐ°Ðº ÑĥÑİ
ies e
Ġvol un
esn ÄĻ
ĠÅ¾od Å¾iai
ĠÐ¿Ð¾Ð² Ðµ
ten ie
Å¾ inÄĹs
ĠÄ¯reng ti
ori us
ÑĥÐ± Ð»Ð¸Ñĩ
Ġzd ravo
Ġimo bil
ĠÐ¸Ð·Ð¼ÐµÐ½ ÐµÐ½Ð¸Ð¹
ĠÐ¿ÑĢÐ¾Ð¸Ð·Ð²Ð¾Ð´Ð¸ ÑĤÐµÐ»Ñı
ÑĤ ÐºÐ¾Ð²
ĠÐ·Ð° ÑħÐ²Ð°
ĠÅ¾inias kl
Ġpalai kyti
ĠÐ² ÐµÐº
ĠÐ½Ð°ÑĩÐ¸Ð½Ð° ÐµÑĤ
Ġauto ve
ĠmaÅ¾ iausiai
ĠAl gir
Ġpre h
Ġeks peri
ĠÐ¾ Ð´Ð¸Ð½Ð°
ĠÐ± Ð¾Ð³
ĠÑģÐ¿ Ð¾ÑĢÑĤÐ°
Äĥ nÄĥ
ĠBul g
ĠsfÃ¢rÅŁit ul
ĠÐ½ÐµÑĦ ÑĤÐ¸
ie st
Ġmak ia
Ð¡ Ñĥ
ĠÃ´ ng
Ð»Ðµ ÑĨ
igh t
Ġputern icÄĥ
Ġrezulta tas
Ġperi col
Ġresp ubli
Ġprakti Å¡kai
ĠatÃ¢ ta
Ġdu hov
Ġeks plo
Ġsup aÅ¾in
peri or
Ġkil mÄĹs
Ġsitua ÈĽia
id erul
Ġde vy
ĠÐ» Ð¾
ĠÑĥÑģÑĤÐ°Ð½Ð¾Ð² Ð»ÐµÐ½
ĠÐĵ Ñĥ
al t
Ġurgen Å£Äĥ
Ġsa tis
zu tÄĥ
ĠÐ¿Ð¾Ð´Ð³Ð¾ÑĤÐ¾Ð² ÐºÐ¸
ĠÐ¡ÐµÑĢ Ð³Ðµ
ĠÐ¶Ð¸ ÑĤÑĮ
ĠÐ¿ÐµÑĢÐ² Ð¾Ð¼
Ġval s
ĠÑģÑĤÑĢÐ¾Ð¸ ÑĤÐµÐ»ÑĮÑģÑĤÐ²Ð¾
ĠÐºÐ¾Ð½ÑĤÐ° ÐºÑĤ
ĠÐ¿Ð¾ÑģÑĢÐµÐ´ ÑģÑĤÐ²Ð¾Ð¼
ĠÄĳ Æ°á»Ŀng
Ð»Ðµ ÑĢÐ°
ny kÅ¡
Ġtik riausiai
Ġimpre sion
Ġm yg
Ġcom enta
Ġsiste mÅ³
in Å£i
ta cija
Ġsukur ta
Ð¼Ñĥ Ð»Ð¸
amo z
ĠÑĥÐ³ Ð¾Ð»
Ġsvo jich
ĠvarÅ¾yb ose
ĠNe priklausom
Ġevid ent
Ġaplin koje
ĠV en
ag en
Ġsk ul
ĠO p
Ġko j
Å¡ie l
Ġpotreb nÃ©
Ġtine re
ĠpÄĥ cat
Ġpagam inti
ĠÐ½Ð¸ÐºÐ° ÐºÐ¸Ñħ
Ġsa kyti
ĠÐŀÐ± ÑĬ
ĠÐ²ÐºÐ»ÑİÑĩÐ° ÐµÑĤ
ĠÑģÑĤÐ°ÑĤÑĮ Ðµ
ĠÐĿÐ¾Ð² ÑĭÐ¹
d ol
Ġj ÄĹga
ic u
ĠÐ´Ð¾Ð±Ð° Ð²Ð¸ÑĤÑĮ
ĠÅ¾od Å¾io
ĠÐ¿Ð¾Ð´ ÑĩÐµÑĢ
Ġpateik iami
Ġvaik Äħ
Ġvaland Äħ
Ġintro dus
Ġb áº£n
ĠprÃ¡ ce
dÅ¾ iais
Ġpia Å£Äĥ
Ġg rea
Ġsus ÈĽin
pad is
? "
Ġlip s
Ġprez ente
, -
ĠÐºÐ¾ÑģÑĤ Ñİ
ĠG im
AN D
Ġpam irÅ¡
se g
Ð³Ð¾Ð² Ðµ
Ġcum va
Ġpad ed
Ġe ti
ĠO c
ver tÄĹ
Ġph áº§n
Ġth Æ°á»Ŀng
tud inea
Ð²Ð° Ð½Ð¸Ð¸
ĠÐ¿ÑĢÐ¾Ð±Ð»ÐµÐ¼ Ð°
Ġch od
ĠÑģÑĤ Ð¾
ei do
ÑĩÐµ Ðµ
ĠÐ´Ð¾Ð»Ð»Ð° ÑĢÐ¾Ð²
ĠÐ¡Ð¿Ð° ÑģÐ¸Ð±Ð¾
or da
ĠT ais
ĠPirk ÄĹjas
ĠDin amo
o ur
? âĢĿ
Ġpl atÄĥ
ĠÐ¼Ð° Ð¹
N auja
ĠÐ ©
Ġpato gi
ĠÐ¿ÑĢÐ¸Ð½Ð¸Ð¼Ð° ÑĤÑĮ
Ġketuri Å³
G er
ĠK iek
Ġa tat
ĠPre mi
Ġkok ius
mu osius
v usi
Ġinflu en
Ð»Ð¸Ð½ Ð´
Ġsp v
Ġi mb
Ġcivili za
te chn
p tare
ĀĀĀĀĀĀĀĀĀĀĀĀĀĀĀĀĀĀĀĀĀĀĀĀĀĀĀĀĀĀĀĀ ĀĀĀĀĀĀĀĀĀĀĀĀĀĀĀĀĀĀĀĀĀĀĀĀĀĀĀĀĀĀĀĀ
var k
ti re
Ġriebal Å³
Ð¾ÑĢÐ¾ ÑĪ
ĠÐ¾ÑĤÐ½Ð¾ÑģÐ¸ ÑĤÑģÑı
ĠÐºÐ° ÐºÐ¸Ð¼
ĠÐ¿Ð¾Ð·Ð² Ð¾Ð»Ð¸
ĠÐ´Ð¾ÑģÑĤÐ°Ð² ÐºÐ°
ĠÐ¸Ð·Ð¾Ð±ÑĢÐ°Ð¶ ÐµÐ½Ð¸Ñı
ĠÑĥ ÑĢ
ĠÐ¾Ð±Ð½Ð° ÑĢÑĥ
ĠÐ½Ð¾Ð² Ð¾Ðµ
ut ÄĹmis
ĠÐ¿ Ð»Ð¸
199 4
Ġbend rauti
ÈĻedin tele
Ġki tam
inan ÄįiÅ³
Ġt Ã¬nh
Ġsu rasti
ÃŃ c
Ġtip uri
Ġedi ÈĽie
ĠÐĲÑĢ ÑħÐ¸
Ä¾ u
Ð³Ð¸ Ð½
ÑģÑĤÐ²Ð¸ Ð¹
Ð¾Ð»ÑĮ ÑĪÐµ
Ġsan tuok
Ġl ub
Å¾ ie
ĠzÃ¡ kon
ĠÄįas Å¥
E B
Ġkain uoja
Ġevid en
res as
ru mu
tik as
Ġf le
ÑĥÐ´ Ð¾Ð²
Ã© r
Ġinfras trukt
Ð½Ñĥ Ð»Ð°
ĠÐ² Ð¾Ð´Ð°
Ġpapildom Å³
Ġ/ .
Ġgener alÄĥ
ĠLoc al
áº¹ p
ÑĨÑĥ Ð·
ĠÐ½Ð° ÑģÑĭ
ĠÐ¿Ð¾Ð»Ñĥ ÑĩÐ°ÑĤÑĮ
zi as
ĠÐ¶Ð¸ ÑĤÐµÐ»ÐµÐ¹
ĠÑĤÑĥ Ð´Ð°
ĠÑģÐ¼Ð° ÑĢÑĤ
Ġilg Äħ
Ġnegal ÄĹjo
ĠÑģÐ»ÐµÐ´ÑĥÑİÑīÐ¸ Ðµ
Ġe mail
ĠB acÄĥ
Ġprimar ul
Ġkeli ais
Ġsien Å³
Ġins pec
ĠÐ¿ÑĢÐ¸ ÐµÐ¼Ð°
ĠÅ¡il dymo
Ġfak ulte
ÈĽ area
Ġju cat
ĠÅ¡im tme
in are
Ġsto vi
m od
Ġapro bat
Ġtyri mas
] ,
Ġpasid ar
uo to
Ġlais vai
Ġci vi
nÃº Å¥
Ġlai mÄĹ
Ġktor Ã©ho
Ġkovo ti
Ġskir tos
Ġre i
Ġry Å¡iÅ³
Ġkli Å«
os ul
di jÅ³
Ġsim plÄĥ
ÐµÐ½ ÑĤÐ¾Ð¼
ĠÐ½Ðµ Ð´
g ran
Ġrin ko
ĠÑĢÐ°ÑģÐº ÑĢÑĭ
ĠÐ²Ð¸ Ð´ÐµÑĤÑĮ
Ġag res
ĠÑģÐ¾Ð¶Ð°Ð» ÐµÐ½Ð¸Ñİ
Ġmet alo
Ġdes em
ĠÐ¾ÑĦÐ¸ Ñģ
ĠA si
ĠÐ¿Ð¾ÑĢÑıÐ´ Ð¾Ðº
ĠÐ²Ð°ÐºÐ°Ð½ ÑģÐ¸Ð¸
Ġcam pion
Ġimp osi
Ġpr vÃ½
tra t
Ġstipri ai
min te
Ġd Ã¹ng
ĠÐ³Ð° Ð·Ð°
ĠÐ½Ð¾ ÑĩÑĮ
Ġgr Å«
ĠNa ÈĽionalÄĥ
ĠrÄĥ b
Ġsky riÅ³
tori umi
ĠuÅ¾ d
Ġatsakom ybÄĹs
Ġp ÄĹd
Ġpuos el
op erÄĥ
Ġ Å£ine
ĠL ig
m un
ul s
ĠÑĩÐ° ÑģÑĭ
nu tia
A K
ĠÑģÐ¸ Ñħ
Ġb loc
lu Å¡
l ama
ĠdidÅ¾iaus iÅ³
Ġna y
Ð° Ð´
uk Äħ
Ð½ÐµÐ¹ ÑĪÐ¸Ñħ
ĠÐ³ ÑĢÑĥÐ´
ĠÐºÐ°Ð¶Ð´ Ð¾Ð¼
na ko
ĠÐ° Ð²Ð°
ĠÑĥÑĩÐµÑĤ Ð¾Ð¼
Ġnori me
ÐºÑĤ ÑıÐ±ÑĢÑĮ
ĠÐº ÑĢÐ¾
ĠÅ¾en klas
ĠÐ¿Ñĥ ÑĤÑĮ
ĠÐ¿ÑĢÐ¸Ð½Ñı Ð»Ð¸
Ġb lu
ĠS usi
ÑīÐ¸ ÐºÐ¸
Ð½Ð¾Ð² ÑĮ
Ġnumaty ta
Ġa tel
Ġver tus
Ġna tura
Ġatve jÅ³
ÄĹ damas
Ġpra monÄĹs
Ġdaik tÅ³
ĠÐ±Ð»Ð° Ð³Ð¾
Ġauto turi
Ġb ac
ren ta
U I
ĠLi ga
Ġden umi
Ġmu Å¾
Ġglo bal
ĠÐļÐ°Ð·Ð° Ñħ
ĠPo trivit
ĠdÃ´ leÅ¾it
ĠP ana
j ei
ujÃº ci
Ġtams iai
i on
S B
Ġfe re
Ð¼ Ð¾Ð»
ĠromÃ¢n ilor
ĠIs ra
Ġcultur al
Ġgal iausiai
Ġo arÄĥ
Ġkok iu
Ġcomple tarea
Ġe Å¾e
Ġap gyvendin
Ġechi lib
Ġprofesion alÄĥ
ro ch
qu e
Ġlais vÄĻ
Ġgyven tojams
ĠÐ¿ÑĢÐ¾Ð²Ð¾Ð´Ð¸ ÑĤÑģÑı
Ġcuprin de
rie rea
Ð¾Ðµ Ð´Ð¸
ÑĩÐ¸ÑĤÐ° ÑĤÑĮ
Ġprie kÄ¯
á»Ń a
ĠÐ²ÑĢÐµÐ¼ÐµÐ½ ÐµÐ¼
ĠÐ¸Ð½ÑĤÐµÑĢ Ð½ÐµÑĤÐµ
ĠG ied
Ġadaug Äĥ
Äĥ lalt
ĠÑģÑĥÐ´ ÑĮ
ĠÐļ Ð¾Ð½ÐµÑĩÐ½Ð¾
ÑģÐµ Ð»
ĠÐ¸Ð³ ÑĢÐµ
Ġfiz icÄĥ
k liÅ³
ÐµÐ· Ð´Ð°
ĠÑĢÐµÐºÐ¾Ð¼ÐµÐ½Ð´Ñĥ ÐµÑĤÑģÑı
ĠÐ²Ð¾Ð¿ÑĢÐ¾ ÑģÐ¾Ð²
Ġmu ze
Ġbiu ro
âĢ¦ )
ink Å³
ĠÃ®ntÃ¢l nit
Ġdeas upra
á»Ļ ng
v Ã¤Äį
Ġdokum entai
Ġcamp an
b inte
lo ad
Ġpoils io
ri bo
Ġpasta tÅ³
Ġamen aj
ĠG av
Ġhor mon
yn Å³
Ġok upa
Ġa ia
ov Å³
O J
ĠÅł vent
Ġpas tar
Ġne ra
ĠrÅ«Å¡ is
ĠM Ã¡
ĠÐļ ÑĢÐ¸
ĠÑĢÐµÐºÐ»Ð° Ð¼Ñĭ
an ga
Ġdid Å¾io
Ġ- ---
Ġcred it
ĠÐ´ÐµÐ¹ÑģÑĤÐ²Ð¸ Ðµ
Ð¸ Ð¼Ð¾
Ġraumen Å³
ĠÐ° Ð½Ð°
ĠK u
Ġtre cutÄĥ
ÐµÐº Ð¾ÑĤÐ¾ÑĢÑĭÐµ
ĠÐ±Ð¾Ð»ÐµÐ· Ð½Ð¸
Ġb or
ĠÐĶÐ° Ð¶Ðµ
an ca
ĠÐ¿ÑĢÐ°Ð² Ð´Ð°
ĠÐ¿Ð¾ÑģÐ»ÐµÐ´ Ð¾Ð²Ð°
Ġum an
Ġmais tas
Ġpasir Å«p
Ġkredi to
ĠKiekvien as
ur g
Ġpagrin du
ĠpraÅ¡y mÄħ
ĠÐ¸ÑģÑĤÐ¾Ñĩ Ð½Ð¸Ðº
tel ÄĹjo
ĠÑĢÐ¾ÑģÑģÐ¸Ð¹ ÑģÐºÐ¸Ñħ
Ð¾Ð¼ Ð°ÑĤ
l ova
Ġaro mat
Ġac ciden
Ġsyst Ã©m
p vz
Ġ }
Ġna turÄĥ
Ġprezid ento
Ġva ra
ĠskÃº sen
Ġi tali
ĠoraÅŁ ului
Ġkele tas
Ġcorp ului
ĠÑĤÐµÑħ Ð½Ð¸ÐºÐ°
ti rea
ĠP aÅ¾
ori Å³
ĠÑģÐ¸Ð¼ Ð¿ÑĤÐ¾Ð¼
Ġmedic alÄĥ
ĠÐ¿ÑĢÐµÐ´ Ð¿Ð¾Ñĩ
ant Äħ
ĠLR T
ĠKalÄĹ dÅ³
ad u
ÑģÐº Ð¾Ð¿
M P
ĠI isus
ter Ä¯
ĠÐ¿ÑĢÐµ ÑģÑĤÑĥÐ¿
ĠÐļÑĢÐ°Ñģ Ð½Ð¾
ĠÐ´ Ð²Ð¾ÑĢ
Ġpre daj
Ġsprend imai
Ġsve Äįiai
v ams
ĠÑģ ÑĩÐ°ÑģÑĤ
g ÄĻs
Ġbai e
ĠÑģÐ»Ð¾Ð² Ð¾
ai Äįio
ÐµÑĤ Ð¾Ð²
ĠÐ¿ÑĢÐ¾ ÑħÐ¾Ð´Ð¸
Ġsen za
ĠÐ²ÑĭÑģÐ¾Ðº Ð¾Ð³Ð¾
ĠÐŀ ÑĤÐµ
áº¯ ng
Ġraud on
Ð¾Ð³ÑĢÐ°Ð¼ Ð¼Ð°
ĠstrÄĥ lu
Ġla c
Ġjednot li
am Å¾
ten ia
ĠÐ¸ Ð½Ð°ÑĩÐµ
Ġsusp end
Ġp ail
ĠVokieti joje
, ,
Å¾ val
Ġnetur ÄĹtÅ³
Ġp Ã¢n
in au
kur si
ĠS tatele
ĠraÅ¡ oma
Ð¿ Ð»ÐµÐºÑĤ
Ð¾Ð»Ð½ ÑĨÐµ
â Ĩ
ĠÑģÐµÑĢÐ´ ÑĨÐµ
ĠÑģÑĤÐ° Ð½Ð¾Ð²
ÑĤÐ¾ Ðµ
ÑĢÐ¾Ðº Ð¸
Ġi si
ĠÐ¾ ÐºÐ°
zi joje
ĠÐ¥ Ð¾ÑĤÑı
Ġistori c
ĠN us
Äįas t
Ġveni turi
ĠÐ¿Ð¾Ð» Ñı
v aikÅ¡Äįio
Ġsc os
B Å«
ĠÐļ ÐĲ
Ġdis ku
ĠO R
Ġelek tro
Ġmokes Äįio
ĠiÅ¡band yti
ik ei
ĠlucrÄĥ rile
ĠÑģÐ¾Ð±Ñĭ ÑĤÐ¸Ð¹
Ġcom bina
Ġprieten ii
ĠÄ¯ gy
Ġlimi ta
Ġh ra
ti tul
z us
ov er
Ġfir me
Ġnhi Ãªn
ĠD I
Ð· Ð¾ÑĢÐ°
ĠCod ul
Ġa ÅŁe
mo c
Ð»Ð¸Ð¼ Ð¿Ð¸
ĠT as
ĠÑģÐ¾Ð´ÐµÑĢÐ¶Ð° Ð½Ð¸Ðµ
Ġsk il
ĠÐºÐ¾Ð¼Ð¿ Ð¾Ð·Ð¸
ĠÐ¼Ð°Ð³Ð°Ð·Ð¸ Ð½Ð°
ĠuÅ¾ fik
P al
Ð·Ñĭ ÐºÐ°
ĠÐ·ÐµÐ¼ Ð»Ðµ
ĠÐļ Ð¸ÑĤÐ°Ð¹
ĠÐ¿ÑĢÐ¾Ð´Ñĥ ÐºÑĤÑĭ
Ġvie toj
Ñĩ ÑĳÑĤ
Ð· ÐµÐ¹
Ġtre ÄįiÄħ
ÐºÐ¾Ð² ÑĭÐ¹
Ġtink amÄħ
ĠR ag
Ð± ÑĢÐ¾
Ġk áº¿
Ġalim enta
An d
ĠpreÅŁedin te
g ori
ĠÄĮ es
Ġperson alÄĥ
ĠÐ¿ÑĢÐµÐ´Ð¾ ÑģÑĤÐ°Ð²Ð»ÐµÐ½
)) )
Ġsum an
Ġb ie
Ġe va
Ġinfras truc
Ġpro mo
Ġnu tri
ĠÄĳ o
ĠsiÅ«l ome
Ġc ui
Ġpiln ai
jun ga
Ġag ri
Ġperi cul
Ġm az
Ġfor mÅ³
ku toÄį
N R
Ġabe jon
Ġgamin tojÅ³
ĠÐ² ÑħÐ¾Ð´Ð¸ÑĤ
Ġwe ek
ĠÐ¿ÑĢÐ¸Ð¼ÐµÑĢ Ñĥ
ĠÐ¿Ð¾Ð»Ð¾Ð¶ ÐµÐ½Ð¸Ñı
Ð³Ð¾ ÑĤÐ°
Ġse mi
d ÄĹm
ĠÐ¿ÑĢÐµÐ´Ð»Ð°Ð³Ð° ÐµÐ¼
Ð¾Ð½ ÑĮ
in ilor
ĠÐ¾Ð±ÑĬ ÑıÐ²Ð»ÐµÐ½Ð¸Ñı
Ġnuotrauk os
Ġcame ra
ĠÐ²Ð·Ð³Ð»Ñı Ð´
ÑģÑĤÐ°Ð²Ð¸ Ð»
ĠÐ´Ð¸Ð° Ð¿Ð°Ð·
Ġdo anh
ĠÐ¿Ð¾ÐºÑĥÐ¿ ÐºÐ¸
ĠÐ´ÐµÑĤÐ° Ð»Ð¸
10 2
ĠÑĢÐµÐ·ÑĥÐ»ÑĮÑĤÐ° ÑĤÐ¾Ð²
ĠÐľ Ð¾Ð¶ÐµÑĤ
ĠL ap
Ġle k
ĠÐ¸ÑģÐ¿ Ð¾Ð»Ð½Ð¸ÑĤÐµÐ»ÑĮ
k g
Ġan ual
Ġsvo rio
Ñī ÐµÑĢ
Ġm ÅĪa
ĠS t
Ġro d
Ġse ba
ĠSi un
ĠÄ¯vyk iÅ³
Ġrezulta tul
Ġcultur ale
ĠÐ± Ð¾Ð³Ð°
ĠÐ¿Ð¾ ÑĢÐ°
ĠÐ´Ð¸ Ñģ
ĠÐ² ÐµÑĤÐµ
ĠÐ¸Ð³ÑĢÐ¾Ðº Ð¾Ð²
na Å¥
ĠÐ½Ð° ÐºÐ¾Ð½
ÑĢÐ¾Ð²Ð°Ð½ Ð½Ð¾Ð¹
Ġz ak
Ġal ÈĽii
Ð¿ ÐµÐ²
ĠÅ¡ lap
Ġpapl Å«dim
Ġde pl
ÐĴ ÐĶ
Ġconte xtul
Ġfa vori
are n
Ġsiguran Å£Äĥ
n uit
Ġdos arul
g oms
ĠGal bÅ«t
Ġevenim entului
j ÄĻs
ve re
V Äĥ
Ġnauj ov
or Å³
Ġpublic ului
Ġprof it
Ġp Ã¡r
Ġin fec
ĠÅ¡ ko
Ġkos me
Ġs vie
Ġpasip rieÅ¡
ĠMunicipi ului
Ġm Ã¡m
Ġprof i
h rad
ĠÐ·Ð½Ð°ÐºÐ¾Ð¼ ÑģÑĤÐ²Ð°
Ġnugar os
Ġvo ie
ĠiÅ¡ vaiz
Ġpod nik
ĠS tal
Ðļ Ð¸
Ġdu jÅ³
g ÄĹs
ĠaukÅ¡ to
Ġper tvar
tar Å³
ĠÐ½Ðµ Ð´Ð¾ÑĢ
Ġb ru
ÐĶ Ðŀ
Ã ģ
S C
ÑĤÐ¸ Ð½Ð³
Ñĩ Ñĳ
Ġdom ina
ĠmÄĹs os
ĠÐ²Ðµ ÑīÐµÑģÑĤÐ²Ð°
ÑħÑĢÐ° Ð½Ð¸
Ð½ Ð½Ð¾Ð¹
Ġvad ovo
sty mo
ÑĢÐ¸ÑģÑĤÐ¸ Ð°Ð½
Ñį ÑĦ
Ð½ ÐµÑĤÑģÑı
ka b
ÑĢÐ° Ð²Ðµ
ĠjÄĹg Å³
Ġalkoho lio
Ġinstitu to
Ġprevede rile
Ġvite zÄĥ
de z
Ġap e
Ġz vÃ½
Ġpra vid
ĠTimiÈĻ oara
Ġat rac
ÑĢÐ¾Ð²Ð° Ð½Ð¸Ð¸
ĠÐ½Ð° Ð»Ð¾Ð³
Ġfil mo
ĠÐĲÐ² ÑĤÐ¾Ð¼
Ġpia ÈĽÄĥ
ĠChiÈĻ inÄĥu
u j
Ã© my
Ġh Ä¾ad
Ġsec torul
Ġnieko Ä¾ko
val o
ĠS M
lai da
Ġs le
d area
ĠÐ¿Ð¾Ð» Ð½Ð¾Ð¹
Ġp lec
Ġs ana
Ä¾ ov
ĠÑĥ Ð´Ð¸
ÐĶ Ð¾
ĠÐ·Ð½Ð° ÑĩÐµÐ½Ð¸Ñı
ĠÐĺ ÑĤÐ°
ÑģÑĤÐ²Ñĥ Ð¹ÑĤÐµ
ĠÐ²Ðµ Ð±
ĠÑģÐ¾Ð¾Ð±ÑīÐ¸ Ð»
ĠÑĢ Ð¾Ð´Ð°
Ġ Äĥn
ok a
D abar
ruo ju
" )
Ð¾Ð¶ Ð´Ðµ
Ġnep at
Ġi tal
Ġgyv Å«nÅ³
ĠÄĳá» ģ
Ġa Å£i
Ġnov Ã©
ĠÐ¿ÑĢÐµ Ð·
Ġan al
P ubli
ĠÑĢÐ°Ð±Ð¾ ÑĩÐµÐ³Ð¾
Ġnuro dyti
Å¡e v
ĠL um
ting Äħ
2 30
Ġproprie tate
ĠCristi an
Ġcap Äĥ
ĠMon di
ĠÅ¡ta bo
Ġob Å£ine
Ġajung Äĥ
Ġconte mpo
Ġp antal
ĠÐ°Ð´Ð° Ð¿
ta tul
ĠbÅ«d ais
Ġtá» Ľi
Ġm ÄĹl
at h
ĠÐ¾ÑģÐ½Ð¾Ð² Ð½ÑĭÐµ
ĠÑģÐ¾Ñģ ÐµÐ´
ĠÐ½Ðµ Ð¼Ð°
ĠÑģÑĥ Ð´Ð°
Ð·Ð° ÑĨÐ¸Ñİ
T ER
Ð»Ðµ Ñģ
Ð½Ð¸ Ð²ÐµÑĢ
Ġpanaudo ti
ĠÑĥ Ð¶Ð°
ÐµÑĢÐ¸ ÑĤÑĮ
ĠÐ¡Ð¸ ÑģÑĤÐµÐ¼
Ġnuotrau koje
Ð¼Ð°Ð³Ð°Ð·Ð¸ Ð½
ĠhotÄĥrÃ¢ re
ĠMo to
Ġpalik o
do be
ĠÐ¿ÑĢÐ¾Ð¸Ð·Ð¾ÑĪ Ð»Ð¾
Ġapib rÄĹÅ¾
ĠÐ» Ð¾Ð²
ĠÐ²Ð¸ Ð´Ð¸
Ġos tat
Ġkor pus
ĠÐ¸Ð¼ Ð¿
Ġdec at
zd el
Ġlá»Ľ n
Ġse rijos
ĠÐ¤ ÐµÐ´
tivi tatea
Å« pin
ĠÐ´Ð¾ ÑģÑĤÐ¾Ð¹
g on
Ġv Ã¢nd
ĠP ok
Å¡ t
Ġod por
ĠvÃ¤Äį Å¡
Ġad mite
ĠG ai
Ġj oms
Ġdovan Å³
Ġpron un
ames tn
Ġspeci alÄĥ
ĠvarÅ¾ ybÅ³
Ġprale isti
Ġobjek to
ĠÐ¢ Ð¾Ð¼
ĠÅ¾ini os
Ġkompani jos
ĠÐºÑĥ Ð¿Ð¸
ĠÐ¾Ð±ÑĬÑıÐ² Ð»ÐµÐ½Ð¸Ð¹
Ð¾Ð± Ð¾ÑĢÐ¾ÑĤ
ra zi
ĠMa x
ĠÐ½Ð° Ð²Ñĭ
ĠÑģÑĤÐ° Ð±Ð¸
Ð´ Ð¶Ð¸
Ð¼Ð¸ ÑĤÐµ
Ð½ ÐºÐ°
ĠgrÄ¯Å¾ o
Ð´Ñĥ Ð¼Ñĭ
Ġprevede rilor
Ġprogimnaz ijos
Ġv ali
Ġg ais
Ġtink lalap
Ġintra rea
Ġpirm adien
Ġdie Å¥a
tin iams
Ġloc ului
Ġorganiz ate
Ġaplan kyti
aug os
Ġda to
Ġpagrindin ÄĹ
ĠprÃ¡ v
Ġsvoj ho
Ġnuotrauk Å³
Ġnor ÄĹjo
? )
ĠR ol
Ġpo f
ĠK li
org aniz
tie re
ĠpaÅ¡ tas
ÑĤÐµ Ð»Ðµ
ÑģÑĤ ÑĢÑĭ
us is
ĠÐ½Ð° ÐºÐ°
Ġsc and
ĠÐ²Ð¾Ñģ Ð¿Ð°
ĠÐ²ÑģÐ¿ Ð¾Ð¼
Ð¼Ð¾ÑĤ ÑĢÐ¸ÑĤÐµ
Ġcon curen
Ġk Å«nÄħ
ĠÐ¾ ÑģÑĤÐ°Ð²Ð»Ñı
ĠB ron
ĠÑģÐ¾ÑĨÐ¸Ð°Ð»ÑĮ Ð½Ð¾Ð¹
ĠÐ·Ð°ÐºÐ»ÑİÑĩÐ° ÐµÑĤÑģÑı
ĠÐ·Ð° Ñħ
ĠÐ¿ÑĢ Ð¾Ð¹ÑĤÐ¸
ĠÐ¶ ÐµÑĢÑĤ
ĠÐŁÐµ ÑĢÐµÐ´
Ġk ros
Ð¾Ð³ÑĢÐ°ÑĦÐ¸ Ð¸
ĠS ie
ĠVi deo
ĠnÃ¡ ro
Ġmeil ÄĹ
ĠÐ¿Ð¾Ð´ Ð¿Ð¸ÑģÐ°
Ġpar aiÅ¡k
Å¾ el
Ġatei ties
ĠuÅ¾ bai
ĠjÄĹg os
ĠB ibliote
Ġlaiky tis
Ġkult Å«ra
Ġru d
ĠÑģÐ¾Ð²ÑĢÐµÐ¼ÐµÐ½ Ð½ÑĭÑħ
tori ui
Ġsch op
M od
Ġlu x
ĠÐ¼ÑĥÐ¶ ÑĩÐ¸Ð½Ð°
Ġz loÅ¾
Ġgrin dÅ³
S pal
ÐµÑĢ Ñĥ
ĠInterna tional
ĠÐł ÐµÐ·
ch an
Ġb Ã¡n
Ġobi ÅŁ
L ie
ÅŁ u
ĠA j
ĠcÄĥ rui
Ġob lig
ĠVe Ä¾
Ġale gerea
ĠÐ´Ð° ÑĤ
ĠoraÈĻ ul
ĠÑģÐµÑĢ Ð´Ðµ
ĠPet ro
Ġpasa ky
Ġper trauk
ĠÐº Ð»Ðµ
Ġatsilie p
ĠÐ½ÐµÐ´Ð° Ð²Ð½Ð¾
ĠkaÅ¾k ok
Ġau klÄĹ
Ġvidutin io
st ri
Ð² ÑıÑĤ
Ġap lank
Ġspeci fic
Ð» ÐµÑĤÐ¸
Ġspor tinink
Ġper Å¾iÅ«rÄĹti
ĠÐ±Ðµ ÑģÐº
Ð¼ÐµÐ½ Ñĭ
ĠKri sta
P ad
ĠÐºÐ¾ÑĢÐ¿Ñĥ Ñģ
Ġskyri uje
ĠÄ¯ pro
Ġapsaug oti
ĠT ink
Ðĵ Ð£
Ġvam z
ÐĽ Ðµ
Æ° u
ĠSfÃ¢n tului
ĠÐ¼Ð½Ð¾Ð³Ð¾ Ðµ
Ġmunicipi ul
Ġf ai
van ÃŃ
Ġren k
Ġmon um
g or
ĠT ud
ÐĽ Ðķ
Ġlang Å³
Ġa ren
ĠmÄĹly na
ĠSfÃ¢n ta
u tat
ĠÐºÐ°ÑĢÑĤÐ¸Ð½ ÐºÐ¸
itai ko
Ġw ith
en ce
Ġl Ã¡
Ġlei dÅ¾i
Ġpritai ky
Å¡ ak
Ġsavai tes
Ġadres as
ĠÑģÑĤÑĢÐµ Ð¼Ð¸
j ului
Ġbai gÄĹ
ĠÐ¼ Ð¾ÑĤÐ¾ÑĢ
ĠL im
Ġlan ks
Ġlim bÄĥ
Ġdisp une
Ġu ro
ĠÑģÐ¿ÐµÑĨÐ¸Ð°Ð»ÑĮ Ð½Ð¾
ri z
ĠÐ°ÐºÑĤÐ¸Ð² Ð½Ð¾
Ġde li
ÑĩÐ¸ Ð¹
Ġbal ta
ĠÐ¿Ð¾Ð»ÑĮÐ· Ñĥ
ĠÐ¿Ð¾ ÑıÑģ
ĠÑģÐ¼ÐµÑĢ ÑĤÐ¸
ĠÑĥ Ñħ
ĠÐ·Ð°Ð´Ð° ÑĩÐ°
ĠÑģÐ²ÑıÐ·Ð° Ð½Ð¾
ment ul
Ñį ÑĤÐ°
u e
ĠS ocie
Ġthá»© c
ĠÐ´ÐµÑĢÐµÐ² ÑıÐ½
ĠpaÅ¾ inti
Ġcons tÄĥ
ria usi
ÐºÑĥ Ð´Ð°
ĠAf ace
ĠD ai
Ġfil mul
ĠÅ¾vilg sn
Å¡ is
Ġda ina
ĠÐĶÐ¼Ð¸ ÑĤÑĢÐ¸
Ġpia Å£a
Ġpavel do
Ġseks ual
ĠÅ¾ ad
ĠI R
Ġm ui
ver tis
r Ãº
ĠÑĢÐµÐºÐ¾Ð¼ÐµÐ½ Ð´
ĠÐ± Ð¾Ð¹
Ġtermin at
ĠÐ±Ð¾Ð»ÑĮÑĪ ÑĥÑİ
ĠÃ®mbunÄĥ tÄĥÈĽi
Ġas fal
ĠÐ¾Ð´ Ð½
ÑĢÐµ Ñı
ÑĤÐ¾ÑĢÐ¸ Ð¸
Ġsulauk ÄĹ
á»į ng
dar b
nÃŃ c
ĠÐķ ÑīÐµ
Ġph Ã¡p
ÅŁ Äĥ
ĠÐ¾Ð¿Ð¸ÑģÐ° Ð½Ð¸Ðµ
ĠÐ¾ÑĢÐ³Ð°Ð½Ð¸ Ð·Ð¼
ĠÐ³ÑĢÑĥ Ð½
ĠFie care
ĠJ ed
raÅ¡ tis
Ġcon tul
ÐºÐ¾Ð¼ Ñĥ
ĠÄ¯vai rÅ«s
Ġcondi ÈĽii
mar t
ĠÑģ ÑĬ
ÐºÐ° Ð¶Ð¸ÑĤÐµ
ĠcÄĥlÄĥ torie
Ġpaskol os
ĠSlovensk ej
ĠkrÃ¡ t
Ġapli care
ĠÐ¾ÑĤÐ²ÐµÑĢ ÑģÑĤÐ¸
Ġpip ir
Ġna ozaj
y kÅ¡
Ġcau tÄĥ
Ġechi pe
ĠplÄĥ ti
ĠneÄ¯ gal
Ġro vn
Ġdemon stra
Ġtarn yba
ĠÐŁ ÐµÐ½
Ġpa Äįiam
v ui
Å¡k iai
Ġspal v
ĠÑħÑĥÐ´ Ð¾Ð¶
Ġe po
ĠJ uos
kai Å¡
Ġtri ukÅ¡
Ã¡l na
ÑĤÐµ ÑĢÐ¾Ð²
Ġnuotrauk as
ĠÐºÐ¾Ð½ ÑĦÐµÑĢÐµÐ½
ĠÐ·Ð½Ð° ÑİÑĤ
Ġsupra veghe
ĠÐ²Ð¾Ð·ÑĢÐ° ÑģÑĤÐµ
ĠÐ´Ð¸ Ð¿Ð»Ð¾Ð¼
Ġinteres Å³
ĠÐ¼Ð¸Ð½ Ñĥ
ĠÐ´Ð¾Ð¿ ÑĥÑģÐºÐ°
ĠÑĥÐ½Ð¸ ÑĩÑĤ
F A
ĠÐ²Ð° ÑĪÐ¸Ñħ
ÐµÐ½ Ð½ÑĥÑİ
Ġori gine
ĠÄĳ iá»ĩn
ĠnÃ¡ v
di Å¥
uojan tis
k it
Ġpie lii
Ġdaly kai
li os
Ġmes ia
s ki
ĠPanevÄĹ Å¾
ĠÅ¾aid imas
Ġmes ta
Ġmat y
Ġspau dos
Ġpartizan us
ĠÅ¾em iau
âĢ¦ .
Ġo Äį
Ġling uri
Å«k es
Ġgink l
las h
ĠÑĦÑĥÐ½Ðº ÑĨÐ¸Ð¾Ð½Ð°Ð»ÑĮ
Ġurm Ã¢nd
Ġc lin
ĠÐ±Ð¾Ð»ÑĮ ÑĪÐ¸Ñħ
Ð³Ð¾ ÑĢÐ°
ĠB ol
Ġori cÄĥ
mo ji
Ġad esea
ĠÐĴÐ¸ Ð´ÐµÐ¾
Ġmuzie jus
Ġpig iau
ĠÐ²Ð´ ÑĢÑĥÐ³
ĠÐ¼Ð¸Ð½Ð¸ Ð¼ÑĥÐ¼
ĠÐ¿ÑĢÐµÐ´Ð¿ÑĢÐ¸Ñı ÑĤÐ¸Ð¹
Nau jas
ÐµÑĢÐ° Ð¼Ð¸
Ġtr á»ĭ
ĠÐ¡ Ð²Ñı
Ġsuk elti
ĠÐ½Ð°Ð·ÑĭÐ²Ð° ÐµÑĤÑģÑı
kov Ã©
Å¥ az
ĠiÅ¡laid os
ĠzÃ¡k ona
Ġplan Äħ
Ġnuomon ÄĻ
ming Äħ
ĠÐĶÑĥ Ð¼Ñĭ
ĠS av
Ġse amÄĥ
Ġcre area
inink ÄĹs
Ġvarto ti
Ġnor ÄĹtÅ³
ĠpadÄĹ tis
Ġobi ÈĻ
Ð¿ ÐºÐ¸
ĠÐ¿ÑĢÐ¾ÑģÐ¼Ð¾ÑĤ ÑĢÐ°
ri te
ni re
ĠN ori
Ã³ ng
Ġkilomet ri
ĠÑĢÐ¸ Ñģ
Ġa feren
ri moni
ĠÅ¾ Å«
ĠTrump as
ĠM ara
Ġse rio
Ã¡lne ho
Ġpralai m
ĠÃ®ndepl ini
ĠSk ir
Ġn guy
ĠBog dan
V er
Ġvi ce
Ġnuo ty
ĠÐ±ÑĥÐ´ ÑĤÐ¾
ĠpaÅ¡ ne
es nius
Ġaltern aty
ĠdÄĹs ty
ĠÐ¿ÑĢÐ¾Ð²Ð¾Ð´Ð¸ ÑĤÑĮ
on ic
Ġta me
ĠdÄĹmes ys
oc lip
Äĸ S
Ġas cun
tuo ju
ĠÐ¸Ð½ÑģÑĤÑĢÑĥ Ð¼ÐµÐ½ÑĤ
ÑĢÐ° Ð½ÐµÐµ
Ð±Ð¸ ÑĤ
V aik
Ġdaug iausiai
Ñĳ Ð·
ĠÐºÐ»Ñİ ÑĩÐµ
raÅ¡ ome
P l
ĠÐ¸Ð½ÑĤÐµÑĢ ÑĦÐµÐ¹
Ġl ici
tari u
Ġui tat
or up
Ð¸ Ð¼Ð¸
Ġelectri ce
ĠÑģÐ´ÐµÐ»Ð° Ð»
Ġdin colo
Ġpir men
Ð²Ð° ÑİÑīÐ¸Ð¹
liu ko
. ;
L T
Ġpoten cial
ĠÅł io
ĠAu gus
on im
Ġna rio
tar ti
Ġpries kon
tu kÅ³
ĠvieÅ¡ osios
Ġdal imi
Ġrank omis
Ġv iln
ver Äįia
st ÄĻ
Ġsanty kiai
Ð¿Ð° Ð½Ð¸Ð¸
ske ho
j sÅ¥
G o
ĠÑģÐ¾Ð· Ð½Ð°
c inÄĻ
ÑĩÐ¸ Ñħ
lo w
ĠÐ¿Ð¾Ð´ ÐµÐ»Ð¸
Ð½Ñı ÑİÑĤ
ĠÑģÑĢÐµÐ´ Ñĭ
Ð¾ÐºÐ° Ñı
Ġpat rio
Ð¾Ð²Ð° ÑĢÐ¸
Ð¾Ð»ÑĮÐ· Ñĥ
Ġmun cii
Ð±Ð¾ÑĢ Ñĭ
ĠPlo tis
ĠÐº Ð¾ÑĢÐ¸
ĠÑģÑĨ ÐµÐ½Ð°
gu je
ĠÐŁÐ¾Ñĩ ÐµÐ¼Ñĥ
ÑįÑĦ ÑĦÐ¸ÑĨÐ¸
ĠÐ² Ð½Ð¾Ð²ÑĮ
ĠÐºÐ¾Ð½ ÑĤ
Ġloc alitatea
Ð¼Ðµ ÑĢÐ°
Ġcapaci tatea
Ġkain Å³
Ġgam yba
ĠÃ®nc ad
ĠÐ½Ð° ÑĪÐ°
Ġade c
ĠBacÄĥ u
Ġpo hÄ¾ad
Å¡k umo
áº£ nh
ĠiÅ¡ tik
Ġkuri ai
ã Ģ
Ġno ÅŁtri
Ġorganiza cija
ĠÐ²Ð¸ ÑĢÑĤÑĥ
ĠC ru
Ġmet ro
Ġkon di
ĠL MA
ĠÐºÑĥÑĢ ÑģÐ°
ĠM ie
ven ie
ĠÄįlov ek
f ir
Ð³Ð¾ÑĤÐ° Ð²Ð»Ð¸
us io
ĠÐķÐ²ÑĢÐ¾Ð¿ Ñĭ
Ġdep artament
ĠÐ²ÑĢÐ° Ñĩ
Ðĵ Ðĺ
Ð¡ ÐµÑĢ
Ġgiá» Ľi
Ġfru cte
ĠÐºÐ½Ð¸ Ð³Ð°
Ġparteneri at
ĠÑģ Ð´Ð°
ĠÐ´Ð¸ ÑģÐ¿
Ġreng inys
ĠÐ¿ÑĢÐ¾Ð´Ð° Ð¶Ð¸
ĠÐ¼Ð¾ ÐµÐ¹
ĠÐ¿ÐµÑĢÐµ ÑģÐµ
Ñĩ ÐºÐ¾Ð¹
ĠU R
Ġcon cre
ĠiÅ¡s iaiÅ¡k
ĠÐĺÑģÐ¿Ð¾Ð»Ð½Ð¸ ÑĤÐµÐ»ÐµÐ¼
Ġ ï¿½
Ġur me
Ġputer nice
ĠÐºÐ¾ÑĤÐ¾ÑĢ Ð¾Ð¼Ñĥ
ÑĢ Ð¿Ð¸
Ġdedic at
U AB
Äį er
Ġtrag ed
Ġg Ã³
ĠG ryb
Ġam Å¾in
uk ti
AR E
Ġvis uo
Ġrekomen da
Ġanks tesn
Ġpui kios
Ġdegra bÄĥ
Ġdar be
ĠvieÅ¡ ai
ÐºÐ¾Ð² ÑĮ
Ġpe de
ĠÑģÐµÐº ÑģÐ°
Ġpateik ÄĹ
Ð¾Ñĩ Ð½Ð°Ñı
Ġdur ys
Ðľ Ð¾ÑģÐº
ÐºÑĤ Ð¾ÑĢÐ¾Ð²
ÑģÑĤÐ²ÐµÐ½ Ð½ÑĥÑİ
ĠÐ¿Ð»Ð° Ð½ÐµÑĤ
ĠÐ±Ð° Ð³Ð°
Ġdipl oma
ĠÐº ÑĢÑİ
ĠÐ¡ Ð¸Ð¼
Ġsub lin
Ġmodel ul
ĠÐ²Ð¾Ð·ÑĢÐ° ÑģÑĤ
ÄĹl yje
Ġoc upa
Ġacord at
Ð½Ð°Ð´ ÑĨÐ°
ĠÐ·Ð°Ð´Ð° ÑĩÐ¸
Ġc Ã£
ĠÐ°Ðº ÑĤÐ¸Ð²Ð¸
Ġgra f
, âĢ¦
ograf ie
v and
F o
Ġale rg
Ð¾Ð» Ñĭ
Ġau dinio
Ġcom une
Ġbu curÄĥ
nÃŃ ci
Å¾ ne
Ġfa cul
yb iÅ¡kai
Ġne turin
Ġpirmo jo
Ġpre ju
Ġgam inti
ĠgÄĥs esc
Ġdaug ybÄĹ
Ġj ubilie
ĠP lus
Ġdos ar
Ġr aid
Ġtiks lÅ³
Ðļ ÑĥÑĢ
15 00
Ġace ÈĻtia
Ġcel Äĥlalt
ĠÐ¼ÐµÐ´Ð¸ ÑĨÐ¸
z v
ĠÐ¿ ÑĥÐ±Ð»Ð¸Ñĩ
ne y
ÈĻ ov
Ð»Ðµ Ð³Ð°
ĠprÃŃ jem
ĠÐ½Ð°Ð·ÑĭÐ²Ð° ÑİÑĤ
Ġap k
ÐŁ Ðŀ
Ġd á»ĭch
Ġbez peÄį
Ġreg lemen
ĠÐļÐ° Ð¶Ð´ÑĭÐ¹
ĠÑģÑĤÑĢÐ° Ð½Ð°Ñħ
ĠÐ¿ÑĢÐµ ÑĤÐµÐ½
Ġstud entÅ³
Ġsp aud
ĠÐ²ÑĤÐ¾ÑĢ Ð¾Ð³Ð¾
Ġgi áº£i
ĠÈĻ ose
itÄĥ ÈĽilor
Ġlaipsn iÅ³
Ġne v
Ġskir tÄħ
Ġorganiz uoja
ÑĤÐ¸ ÐºÑĥ
Ġciu da
ĠsfÃ¢rÈĻit ul
Ġpri amo
Ġcunos cute
Ð» Ð»Ñİ
ĠÐĴÐ° ÑģÐ¸
R es
Ġjed no
Ġno p
Ġtaisy klÄĹs
ona ÈĽi
p tarea
t nÃ©
ro mis
Ġnek ilnojam
ĠNa j
Ġtvar kÄħ
yk la
z ÄĻ
ĠÄ¯dom u
Ġpir mÅ³jÅ³
ĠÐĳ ÐµÑĢ
ÑģÑĤÐ¾ Ð¸Ð½
ĠÐ½Ð°ÑĢÑĥ ÑĪÐµÐ½Ð¸Ñı
ies ti
Ġ ÄĹm
ĠS am
ĠpareiÅ¡k ÄĹ
ÑĥÐ¶ Ð´Ð°
ĠÐ¿Ð¾Ð¸ ÑģÐº
Ðĺ ÑģÐ¿
Ġtarn yb
an Äįiais
ĠtÄĹ vas
an Äįiu
ĠÐ¿Ð¾Ð´ ÑĬ
Ġgeria usiÄħ
Ð¿Ð°ÑĢ ÑĤÐ°
ĠÑĦ ÑĢÐ¾Ð½
ĠÈĽÄĥ rii
ĠÐ²ÑģÑĤÑĢÐµ ÑĩÐ¸
ĠÐ§Ðµ Ð»ÑıÐ±Ð¸Ð½
ĠiÅ¡ dÄĹs
Ġp unÄĥ
Ġsp ra
ĠÃ®nal t
Ġpetre cut
Ġak c
Ġengle zÄĥ
Ġkom bin
U r
vÄĹ pa
Tau ragÄĹs
Å¡k y
ĠiÅ¡ lieka
Ġzic Ã¢nd
ĠðŁ ĺ
Ð± Ð°ÑĢ
ÄĹj ais
ĠSudÄĹ tis
Ġfestival io
Ġvyk do
Ġsk and
ĠRe gis
ĠÑĤÑĢÐ° ÑħÐ°
ĠKon stitu
ĠÄ¯ die
ĠÃ®n apoi
ĠÑĥÐ¿ ÑĢÐ°Ð¶
Ġrec lam
ĠD unÄĥ
ĠsÄĥptÄĥmÃ¢n a
Å½ algi
Ġconduce re
ĠÐ´Ñĥ ÑĪÐ¸
ĠÐ¿ÑĢÐ¾Ð³ÑĢÐ°Ð¼ Ð¼Ðµ
ĠÐ¸ÑģÐ¿Ð¾Ð» Ð½ÐµÐ½Ð¸Ñı
Ġmeri tÄĥ
Ġg ara
ĠÐ³Ð¾Ð´ Ð¾Ð²
ĠÐļÐ½Ð¸ Ð³Ð¸
ĠÐ° Ð»ÑİÐ¼Ð¸
Ġeks pon
ujÃº ce
Ð¾ÑĢÐ¾Ð½Ðµ Ð¶
Ãº Å¡
Ġzd ra
Ġtran zac
ĠÐº Ð¸ÑĤÐ°Ð¹
Ġord ine
ĠS in
Ġentu zias
ĠÐĶ Ð¾Ð³Ð¾Ð²
ĠÐĵ ÑĢÑĥ
um ele
Ġdo pln
Ġpras me
ĠÅ¾iÅ«r ÄĹti
Ġsvarb iausiÅ³
Ġstai ga
ĠÐ¿Ð¾Ð´Ð´ÐµÑĢÐ¶ ÐºÐ¸
Ġb en
ti erÄĥ
ti enÄĹ
ic o
ÄĹs ite
ĠÑģÑĤ Ð¾Ð¼Ð°ÑĤ
Ġpresup une
Ġul tra
Ġf eli
ĠuÅ¾ uo
ni as
ĠcÄĥr or
ĠÐ¿ÑĢÐ¸ Ðº
Ġne am
ĠB ran
un o
V isi
Ġel im
ĠÐ²ÑĭÐ¸ Ð³ÑĢÑĭ
ĠÐ²ÐµÑĢ ÑģÐ¸Ñı
ĠC D
ĠÐ¾Ð± ÑīÐµÐ¹
ĠÐ¸ Ð¼ÐµÐ½
ĠV alea
ĠÐ¿ÑĢÐµÐ´ ÑĥÐ¿ÑĢÐµ
ĠÐ¿ÑĢÐ¸ ÑĩÐµÐ¼
pres s
ari Å³
Ġele gan
Ġpare m
Ġuniversite te
Ð² ÑĮ
ĠÐ¿ Ð»Ñı
Ġpal eng
li ko
ÑģÐ¿ Ð¸
ĠÐŀ Ð´Ð¸Ð½
Ð²Ð° ÑİÑīÐ¸Ñħ
Ġjoc ul
ĠSo ci
ĠO rai
Ġdidesn ÄĹ
ĠK eli
Ġacces i
ĠUkra inos
Ġorganiz mo
ÐµÐ´ ÐµÐ½Ð¸Ðµ
Ġfon do
O W
ti mu
Ġpro kur
uo liÅ³
Ġl Å«kes
ty viÅ³
ĠÐ¢Ðµ Ñħ
Ġcatego rie
Ġinst ala
Ġkon serva
Ġvre odatÄĥ
Ġiub e
Ġapim tis
ĠCau t
Ġla cri
Ġob raz
ĠAn ul
Ġmin ul
Ġser vis
Ġin cul
áº¡ c
Ð²Ð¸ Ð·Ð¸
ĠTele f
Ġdien ai
ĠÅ¾ivo ta
ĠÐ·Ð° ÑĢÑıÐ´
Ġh Ã¢r
ĠK ÄĻstu
Ġpaskir ties
ĠTies iog
Ġdaug elÄ¯
Ġs tori
ĠÐ»ÑİÐ± Ð²Ð¸
Ġatskir ai
ĠÑĢÐ°Ð·Ð¼Ðµ ÑĢÐ°
ĠÐĲ Ð±
Ð½Ñĥ Ð¶Ð´
ĠÐ´Ð²Ð¸ Ð¶ÐµÐ½Ð¸Ðµ
ĠÐ¾Ð±ÑĬ ÐµÐ´Ð¸
ĠÃ®nregistra te
ÑĤÐ¸ ÑĩÐµÑģÐºÐ¸
Ġar mi
ĠÐł Ð¾Ñģ
p ok
ĠTo tu
ĠÐ²Ð¿ ÑĢÐ°Ð²Ðµ
ĠtatÄĥ l
es tiv
ĠF Äĥ
ĠÐ» Ð¾Ñħ
ci une
Ġin vi
Ġbus iness
ĠÐºÐ°ÑĢ ÑĤÑĥ
tiÅ¡k Äħ
ĠPop escu
Ð³ Ð¾ÑĤ
iÅ¡k Äħ
Ġh ovor
y z
ĠÑģÐ¿ ÐµÐºÑĤ
Ġkur je
ĠJa va
D E
ol is
ĠT or
Ġv lÃ¡
ĠMaÅ¾ eikiÅ³
ĠÐĺÐ½ ÑģÑĤÑĢÑĥ
Ġknyg as
Ġvyk dy
Ho tel
ĠP ara
ĠiÅ¡ ÄĹjo
ĠS tri
Ġcaz are
% )
J is
Ġagre si
T ran
ĠC ea
Ġpen alÄĥ
Ġnar Å¡y
ĠÐłÐ¾ÑģÑģÐ¸ Ð¹
Ð´ÑĮ Ð¼Ð¸
ĠÃ®n ch
ĠÐ¿ÑĢÐµÐºÑĢÐ° ÑģÐ½Ð¾
ĠÐ¸Ð·Ð³Ð¾ÑĤÐ¾Ð² Ð»ÐµÐ½Ð¸Ñı
ĠÑħ Ð¾Ð´
ĠÐ¸Ð½ Ð´Ñĥ
ĠÐ¾ÑĤÐµ ÑĩÐµ
Ð¼ÐµÐ½ Ñı
ĠÐ´ Ð°ÑĢ
Ð± Ð°Ð½Ðº
ĠÐºÐ¾Ð½ ÐºÑĥ
ĠB Äĥr
ino u
pe te
ĠÄįas to
bo x
ĠkaÅ¾ ko
ĠbÄĥtrÃ¢n ul
Ġpad eng
rov ÄĻ
ic ale
dien io
Ġtrump omis
Ġto je
Ġimpo zi
ani ja
Ġeurope anÄĥ
Ġlaik omas
Ð³Ðµ Ð»ÑĮ
C hi
ĠÑĤ Ñİ
Ġma gis
Ġsi jon
Ġne c
ene ra
Ġimp act
19 20
ĠÃ®nt Ã¢r
ze ci
Ġvais tÅ³
Å£in ute
Ġkompiu terin
ĠÐ¸Ð½ÑĦ ÐµÐº
ĠÑĥÑģÐ¿Ðµ ÑĪÐ½Ð¾
Ġmech an
Ð¿ ÐµÐ½Ð½Ð¾
Ġplien o
nÃŃct vom
Ð»ÐµÐ½ Ð½Ð°Ñı
ĠDo ar
ĠÐ·Ð°Ð½Ð¸Ð¼Ð° ÐµÑĤ
ÑĤ Ð½Ð°Ñı
ĠÐ²Ð¾ ÑģÐº
ĠÑħÐ¾ÑĢÐ¾ ÑĪÐ¸Ð¹
p r
ko ti
Ġobiec te
ĠÐ½Ð° Ð½ÐµÑģ
tuo jame
Ġvaiz das
ĠD uomen
ĠÐ·Ð° Ð¸Ð½ÑĤÐµÑĢÐµÑģ
ÐŁÐµÑĤÐµÑĢÐ±ÑĥÑĢ Ð³Ð°
ĠÐ¿Ð¸ÑģÑĮ Ð¼ÐµÐ½
Ġmok ÄĹjimo
Ġke tin
Ġfin alÄĥ
ĠÐĳ Ð»Ð¾Ðº
ĠR ai
Ġpavas ario
ĠÃºdaj ov
Ġcáº£ m
ĠÐ¸ ÑĤÐ°Ð»ÑĮÑıÐ½
ate lor
ÐĿ Ñĥ
ĠB ab
Ġv yba
Ġo as
Ġs h
Ġistori joje
Ġintele c
Ġve hicul
ĠLu c
Ġpre para
Ġb ib
Ġfunk cijas
Ġo uÄĥ
Ġdid Å¾iausia
Ġeks por
Ġkompiuteri o
Ġneat si
Ġskat inti
ĠÐ±Ð¾Ð»ÑĮÑĪ Ð¾Ð³Ð¾
Ġpri sp
ĠÐ¿Ð¾Ð´ Ð±Ð¾ÑĢ
Ġmok ÄĹ
ĠÐĳ Ð¾Ð»ÐµÐµ
Ðº Ð¾Ð±
ÑĪÐ¸ Ð¿
ĠaukÅ¡ Äįio
ĠÑģÑĥÑĤ ÐºÐ¸
ĠÐ¸Ð½ÑĤÐµ Ð»Ð»ÐµÐºÑĤ
f ie
ĠÑģÐ¿Ð¾ÑģÐ¾Ð± Ð¾Ð¼
s ad
ÑīÐµÐ½ Ð¾
ĠÐ± Ð°Ðº
ĠÐĲ ÑĦ
ĠÐ¶ÑĥÑĢ Ð½Ð°Ð»Ð¸
ĠÐºÐ²Ð°ÑĢ ÑĤÐ¸ÑĢÑĥ
ĠÐ¿ÐµÐ´Ð°Ð³ Ð¾Ð³Ð¸
ĠÑĥÐ´Ð¾Ð± Ð½Ð¾
Ġtit l
Ġa ven
ĠÑĩ ÑĢÐµÐ·
ĠÐ¿Ð¾Ð» Ð¾Ð²
ĠÑĤÑĢÑĥ Ð´Ð¾Ð²
Ð»Ðµ Ð²Ð¾Ð¹
ĠÄĳ áº¡i
Ġsca un
Ġdov ana
ĠÐŁÑĢÐ¾ ÑĦÐµÑģÑģÐ¸Ð¾Ð½Ð°Ð»ÑĮ
ĠtrÄĥ iesc
ĠPui kiai
Å¾ ÃŃ
an Ã½
Ġki tur
tadien io
ĠgÄĹ ri
ĠnaÅ¡ ej
Ġefici ent
Ġfik s
Ġnau dos
Ġcon ÈĽine
Ġatsi palai
Ġper sp
Ä¾ Ãº
ĠÐ¡ÑĤ ÑĢÐ¾Ð¸
Ġap rin
Ġkvie Äįiame
Ġau dio
Ġi atÄĥ
n ing
Ġar m
Ġmili tare
ĠM ON
Ð¾Ð»ÑĮ Ð½ÑĭÐµ
Ġve Å£i
Ġdis tribui
ĠMon dial
Ð²Ð°ÑĢ ÑĤÐ¸
ĠÐľ Ðŀ
ĠÐĿÐ° ÑĪÐ¸
vis ta
Ð² ÑıÐ·Ð°
Ġtik tÅ³
ov Ãº
ĠÐ¸ÑģÑĤÐ¾ÑĢÐ¸ Ñİ
k ÄĻ
Ð³Ð¸ Ñİ
ĠÐ¿ Ð¾Ð¶ÐµÐ»Ð°
ÑīÐ¸ Ð½Ñĭ
ĠÐ¿Ð¾ ÑģÑĤÑĥÐ¿Ð¸
pe di
ĠÐ²Ñĭ ÑĢÐ°
f le
Ġkelion iÅ³
il tin
ĠF M
ĠÅł vietimo
ĠS pa
Ð±Ð° ÑĢÐ¾Ð²
ĠÑĨÐ¸ ÐºÐ»
Ġatsa kyti
Ġatsk leid
A G
ĠÐ³Ð¸Ð´ ÑĢÐ¾
tr Å«
ĠN ed
ĠÐºÐ¾Ð¼ Ð½Ð°ÑĤ
ĠvaikÅ¡ Äįio
ĠD ub
ĠÐ¿ÑĢÐ¸ Ð²Ð¾Ð´Ð¸ÑĤ
au ta
Ġdrabu Å¾iÅ³
Ġd eng
Å¡ truk
ĠG inta
ĠPor tu
Y ra
ĠÐ¿ÑĢÐ°Ð²Ð¸ Ð»
Ġkatal og
ĠÐ¼Ðµ Ð±ÐµÐ»Ð¸
ÃŃs ka
ĠÐ¾Ð±ÑĢÐ°ÑĤÐ¸ ÑĤÑĮÑģÑı
Ġrecu pera
C re
Ġdra g
Ġkle b
Ġvidutin iÅ¡kai
j ome
Ġsu ferin
tori jos
ĠÐ¢ ÐµÑĢ
Äįi ant
Ġpapras tas
Ġcuno ÈĻtin
g ÄĻ
ta j
10 8
Ġdide li
ĠgrÄħ Å¾inti
ĠrÅ« mÅ³
Ġkon cep
ĠÐ¿ÑĢÐµÐ´Ð»Ð¾Ð¶ ÐµÐ½Ð¸Ðµ
ri joje
vi deo
T M
Ġteis mas
ent ÄĹs
ÑģÑĤÑĢÐµ Ðµ
ĠÑĤÐµ ÑĢÑı
Ġrekl amos
ĠÑĢÐµÐ³Ð¸ Ð¾Ð½Ðµ
ĠÑģÐ² ÐµÑĤÐ¸
Ġpromov area
Ġbu cura
ĠÐ¿ÑĢÐ¾Ð´Ð° Ð¶Ð°
Ð°Ð½ ÑĮ
Ð»Ð¾Ð¶ ÐµÐ½Ð¸Ðµ
ĠE conom
ĠÑģÐ»ÐµÐ´ÑĥÑİÑīÐ¸ Ð¹
Ð¼Ð°Ð³Ð°Ð·Ð¸ Ð½Ðµ
ces i
ĠrÃ´z nych
ĠÄįempi onato
ĠDe fek
g auti
er vis
Ð¶ Ð½Ð¾Ðµ
ĠDidÅ¾i osios
Å¾ ini
Ġh ard
Ġbal sa
Ġfir mos
li Å¡
Ġpasite l
Ġtik ÄĹtis
en tu
ĠzÃ¡ roveÅĪ
Ġsusid om
Ġproc entÅ³
lov as
Pag rin
ĠÐ¿ÑĢÐ¾ ÑĦ
ĠÐ¼Ð°Ð³Ð°Ð·Ð¸ Ð½Ñĭ
ĠCap ital
Ġm area
io asÄĥ
Ġruden s
Ġvais iÅ³
ul l
aus kaitÄĹ
ĠpÄĥ rea
Ġmoky tojai
Ġie ÅŁi
Ġcere re
Ġasigu rarea
ĠvirÅ¡ Å«n
z ai
ĠÑģÐ¸ Ð»ÑĮ
D U
Ġp li
l Ãº
Ñģ Ð½ÑĭÐ¹
ÑģÐº Ð¾ÑĢ
Ð»ÑĮ Ð½Ð¾ÑģÑĤÑĮ
ĠÐ± ÑĥÑĢ
Ð¾Ð¶Ð¸ Ð´Ð°Ð½
Ð²Ð°Ñı ÑģÑĮ
ĠMold ovei
Æ° ng
Ġna Å¡ich
Ð¾Ðº Ð¸
Ð½Ñĥ Ð»Ð¸
ĠÐĴÐ° ÑĪÐ¸
J o
ĠÐºÐ¾Ð¼ Ð¸ÑĤ
ĠÐºÑĢÐ°Ð¹ Ð½Ðµ
Ġpo Å¾ia
ĠÅ¡il ta
Ġka vin
ĠÐ¦ ÐµÐ½Ð°
ĠÐ·Ð° Ð²Ðµ
ĠÅ¾ym iai
ĠÐ´ÑĢÐµ Ð²Ðµ
Ġpoz or
ĠpregÄĥ tit
Ġ uria
Ġtarpus a
Ġgydy tojas
Ġinicia tyva
Ġmag ne
ĠÐŀÑĢ Ð³Ð°Ð½Ð¸
al ÄĹs
Ð§ Ðµ
ang l
Ġph ÃŃ
tari lor
L ap
ĠÐ³ ÑĢÐ°Ð½
ĠC he
Ð»Ñİ Ð±
Ġsimil are
Ġval ymo
Ġluc rat
C ar
ÑīÐ° ÑİÑĤÑģÑı
ĠÅ¾i Å«ri
Ġi t
ĠÐºÐ»Ñĥ Ð±Ð°
Ð»Ð°Ð½ Ð´
Ġl ea
ĠÑĤÐµÐ¼Ð¿ÐµÑĢÐ° ÑĤÑĥÑĢÑĭ
uo tis
u ÈĻ
ĠÑģÐ»Ñĥ ÑĪÐ°
amen ii
ĠÐ¿Ð¾Ð»ÑĥÑĩÐ¸ ÑĤÐµ
ĠÐ°Ð½Ð°Ð»Ð¸ Ð·
Ð² Ð»Ð°
Ð»ÑĮ Ð½Ð¸ÐºÐ°
ÑĢÐ°Ð±Ð¾ÑĤÐ° ÑĤÑĮ
ĠÐ·Ð° ÑĢ
ĠmÄĹg au
ĠÐ¿Ð¾Ð´ ÑĢÐ°Ð·Ð´Ðµ
ĠkrÃ¡ s
Ġprek ÄĻ
Ñĥ ÑģÑĤÑĢÐ¾Ð¹
Ġdvi gub
ĠÑģÑĤ Ð¾ÑĢ
Ġpla c
áº© n
Ġs atul
Ġne vie
Ġsm ur
Ġc ro
Ġc arie
Ðĳ Ð°
ĠPav el
________ ________
Ġasmen ybÄĹs
gal ia
ista ms
ĠÑĢÐ°Ð´Ð¸ Ð¾
pi Å¥
ic s
ĠUÅ¾ si
Ġm one
ĠJ ame
Ġvaid menÄ¯
Ġur Äįite
ÑĤ ÑĦÐ¸Ð»ÑĮ
ĠpÄĥrin te
ci os
Ð± ÐµÑĤ
Ð¾ÑĢÐ¾ ÑĤÐ°
ĠÐ¾ÑĤÐ½Ð¾ ÑĪÐµÐ½Ð¸Ð¹
ĠS ti
ĠÐ±ÑĥÐº Ð²Ð°
Ġo fere
Ġmet as
Ð¾ÐºÐ° ÑĩÐµ
ĠÑĦÐ¾ÑĢ ÑĥÐ¼Ðµ
Ġac tual
ĠÐŁ Ð¾Ð²
ĠÑģÐ°Ð¹ ÑĤÐ¾Ð²
Ð²Ð° Ð»Ð°ÑģÑĮ
ptÄĥ m
ÑĢÐ°Ð½ Ñģ
Ġdes er
ĠÐºÐ° ÐºÐ°Ñı
ĠÑĢÐµ Ð´
ch op
ĠÅ¾aid imai
Ġpar ke
ĠÐ»Ð¸ Ð½
Ġnaud inga
áº ³
Ġa is
g ais
Ġper nel
ĠÑģÐ²Ñı Ð·ÑĮ
Ġbi jo
ĠK uo
Ġk uro
Ġbendruomen ÄĹ
vr d
Ġproces Äħ
Ġautoma tiÅ¡kai
ĠRusi ja
Ġh rÄĥ
Ġtarn au
ĠÅ¾en klo
Ġb á»ĩnh
ĠÑĪÐ¸ Ð½Ñĭ
Ð¶Ðµ Ðº
ĠCon tinu
ĠÐĳ ÐµÑģÐ¿Ð»Ð°ÑĤ
ĠÑĦ Ð°ÑĢ
Ġsc ena
olog ia
tu be
Ġrezer va
nes s
S f
o ane
ĠÐ¾Ð¿ÑĤÐ¸ Ð¼Ð¸
ÑĩÐ° ÐµÑĤÑģÑı
ĠÐ±Ðµ Ñģ
ĠÐ·Ð° ÐºÐ¾Ð½Ð°
Ñģ Ð½ÑĭÑħ
ĠB is
Ð¾Ðº Ð¾Ð¼
ÑĨÐ¸Ð¾Ð½ Ð½Ð¾
ĠÐ¸ Ð½Ð¸ÑĨÐ¸
ÑĪ Ð»Ð¾
ĠM ine
Ġpernel yg
ĠÑģÐ² ÐµÑĢ
ĠÐ½ÐµÐ±Ð¾Ð»ÑĮ ÑĪÐ¾Ð¹
ĠÐ¿ÑĢÐ¸ ÑĩÐ¸Ð½
ĠÐ¸Ð½ ÑĤÐ¸Ð¼
p lica
Ġenerge tikos
ĠÃ®ntor s
ĠÑĥ Ð»Ñĭ
ĠÐ·Ð°Ð´Ð° Ñĩ
Äį ku
vies ti
Ġan tr
ila vin
Ð¾ÐºÐ°Ð·Ð° ÑĤÑĮ
Ġloc alÄĥ
ÑĩÐµÐ½ ÐºÐ¾
eli ais
ie m
ĠMi cha
k im
Ñħ Ð°Ð»
Ġaspec te
ĠÅ¾ai dy
as tre
ĠvÃ½ ber
á» ³
Ġs on
ch im
cÄĥ toare
Ġzabez peÄį
Ġab and
ung ÄĹs
Ġpatog Å«s
ĠsÄħ jung
Ġnuosta b
Ġilg omis
pi ja
j imui
Ġpati ems
ĠC N
za Å£i
Ġpavyzd ys
Ġne ut
Ġh ig
ĠiÅ¡mok ti
Ñģ Ð¾ÑĢ
ÐĺÐ½ ÑĤÐµÑĢ
ĠÄĳ áº¹p
4 50
ĠÐ¼Ð¾ Ñı
ĠF emei
jos i
ĠÐºÐ¾Ð½ÑĤÑĢ Ð¾Ð»Ð¸
Ġmoder ne
Ġmold ov
ĠÑĩÐ¸Ñģ Ð»Ð°
Ġnurody ta
ĠÐ¿Ð¾Ð·Ð¸ ÑĨÐ¸Ð¸
Ġg and
ĠÐ½Ðµ ÑģÐ¼Ð¾ÑĤÑĢÑı
Ġmig ran
ĠÐ¶ÐµÐ»Ð° Ð½Ð¸Ðµ
ÑıÐ± ÑĢÐµ
Ðļ Ð¡
Ġs á»ĳng
sta r
ĠÐ±Ð°ÑĤÐ° ÑĢÐµÐ¸
Ġprofesion ale
Ġdek or
Ð¼ ÑĭÑħ
ĠR ase
ĠÐ¸ Ð±Ð¾
ĠÐ½Ðµ Ð³Ð°
w ard
Ġprobl Ã©m
j ono
Ġan ilor
Ġfolos ind
Ġsuk il
ĠSp ania
Ġsuteik s
Ġne o
T uo
Ã Ĺ
Ã µ
Ã¡ Å¾e
ĠÅŁ ase
Ġpopie riaus
Ġin Å¾in
ĠÃ¡ n
Ġsaug o
ĠsÄħ Å¾in
g ro
ĠÐ¿Ð¾ÑģÐ»ÐµÐ´ Ð½Ð¸Ñħ
ĠKult Å«ros
Ġmer as
Ġfil mÅ³
ĠB R
a ti
p un
f ac
ic kej
ĠÑĢ Ð¾Ð¼Ð°Ð½
ĠÐŀ Ð¿
Ġhid ra
e te
am ies
ĠÑģÐ¼Ð¾Ð³ ÑĥÑĤ
ĠÐ»Ð¸ ÑĨÐµ
ĠÐ£ÐºÑĢÐ°Ð¸ Ð½Ð°
Ġberniu kui
Ðł Ð£
ĠÐ»Ñİ Ð´ÑĮÐ¼Ð¸
it os
ÐŃ Ðº
ĠÐ¾Ñģ Ð½Ð¾Ð²Ð°Ð½Ð¸Ñı
ÐµÐ½ Ð½Ð¾ÑģÑĤÐ¸
nu Å¥
Å¾ en
Ġspa ÈĽi
ÑĢÐ¾Ð²Ð° Ð»
Ð»Ð¾Ð¶ Ð¸ÑĤÑĮ
din Ä¯
Ġmed ici
ĠÑģÐµÑĢ Ð´ÑĨÐ°
ĠzÃ¡klad e
ĠÐ°ÑģÑģÐ¾ÑĢÑĤÐ¸ Ð¼ÐµÐ½ÑĤ
Ð³Ð° ÑĤÑĮ
Ġpastang Å³
ĠÐĳ Ð¾Ð³Ð°
Ġd ic
Ġtik ÄĹ
ĠÐ¡Ð¾ ÑĨÐ¸Ð°Ð»Ð¸
Ġda inÅ³
Ġstandar d
Ġf rak
ĠÐ¿Ð¾Ð²Ñĭ ÑĪÐµÐ½Ð¸Ñı
ĠkaÅ¾ kur
ĠParlam entul
13 7
Ġpatal pÅ³
Ġelges io
Ġtempera tura
Ġa bili
Å¡ Å³
ĠÃ®nchis oare
Ġparod os
Ġ( "
Ġa z
ĠiÅ¡ veÅ¾
ĠB os
Ġd nÃŃ
ÈĻ at
Ġ: :
Ġskon io
Ġpasiro do
Ġsiste moje
Ġcuno ÅŁtin
à ¸
ĠvieÅ¡ ojo
ÑĢÐ¾Ð² Ð¾Ð´
ĠÑģÐ¿Ð° ÑģÐ¸Ð±Ð¾
ĠÐ·Ð°Ð¿Ð¸ ÑģÐ¸
ĠÐ³Ð¾Ð»Ð¾Ð² Ñĥ
ĠpanaÅ¡ iai
ĠProgra mul
ĠÐ±Ð¾Ð»ÑĮÑĪÐ¸Ð½ ÑģÑĤÐ²Ð¾
kai ty
Ð¢Ð°Ðº Ð¶Ðµ
uo kite
ĠÑĢÐ°ÑģÐ¿ Ð¾ÑĢÑı
pi ce
Ġï¿½ï¿½ï¿½ï¿½ ï¿½ï¿½ï¿½ï¿½
Ġsupra vie
ĠÐ½ÐµÑĦ ÑĤÐµ
ÑĩÐµ Ð²
ĠÅŁ an
Ġscur tÄĥ
ĠidÄĹj Å³
Ġimp lica
Ġexc lusiv
D rau
Ð¥ ÐŁÐĺ
Ġelev ilor
te dy
Ġab on
ĠÐ¿Ð¾ÑģÐ»ÐµÐ´ Ð½Ð¸Ð¹
Ġs lÄĹp
Ace astÄĥ
Ġn asta
e o
ĠBal ta
vais tine
Ġcom bate
Ð¾ Ð¾Ñħ
Ġtik ri
via c
Å¡ os
yb ar
Ġcul turÄĥ
raÅ¡y tas
tic ky
an Äįia
Ġlyg Ä¯
n elÄĹ
Ġl Äħs
ris to
ost Äħ
ch ia
ĠromÃ¢ne ÅŁti
Ġkuri omis
ĠAs ia
Ġry Å¾
ĠÑģÐ¾ÑĨÐ¸Ð°Ð»ÑĮ Ð½ÑĭÑħ
ĠÐ½Ð° ÑĪÐµ
ĠÐºÐ°Ð¶Ð´ Ð¾Ð¼Ñĥ
ÑģÐ¿ ÐµÐºÑĤÐ¸Ð²
ĠÐ¿Ð¾ÐºÐ¾Ð» ÐµÐ½Ð¸Ñı
ĠÐŁÐ¾Ñģ Ð»ÐµÐ´
ĠÑĦÐ¸Ð»ÑĮ Ð¼Ð°
ĠÐ´Ð¾Ð¿ Ð¾Ð»Ð½Ð¸
ĠÐ²Ð·ÑĢÐ¾Ñģ Ð»ÑĭÑħ
Ġli chid
Ġpar lam
ie b
ĠÐ¾Ð±ÑĥÑĩ ÐµÐ½Ð¸Ðµ
Ġgiá» ¯
ĠÐļ Ð¾ÑģÑĤ
Ġde gal
ĠKar tu
ĠF in
Ġnes un
Ġren kasi
Ġplauk us
Ġtri á»ĥn
Ġpe k
la te
Ġproces ului
Ġbate liai
gi Å¡kai
Ġte en
Ġan tras
bu vo
ĠpripaÅ¾ inti
Ġta Å¡kus
Ġniek ur
Ġpas veik
ĠW e
ti lor
Ġcam erÄĥ
ovan Ã¡
ĠnÃ¡ vr
ĠL E
ĠL ib
s ni
tis m
ĠL ei
ĠU tili
ĠÐ¸Ð¼ Ð¼Ñĥ
ĠDar b
Ġh la
Ġve che
Ġmodific Äĥri
Ġima gin
Ġry Å¡io
Ð¶Ð° Ð»
ĠÐ¿Ð¾Ð´ Ð¾Ð·
ĠÐ´Ð¾ ÑģÑĤÑĥÐ¿Ð°
ĠÐ¾ÑĤÐ²ÐµÑĤÑģÑĤÐ²ÐµÐ½ Ð½Ð¾ÑģÑĤÑĮ
Ð´ Ð»Ñı
ba c
ĠÐ¾ ÑĦÐ¾ÑĢÐ¼Ð¸
ĠÑĩÐµÐ»Ð¾Ð²Ðµ ÐºÑĥ
Ġpab and
ĠÐ± Ð»Ð¾Ð³
ĠÐ¿ÑĢÐ¾Ð³ÑĢÐ°Ð¼ Ð¼Ñĥ
Ð¾Ð± Ð»Ð°
ĠÐ³Ð¾ÑĢÐ¾Ð´ ÑģÐºÐ¾Ð¹
ĠÐĲÐ´ Ð¼Ð¸Ð½Ð¸ÑģÑĤÑĢÐ°
ĠÐ» ÐµÐº
ĠÑĪ ÐºÐ¾Ð»Ðµ
Ð±Ñı ÑĤÐ°
Ġsezon ul
Ġloc urile
ĠÑħ Ð¾ÑĤ
Ð¾Ð´Ðµ Ð»ÑĮ
a ve
ĠÐĴ ÑģÑĳ
ĠTran s
ĠÃ®nsc ri
ĠZ ile
Ġsve te
Ġfotograf ii
t rie
Ġra dia
ĠÑģÐµÐ³Ð¾Ð´Ð½Ñı ÑĪÐ½Ð¸Ð¹
et ului
Ġspa Å£i
z en
ĠcÃ¢n tÄĥ
Ġcom anda
ĠmÃ¡ te
li on
Ġviz itÄĥ
c ui
ĠsudÄĹ tinga
ĠP un
Ġscen Äĥ
ĠpaÅ¾as ties
Ġd on
Ġparduotu vÄĹ
ar do
tu vo
Ð¾Ð³ÑĢÐ°ÑĦÐ¸ Ñı
ori zon
ĠsÄħ vo
ĠÐ¿Ð¾Ð·Ð½Ð° ÐºÐ¾Ð¼
Ð³Ñĥ Ð»Ð¸
g ent
Ġpri skir
Å£i ona
Ġatvy kti
S S
ĠÐ¼ Ð¾ÑĤÐ¸
in ing
ĠÑĤÐµ Ð¼Ðµ
Ġpuslap yje
ĠÐ²Ðµ ÑģÑĤÐ¸
ÑĢÐ¾Ð²Ð°Ð½ Ð½Ð¾Ð³Ð¾
ĠÅłil utÄĹs
Ġ ÑīÐ¸
Ġla z
ul ius
ÐŁ ÐŁ
ĠÄ¯ gi
ĠÑģÑĤ Ð¾Ð»ÑĮÐºÐ¾
ĠMuze ul
Ġdragos tea
ĠÑģÐ²Ð° Ð´ÑĮ
ĠÐ³ Ð¾Ð½
ĠÑĢÐ°ÑģÑģÐºÐ°Ð·Ð° Ð»
zin Ã¡rod
ÑģÑĤÐ° Ð¼
Ġsn aÅ¾
Ã¡ ha
ĠiÅ¡ lik
mi le
Ġ ÄĹ
ĠPro tec
Ġpa ko
poz ÃŃ
ÑĦ Ð¾Ð½Ñĭ
Ġtre ba
ron g
s Å³
Ġl ok
Ġpasip uoÅ¡
chi pa
Ġpa tek
Ġsos tinÄĹs
Ġatosto gÅ³
Ã ¾
ĠpirmÄħ jÄħ
che ta
Ġinvesti ga
âĢľ )
ĠuÅ¾ ÄĹmÄĹ
Ġbiseri cÄĥ
ÐºÑĤÐ¾ÑĢ Ñĭ
Ġsuferi t
ĠN ar
Ġarchite k
au dÅ¾ia
ik ov
Ġco opera
Ġide e
Ġdos ia
amoz rejme
âĢ¦ âĢ¦
Ġsovie tÅ³
ĠC ity
ÑģÑĤÐ¾ÑĢÐ¸ Ñı
ĠÐ¿ Î¿
ÐĴ Ð¾Ð·
ÑĩÐ¸ Ð²Ð°ÑĤÑĮ
Ġsocie tÄĥÅ£ii
Ð¡ Ð¿
Ġac t
Ð²Ð¸ ÑĤ
ĠÐ³Ð°ÑĢ Ð¼Ð¾
Ġch á»įn
sp re
Ġ ÑĢÐ¾Ð²
Ð±Ð° Ñı
ĠÐ¿ÐµÑĢÐ¸ Ð¾Ð´Ð¸
tov anie
ĠÐĶ ÐµÐ²
Ð² ÑĢÐ°ÑĤ
ĠÐ½ Ð¾Ð¼Ð¸Ð½Ð°
Ġtrece rea
it ala
ĠÐ¸ÑĤ Ð¾Ð³
ĠÄ¯vairi ais
Ð»ÑĮ Ð½Ð¾ÑģÑĤÐ¸
ĠÅ¾mo g
ĠÐ»Ð¸ ÐºÐ²Ð¸
Ġstabili te
ĠÅ¡eÅ¡ tadienÄ¯
Ġlei do
ĠÐ°Ð²ÑĤÐ¾ Ð½Ð¾Ð¼
ĠpaÅ¡al inti
il as
Ġsu form
ĠÐ¾ ÑģÑĤÐ°Ð²
ÑĢÐ¸ Ð°
Ġcu kraus
gi joje
ĠpadÄĹ tÄ¯
Ġtarpusa vyje
Ġdarb ui
a a
tri buie
Ð¿ ÑĢÐµÐ´
ĠI van
Ġbu vÄĻ
Ġtak Ã©
la b
T ri
Ġs tatele
ĠÅ¡ aul
Ġefec te
Ġtak Å¾e
kl y
ĠKai Å¡ia
ĠKÄĹda iniÅ³
uk ais
; &
Ġsk ar
Ġpasiro dy
Ġg ospod
ĠÐ² ÑģÑĤÑĢÐ¾
ming Å³
ĠÐ¿ÑĢÐ¸Ð¼ÐµÐ½ ÐµÐ½Ð¸Ðµ
ĠÑģÐºÐ¾ÑĢÐ¾ ÑģÑĤÐ¸
Ġschimb are
Ġmode lio
ĠiÅ¡saug oti
ĠÃº lo
tin Äħ
ĠÑħÑĥÐ´ Ð¾Ð¶Ðµ
ÐµÐ½ Ð¾Ñģ
ĠÐ¿Ð¾Ð»Ð¾Ð¶ ÐµÐ½Ð¸Ðµ
K a
ÐĴ Ð¾ÑĤ
ÑģÑĤÐ²ÑĥÑİÑīÐ¸ Ñħ
Ġmie g
ĠsÄĹk mÄĹs
Ġsanty k
Ġt ho
ĠÐŁ ÐµÑĤÐµÑĢÐ±ÑĥÑĢ
ĠÐ¾ÑģÐ¾Ð± Ð¾
Ġ== =>
ĠÑĢÐ°ÑģÑģ ÑĩÐ¸ÑĤÑĭ
ĠuÅ¾saky mÄħ
n ys
ĠS tud
ĠÐ¶ Ð°ÑĢ
L K
Ġdo rim
Ġspo tre
c am
Ġin tri
Ġtari f
ĠÐ¿ÑĢÐ¸Ð½Ð°Ð´ Ð»ÐµÐ¶Ð°
Ġvo ia
Ġpropri etÄĥ
to ne
Ġvicep re
Ġnes usi
ĠÅ¡al dy
ĠMed Å¾ia
Ġmedic al
ĠÑģÑĥÑĤ Ð¾Ðº
Ġsilp n
tia Ä¾
Ġsteng iasi
Ġpato gu
ĠÃ®n va
ĠÄ¯veik ti
Ġsp Ã´so
ĠPe ter
l n
Ġb okÅ¡
Ġan h
d or
ĠAustr ali
ĠÐĺ Ñİ
ka ch
ĠÐ´Ð¾ ÑģÑĤÐ¾Ð¸Ð½
ĠÐ¿ÑĢÐ¾ Ñħ
Ġcredin cio
ĠÑģÑĩÐ¸ÑĤÐ° ÐµÑĤ
ÐºÐ»Ñİ ÑĩÐµÐ½Ð¸Ñı
ĠÑĤÐµÑĢ Ð¼Ð¸
ĠÐ¾Ð±ÑģÐ»ÑĥÐ¶Ð¸ Ð²Ð°Ð½Ð¸Ñı
ĠÐ½Ð°ÑĩÐ° Ð»Ð¸
Äĥ ng
Ġhom osex
Ð¾Ñģ Ð½Ð¾Ð²Ð°
ĠÑģÑĥ Ð¿
ĠÐ²Ñĭ Ð¿
ĠÑĦÐ¾ÑĢÐ¼Ð° ÑĤÐµ
ĠÐ½Ð¾Ð² ÑĥÑİ
C ele
Ġp omen
ĠmÃ¢n care
Ġna ÈĻte
ĠGedim ino
ÐµÐ² Ð½Ð°
ĠgeleÅ¾ink elio
ĠÐºÐ°Ð»ÐµÐ½ Ð´Ð°ÑĢ
Ġpasien io
ĠnÃ¡ z
iau ti
Ġabie jÅ³
Ġsta tyti
rac k
Ġpenkta dienÄ¯
Ġvidur yje
Ġak mens
Ð¤ ÐĹ
Ġse pa
Ġdetal ÄĹs
Ġgen ul
tuo jamas
Ġpar ko
ĠGuver n
Ġpar ticul
Ġmuz ica
Ġsu tÄĥ
ÐµÑĤ ÐºÐ¸
ĠÐ¢Ð¸ Ð¿
ce anu
Ġd ÅĪa
ÐºÐ¾Ð² Ð¾Ð³Ð¾
ĠÐ² Ð½Ð¸
Ġrungtyn iÅ³
Ð¾ÑĤ Ð²ÑĢÐ°
10 5
Ð¶ ÐµÐ½Ð¸Ñİ
Ð» ÐºÐµ
ĠÐ¿Ð¾ ÑģÑĤÐ°Ð²Ð¸ÑĤÑĮ
ĠÐ·Ð° ÑĢÑĥÐ±Ðµ
ĠÂ §
Ġpad ovan
ĠÐ°Ð½Ð°Ð»Ð¸ Ð·Ð°
truc Ã¢t
ĠmnoÅ¾ stvo
ĠprieÅ¡ ta
Ġna f
ĠÑĤÐ¾ÑĢ Ð¶Ðµ
ĠDe puta
ĠÐ½Ðµ Ð·Ð½Ð°
Ġanun ÈĽÄĥ
Ġd ÄĹk
it var
ĠvÃ¢n zare
Ġsusijus iÅ³
Ð¼ Ð³
ĠTimiÅŁ oara
Ġface ÈĽi
ĠIs us
Ġbine cu
Ġsunte ÈĽi
Ð´Ð¸ Ð»Ð¸
Ġzon ele
Ã¬ m
Ġr ul
12 8
ĠSpe cial
Ġdis trac
gale rie
Ġdep uta
Ñħ Ð³Ð°Ð»
ĠA plink
Ġau tos
Ġqu Ã¡
ĠF er
Ġhlav ne
Ġsp unÄĥ
az e
A stfel
Ð° Ñı
ÃŃ na
Ð¼Ðµ Ð»ÑĮ
Ġu ci
ĠÅ¡t Ã¡t
Ġtyri mÄħ
iste i
ĠbÅ« sen
oj imo
Ġnuom os
f os
Ġkli entams
Ġdole riÅ³
ĠmaÈĻ inÄĥ
ĠÑģÐ¿Ðµ ÑĨÐ¸
ĠÐ¿Ð¾Ð³Ð¸ Ð±
ĠÑĥÑģÑĤÑĢÐ¾Ð¹ ÑģÑĤÐ²Ð¾
Ġne e
Ġprek yba
ĠÅł P
ĠÑģÐ¾Ñħ ÑĢÐ°Ð½
Ð¼Ñĭ ÑĪ
ĠÐ¼ Ð¾Ð½Ð°
ĠÐ¾Ð¿ ÑĤÐ¾Ð¼
ĠU V
Ġfisc ale
ĠÑħÐ¸ ÑĢÑĥÑĢ
ĠÐ·Ð° Ð¿Ð»Ð°
Äį ek
ĠLenki joje
á»ĩ t
Ġd ak
Ġpantal oni
a ge
mar ul
ĠÃ® m
ĠÐ± Ð°Ð¼
n icÄĥ
ĠÐ¾Ð± ÑīÐµÑģÑĤÐ²
Ġtr á»įng
ĠpaÅ¾as tÅ³
Ġsav ybÄĹs
Ġatmos fera
Ġsri tyse
Ġlici ta
a Å¥
ĠL ink
ĠS ite
ĠÑĥÑģÑĤÐ°Ð½Ð¾Ð² ÐºÐ°
ori a
ĠM Ã¢n
Ġsu var
Ġmod i
Ġnuk ent
ĠÄĮ i
Ġti á»ģn
ĠgÄĹ liÅ³
Ġutili zate
Ġsc or
Ġdan s
J e
Ġin Ã½ch
ĠG rec
ĠÅŁ apte
ÐĶ Ð¾Ð±
Ġproces e
vis l
ÑģÑĤ Ð½ÑĭÐµ
Ġkomplek tas
Ðŀ Ð½
ĠÐ³Ð¾ÑĢ Ð¸Ð·
ĠÐŀ ÐºÑĤÑıÐ±ÑĢÑĮ
ĠÑģÐ° Ð¼Ð°Ñı
ĠÐ´Ð° ÑİÑĤ
OR UL
ĠÐ½Ð°Ð¼ Ð½Ð¾Ð³Ð¾
ĠÐ°Ð½ Ð´
ĠÐºÐ¾Ð»Ðµ Ð±Ð°
ick Ã½
ĠÐ¾ÐºÐ¾Ð½ÑĩÐ° Ð½Ð¸Ñı
Ġsveika ta
Ġacces ul
tu viÅ³
ar tas
jan ÄįiÅ³
ĠÃ®nsc ris
á»Ł i
ĠÑĢÐµÐ· ÑİÐ¼Ðµ
==== ====
ĠaukÅ¡Äįia usios
Ġko jÅ³
Ġreduce rea
Ġsav ybes
ÑĦÐµ ÑģÑģ
v iais
ĠpraneÅ¡ ime
Ġsc ul
pl yv
Ã® mp
Ġg Ã¬
ĠÑģÐ¾Ð±ÑģÑĤÐ²ÐµÐ½ Ð½Ð¾ÑģÑĤÐ¸
Con form
Ġsu ka
ĠpÄĥ tr
un ka
ĠC ame
ii i
ĠAmeri ca
a bili
imen tar
Ġpasis a
ĠÑģÑĢÐ°Ð² Ð½Ð¸
di joje
Ġlik us
ĠÐ»ÑİÐ± ÑĥÑİ
Ġgal va
ĠOr todox
Ħ ¢
K al
Ð¶Ð° ÐµÑĤÑģÑı
Ð»ÐµÐ½ Ð½ÑĭÐ¼
ĠÐ¾Ð±ÑģÐ»ÑĥÐ¶Ð¸ Ð²Ð°Ð½Ð¸Ðµ
ĠgÃ¢nd ul
ÑĤÑı Ð³Ð¸
b ÄĹs
Ġp ut
ĠÅ¡ on
ÑĤÑĮ Ð¸
ĠÐĲ Ð¼ÐµÑĢÐ¸
k le
Ġau t
ĠÐĿ ÐĶ
ĠpÄĥrin Å£ii
ĠÄ¯gyvendin imo
Ð½Ð¾Ð²Ð¸ Ð´
ĠÐ½Ð°ÐºÐ¾Ð½ ÐµÑĨ
ĠÑĢÐ°ÑģÐ¿ÑĢÐ¾ ÑģÑĤÑĢÐ°
Ġch or
ĠÐ¸Ð· Ð¾Ð±
ĠÑįÐºÐ¾Ð½Ð¾Ð¼Ð¸ ÐºÐ¸
ĠÐ°ÑĢ Ð¼Ð¸
Ġman g
ĠKini jos
ĠÑĢÐµ Ð²Ð¾Ð»Ñİ
ĠA F
od or
Äįi osios
Ġrespec tive
Ãº ry
Ġsecol ul
Ġt ub
Ġg ama
ba ck
b uri
Ġspol up
ĠÅłir vintÅ³
ĠT ro
Ġskelb ia
ĠdidÅ¾ia usiÄħ
ĠÐĵÐµÑĢÐ¼Ð° Ð½Ð¸Ð¸
er ti
ĠiÅ¡ rink
ĠPo wer
dic a
ĠÅł iame
Ġsavaitgal Ä¯
Ġmais tÄħ
ĠneÄ¯ pras
de liÅ³
kl ar
ting Å³
Ġce al
kov Ã¡
ĠM ies
Ġdraug ais
Ġnepas teb
Ġv it
ĠK ul
Ġs vies
Ġre por
Ð¾Ð¸ ÑģÐº
Ġkto rom
Ġz b
ĠH or
ĠÐ¦ ÐµÑĢ
ĠÐºÐ¾Ð½ ÑĨÐµÐ½ÑĤ
ÐĽ Ð¯
ĠÐ´Ð¾Ð¿Ð¾Ð»Ð½Ð¸ÑĤÐµÐ»ÑĮ Ð½ÑĭÐµ
ĠÐ½ ÐµÐ½Ð°
ĠÐ±ÐµÑĢÐµÐ¼ÐµÐ½ Ð½Ð¾ÑģÑĤÐ¸
r oni
ĠÐ·Ð½Ð° Ð½Ð¸Ð¹
ĠÑĥÐ½Ð¸Ð²ÐµÑĢÑģÐ¸ÑĤ ÐµÑĤÐ°
ĠÐ² ÑĢÑĥ
Ġelec tron
Ġsocial inio
ĠtÄĥ ng
ĠCh ar
ĠdÄĹ vÄĹta
ĠÐ±Ð¸ Ð¾ÐºÐ°
vie Äįiame
ĠkraÅ¡ tas
ĠBui tis
in amos
Ġsav ybiÅ³
ĠÐ¼Ð½Ð¾Ð³Ð¾ ÑĩÐ¸Ñģ
ĠaikÅ¡ tÄĹje
Ġth á»ĳng
ce rea
ĠdrÄħs iai
Ġfolosi rea
cu rat
ĠC ro
ĠÃ®ncer ca
3 20
Ġval gy
ĠprieÅ¾as ties
Ġtrans forma
Ġy Ãªu
Ġzn amen
s al
ÄĹjus io
ĠÐĴ Ðŀ
Ġs ly
Ġexp res
Ġedu ka
ĠÑıÐ·Ñĭ ÐºÐµ
ĠO ne
ĠP om
j is
ĠNe ws
ologi ja
Ð¾Ðº Ðµ
ĠÐ¾ ÑģÑĤÐ°Ð²Ð¸ÑĤÑĮ
ĠÑĨÐµ Ð»ÐµÐ¹
ĠÐ»Ðµ ÑĩÐµÐ±
Ð¾Ð³Ð° Ñħ
ĠÑĩÐ°ÑģÑĤÑĮ Ñİ
ĠeÅ¾e ro
ĠÐ·Ð°Ð¿Ð° Ð´
Ġpirm osios
ĠiÅ¡ tir
de azÄĥ
da y
tÄĥr Ã¢
ku ose
Ġcent r
Ġcent rin
ĠryÅ¡ ius
ĠSp italul
ĠJuo da
av io
Ġsul ai
ĠÑģÐ¸ Ð´
Ġdez in
y ri
Ġcaf ea
ĠSu omi
ĠÐĶ Ð¾Ð¼Ð°
ĠscÄĥ zut
Ġk vÄĹpa
Ġre Ã®n
A cum
ĠÑĢÐµÐ· ÐµÑĢ
Ġs y
Ġd uoti
z mas
Ġapsaug o
ĠÐ¿ÐµÑĢÐ² Ð¾Ðµ
Ñį ÑĤ
Ġlaik ro
im ybÄĹ
Ġap ima
Ġpadid inti
ÑĤÐ° Ð»Ð¾Ð³
mo jo
Ġmok a
ien i
ĠÐ±Ñĭ ÑģÑĤÑĢÐµÐµ
Ġre con
ĠÑģÐ¿ Ñĥ
ĠÐºÐ° ÐºÐ¾Ðµ
ĠÐľ Ð°Ñģ
Ġc á»©
ĠÐ¾Ð±ÐµÑģÐ¿Ðµ ÑĩÐ¸ÑĤÑĮ
Ġs Å«n
Ġapro p
tov Ã©
ĠÐĺ Ð¼
ĠÐ²Ð¾ÑģÐ¿Ð¾Ð»ÑĮÐ·Ð¾Ð²Ð° ÑĤÑĮÑģÑı
ĠÐ¼ ÑıÑģ
ĠÑĦÐ¸ÑĢ Ð¼Ñĭ
ÑĢÐ°Ð±Ð¾ÑĤ ÐºÐ¸
ĠÐ¾Ð¿ÑĢÐµÐ´Ðµ Ð»Ð¸ÑĤÑĮ
ÐµÑħÐ° ÑĤÑĮ
ĠÑħÐ¾Ð» Ð¾Ð´Ð¸
Ġper veÅ¾
ĠÐ¸Ð· Ð±Ð¸ÑĢÐ°
Ð¿ ÐµÑĤÐ¸
ĠT ru
Ġod pad
m l
ĠcÃ¢ ÈĽi
ĠK le
ĠÐľÐ¸ ÑħÐ°
ĠUcra ina
Ġdisponi bil
Ġkomp on
ĠÑĥ ÑİÑĤ
na inte
Ġprojek te
ĠDo amne
Ð¸ Ðº
Ð¾Ð½Ð° ÑĩÐ°
kos ti
Å£i unii
za us
ĠÅ¡ok iÅ³
Ġpara mÄħ
Ġnum ÄĥrÄĥ
ĠB ai
van Ã©
oc o
Ġkain as
ĠKi ti
3 60
ĠA de
Ġbibliote koje
Ġtit lu
Ġlim bii
C L
Ġgrup ul
Ġpavar dÄĹ
Ð² ÑĪÐ¸Ð¼
ĠÐ¾Ð´Ðµ Ð¶Ð´Ð°
Ġbron z
pe u
Ġan ima
vie w
ui re
Ġmie sta
R y
ĠÐ¼ Ð½Ð¾Ð¹
ĠÐ»Ð¸ Ð½ÐµÐ¹
ĠÐ¿ÐµÑĢÐµ Ð¶Ð¸
Ġi st
ĠÐ¿ÑĢÐ¾ ÑĪÐµÐ»
ÐŀÑģ Ð½Ð¾Ð²
Ð¾Ð²Ð° ÑĢÑĭ
ĠÐļ ÑĥÐ±
Ġtex tul
ĠÑģÐµÐ¼ ÑĮÐµ
ÑĤ Ð½ÑĭÐ¼
ĠÑģ ÑĩÐ°
Ġinstitu cija
b on
Ð°ÑĢÑĮ ÐºÐ¾Ð²
Ð¿Ð¸ ÑģÑĮ
iÅ¡k os
Ð²Ðµ ÑĢÐ°
nÃ© mu
g ose
ĠÐ¸ÑģÑģÐ»ÐµÐ´ Ð¾Ð²Ð°Ð½Ð¸Ð¹
Ġspal vÄħ
Ġsupl im
Ð´ Ð¾Ð»
Ġleg end
ĠÅ¾ vel
Ġmeil ÄĻ
T ies
âĢ ĳ
Ġinv itÄĥ
Ġblog ai
Ġvei klai
ĠÄı alej
tÅ³ si
Ġkvali fik
s Äħ
Ġcir cul
Ġdan ga
Ġslap ta
ĠUr gen
Ġteh nici
Ġbran duo
ĠC E
ĠÐĶ Ñį
Ġindustri a
ĠÐ³ Ð»Ð¾Ð±
Ġm ÄĹ
Ġnuosta bi
Ð° Ð¿
ÑīÐµÐ½ Ð½ÑĭÐµ
ĠÑįÐºÑģÐº ÑĥÑĢ
gi ui
ĠÐ¿ÐµÑĢÐµÐ´Ð° ÑĩÐ¸
ĠÐ½Ð°Ñĥ ÐºÐ¸
Ġsekmadien Ä¯
ĠT Äħ
uk e
jan tys
Ġpagrin das
Ġsim ÈĽi
ĠÐ¼Ð°ÑĪÐ¸ Ð½Ð°
SR S
ĠÐ½Ð¾Ð¼ ÐµÑĢÐ°
ĠTrump os
Å£i ÅŁtii
ĠÑģ Ð½ÑıÑĤÑĮ
Ġpasteb ÄĹjo
ĠÑĤÐ° Ð±Ð»Ð¸
Ġtiks lus
Ġv áº«n
is tori
Ġkei Äįiasi
ĠÐ¸ÑģÑĤÐ¾Ñĩ Ð½Ð¸ÐºÐ¾Ð²
ÑĦ Ð¾Ð²
ĠÑĪÐºÐ¾Ð» Ð°
Ġk uk
Å¡ ius
Ġsf a
Ġve ge
Ġele men
ĠÐĺÑģÐ¿Ð¾Ð»Ð½Ð¸ ÑĤÐµÐ»Ñı
ĠK un
ĠN en
2 15
Ġrepubli ky
Ġlang ai
ĠÐĵ ÑĢÐ°
Ġast ron
ĠaukÅ¡ Äįiau
s me
Ġap lik
Ġpak il
ĠtrÄĥ it
ĠÐ¿ÑĢÐ¾ ÑģÑĤÐ¾Ð¹
c ini
ĠDaÅ¾ niausiai
Ġbaig ÄĹsi
Ġpristaty mas
ĠM el
ĠB io
ÑĢÐ°Ð»ÑĮ Ð½ÑĭÑħ
ĠMic rosoft
Ġdraud imas
ĠpabrÄĹ Å¾ia
io ri
so are
ĠÐ² Ñĥ
kl Ä¯
Ġsod o
Ð¼ ÑĥÑİ
ĠÐ²Ð¸ Ð´Ñĥ
ĠÐºÐ¾ÑĤÐ¾ÑĢ ÑĭÐ¼Ð¸
Ð»ÑİÐ´ ÐµÐ½Ð¸Ñı
Ð¼ÐµÐ½ ÑĤÐ¾Ð¼
Ġktor Ã½m
ĠÑĥÑģÑĤÑĢÐ¾Ð¹ ÑģÑĤÐ²
ĠÐ¿Ð¾Ð» Ð¾ÑĤ
ĠÐ¾Ð³ÑĢÐ°Ð½Ð¸ ÑĩÐµÐ½
ĠÐ¾ÑģÑĥÑīÐµÑģÑĤÐ² Ð»Ñı
ĠÐŀ Ð»ÑĮ
Ñģ Ð»Ð°Ð²
aj ul
ĠÑĢÐ°Ð·Ð²Ð¸ ÑĤÐ¸Ñİ
ĠÐ¿ÑĢÐ¾ ÑģÑĮ
Ġs how
ĠneÅ¾in au
ÑģÑĤÐ°Ð½ ÑĨÐ¸Ð¸
Ġb ule
Ġjau Äįiasi
geri i
ĠsÄħ n
Ġsmar kiai
Ġefectu at
Ġb ruo
Ġdrep turilor
Ġte ore
ĠtÃº to
Ġte p
Ġk vai
Ġz ÃŃska
Ġob Å£inut
Ġdaik tus
Ġdom in
Ð°Ðº Ð¾Ð¼
ĠS ar
y klos
Ġfi re
ĠCun oaÈĻte
ĠspoloÄį nosÅ¥
ĠNa ÈĽionale
P od
Ġdezvol ta
ĠÐ¼ Ð¾ÑĤ
Ġbro lis
ÑĪ Ð°Ð½
Ð¦ÐµÐ½ÑĤ ÑĢ
ĠÐŀ Ðĳ
bu c
m or
Ġtre ilea
Ð¾Ð²Ð° Ð½Ð¸Ñİ
ÐļÑĥ Ð¿Ð¸ÑĤÑĮ
ĠJ Ä¯
ĠÐ´ÐµÑĤ ÑıÐ¼
Ã Ħ
ÑĪÐ¸ Ð»
ĠÑĤÐµ Ð»Ð¾
ĠÐ²Ðµ Ð´Ð¾Ð¼
Ġteis ingai
ĠÐ¼Ð¾Ð» Ð¾ÐºÐ°
Ð± ÐµÐ·
Ġdetal iÅ³
Ġjau tri
Ġcere mon
A U
Ġnor as
ĠÐ¿ÑĢÐ¸Ð³Ð¾ÑĤÐ¾Ð² Ð»ÐµÐ½Ð¸Ñı
jan ti
Ġpavaduo tojas
ĠÐ²Ð¾Ð´ Ð¾
Ġarticol ului
g ta
ĠÐ¸ ÑģÐºÐ°
ĠZ aras
ĠCS M
li ul
N et
p tate
Ġmen iu
Ġtaik oma
ĠÄį es
RomÃ¢n ia
Ã® ng
T C
av as
Ġsecol ului
Ġrecomand Äĥ
ĠcÃ¢ Å£i
Äº Å¾
Ġmar cat
uo giÅ³
Ġin sa
venim entul
Ġa ma
Ġturin tys
Ġfunk cija
Ġty rin
Åł ia
ĠÄ¾ u
ĠTur cia
st ÄĹje
Ġmo tyv
ĠÐļ ÑĢÐ°
jam Äħ
Ġan ex
lo gijos
ĠÐĳ Ð¾ÑĢÐ¸
ĠcreÈĻte rea
Ġtran g
Ġdrau gai
ĠÐ¾ÑĤÐ´Ðµ Ð»ÑĮÐ½ÑĭÑħ
e de
Ðŀ Ð¿Ð¸ÑģÐ°Ð½Ð¸Ðµ
y no
Ð¾Ð»ÑĮÐ·Ð¾Ð²Ð° Ð½Ð¸Ðµ
ĠÐ±Ð° Ð»Ð°Ð½
ÑĤÐµÐ½ ÑģÐ¸Ð²
Ġcuvin tele
ĠÐ¿ÑĢÐ¸ Ð²ÐµÑģÑĤÐ¸
ĠÐºÑĢÑĥÐ¿ Ð½ÑĭÑħ
z iile
ĠÐŁÑĢÐ¾ ÑģÑĤÐ¾
ĠV ac
ĠÐ¿Ð¾ÐºÑĢÑĭ ÑĤÐ¸Ñı
ĠÐ»Ð° Ð±Ð¾ÑĢÐ°
Ġpar kas
ĠÑįÑĦÑĦÐµÐºÑĤÐ¸Ð² Ð½Ð¾ÑģÑĤÐ¸
Ġpag inÄĥ
ĠÑĤÐµÐ¾ÑĢÐ¸ Ð¸
Ġcer in
T S
Ð¾Ð¿ ÐµÑĢÐ°
ĠBi ro
Ġbu cur
Ġpro ven
Ġpatvirtin o
S cri
Ġz amestn
ĠLe on
tu vÅ³
onal d
ĠGabri el
Ġcu raj
tyv iai
inan ti
Ġli Ãªn
Ġl arg
Ġtine rii
Ġpubli cate
Ġor kes
ĠCite ÅŁte
ĠÑĥ Ð²Ð»ÐµÐºÐ°
Ġapylink ÄĹse
g inti
ĠÅ¡ la
Ġsta v
ÑĤ Ð¾Ð¿
Ġgh id
Ð² ÑĪÐ°Ñı
Ġin com
Ð¶ Ð½ÑĭÐ¼
ĠÐ± Ð»Ðµ
Ñĩ Ð½Ð¸ÐºÐ°
Ġsaul ÄĹ
ĠÑģÐ¼Ð¾ÑĤ ÑĢÑı
ĠÐ¿ÐµÑĢ Ð²ÑĭÐ¼
ĠÐºÐ¾Ð½ ÑĨÐµÐ¿
Å«rin t
ĠÑģÐµÐ¼ ÑĮ
Ðº Ð²Ð°
ĠÑħÐ¾Ð·ÑıÐ¹ ÑģÑĤÐ²Ð°
Ġtovar u
Ġn ai
Ġproiec tele
Ġkur or
Ġkau tyn
Ġs laug
ÄĻ si
ĠA dam
ÄĹj usiÄħ
ĠRo z
Ġamp las
Ġdeb es
Ġmoksl ininkai
ki Äħ
Ġstruc tura
tuo jant
Ġd angos
ĠiÅ¡laid as
Ġmit ybos
b is
Ġsveikat Äħ
Ġbio log
ĠKaz imie
ĠRom a
Ġreduce re
Ġch ine
ĠZ e
Ġob ja
ost ra
ÑĦ ÐµÐ´
ki ja
ĠChi ÅŁ
Å¡ il
D is
tin Å³
Ġarhite c
ĠG lo
Ġtransfor mÄĥ
Ġdvo ch
ĠRe zul
ÑģÐ¾Ð² ÐµÑĢÑĪÐµÐ½
Ġatstov Å³
in ui
Ð¾ÑĢÐ¸ ÑĤ
ty vo
ĠÐ´Ð¾ÑģÑĤÐ¸ Ð¶ÐµÐ½Ð¸Ñı
ĠÐ¿ÑĢÐ¾ÑģÑĤÑĢÐ°Ð½ ÑģÑĤÐ²Ð°
ĠÐ½ Ð¾Ð²Ð°Ñı
Ġmokes tis
ĠÐ½ÐµÐ¿ÑĢÐ¸ ÑıÑĤ
Ð¼ ÐµÐ¹
Ġmok iniams
ĠÑĢÐ°Ð·Ð¼ÐµÑĢ Ð¾Ð²
Ġob jednÃ¡
ĠÑģÐ¾Ð¾ÑĤÐ²ÐµÑĤ ÑģÑĤÐ²ÐµÐ½Ð½Ð¾
ĠÑĢÐ°Ð±Ð¾ÑĤ Ð½Ð¸ÐºÐ¾Ð²
ĠtÄĹ ve
ÑĢÐ¾ÑģÐ¸ Ð»
ĠÐ¿Ð¾Ð´Ð´ÐµÑĢÐ¶ ÐºÑĥ
ĠÐ¿ÑĢÐ¾Ð³ Ð½Ð¾Ð·
Ġcas ei
ĠÐ¿ÑĢÐ¾Ð²ÐµÐ´ ÐµÐ½Ð¸Ð¸
Ġtemperat Å«ros
ÄĹ lius
ĠÐ¾Ð¶Ð¸ Ð´Ð°
ĠÐ² ÑģÐº
ĠÅ¾ va
ĠE min
Ġadministra tiv
Ġp Å«
an ei
ĠadevÄĥ ratÄĥ
ĠÐľÐ°ÑĤÐµÑĢÐ¸ Ð°Ð»
Ġmun te
ta bile
Ġdrep tate
ĠnÃ¡jde te
Ġv Ã¡Å¡
Ġdomen ii
Ġexpli cat
ĠromÃ¢ne ÈĻti
al au
ĠÈĻ ase
Ġmo tor
tr Å«k
l ok
Ġpak ran
Ġnepa vyko
ĠapÅ¡ vie
ven Ã©
15 2
ĠÄ¯ tik
Ð²Ðµ ÑĨ
ĠÅ¾en klÅ³
Ġli ve
sk as
Ġkelion ÄĹ
Ġvis ose
Ġsp i
Ġprisi paÅ¾
m d
Ġbri tan
áº§ m
Ġsek toriaus
ĠÐ°Ð¿ Ð¿Ð°ÑĢÐ°ÑĤ
Ġat rad
ÐµÐ½ÑĮ Ðµ
Ġsep ty
ĠSR I
ÑĤÐ¸ ÑĩÐµÑģÐºÐ¸Ðµ
ĠÐ¿ÑĢÐ°Ð·Ð´ Ð½Ð¸Ðº
inink u
ba bil
Ġdep us
ĠÐ´ÑĢÑĥÐ· ÐµÐ¹
Ġpriori te
Ð½ Ð½Ð°Ñı
ĠÐºÐ¾ÑĢÐ° Ð±
ĠÐ¡ Ð¾Ð»
Ð½ ÐµÑĤÐ°
Ð¼ ÑģÑı
Ð¾Ð¼ ÐµÑĢ
ĠÑģÐ° Ð´
ĠÐ´Ð¸Ð·Ð°Ð¹ Ð½Ð°
ĠÐ¿Ð°Ð¼ ÑıÑĤ
ĠÐ½Ð° Ð¼ÐµÑĢ
ĠÐ¸Ð½ÑĦ ÑĢÐ°
Ġs amos
ÑĢÐ°Ð±Ð¾ÑĤ ÐºÐ°
Äį enie
Ġj un
Ñī Ð°Ð¹
ĠÐ¿Ð»Ð° ÑĤÑĮÐµ
Ġprostred nÃŃctvom
te ÈĻte
ĠPar lamen
ÐµÐ½ ÐºÐ¾
ĠÑĥ ÑĩÐµ
ĠÐ¡Ð°Ð¹ ÑĤÐµ
Ġv onios
Ġvac cin
T T
tro l
Ġv ÄĹjo
Ġstabili rea
en Äħ
ÐµÐºÑĤ Ð¾Ð²
Ġpas tov
Ġum b
ĠpabrÄĹ Å¾ÄĹ
Ġp ei
ĠgrÄ¯Å¾ ti
ten k
ĠAu Å¡
ĠÐ½ÐµÐ¸Ð· Ð²ÐµÑģÑĤ
S up
Ġger Å³
ĠÃİ mi
ent ais
Ġpris imen
Ġturin tis
Ġtine rilor
ĠpraneÅ¡ imÄħ
ĠÅ¡ auk
Ġgreu tate
á»ĵ n
ĠÐĲÐ½Ð´ ÑĢÐµÐ¹
Ġl ider
ĠÃºÄį in
ir ti
ĠstÃ¢n ga
ta ro
ĠÑĨÐ¸ Ð»Ð¸Ð½Ð´
Ġgener ale
Ġmo hli
ÈĽi unile
ÑģÑĤÐ²ÐµÐ½ Ð½Ð¾Ð¼
Ġb iá»ĩt
ĠÐĵ Ðµ
Ġup ÄĹs
ĠÑĤÐ° Ð»Ð°Ð½
Ġkak lo
ĠÐ¿ÑĢÐ¸ Ð½Ð¾
Ð¾Ð¿ÑĢÐ¸ ÑıÑĤ
ĠÑģÐ¾Ð² Ð¼Ðµ
ĠÑĪÐ¸ÑĢÐ¾Ðº Ð¾
ĠÐ±Ð°Ð³Ð° Ð¶
ĠÅ¾od is
Ð¸Ð· Ð¼
ĠÑģÑĤ ÐµÐ½Ñĭ
ĠÐ¼ÑĥÐ¶ÑĩÐ¸ Ð½Ñĭ
ÑĨÐ° Ñħ
Ġkrau ja
Å¾ eng
Ġdec l
Ġband ÄĹ
ĠiÅ¡s ilavin
ĠÐ²Ð¸Ð´ Ð½Ð¾
ĠcÄĥ l
ĠcumpÄĥ rat
ade vÄĥr
ĠÑģÐ²Ð° Ð´ÐµÐ±
ĠÐ¿ÐµÐ½ ÑģÐ¸Ð¾Ð½
u ga
Ġnem Ã¡
Ġpritai kyti
ed er
Ġlyg iai
ĠAt s
ĠR um
Ġdeschis Äĥ
Ġvartoj imo
ĠDa ca
min al
Ġh Ã³a
Ġkomun ik
P op
á» Ľ
Ġap sk
Ġs tor
oni ja
ĠÄħ Å¾uo
Ġchiru rg
Ġreik tÅ³
c ari
Ġkovo tojas
Ġvisuomen ei
min iai
Ġnep re
Ġpil na
S veiki
Ġm eni
Ġmil Å¾ini
ĠÐºÐ¾Ð¼Ð¿ ÐµÐ½
ki joje
ĠÐºÐ¾Ð» Ð¾Ð½
ĠpavirÅ¡ iaus
une re
Ġth Ã¡ng
M Äĥ
Ġv áºŃy
ĠÐ½Ð°ÑĥÑĩ Ð½Ð¾
ain te
Äį an
ĠÐ³Ð¾ÑģÑĤ ÐµÐ¹
Ġelg tis
Ġinteres ul
ĠÐ¿ÑĢÐµÐ´ Ð¾ÑĤÐ²ÑĢÐ°
ĠÐ½Ð°ÑĩÐ¸Ð½Ð° ÐµÑĤÑģÑı
ĠÐĵÐŀ Ð¡Ð¢
Ġmuzie jaus
ĠÐºÐ½Ð¸ Ð³
Ġbu hal
Ðľ Ð¾Ð»
Ġt Ãłi
ok ies
ĠÐ½Ð°Ð· Ð²Ð°Ð½Ð¸ÐµÐ¼
Ġag ricul
ĠÑį Ð½
ĠÐľ Ð¥ÐŁÐĺ
or m
ĠKre tingos
ĠiÅ¡kovo jo
ÑĥÐ´ Ñĭ
Ġpries to
pta tÄĥ
les s
ĠÐĲÐ»ÐµÐºÑģÐ°Ð½Ð´ ÑĢÐ¾Ð²
tak ul
Ġko ordin
Ġpasid Å¾iau
gi ta
ĠiÅ¡sirink ti
Ġpaslap tis
ĠuÅ¾ aug
ĠÅ¾in ia
Ġfestival is
Å¡k ais
ĠpaÅ¾ in
ĠiÅ¡g elb
ar us
vy das
ĠRad io
Ġstre d
Ġta y
Ġle ga
Ġpa val
Å½ em
Ġpaslaug a
ĠIn te
Ġvad ova
Pro gra
Ġminis trului
insk as
Ġfe dera
P en
c us
ĠÐ»Ð¸ Ð½Ð¸Ñı
Ġpa ce
an elor
ĠÐ²Ñĭ Ð±Ð¾ÑĢÐ°
ĠÐ¸ Ð½ÑĭÑħ
ĠV ene
ĠB re
ĠÄĳá» ķ
ÑĢÐµ Ñħ
Ġnam ie
ĠÐ²ÑĭÐ± ÑĢÐ°
ĠÐ¿Ð¾Ð¸ ÑģÐºÐ¾Ð²
ĠÐºÐ¾Ð¼Ð°Ð½ Ð´Ð¸
Ñĥ ÑĪÐºÐ¸
ĠÐ½Ðµ Ñĳ
ĠÑĩÐµÑĢ Ð½ÑĭÐ¹
ĠÐºÐ¾Ð¼Ð¿Ð»ÐµÐº ÑģÐ°
Ġzah Äĥr
ĠÐ¤Ð¾ÑĢ ÑĥÐ¼
g ri
ĠÑģÐ¿ ÑĢÐ¾
ĠÐºÐ²Ð°ÑĢÑĤÐ¸ ÑĢÐµ
ĠÑĤ Ð²Ð¾
Ġd Æ°á»
ĠÐ² Ð°ÑĢ
Ġau torul
ĠPro fes
Ġinc lus
ĠÑģ ÑĦÐ¾ÑĢÐ¼Ð¸
ĠÐ²Ð°ÑĢÐ¸Ð°Ð½ ÑĤÐ¾Ð²
Ðľ Ð¡
ĠV or
Ġod s
Ġpati ks
Ġsi jonas
Ð´ Ð½Ðµ
P rie
Ð¢ Ð¡
Ġki toje
Ġskul pt
ĠÅ¡e imoje
ÑĢÐºÑĥ ÑĤ
Å¡ om
Ġb ÄĹ
Ġsup ort
ĠÐĶ Ð¾Ð»
Ġorganiz atÄĥ
Ġta ra
Ġimag ina
Å¡ Ä®
Ġl ob
tur n
Ġplat forma
Ġri dicÄĥ
ma Å¾
Ġh ib
tm l
ele i
as tra
ru ok
Â» Â»
Ġmo bile
ĠÐ¾Ð± Ð»ÐµÐ³
ĠÑģÐ°Ð¼ Ð¾Ð»
D om
ĠÐ·Ð° Ð±Ð¾ÑĤ
ĠsÄħ nau
Ġie ÈĻi
din ius
ĠÐ¸Ð´ ÑĤÐ¸
ĠÄ¯vai riausiÅ³
ÑĤÐ¾ ÑĢÐµ
ĠÃİ N
ĠN er
Ġal y
ĠÐ¿ÑĢÐ¾ÑĪ Ð»Ð¾Ð¼
ĠÐ¿ÑĢÐ¾ ÑıÐ²Ð»Ñı
ĠÑģÐ¸Ð¼ Ð²
ĠÐ½Ð° Ð»Ð¸Ñĩ
Ġsim ple
Ġsavai ÄįiÅ³
ĠÐ¿Ð¾ ÑıÐ²
ĠÐ¿Ð¾Ð´Ð¾Ð± ÑĢÐ°ÑĤÑĮ
Ġpolitik Äħ
19 80
ĠÐ½Ð°Ð·Ð½Ð° ÑĩÐµÐ½Ð¸Ñı
ĠÐºÐ° Ð»ÑĮ
ĠÑħÐ¾ÑĤ ÑıÑĤ
Ġpag ei
Ġocaz ie
ar ma
ĠDac ia
Ġafir mat
Ġk az
Ġvei dro
ĠÐ¡ Ð¾Ð±
! Â»
ÑģÐ¸ Ð½
Ġpost ul
Ġin va
ĠBra ÈĻov
Ġpagrin do
me c
Ġspal vo
vie tÄĹs
s ub
ĠÑĢÐ°Ð±Ð¾ÑĩÐ¸ Ð¹
Ġnaj vÃ¤Äį
Ð¡Ðļ Ðŀ
Ġdirek torÄĹ
ĠGala xy
Ġleg at
11 6
Ġi gno
Ġkomple ks
Ġpilie ÄįiÅ³
Ð³Ð° Ð»Ð¸
tuo jama
ĠdarÅ¾ov iÅ³
C ei
Ġpas isk
Ġm imo
z ori
ĠÑĥ Ð»ÑĮ
ch etul
ĠÐ½Ðµ Ð¾Ð¶Ð¸Ð´Ð°Ð½
ĠÐ¾ÑģÑĤ ÑĢÐ¾Ð²
Ð¾Ð»Ð¾Ð³Ð¸ ÑĩÐµÑģÐºÐ¸Ñħ
Ð¿Ð¾Ð· Ð¸ÑĤ
ĠÐ¿ÑĢÐµÐ´ÐµÐ»Ð° Ñħ
ĠÑį ÑĢÐ¾ÑĤÐ¸
Ð¿ ÑĢÐ¾Ð¼
Ð»Ð° Ð¹
ĠÐ´Ð¾Ð¼ Ð¾Ð¹
Ð¾ÑĢÐ¸ ÑĤÑĮ
Ð¾Ð²Ð°Ð½ Ð½ÑĭÑħ
ÑĩÐ¸ Ð½Ð°Ñı
ĠÐ§ Ð¸
Ð¾Ð¼Ð¸ Ð¼Ð¾
ĠÑģÐ° ÑħÐ°ÑĢ
ĠÐ½Ð° ÐºÐ°Ð·Ð°
ĠÐºÐ°Ðº Ð¾Ð³Ð¾
ĠÐŁ Ð¾ÐºÐ°
ĠÐºÐ¾Ð¼Ð½Ð° ÑĤÑĭ
Ñı ÐµÑĤ
ĠÐ²Ðµ Ð»Ð¾Ñģ
ĠÑģÐ²ÐµÑĤ Ð¾Ð´Ð¸
ĠÐĲÑĢ ÑĤ
Å£ atÄĥ
Ġne bi
Ġan aliza
ĠÈĻco alÄĥ
ink as
vori Å¥
Ġinteres ant
Ġgra Å¾u
Ġro di
ĠidÄĹj os
IN G
ĠcÃ¢ÅŁti gat
x ul
ĠÐĲÐ² ÑĤÐ¾ÑĢ
ĠÄį ase
ĠmedÅ¾ia gas
Ġversl Äħ
cop ul
ĠÐ¿ÑĢÐµÐ´Ð¾ ÑģÑĤÐ°Ð²Ð»ÑıÐµÑĤ
ĠÐ¼Ð¸Ð»Ð»Ð¸ Ð¾Ð½Ð¾Ð²
Ġtur inÄ¯
Ð° Ð½Ð°
a vi
Ġreng ia
ÃŃ k
la ri
ĠÐ¸Ð³ÑĢÐ¾Ð² Ð¾Ð¹
in ar
ĠÑģÑĤ Ð¾Ð»Ð°
Ġmon di
ĠÐľ ÑĥÐ¶
Ġinter jero
ni rea
Ġper cep
Ä¾ om
Ġek strak
ĠÃ®nÈĽele s
Ġa ducÄĥ
Ġmu a
ci re
p lek
Ġcatego rii
st al
Ġp ÄĹ
ÑĢÐ°Ð½ ÑģÐ¿Ð¾ÑĢÑĤ
a f
Ġs ai
Ð·Ð¸ ÑĤÑĮ
ĠÐ¿Ð¾Ð¼Ðµ ÑīÐµÐ½Ð¸Ð¹
ÑīÐ¸Ðµ ÑģÑı
Ġtelevizi une
ĠÐºÑĥ Ð¿
195 3
b itÄĥ
Ð¿Ð»Ð° ÑĤÐ°
ÑĢÐµ Ð°
Ġparduo ti
ĠÐ¯ Ð¿Ð¾
ĠÄ¯ran gÄħ
ĠÐ¿Ð»Ð¾ ÑħÐ¾
Ġtvir tina
Â ·
Ġsto ro
Ð¾Ð³Ð¾ÑĢ ÑģÐº
Ġd ona
Ġri bÅ³
Ġelektron iniu
sÄĥri cÄĥ
Ġnum ato
Ð¤Ð¡ ÐĺÐĿ
ĠÐ¡Ð¾Ð²ÐµÑĤ ÑģÐºÐ¾Ð¹
ĠmÄĹgau tis
ĠKrista us
ÑĢÑĥ Ð±
At si
Ġmoky mosi
ĠÐ¿Ð¾Ð´ ÑĢÑıÐ´
Ġme argÄĥ
ĠprÃŃs luÅ¡
Ġk ova
Ġpoh yb
ĠÐ½Ð° ÑģÐºÐ¾Ð»ÑĮÐºÐ¾
Ġaj ute
ĠIsra el
is h
ÑģÐ¿ Ð¾ÑĢ
li gen
á» Ŀ
li ce
ĠÑĢÐ°Ð·Ð¼Ðµ ÑĢÐµ
S al
ĠE ng
ĠG en
k Ã©ho
Ġegz am
Ñĩ ÐºÐ¾Ð¼
d id
ĠRe al
ov ai
Ġmo re
Ġmij loc
Ġpirmin inko
Ã¡ci ou
Ġpavir Å¡iÅ³
Ġkru opÅ¡
ys ime
Ġin to
ĠÐ¿Ð¾ÑĤÑĢÐµÐ±Ð¸ ÑĤÐµÐ»ÐµÐ¹
M ul
Ġth Æ°Æ¡ng
Ġvak are
Ġats ki
Ġlini jos
din ÄĻ
Ð¼ÐµÐ½ ÑĤÐµ
ĠÐ¼Ð°ÑĪÐ¸ Ð½Ñĥ
Ġnar ko
g ele
ar ov
ĠÐ± Ð¾Ð»Ðµ
ĠÑĢÐ¾Ð´Ð¸ ÑĤÐµÐ»Ð¸
ÑĢÐ¾Ð²Ð° Ð½Ð¸Ñİ
ĠV it
ĠÐ¸Ð½Ð¶ÐµÐ½ ÐµÑĢ
12 2
ĠÐ¾ÑĤÐ½Ð¾ ÑĪÐµÐ½Ð¸Ðµ
ĠÐ¿Ð¾Ð»ÑĮÐ·Ð¾Ð²Ð° ÑĤÑĮÑģÑı
ĠÐ¿ÑĢÐµÐ´ÑģÑĤÐ°Ð²Ð¸ ÑĤÐµÐ»ÐµÐ¹
ÑĪÐ° Ð»
ĠÐ¼Ð°ÑĢ ÐºÐµÑĤ
ÑĦ ÐµÑĢÐ°
Ġv zdel
Ġantre pren
ĠDe p
Ġatra ge
ĠÐĺÐ²Ð° Ð½Ð¾Ð²
Ġvy uÅ¾i
ĠNe am
Ãİn tr
alizÄĥ rii
ĠÑģÑĤÐ¾ÑĢ Ð¾Ð½Ð°
Ġcomp u
oli u
Ġo h
ĠÐ´Ð¾Ð»Ð»Ð° ÑĢÐ°
ost os
Ġmate rie
Ð± Ð°Ð»
ĠÐ±ÐµÑģÐ¿Ð»Ð°ÑĤ Ð½ÑĭÐµ
Ð¿ Ð¾Ñģ
ĠP ur
wit ter
ch er
Ġun g
ĠÐ¾Ð¿ ÑĭÑĤÐ°
Ġa eri
ĠÐ½Ð¸ÐºÐ° Ðº
Ġsavai me
ĠK ru
Val styb
Äįi ose
Ġzd ro
ĠpaÅ¾ vel
C op
Ġram iai
Ġweek end
Ġkom an
ĠViln iÅ³
Ġknyg oje
Ġcon tribui
Ġnes varbu
Ġave Å£i
Ġtyri mus
Ġvol um
ĠarÄĥ ta
Ġy pa
Ġacord ul
ok ai
olog icÄĥ
p inti
Ġti Ãªu
ĠParlam ent
Ð²Ð¸ Ñı
po Äį
ÑĥÐ³ Ð¾Ð»ÑĮ
Ġpar f
E F
ĠÐ½Ð°Ñģ Ð»Ð°
ĠÐ¾ÑģÑĤ ÑĢÐ¾Ð²Ð°
ĠÐ¾Ð±Ñĥ ÑĩÐ°
Ġra u
ĠÑģÐ»Ð¾Ð¶ Ð½Ð¾ÑģÑĤÐ¸
ĠÑģÑĢÐµÐ´ Ð½ÐµÐ³Ð¾
ĠÐłÐµÐ¼ Ð¾Ð½ÑĤ
ĠbÄĥ u
ĠÑģÐ¾Ð¾ÑĤÐ²ÐµÑĤ ÑģÑĤÐ²ÑĥÐµÑĤ
ĠÑĢÐ°ÑģÑģ Ð¼Ð¾ÑĤ
Ð½Ð¸ÑĨ ÐµÐ¹
ĠÑħÐ¾ÑĤÐµ Ð»Ð¾ÑģÑĮ
ĠGre en
ĠÐºÐ¾ÑĢÐ¿Ñĥ ÑģÐ°
ÑģÑĤÐ² Ð¾Ð²Ð°Ð»
ĠÐºÐ¾Ð¼Ð°Ð½ Ð´Ð°
ĠÐ¿Ð¾Ð´ ÑĥÐ¼Ð°
ĠamÅ¾ iuje
Ġklaus imai
ĠBÅ« klÄĹ
dÄĹ ta
Ġpen ale
ĠÑĦÐ° ÐºÑĥÐ»ÑĮ
Ġpri ÄĹmÄĹ
Ġz id
Ġs tin
ĠE N
ĠÅł iÅ³
Ġvy p
Ġak imis
in ÈĽi
â Ħ¢
Ġma ra
ĠM ure
ĠÐ¾ÑĤÐ²ÐµÑĤ Ñĭ
Ġvadin ama
p et
Ġkeli os
Ġprinci pi
ĠÐ½Ð°ÑĪ Ñĥ
Ġan tic
Ġremi antis
v uje
ĠPR O
ĠÐĲ Ð¿
KlaipÄĹ dos
Ġevalu are
ĠP res
Ġiub esc
ĠdÅ¾io vin
an iu
ĠÅ¡ ar
ĠTe hn
Ð¾Ð² Ð¾Ðµ
ĠÐļÑĢÐ°ÑģÐ½ Ð¾Ð´Ð°ÑĢ
Ġpo jÅ«
Åł ie
Ġdi ficul
Ð± Ð¾Ð»Ð¸
Ġper dav
r ali
ÑĤÐ¸Ð² Ð½Ð¾Ðµ
Ġregistra cijos
ky mÄħ
ĠÑħ Ð¾Ð·Ñı
Ġimplemen tarea
Ð»Ð° ÑģÑģ
19 65
ĠÐł Ð¾ÑģÑĤÐ¾Ð²
ĠÐ° ÐºÑĤ
ÑĤÐ¾Ð² ÑĭÑħ
ĠiÅ¡ rin
ĠÑį ÑĦÐ¸
ĠÐ·Ð° ÑĢÐ°Ð½ÐµÐµ
ĠÑĥ Ð²ÐµÐ´Ð¾Ð¼
ĠÑģÑĥÐ¼ Ð¼Ð°
Ġcent rÄħ
ĠÑģÐ´ÐµÐ»Ð° Ð»Ð¸
r ÄĹje
ĠÑģ Ð¾Ð½
Ġdiza ine
ĠIS O
ĠÑĤÑīÐ° ÑĤÐµÐ»ÑĮÐ½Ð¾
Ġsuvo kti
B end
ĠDumit ru
10 9
ĠÑĥÑĩ ÐµÑĤÐ°
ĠÐĴÐ¾Ð·Ð¼Ð¾Ð¶ Ð½Ð¾
ĠÃ®ntre bare
Ġsmegen Å³
es io
ĠBo to
« a
ĠAd resas
Ġv Ã½ch
Ġvari anta
Ġpir mieji
ĠÐĵ Ð¸
P G
Ġak tual
ĠPla y
S ub
ÈĽion ate
Ġmink Å¡
ĠÑĤÑĢÐ°Ð½ÑģÐ¿ Ð¾ÑĢ
Ġsiek ÄĹ
Ġveik loje
ĠÐ¼Ð° Ð¼Ð°
Ġs et
yst ÄĻ
Ġa verti
Ġal bas
ĠÅ¡e imÄħ
Ġf ic
ĠÐ¸Ñģ ÑĩÐµ
e ur
ĠÐ¿ÑĢÐ¸Ð¼ÐµÐ½Ñı ÐµÑĤÑģÑı
Ð²Ð¾ ÑĢÐ°
Ġspor tiv
ĠD ol
ĠÐŁ Ð¾Ð·
ÑĢÑĭ Ñħ
ĠÑĢÐ°Ð·ÑĢÐµ ÑĪÐµÐ½Ð¸Ñı
Ðļ ÑĢÐ¾Ð¼Ðµ
Ð¾Ðµ Ð´Ð¸Ð½
ĠÑĩÐ¸ÑĤÐ° ÑĤÑĮ
Ġho áº¡t
Ð³ Ð½Ð¸ÑĤ
Ð¿Ðµ ÑĢÐµÐ´
ĠÐ¾ÑĦÐ¾ÑĢÐ¼ Ð»ÐµÐ½Ð¸Ðµ
Ð» ÑĥÑİ
ĠÑı Ð¹
Ð¾ Ñİ
V A
ĠpÄĥ du
ĠÑĢÑĥ ÐºÐ°Ñħ
ĠÐ¾Ð³ Ð½Ðµ
ĠpraÅ¡ ome
ad y
P asi
an ului
Ġg uma
Ġsur sa
ĠPla Äįiau
Ġregi one
Ġcad o
Ġpri gim
Ġde fin
ĠÐµ Ð·
ĠÐ°Ð² ÑĤÐ¾ÑĢÐ°
Ġtok iais
Ġh ne
Ġutili zat
Ġvir Å¡k
ĠT R
Ġlik vid
Ġeta pa
Ġkonkur se
Ġloc ali
ĠsluÅ¾ by
le sn
ĠvirÅ¡ uje
Ġto ne
Ġreali zeazÄĥ
Ġug dy
Ġpatalp ose
av imÄħ
ti ilor
Ġatlyg in
o ci
Ġkomp ensa
áº¡ m
Ġprop un
Ġcopil Äĥ
ĠR ek
ĠÐ¾Ð±ÑĢÐ°Ð±Ð¾ÑĤ ÐºÑĥ
Ġstudi jos
ĠIn vesti
M as
ĠÐ¤ Ð¾ÑĤ
ĠL up
Ġtur inio
ĠÑĤÑĭÑģÑı ÑĩÐ¸
Ġproced urÄĥ
ĠÐ¿ÑĢÐ¸ Ð²ÐµÑĤ
ĠÐľ Ð½Ð¾Ð³Ð¸Ðµ
Ñĩ ÐºÐµ
Ġprie Å¾iÅ«r
ĠDes pre
ĠraÅ¡ tu
ĠÑģ Ð¾Ð»Ð¸
tick Ã½
ĠÐ¾Ðº ÑĢÑĥÐ³
Ð´ÑĨÐ° ÑĤÑĮ
Ġva in
ĠÑĢÐ°ÑģÐ¿Ð¾Ð»Ð¾Ð¶ ÐµÐ½
Ġpam ÄĹg
Ġkli ento
ĠÐ¸ÑģÐºÑĥÑģ ÑģÑĤÐ²Ð°
od y
Ġateit Ä¯
Ġmokslei viÅ³
ĠÐ´Ð°Ð»ÑĮÐ½ÐµÐ¹ ÑĪÐµÐ¼
ĠcÄĥ zut
Ġz ad
Ġin ov
Ġapylink ÄĹs
ĠQu á»ĳc
ĠvÃ½ raz
a ÈĻ
ĠÑĥÐ´Ð¾ ÑģÑĤÐ¾Ð²ÐµÑĢ
alis t
ĠÅ¡ok ol
Ġinteres ante
Å¡k ÄĹ
Ġalb um
ĠÐĺÑģÐ¿Ð¾Ð»Ð½Ð¸ ÑĤÐµÐ»Ñİ
ĠK ro
ÑĪÐ¸ Ð½Ð°
Ð¶Ð¸ Ð¼Ð°
ĠPar k
ĠÐ¾Ð¿ÑĥÐ±Ð»Ð¸ ÐºÐ¾Ð²Ð°
ĠMar tin
ĠAn ti
cÄĥ tor
Ġstudi jas
h ai
ĠB it
ams iai
ĠSavivald ybÄĹs
Ġtr ung
j imai
Ã¡ ri
Ġan ot
Ġaju tat
ta d
Ġneg aliu
vil a
ĠÐ½Ð°Ñģ Ð¾Ñģ
Ð¾Ð´ Ð½ÑĭÐµ
ink y
ĠÐ¿ÑĢÐµÐ¿Ð°ÑĢÐ° ÑĤÐ°
Ġtem ei
ĠÐ½ÐµÐ²ÐµÑĢ Ð¾ÑıÑĤ
Ġprogra moje
ĠÐ¶ Ð°Ð½
ĠÐ·Ð° Ð»
Ġgrup ÄĻ
Ñĩ ÑĮÑİ
ĠjudÄĹj imo
Ġ Îº
ÑģÑĤÐ²ÐµÐ½ Ð½ÑĭÐ¼Ð¸
ĠÐ¿Ð¾Ð´ Ð½Ð¸Ð¼Ð°
Ġdaugia bu
ĠM P
ĠÐºÐ¾ ÑįÑĦÑĦÐ¸ÑĨÐ¸
Ð½Ñĥ Ð»Ð°ÑģÑĮ
ĠÑĦÐ¾ÑĢ Ð¼
ÑĩÐµÐ½ Ð½ÑĭÐµ
ĠÐ¿ÑĢÐµÐ´Ð¾ÑģÑĤÐ°Ð² Ð»ÐµÐ½Ð¸Ñı
ÑĢÐ¾Ð¼ Ð°ÑĤ
ĠÐĶ Ð¢ÐŁ
ĠÐ³ Ð³
Ð´ÑĢÐ°Ð² ÑģÑĤÐ²ÑĥÐ¹ÑĤÐµ
ĠÐ½ÐµÐ¿ Ð»Ð¾
Ð§ Ð¡
ck Ã©
ĠÐ¼Ðµ Ð´Ð°
si os
Ñħ Ð¾Ð»
Ġfami lii
ĠF ÄĥrÄĥ
Ġco bor
ÑģÑĤ ÐºÐ°
ĠÐ»ÑİÐ±Ð¸ ÑĤ
ĠTelef onas
ĠVas lui
Ð¾Ð¿ Ð¾Ð»
Ð»Ð¾ ÑīÐ°
Ġori enta
Ġmed Å¾iÅ³
Ġcamp anie
Ġnes ÄĹk
Ġlep Å¡ie
tia ch
Ġpri trauk
Daug iau
Ġsp ori
ĠÐ·Ð°Ð½Ñı ÑĤÐ¾ÑģÑĤÐ¸
Ġreng inÄ¯
Ġmu á»ĳn
Ġsep tyn
ĠÐ¿ÑĢÐ¾ÑģÑĤÑĢÐ°Ð½ ÑģÑĤÐ²Ð¾
ĠR A
Ġak cijos
Ġl ÃŃ
Ġkalb ama
Ġm amos
iÅ¡k Å³
Ġpramo gÅ³
Ġvadov Å³
ĠÅ¡al ys
Ã¡ Äį
cu ta
ĠP si
ĠAc ces
Ġconte xt
ĠÐ¿ÑĢÐ¾ÑĤÐ¸ Ð²Ð¾
ĠadÃ¢n c
Ġeleg anti
ĠÐ´ Ð²Ð¾Ð¹
ĠD en
Ð²Ð°ÐµÐ¼ ÑĭÑħ
Ð´ Ð¾Ð½
Ġbe Å¾
ĠÐ¼ÐµÑĤ ÑĢÐ¾
ĠmÃ¢ ine
ĠÐ³ÑĢÐ° Ð´Ñĥ
Ã¢n tul
Ġaten ÈĽia
Ð·Ð° Ð¼Ð¸
ĠÐ¼Ð¾Ð´Ðµ Ð»ÐµÐ¹
ĠzÃ¡ pas
10 3
ĠlegÄĥ tura
Ð» Ð»Ñı
Ðº Ð¾ÑĤÐ¸
tivi tate
ĠÑģÐ¿Ð¾ÑĢÑĤ Ñģ
ĠÑĤÑĢÐµÐ± Ð¾Ð²Ð°Ð½Ð¸Ð¹
Ðµ ÑģÐ»Ð¸
ĠÑĤÑĢÐµÐ±Ð¾Ð²Ð°Ð½Ð¸Ñı Ð¼
ĠÑģÐ¿Ð¾ÑģÐ¾Ð± ÑģÑĤÐ²ÑĥÐµÑĤ
ĠÐ²Ð°ÑĢÐ¸Ð°Ð½ ÑĤÑĭ
ĠÐ±Ð» Ð¾ÐºÐ°
ĠÐºÐ½Ð¾Ð¿ ÐºÑĥ
o feri
ĠÑĦÐ¸ Ð»Ð¸
ĠcreÅŁte rea
ĠÐ¿ÑĢÐ¸ÑĪ Ð»Ð¾ÑģÑĮ
Ñħ Ð¾Ð·
ĠÐ¼Ñĥ Ð·Ðµ
ĠÐĺ Ð¼Ðµ
Ð²ÐµÑĢ Ñħ
ĠÐ¸Ð¼Ñĥ ÑīÐµÑģÑĤÐ²Ð°
Ġe pi
Ġgra dul
Ġmaxim Äĥ
or Äĥ
VI D
ĠH u
ĠÑĤÐµ ÑĢÐ°Ð¿Ð¸
ri al
Ġspar Äįiai
Ġzdravo t
Ġpoli tica
Ġpasi reiÅ¡k
ĠÑĪÐ¸ÑĢÐ¾Ðº Ð¸Ð¹
Ġsla b
ĠÐ¼Ð¾ ÑģÐº
tu vÄħ
Ġne ho
ĠÄ¯ tvirtin
Ðļ Ð°ÑĢ
de lio
Ġde ran
Ġfri g
Ġtra ta
Ġbibliote ka
Ġenerg ia
Ġbak teri
Ġcre ÅŁ
Ġbun uri
ĠvÃ´ bec
li f
Ġcate va
Ġmergai tÄĹ
htt p
x el
Ġz ab
Ġin Å¡
Ġorganiz uoti
ĠÐ¾ ÑĦ
Ġsk ur
ĠÐ°Ð²ÑĤÐ¾Ð¼Ð¾Ð±Ð¸ Ð»Ð¸
Ð² Ð½Ð¾Ð¹
ĠItali jos
ĠÑĥÐ´Ð¾Ð²Ð»ÐµÑĤ Ð²Ð¾ÑĢ
ĠpÃ´ vod
Ð¾ÑĤ ÑĢÑĥÐ´
Ñī ÐµÐ½Ð¸Ñİ
ĠÑĥ ÑģÑĤÑĢÐ¾
ÑĨÐ¸ Ðº
ĠI ran
ĠÐŀ Ð¼
ĠÐ¼Ð¾Ð½Ð¸ ÑĤÐ¾ÑĢ
damas is
ĠÐ¿ÑĢÐ¾Ð¿ Ð°
Ġprocuro rii
Ñģ Ð½Ð¾Ð³Ð¾
ĠÑįÐº ÑģÑĤÑĢÐ°
ĠÐ·Ð°ÐºÐ¾Ð½ ÑĩÐ¸
Ġrekomenduo jama
ĠÐºÐ¾Ð½ÐºÑĥ ÑĢÐµÐ½
ĠÐ´Ð¾Ð¿ Ð¾Ð»
ÑģÑĤÑĥ Ð¿Ð¸ÑĤÑĮ
Ġha ine
an tul
ĠÐ³ÑĢÐ° Ð¼Ð¾ÑĤ
Ġsaug oti
ÑģÐµ Ð´Ð½ÐµÐ²
Ġasmen iui
ĠD rau
Ð§ ÐµÑĢ
ĠAp ro
ĠÐĳ Ð°Ð½Ðº
Ġdec lan
ĠMari an
Ġinfor mare
Ġs fer
V id
ÐºÐ°Ð½ ÑĮ
ct ro
Ġnu teis
ĠÄ¯ gul
Ġpa chet
cri p
Ġmun ici
. /
ĠÐĴ Ð¼Ðµ
Ġ( -
p ina
Ġp sy
Ġpar o
ĠÄįempion ate
Ġgal ia
Ġkep ur
Ġdvira ÄįiÅ³
er y
Ġbau dÅ¾ia
ĠuÅ¾ mokes
hÄ¾ad om
Ġtre Äįio
Ġriz ik
Ġimag inea
us iems
Ð² ÐµÐ½Ð¸
Ġsva jo
as ti
ĠÐ¾Ð± ÐµÐ·
Ġdec Ã®t
Ġnepa g
Ð¾Ð¿ Ð»ÐµÐ½Ð¸Ñı
ky la
Ġz g
in fo
ĠÐĵ Ð°ÑĢ
Ġdis pÄĥ
ÑģÑĤÐ¾ Ð¸ÑĤ
k ame
ĠÐ¡ Ð¼Ð¾ÑĤÑĢÐµÑĤÑĮ
ĠÑĨ Ð°ÑĢ
[...]
