{
  "version": "1.0",
  "truncation": null,
  "padding": null,
  "added_tokens": [
    {
      "id": 0,
      "content": "[UNK]",
      "single_word": false,
      "lstrip": false,
      "rstrip": false,
      "normalized": false,
      "special": true
    }
  ],
  "normalizer": null,
  "pre_tokenizer": {
    "type": "Sequence",
    "pretokenizers": [
      {
        "type": "Digits",
        "individual_digits": false
      },
      {
        "type": "ByteLevel",
        "add_prefix_space": false,
        "trim_offsets": true,
        "use_regex": true
      }
    ]
  },
  "post_processor": null,
  "decoder": null,
  "model": {
    "type": "BPE",
    "dropout": null,
    "unk_token": "[UNK]",
    "continuing_subword_prefix": null,
    "end_of_word_suffix": null,
    "fuse_unk": false,
    "byte_fallback": false,
    "ignore_merges": false,
    "vocab": {
      "[UNK]": 0,
      "!": 1,
      "\"": 2,
      "#": 3,
      "$": 4,
      "%": 5,
      "&": 6,
      "'": 7,
      "(": 8,
      ")": 9,
      "*": 10,
      "+": 11,
      ",": 12,
      "-": 13,
      ".": 14,
      "/": 15,
      "0": 16,
      "1": 17,
      "2": 18,
      "3": 19,
      "4": 20,
      "5": 21,
      "6": 22,
      "7": 23,
      "8": 24,
      "9": 25,
      ":": 26,
      ";": 27,
      "<": 28,
      "=": 29,
      ">": 30,
      "?": 31,
      "@": 32,
      "A": 33,
      "B": 34,
      "C": 35,
      "D": 36,
      "E": 37,
      "F": 38,
      "G": 39,
      "H": 40,
      "I": 41,
      "J": 42,
      "K": 43,
      "L": 44,
      "M": 45,
      "N": 46,
      "O": 47,
      "P": 48,
      "Q": 49,
      "R": 50,
      "S": 51,
      "T": 52,
      "U": 53,
      "V": 54,
      "W": 55,
      "X": 56,
      "Y": 57,
      "Z": 58,
      "[": 59,
      "\\": 60,
      "]": 61,
      "^": 62,
      "_": 63,
      "`": 64,
      "a": 65,
      "b": 66,
      "c": 67,
      "d": 68,
      "e": 69,
      "f": 70,
      "g": 71,
      "h": 72,
      "i": 73,
      "j": 74,
      "k": 75,
      "l": 76,
      "m": 77,
      "n": 78,
      "o": 79,
      "p": 80,
      "q": 81,
      "r": 82,
      "s": 83,
      "t": 84,
      "u": 85,
      "v": 86,
      "w": 87,
      "x": 88,
      "y": 89,
      "z": 90,
      "{": 91,
      "|": 92,
      "}": 93,
      "~": 94,
      "¡": 95,
      "¢": 96,
      "£": 97,
      "¤": 98,
      "¥": 99,
      "¦": 100,
      "§": 101,
      "¨": 102,
      "©": 103,
      "ª": 104,
      "«": 105,
      "¬": 106,
      "®": 107,
      "¯": 108,
      "°": 109,
      "±": 110,
      "²": 111,
      "³": 112,
      "´": 113,
      "µ": 114,
      "¶": 115,
      "·": 116,
      "¸": 117,
      "¹": 118,
      "º": 119,
      "»": 120,
      "¼": 121,
      "½": 122,
      "¾": 123,
      "¿": 124,
      "Â": 125,
      "Ã": 126,
      "Ä": 127,
      "Å": 128,
      "Æ": 129,
      "Ç": 130,
      "È": 131,
      "É": 132,
      "Ê": 133,
      "Ë": 134,
      "Ì": 135,
      "Í": 136,
      "Î": 137,
      "Ï": 138,
      "Ð": 139,
      "Ñ": 140,
      "Ò": 141,
      "Ó": 142,
      "Ô": 143,
      "Õ": 144,
      "Ö": 145,
      "×": 146,
      "Ø": 147,
      "Ù": 148,
      "Ú": 149,
      "Û": 150,
      "Þ": 151,
      "à": 152,
      "á": 153,
      "â": 154,
      "ã": 155,
      "ä": 156,
      "å": 157,
      "æ": 158,
      "ç": 159,
      "è": 160,
      "é": 161,
      "ê": 162,
      "ë": 163,
      "ì": 164,
      "í": 165,
      "î": 166,
      "ï": 167,
      "ð": 168,
      "Ā": 169,
      "ā": 170,
      "Ă": 171,
      "ă": 172,
      "ą": 173,
      "Ć": 174,
      "ć": 175,
      "Ĉ": 176,
      "ĉ": 177,
      "Ċ": 178,
      "ċ": 179,
      "Č": 180,
      "ď": 181,
      "Ē": 182,
      "Ĕ": 183,
      "Ė": 184,
      "ę": 185,
      "Ĝ": 186,
      "ĝ": 187,
      "Ğ": 188,
      "ğ": 189,
      "Ġ": 190,
      "ġ": 191,
      "Ģ": 192,
      "ģ": 193,
      "Ĥ": 194,
      "ĥ": 195,
      "Ħ": 196,
      "ħ": 197,
      "Ĩ": 198,
      "ĩ": 199,
      "Ī": 200,
      "ī": 201,
      "Ĭ": 202,
      "ĭ": 203,
      "Į": 204,
      "į": 205,
      "İ": 206,
      "ı": 207,
      "Ĳ": 208,
      "ĳ": 209,
      "Ĵ": 210,
      "ĵ": 211,
      "Ķ": 212,
      "ķ": 213,
      "ĸ": 214,
      "Ĺ": 215,
      "ĺ": 216,
      "Ļ": 217,
      "ļ": 218,
      "Ľ": 219,
      "ľ": 220,
      "Ŀ": 221,
      "ŀ": 222,
      "Ł": 223,
      "ł": 224,
      "Ń": 225,
      "ĠÐ": 226,
      "Ð¾": 227,
      "Ðµ": 228,
      "Ð°": 229,
      "Ð¸": 230,
      "ÑĤ": 231,
      "Ð½": 232,
      "Ñģ": 233,
      "ÑĢ": 234,
      "Ð¾Ð": 235,
      "Ġp": 236,
      "in": 237,
      "Ġs": 238,
      "Ð»": 239,
      "Ġa": 240,
      "Ġd": 241,
      "Äĥ": 242,
      "re": 243,
      "ri": 244,
      "Ðº": 245,
      "te": 246,
      "Ñĥ": 247,
      "ai": 248,
      "Ġc": 249,
      "ti": 250,
      "Ñĭ": 251,
      "Ñı": 252,
      "as": 253,
      "ÄĹ": 254,
      "Ð¼": 255,
      "en": 256,
      "Ð²": 257,
      "Ġn": 258,
      "Ġm": 259,
      "al": 260,
      "Ġk": 261,
      "ra": 262,
      "os": 263,
      "ĠÐ¿": 264,
      "ÑĮ": 265,
      "Ġv": 266,
      "Å³": 267,
      "Å¡": 268,
      "ta": 269,
      "Ð´": 270,
      "ÑģÑĤ": 271,
      "us": 272,
      "ul": 273,
      "Ġde": 274,
      "Ġi": 275,
      "to": 276,
      "ie": 277,
      "ĠÐ²": 278,
      "Ñĩ": 279,
      "Ġl": 280,
      "an": 281,
      "ar": 282,
      "Å¾": 283,
      "ĠÑģ": 284,
      "ÐµÐ½": 285,
      "is": 286,
      "ia": 287,
      "ÑĢÐ°": 288,
      "on": 289,
      "ĠÐ½": 290,
      "Ð¾Ð²": 291,
      "ĠÐ¸": 292,
      "Ð·": 293,
      "un": 294,
      "âĢ": 295,
      "Ġb": 296,
      "le": 297,
      "or": 298,
      "ĠÃ": 299,
      "es": 300,
      "Ñħ": 301,
      "Ġt": 302,
      "Ð¿": 303,
      "im": 304,
      "ĠÐ¾": 305,
      "ro": 306,
      "ĠÃ®": 307,
      "Ð¹": 308,
      "Äħ": 309,
      "Ð±": 310,
      "Ġf": 311,
      "Ġg": 312,
      "er": 313,
      "ĠÐº": 314,
      "om": 315,
      "am": 316,
      "ĠÃ®n": 317,
      "ÑĢÐµ": 318,
      "Ð³": 319,
      "au": 320,
      "ÐµÑĤ": 321,
      "li": 322,
      "Äį": 323,
      "ĠÐ´": 324,
      "Ð½Ð¸": 325,
      "Ð¾Ð»": 326,
      "tu": 327,
      "Ä¯": 328,
      "Ġir": 329,
      "Ð½Ñĭ": 330,
      "ci": 331,
      "Ñİ": 332,
      "at": 333,
      "Ġo": 334,
      "Ð¾Ð¼": 335,
      "Ð¾ÑĢ": 336,
      "ÑĤÐµ": 337,
      "Ð¾Ð´": 338,
      "are": 339,
      "ru": 340,
      "Ġj": 341,
      "ĠâĢ": 342,
      "Å«": 343,
      "ĠÐ¼": 344,
      "Ð½Ð¾": 345,
      "ÑĪ": 346,
      "ÈĽ": 347,
      "Å£": 348,
      "Ġne": 349,
      "Ð»Ð¸": 350,
      "ĠÐ½Ð°": 351,
      "ÑĨ": 352,
      "Ġe": 353,
      "Ð¶": 354,
      "ÅŁ": 355,
      "Ð¾Ð³": 356,
      "ui": 357,
      "ÄĹs": 358,
      "ÈĻ": 359,
      "ÑĢÐ¸": 360,
      "ad": 361,
      "Ã¢": 362,
      "Ð»ÑĮ": 363,
      "Ð½Ð°": 364,
      "il": 365,
      "ÑģÐº": 366,
      "Ð»Ð°": 367,
      "ent": 368,
      "um": 369,
      "ĠP": 370,
      "Ð¾Ð¹": 371,
      "ei": 372,
      "iÅ³": 373,
      "ÑĤÑĮ": 374,
      "ÐµÐ½Ð¸": 375,
      "el": 376,
      "Ġre": 377,
      "uo": 378,
      "ÑĤÐ°": 379,
      "Ġsu": 380,
      "vo": 381,
      "ĠS": 382,
      "Ã¡": 383,
      "je": 384,
      "Ġ(": 385,
      "ĠÐ±": 386,
      "ÐµÑĢ": 387,
      "Ġpa": 388,
      "ce": 389,
      "Ġla": 390,
      "ĠA": 391,
      "io": 392,
      "ur": 393,
      "ÐºÐ°": 394,
      "Ġin": 395,
      "Ð¾ÑĤ": 396,
      "ĠÄ¯": 397,
      "ir": 398,
      "tin": 399,
      "Ñī": 400,
      "ĠÐ·": 401,
      "..": 402,
      "ch": 403,
      "ĠÑĥ": 404,
      "uri": 405,
      "Ð²Ð°": 406,
      "ov": 407,
      "ÑĦ": 408,
      "Ġpri": 409,
      "ĠT": 410,
      "ĠM": 411,
      "ÑģÑı": 412,
      "it": 413,
      "ĠÅ¡": 414,
      "á»": 415,
      "ik": 416,
      "Ġpo": 417,
      "ĠÐ½Ðµ": 418,
      "et": 419,
      "ÑĤÐ¾": 420,
      "ĠC": 421,
      "ĠD": 422,
      "de": 423,
      "ÅŁi": 424,
      "Ã¢n": 425,
      "ÐµÐ¼": 426,
      "ÑĢÐ¾": 427,
      "ÑĤÐ¸": 428,
      "ÈĻi": 429,
      "Ð»Ñı": 430,
      "Ġap": 431,
      "Ġpro": 432,
      "ok": 433,
      "ĠiÅ¡": 434,
      "ol": 435,
      "Ġcu": 436,
      "Ð¾Ð³Ð¾": 437,
      "ĠÐ³": 438,
      "ii": 439,
      "Ġsa": 440,
      "ic": 441,
      "ĠÑĩ": 442,
      "iai": 443,
      "Ġte": 444,
      "ÑĨÐ¸": 445,
      "Ġun": 446,
      "ÐºÐ¸": 447,
      "ĠÐ¿Ð¾": 448,
      "Ġti": 449,
      "ĠsÄĥ": 450,
      "Ð¾Ð±": 451,
      "Ð»Ðµ": 452,
      "ĠV": 453,
      "20": 454,
      "Ġse": 455,
      "Ġdin": 456,
      "ĠÅ¾": 457,
      "ĠÅŁi": 458,
      "ÑĢÑĥ": 459,
      "ĠÐ·Ð°": 460,
      "tÄĥ": 461,
      "ĠÑĢÐ°": 462,
      "ĠÈĻi": 463,
      "ĠâĢĵ": 464,
      "ĠB": 465,
      "ĠL": 466,
      "Ñį": 467,
      "Ġto": 468,
      "Ð¼Ð¸": 469,
      "Ġat": 470,
      "Ð´Ð°": 471,
      "Ð¾Ð½": 472,
      "Ġpas": 473,
      "si": 474,
      "ĠÑĤ": 475,
      "Ġpe": 476,
      "Ġ-": 477,
      "ÑģÑĤÐ°": 478,
      "Ġnu": 479,
      "rin": 480,
      "Ð¾Ð²Ð°": 481,
      "Ġz": 482,
      "pe": 483,
      "Ġpre": 484,
      "ko": 485,
      "ien": 486,
      "ali": 487,
      "ÄĹj": 488,
      "ÑģÑĤÐ²": 489,
      "ÄĻ": 490,
      "ĠK": 491,
      "ĠÐ°": 492,
      "ului": 493,
      "la": 494,
      "ty": 495,
      "entru": 496,
      "ĠN": 497,
      "Ġta": 498,
      "ĠR": 499,
      "ate": 500,
      "Ġcare": 501,
      "ÃŃ": 502,
      "Ð¾Ðº": 503,
      "Ð¾Ð¶": 504,
      "Ġu": 505,
      "me": 506,
      "id": 507,
      "ran": 508,
      "ja": 509,
      "ma": 510,
      "Ġau": 511,
      "ĠÑį": 512,
      "Ġar": 513,
      "od": 514,
      "ĠÐ»": 515,
      "ais": 516,
      "Å¡k": 517,
      "Ġan": 518,
      "ĠÐ¾Ð±": 519,
      "Ġpentru": 520,
      "ĠâĢŀ": 521,
      "ÑģÑĤÐ¸": 522,
      "iu": 523,
      "Ã½": 524,
      "ĠI": 525,
      "Ġac": 526,
      "ve": 527,
      "este": 528,
      "iau": 529,
      "ĠÐ¾ÑĤ": 530,
      "ne": 531,
      "ÑĩÐµ": 532,
      "Ð´Ðµ": 533,
      "cÄĥ": 534,
      "ĠcÄĥ": 535,
      "ĠÐºÐ°": 536,
      "ÈĽi": 537,
      "ĠÐŁ": 538,
      "ĠÐĴ": 539,
      "Ġsp": 540,
      "mo": 541,
      "tÅ³": 542,
      "jos": 543,
      "Ġcon": 544,
      "ed": 545,
      "áº": 546,
      "ĠÐ¿ÑĢÐ¸": 547,
      "ĠÐ¡": 548,
      "va": 549,
      "Ġce": 550,
      "ĠJ": 551,
      "tas": 552,
      "vi": 553,
      "Ð¾Ð»ÑĮ": 554,
      "rea": 555,
      "ĠE": 556,
      "ÑĩÐ¸": 557,
      "Ð²Ð¸": 558,
      "Ð¼Ð°": 559,
      "Ð¾Ñģ": 560,
      "Ġmai": 561,
      "em": 562,
      "aip": 563,
      "ki": 564,
      "âĢľ": 565,
      "ng": 566,
      "ÐµÐ½Ð¸Ñı": 567,
      "Å£i": 568,
      "ine": 569,
      "yb": 570,
      "Ġal": 571,
      "Ð½Ðµ": 572,
      "ÑĩÐ°": 573,
      "Ã©": 574,
      "ink": 575,
      "rÄĥ": 576,
      "ĠG": 577,
      "Ð·Ð°": 578,
      "Ð½ÑĭÑħ": 579,
      "Ð¾Ð·": 580,
      "ÑģÐ¸": 581,
      "Ġkad": 582,
      "aug": 583,
      "st": 584,
      "Ð½ÑĭÐµ": 585,
      "imo": 586,
      "da": 587,
      "Ġna": 588,
      "tori": 589,
      "Ġh": 590,
      "ĠÐ²Ñĭ": 591,
      "Ð´Ð¸": 592,
      "mp": 593,
      "lo": 594,
      "201": 595,
      "ÂŃ": 596,
      "tor": 597,
      "00": 598,
      "Ġdar": 599,
      "ut": 600,
      "usi": 601,
      "ky": 602,
      "Ð½Ð¾Ð¹": 603,
      "...": 604,
      "Ġper": 605,
      "az": 606,
      "ing": 607,
      "Ð¾Ð¿": 608,
      "Ġy": 609,
      "ĠÐµ": 610,
      "Ġsi": 611,
      "ĠÐļ": 612,
      "Ġvis": 613,
      "ÑĤÐµÐ»ÑĮ": 614,
      "Ãº": 615,
      "ÑģÐ¿": 616,
      "ks": 617,
      "aÅ¾": 618,
      "do": 619,
      "tis": 620,
      "ÑģÐºÐ¸": 621,
      "Ġpar": 622,
      "ĠÐ¿ÑĢÐ¾": 623,
      "tate": 624,
      "gi": 625,
      "ÑģÐµ": 626,
      "ĠuÅ¾": 627,
      "Ġeste": 628,
      "Ð½ÑĭÐ¹": 629,
      "Ð½Ð¾Ð³Ð¾": 630,
      "Ġbu": 631,
      "ĠÑĢÐµ": 632,
      "ĠÄ": 633,
      "Ġkuri": 634,
      "di": 635,
      "ka": 636,
      "oc": 637,
      "ale": 638,
      "ÄĹl": 639,
      "ĠÐ¿ÑĢ": 640,
      "ven": 641,
      "Ð³Ð¾": 642,
      "tre": 643,
      "ĠÅ": 644,
      "ÐµÐ¹": 645,
      "ÑģÑĤÑĮ": 646,
      "ÑĢÐµÐ´": 647,
      "ĠÐ¸Ð·": 648,
      "Äįi": 649,
      "ĠÂ": 650,
      "ari": 651,
      "Å¥": 652,
      "tr": 653,
      "ÑĪÐ¸": 654,
      "jo": 655,
      "Ġsk": 656,
      "ÑĥÑİ": 657,
      "Ġyra": 658,
      "ĠÑĦ": 659,
      "zi": 660,
      "ÑīÐ¸": 661,
      "ter": 662,
      "Ð³Ð°": 663,
      "du": 664,
      "Ġr": 665,
      "ost": 666,
      "ni": 667,
      "ĠÐľ": 668,
      "and": 669,
      "ap": 670,
      "19": 671,
      "aik": 672,
      "ĠÐĿ": 673,
      "mi": 674,
      "up": 675,
      "ĠÑģÑĤ": 676,
      "Ġdo": 677,
      "ÐµÐ½Ð¸Ðµ": 678,
      "sta": 679,
      "ĠbÅ«": 680,
      "tra": 681,
      "Ġ\"": 682,
      "ba": 683,
      "ose": 684,
      "ĠÐ¶": 685,
      "ĠÐ´Ð»Ñı": 686,
      "ĠÑĤÐµ": 687,
      "eri": 688,
      "Ġtik": 689,
      "Ð°Ð½": 690,
      "bi": 691,
      "ĠF": 692,
      "Ġfi": 693,
      "kl": 694,
      "jÅ³": 695,
      "ĠÑĤÐ°": 696,
      "ÑİÑĤ": 697,
      "ea": 698,
      "Ġch": 699,
      "ak": 700,
      "ĠÐ¿Ð¾Ð´": 701,
      "ys": 702,
      "âĢĿ": 703,
      "ga": 704,
      "ele": 705,
      "Ð°Ð¼": 706,
      "ĠO": 707,
      "Ġgal": 708,
      "ĠÑĩÑĤÐ¾": 709,
      "sp": 710,
      "ÑĢÑĭ": 711,
      "ĠÐŀ": 712,
      "Ġra": 713,
      "ietu": 714,
      "ĠÑĢÐ°Ð·": 715,
      "Â»": 716,
      "ÐºÐ¾": 717,
      "ÐµÑĤÑģÑı": 718,
      "lor": 719,
      "ĠÐ¼Ð°": 720,
      "Ð¼ÐµÐ½": 721,
      "ÐºÑĥ": 722,
      "Ð¡": 723,
      "ig": 724,
      "iek": 725,
      "Ġro": 726,
      "ca": 727,
      "din": 728,
      "Ġpl": 729,
      "Ð¿Ð°": 730,
      "tul": 731,
      "Ð»Ð¾": 732,
      "ĠÐĶ": 733,
      "ici": 734,
      "Ð¼Ðµ": 735,
      "ms": 736,
      "Ġca": 737,
      "ĠÐł": 738,
      "Ġno": 739,
      "ÐºÑĤ": 740,
      "ĠÐ±Ñĭ": 741,
      "Ðŀ": 742,
      "ĠÑģÐ²": 743,
      "men": 744,
      "ĠÐĲ": 745,
      "dy": 746,
      "bo": 747,
      "dÅ¾": 748,
      "Ġex": 749,
      "za": 750,
      "Ġnuo": 751,
      "ĠÑģÐ¾": 752,
      "Ð»Ñĥ": 753,
      "ÐµÑĢÐµ": 754,
      "Ġpra": 755,
      "bu": 756,
      "Ð½Ð¸Ñı": 757,
      "Ð¾Ð´Ð¸": 758,
      "area": 759,
      "imas": 760,
      "Ã¢nd": 761,
      "Ġas": 762,
      "ĠU": 763,
      "Ġpat": 764,
      "rii": 765,
      "uk": 766,
      "ÐŁ": 767,
      "Ð³Ð¸": 768,
      "min": 769,
      "rie": 770,
      "Å«s": 771,
      "Ð¶Ðµ": 772,
      "Ġsun": 773,
      "ÑģÐ°": 774,
      "ies": 775,
      "ub": 776,
      "ant": 777,
      "ÑģÑĮ": 778,
      "ÑīÐµ": 779,
      "for": 780,
      "ras": 781,
      "sk": 782,
      "Ð²Ðµ": 783,
      "ĠÂ«": 784,
      "cu": 785,
      "Ġme": 786,
      "Ġprie": 787,
      "iaus": 788,
      "Ġtre": 789,
      "tÄħ": 790,
      "ĠÐ¿Ð¾Ð»": 791,
      "atÄĥ": 792,
      "ÑĪÐµ": 793,
      "var": 794,
      "Ġvy": 795,
      "ÑĭÐµ": 796,
      "ÐĴ": 797,
      "tik": 798,
      "Ġfa": 799,
      "ĠÐĺ": 800,
      "ÑĥÑĤ": 801,
      "Ġcom": 802,
      "ĠÐ¢": 803,
      "ÄįiÅ³": 804,
      "Ð½Ð°Ñı": 805,
      "gal": 806,
      ").": 807,
      "ten": 808,
      "ĠÑħ": 809,
      "Ð¾Ð´Ð°": 810,
      "mon": 811,
      "Ð¿Ð¸": 812,
      "ina": 813,
      "op": 814,
      "Ġval": 815,
      "Ġle": 816,
      "mas": 817,
      "ÑĨÐ¸Ð¸": 818,
      "ver": 819,
      "vos": 820,
      "Å«r": 821,
      "ÑĢÐ¾Ð²": 822,
      "ani": 823,
      "Ġfost": 824,
      "Ġda": 825,
      "Ġtai": 826,
      "),": 827,
      "ÑģÑĤÐ¾": 828,
      "ĠÄĳ": 829,
      "Ð½Ñı": 830,
      "Ġsta": 831,
      "aus": 832,
      "ĠÐ¸Ð½": 833,
      "ĠÐºÐ¾ÑĤ": 834,
      "jam": 835,
      "ilor": 836,
      "og": 837,
      "Ð¸Ð·": 838,
      "Ġbuvo": 839,
      "Ġnau": 840,
      "lu": 841,
      "ÐĲ": 842,
      "Ð½Ð¾Ð²": 843,
      "Ġmok": 844,
      "Ġale": 845,
      "ĠH": 846,
      "Ġmet": 847,
      "ho": 848,
      "ÑĤÑĭ": 849,
      "na": 850,
      "vy": 851,
      "Ġgy": 852,
      "ÐºÐ¾Ð²": 853,
      "vai": 854,
      "res": 855,
      "Ġor": 856,
      "Ġsau": 857,
      "ÑĥÐ´": 858,
      "omen": 859,
      "Ãł": 860,
      "Ġkar": 861,
      "Ġvien": 862,
      "Ðļ": 863,
      "fe": 864,
      "ĠÅł": 865,
      "ĠÐ¿ÑĢÐµÐ´": 866,
      "ĠÑı": 867,
      "Ð½Ð¾Ðµ": 868,
      "10": 869,
      "ÐĿ": 870,
      "eli": 871,
      "ÄĹjo": 872,
      "pa": 873,
      "ze": 874,
      "ĠÐĳ": 875,
      "ren": 876,
      "ĠLietu": 877,
      "osi": 878,
      "Ġnes": 879,
      "Ð»ÐµÐ½": 880,
      "Ä¾": 881,
      "ÑģÐºÐ°": 882,
      "Ð½Ð¸Ðµ": 883,
      "Ġmo": 884,
      "Ġmul": 885,
      "ini": 886,
      "ĠÐ²ÑģÐµ": 887,
      "Ã´": 888,
      "Äįiau": 889,
      "Ġva": 890,
      "Ġam": 891,
      "ĠÐ´Ð¾": 892,
      "ÑĤÐ¾Ð¼": 893,
      "Ġkaip": 894,
      "Ð·Ð¸": 895,
      "ĠÐ¼Ðµ": 896,
      "bai": 897,
      "tai": 898,
      "Ġsavo": 899,
      "no": 900,
      "Ġprin": 901,
      "Ġdi": 902,
      "Ġdaug": 903,
      "Äįia": 904,
      "ĠÐºÐ°Ðº": 905,
      "Ð¶Ð¸": 906,
      "ĠÐºÐ¾ÑĤÐ¾ÑĢ": 907,
      "ge": 908,
      "ite": 909,
      "Ġmed": 910,
      "ÑĭÑħ": 911,
      "Ġmin": 912,
      "jÄħ": 913,
      "Ġob": 914,
      "tri": 915,
      "val": 916,
      "Ġve": 917,
      "dam": 918,
      "Ð½Ð¾Ð¼": 919,
      "iÅ¡k": 920,
      "İn": 921,
      "ÄĹm": 922,
      "ÑĢÐ°Ð²": 923,
      "tos": 924,
      "Ñĳ": 925,
      "Ð°ÑĢ": 926,
      "Ð¾Ðµ": 927,
      "ĠÑĤÐ°Ðº": 928,
      "ĠÐºÐ¾Ð¼": 929,
      "omis": 930,
      "ÐµÐº": 931,
      "Ġsunt": 932,
      "Ð»Ð¾Ð²": 933,
      "sti": 934,
      "Ġkon": 935,
      "vin": 936,
      "Ð½ÑĭÐ¼": 937,
      "alÄĥ": 938,
      "tan": 939,
      "ÐµÐ·": 940,
      "po": 941,
      "Å£ii": 942,
      "ĠÐ»Ð¸": 943,
      "iei": 944,
      "ÑĭÐ¹": 945,
      "une": 946,
      "Ð´Ñĥ": 947,
      "Ðĺ": 948,
      "Ð°Ð»ÑĮ": 949,
      "ĠÐ´Ðµ": 950,
      "ÈĽii": 951,
      "Ġma": 952,
      "Ġpu": 953,
      "ĠÑģÑĤÐ°": 954,
      "eik": 955,
      "ÑĤÑĥ": 956,
      "ÑĨÐµ": 957,
      "ĠÐ¼Ð¾Ð¶": 958,
      "turi": 959,
      "Ð»Ñİ": 960,
      "Ð±Ð¾": 961,
      "uro": 962,
      "Ġth": 963,
      "ÑģÑĤÐ²ÐµÐ½": 964,
      "Ġdal": 965,
      "Ġvie": 966,
      "gra": 967,
      "tat": 968,
      "gu": 969,
      "tar": 970,
      "se": 971,
      "cijos": 972,
      "yg": 973,
      "mÄħ": 974,
      "Å¾i": 975,
      "ÄĹti": 976,
      "tiv": 977,
      "Ġbet": 978,
      "ÑĢÐ¾Ð²Ð°": 979,
      "end": 980,
      "Ð½Ð¾ÑģÑĤÑĮ": 981,
      "ÄĹje": 982,
      "imÄħ": 983,
      "Ġdu": 984,
      "ÐµÐ½ÑĮ": 985,
      "ces": 986,
      "ĠÐºÐ¾Ð½": 987,
      "Ð½Ð¾ÑģÑĤÐ¸": 988,
      "ÑĢÑı": 989,
      "Ġaces": 990,
      "ÑĩÐµÑģÐºÐ¸": 991,
      "ĠÐĵ": 992,
      "Ð¸Ð½": 993,
      "ĠÑģÐ¿": 994,
      "rat": 995,
      "ÑģÑĤÐ°Ð²": 996,
      "inti": 997,
      "ÑģÑģ": 998,
      "ÑĤÐ¾ÑĢ": 999,
      "Ġreik": 1000,
      "Ġak": 1001,
      "ung": 1002,
      "inÄĹs": 1003,
      "sa": 1004,
      "Ġtur": 1005,
      "iniÅ³": 1006,
      "ÑĤÑĮÑģÑı": 1007,
      "ÄĻs": 1008,
      "Ġapie": 1009,
      "tele": 1010,
      "Ġpr": 1011,
      "Ġgali": 1012,
      "Ġad": 1013,
      "Æ°": 1014,
      "las": 1015,
      "Ð¶Ð°": 1016,
      "ima": 1017,
      "Ã½ch": 1018,
      "Ð¢": 1019,
      "ek": 1020,
      "ino": 1021,
      "ÑģÑĤÐ²Ð°": 1022,
      "azÄĥ": 1023,
      "Ðľ": 1024,
      ".,": 1025,
      "Ġje": 1026,
      "Ðł": 1027,
      "ĠÑģÐ¸": 1028,
      "Ġsc": 1029,
      "ÐºÐµ": 1030,
      "ku": 1031,
      "Ġmi": 1032,
      "Ġur": 1033,
      "ĠÐ¸Ð»Ð¸": 1034,
      "Ġaj": 1035,
      "Ġsus": 1036,
      "be": 1037,
      "Ġpad": 1038,
      "Ġpir": 1039,
      "Ð¾Ð½Ð°": 1040,
      "ÑģÐºÐ¾Ð¹": 1041,
      "iais": 1042,
      "ÐµÐ½ÑĤ": 1043,
      "ori": 1044,
      "toj": 1045,
      "Ġkom": 1046,
      "raÅ¡": 1047,
      "--": 1048,
      "200": 1049,
      "ame": 1050,
      "Å«sÅ³": 1051,
      "Ġpasi": 1052,
      "bil": 1053,
      "Ġdis": 1054,
      "Ġju": 1055,
      "tic": 1056,
      "ile": 1057,
      "ÑĢÐ°Ð½": 1058,
      "Ã¢t": 1059,
      "Ġtar": 1060,
      "ÑĥÑĢ": 1061,
      "Ð±Ð¸": 1062,
      "Ġver": 1063,
      "ĠÐ¾Ñģ": 1064,
      "âĢ¦": 1065,
      "Ġace": 1066,
      "teri": 1067,
      "ÑĦÐ¸": 1068,
      "Ð·Ñĭ": 1069,
      "Ġkai": 1070,
      "Ġbei": 1071,
      "15": 1072,
      "ÑĪÐ°": 1073,
      "ct": 1074,
      "ĠÐ²Ð¾Ð·": 1075,
      "ĠÐĹ": 1076,
      "yti": 1077,
      "Ð¾Ð³Ð¸": 1078,
      "Ð²ÐµÑĢ": 1079,
      "mul": 1080,
      "rau": 1081,
      "Ġspe": 1082,
      "itÄĥ": 1083,
      "fic": 1084,
      "Ġfor": 1085,
      "Ġso": 1086,
      "Ġnum": 1087,
      "Ġtr": 1088,
      "mÄĥ": 1089,
      "Å£Äĥ": 1090,
      "elor": 1091,
      "ĠÑįÑĤÐ¾": 1092,
      "Ġlu": 1093,
      "so": 1094,
      "Ð°Ð¹": 1095,
      "Ġloc": 1096,
      "ĠÐ²Ð°": 1097,
      "ÐĶ": 1098,
      "lio": 1099,
      "ĠÄį": 1100,
      "mb": 1101,
      "ĠÐ¾Ð¿": 1102,
      "Ã³": 1103,
      "Ð°Ðº": 1104,
      "Ġbe": 1105,
      "12": 1106,
      "ÈĻti": 1107,
      "ÅŁti": 1108,
      "ĠÐ£": 1109,
      "Ġman": 1110,
      "Ð²ÐµÑĤ": 1111,
      "Ġnep": 1112,
      "Äĥr": 1113,
      "kas": 1114,
      "Ġgyven": 1115,
      "Ġjau": 1116,
      "laus": 1117,
      "tatea": 1118,
      "Äįio": 1119,
      "nÃ©": 1120,
      "ĠÑĤÐ¾": 1121,
      "ĠâĢĶ": 1122,
      "ĠÐ½Ð¸": 1123,
      "ubli": 1124,
      "ĠÐ²Ðµ": 1125,
      "liÅ³": 1126,
      "ĠÐ²Ð¸": 1127,
      "Ġinter": 1128,
      "ÑĢÐ°Ð·": 1129,
      "Ġorg": 1130,
      "ji": 1131,
      "onal": 1132,
      "ĠÐ¿Ð¾Ñģ": 1133,
      "ÈĽÄĥ": 1134,
      "Ġturi": 1135,
      "Ðķ": 1136,
      "Ġfo": 1137,
      "Ð¾Ð»ÑĮÐºÐ¾": 1138,
      "ip": 1139,
      "mÃ¢n": 1140,
      "ĠÐ½Ð¾": 1141,
      "18": 1142,
      "Ġnor": 1143,
      "ÑĤÑģÑı": 1144,
      "tea": 1145,
      "ÑģÐ»Ð¸": 1146,
      "Ġats": 1147,
      "Ð¼Ð¾": 1148,
      "ÑģÑĤÐ²Ð¾": 1149,
      "vie": 1150,
      "Ġko": 1151,
      "Ġtaip": 1152,
      "kÅ¡": 1153,
      "yje": 1154,
      "kai": 1155,
      "ib": 1156,
      "tÄĹ": 1157,
      "ÑīÐ°": 1158,
      "dar": 1159,
      "Ð¾ÑĢÐ¸": 1160,
      "ĠÑģÐµ": 1161,
      "pl": 1162,
      "Ġkal": 1163,
      "Ġvor": 1164,
      "Ð¶Ð´": 1165,
      "Ġkit": 1166,
      "ĠÐ¶Ðµ": 1167,
      "ĠÑĨ": 1168,
      "ĠRom": 1169,
      "Ġmod": 1170,
      "co": 1171,
      "av": 1172,
      "olo": 1173,
      "zÄĥ": 1174,
      "Ð¾Ð¸": 1175,
      "Ġlui": 1176,
      "man": 1177,
      "ĠÐ¿ÐµÑĢÐµ": 1178,
      "Ð¼Ñĥ": 1179,
      "ÑħÐ¾Ð´Ð¸": 1180,
      "Ð¾Ð»Ðµ": 1181,
      "ĠLietuvos": 1182,
      "Ð±Ð¾ÑĤ": 1183,
      "ĠÐ»Ñİ": 1184,
      "tus": 1185,
      "ĠÐ´Ð°": 1186,
      "duo": 1187,
      "Ġvi": 1188,
      "mos": 1189,
      "gis": 1190,
      "ĠÑĢÑĥ": 1191,
      "gÄĥ": 1192,
      "ÐºÐ¾Ð¼": 1193,
      "Ġ|": 1194,
      "Ġele": 1195,
      "ĠÐ¿ÑĢÐµ": 1196,
      "Ġdes": 1197,
      "dÄĹ": 1198,
      "Ġimp": 1199,
      "ÑĨÐ¸Ñı": 1200,
      "ÑģÐºÐ¾Ð³Ð¾": 1201,
      "inio": 1202,
      "eni": 1203,
      "Ġcre": 1204,
      "Ð»ÐµÐ½Ð¸Ñı": 1205,
      "Ð½ÑĥÑİ": 1206,
      "tel": 1207,
      "ime": 1208,
      "ÐµÑĤÐµ": 1209,
      "Ð°Ð»": 1210,
      "ĠÅ¡i": 1211,
      "Ġdid": 1212,
      "30": 1213,
      "ris": 1214,
      "Ġori": 1215,
      "aun": 1216,
      "ĠIn": 1217,
      "inis": 1218,
      "ĠDe": 1219,
      "Ġfie": 1220,
      "Ð¾Ð»ÑĮÐ·": 1221,
      "upÄĥ": 1222,
      "cep": 1223,
      "ind": 1224,
      "ĠÐĽ": 1225,
      "ĠfÄĥ": 1226,
      "Ġinfor": 1227,
      "Ð»ÐµÐ¹": 1228,
      "ĠÃİn": 1229,
      "Ġru": 1230,
      "ane": 1231,
      "Ġauto": 1232,
      "Ð¾Ñĩ": 1233,
      "ene": 1234,
      "Ð½Ñĥ": 1235,
      "ĠÅ¡al": 1236,
      "Ġlai": 1237,
      "iste": 1238,
      "ama": 1239,
      "asi": 1240,
      "ĀĀ": 1241,
      "ĠÐ±ÑĥÐ´": 1242,
      "mÅ³": 1243,
      "ĠdÄĹl": 1244,
      "oje": 1245,
      "Ġtra": 1246,
      "ams": 1247,
      "inink": 1248,
      "Ġkok": 1249,
      "icÄĥ": 1250,
      "tro": 1251,
      "Ð±Ðµ": 1252,
      "ÑĤÐ¸Ð²": 1253,
      "Ġpag": 1254,
      "ny": 1255,
      "arÄĥ": 1256,
      "kite": 1257,
      "cial": 1258,
      "Ð¾ÐºÐ°": 1259,
      "Ġlabai": 1260,
      "Ġod": 1261,
      "cul": 1262,
      "ÑĨÐ°": 1263,
      "Ð¾Ð»Ð¸": 1264,
      "vir": 1265,
      "Ġdien": 1266,
      "inÄĹ": 1267,
      "ÑıÑĤ": 1268,
      "ÈĽie": 1269,
      "Ġcum": 1270,
      "Ġes": 1271,
      "Ã®": 1272,
      "cut": 1273,
      "ab": 1274,
      "Å£a": 1275,
      "ĠÐķ": 1276,
      "ÅŁte": 1277,
      "Ġ,": 1278,
      "ĠÑģÐ°Ð¼": 1279,
      "ana": 1280,
      "ÑĢÐµÐ¼": 1281,
      "joje": 1282,
      "pi": 1283,
      "Ġpoli": 1284,
      "dus": 1285,
      "Ð¾Ð´Ñĥ": 1286,
      "âĢľ,": 1287,
      "cija": 1288,
      "Ġorgani": 1289,
      "ÈĻte": 1290,
      "ĠÐ¤": 1291,
      "Å¾ia": 1292,
      "Ġsup": 1293,
      "ĠÐ¼Ð¸": 1294,
      "11": 1295,
      "ĠmaÅ¾": 1296,
      "ĠjÅ³": 1297,
      "Ġjo": 1298,
      "Ġco": 1299,
      "ÑĬ": 1300,
      "mu": 1301,
      "Ġ/": 1302,
      "ĠÐĿÐ°": 1303,
      "ala": 1304,
      "arte": 1305,
      "Ð»ÐµÐ´": 1306,
      "Ġkur": 1307,
      "ĠAn": 1308,
      "Ġcel": 1309,
      "tyb": 1310,
      "Ġvo": 1311,
      "Ġiki": 1312,
      "ÑĦÐ¾ÑĢ": 1313,
      "ĠÐ´ÑĢÑĥ": 1314,
      "ke": 1315,
      "Ġkas": 1316,
      "ties": 1317,
      "den": 1318,
      "ĠÑĪ": 1319,
      "Ġvad": 1320,
      "bili": 1321,
      "ĠÐµÐ³Ð¾": 1322,
      "Ġaf": 1323,
      "tru": 1324,
      "Ġdec": 1325,
      "chi": 1326,
      "Ġki": 1327,
      "ÑĥÑĩ": 1328,
      "ĠrÄĥ": 1329,
      "Ġarba": 1330,
      "ÑģÑĤÐ²Ð¸": 1331,
      "ara": 1332,
      "aul": 1333,
      "Å£ia": 1334,
      "ĠÑĩÐ°": 1335,
      "Äįius": 1336,
      "tare": 1337,
      "Ġnh": 1338,
      "Ġani": 1339,
      "Ð½Ð¸Ð¼Ð°": 1340,
      "uni": 1341,
      "ÑİÑīÐ¸": 1342,
      "Ġvei": 1343,
      "ĠÐ¸ÑģÐ¿": 1344,
      "dom": 1345,
      "ĠÅ¾mon": 1346,
      "Ġof": 1347,
      "ĠÐ°Ð²": 1348,
      "Æ°á»": 1349,
      "ĠÑģÑĥ": 1350,
      "ova": 1351,
      "Ð¼ÐµÑĢ": 1352,
      "14": 1353,
      "ĠÐ¾Ð½": 1354,
      "esti": 1355,
      "Ġiar": 1356,
      "Ġbend": 1357,
      "Ð¼Ñĭ": 1358,
      "ang": 1359,
      "Ð¾Ð±Ñĭ": 1360,
      "Ġvar": 1361,
      "ÈĽia": 1362,
      "Å£ie": 1363,
      "Ġtran": 1364,
      "mai": 1365,
      "jek": 1366,
      "ĠÐŃ": 1367,
      "Ġil": 1368,
      "ÑİÑĤÑģÑı": 1369,
      "ĠÐ´Ð¸": 1370,
      "Ġpal": 1371,
      "ÐµÐ½Ð¸Ð¸": 1372,
      "Ð½Ð¸Ð¸": 1373,
      "2018": 1374,
      "Ġlaik": 1375,
      "ÑģÐºÐ°Ñı": 1376,
      "vel": 1377,
      "ybÄĹs": 1378,
      "ĠZ": 1379,
      "rio": 1380,
      "rup": 1381,
      "Ġmu": 1382,
      "50": 1383,
      "ly": 1384,
      "16": 1385,
      "Ġgra": 1386,
      "nh": 1387,
      "vÄĹ": 1388,
      "ju": 1389,
      "Ġsuk": 1390,
      "rai": 1391,
      "Ð½ÑĭÐ¼Ð¸": 1392,
      "ĠÐ¾Ð´": 1393,
      "ÈĽa": 1394,
      "âĢŀ": 1395,
      "ÑħÐ¾Ð´": 1396,
      "ÑĤÐµÑĢ": 1397,
      "teik": 1398,
      "Ġvaik": 1399,
      "ĠÑĢ": 1400,
      "nos": 1401,
      "ĠbÅ«ti": 1402,
      "Ġktor": 1403,
      "Ð±Ð°": 1404,
      "ĠRe": 1405,
      "Ġteis": 1406,
      "ÐµÐ´": 1407,
      "ĠCon": 1408,
      "ĠmetÅ³": 1409,
      "ĠâĢľ": 1410,
      "Ġparti": 1411,
      "Ġdarb": 1412,
      "ÄĹg": 1413,
      "ÑģÑĭ": 1414,
      "Ġrez": 1415,
      "ĠÐ¿Ð¾Ð¼": 1416,
      "ada": 1417,
      "ĠpÄĥ": 1418,
      "Ġcele": 1419,
      "ĠÑįÑĤ": 1420,
      "Ðĳ": 1421,
      "one": 1422,
      "ĠNe": 1423,
      "Ġpap": 1424,
      "kov": 1425,
      "ĠSe": 1426,
      "ÑģÑĤÐ¾Ñı": 1427,
      "aliz": 1428,
      "Ġmoky": 1429,
      "ĠEuro": 1430,
      "ĠmÄĥ": 1431,
      "kos": 1432,
      "mis": 1433,
      "Ġsub": 1434,
      "ĠW": 1435,
      "sÄĥ": 1436,
      "Ġri": 1437,
      "lÄĥ": 1438,
      "erg": 1439,
      "ĠRomÃ¢n": 1440,
      "por": 1441,
      "ĠÐ±Ð¾Ð»ÑĮ": 1442,
      "ĠÐ¿Ð°": 1443,
      "Ġprof": 1444,
      "Ġtimp": 1445,
      "vÄĥ": 1446,
      "ÐºÐ°Ð·Ð°": 1447,
      "ÑģÐºÐ¸Ð¹": 1448,
      "aid": 1449,
      "ÑĥÐ¶": 1450,
      "tal": 1451,
      "ĠÐ¿Ðµ": 1452,
      "Ġluc": 1453,
      "áº¡": 1454,
      "ĠÐ·Ð½Ð°": 1455,
      "ĠÅ½": 1456,
      "inan": 1457,
      "iln": 1458,
      "Ġpoate": 1459,
      "tur": 1460,
      "kti": 1461,
      "nÄĥ": 1462,
      "Ð¾ÑĢÐ¾": 1463,
      "tov": 1464,
      "ÐºÐ¾Ð½": 1465,
      "eng": 1466,
      "ona": 1467,
      "ĠÐ±ÐµÐ·": 1468,
      "Ġkiek": 1469,
      "Ð£": 1470,
      "Å«n": 1471,
      "Ġnei": 1472,
      "13": 1473,
      "áº¿": 1474,
      "Ġtu": 1475,
      "Ġsti": 1476,
      "Ġkeli": 1477,
      "jÃº": 1478,
      "ry": 1479,
      "Ġnus": 1480,
      "veik": 1481,
      "Ġprez": 1482,
      "Ġdaly": 1483,
      "Ġinforma": 1484,
      "toare": 1485,
      "Ġpagal": 1486,
      "ÑĤÐµÑĢÐ¸": 1487,
      "ÑģÑģÐ¸": 1488,
      "ĠÐ¿ÐµÑĢ": 1489,
      "ĠdupÄĥ": 1490,
      "urile": 1491,
      "Ġgre": 1492,
      "ÐµÑģÐ¿": 1493,
      "ag": 1494,
      "ÐµÑĢÐ°": 1495,
      "ĠÐºÑĥ": 1496,
      "ÐµÑĤÐ°": 1497,
      "Åł": 1498,
      "Ð¾Ð³Ð´Ð°": 1499,
      "17": 1500,
      "Ġpus": 1501,
      "Ġmetu": 1502,
      "iá»": 1503,
      "Ð½Ð¸ÐºÐ°": 1504,
      "ÑģÑĤÑĥ": 1505,
      "ĠsÄħ": 1506,
      "ting": 1507,
      "Ð¼Ð¾Ð¶": 1508,
      "Ã¢r": 1509,
      "ĠÐ§": 1510,
      "Ġke": 1511,
      "ami": 1512,
      "esn": 1513,
      "tuo": 1514,
      "ĠÐ¸Ð³": 1515,
      "Ġaps": 1516,
      "Ġsen": 1517,
      "ÑĤÐ¾Ð²": 1518,
      "ÄĹmis": 1519,
      "ÐµÐ²": 1520,
      "Ġfun": 1521,
      "rul": 1522,
      "pre": 1523,
      "uose": 1524,
      "ĠÐ²Ð¾": 1525,
      "ius": 1526,
      "Ġacest": 1527,
      "ÑĢÐ°Ð²Ð¸": 1528,
      "Ġsusi": 1529,
      "imÅ³": 1530,
      "Ġaceas": 1531,
      "uoti": 1532,
      "ĠÑģÐ»Ñĥ": 1533,
      "Ðĵ": 1534,
      "iniai": 1535,
      "rile": 1536,
      "Ġare": 1537,
      "ĠÐ²ÑĢÐµÐ¼": 1538,
      "tie": 1539,
      "ÐµÐ½Ð¸Ð¹": 1540,
      "ac": 1541,
      "Ġsiste": 1542,
      "iems": 1543,
      "ĠÑĩÐµ": 1544,
      "ĠÐ´Ð¾Ð»": 1545,
      "uÄĥ": 1546,
      "ĠÃ®ntre": 1547,
      "ono": 1548,
      "Ġger": 1549,
      "ĠÐ¿Ð»Ð°": 1550,
      "care": 1551,
      "Ġis": 1552,
      "nÃ½": 1553,
      "he": 1554,
      "rÃ¡": 1555,
      "Ġab": 1556,
      "Ġ...": 1557,
      "Äįiai": 1558,
      "Ġave": 1559,
      "ĠÐ³Ð¾ÑĢ": 1560,
      "ment": 1561,
      "torul": 1562,
      "Ġsim": 1563,
      "Ġnaudo": 1564,
      "Ġtiek": 1565,
      "inÄĥ": 1566,
      "ÑĢÐ¾Ð¼": 1567,
      "unÄĥ": 1568,
      "100": 1569,
      "ĠÐĹÐ°": 1570,
      "ÐºÐ¾Ð¹": 1571,
      "ÐµÑĤÐ¸": 1572,
      "ÐĽ": 1573,
      "Ġpak": 1574,
      "ÐĹ": 1575,
      "Ġel": 1576,
      "ome": 1577,
      "auk": 1578,
      "stitu": 1579,
      "ĠcÃ¢nd": 1580,
      "Ġbal": 1581,
      "Ġdesp": 1582,
      "Ġcomp": 1583,
      "Ð¼Ð¾ÑĤ": 1584,
      "Ġbus": 1585,
      "ase": 1586,
      "vimo": 1587,
      "ud": 1588,
      "ÑģÑĤÑĢÐ°": 1589,
      "Ġcop": 1590,
      "Ð¾ÑģÑģÐ¸": 1591,
      "ĠÑĤÐ¾Ð»ÑĮÐºÐ¾": 1592,
      "Ġjis": 1593,
      "ĠPo": 1594,
      "ÄĹn": 1595,
      "ĠÐ¼Ð¾Ð¶Ð½Ð¾": 1596,
      "Ð¾Ð»ÑĮÐ·Ð¾Ð²Ð°": 1597,
      "ĠÐ¿Ð¸": 1598,
      "ble": 1599,
      "Ð½Ð¸Ð¹": 1600,
      "oma": 1601,
      "Ð²Ð»Ñı": 1602,
      "cat": 1603,
      "ovan": 1604,
      "\",": 1605,
      "Å¾io": 1606,
      "ĠÐ½Ð¾Ð²": 1607,
      "Ġmult": 1608,
      "ĠÐ¼Ñĭ": 1609,
      "25": 1610,
      "Ġgam": 1611,
      "go": 1612,
      "Ġnam": 1613,
      "Ġprogra": 1614,
      "van": 1615,
      "eÅ¡": 1616,
      "Ġci": 1617,
      "Ð¿ÑĢÐ°Ð²": 1618,
      "rep": 1619,
      "ria": 1620,
      "vas": 1621,
      "Ð²Ñĭ": 1622,
      "Ġnet": 1623,
      "Ġvir": 1624,
      "umo": 1625,
      "Ð»ÐµÐ¼": 1626,
      "Ġjos": 1627,
      "Ãª": 1628,
      "Ã¢nÄĥ": 1629,
      "ain": 1630,
      "Ġskir": 1631,
      "âĢĿ,": 1632,
      "ĠAr": 1633,
      "Å«ros": 1634,
      "Ġtok": 1635,
      "ĠÐ¸Ñħ": 1636,
      "ĠÑĢÐ°Ð±Ð¾ÑĤ": 1637,
      "áº£": 1638,
      "sn": 1639,
      "Ġface": 1640,
      "Ġmar": 1641,
      "oni": 1642,
      "ÄĹtÅ³": 1643,
      "viÅ³": 1644,
      "Ã¡c": 1645,
      "Ð»ÐµÐ½Ð¸Ðµ": 1646,
      "Ãİn": 1647,
      "hi": 1648,
      "Ð²Ð¾": 1649,
      "ÑĩÐ½Ð¾": 1650,
      "ĠÑģÐ¾Ð²": 1651,
      "trÄĥ": 1652,
      "ÑĤÐµÐ»Ñı": 1653,
      "Ð½Ð¸Ðº": 1654,
      "Ġpla": 1655,
      "Ð½ÐµÐ¹": 1656,
      "jas": 1657,
      "ÑħÐ°": 1658,
      "ĠÃ®nt": 1659,
      "Ġvai": 1660,
      "ĠvÄĥ": 1661,
      "Ġtarp": 1662,
      "ĠmÅ«sÅ³": 1663,
      "Ġza": 1664,
      "Ð»ÑģÑı": 1665,
      "Ġrin": 1666,
      "ĠÐ»Ðµ": 1667,
      "Å«k": 1668,
      "Ġpor": 1669,
      "ĠÑĦÐ¸": 1670,
      "urs": 1671,
      "ĠÑģÐ¾Ð±": 1672,
      "Ġtri": 1673,
      "Ġpubli": 1674,
      "esc": 1675,
      "ĠÐ¾Ð±Ð»Ð°": 1676,
      "amen": 1677,
      "Ġtink": 1678,
      "ĠnÄĹ": 1679,
      "Ġlei": 1680,
      "Ġcent": 1681,
      "Ġdespre": 1682,
      "ÑģÑĥ": 1683,
      "ĠÃ®mp": 1684,
      "Ð»Ð¾Ð¶": 1685,
      "ĠÃ®ntr": 1686,
      "ĠnÃ¡": 1687,
      "ĠpaÅ¾": 1688,
      "Ð¿Ñĥ": 1689,
      "ou": 1690,
      "Ġjei": 1691,
      "ĠcÃ¢": 1692,
      "ĠdacÄĥ": 1693,
      "ĠÐ¿Ð¾Ð²": 1694,
      "ĠtaÄįiau": 1695,
      "fi": 1696,
      "Ð¾Ð³ÑĢÐ°": 1697,
      "ord": 1698,
      "Ġant": 1699,
      "Ġaceste": 1700,
      "Ð»ÐµÐºÑĤ": 1701,
      "ÑĤÐµÐ»ÑĮÐ½Ð¾": 1702,
      "Ġran": 1703,
      "ĠÑĢÐ°Ð±Ð¾": 1704,
      "Ġgalima": 1705,
      "ĠprieÅ¡": 1706,
      "cii": 1707,
      "ĠÐ¾ÑĢ": 1708,
      "peri": 1709,
      "ĠTai": 1710,
      "ÅĪ": 1711,
      "Ġdintre": 1712,
      "tarea": 1713,
      "Ġdaugiau": 1714,
      "Ġop": 1715,
      "ĠÐ¿ÑĢÐ¾Ð²": 1716,
      "ÑģÐ¾Ð²": 1717,
      "jan": 1718,
      "Ġten": 1719,
      "uje": 1720,
      "Ð²Ð°ÑĤÑĮ": 1721,
      "ÑĥÐ±": 1722,
      "Ð¾Ð´Ðµ": 1723,
      "Ð°Ð·": 1724,
      "ĠÐ¶Ð¸": 1725,
      "ĠÐłÐ¾ÑģÑģÐ¸": 1726,
      "Ð¾ÑĤÐ¸": 1727,
      "voje": 1728,
      "á»Ļ": 1729,
      "24": 1730,
      "gus": 1731,
      "oms": 1732,
      "Ð·Ð½Ð°": 1733,
      "ÐµÐ½Ð°": 1734,
      "Ġnici": 1735,
      "styb": 1736,
      "ĠÐ¿ÑĢÐ¾Ð¸Ð·": 1737,
      "buie": 1738,
      "Ġge": 1739,
      "ybos": 1740,
      "194": 1741,
      "Ð»Ð¾Ñģ": 1742,
      "Ð¾Ð¼Ñĥ": 1743,
      "ĠÑĥÑģ": 1744,
      "pera": 1745,
      "asÄĥ": 1746,
      "tys": 1747,
      "vien": 1748,
      "Ð²Ñĥ": 1749,
      "Ð³Ñĥ": 1750,
      "Ð»Ñĭ": 1751,
      "rec": 1752,
      "Ð¾ÑĤÐ¾Ð²": 1753,
      "Ġinte": 1754,
      "ÐºÑĢÐ°": 1755,
      "pos": 1756,
      "gy": 1757,
      "imai": 1758,
      "Ġstu": 1759,
      "Ġmies": 1760,
      "Ð´Ð¾": 1761,
      "utin": 1762,
      "Ð¾Ð»ÐµÐµ": 1763,
      "Ġasmen": 1764,
      "mus": 1765,
      "stru": 1766,
      "ĠÅ¾e": 1767,
      "Ã£": 1768,
      "tÄ¯": 1769,
      "ĠÐ¿Ð¾ÑĢ": 1770,
      "Ġfil": 1771,
      "liai": 1772,
      "ĠNa": 1773,
      "ĠsÃº": 1774,
      "ĠÐ¿Ð¾Ð»Ñĥ": 1775,
      "Ð¾Ð»Ð¾Ð³Ð¸": 1776,
      "Ġtot": 1777,
      "Ġreg": 1778,
      "ener": 1779,
      "Ð²Ð¾Ð´": 1780,
      "Ġvid": 1781,
      "Ġ[": 1782,
      "ĠÐ¿Ð¾ÑĤ": 1783,
      "Ġmen": 1784,
      "Ġpam": 1785,
      "ÑĨÐ¸Ð¾Ð½": 1786,
      "Ġtoate": 1787,
      "ĠÑģÑĤÑĢÐ°": 1788,
      "Ð¿Ð¾Ð»": 1789,
      "ier": 1790,
      "oare": 1791,
      "tÄĹs": 1792,
      "dos": 1793,
      "ste": 1794,
      "ÑĤÐ¾Ð±Ñĭ": 1795,
      "das": 1796,
      "stan": 1797,
      "000": 1798,
      "ank": 1799,
      "Ġfoarte": 1800,
      "Ð´Ð¸Ð½": 1801,
      "ĠÃ®nc": 1802,
      "vÄĹs": 1803,
      "ob": 1804,
      "ĠÐ¼Ð¾Ð¶ÐµÑĤ": 1805,
      "com": 1806,
      "esi": 1807,
      "Ġmare": 1808,
      "Ġpers": 1809,
      "nej": 1810,
      "ĠBu": 1811,
      "Ġmes": 1812,
      "Ð¿ÑĢÐ¸": 1813,
      "áº¥": 1814,
      "ĠÐ¿Ð¾Ð·": 1815,
      "Ġapro": 1816,
      "Å¾e": 1817,
      "âĢĵ": 1818,
      "ascÄĥ": 1819,
      "urÄĥ": 1820,
      "Ġsvar": 1821,
      "Ġpare": 1822,
      "imus": 1823,
      "gos": 1824,
      "Ġpos": 1825,
      "Ð±Ð¾ÑĢ": 1826,
      "kÄħ": 1827,
      "riÅ³": 1828,
      "ĠÑģÐ°Ð¹": 1829,
      "ĠÃº": 1830,
      "fel": 1831,
      "ĠPro": 1832,
      "Ã®n": 1833,
      "Ð´Ñĭ": 1834,
      "Ġsum": 1835,
      "mbrie": 1836,
      "mok": 1837,
      "Ð±Ñĭ": 1838,
      "Ġ:": 1839,
      "ĠÑĦÐ¾ÑĢ": 1840,
      "elis": 1841,
      "gin": 1842,
      "Ġprodu": 1843,
      "Ġei": 1844,
      "Ġni": 1845,
      "Ġchi": 1846,
      "Ġatsi": 1847,
      "Ġli": 1848,
      "ÑģÑĤÑĢ": 1849,
      "2017": 1850,
      "ĠÐ¾ÑĢÐ³Ð°": 1851,
      "Ð¾ÐºÑĥ": 1852,
      "Ġkurie": 1853,
      "Ġvia": 1854,
      "Ġprek": 1855,
      "Ġgrup": 1856,
      "Ġdep": 1857,
      "Ġspal": 1858,
      "ĠÄ¯vai": 1859,
      "ÑĩÐµÐ½ÑĮ": 1860,
      "tive": 1861,
      "ï¿": 1862,
      "âĢľ.": 1863,
      "ĠvÃ½": 1864,
      "Ġunui": 1865,
      "ï¿½": 1866,
      "nÃ¡": 1867,
      "ĠÐºÑĢÐ°": 1868,
      "Ġties": 1869,
      "Ġav": 1870,
      "erÄĥ": 1871,
      "Ð¾ÑĢÐ°": 1872,
      "Ð»ÐµÐº": 1873,
      "ums": 1874,
      "Ġph": 1875,
      "Ġâ": 1876,
      "ÐµÐ½Ð¸Ñİ": 1877,
      "Ġpot": 1878,
      "Ġnoi": 1879,
      "bar": 1880,
      "Ġho": 1881,
      "Ġw": 1882,
      "Ġdir": 1883,
      "Ð¾Ð±Ð¸": 1884,
      "ĠzÃ¡": 1885,
      "kyti": 1886,
      "Ġai": 1887,
      "amas": 1888,
      "ĠÐ³Ð¾Ð´Ð°": 1889,
      "ĠÑįÑĤÐ¾Ð¼": 1890,
      "ÑĢÐµÐ½": 1891,
      "ÑģÑĤÐ°Ð½Ð¾Ð²": 1892,
      "kon": 1893,
      "Ġdoar": 1894,
      "cijÄħ": 1895,
      "ĠÐ¥": 1896,
      "osios": 1897,
      "ĠÑĤÐ°ÐºÐ¶Ðµ": 1898,
      "Ġskai": 1899,
      "cip": 1900,
      "Ġsal": 1901,
      "ĠÐ±ÑĥÐ´ÐµÑĤ": 1902,
      "ĠÐ²ÑĢÐµÐ¼Ñı": 1903,
      "ute": 1904,
      "che": 1905,
      "yd": 1906,
      "olog": 1907,
      "ĠÐ¼ÐµÐ½": 1908,
      "bÄĥ": 1909,
      "Ġtele": 1910,
      "Ġlum": 1911,
      "Ð¤": 1912,
      "tului": 1913,
      "Ġmulte": 1914,
      "\".": 1915,
      "Ġcm": 1916,
      "Ġproble": 1917,
      "ĠPar": 1918,
      "ÑĤÐµÐ»ÐµÐ¹": 1919,
      "dien": 1920,
      "dÅ¾ia": 1921,
      "Ð»Ð¸ÑģÑĮ": 1922,
      "iec": 1923,
      "Ġkomp": 1924,
      "Ġ.": 1925,
      "dic": 1926,
      "kÅ³": 1927,
      "tais": 1928,
      "ĠÐ¾Ð±ÑĬ": 1929,
      "chn": 1930,
      "ĠÅ¾mo": 1931,
      "Ġtrebuie": 1932,
      "iausiai": 1933,
      "Ã¡l": 1934,
      "Ð¸Ñģ": 1935,
      "Ð°Ð»Ð¸": 1936,
      "rac": 1937,
      "yn": 1938,
      "Ð³ÑĢÐ°": 1939,
      "ĠAl": 1940,
      "tui": 1941,
      "sl": 1942,
      "ĠdaÅ¾": 1943,
      "pec": 1944,
      "Ġkh": 1945,
      "Ġprop": 1946,
      "dÅ¾i": 1947,
      "ruo": 1948,
      "ÑĢÐ°Ðº": 1949,
      "fec": 1950,
      "ÐºÐ»Ñİ": 1951,
      "ĠÐ¯": 1952,
      "ÐµÐ¼Ñĥ": 1953,
      "imi": 1954,
      "á»ĳ": 1955,
      "vid": 1956,
      "Ġduomen": 1957,
      "Ġpati": 1958,
      "Ġbine": 1959,
      "ĠÑĢÐ°Ñģ": 1960,
      "Ġser": 1961,
      "Ð¾Ð²Ð°Ð½Ð¸Ñı": 1962,
      "Å£ion": 1963,
      "ÑĨÐ¸Ð°Ð»ÑĮ": 1964,
      "ÐµÐ½Ñĭ": 1965,
      "tojÅ³": 1966,
      "ĠÐºÐ¾ÑĤÐ¾ÑĢÑĭÐµ": 1967,
      "tyti": 1968,
      "dami": 1969,
      "Ġpasaul": 1970,
      "ĠX": 1971,
      "Ġby": 1972,
      "II": 1973,
      "Ġreikia": 1974,
      "23": 1975,
      "Ġdrau": 1976,
      "ĠVis": 1977,
      "Ġako": 1978,
      "ĠaukÅ¡": 1979,
      "ÑĤÐ¸Ñı": 1980,
      "Ð·ÑĭÐ²Ð°": 1981,
      "isti": 1982,
      "ĠÐ´Ð°Ð½": 1983,
      "ĠnÄĹra": 1984,
      "ĠÂ»": 1985,
      "con": 1986,
      "cum": 1987,
      "ÑĢÐµÐ±": 1988,
      "2016": 1989,
      "ĠÐŁÑĢÐ¸": 1990,
      "ĠÐºÐ¾ÑĢ": 1991,
      "tinÄĹs": 1992,
      "nÃŃ": 1993,
      "Ġreikal": 1994,
      "mat": 1995,
      "tina": 1996,
      "ÑĥÑģ": 1997,
      "ÑģÑĤÐµ": 1998,
      "ĠÐµÑģÐ»Ð¸": 1999,
      "Ġati": 2000,
      "Ġvalstyb": 2001,
      "ÑĦÐ¾ÑĢÐ¼Ð°": 2002,
      "Ġistori": 2003,
      "ĠÐ°Ðº": 2004,
      "Ġpen": 2005,
      "ĠÄ¯si": 2006,
      "Ġul": 2007,
      "Ġfe": 2008,
      "ÑĮÑİ": 2009,
      "ÈĽion": 2010,
      "Ġcaz": 2011,
      "tari": 2012,
      "Ġplan": 2013,
      "Ġvre": 2014,
      "Ġng": 2015,
      "Ã©ho": 2016,
      "ÐºÑĢÑĭ": 2017,
      "minis": 2018,
      "ÐµÐºÑĤ": 2019,
      "ĠprÃŃ": 2020,
      "anti": 2021,
      "Ġjie": 2022,
      "klaus": 2023,
      "Ġkalb": 2024,
      "unea": 2025,
      "Ġfol": 2026,
      "ĠÑĥÑĩÐ°": 2027,
      "Ð»Ð°Ð²": 2028,
      "iame": 2029,
      "ÑĨÑĭ": 2030,
      "ilie": 2031,
      "Ġpop": 2032,
      "ĠÑĤÐµÑħ": 2033,
      "sul": 2034,
      "40": 2035,
      "ĠÐĴÑĭ": 2036,
      "ĠÐ²Ñģ": 2037,
      "22": 2038,
      "ĠÐ¸Ð¼Ðµ": 2039,
      "ĀĀĀĀ": 2040,
      "ĠromÃ¢n": 2041,
      "ĠÅ¡v": 2042,
      "ĠÐ»ÑİÐ±": 2043,
      "Ġvede": 2044,
      "ĠÑĩÑĤÐ¾Ð±Ñĭ": 2045,
      "inÄ¯": 2046,
      "ĠpÃ¢nÄĥ": 2047,
      "kus": 2048,
      "Ð»Ð¾ÑģÑĮ": 2049,
      "lat": 2050,
      "Ġry": 2051,
      "riaus": 2052,
      "Ġkam": 2053,
      "ĠRomÃ¢nia": 2054,
      "ÑĢÐ¾Ðº": 2055,
      "lov": 2056,
      "ente": 2057,
      "Ġpod": 2058,
      "unci": 2059,
      "Ġty": 2060,
      "Ð¾Ð¼Ð¸": 2061,
      "Ð´Ð°ÑĢ": 2062,
      "Ð´ÐµÑĢ": 2063,
      "Ġdez": 2064,
      "ĠTe": 2065,
      "Ġsto": 2066,
      "ÑıÐ·Ð°": 2067,
      "Ð´ÐµÐ»Ð°": 2068,
      "Ð³Ð¾Ð²": 2069,
      "lan": 2070,
      "iam": 2071,
      "Å¡kai": 2072,
      "ÑģÑĤÐ°Ð²Ð»Ñı": 2073,
      "Ġnie": 2074,
      "Ð»Ð¸Ñĩ": 2075,
      "ĠÐºÐ¾Ð¼Ð¿": 2076,
      "ult": 2077,
      "ĠÐ¿Ð¾Ð¿": 2078,
      "ÑĨÐ¸Ñİ": 2079,
      "dÄĹl": 2080,
      "ĠbÅ«tÅ³": 2081,
      "Ġpov": 2082,
      "Ġprojek": 2083,
      "umne": 2084,
      "ĠÑĥÐ¶Ðµ": 2085,
      "ton": 2086,
      "Ġter": 2087,
      "ÑĥÐ»ÑĮ": 2088,
      "fici": 2089,
      "lai": 2090,
      "Ð°Ñģ": 2091,
      "Å¾in": 2092,
      "duce": 2093,
      "ĠTa": 2094,
      "ÐµÐ½Ð¸ÐµÐ¼": 2095,
      "Ġperso": 2096,
      "Ġste": 2097,
      "----": 2098,
      "gÅ³": 2099,
      "Ġlor": 2100,
      "Ġfinan": 2101,
      "ĠÃ®ntÃ¢": 2102,
      "ÐºÐ»Ð°": 2103,
      "Ġcei": 2104,
      "Ġcad": 2105,
      "AS": 2106,
      "ĠrÅ«": 2107,
      "ĠmÄĹn": 2108,
      "ĠÑģÐ²Ð¾Ð¸": 2109,
      "ĠiÅ¡s": 2110,
      "damas": 2111,
      "Äįiu": 2112,
      "auti": 2113,
      "edin": 2114,
      "ej": 2115,
      "ĠÐ²Ð¾Ð·Ð¼Ð¾Ð¶": 2116,
      "ĠSu": 2117,
      "ÐºÐ°Ð·": 2118,
      "ĠPre": 2119,
      "enta": 2120,
      "Ġlietu": 2121,
      "ĠÑıÐ²Ð»Ñı": 2122,
      "imu": 2123,
      "ĠÑģÐ²Ð¾": 2124,
      "ace": 2125,
      "Ð¿Ðµ": 2126,
      "ĠNu": 2127,
      "ĠÑįÐº": 2128,
      "ĠCh": 2129,
      "nu": 2130,
      "uojam": 2131,
      "Ġgr": 2132,
      "Ãªn": 2133,
      "jung": 2134,
      "Ġmuz": 2135,
      "Ġpask": 2136,
      "asa": 2137,
      "Ġveik": 2138,
      "qu": 2139,
      "Ġlucru": 2140,
      "Ġsitu": 2141,
      "ĠÑĩÐµÐ»Ð¾Ð²": 2142,
      "ĠÐ¾Ð±ÑĢÐ°Ð·": 2143,
      "link": 2144,
      "Ġjog": 2145,
      "ĠaceastÄĥ": 2146,
      "ĠraÅ¡": 2147,
      "ĠÐµÑģÑĤÑĮ": 2148,
      "lin": 2149,
      "Äįios": 2150,
      "Ð¾Ð½Ð°Ð»ÑĮ": 2151,
      "ems": 2152,
      "Ġspecial": 2153,
      "tyv": 2154,
      "ĠÐºÐ°ÑĢ": 2155,
      "Ġx": 2156,
      "ĠÐ¾ÑĩÐµÐ½ÑĮ": 2157,
      "ĠÐ¿Ñĥ": 2158,
      "ĠÐļÐ°": 2159,
      "ÑĢÐ°Ð¶": 2160,
      "ĠÐ±Ð¾Ð»ÐµÐµ": 2161,
      "Â».": 2162,
      "gen": 2163,
      "Ġdarbo": 2164,
      "reik": 2165,
      "ĠÐ±ÑĭÑĤÑĮ": 2166,
      "ÑģÑĤÐµÐ¼": 2167,
      "lap": 2168,
      "Ġpui": 2169,
      "tei": 2170,
      "log": 2171,
      "Ġorganiz": 2172,
      "ĠÐ¼Ð¾Ð³": 2173,
      "Ġtiks": 2174,
      "trauk": 2175,
      "Ġcer": 2176,
      "âĢĿ.": 2177,
      "bile": 2178,
      "Ġuni": 2179,
      "Ã½m": 2180,
      "vad": 2181,
      "jus": 2182,
      "rilor": 2183,
      "iams": 2184,
      "Ġkuris": 2185,
      "ura": 2186,
      "Ġres": 2187,
      "Ġparte": 2188,
      "ÑģÑĤÐ°Ð²Ð¸": 2189,
      "ĠÐ´Ð¾Ð»Ð¶": 2190,
      "ÃŃm": 2191,
      "inius": 2192,
      "ĠAp": 2193,
      "tura": 2194,
      "Ġsec": 2195,
      "jai": 2196,
      "ÑĢÐ¾Ñģ": 2197,
      "ĠÐ´Ð¾Ð¼": 2198,
      "ck": 2199,
      "Ġcap": 2200,
      "torii": 2201,
      "Ð¹Ð½": 2202,
      "Ġspeci": 2203,
      "Ð»Ð°ÑģÑĮ": 2204,
      "Ã´ng": 2205,
      "Äı": 2206,
      "ĠÐ¸Ð¼": 2207,
      "Ġsve": 2208,
      "60": 2209,
      "21": 2210,
      "ĠÐºÐ°ÑĩÐµ": 2211,
      "Ġspor": 2212,
      "stfel": 2213,
      "vol": 2214,
      "ĠÑģÐ°": 2215,
      "Ġklaus": 2216,
      "Ġpred": 2217,
      "ĠÑģÐ¿Ðµ": 2218,
      "ÑĢÐµÑģ": 2219,
      "ÑĭÐ¼": 2220,
      "zan": 2221,
      "dyti": 2222,
      "tili": 2223,
      "Â»,": 2224,
      "Ð½ÐµÑĤ": 2225,
      "Ġtak": 2226,
      "sc": 2227,
      "Ġneb": 2228,
      "Ġautomo": 2229,
      "Ġgi": 2230,
      "ĠÑģÑĢÐµÐ´": 2231,
      "ĠfÄĥrÄĥ": 2232,
      "ĠLa": 2233,
      "ĠÐºÐ¾Ð¼Ð¿Ð°": 2234,
      "laug": 2235,
      "mÄĹ": 2236,
      "ika": 2237,
      "Ð½Ð¸ÐºÐ¸": 2238,
      "Ġgeri": 2239,
      "ron": 2240,
      "Ġunei": 2241,
      "ĠÑģÐ»ÑĥÑĩÐ°": 2242,
      "ĠÅŁ": 2243,
      "oli": 2244,
      "entul": 2245,
      "ĠÐ°Ð²ÑĤÐ¾Ð¼": 2246,
      "acÄĥ": 2247,
      "Ð¹ÑĤÐµ": 2248,
      "ÈĽe": 2249,
      "Ġera": 2250,
      "ĠViln": 2251,
      "ĠÐ¼Ð°ÑĤÐµÑĢÐ¸": 2252,
      "Ġfap": 2253,
      "Ġsaug": 2254,
      "rend": 2255,
      "ĠÐ¼Ð¾": 2256,
      "Ð¾Ð±ÑħÐ¾Ð´Ð¸": 2257,
      "ĠDar": 2258,
      "ĠÈĻ": 2259,
      "ĠÅ¡e": 2260,
      "ĠÐ²ÑĭÑģ": 2261,
      "Ġmie": 2262,
      "199": 2263,
      "Ġexp": 2264,
      "ï¿½ï¿½": 2265,
      "ĠÑģÐ¾Ð·": 2266,
      "Ð´Ð¾Ð²": 2267,
      "ĠÐ´ÑĢÑĥÐ³Ð¸": 2268,
      "Ġrezul": 2269,
      "Ð°ÑĤ": 2270,
      "ÑģÑĤÑĢÐ¾": 2271,
      "Ġeuro": 2272,
      "Ã¬": 2273,
      "ÑīÐµÑģÑĤÐ²": 2274,
      "inÄĻ": 2275,
      "ÑħÐ¸": 2276,
      "ĠÄĳá»": 2277,
      "ÑģÑĤÑĢÑĥ": 2278,
      "ĠtodÄĹl": 2279,
      "Ġtechn": 2280,
      "ĠcÄĥtre": 2281,
      "ĠAu": 2282,
      "ming": 2283,
      "ĠvÃł": 2284,
      "ĠPri": 2285,
      "davo": 2286,
      "onas": 2287,
      "fek": 2288,
      "ĠÐ±ÑĭÐ»Ð¾": 2289,
      "Ġtvar": 2290,
      "uomen": 2291,
      "site": 2292,
      "elb": 2293,
      "ÈĽin": 2294,
      "ĠIÅ¡": 2295,
      "Ð½ÐµÐµ": 2296,
      "umÄħ": 2297,
      "ÐºÐ¸Ðµ": 2298,
      "28": 2299,
      "ĠÐ¼Ð½": 2300,
      "ĠPa": 2301,
      "Ġorganiza": 2302,
      "Ġvá»": 2303,
      "tim": 2304,
      "antis": 2305,
      "Ġsom": 2306,
      "ĠvÄĹl": 2307,
      "Å£e": 2308,
      "ĠÐ¿ÐµÑĢÐ²": 2309,
      "dÄĥ": 2310,
      "Ð½Ð¸ÐºÐ¾Ð²": 2311,
      "Å£in": 2312,
      "ÑĢÐ¾Ð´": 2313,
      "irink": 2314,
      "ĠÅ¾em": 2315,
      "26": 2316,
      "Ġminis": 2317,
      "Ġvand": 2318,
      "ĠkaÅ¾": 2319,
      "ĠÑĢÐ°ÑģÐ¿": 2320,
      "ĠdaÅ¾n": 2321,
      "ĠurmÄĥ": 2322,
      "Ġora": 2323,
      "ÑĩÐµÐ½": 2324,
      "ÑıÐ²": 2325,
      "ĠÐ¾ÑĢÐ³Ð°Ð½Ð¸": 2326,
      "Ġcea": 2327,
      "ot": 2328,
      "Ð¿ÐµÑĢ": 2329,
      "Ġlyg": 2330,
      "Ġrink": 2331,
      "Ð²ÐµÐ´": 2332,
      "Ð¾Ð»Ñı": 2333,
      "27": 2334,
      "Ġpute": 2335,
      "Ð¾Ð½Ðµ": 2336,
      "rov": 2337,
      "ĠaÅ¡": 2338,
      "ĠÐ½ÐµÐ¾Ð±ÑħÐ¾Ð´Ð¸": 2339,
      "Ġstr": 2340,
      "ĠÐ²ÐµÑĢ": 2341,
      "ĠÐ´ÐµÑĤ": 2342,
      "oi": 2343,
      "ÑģÐºÐ¸Ðµ": 2344,
      "feri": 2345,
      "Ġdra": 2346,
      "Ġmal": 2347,
      "Ġchiar": 2348,
      "ÑĢÐµÐ¼ÐµÐ½": 2349,
      "Ġvadov": 2350,
      "Ġunde": 2351,
      "lt": 2352,
      "dÅ¾io": 2353,
      "ĠÄįia": 2354,
      "ĠPas": 2355,
      "Æ¡": 2356,
      "ÑģÐºÐ¸Ñħ": 2357,
      "Ð³Ð¾Ð´": 2358,
      "ybÄĹ": 2359,
      "ĠuÅ¾si": 2360,
      "ÐµÐ½ÑĤÐ°": 2361,
      "ĠÄĮ": 2362,
      "ÑĢÑĥÐ¿": 2363,
      "Ġfunc": 2364,
      "ĠÐ½ÑĥÐ¶": 2365,
      "ĠdouÄĥ": 2366,
      "Ġzi": 2367,
      "á»§": 2368,
      "imui": 2369,
      "Ð¾Ð»Ð½Ð¸": 2370,
      "Ð»Ð°ÑĤ": 2371,
      "ÑĢÐµÐ´Ðµ": 2372,
      "Ð¾Ð¶Ð¸": 2373,
      "turÄĥ": 2374,
      "ĠÑģÐµÑĢ": 2375,
      "lik": 2376,
      "uoja": 2377,
      "iat": 2378,
      "Ġgim": 2379,
      "ÑĪÐ¸Ñħ": 2380,
      "ĠÐ»ÐµÑĤ": 2381,
      "Ġpun": 2382,
      "ÐºÐ¸Ñħ": 2383,
      "dÄĹj": 2384,
      "ÑĩÐµÐ½Ð¸Ðµ": 2385,
      "Ġexis": 2386,
      "Å£iei": 2387,
      "ĠÐ¾Ð½Ð¸": 2388,
      "anÄĥ": 2389,
      "Ġneg": 2390,
      "ministra": 2391,
      "ĠÐŁÐ¾": 2392,
      "Ġsky": 2393,
      "reng": 2394,
      "kiai": 2395,
      "ĠMo": 2396,
      "Ġproc": 2397,
      "klos": 2398,
      "Ġgar": 2399,
      "nÃ½ch": 2400,
      "pozi": 2401,
      "Ġjaun": 2402,
      "Ġacum": 2403,
      "ĠÐ²Ð¸Ð´Ðµ": 2404,
      "ĠÐ±Ð°": 2405,
      "Ġinstitu": 2406,
      "ĠÐłÐ¾ÑģÑģÐ¸Ð¸": 2407,
      "ĠÑĨÐµ": 2408,
      "ĠLietuvoje": 2409,
      "ĠkÄħ": 2410,
      "liu": 2411,
      "ĠÐ¿Ð¾ÐºÐ°": 2412,
      "una": 2413,
      "mar": 2414,
      "ĠÐ´ÐµÐ½ÑĮ": 2415,
      "Ð²Ð°ÐµÑĤ": 2416,
      "ÑĪÑĮ": 2417,
      "umas": 2418,
      "Ġpriem": 2419,
      "2015": 2420,
      "ela": 2421,
      "ÑĤÐµÐ»Ð¸": 2422,
      "Ġfiind": 2423,
      "Ġlie": 2424,
      "Ġkiekvien": 2425,
      "ÐºÐ¾Ð»": 2426,
      "tojai": 2427,
      "ĠÑĤÐµÐ¼": 2428,
      "prez": 2429,
      "dav": 2430,
      "Ġoc": 2431,
      "Ġdrep": 2432,
      "Ġsch": 2433,
      "ĠÑĢÐµÐ·": 2434,
      "Ð¾ÑĢÐ¾Ð²": 2435,
      "rus": 2436,
      "Ġproces": 2437,
      "Ġka": 2438,
      "lie": 2439,
      "spor": 2440,
      "ÑĤÑĢÐ°": 2441,
      "Ð¾Ð¶Ðµ": 2442,
      "ĠÑģÐ¸ÑģÑĤÐµÐ¼": 2443,
      "Ġinc": 2444,
      "ĠÑĩÐµÐ¼": 2445,
      "ÑĦÐµ": 2446,
      "ÄĹk": 2447,
      "ÑĢÐ¾Ð²Ð°Ð½": 2448,
      "ĠÃ®ncep": 2449,
      "ola": 2450,
      "__": 2451,
      "Ġpan": 2452,
      "osta": 2453,
      "Ð¾ÑģÐ¾Ð±": 2454,
      "ĠÑįÑĤÐ¸": 2455,
      "Ġroz": 2456,
      "ica": 2457,
      "vis": 2458,
      "Ã¤": 2459,
      "lyg": 2460,
      "dÅ³": 2461,
      "ĠÐĿÐ¾": 2462,
      "ĠUni": 2463,
      "Ġniek": 2464,
      "lek": 2465,
      "ĠcÃ¢t": 2466,
      "iá»ĩ": 2467,
      "Äĥs": 2468,
      "publi": 2469,
      "rei": 2470,
      "Ð¸Ð¼": 2471,
      "Èĺ": 2472,
      "ĠÐ¿Ð¾ÑģÐ»Ðµ": 2473,
      "Ġgalim": 2474,
      "usias": 2475,
      "ĠBe": 2476,
      "urilor": 2477,
      "ĠÐ¸ÑģÐ¿Ð¾Ð»ÑĮÐ·Ð¾Ð²Ð°": 2478,
      "cijÅ³": 2479,
      "Ġban": 2480,
      "Ġji": 2481,
      "áºŃ": 2482,
      "ww": 2483,
      "ĠÐ½Ð°Ñģ": 2484,
      "ÑĩÐµÑĤ": 2485,
      "ĠÅ¡il": 2486,
      "ÑĢÐµÐ´Ð¸": 2487,
      "!!": 2488,
      "ĠY": 2489,
      "vil": 2490,
      "Ġmas": 2491,
      "ĠÐ¸Ð½ÑĦÐ¾ÑĢÐ¼Ð°": 2492,
      "Ġprivin": 2493,
      "Ġpie": 2494,
      "ĠMar": 2495,
      "ticÄĥ": 2496,
      "ÐĿÐ°": 2497,
      "Ġpateik": 2498,
      "Ð±Ñı": 2499,
      "ĠÐ¾Ð±ÑĢÐ°": 2500,
      "....": 2501,
      "met": 2502,
      "tia": 2503,
      "ros": 2504,
      "ÐºÐ°Ð¼Ð¸": 2505,
      "pÄĥ": 2506,
      "lius": 2507,
      "ÑĢÐ°Ð»ÑĮ": 2508,
      "Ð¸ÑĤ": 2509,
      "ĠJei": 2510,
      "Ð§": 2511,
      "ĠMi": 2512,
      "ĠÑģÐ¾Ð·Ð´Ð°": 2513,
      "staty": 2514,
      "tice": 2515,
      "ĠÑĤÐ¾Ð¼": 2516,
      "ybÄĻ": 2517,
      "ĠÐ½Ð°ÑĪ": 2518,
      "ÑĢÐ¾Ð¿": 2519,
      "Ã¡n": 2520,
      "Ġnr": 2521,
      "Ð²Ð¾Ð´Ð¸": 2522,
      "Ð½Ð¾Ð²Ð°": 2523,
      "Å½": 2524,
      "ĠÐ¨": 2525,
      "Ġlaiko": 2526,
      "Ġ#": 2527,
      "Ġ+": 2528,
      "Ġilg": 2529,
      "Ġdom": 2530,
      "ĠÐ½Ð°ÑĩÐ°": 2531,
      "ĠÑĤÐ¾Ð³Ð¾": 2532,
      "Ġrec": 2533,
      "ikos": 2534,
      "Ð¸ÑĤÐ°": 2535,
      "yk": 2536,
      "Ġzile": 2537,
      "Ġraj": 2538,
      "Ġnors": 2539,
      "ĠÑįÐ»ÐµÐºÑĤ": 2540,
      "Ġavea": 2541,
      "ĠÐŀÐ±": 2542,
      "Ġlen": 2543,
      "ĠmedÅ¾ia": 2544,
      "Ġpaslaug": 2545,
      "Ġkel": 2546,
      "ÑģÐºÐ¾Ð¼": 2547,
      "ÑĩÐµÑģÐºÐ¸Ñħ": 2548,
      "fer": 2549,
      "Ġlan": 2550,
      "ĠÐ¶Ð¸Ð·": 2551,
      "Ġtrans": 2552,
      "Ġpagrin": 2553,
      "omet": 2554,
      "Ġkult": 2555,
      "Ð»Ð¾Ð¼": 2556,
      "lec": 2557,
      "Ġcul": 2558,
      "prin": 2559,
      "ÑıÑħ": 2560,
      "tiniÅ³": 2561,
      "Ð¯": 2562,
      "Ġ>": 2563,
      "ologi": 2564,
      "2014": 2565,
      "Ġqu": 2566,
      "ens": 2567,
      "ĠÑĢÐ°Ð±Ð¾ÑĤÐ°": 2568,
      "Ġprodus": 2569,
      "Ð½Ð³": 2570,
      "ĠÄ®": 2571,
      "anu": 2572,
      "Ġimpor": 2573,
      "Ġmun": 2574,
      "ĠÅ¡io": 2575,
      "alo": 2576,
      "rÅ³": 2577,
      "ĠÐ¼ÐµÑĤ": 2578,
      "Ġapsaug": 2579,
      "Å¡i": 2580,
      "lÄĹ": 2581,
      "ÑĩÐµÐ½Ð¸Ñı": 2582,
      "Ð»ÐµÑĤ": 2583,
      "ĠkÅ«": 2584,
      "Ġga": 2585,
      "Ð¾ÑģÑĥ": 2586,
      "umneze": 2587,
      "ers": 2588,
      "ĠÐºÐ¾Ð³Ð´Ð°": 2589,
      "tinÄĹ": 2590,
      "Ġjuos": 2591,
      "Ð¾Ð³Ð°": 2592,
      "Ġvienas": 2593,
      "cea": 2594,
      "iÅ¡kai": 2595,
      "ÐºÐ°Ð½": 2596,
      "Ġdok": 2597,
      "Ġnoas": 2598,
      "Ġsitua": 2599,
      "enie": 2600,
      "Ġcun": 2601,
      "ĠÅ¾i": 2602,
      "ĠÐ¦": 2603,
      "ĠÐĿÐµ": 2604,
      "80": 2605,
      "Ġtru": 2606,
      "rÄħ": 2607,
      "ĠÐ²Ð¾Ð¿": 2608,
      "ĠÐ¼Ñĥ": 2609,
      "ĠpaÅ¡": 2610,
      "cm": 2611,
      "Ġatve": 2612,
      "ĠÐºÐ¾ÑĤÐ¾ÑĢÑĭÐ¹": 2613,
      "Ð½ÑĥÑĤ": 2614,
      "gn": 2615,
      "ĠÑįÑĤÐ¾Ð³Ð¾": 2616,
      "Ġinf": 2617,
      "ĠÐ¿ÑĢÐ°Ð²": 2618,
      "ÑĪÐµÐ½Ð¸Ñı": 2619,
      "iausia": 2620,
      "ĠLe": 2621,
      "ĠvÅ¡": 2622,
      "áº§": 2623,
      "ĠÐ±Ðµ": 2624,
      "rÄĹ": 2625,
      "Ġnori": 2626,
      "Ġras": 2627,
      "ĠlÃł": 2628,
      "29": 2629,
      "usios": 2630,
      "Ġpeste": 2631,
      "Ġreprez": 2632,
      "Ġanul": 2633,
      "bal": 2634,
      "ĠdÄĹ": 2635,
      "Ġmetais": 2636,
      "Ġdabar": 2637,
      "ĠÐ´ÐµÐ»Ð°": 2638,
      "cer": 2639,
      "70": 2640,
      "Ä¾a": 2641,
      "ĠAt": 2642,
      "ĠÄ¯mon": 2643,
      "ÑĥÐ½": 2644,
      "Ġatunci": 2645,
      "ĠÐ²Ð¾Ñģ": 2646,
      "Ð³Ð¾ÑĤÐ¾Ð²": 2647,
      "rate": 2648,
      "dymo": 2649,
      "rad": 2650,
      "old": 2651,
      "rag": 2652,
      "ĠÑģÐº": 2653,
      "lis": 2654,
      "okie": 2655,
      "ĠÐ±ÐµÑģÐ¿": 2656,
      "ĠkartÄħ": 2657,
      "ÑĪÐµÐ½": 2658,
      "ĠÐµÐµ": 2659,
      "mele": 2660,
      "Ġkurios": 2661,
      "ÑĢÑĥÐ´": 2662,
      "by": 2663,
      "Ð»ÑĮÐ½Ð¾": 2664,
      "ĉĊ": 2665,
      "Ð½Ð¾Ð¼Ñĥ": 2666,
      "ĠBal": 2667,
      "ÑģÑĤÐ²Ðµ": 2668,
      "Ġjude": 2669,
      "ond": 2670,
      "tion": 2671,
      "IN": 2672,
      "Ġmate": 2673,
      "ÑĥÑİÑīÐ¸": 2674,
      "ÄĹja": 2675,
      "Ġtuo": 2676,
      "Ð¶Ð´Ñĥ": 2677,
      "Ġnen": 2678,
      "ĠÑĢÑĭ": 2679,
      "Ġperio": 2680,
      "toje": 2681,
      "ÑĩÐµÑģÐºÐ¸Ðµ": 2682,
      "Ġreng": 2683,
      "Ġbi": 2684,
      "form": 2685,
      "Ġpriemon": 2686,
      "vÄħ": 2687,
      "ÑģÑĤÐ²Ñĥ": 2688,
      "ĠÅŀ": 2689,
      "ĠÐ´ÐµÐ¹": 2690,
      "Ġsavi": 2691,
      "ĠÐºÐ°Ð¶Ð´": 2692,
      "ĠbÄĥ": 2693,
      "ĠÐµÑīÐµ": 2694,
      "Å¡ie": 2695,
      "ÐºÐ°Ñħ": 2696,
      "ĠÐ¿ÑĢÐ°Ð²Ð¸": 2697,
      "Ġpras": 2698,
      "ÑģÑĤÑĥÐ¿": 2699,
      "ratÄĥ": 2700,
      "Ġinv": 2701,
      "Ġutili": 2702,
      "Ġum": 2703,
      "Ð¼ÐµÑĤ": 2704,
      "ÑģÐºÐ¾Ðµ": 2705,
      "Ġtam": 2706,
      "ĠÐľÐ°": 2707,
      "Ġalebo": 2708,
      "ÈĽiei": 2709,
      "iniu": 2710,
      "Ġprivind": 2711,
      "Ð¾ÑģÑĤ": 2712,
      "ania": 2713,
      "ĠjÄ¯": 2714,
      "uns": 2715,
      "Ġfoto": 2716,
      "Ġopera": 2717,
      "ua": 2718,
      "meri": 2719,
      "ĠÃ®ncÄĥ": 2720,
      "les": 2721,
      "Ð¾ÑģÐº": 2722,
      "ÐŃ": 2723,
      "hn": 2724,
      "ps": 2725,
      "vÅ³": 2726,
      "ĠÐ¸Ð½ÑĤÐµÑĢ": 2727,
      "Ġalte": 2728,
      "ĠÐ´Ñĥ": 2729,
      "ÄĹjimo": 2730,
      "Ġmat": 2731,
      "audo": 2732,
      "ĠTaÄįiau": 2733,
      "aza": 2734,
      "vers": 2735,
      "ĠfÄĥcut": 2736,
      "Ġpran": 2737,
      "kÄĹ": 2738,
      "Ð¾Ð³ÑĢÐ°Ð¼": 2739,
      "zd": 2740,
      "ĠÐĴÐ°": 2741,
      "ines": 2742,
      "Ġleg": 2743,
      "ĠÐ¼ÐµÐ½Ñı": 2744,
      "tojas": 2745,
      "ÑĤÐ¾ÑĢÐ°": 2746,
      "Ġthá»": 2747,
      "Ġmon": 2748,
      "ĠÐ¾ÑģÐ½Ð¾Ð²": 2749,
      "á»ĩ": 2750,
      "Ġkl": 2751,
      "Ġsveik": 2752,
      "ĠSp": 2753,
      "ÄĹjus": 2754,
      "ĠDumneze": 2755,
      "mÄĹs": 2756,
      "Ð´ÐµÐ¹": 2757,
      "aj": 2758,
      "Ġbun": 2759,
      "ĠÐ±ÑĭÐ»": 2760,
      "uli": 2761,
      "Ġtikrai": 2762,
      "ĠÃ®i": 2763,
      "Ġkil": 2764,
      "Ġpasta": 2765,
      "Ġfiecare": 2766,
      "ÑĨÐ¸Ð¹": 2767,
      "alitate": 2768,
      "paÅ¾": 2769,
      "ĠtÄĹ": 2770,
      "ÑĢÐ¸Ñı": 2771,
      "ĠÅ¾moniÅ³": 2772,
      "Ġcadrul": 2773,
      "Ġstra": 2774,
      "Ġsuteik": 2775,
      "Ġputea": 2776,
      "ĠdienÄħ": 2777,
      "Ġvyk": 2778,
      "ĠvieÅ¡": 2779,
      "Ð½ÑĮ": 2780,
      "iog": 2781,
      "Ð»Ð¸ÑĩÐ¸": 2782,
      "Ġkari": 2783,
      "ĠÅ¾in": 2784,
      "ĠÐºÐ¾Ð»": 2785,
      "ĠdecÃ¢t": 2786,
      "kre": 2787,
      "Ġlais": 2788,
      "uÅ¾": 2789,
      "ĠÐ¾Ð½Ð°": 2790,
      "feren": 2791,
      "Ġsem": 2792,
      "Ġlab": 2793,
      "Ġaju": 2794,
      "ÑĩÐ¸ÑĤÐ°": 2795,
      "Ġmerg": 2796,
      "skai": 2797,
      "ĠÐ¸Ð½ÑĤÐµ": 2798,
      "gyven": 2799,
      "uoÅ¡": 2800,
      "Ġfel": 2801,
      "Ġaplink": 2802,
      "Ġastfel": 2803,
      "ĠÑĢÐµÐ³Ð¸": 2804,
      "Ġleng": 2805,
      "ÑĪÐµÐ³Ð¾": 2806,
      "Ġavut": 2807,
      "Ð½Ð¾ÑģÑĤÑĮÑİ": 2808,
      "ĠÑĢÐ°Ð±Ð¾ÑĤÑĭ": 2809,
      "ÑĩÐµÑģÐºÐ¾Ð¹": 2810,
      "Ġen": 2811,
      "Ġos": 2812,
      "torius": 2813,
      "Ð´ÐµÑĤ": 2814,
      "jant": 2815,
      "ÑĢÐ°ÑĤÑĮ": 2816,
      "nul": 2817,
      "tant": 2818,
      "ĠkitÅ³": 2819,
      "AT": 2820,
      "Ġmus": 2821,
      "ĠÑĤÑĭ": 2822,
      "Ã¡m": 2823,
      "Ġmedic": 2824,
      "nyg": 2825,
      "len": 2826,
      "Ġadministra": 2827,
      "Ľi": 2828,
      "Ġinterne": 2829,
      "ĠTo": 2830,
      "Ġsprend": 2831,
      "ĠÐ²Ð·": 2832,
      "Ġcomun": 2833,
      "Æ°á»Ŀ": 2834,
      "ÑīÐµÐ¹": 2835,
      "La": 2836,
      "Ð¾Ð´Ñĭ": 2837,
      "tojo": 2838,
      "ĠÐºÐ»Ð°": 2839,
      "Ð»Ð¾Ð²Ð¸": 2840,
      "Ġpartizan": 2841,
      "Ġjed": 2842,
      "Ġnevo": 2843,
      "ÑıÐ±": 2844,
      "Ġcons": 2845,
      "Ð¾Ð³Ð¾Ð²": 2846,
      "Ġom": 2847,
      "virtin": 2848,
      "ong": 2849,
      "inta": 2850,
      "Ġst": 2851,
      "ĠÑıÐ²Ð»ÑıÐµÑĤÑģÑı": 2852,
      "De": 2853,
      "Ġceea": 2854,
      "ĠVy": 2855,
      "akar": 2856,
      "inimo": 2857,
      "Ġdirb": 2858,
      "Ġpasa": 2859,
      "ÐµÐ½Ðµ": 2860,
      "Ġbai": 2861,
      "ĠÐ¿Ð¾Ð»ÑĥÑĩÐ¸": 2862,
      "ĠmÃ´": 2863,
      "Ġcau": 2864,
      "ÑīÐµÐ³Ð¾": 2865,
      "Ġelek": 2866,
      "Ġsav": 2867,
      "Ð²Ð°ÑĢ": 2868,
      "ingas": 2869,
      "ĠÐ¿Ð°ÑĢ": 2870,
      "ĠÑģÐ´ÐµÐ»Ð°": 2871,
      "Ġsan": 2872,
      "Ġkri": 2873,
      "Ġproduk": 2874,
      "Ð¥": 2875,
      "bul": 2876,
      "Ġinteres": 2877,
      "ĠÑħÐ¾ÑĢÐ¾": 2878,
      "dai": 2879,
      "Ã¡d": 2880,
      "Ġservi": 2881,
      "can": 2882,
      "oti": 2883,
      "Ð¾ÑĤÐ²ÐµÑĤ": 2884,
      "vald": 2885,
      "ĠPentru": 2886,
      "pat": 2887,
      "rius": 2888,
      "ĠDumnezeu": 2889,
      "Ġsf": 2890,
      "ĠÐĺÐ½": 2891,
      "ĠÐ¾Ð¿ÑĢÐµÐ´Ðµ": 2892,
      "amos": 2893,
      "ÑģÑĤÑĢÐµ": 2894,
      "rek": 2895,
      "Ġcar": 2896,
      "Ð½Ð¸Ñİ": 2897,
      "Ġtip": 2898,
      "upra": 2899,
      "odÄĹl": 2900,
      "Ð»Ð°Ð³": 2901,
      "Ð³Ð°Ð·Ð¸": 2902,
      "Ð²Ð°Ñı": 2903,
      "oj": 2904,
      "saky": 2905,
      "In": 2906,
      "ĠÑĤÐ¾ÑĢ": 2907,
      ".)": 2908,
      "ĠcÃ¢te": 2909,
      "ÑĩÐ°ÑĤÑĮ": 2910,
      "elio": 2911,
      "Ġasta": 2912,
      "Æ°á»£": 2913,
      "omi": 2914,
      "Ã¡ch": 2915,
      "vimas": 2916,
      "Ġasi": 2917,
      "Ġsavai": 2918,
      "ĠAd": 2919,
      "ĠvienÄħ": 2920,
      "ĠÑĤÐµÐ»Ðµ": 2921,
      "tn": 2922,
      "slo": 2923,
      "ÄĹsi": 2924,
      "ĠÐ»ÑĥÑĩ": 2925,
      "Ġprim": 2926,
      "ĠÃ®l": 2927,
      "áº¥t": 2928,
      "Ġprote": 2929,
      "anie": 2930,
      "Ġag": 2931,
      "Ġcal": 2932,
      "ĠIr": 2933,
      "Ġtelef": 2934,
      "tinis": 2935,
      "ĠÐ¾ÑĤÐ½Ð¾": 2936,
      "ER": 2937,
      "imen": 2938,
      "Ð¾Ð³Ð»Ð°": 2939,
      "Ġunor": 2940,
      "ĠÑĢÐ¾": 2941,
      "Ġteig": 2942,
      "Ġfac": 2943,
      "ĠMari": 2944,
      "2013": 2945,
      "Ġsocial": 2946,
      "ĠÐ¾Ð±Ð»Ð°ÑģÑĤÐ¸": 2947,
      "bat": 2948,
      "Ġschim": 2949,
      "ĠÑģÐ¿Ð¾ÑģÐ¾Ð±": 2950,
      "ÑĮÑı": 2951,
      "ĠAc": 2952,
      "nosÅ¥": 2953,
      "rare": 2954,
      "ÑĥÐ¼": 2955,
      "Ġtá»": 2956,
      "35": 2957,
      "ĠÐ´Ð°Ð¶Ðµ": 2958,
      "hod": 2959,
      "Î¿": 2960,
      "Ġcontin": 2961,
      "Ġdvi": 2962,
      "ĠsiÅ«": 2963,
      "ĠÐ¿Ð¾Ñĩ": 2964,
      "Ġfin": 2965,
      "voj": 2966,
      "ciu": 2967,
      "tÄĻ": 2968,
      "Ġparduo": 2969,
      "Ġapli": 2970,
      "vyk": 2971,
      "ĠPe": 2972,
      "ĠAs": 2973,
      "Ð¾ÑģÑĤÐ¸": 2974,
      "Ġlig": 2975,
      "ÐµÑĢÐµÐ·": 2976,
      "kal": 2977,
      "ern": 2978,
      "Ġmano": 2979,
      "ĠvirÅ¡": 2980,
      "ĠÐĿÐ¾Ð²": 2981,
      "ĠÐ³Ð¾Ð»": 2982,
      "ĠÐ¼Ð¾Ð»": 2983,
      "ÑīÐµÐ½": 2984,
      "Ġade": 2985,
      "ĠÑĨÐ²ÐµÑĤ": 2986,
      "Ġcopii": 2987,
      "ĠEuropos": 2988,
      "nÃ©ho": 2989,
      "ĠÑĤÐ¾Ð²Ð°": 2990,
      "escu": 2991,
      "lad": 2992,
      "ÑĥÐ»ÑĮÑĤÐ°": 2993,
      "ÑĢÐµÑĤÑĮ": 2994,
      "Ð¿ÑĢÐµ": 2995,
      "mite": 2996,
      "tikrin": 2997,
      "AN": 2998,
      "umi": 2999,
      "Ġasem": 3000,
      "ĠmÄĹnes": 3001,
      "ĠÐ²Ð°Ð¼": 3002,
      "Ð¨": 3003,
      "ĠÐ²ÑģÐµÑħ": 3004,
      "Ġmiesto": 3005,
      "Ġlik": 3006,
      "Ġvas": 3007,
      "line": 3008,
      "ced": 3009,
      "ios": 3010,
      "Ġprofesi": 3011,
      "Ġjuo": 3012,
      "ÑīÐµÐ½Ð¸Ñı": 3013,
      "ĠÐ¿Ð¾Ð¼Ð¾": 3014,
      "ĠÈĺ": 3015,
      "bui": 3016,
      "Ġnusta": 3017,
      "Ġned": 3018,
      "Ġnaj": 3019,
      "ĠÐķÑģÐ»Ð¸": 3020,
      "ĠÐĸ": 3021,
      "ĠÐ°ÑĢ": 3022,
      "Ġkre": 3023,
      "ĠÐ¿Ð¾Ðº": 3024,
      "Ġsudar": 3025,
      "ista": 3026,
      "ÄĹse": 3027,
      "AR": 3028,
      "ÑĢÐ¾Ð¸": 3029,
      "Ġtranspor": 3030,
      "Ġprecum": 3031,
      "ĠÐ¿ÑĢÐ¾Ð±": 3032,
      "ÈĽele": 3033,
      "ocia": 3034,
      "Ð¾Ð²Ð°ÑĤÑĮ": 3035,
      "ÑĪÐ¸Ðµ": 3036,
      "entÅ³": 3037,
      "Ð±Ñĥ": 3038,
      "Ġlim": 3039,
      "ÑģÐ»Ñĥ": 3040,
      "ĠVal": 3041,
      "Ġide": 3042,
      "tikos": 3043,
      "Ġcelor": 3044,
      "ĠÐŃÑĤÐ¾": 3045,
      "Ġeu": 3046,
      "pro": 3047,
      "cure": 3048,
      "Å«ra": 3049,
      "Ġmetus": 3050,
      "Ġsvarb": 3051,
      "Ð¿Ð¸ÑĤÑĮ": 3052,
      "ÅŁa": 3053,
      "Ð¾ÑĢÑĤ": 3054,
      "ĠÐ¿ÑĢÐ¾Ð´Ñĥ": 3055,
      "Ġtine": 3056,
      "vit": 3057,
      "ĠcÃ³": 3058,
      "Ġcá»§": 3059,
      "bÅ«": 3060,
      "ĠÑģÐ¾Ð¾Ð±": 3061,
      "ĠatÃ¢t": 3062,
      "ĠÑĢÐ°Ð·Ð²Ð¸": 3063,
      "ÑĪÐºÐ¸": 3064,
      "ym": 3065,
      "Ġpil": 3066,
      "Ð²Ð°Ð½Ð¸Ñı": 3067,
      "su": 3068,
      "Ġkartu": 3069,
      "Ġregi": 3070,
      "ienÄĹ": 3071,
      "zat": 3072,
      "ĠÐ¿ÑĢÐ¾ÑĨÐµ": 3073,
      "Ð¼ÐµÐ½ÑĤÐ°": 3074,
      "Ġmom": 3075,
      "Ð»Ð¾Ðº": 3076,
      "Ð²Ð°ÐµÑĤÑģÑı": 3077,
      "pri": 3078,
      "ĠÐ¿Ð¾ÑģÐ»ÐµÐ´": 3079,
      "tom": 3080,
      "Ġvari": 3081,
      "Ġcá»§a": 3082,
      "ÑĩÐµÑģÐºÐ¸Ð¹": 3083,
      "áº¡i": 3084,
      "skir": 3085,
      "Ġon": 3086,
      "Å£iile": 3087,
      "turile": 3088,
      "ĠÐ¿Ð¾Ð»Ð¸": 3089,
      "Ġpapras": 3090,
      "ĠCom": 3091,
      "Ð»Ð¸Ñı": 3092,
      "telor": 3093,
      "Ġfru": 3094,
      "Å£ele": 3095,
      "ĠÐ³Ð´Ðµ": 3096,
      "ÑĥÐ±Ð»Ð¸": 3097,
      "dÅ¾iÅ³": 3098,
      "pad": 3099,
      "Ð·Ð°ÑĨÐ¸Ð¸": 3100,
      "inga": 3101,
      "Ð¾ÑģÑĥÐ´Ð°ÑĢ": 3102,
      "ĠÑĥÑģÑĤÐ°Ð½Ð¾Ð²": 3103,
      "Ð½Ð¾ÑģÑĤ": 3104,
      "liau": 3105,
      "Ð´ÑĮ": 3106,
      "ĠÃ®nsÄĥ": 3107,
      "Ġdru": 3108,
      "Ġnar": 3109,
      "ÑģÑĤÐ¾Ð²": 3110,
      "Ġknyg": 3111,
      "ĠÐ¿ÑĢÐ¾ÑģÑĤÐ¾": 3112,
      "enea": 3113,
      "Ġmari": 3114,
      "ĠapÄĥ": 3115,
      "ÑĤÑĢ": 3116,
      "Ð»Ð°Ð¹Ð½": 3117,
      "ĠÑģÑĤÐ¾Ð¸": 3118,
      "yst": 3119,
      "ĠduomenÅ³": 3120,
      "ĠÐ³Ð¾Ð²": 3121,
      "ĠÐºÐ»Ð¸": 3122,
      "Ð»ÑĮÐ½ÑĭÐµ": 3123,
      "dÄħ": 3124,
      "Ð»Ð°Ð½": 3125,
      "ĠGal": 3126,
      "elÄĹ": 3127,
      "ÑģÑĤÑĭ": 3128,
      "90": 3129,
      "ĠÐ¿Ð¾Ð·Ð²": 3130,
      "2012": 3131,
      "Ġklas": 3132,
      "ÑģÑĤÑĢÐ¾Ð¹": 3133,
      "ĠÐ¼Ð¾Ð³ÑĥÑĤ": 3134,
      "ĠktorÃ©": 3135,
      "ÈĻa": 3136,
      "ĠPir": 3137,
      "Ð½ÐµÑģ": 3138,
      "ÑİÑīÐ¸Ñħ": 3139,
      "tau": 3140,
      "Ġsing": 3141,
      "fÄĥ": 3142,
      "zon": 3143,
      "Ġindi": 3144,
      "ÑĩÐµÑģÐºÐ¾Ð³Ð¾": 3145,
      "ĠÑģÐ¾Ð¾ÑĤÐ²ÐµÑĤ": 3146,
      "ĠÑģÐ¼": 3147,
      "Ġparod": 3148,
      "Å£ilor": 3149,
      "ĠÑĢÑĥÐ±": 3150,
      "Ġcontra": 3151,
      "rarea": 3152,
      "raz": 3153,
      "ĠÑĤÐµÑĢ": 3154,
      "inas": 3155,
      "Ġdisp": 3156,
      "lam": 3157,
      "Ġplo": 3158,
      "Ð»ÑĮÐ½ÑĭÐ¹": 3159,
      "Ġtiesiog": 3160,
      "tivi": 3161,
      "tyn": 3162,
      "Ġatro": 3163,
      "Ġdalyv": 3164,
      "cate": 3165,
      "ĠmÃ¡": 3166,
      "riu": 3167,
      "Ġmili": 3168,
      "Å¡io": 3169,
      "ĠÐ´Ð¾Ð¿": 3170,
      "ĠÐĶÐ»Ñı": 3171,
      "ĠLi": 3172,
      "tyje": 3173,
      "45": 3174,
      "ijos": 3175,
      "Ġim": 3176,
      "alul": 3177,
      "kur": 3178,
      "koje": 3179,
      "Ð¾ÑĤÐµ": 3180,
      "ĠKar": 3181,
      "Ġcomple": 3182,
      "pte": 3183,
      "ÑĦÑĦ": 3184,
      "kar": 3185,
      "gs": 3186,
      "ĠTaip": 3187,
      "Ġunul": 3188,
      "Ġorice": 3189,
      "Ġvisi": 3190,
      "Ġspre": 3191,
      "ÄĹjas": 3192,
      "ÑĢÐ¾Ð½": 3193,
      "ĠÐ¾ÑģÑĤÐ°": 3194,
      "Ġkli": 3195,
      "etÄĥ": 3196,
      "ĠÑĥÑģÐ»Ñĥ": 3197,
      "ĠÑĤÐ¸": 3198,
      "ĠÐ¸ÑģÐº": 3199,
      "Ð¿Ð¸ÑģÐ°": 3200,
      "ĠNor": 3201,
      "uma": 3202,
      "Ð¾Ð´ÐµÑĢ": 3203,
      "iul": 3204,
      "ĠÐ±ÐµÑģÐ¿Ð»Ð°ÑĤ": 3205,
      "ĠÐ²ÑĭÑģÐ¾Ðº": 3206,
      "Ġgener": 3207,
      "amb": 3208,
      "emb": 3209,
      "ĠÐ³Ð¾Ð´Ñĥ": 3210,
      "ĠdÄĹm": 3211,
      "âĢĻ": 3212,
      "vei": 3213,
      "Ġadres": 3214,
      "Å¡ti": 3215,
      "Ð¸ÑĤÑĮ": 3216,
      "Ð²Ð¾ÑĢ": 3217,
      "ÑĢÐ¾Ð±": 3218,
      "ÑĪÐµÐ½Ð¸Ðµ": 3219,
      "ÑħÐ¾Ð²": 3220,
      "Ġkain": 3221,
      "ail": 3222,
      "ĠCu": 3223,
      "nosti": 3224,
      "ksta": 3225,
      "arie": 3226,
      "ĠÑĦÐ¾ÑĤ": 3227,
      "ĠkuriÅ³": 3228,
      "Ġpasirink": 3229,
      "ÈĽiile": 3230,
      "Ð³Ðµ": 3231,
      "Å¾iÅ³": 3232,
      "graf": 3233,
      "Ġnivel": 3234,
      "31": 3235,
      "Ġpavy": 3236,
      "ĠÅ¾aid": 3237,
      "amp": 3238,
      "ĠÄ¯s": 3239,
      "Ġven": 3240,
      "vus": 3241,
      "ÑĤÐ¾Ð¼Ñĥ": 3242,
      "ĠÐ½ÐµÑĤ": 3243,
      "ÑħÐ¾Ð´Ð¸ÑĤ": 3244,
      "Ġspune": 3245,
      "pti": 3246,
      "Ġeks": 3247,
      "ÄįiÄħ": 3248,
      "amai": 3249,
      "Ġautori": 3250,
      "uver": 3251,
      "ĠVilniaus": 3252,
      "Ġpato": 3253,
      "Ġie": 3254,
      "ual": 3255,
      "ĠÑģÐµÐ±Ñı": 3256,
      "ĠkÅ«r": 3257,
      "Ne": 3258,
      "Å¡im": 3259,
      "Ð¾Ð²Ð°Ñı": 3260,
      "ĠÐ¼Ð½Ð¾Ð³Ð¾": 3261,
      "ĠMa": 3262,
      "gaus": 3263,
      "use": 3264,
      "ĠÐ°Ð´": 3265,
      "Ġaceasta": 3266,
      "ĠRes": 3267,
      "Ġnuro": 3268,
      "ĠjÅ«sÅ³": 3269,
      "ĠÑĢÐµÐ·ÑĥÐ»ÑĮÑĤÐ°": 3270,
      "tiÅ¡k": 3271,
      "Ġtoki": 3272,
      "ĠÐľÐ¾ÑģÐº": 3273,
      "ÄĹms": 3274,
      "Ġpadar": 3275,
      "ĠplÄĥ": 3276,
      "leid": 3277,
      "ĠÐ¼ÐµÐ¶Ð´Ñĥ": 3278,
      "ĠÐ²ÑģÐµÐ³Ð¾": 3279,
      "alai": 3280,
      "ĠÐ´ÑĢÑĥÐ³": 3281,
      "Ð½ÐµÑĢ": 3282,
      "ÐºÐ¸Ð¼": 3283,
      "uos": 3284,
      "ĠÐ²Ð»Ð°": 3285,
      "ĠÐ±Ð¾Ð»ÑĮÑĪÐµ": 3286,
      "Ð²Ð°ÑİÑĤ": 3287,
      "ptÄĥ": 3288,
      "AL": 3289,
      "Äĥm": 3290,
      "ĠÐºÐ¸": 3291,
      "ĠÑĦÐ°": 3292,
      "Å¡ÃŃ": 3293,
      "Ġdate": 3294,
      "ĠÐ¿ÑĢÐ¾Ð³ÑĢÐ°Ð¼": 3295,
      "Pro": 3296,
      "Ġprincip": 3297,
      "ĠÃ®nceput": 3298,
      "aud": 3299,
      "Ġsme": 3300,
      "gia": 3301,
      "ON": 3302,
      "stai": 3303,
      "olu": 3304,
      "ĠÐ¾ÑĤÐºÑĢÑĭ": 3305,
      "ĠÑĥÑĩÐ°ÑģÑĤ": 3306,
      "gistra": 3307,
      "Ġdata": 3308,
      "Ġpara": 3309,
      "jÄ¯": 3310,
      "tii": 3311,
      "atul": 3312,
      "ĠÐ¾ÑģÐ¾Ð±": 3313,
      "Ð¾Ð²Ð°Ð½Ð¸Ðµ": 3314,
      "amo": 3315,
      "kt": 3316,
      "ingai": 3317,
      "ĠÑģÐµÐ¼": 3318,
      "ÑįÑĤÐ¾Ð¼Ñĥ": 3319,
      "Ġsavivald": 3320,
      "ĠÐ½ÐµÑģÐº": 3321,
      "Å¡ko": 3322,
      "ĠÑģÐ²Ñı": 3323,
      "ĠÑĩÐµÑĢÐµÐ·": 3324,
      "Å³jÅ³": 3325,
      "Ġasemenea": 3326,
      "IS": 3327,
      "ha": 3328,
      "yba": 3329,
      "ĠÐ½Ð¸Ñħ": 3330,
      "ĠMan": 3331,
      "iile": 3332,
      "rieÅ¡": 3333,
      "mului": 3334,
      "ĠÐ´Ð¾Ð±": 3335,
      "ÑĢÐ¾Ð²Ð°ÑĤÑĮ": 3336,
      "isten": 3337,
      "jaus": 3338,
      "Å¾iaus": 3339,
      "Ġceva": 3340,
      "usiÄħ": 3341,
      "dama": 3342,
      "ĠÐ±Ð°Ð½": 3343,
      "inos": 3344,
      "ÑıÐ¼": 3345,
      "ĠÑĤÑĢÐµÐ±": 3346,
      "inÄĹje": 3347,
      "rÅ«": 3348,
      "ĠÑĢÐ°Ð¹": 3349,
      "Ð¾ÑĤÐ¾ÑĢ": 3350,
      "tinio": 3351,
      "curi": 3352,
      "ĠUn": 3353,
      "Ġsek": 3354,
      "Ð½Ð¸ÐµÐ¼": 3355,
      "Ġrespec": 3356,
      "ĠÑİ": 3357,
      "cov": 3358,
      "ÑıÑĤÑĮ": 3359,
      "curs": 3360,
      "aty": 3361,
      "anÄįiÅ³": 3362,
      "gz": 3363,
      "Ġtrei": 3364,
      "mag": 3365,
      "ĠÐ±Ð¸": 3366,
      "Ġpapil": 3367,
      "of": 3368,
      "ĠÅ¡iuo": 3369,
      "ĠÐ³Ð¸": 3370,
      "Ġnou": 3371,
      "riai": 3372,
      "Ġbo": 3373,
      "ulia": 3374,
      "inig": 3375,
      "per": 3376,
      "ĠBucure": 3377,
      "Ġdat": 3378,
      "iect": 3379,
      "kom": 3380,
      "ÑĪÐµÐ¹": 3381,
      "Ġdezvol": 3382,
      "tivÄĥ": 3383,
      "Ġkol": 3384,
      "ĠÐ¢Ð°Ðº": 3385,
      "Ð²Ð¾Ð¹": 3386,
      "ĠBet": 3387,
      "36": 3388,
      "ĠÐľÐ¸": 3389,
      "ĠpasiÅ«": 3390,
      "klad": 3391,
      "ĠDi": 3392,
      "Ġlau": 3393,
      "EN": 3394,
      "ĠÈĻti": 3395,
      "itai": 3396,
      "Ð´Ð°Ð½": 3397,
      "ĠÐ½ÑĥÐ¶Ð½Ð¾": 3398,
      "Ġteik": 3399,
      "ÑĩÐºÐ¸": 3400,
      "ĠÐŁÑĢÐ¾": 3401,
      "ĠOr": 3402,
      "ĠÐ³Ð°": 3403,
      "ĠÐĴÑģÐµ": 3404,
      "col": 3405,
      "ĠÐ¶ÐµÐ½": 3406,
      "ĠÑĩÐµÐ»Ð¾Ð²Ðµ": 3407,
      "ĠÃ®nain": 3408,
      "Å¾iÅ«r": 3409,
      "ÑİÑīÐ¸Ðµ": 3410,
      "ÑģÑĤÐµÑĢ": 3411,
      "tes": 3412,
      "ĠÑĪÐ¸": 3413,
      "ÐºÐ°Ñı": 3414,
      "ĠPer": 3415,
      "timo": 3416,
      "isi": 3417,
      "Ð¾Ð¶Ð´": 3418,
      "ĠÅ¾monÄĹs": 3419,
      "Ġtyri": 3420,
      "ĠÐ¿ÑĢÐ¾Ð´": 3421,
      "ĠÅ¾od": 3422,
      "omas": 3423,
      "Äįas": 3424,
      "Ġalt": 3425,
      "ĠÑĢÐ°ÑģÑģ": 3426,
      "paÄį": 3427,
      "cia": 3428,
      "Ġrela": 3429,
      "Ħĸ": 3430,
      "ÑĪÐ¸Ð¹": 3431,
      "ĠÐ±Ñĥ": 3432,
      "Ġeven": 3433,
      "ocie": 3434,
      "Ġdecla": 3435,
      "unii": 3436,
      "pas": 3437,
      "ĠVil": 3438,
      "Ġgalite": 3439,
      "alis": 3440,
      "ÈĽine": 3441,
      "Ġtie": 3442,
      "Ġsul": 3443,
      "ĠÑĥÑģÐ»Ð¾Ð²Ð¸": 3444,
      "Ġbendra": 3445,
      "urn": 3446,
      "ÑĤÐ¾ÑĢÐ¸": 3447,
      "ĠÑģÐ»ÑĥÑĩÐ°Ðµ": 3448,
      "ĠÐ¾ÑĤÐ´Ðµ": 3449,
      "ĠÐ²ÑĭÐ¿Ð¾Ð»": 3450,
      "ĠÃ®ntÃ¢l": 3451,
      "gas": 3452,
      "ĠÐŀÑĤ": 3453,
      "Lietu": 3454,
      "Ġacesta": 3455,
      "Ð»ÑĮÐ½ÑĭÑħ": 3456,
      "ĠÅŁti": 3457,
      "Ġteri": 3458,
      "Ð¾Ð»Ð¸ÑĩÐµ": 3459,
      "Å¾as": 3460,
      "ÐºÐ¸Ð¹": 3461,
      "ĠjÄħ": 3462,
      "Ġurma": 3463,
      "Ġnim": 3464,
      "ĠCe": 3465,
      "ĠÐºÐ¾": 3466,
      "Ġanks": 3467,
      "jame": 3468,
      "ĠmÄĹg": 3469,
      "ĀĀĀĀĀĀĀĀ": 3470,
      "orul": 3471,
      "viÅ¡k": 3472,
      "Ġneces": 3473,
      "Ġspus": 3474,
      "ĠÑģÐµÐº": 3475,
      "ĠgÄĥ": 3476,
      "ĠÐ´ÐµÐ¹ÑģÑĤÐ²Ð¸": 3477,
      "ĠÐ¿ÑĢÐ¾ÑĤÐ¸": 3478,
      "ĠSa": 3479,
      "ĠÐ³ÑĢÐ°": 3480,
      "Ġdokum": 3481,
      "Ġprima": 3482,
      "ĠÅ¾ie": 3483,
      "Ġved": 3484,
      "ĠÐ±ÑĭÐ»Ð¸": 3485,
      "ĠÑĤÑĥ": 3486,
      "Ġvizi": 3487,
      "ĠÐ´Ð²Ð¸": 3488,
      "Ġsri": 3489,
      "Ġdeci": 3490,
      "ĠÐ³Ð¾Ð´": 3491,
      "nÃº": 3492,
      "Ġstud": 3493,
      "ĠSf": 3494,
      "ĠÅłi": 3495,
      "vu": 3496,
      "ĠÐ¼Ð¸Ð½": 3497,
      "dÄĹti": 3498,
      "Ġpavad": 3499,
      "Ġaici": 3500,
      "Ġsupra": 3501,
      "arta": 3502,
      "tijos": 3503,
      "Ġdarbuo": 3504,
      "ific": 3505,
      "pta": 3506,
      "ĠtÄĥ": 3507,
      "Ġmir": 3508,
      "Ġcazul": 3509,
      "ĠÐ½ÐµÐ¾Ð±ÑħÐ¾Ð´Ð¸Ð¼Ð¾": 3510,
      "cijas": 3511,
      "ĠÐ³Ð»Ð°": 3512,
      "ÐºÑĨÐ¸Ð¸": 3513,
      "ĠMed": 3514,
      "ÐµÑģÐ¿Ðµ": 3515,
      "á»į": 3516,
      "muo": 3517,
      "OR": 3518,
      "Ġviena": 3519,
      "Ġrealiz": 3520,
      "ÑģÑģÐ°": 3521,
      "ĠÐ¾Ðº": 3522,
      "Ã¢ndu": 3523,
      "Å¾u": 3524,
      "iuose": 3525,
      "ÑĢÑĮ": 3526,
      "ÑĤÑĢÐ¸": 3527,
      "ĠSi": 3528,
      "Ġcopil": 3529,
      "dis": 3530,
      "Ġpriklaus": 3531,
      "ÑĨÐ¸Ð°Ð»Ð¸": 3532,
      "ÐµÐ½ÑĤÐ¾Ð²": 3533,
      "AV": 3534,
      "ÑĢÐ°Ð±Ð¾ÑĤ": 3535,
      "ĠÐ¾Ð´Ð¸Ð½": 3536,
      "ĠÐ¾Ð½Ð»Ð°Ð¹Ð½": 3537,
      "ĠEx": 3538,
      "ĠAnd": 3539,
      "Ġpris": 3540,
      "gul": 3541,
      "ÐµÑĤÑĭ": 3542,
      "Ġsie": 3543,
      "Ġprofes": 3544,
      "Ġnumai": 3545,
      "ĠÅ«k": 3546,
      "Ð»Ð¸Ð½": 3547,
      "ÑĩÐ¸Ð½Ð°": 3548,
      "ydis": 3549,
      "ÑĢÐ°ÑĤ": 3550,
      "lul": 3551,
      "38": 3552,
      "Ð¾Ð»Ð½Ð¸ÑĤÐµÐ»ÑĮ": 3553,
      "ÑıÐ½": 3554,
      "Ġjok": 3555,
      "ĠÑģÐ»ÐµÐ´": 3556,
      "inte": 3557,
      "ĠÑĥÑĢÐ¾Ð²": 3558,
      "ĠdÄĹmes": 3559,
      "ĠÑģÐ¾ÑģÑĤÐ¾Ñı": 3560,
      "pra": 3561,
      "ĠEl": 3562,
      "reazÄĥ": 3563,
      "plu": 3564,
      "ĠAm": 3565,
      "Ð²Ð»Ðµ": 3566,
      "ĠÑĥÐ¿ÑĢÐ°Ð²": 3567,
      "inea": 3568,
      "ÑģÐ¿Ðµ": 3569,
      "Ġeur": 3570,
      "Ġaceea": 3571,
      "ÑīÐ°Ñı": 3572,
      "ĠÐ¿Ð»Ð¾": 3573,
      "ĠveÄ¾": 3574,
      "Ġpagrindin": 3575,
      "á»¯": 3576,
      "ĠpraneÅ¡": 3577,
      "ĠÐĿÐ¸": 3578,
      "Ġmais": 3579,
      "vizi": 3580,
      "ovaÅ¥": 3581,
      "auj": 3582,
      "ÑģÑĤÐ¾ÑĢÐ¸": 3583,
      "Ġasupra": 3584,
      "fa": 3585,
      "Ð²Ð¾Ð·": 3586,
      "ĠÐ¾Ð±ÐµÑģÐ¿Ðµ": 3587,
      "ĠÃ®nce": 3588,
      "Re": 3589,
      "aipsn": 3590,
      "ĠneÄ¯": 3591,
      "ĠâĦĸ": 3592,
      "Ð²ÐµÑģÑĤ": 3593,
      "Ð¶Ð´Ð°": 3594,
      "aiÅ¡k": 3595,
      "tok": 3596,
      "Ã¡r": 3597,
      "ĠCo": 3598,
      "klÄĹs": 3599,
      "ameni": 3600,
      "Ð¦": 3601,
      "2011": 3602,
      "Ġcere": 3603,
      "Ð¶ÐµÐ½": 3604,
      "Ġea": 3605,
      "mie": 3606,
      "ÈĽilor": 3607,
      "Ð½Ð¸Ð¼": 3608,
      "Ġpinig": 3609,
      "á»ĭ": 3610,
      "ĠMe": 3611,
      "Ð¶ÐµÐ½Ð¸Ñı": 3612,
      "37": 3613,
      "tt": 3614,
      "tern": 3615,
      "Ġsuf": 3616,
      "ĠÐ³Ð¾ÑģÑĥÐ´Ð°ÑĢ": 3617,
      "ard": 3618,
      "Ġvisuomen": 3619,
      "ĠÅ¾en": 3620,
      "ĠÐ¾ÑĤÐ²ÐµÑĤ": 3621,
      "ĠÅ¡Ä¯": 3622,
      "Ð¿ÑĢÐ¾": 3623,
      "ĠÐ¿ÑĢÐ¾Ð´Ð°": 3624,
      "ĠAle": 3625,
      "torului": 3626,
      "Ġjoc": 3627,
      "Ġtem": 3628,
      "hu": 3629,
      "Ġvys": 3630,
      "ĠÄįo": 3631,
      "Ġprisi": 3632,
      "Ġok": 3633,
      "ĠâĢĿ": 3634,
      "pin": 3635,
      "Ġveiks": 3636,
      "ĠÐ¼Ð½Ðµ": 3637,
      "ĠÐºÑĥÑĢ": 3638,
      "Ġgyv": 3639,
      "Ð°Ð²": 3640,
      "Ð³Ð¾ÑĢ": 3641,
      "bilÄĥ": 3642,
      "ÑĢÐ°Ñģ": 3643,
      "Ð¾Ð¶Ð°": 3644,
      "Ġstri": 3645,
      "Ġconf": 3646,
      "ĠTik": 3647,
      "ĠÐ¢Ðµ": 3648,
      "mal": 3649,
      "ĠÑģÐ²Ð¾Ðµ": 3650,
      "oro": 3651,
      "Å¡y": 3652,
      "ĠKaun": 3653,
      "ĠÐ½Ð°Ð¿": 3654,
      "zare": 3655,
      "Ġlink": 3656,
      "ĠÑĤÑĢÑĥ": 3657,
      "teb": 3658,
      "Ð³Ð¾Ð´Ð½Ñı": 3659,
      "arul": 3660,
      "usius": 3661,
      "Ã¬nh": 3662,
      "tron": 3663,
      "Ġkap": 3664,
      "Ġsite": 3665,
      "ÐºÐ°Ð·ÑĩÐ¸": 3666,
      "eb": 3667,
      "chis": 3668,
      "Ð±Ð¾ÑĤÐ°": 3669,
      "gti": 3670,
      "Ġmeto": 3671,
      "pu": 3672,
      "ĠÐ¿ÑĢÐ¸Ð¼ÐµÐ½": 3673,
      "Ġpasiek": 3674,
      "ÑĤÐ²ÐµÑĢ": 3675,
      "antys": 3676,
      "ÑıÐ²Ð¸": 3677,
      "elÄĹs": 3678,
      "ick": 3679,
      "Ġpsi": 3680,
      "ĠÅ¡eim": 3681,
      "Ġgro": 3682,
      "ĠÑĢÐ°Ð·Ð¼Ðµ": 3683,
      "ĠÑģÐ²Ð¾Ð¹": 3684,
      "ĠÐ´Ð¾Ð¼Ð°": 3685,
      "tras": 3686,
      "ĠKai": 3687,
      "Ð³Ð´Ð°": 3688,
      "ĠÑĨÐµÐ½ÑĤ": 3689,
      "Ä®": 3690,
      "ÑĥÑİÑĤ": 3691,
      "Ġren": 3692,
      "ĠkraÅ¡": 3693,
      "Å£ine": 3694,
      "iber": 3695,
      "ÑĤÐ¸Ðµ": 3696,
      "Ġconsi": 3697,
      "ves": 3698,
      "Ġsoci": 3699,
      "torilor": 3700,
      "ĠÐ¿ÑĢÐ¾Ð±Ð»ÐµÐ¼": 3701,
      "ĠrÄĥsp": 3702,
      "34": 3703,
      "ĠÐ²Ð°Ñģ": 3704,
      "ape": 3705,
      "Ġkiti": 3706,
      "Ġmoksl": 3707,
      "lim": 3708,
      "auja": 3709,
      "ĠÐ·Ð°ÑīÐ¸": 3710,
      "ero": 3711,
      "Ġefec": 3712,
      "Ġprezen": 3713,
      "und": 3714,
      "Ġjam": 3715,
      "Ð½Ð¸Ñħ": 3716,
      "Po": 3717,
      "Ġtimpul": 3718,
      "ÑĢÑıÐ´": 3719,
      "ÐµÐ´Ðµ": 3720,
      "ĠÐ¿ÑĢÐµÐ´Ð¾": 3721,
      "ĠJÅ«sÅ³": 3722,
      "ĠvisÅ³": 3723,
      "ĠÐ·Ð°ÐºÐ¾Ð½": 3724,
      "Ġpom": 3725,
      "ÑģÑĤÐ²Ð¾Ð¼": 3726,
      "rele": 3727,
      "Ð»ÑıÑĢ": 3728,
      "ĠÑħÐ°": 3729,
      "ĠÑĩÑĥ": 3730,
      "Å¾iau": 3731,
      "aipÄĹ": 3732,
      "AB": 3733,
      "ĠMold": 3734,
      "Ġsiek": 3735,
      "ĠmÃ¢n": 3736,
      "áº¿t": 3737,
      "ĠUÅ¾": 3738,
      "Ð¼ÐµÐ½Ð½Ð¾": 3739,
      "ĠÐ¾Ð±ÑıÐ·Ð°": 3740,
      "ĠÑĤÑĢÐ°": 3741,
      "ÑĨÑĥ": 3742,
      "lia": 3743,
      "Ġproiec": 3744,
      "Ð»ÐºÐ¸": 3745,
      "Ð¼Ð¾Ð½": 3746,
      "ĠvisÄħ": 3747,
      "Ð¹ÑĤÐ¸": 3748,
      "ĠKa": 3749,
      "ÑĢÑĥÐ³": 3750,
      "ĠÑįÑĤÐ¾ÑĤ": 3751,
      "Ġoameni": 3752,
      "ila": 3753,
      "Ð´Ð¾ÑĢÐ¾Ð²": 3754,
      "ĠÐ±ÑĭÐ»Ð°": 3755,
      "ĠÑĨÐ¸": 3756,
      "Ġnepri": 3757,
      "ĠÄ¯reng": 3758,
      "Ð»ÐµÐºÑģ": 3759,
      "bus": 3760,
      "Ð¿Ð¾": 3761,
      "inimas": 3762,
      "ĠlietuviÅ³": 3763,
      "ĠÐºÑĤÐ¾": 3764,
      "áº¯": 3765,
      "Æ°á»£c": 3766,
      "ĠDom": 3767,
      "zut": 3768,
      "Ġnusi": 3769,
      "ĠÑģÐ°Ð¹ÑĤÐµ": 3770,
      "Ġdoc": 3771,
      "ĠÅ¡vent": 3772,
      "ĠÄįi": 3773,
      "Ð½Ð°Ð»Ð¸": 3774,
      "Ġsveikat": 3775,
      "2010": 3776,
      "nius": 3777,
      "zarea": 3778,
      "Ð¾Ð²Ð°Ð½": 3779,
      "ĠvalstybÄĹs": 3780,
      "Ð´ÐµÑģÑĮ": 3781,
      "gijos": 3782,
      "ĠÐºÐ¾Ð»Ð¸ÑĩÐµ": 3783,
      "Ġsex": 3784,
      "klÄħ": 3785,
      "ÐºÐ¾Ðµ": 3786,
      "jama": 3787,
      "ĠÐºÐ¾Ð¼Ð¿Ð°Ð½Ð¸Ð¸": 3788,
      "ĠÑģÐ¾Ð³Ð»Ð°": 3789,
      "ĠConstan": 3790,
      "Ġfolos": 3791,
      "Ġgerai": 3792,
      "ĠÑįÑĤÐ¾Ð¹": 3793,
      "eazÄĥ": 3794,
      "rij": 3795,
      "Ġresp": 3796,
      "raÅ¡y": 3797,
      "Ġlip": 3798,
      "tific": 3799,
      "ĠÑĥÑĩ": 3800,
      "tine": 3801,
      "ĠÑģÐ¾Ð´ÐµÑĢ": 3802,
      "ĠÐ¼Ð¾Ð¼": 3803,
      "ĠÐ¿ÑĢÐ¾Ð¸Ð·Ð²Ð¾Ð´Ð¸": 3804,
      "Ġtarn": 3805,
      "Ġcho": 3806,
      "ĠÑĢÐ¸": 3807,
      "ĠÐ°Ð²ÑĤÐ¾Ð¼Ð¾Ð±Ð¸": 3808,
      "ĠÐ²Ð¾Ð»": 3809,
      "Ġpats": 3810,
      "ist": 3811,
      "lÅ³": 3812,
      "ĠKl": 3813,
      "ÄĹjÅ³": 3814,
      "teazÄĥ": 3815,
      "ÐµÐ½Ð½Ð¾": 3816,
      "Ġmateri": 3817,
      "forma": 3818,
      "ser": 3819,
      "á»±": 3820,
      "ĠÐ¢Ð°": 3821,
      "kaus": 3822,
      "Ġacord": 3823,
      "Ð»Ð¾ÑĤ": 3824,
      "ĠVien": 3825,
      "ÃŃv": 3826,
      "Ġdomen": 3827,
      "ÑģÑĤÐ¾Ð¹": 3828,
      "Ġrezulta": 3829,
      "Ġly": 3830,
      "Ð»Ð°Ð³Ð°": 3831,
      "cin": 3832,
      "ĠÑĤÑĢÐ°Ð½": 3833,
      "ÑĪÐºÐ°": 3834,
      "Ġnebu": 3835,
      "ĠcÃ¡c": 3836,
      "ĠÐ¼Ð¾Ð¶ÐµÑĤÐµ": 3837,
      "Ġilgis": 3838,
      "ostru": 3839,
      "bas": 3840,
      "ÑĦÐµÑģÑģÐ¸": 3841,
      "bia": 3842,
      "ĠÐ°Ð½": 3843,
      "ĠstrÄĥ": 3844,
      "Ġsur": 3845,
      "ĠÐ´Ð¾ÑĢ": 3846,
      "tink": 3847,
      "ĠÐ±Ð¾Ð»ÑĮÑĪ": 3848,
      "Ġuna": 3849,
      "ĠÑģÐºÐ°": 3850,
      "Ġlauk": 3851,
      "Ġuniver": 3852,
      "ĠJis": 3853,
      "Ð»ÑĮÐ½Ð¾Ð³Ð¾": 3854,
      "ĠÑĥÐ³": 3855,
      "entas": 3856,
      "ÑīÐµÐµ": 3857,
      "lÃ¡": 3858,
      "ĠÐ¾Ð±Ð¾ÑĢ": 3859,
      "kiÅ³": 3860,
      "ĠâĢ¦": 3861,
      "ple": 3862,
      "Ġcondi": 3863,
      "Ġdos": 3864,
      "Ġperioada": 3865,
      "ĠMai": 3866,
      "ug": 3867,
      "ÐºÐ»ÑİÑĩÐ°": 3868,
      "Ġdie": 3869,
      "ĠÐļÐ°Ðº": 3870,
      "inko": 3871,
      "ĠÐ»ÐµÐ³": 3872,
      "ÐµÐ´Ð¸": 3873,
      "aliza": 3874,
      "Ġmor": 3875,
      "ins": 3876,
      "Ġmemb": 3877,
      "Ġanun": 3878,
      "Ġforma": 3879,
      "ÐŁÑĢÐ¸": 3880,
      "ĠÑĩÐµÐ»Ð¾Ð²ÐµÐº": 3881,
      "Äĥrul": 3882,
      "enia": 3883,
      "ĠÐ¿ÐµÑĢÐµÐ´": 3884,
      "bos": 3885,
      "ĠÐ¡Ð¾": 3886,
      "ÑĩÐ½ÑĭÐµ": 3887,
      "ĠÐŁÐ¾Ð´": 3888,
      "ĠÐĶÐ°": 3889,
      "Ġvin": 3890,
      "ĠÑģÑĤÐ¸": 3891,
      "ĠÐ´Ð²Ñĥ": 3892,
      "Ä¯Å¾": 3893,
      "Ã¡va": 3894,
      "zn": 3895,
      "Ġconstru": 3896,
      "ita": 3897,
      "Ġdalis": 3898,
      "Ġatsis": 3899,
      "ata": 3900,
      "Ð²Ð½Ð¾": 3901,
      "500": 3902,
      "ÑĢÐ°ÐºÑĤÐ¸": 3903,
      "áº¿n": 3904,
      "ĠktorÃ½": 3905,
      "ÑĩÐ½ÑĭÐ¹": 3906,
      "liote": 3907,
      "32": 3908,
      "andien": 3909,
      "Ġcli": 3910,
      "Ġener": 3911,
      "ÑģÑĤÐ°Ð²Ð»ÐµÐ½": 3912,
      "rit": 3913,
      "Ġinvesti": 3914,
      "ĠaiÅ¡k": 3915,
      "Äįiais": 3916,
      "Ġgyvenimo": 3917,
      "tuose": 3918,
      "ĠÐ¿ÑĢÐ¾Ð¸Ð·Ð²Ð¾Ð´": 3919,
      "Ġnevoie": 3920,
      "ÑĨÐµÐ½": 3921,
      "vÄĻ": 3922,
      "ĠÐ¿Ð¾Ð¼Ð¾Ñī": 3923,
      "Ġcine": 3924,
      "ĠÐ¼Ð°ÑĤÐµÑĢÐ¸Ð°": 3925,
      "Ġtelefon": 3926,
      "ĠÑĥÐ´Ð°": 3927,
      "Ġteritori": 3928,
      "Ġatsak": 3929,
      "ÑĨÐµÐ²": 3930,
      "US": 3931,
      "Ġnieko": 3932,
      "iseri": 3933,
      "Ġposi": 3934,
      "gan": 3935,
      "Ġkuo": 3936,
      "pie": 3937,
      "zie": 3938,
      "Ġrajono": 3939,
      "ibliote": 3940,
      "ÐµÐ»": 3941,
      "fik": 3942,
      "ÑħÐ¾Ð´Ñı": 3943,
      "IT": 3944,
      "Ġpersoane": 3945,
      "ĠexistÄĥ": 3946,
      "UR": 3947,
      "trivit": 3948,
      "ĠÐ³Ð¾ÑĢÐ¾Ð´": 3949,
      "gyvendin": 3950,
      "lici": 3951,
      "ÐµÐºÑĤÐ¸Ð²": 3952,
      "ĠvÅ¡et": 3953,
      "Ġlap": 3954,
      "Ġpana": 3955,
      "est": 3956,
      "Ġthe": 3957,
      "Ð²Ð°Ð»Ð¸": 3958,
      "ÑĪÐ¸Ð¼": 3959,
      "Ġdia": 3960,
      "Ġpozi": 3961,
      "ĠturÄĹtÅ³": 3962,
      "ÑīÐµÐ½Ð¸Ðµ": 3963,
      "ĠÐłÐ°": 3964,
      "ĠÑįÑĤÐ°": 3965,
      "ojo": 3966,
      "Ġpatir": 3967,
      "Ð²Ð°Ð½Ð¸Ðµ": 3968,
      "Ġus": 3969,
      "Ð²Ð°ÐµÐ¼": 3970,
      "Ð¼ÐµÐ½Ð¸": 3971,
      "vaiz": 3972,
      "cel": 3973,
      "ĠsÄħlyg": 3974,
      "ĠÐ¾ÑģÑĥ": 3975,
      "ĠÐ¸Ð½ÑĤÐµÑĢÐµÑģ": 3976,
      "Ð¿Ñĭ": 3977,
      "Ġstudi": 3978,
      "Ġtas": 3979,
      "Ġulti": 3980,
      "Ð½ÐµÐ³Ð¾": 3981,
      "Ð»Ð¾Ð²Ð°": 3982,
      "Ġcor": 3983,
      "Ġfir": 3984,
      "ĠJo": 3985,
      "viÄįius": 3986,
      "39": 3987,
      "ĠÐĺÑģÐ¿": 3988,
      "Ġtradi": 3989,
      "Å«rin": 3990,
      "zeazÄĥ": 3991,
      "ÑĢÑĥÐ·": 3992,
      "Ġdirek": 3993,
      "ininkÅ³": 3994,
      "ÑĤÐ¸Ð½": 3995,
      "tojam": 3996,
      "iama": 3997,
      "Ġtais": 3998,
      "Å¡iÅ³": 3999,
      "inys": 4000,
      "Ġnepa": 4001,
      "ÑĮÐµ": 4002,
      "ĠÐ®": 4003,
      "//": 4004,
      "Ġvisus": 4005,
      "Ġpab": 4006,
      "eda": 4007,
      "ĠÑģÐ¿Ð¸": 4008,
      "ĠÐ½Ð°Ð´": 4009,
      "ĠÐ¶Ð¸Ð·Ð½Ð¸": 4010,
      "Ġstre": 4011,
      "ĠÄ¾": 4012,
      "rom": 4013,
      "á»Ļt": 4014,
      "Ð¾ÑĢÐ°Ñı": 4015,
      "OS": 4016,
      "á»©": 4017,
      "Ð°Ð½Ð´": 4018,
      "ÑıÐ±ÑĢÑı": 4019,
      "ume": 4020,
      "int": 4021,
      "ĠÃ®nvÄĥ": 4022,
      "Ã¡t": 4023,
      "ĠTh": 4024,
      "Ġfiz": 4025,
      "osti": 4026,
      "ĠtÄħ": 4027,
      "ĠâĢ¢": 4028,
      "ĠÐ½Ð°Ð¿ÑĢÐ°Ð²": 4029,
      "Ġdr": 4030,
      "Ġluni": 4031,
      "ĠÄĳÆ°á»£c": 4032,
      "ls": 4033,
      "ĠtrÄĥ": 4034,
      "ĠÐºÐ¾ÑĤÐ¾ÑĢÑĭÑħ": 4035,
      "Ġacces": 4036,
      "Ġactiv": 4037,
      "Ð¾ÑĢÐµ": 4038,
      "Ġmodific": 4039,
      "ÑıÑģ": 4040,
      "ĠkultÅ«ros": 4041,
      "Ð²Ð¸ÑģÐ¸": 4042,
      "ĠÐ¼Ð°ÑĢ": 4043,
      "Ġkovo": 4044,
      "Ð¿Ð»Ð°": 4045,
      "pil": 4046,
      "elÄ¯": 4047,
      "Ġtrecut": 4048,
      "ĠÐ·ÐµÐ¼": 4049,
      "Ð¶Ð´ÐµÐ½Ð¸Ñı": 4050,
      "ĠDacÄĥ": 4051,
      "ÑĤÐµÐ»ÑĮÑģÑĤÐ²Ð°": 4052,
      "ÑĤÐ¸Ð¹": 4053,
      "ĠPet": 4054,
      "ÑĢÐ¸Ð¸": 4055,
      "ĠÐ¸ÑģÐ¿Ð¾Ð»ÑĮÐ·": 4056,
      "198": 4057,
      "ÑĦÐ¾Ð½": 4058,
      "Ġpalai": 4059,
      "ĠÑģÐºÐ°Ð·Ð°": 4060,
      "á»¥": 4061,
      "ininkai": 4062,
      "jon": 4063,
      "Ġales": 4064,
      "ĠcÃ¢teva": 4065,
      "ĠÐ²Ð½Ð¸Ð¼Ð°": 4066,
      "ĠÅ¡ios": 4067,
      "ĠRo": 4068,
      "nom": 4069,
      "ticol": 4070,
      "Ġfunk": 4071,
      "ÑģÑĤÐ²ÐµÐ½Ð½Ð¾": 4072,
      "ĠBo": 4073,
      "Ġclas": 4074,
      "Ġtad": 4075,
      "luj": 4076,
      "ĠÅŀi": 4077,
      "Ġcri": 4078,
      "==": 4079,
      "erci": 4080,
      "Ġautomobi": 4081,
      "Ġteat": 4082,
      "ÄĹjai": 4083,
      "fo": 4084,
      "ĠÐ²Ð½Ðµ": 4085,
      "kta": 4086,
      "Ġechi": 4087,
      "ateg": 4088,
      "Ġkele": 4089,
      "jau": 4090,
      "ÐºÐ¾Ð½Ð¾Ð¼Ð¸": 4091,
      "ĠÐ´ÑĢÑĥÐ³Ð¸Ñħ": 4092,
      "isc": 4093,
      "ÑĩÐ°Ñģ": 4094,
      "Ġtrebui": 4095,
      "zit": 4096,
      "Ġsukur": 4097,
      "tiniai": 4098,
      "rÃŃ": 4099,
      "ogra": 4100,
      "liek": 4101,
      "ĠÐ´Ð¾ÐºÑĥ": 4102,
      "ĠÑĩÐ¸Ñģ": 4103,
      "yv": 4104,
      "ĠÅ¾u": 4105,
      "Ð±ÑĥÑĢ": 4106,
      "Ġoamen": 4107,
      "gai": 4108,
      "tatÄĥ": 4109,
      "ĠTar": 4110,
      "dere": 4111,
      "Ð½ÐµÐ½Ð¸Ñı": 4112,
      "Ġbran": 4113,
      "ĠÑģÐ¾ÑĤ": 4114,
      "ĠÐºÐ¾ÑĤÐ¾ÑĢÐ°Ñı": 4115,
      "ĠiÅ¡k": 4116,
      "ay": 4117,
      "ĠÄįas": 4118,
      "Ĥ¬": 4119,
      "ybiÅ³": 4120,
      "Ġparticip": 4121,
      "Ġlite": 4122,
      "ÑĢÐµÐ¹": 4123,
      "entÄĥ": 4124,
      "Pas": 4125,
      "ĠÐ½ÐµÐ¿": 4126,
      "Ġpartea": 4127,
      "Å¡e": 4128,
      "Ġer": 4129,
      "Ġecon": 4130,
      "lig": 4131,
      "ÐµÐ½Ð½ÑĭÑħ": 4132,
      "Ġdan": 4133,
      "entului": 4134,
      "ÐºÑĤÐ¾ÑĢ": 4135,
      "Å£ional": 4136,
      "Ġple": 4137,
      "ÑīÐ¸Ñħ": 4138,
      "Ġfaptul": 4139,
      "ĠÐ¼Ð°Ð³Ð°Ð·Ð¸": 4140,
      "ario": 4141,
      "ĠSex": 4142,
      "ĠEste": 4143,
      "ĠÐ¸Ð¼ÐµÐµÑĤ": 4144,
      "Ġacestea": 4145,
      "alus": 4146,
      "ĠÐ·Ð°Ð´Ð°": 4147,
      "Ġsod": 4148,
      "ĠÅ¡iÅ³": 4149,
      "geri": 4150,
      "Ġmil": 4151,
      "ÑĩÐ½Ð¾Ð¹": 4152,
      "ĠRomÃ¢niei": 4153,
      "ĠÄ¯staty": 4154,
      "ĠÐŀÐ½": 4155,
      "75": 4156,
      "dÄĹjo": 4157,
      "catÄĥ": 4158,
      "Ġpareig": 4159,
      "ĠÑįÑĦÑĦ": 4160,
      "nes": 4161,
      "ule": 4162,
      "Ġfam": 4163,
      "unt": 4164,
      "ES": 4165,
      "ĠypaÄį": 4166,
      "ĠÐ¿Ð¾Ð·Ð²Ð¾Ð»Ñı": 4167,
      "inu": 4168,
      "tora": 4169,
      "://": 4170,
      "ÐµÑĢÑħ": 4171,
      "ÐµÑĢÑĭ": 4172,
      "cional": 4173,
      "zu": 4174,
      "ÑİÑīÐ¸Ð¹": 4175,
      "Ġbol": 4176,
      "Ġstat": 4177,
      "Ġobjek": 4178,
      "Ar": 4179,
      "gÄħ": 4180,
      "ÐµÐºÑĤÐ°": 4181,
      "Ġjums": 4182,
      "alia": 4183,
      "Ð¾ÑĤÑı": 4184,
      "dul": 4185,
      "carea": 4186,
      "ĠÐ½ÐµÑģÐºÐ¾Ð»ÑĮÐºÐ¾": 4187,
      "Ġdetal": 4188,
      "Ġevenim": 4189,
      "ÈĽional": 4190,
      "Ġbaz": 4191,
      "rej": 4192,
      "cie": 4193,
      "Ð±Ð»Ð¸": 4194,
      "ĠÃ®mb": 4195,
      "ÄĹmÄĹ": 4196,
      "ĠÐ°Ð²ÑĤÐ¾Ð¼Ð°": 4197,
      "ĠÑģÐ»Ðµ": 4198,
      "ĠÐ¿Ð¾ÐºÑĥ": 4199,
      "Ġdalyva": 4200,
      "ĠbunÄĥ": 4201,
      "Ð½Ð¸ÑĤÑĮ": 4202,
      "kra": 4203,
      "ÄĹjimas": 4204,
      "ĠmÃ´Å¾e": 4205,
      "Ġdy": 4206,
      "Ð´Ð¾Ð±": 4207,
      "Å¾iai": 4208,
      "ĠÑĢÐ°Ð·Ð»Ð¸Ñĩ": 4209,
      "ĠÐ²ÑģÐµÐ¼": 4210,
      "ĠĠ": 4211,
      "ÑģÑĤÐ°Ð½": 4212,
      "ĠÐ²ÑģÐµÐ³Ð´Ð°": 4213,
      "ano": 4214,
      "tici": 4215,
      "Ġabs": 4216,
      "Äįiaus": 4217,
      "ĠvaikÅ³": 4218,
      "Ġkor": 4219,
      "Å¡te": 4220,
      "bor": 4221,
      "tent": 4222,
      "ĠÐ¾Ð³": 4223,
      "Ġplat": 4224,
      "ÑĢÐµÑĤ": 4225,
      "Ġgene": 4226,
      "upa": 4227,
      "ĠiÅ¡si": 4228,
      "Ð½Ð¾Ð»Ð¾Ð³Ð¸": 4229,
      "estival": 4230,
      "ĠÑĦÑĥÐ½": 4231,
      "Ġprea": 4232,
      "tem": 4233,
      "Ġpur": 4234,
      "Ð²ÑĭÐµ": 4235,
      "atÅ«r": 4236,
      "ÄħjÄħ": 4237,
      "nului": 4238,
      "Ð¼ÐµÑĤÐ¸": 4239,
      "ĠÑģÑĤÑĢÐ¾Ð¸": 4240,
      "Å£ei": 4241,
      "ĠÐĹÐ°ÐºÐ°Ð·ÑĩÐ¸": 4242,
      "Ġdirec": 4243,
      "ĠÄ¯ran": 4244,
      "ÃŃn": 4245,
      "ĠkurÄ¯": 4246,
      "ÑģÐºÐµ": 4247,
      "ĠJu": 4248,
      "Ġtro": 4249,
      "gÄĹ": 4250,
      "Ġcir": 4251,
      "Ġprimul": 4252,
      "sle": 4253,
      "Ð¼Ð¾ÑĤÑĢÐµÑĤÑĮ": 4254,
      "ĠaÅŁa": 4255,
      "ÑĩÑĥ": 4256,
      "Ġmine": 4257,
      "lamen": 4258,
      "intas": 4259,
      "dienÄ¯": 4260,
      "alitatea": 4261,
      "Ġmic": 4262,
      "ĠDie": 4263,
      "ĠaÈĻa": 4264,
      "iuje": 4265,
      "ĠÐ¸ÑģÑĤÐ¾ÑĢÐ¸": 4266,
      "ĠÑħÐ°ÑĢÐ°Ðº": 4267,
      "Ġofici": 4268,
      "Ð´ÐµÐ½": 4269,
      "Ġeta": 4270,
      "dele": 4271,
      "Ġnostru": 4272,
      "med": 4273,
      "dan": 4274,
      "Nu": 4275,
      "ÐºÑĤÑĥ": 4276,
      "Ġgat": 4277,
      "dÅ¾iai": 4278,
      "ĠÐ²Ð¾Ð´": 4279,
      "ĠÐ¡Ð°": 4280,
      "Ġpirk": 4281,
      "ruomen": 4282,
      "Ġdoi": 4283,
      "Ġvandens": 4284,
      "Ġcunos": 4285,
      "Ã²": 4286,
      "ÑĳÐ½": 4287,
      "ĠÑģÑĤÐ°ÑĤÑĮ": 4288,
      "mare": 4289,
      "osto": 4290,
      "ÑħÑĢÐ°": 4291,
      "Ġpasiro": 4292,
      "Ġlabiau": 4293,
      "195": 4294,
      "Ġgamin": 4295,
      "ĠÐĲÑĢ": 4296,
      "âĢ¦]": 4297,
      "ieji": 4298,
      "ÑıÐ¼Ð¸": 4299,
      "ĠÐ³Ð»Ð°Ð²": 4300,
      "ĠÐ³ÑĢÑĥÐ¿": 4301,
      "dÅ¾iui": 4302,
      "ĠÐ¾ÑĦÐ¸": 4303,
      "Ġmea": 4304,
      "ÑĤÐµÐ¼": 4305,
      "ininkas": 4306,
      "ĠÐ²Ð½ÑĥÑĤ": 4307,
      "zia": 4308,
      "09": 4309,
      "ÐµÐ¹ÑĩÐ°Ñģ": 4310,
      "ĠÐ¿ÐµÑĢÐ¸": 4311,
      "ĠSk": 4312,
      "ĠÐ¡ÑĤÐ°": 4313,
      "ĠÐ³Ð¾Ð²Ð¾ÑĢÐ¸": 4314,
      "pus": 4315,
      "Ġkelion": 4316,
      "ensk": 4317,
      "ĠÐ¿Ð¾ÐºÐ°Ð·Ð°": 4318,
      "ÐºÑģÐ¸": 4319,
      "33": 4320,
      "ĠkhÃ´ng": 4321,
      "ĠdaÅ¾nai": 4322,
      "gar": 4323,
      "ĠÑĦÐ¸Ð»ÑĮ": 4324,
      "nice": 4325,
      "ĠÐļÐ¸": 4326,
      "Ġpersonal": 4327,
      "ÑĢÐµÐ²": 4328,
      "Ġpirm": 4329,
      "Ġoferi": 4330,
      "ÑıÑĤÐµÐ»ÑĮ": 4331,
      "ĠprÃ¡": 4332,
      "tinÄĻ": 4333,
      "Ð¼Ð¾ÑģÑĤÑĮ": 4334,
      "Ð«": 4335,
      "Ġaproape": 4336,
      "Ð½Ð°Ð»": 4337,
      "mov": 4338,
      "Ġsveta": 4339,
      "ĠÐ»Ð°": 4340,
      "Ġkm": 4341,
      "duca": 4342,
      "konom": 4343,
      "Ġroman": 4344,
      "ĠÐ²ÑĢÐµÐ¼ÐµÐ½Ð¸": 4345,
      "lus": 4346,
      "ĠÐ¿ÑĢÐ¾Ð²ÐµÐ´": 4347,
      "ĠÃ®nainte": 4348,
      "65": 4349,
      "ĠmÄĥs": 4350,
      "ateÄ¾": 4351,
      "mui": 4352,
      "aliu": 4353,
      "ĠÐ²Ð¸Ð´ÐµÐ¾": 4354,
      "Ġvakar": 4355,
      "tinai": 4356,
      "ĠÃİ": 4357,
      "ÑĩÑĮ": 4358,
      "dik": 4359,
      "ĠÑįÐºÑģÐ¿": 4360,
      "ĠMon": 4361,
      "Ġpres": 4362,
      "Ġlo": 4363,
      "Ġpia": 4364,
      "Ġimportan": 4365,
      "car": 4366,
      "ĠÐ±ÑĥÐ´ÑĥÑĤ": 4367,
      "Pre": 4368,
      "Ġapsaugos": 4369,
      "ĠÐ½Ð°Ð¼": 4370,
      "Ġstabili": 4371,
      "ĠvÃ¢r": 4372,
      "Ġsusid": 4373,
      "ĠÄ¯vairi": 4374,
      "Ġspalvos": 4375,
      "ĠRespubli": 4376,
      "Ġprival": 4377,
      "Ġvine": 4378,
      "Ġbene": 4379,
      "ĠDo": 4380,
      "Ġparduotu": 4381,
      "ĠuÅ¾tikrin": 4382,
      "Å«nas": 4383,
      "tuoti": 4384,
      "ĠÄ¯stai": 4385,
      "Ð¼Ð¾ÑģÑĤÐ¸": 4386,
      "ĠÐ¿Ð¾Ð»ÑĮÐ·Ð¾Ð²Ð°": 4387,
      "Ġsutar": 4388,
      "Ġtrump": 4389,
      "ĠÐ¿ÑĢÐ°ÐºÑĤÐ¸": 4390,
      "ĠÐ´Ð²Ð°": 4391,
      "ĠsudÄĹ": 4392,
      "jamas": 4393,
      "ĠÐłÐµ": 4394,
      "tit": 4395,
      "angi": 4396,
      "ÑĩÐµÑģÐºÐ°Ñı": 4397,
      "ĠÐ·Ð°Ð±": 4398,
      "ĠÐ¼Ð°ÑĪÐ¸": 4399,
      "Ġnegal": 4400,
      "ĠÐ²ÑĤÐ¾ÑĢ": 4401,
      "ģu": 4402,
      "Ð¾Ð¿Ð¸": 4403,
      "anda": 4404,
      "Ġkomand": 4405,
      "Ġtau": 4406,
      "jÅ«": 4407,
      "ula": 4408,
      "ĠÃ®ntÃ¢mp": 4409,
      "tÄĥÅ£i": 4410,
      "lioane": 4411,
      "ĠLen": 4412,
      "Ġ*": 4413,
      "Ð¶ÐµÐ½Ð¸Ðµ": 4414,
      "ĠÑģÐ¾Ð±ÑģÑĤÐ²ÐµÐ½": 4415,
      "Ã¹": 4416,
      "Ġnuolat": 4417,
      "Ġpier": 4418,
      "ĠÐĲÐ²": 4419,
      "ĠSÄĥ": 4420,
      "ws": 4421,
      "ĠÑģÐµÐ±Ðµ": 4422,
      "An": 4423,
      "Ġapoi": 4424,
      "Ð¾Ð¿Ð°Ñģ": 4425,
      "Ð¾Ð³ÑĢÐ°ÑĦÐ¸": 4426,
      "ĠKauno": 4427,
      "ĠÐļÐ¾Ð½": 4428,
      "Ð»ÑĮÐ½Ð¾Ð¹": 4429,
      "ĠÑģÐ¿ÐµÑĨÐ¸Ð°Ð»ÑĮ": 4430,
      "ĠlÄĹ": 4431,
      "Ġsale": 4432,
      "Ð»Ð°Ð³Ð¾Ð´Ð°": 4433,
      "IC": 4434,
      "ĠÐĴÐ¸": 4435,
      "Ġvii": 4436,
      "chip": 4437,
      "ĠÑģÑĩÐ¸ÑĤÐ°": 4438,
      "ĠsÄĥu": 4439,
      "ber": 4440,
      "port": 4441,
      "ĠÐ²Ð¾Ð¿ÑĢÐ¾": 4442,
      "ĠDin": 4443,
      "ĠÐ¿ÑĢÐ¾ÑĤÐ¸Ð²": 4444,
      "Ġatli": 4445,
      "ĠÐĺÐ·": 4446,
      "Ġjeigu": 4447,
      "Ð¼Ð¸Ð½Ð¸": 4448,
      "ĠÑĢÐµÐ±": 4449,
      "ÐĹÐ°": 4450,
      "Ġinten": 4451,
      "ĠÅłia": 4452,
      "ovie": 4453,
      "Ġate": 4454,
      "tÄĥzi": 4455,
      "Ġvoi": 4456,
      "tÄĥÈĽi": 4457,
      "imti": 4458,
      "Ġexperi": 4459,
      "44": 4460,
      "par": 4461,
      "Ġcl": 4462,
      "ÑģÑĤÐ¾Ñĩ": 4463,
      "Ġtoliau": 4464,
      "Ġich": 4465,
      "ÄįÃŃ": 4466,
      "Ð½ÑıÑĤÑĮ": 4467,
      "Ġbendruomen": 4468,
      "ĠAk": 4469,
      "pt": 4470,
      "deo": 4471,
      "ÑīÐ¸Ð¹": 4472,
      "ĠÑĢÑĭÐ½": 4473,
      "Ð¾Ð»Ð¾Ð¶": 4474,
      "eid": 4475,
      "ĠÐ¾Ð±Ð¾ÑĢÑĥÐ´": 4476,
      "ital": 4477,
      "ĠsÄĥnÄĥ": 4478,
      "ĠÐ¼ÑĥÐ¶": 4479,
      "cta": 4480,
      "fice": 4481,
      "ĠÐłÐ°Ð·": 4482,
      "ĠÑĥÐºÐ°Ð·Ð°": 4483,
      "ÅŁedin": 4484,
      "ĠVe": 4485,
      "ĠÐ²ÑģÑĤÑĢÐµ": 4486,
      "ÑĤÐ°Ð¼Ð¸": 4487,
      "ĠIl": 4488,
      "ĠÐ³Ð¾ÑĤÐ¾Ð²": 4489,
      "ÑģÑĤÑĢÐ°Ð½": 4490,
      "Ð½Ð°Ð½": 4491,
      "ĠKlaipÄĹ": 4492,
      "Ġmilioane": 4493,
      "ÐºÑģ": 4494,
      "ÐµÐ¼Ð°": 4495,
      "ĠÐ³Ð¾ÑĢÐ¾Ð´Ð°": 4496,
      "ĠGe": 4497,
      "á»Ł": 4498,
      "jimo": 4499,
      "kiri": 4500,
      "gh": 4501,
      "áº·": 4502,
      "Ð²Ð¸Ð´": 4503,
      "oa": 4504,
      "ĠÅ¾mogaus": 4505,
      "Ġintra": 4506,
      "____": 4507,
      "ĠÐ¼Ð¾Ð´Ðµ": 4508,
      "Ġmoteri": 4509,
      "kri": 4510,
      "Ġacela": 4511,
      "Ð½Ð°ÐºÐ¾": 4512,
      "Ġsl": 4513,
      "ingi": 4514,
      "ĠsakÄĹ": 4515,
      "ĠÐ¾Ð±ÑīÐµ": 4516,
      "ĠKal": 4517,
      "Ð½ÐµÐ¼": 4518,
      "ĠÐŁÐ¾Ñģ": 4519,
      "Ġpi": 4520,
      "Ġmy": 4521,
      "Ġgrei": 4522,
      "ĠDaug": 4523,
      "01": 4524,
      "Ġbude": 4525,
      "ÑģÑĤÐ°Ð²Ð»ÑıÐµÑĤ": 4526,
      "ĠÐ¼Ð¼": 4527,
      "Ġ:)": 4528,
      "ÑĤÐµÐ»ÑĮÐ½ÑĭÑħ": 4529,
      "ĠnoastrÄĥ": 4530,
      "Ð»ÐµÐ½Ð¸Ð¸": 4531,
      "Ġdeja": 4532,
      "ĠNr": 4533,
      "ĠÐ¼Ð½Ð¾Ð³Ð¸": 4534,
      "ĠvarÅ¾": 4535,
      "Ġstan": 4536,
      "naz": 4537,
      "ĠÄĲ": 4538,
      "uota": 4539,
      "vÄĹje": 4540,
      "Å¡ka": 4541,
      "Ġbendro": 4542,
      "ĠÅ¡vies": 4543,
      "ÑģÑĤÐ²Ð¸Ðµ": 4544,
      "uit": 4545,
      "ĠÐ¡Ðµ": 4546,
      "toja": 4547,
      "ÑıÐ´": 4548,
      "aÅ¡": 4549,
      "rak": 4550,
      "Ġedi": 4551,
      "ĠÐļÑĥ": 4552,
      "ĠÐºÑĥÐ¿Ð¸ÑĤÑĮ": 4553,
      "ĠdesfÄĥ": 4554,
      "ĠÅ¾mogus": 4555,
      "Ġtada": 4556,
      "Ġgydy": 4557,
      "ÑĢÐµÐ¿": 4558,
      "ĠkitÄħ": 4559,
      "irÅ¾": 4560,
      "ĠMoldova": 4561,
      "Ġnauj": 4562,
      "alios": 4563,
      "resc": 4564,
      "ĠTur": 4565,
      "Ãły": 4566,
      "Ġ[âĢ¦]": 4567,
      "Ðĸ": 4568,
      "Ġgaran": 4569,
      "sis": 4570,
      "Ġvais": 4571,
      "ĠÐ½ÐµÐº": 4572,
      "ĠÐ¿Ð¾Ð±": 4573,
      "tup": 4574,
      "nÃ½m": 4575,
      "amnÄĥ": 4576,
      "ĠÐ¼ÐµÑģÑı": 4577,
      "Ġsukn": 4578,
      "ĠÐºÐ½Ð¸": 4579,
      "unde": 4580,
      "Ġsufle": 4581,
      "Ġband": 4582,
      "Ġtoks": 4583,
      "tomis": 4584,
      "Ġdidesn": 4585,
      "ĠInter": 4586,
      "ÑģÐºÑĥÑİ": 4587,
      "Ġglo": 4588,
      "Å«ri": 4589,
      "Ġart": 4590,
      "alÅ³": 4591,
      "ĠÃ®ÅŁi": 4592,
      "ĠÐļÐ¾Ð¼": 4593,
      "Ġnuosta": 4594,
      "Ġstru": 4595,
      "2009": 4596,
      "ĠÐ½Ð°ÑģÑĤÐ¾Ñı": 4597,
      "nis": 4598,
      "SD": 4599,
      "sili": 4600,
      "Ð²ÑĢÐ°": 4601,
      "ĠÐ¶Ð¸Ð²": 4602,
      "ÑĨÐ¸Ð¾Ð½Ð°Ð»ÑĮ": 4603,
      "Ð¸Ð»Ð¸": 4604,
      "etul": 4605,
      "Ġnustaty": 4606,
      "Ġpasid": 4607,
      "ĠÃ®ÈĻi": 4608,
      "vertin": 4609,
      "Ġpet": 4610,
      "ĠÑĥÐ¿": 4611,
      "Ð»ÑĥÐ±": 4612,
      "ĠÐ£ÐºÑĢÐ°": 4613,
      "Ġdienos": 4614,
      "Ġtrong": 4615,
      "ĠÐ´Ð¾Ð²": 4616,
      "Ġprivi": 4617,
      "Ġpasako": 4618,
      "ĠÑħÐ¾ÑĢÐ¾ÑĪ": 4619,
      "ird": 4620,
      "âĢĶ": 4621,
      "Ġvá»Ľi": 4622,
      "ĠÐ¿Ð¾Ð´Ð´ÐµÑĢ": 4623,
      "Å«d": 4624,
      "ovi": 4625,
      "ÈĻe": 4626,
      "Ġvertin": 4627,
      "ĠÐ·Ð´Ð¾ÑĢÐ¾Ð²": 4628,
      "raj": 4629,
      "ena": 4630,
      "Ġtermin": 4631,
      "Ġreu": 4632,
      "Ð´Ð¸Ð²Ð¸": 4633,
      "Ð½Ð¸ÑĨÐ°": 4634,
      "lusi": 4635,
      "Ð¾Ð»Ð°": 4636,
      "Ġmá»Ļt": 4637,
      "Ġbuv": 4638,
      "Ġatliek": 4639,
      "Ð¾ÑĢÑĤÐ°": 4640,
      "ĠvisiÅ¡kai": 4641,
      "Ġnuom": 4642,
      "Ġdeven": 4643,
      "ÑĩÐ°ÑĤ": 4644,
      "Ð¿ÑĢÐ¸Ð¼ÐµÑĢ": 4645,
      "Ġcontro": 4646,
      "ĠÐ±ÐµÑģÐ¿Ð»Ð°ÑĤÐ½Ð¾": 4647,
      "ĠÂ¦": 4648,
      "pion": 4649,
      "Ġvisada": 4650,
      "ĠÐ²Ð¾ÑĤ": 4651,
      "stul": 4652,
      "Ġmums": 4653,
      "zo": 4654,
      "Ġfem": 4655,
      "ÑĤÑĥÑĢ": 4656,
      "loc": 4657,
      "iua": 4658,
      "Ġmokes": 4659,
      "Ð·Ð¼": 4660,
      "AI": 4661,
      "Ġbibliote": 4662,
      "Ġhtt": 4663,
      "sto": 4664,
      "Ġperi": 4665,
      "adÄĥ": 4666,
      "ĠÐ»ÑİÐ±Ð¸": 4667,
      "iÅ¡": 4668,
      "Äĥrii": 4669,
      "Ġapy": 4670,
      "ento": 4671,
      "48": 4672,
      "ÑĭÑĤ": 4673,
      "Ð»Ð¾Ð½": 4674,
      "intÄĥ": 4675,
      "ĠÑĨÐµÐ½": 4676,
      "ÐµÐ»Ð¸": 4677,
      "ukÅ¡": 4678,
      "avo": 4679,
      "th": 4680,
      "ÅŁit": 4681,
      "Ġlume": 4682,
      "Ġpasaulio": 4683,
      "ĠÐ¿ÑĢÐµÐ´Ð»Ð¾Ð¶": 4684,
      "osius": 4685,
      "Ð¡Ð¢": 4686,
      "Ġatveju": 4687,
      "ĠÐ¿Ð¾Ð»ÑĥÑĩ": 4688,
      "Ġfak": 4689,
      "Ġkurio": 4690,
      "ĠDid": 4691,
      "rÄĻ": 4692,
      "Ġblog": 4693,
      "Ġneat": 4694,
      "ubi": 4695,
      "ĠÐ»ÑİÐ´ÐµÐ¹": 4696,
      "ÑĢÐ¸Ð°Ð½": 4697,
      "Äįias": 4698,
      "pia": 4699,
      "Ð¿ÐµÑĢÐ°": 4700,
      "inÅ³": 4701,
      "Ġcred": 4702,
      "05": 4703,
      "ĠÐ¶ÐµÐ½ÑīÐ¸": 4704,
      "timi": 4705,
      "rob": 4706,
      "ĠÅ¾ino": 4707,
      "gim": 4708,
      "Ġdiferi": 4709,
      "ĠÑĤÐ°Ð¼": 4710,
      "niÅ³": 4711,
      "ĠTok": 4712,
      "ĠÑĢÐµÐ¼Ð¾Ð½": 4713,
      "Â«": 4714,
      "ĠÐ¾Ð±Ñĭ": 4715,
      "Ġpuikiai": 4716,
      "Ġlocul": 4717,
      "ĠLu": 4718,
      "ÑĩÐ½ÑĭÑħ": 4719,
      "Ġiden": 4720,
      "ategori": 4721,
      "Ġvietos": 4722,
      "07": 4723,
      "Ã¡lne": 4724,
      "ĠÐºÐ²Ð°ÑĢ": 4725,
      "ĠuÅ¾sien": 4726,
      "ÑĥÐµÑĤÑģÑı": 4727,
      "die": 4728,
      "ÅŁe": 4729,
      "ĠÐ²Ð°Ð¶": 4730,
      "Lietuvos": 4731,
      "eÅ¡ko": 4732,
      "áº¡n": 4733,
      "Un": 4734,
      "Ġbeveik": 4735,
      "lea": 4736,
      "ĠlaikÄħ": 4737,
      "Con": 4738,
      "ĠPor": 4739,
      "ÑĩÐµÐ³Ð¾": 4740,
      "tek": 4741,
      "ĠÐ¸Ð·Ð¼ÐµÐ½": 4742,
      "ĠgÃ¢nd": 4743,
      "Ġrus": 4744,
      "Ġjiems": 4745,
      "ĠÐ¸Ð½ÑĤÐµÑĢÐ½ÐµÑĤ": 4746,
      "ĠKaip": 4747,
      "Ð²Ñı": 4748,
      "ram": 4749,
      "ĠÑĩÐ°ÑģÑĤ": 4750,
      "vor": 4751,
      "ÑĳÑĤ": 4752,
      "ET": 4753,
      "ÑģÑĤÑĢÐ°ÑĨÐ¸Ð¸": 4754,
      "Ġspa": 4755,
      "Ġbro": 4756,
      "Ġsvo": 4757,
      "ĠÑģÐ¿ÐµÑĨÐ¸Ð°Ð»Ð¸": 4758,
      "ĠÐ¿ÑĢÐ¾ÑĦÐµÑģÑģÐ¸": 4759,
      "ĠvaÅ¾": 4760,
      "ÄĤ": 4761,
      "ÑĤÐµÑĢÐ°": 4762,
      "ienos": 4763,
      "ĠnamÅ³": 4764,
      "Ġatrodo": 4765,
      "ĠÐ¿ÑĢÐµÐ´Ð¿ÑĢÐ¸": 4766,
      "unile": 4767,
      "ĠÐ¾ÐºÐ°Ð·Ð°": 4768,
      "cri": 4769,
      "ah": 4770,
      "ĠÑĪÐ°": 4771,
      "ÑĪÐ°Ñı": 4772,
      "ÑģÑĥÑĤ": 4773,
      "ĠÑĢÑĥÑģ": 4774,
      "Ġmer": 4775,
      "Ġpatvirtin": 4776,
      "toriaus": 4777,
      "ĠCar": 4778,
      "rauk": 4779,
      "tams": 4780,
      "ÑĢÐ¾Ð²Ð°Ð½Ð¸Ñı": 4781,
      "Ġdvie": 4782,
      "ĠvÄĹliau": 4783,
      "ĠÑģÑĭ": 4784,
      "ĠÑģÐ²Ð¾Ñİ": 4785,
      "Ġmoter": 4786,
      "Ġpapildom": 4787,
      "ï¿½ï¿½ï¿½ï¿½": 4788,
      "Ġba": 4789,
      "ĠÐ´ÐµÑıÑĤÐµÐ»ÑĮ": 4790,
      "tak": 4791,
      "Ð¼ÐµÐ½ÑĤ": 4792,
      "Ġactivi": 4793,
      "tam": 4794,
      "--------": 4795,
      "Ġvedere": 4796,
      "áº§n": 4797,
      "ÑĩÐµÐ±": 4798,
      "vÃ¡": 4799,
      "Ġoro": 4800,
      "kius": 4801,
      "ĠÑģÐ²Ð¾ÐµÐ¹": 4802,
      "Ġrankov": 4803,
      "Ġonline": 4804,
      "lÄĹs": 4805,
      "Ð¾Ð±ÑĢÐ°Ð·": 4806,
      "tinÄ¯": 4807,
      "tojams": 4808,
      "rut": 4809,
      "imis": 4810,
      "Ð±Ð¾Ð»ÑĮ": 4811,
      "ĠÃ®ntÃ¢lni": 4812,
      "Ġrek": 4813,
      "ĠÑģÐ»Ð¾Ð¶": 4814,
      "Ġnov": 4815,
      "ĠÐ¸Ð½ÑģÑĤÑĢÑĥ": 4816,
      "ÑģÑĤÐ°ÑĤÐ¾": 4817,
      "Ġemo": 4818,
      "Ġlem": 4819,
      "Ġtapo": 4820,
      "Ġfinans": 4821,
      "cute": 4822,
      "Æ°á»Ľ": 4823,
      "ÑģÑģÐ»ÐµÐ´": 4824,
      "inh": 4825,
      "Ġmag": 4826,
      "Ġkv": 4827,
      "55": 4828,
      "Ð»Ð¾Ð³": 4829,
      "Ġanti": 4830,
      "ĠÐ·Ð½Ð°ÑĩÐ¸": 4831,
      "Ġaby": 4832,
      "Ġcur": 4833,
      "ĠÐ°Ð¿": 4834,
      "Ġsocie": 4835,
      "ĠÃ®ng": 4836,
      "ĠSÄħ": 4837,
      "Ġvasar": 4838,
      "ptÄĥmÃ¢n": 4839,
      "Ġdob": 4840,
      "ĠÐ¾Ð¿ÐµÑĢÐ°": 4841,
      "Ġtaik": 4842,
      "Ġref": 4843,
      "ÑģÐ½Ð¾": 4844,
      "Ġgen": 4845,
      "Ġnereik": 4846,
      "Ġefek": 4847,
      "lav": 4848,
      "ÑĤÐµÐ»ÑĮÐ½Ð¾Ð¹": 4849,
      "Ġelec": 4850,
      "my": 4851,
      "zdÅ¾iui": 4852,
      "ĠpÄĥrin": 4853,
      "Ġinstru": 4854,
      "cutÄĥ": 4855,
      "tav": 4856,
      "âĢ¢": 4857,
      "ĠalÄĥ": 4858,
      "Ġatsp": 4859,
      "ÐµÑĢÑĤ": 4860,
      "Äĥri": 4861,
      "AM": 4862,
      "ĠÑĤÑĢÐ¸": 4863,
      "Ġvisas": 4864,
      "ĠTau": 4865,
      "Ð´Ð¶": 4866,
      "Pri": 4867,
      "Ġproiect": 4868,
      "Ð¸Ð·Ð¸": 4869,
      "Ġnebuvo": 4870,
      "ĠÑĢÐ°ÑģÑģÐºÐ°": 4871,
      "Ġnoastre": 4872,
      "Ã¡cie": 4873,
      "adem": 4874,
      "ÑĭÑĤÐ°": 4875,
      "iausiÅ³": 4876,
      "cte": 4877,
      "ÑĪÐµÐ»": 4878,
      "ĠÃ®ncer": 4879,
      "Ġsaus": 4880,
      "ĠdatÄĥ": 4881,
      "cid": 4882,
      "300": 4883,
      "pras": 4884,
      "Ġprista": 4885,
      "nÄĹs": 4886,
      "ĠÐ¾Ð±Ð»Ð°ÑģÑĤÑĮ": 4887,
      "ĠQ": 4888,
      "Ġwww": 4889,
      "org": 4890,
      "ÄĹjau": 4891,
      "Ġindivid": 4892,
      "ĠÄ¯gyvendin": 4893,
      "tautin": 4894,
      "Ġarti": 4895,
      "ÑĩÐµÑĢ": 4896,
      "itÄĥÈĽi": 4897,
      "ĠÐ¶ÐµÐ»Ð°": 4898,
      "ĠreiÅ¡k": 4899,
      "Ġatstov": 4900,
      "ĠPal": 4901,
      "enÃ©": 4902,
      "aÅ¾ny": 4903,
      "ĠpregÄĥ": 4904,
      "Ġitin": 4905,
      "ĠÑĥÑĩÐ¸": 4906,
      "ĠÐ½Ð°Ð·": 4907,
      "ĠÃ®nd": 4908,
      "ĠÑģÐ¾Ð²ÐµÑĢ": 4909,
      "Ġperson": 4910,
      "Ġvaiz": 4911,
      "Æ°á»Ŀi": 4912,
      "elia": 4913,
      "Ġpabai": 4914,
      "Par": 4915,
      "ÑĤÐµÐ»ÐµÐ¼": 4916,
      "Ġstraipsn": 4917,
      "Ġanga": 4918,
      "ĠÐ²Ð¾Ð·Ð¼Ð¾Ð¶Ð½Ð¾ÑģÑĤÑĮ": 4919,
      "ĠÐ·Ð°Ð½Ð¸Ð¼Ð°": 4920,
      "Ġsezon": 4921,
      "Ð´ÐµÐ»Ð¸": 4922,
      "Ġlung": 4923,
      "ĠÅ¡ok": 4924,
      "Ġliber": 4925,
      "Ð²ÐµÑģÑĤÐ¸": 4926,
      "ĠrÃ¢nd": 4927,
      "Ġcan": 4928,
      "ĠÑĩÐ°ÑģÑĤÐ¸": 4929,
      "Ġtamp": 4930,
      "zii": 4931,
      "ĠÐĲÐ½": 4932,
      "Ð¿Ð°ÑĢÐ°": 4933,
      "Ġajuns": 4934,
      "turii": 4935,
      "ĠÐ½Ð°ÑĢÑĥ": 4936,
      "Ġavem": 4937,
      "Ġzo": 4938,
      "ex": 4939,
      "ĠTV": 4940,
      "ĠÐľÑĭ": 4941,
      "mente": 4942,
      "Ġtarptautin": 4943,
      "Ġek": 4944,
      "Ġet": 4945,
      "Ð¿Ð¸ÑĤÐ°": 4946,
      "turilor": 4947,
      "itÄĥÅ£i": 4948,
      "ole": 4949,
      "tual": 4950,
      "Ġkan": 4951,
      "ÐºÑĥÑĢ": 4952,
      "Ð½ÐµÐ²": 4953,
      "ĠmoÅ¾": 4954,
      "ĠÐ½ÐµÐ¼": 4955,
      "Ġasigu": 4956,
      "nai": 4957,
      "ĠÐ¾ÑģÑĥÑīÐµÑģÑĤÐ²": 4958,
      "ĠsavivaldybÄĹs": 4959,
      "Ġsako": 4960,
      "Ġveiklos": 4961,
      "ÑĤÐµÐ»ÑĮÐ½ÑĭÐµ": 4962,
      "iniais": 4963,
      "nas": 4964,
      "ÑĢÐ¾Ð¼Ðµ": 4965,
      "tne": 4966,
      "ĠÐ½ÐµÐ³Ð¾": 4967,
      "ade": 4968,
      "ĠÐŀÐ´": 4969,
      ");": 4970,
      "ĠÐ¿Ð¸ÑĤÐ°": 4971,
      "sty": 4972,
      "ĠneiÅ¡": 4973,
      "Ġproced": 4974,
      "ĠÑıÐ·Ñĭ": 4975,
      "ĠÐ¸Ð¼ÐµÐ½Ð½Ð¾": 4976,
      "repÅ¡": 4977,
      "Ġml": 4978,
      "mer": 4979,
      "ĠAces": 4980,
      "ĠÐĽÐ¸": 4981,
      "gat": 4982,
      "ĠRusi": 4983,
      "ĠteisÄĹs": 4984,
      "ĠvietÄħ": 4985,
      "08": 4986,
      "ÑĤÐ¸ÑĤÑĮ": 4987,
      "Ð½ÐµÐ½": 4988,
      "Ġtal": 4989,
      "Ġfolosi": 4990,
      "ÐµÐ»ÑĮ": 4991,
      "Ġang": 4992,
      "Ġpirmin": 4993,
      "Å¾ius": 4994,
      "cent": 4995,
      "Ð³Ð»Ð°": 4996,
      "ÑĦÐ¸ÐºÐ°": 4997,
      "ĠTran": 4998,
      "ĠÄ¯dom": 4999,
      "Ð°Ð»Ñĭ": 5000,
      "Ġscris": 5001,
      "ÑģÑĤÑĢÐ¸": 5002,
      "Ġacolo": 5003,
      "ĠpirmÄħ": 5004,
      "ĠÐ³Ð¾ÑģÑĥÐ´Ð°ÑĢÑģÑĤÐ²ÐµÐ½": 5005,
      "ĠHo": 5006,
      "ÑĥÐ¼Ð°": 5007,
      "ĠÅ¡vie": 5008,
      "bit": 5009,
      "ĠsuÅ¾": 5010,
      "Ġspun": 5011,
      "Ġgeneral": 5012,
      "ĠChi": 5013,
      "ukas": 5014,
      "uojan": 5015,
      "Ġvadin": 5016,
      "Ġvanden": 5017,
      "Ġorgan": 5018,
      "laid": 5019,
      "registra": 5020,
      "ĠÐºÐ¾Ð½ÑĤÑĢ": 5021,
      "Ġpaci": 5022,
      "Ġspecialis": 5023,
      "Ġvisai": 5024,
      "ĠÅ¡alies": 5025,
      "ĠÐµÐ¼Ñĥ": 5026,
      "ĠÐ°ÐºÑĤÐ¸Ð²": 5027,
      "reunÄĥ": 5028,
      "Æ°Æ¡": 5029,
      "ĠÑĥÐ´Ð¾Ð±": 5030,
      "ÑĨÐ¸ÐµÐ¹": 5031,
      "Ġsug": 5032,
      "los": 5033,
      "Ġkolek": 5034,
      "ĠJuo": 5035,
      "ÐķÑģÐ»Ð¸": 5036,
      "run": 5037,
      "Ġkry": 5038,
      "ĠII": 5039,
      "Ġuniversite": 5040,
      "Äĥn": 5041,
      "Ġkontro": 5042,
      "Ð½Ñİ": 5043,
      "uotas": 5044,
      "**": 5045,
      "ujÃº": 5046,
      "ÑĭÐ¼Ð¸": 5047,
      "para": 5048,
      "ÑĤÐµÐ½": 5049,
      "klÅ³": 5050,
      "Ð¿ÐµÑĢÑĮ": 5051,
      "ĠÐ¼ÐµÐ´Ð¸": 5052,
      "skri": 5053,
      "Ð½Ð°Ð¼Ð¸": 5054,
      "Ġlumea": 5055,
      "Ġdor": 5056,
      "Ġprac": 5057,
      "ĠMinis": 5058,
      "Ġprezid": 5059,
      "Ð´Ð°ÑĤÑĮ": 5060,
      "atal": 5061,
      "ĠdeÅ¡im": 5062,
      "Ġmeu": 5063,
      "derea": 5064,
      "rect": 5065,
      "bÅ«t": 5066,
      "Ġoch": 5067,
      "Å¡kas": 5068,
      "ĠÐ¸Ð·Ð²ÐµÑģÑĤ": 5069,
      "Ġdiza": 5070,
      "68": 5071,
      "ĠPoli": 5072,
      "ĠkeÄı": 5073,
      "ÑĳÐ¼": 5074,
      "ĠÑģÐ´ÐµÐ»Ð°ÑĤÑĮ": 5075,
      "ÑģÑĤÐ²Ð¸Ñı": 5076,
      "gyti": 5077,
      "Ð´Ð°ÐµÑĤ": 5078,
      "ikal": 5079,
      "Ġasmens": 5080,
      "Ġdefek": 5081,
      "ĠÑģÐ¾Ð²ÑĢÐµÐ¼ÐµÐ½": 5082,
      "ÑģÑĤÐ¾ÑıÐ½": 5083,
      "Ġtechnologi": 5084,
      "Ġgreu": 5085,
      "Ġnaud": 5086,
      "ĠÑĩÐµÐ»Ð¾Ð²ÐµÐºÐ°": 5087,
      "ÈĽionale": 5088,
      "ĠÐ¿ÑĢÐµÐ´ÑģÑĤÐ°Ð²Ð¸": 5089,
      "Å£iilor": 5090,
      "ĠbÄĥr": 5091,
      "Ġgars": 5092,
      "ÑģÑĤÑĥÐ¿Ð°": 5093,
      "Ð³Ð»Ñı": 5094,
      "pir": 5095,
      "ÐŁÐ¾": 5096,
      "Ġekonom": 5097,
      "Ġbez": 5098,
      "ÈĻit": 5099,
      "otri": 5100,
      "ĠÐ¼ÐµÑģÑĤ": 5101,
      "Ġechip": 5102,
      "Ġug": 5103,
      "ĠNuo": 5104,
      "toriÅ³": 5105,
      "Ġiz": 5106,
      "Ð³Ð¾ÑĢÐ¸": 5107,
      "ikÅ¡": 5108,
      "Ġzon": 5109,
      "ÐºÐ°Ð·ÑĭÐ²Ð°": 5110,
      "Ġore": 5111,
      "ija": 5112,
      "ĠÐ²ÑĢÐ°": 5113,
      "ĠÐ¿Ð¾Ð¼Ðµ": 5114,
      ".âĢľ": 5115,
      "tum": 5116,
      "ÑĢÑĤ": 5117,
      "ĠCÄĥ": 5118,
      "Ġkvie": 5119,
      "ĠnatÅ«r": 5120,
      "torin": 5121,
      "uz": 5122,
      "Ġsteb": 5123,
      "Ġamin": 5124,
      "uliÅ³": 5125,
      "Æ°á»Ŀng": 5126,
      "Ġimag": 5127,
      "iá»ģu": 5128,
      "cra": 5129,
      "Ġcarac": 5130,
      "Ð¾ÑĢÐ¼Ð°": 5131,
      "ĠVie": 5132,
      "ĠÐ¿Ð¾ÑįÑĤÐ¾Ð¼Ñĥ": 5133,
      "ĠÑģÐ¸ÑģÑĤÐµÐ¼Ñĭ": 5134,
      "ĠplÄĹ": 5135,
      "Ġlini": 5136,
      "ĠÐ¿Ð¾Ð²Ñĭ": 5137,
      "Ġjaus": 5138,
      "ĠRespublikos": 5139,
      "ĠÐ´Ð²ÑĥÑħ": 5140,
      "Ð¾Ð·Ð°": 5141,
      "ĠPra": 5142,
      "ÑīÐµÐ¼": 5143,
      "ÑģÐµÐ¼": 5144,
      "Ð½Ð°Ð´": 5145,
      "Ġcompe": 5146,
      "ĠsÄĹk": 5147,
      "ĠÐ¡Ð¸": 5148,
      "ÑĢÐ°Ð·Ñĥ": 5149,
      "ÑģÐ¾": 5150,
      "ÑĤÑı": 5151,
      "Ġvenit": 5152,
      "ĠBra": 5153,
      "inai": 5154,
      "Å£ionale": 5155,
      "rijos": 5156,
      "tÃ¡": 5157,
      "ĠÑģÐ¿Ð°": 5158,
      "Ġdv": 5159,
      "ĠÑĢÐ¾ÑģÑģÐ¸": 5160,
      "aie": 5161,
      "Ġkep": 5162,
      "ĠÐ¤ÐµÐ´Ðµ": 5163,
      "ĠÐ²Ð¸Ð´": 5164,
      "ĠAmeri": 5165,
      "2008": 5166,
      "ĠÐ´ÐµÑĤÐµÐ¹": 5167,
      "Ġmoment": 5168,
      "Ġkuriame": 5169,
      "ĠÑģÐ°Ð¹ÑĤÐ°": 5170,
      "ans": 5171,
      "Å¾iu": 5172,
      "iembrie": 5173,
      "ĠSta": 5174,
      "asta": 5175,
      "ÑīÐ¸Ðµ": 5176,
      "ĠadevÄĥ": 5177,
      "ÑĦÐ°": 5178,
      "EL": 5179,
      "Ãłng": 5180,
      "ĠÄ¯sp": 5181,
      "ÅĪa": 5182,
      "Ð¹ÑģÐºÐ¾Ð¹": 5183,
      "Ġado": 5184,
      "ĠKon": 5185,
      "Ð¾Ð»Ð¾Ð²": 5186,
      "Ġdeclarat": 5187,
      "Ġkompiu": 5188,
      "á»ĵ": 5189,
      "ĠÑĤÐµÑħÐ½Ð¾Ð»Ð¾Ð³Ð¸": 5190,
      "ĠConsili": 5191,
      "Ġnegali": 5192,
      "Ġviskas": 5193,
      "ĠprieÅ¾as": 5194,
      "Ġpoz": 5195,
      "ĠÐ²Ð°ÑĢÐ¸Ð°Ð½": 5196,
      "ÑĩÐ½Ð¾Ð³Ð¾": 5197,
      "andid": 5198,
      "ĠÅ¾emÄĹs": 5199,
      "ÐºÐ¾Ð³Ð¾": 5200,
      "lui": 5201,
      "Ġapd": 5202,
      "Ð²Ð°ÑİÑĤÑģÑı": 5203,
      "Vis": 5204,
      "aliai": 5205,
      "ĠSo": 5206,
      "lal": 5207,
      "Ġskirting": 5208,
      "Ġpatal": 5209,
      "ĠÐ¿Ð»Ð¾ÑīÐ°": 5210,
      "Ġvos": 5211,
      "ĠneÅ¡io": 5212,
      "ĠÐ²Ð¼Ðµ": 5213,
      "Ġvil": 5214,
      "ĠtoatÄĥ": 5215,
      "ÑĩÐ¸ÑĤÑĮ": 5216,
      "imais": 5217,
      "Ġstil": 5218,
      "ĠÐ¿ÑĢÐµÐ´Ð»Ð°Ð³Ð°": 5219,
      "ÐµÑĤÑĮ": 5220,
      "ÑĤÐµÐ»ÑĮÐ½ÑĭÐ¹": 5221,
      "ÑģÑĤÐ²Ð¸Ð¸": 5222,
      "Ġplas": 5223,
      "rod": 5224,
      "ĠÅ¡is": 5225,
      "ĠÐ¿ÑĢÐ°": 5226,
      "cre": 5227,
      "ĠÐ±ÐµÐ·Ð¾Ð¿Ð°Ñģ": 5228,
      "amÄħ": 5229,
      "Ä¾ad": 5230,
      "Ġprogram": 5231,
      "Ġbl": 5232,
      "ÑĩÐµÑģÐºÐ¾Ðµ": 5233,
      "ĠÐ²Ð¾Ð¿ÑĢÐ¾Ñģ": 5234,
      "siu": 5235,
      "ĠmiÅ¡k": 5236,
      "rasti": 5237,
      "ĠÐ¿ÑĢÐ¾ÑĪ": 5238,
      "viai": 5239,
      "ĠkrepÅ¡": 5240,
      "Jei": 5241,
      "ioje": 5242,
      "Ġcurs": 5243,
      "Ġmokyklos": 5244,
      "Ġatlik": 5245,
      "ĠÄ¯k": 5246,
      "Ð½Ð¸ÑĨÑĭ": 5247,
      "Ġnurody": 5248,
      "Ã¢ngÄĥ": 5249,
      "Ġnak": 5250,
      "ĠmaÅ¾iau": 5251,
      "Ð»Ð»Ð¸": 5252,
      "Ãłnh": 5253,
      "Ġsveikatos": 5254,
      "Ġsanty": 5255,
      "vyko": 5256,
      "Ġapa": 5257,
      "ĠÐ²Ð¾Ð¹": 5258,
      "utÄĹs": 5259,
      "erul": 5260,
      "ĠÑģÐ¾ÑĤÑĢÑĥÐ´": 5261,
      "Å¡a": 5262,
      "á»¯ng": 5263,
      "Ġpasku": 5264,
      "Ġpublic": 5265,
      "Ġinformacijos": 5266,
      "ĠÑĤÐ°ÐºÐ¾Ð¹": 5267,
      "Ð»ÐºÐ°": 5268,
      "Ġkaina": 5269,
      "uy": 5270,
      "Ġtrup": 5271,
      "dep": 5272,
      "ĠES": 5273,
      "06": 5274,
      "ĠturÄĹjo": 5275,
      "ĠÑĥÐ½Ð¸": 5276,
      "bl": 5277,
      "ĠieÅ¡ko": 5278,
      "ÑĢÐ¾Ð²Ð°Ð½Ð¸Ðµ": 5279,
      "dio": 5280,
      "ĠgalÄĹs": 5281,
      "Ġlup": 5282,
      "diul": 5283,
      "ÐĻ": 5284,
      "ĠÐ¿ÑĢÐ¾ÐµÐºÑĤ": 5285,
      "áº£n": 5286,
      "Ġenerg": 5287,
      "Ġvietoje": 5288,
      "Ġscop": 5289,
      "pal": 5290,
      "ĠÐ·Ð°Ð²Ð¸ÑģÐ¸": 5291,
      "Ð±Ð¸ÑĢÐ°": 5292,
      "Ġsepte": 5293,
      "At": 5294,
      "ĠSlov": 5295,
      "ĠÐ£ÐºÑĢÐ°Ð¸": 5296,
      "Ġcam": 5297,
      "ĠÐ¼Ð°Ñģ": 5298,
      "uomet": 5299,
      "Ġaktyv": 5300,
      "Ġneturi": 5301,
      "ĠÐ·Ð´ÐµÑģÑĮ": 5302,
      "ral": 5303,
      "Ġminute": 5304,
      "03": 5305,
      "Ġdov": 5306,
      "Ð·Ð¸Ð½Ð¾": 5307,
      "Ġkuriuos": 5308,
      "Ġsemn": 5309,
      "ĠÑģÐ¼Ðµ": 5310,
      "ÐµÑĤÐµÑĢ": 5311,
      "tick": 5312,
      "urul": 5313,
      "bin": 5314,
      "Ġpsich": 5315,
      "anÄįios": 5316,
      "UL": 5317,
      "ĠÅ¡eÅ¡": 5318,
      "tros": 5319,
      "ÑģÐºÐ¾Ð²": 5320,
      "book": 5321,
      "\":": 5322,
      "1945": 5323,
      "Tai": 5324,
      "Ġskelb": 5325,
      "ÐĿÐµ": 5326,
      "ĠdÄĥ": 5327,
      "ĠsÄĥptÄĥmÃ¢n": 5328,
      "áº£i": 5329,
      "ĠÐ½ÐµÐºÐ¾ÑĤÐ¾ÑĢ": 5330,
      "IM": 5331,
      "Ð²ÑĢÐ¾Ð¿": 5332,
      "Ġvreme": 5333,
      "tesn": 5334,
      "dera": 5335,
      "Se": 5336,
      "Ġpersoan": 5337,
      "IÅ¡": 5338,
      "ÑģÑĤÐ²ÑĥÐµÑĤ": 5339,
      "ÑĢÐ¸ÑĤÐ¾ÑĢÐ¸": 5340,
      "Ġvaland": 5341,
      "ĠÑģÐµÐ³Ð¾Ð´Ð½Ñı": 5342,
      "kou": 5343,
      "))": 5344,
      "ĠPÄĥ": 5345,
      "zate": 5346,
      "ĠÑĢÐµÐ±ÐµÐ½": 5347,
      "Ġdide": 5348,
      "umÄĥ": 5349,
      "aci": 5350,
      "vok": 5351,
      "ĠÐ¿ÑĢÐ¾Ð´Ð¾Ð»": 5352,
      "ilia": 5353,
      "iamas": 5354,
      "ĠJe": 5355,
      "ĠEurope": 5356,
      "net": 5357,
      "klÄĹ": 5358,
      "VI": 5359,
      "ĠÑĤÐ¾Ð¶Ðµ": 5360,
      "ÈĽei": 5361,
      "oarÄĥ": 5362,
      "Ġasocia": 5363,
      "77": 5364,
      "ĠVi": 5365,
      "ĠÐ»ÑĥÑĩÑĪÐµ": 5366,
      "Ġorigin": 5367,
      "dÄĹs": 5368,
      "ĠÐ¸Ð´Ðµ": 5369,
      "ire": 5370,
      "Å¾ÄĹ": 5371,
      "Ġacestui": 5372,
      "ĠÐ´Ð¾ÑģÑĤÑĥÐ¿": 5373,
      "ĠÐ¸Ð³ÑĢÑĭ": 5374,
      "ĠprieÅ¾i": 5375,
      "ÑĩÐµÐ¼": 5376,
      "Ġbar": 5377,
      "ĠÐ²ÑģÑĳ": 5378,
      "nt": 5379,
      "ĠMes": 5380,
      "ĠkuriÄħ": 5381,
      "Ġafla": 5382,
      "04": 5383,
      "ĠÑģÐ²Ð¾Ð¸Ñħ": 5384,
      "Ġdrept": 5385,
      "bilitatea": 5386,
      "pek": 5387,
      "Ġelektron": 5388,
      "Ġexem": 5389,
      "ĠÐ»Ð¸ÑĨ": 5390,
      "Ð»ÑĮÐ½Ð°Ñı": 5391,
      "Ð»ÐµÑĢ": 5392,
      "ĠPrin": 5393,
      "ĠÑģÑĤÐ°Ð½": 5394,
      "Ġnema": 5395,
      "ĠÐ¿ÑĢÐ¾Ð¸Ñģ": 5396,
      "ĠÑĥÑģÐ¿Ðµ": 5397,
      "ĠÃ®mi": 5398,
      "Ġbat": 5399,
      "Ð½ÑĥÑĤÑĮ": 5400,
      "Ġcontinu": 5401,
      "Ġvom": 5402,
      "Ð½Ð¾Ð²Ð¸": 5403,
      "toÄį": 5404,
      "Ġnimic": 5405,
      "Ġkei": 5406,
      "ĠÐ½Ð°ÑĩÐ¸Ð½Ð°": 5407,
      "99": 5408,
      "ÑģÐ¾Ð¼": 5409,
      "Ġdispozi": 5410,
      "Ġtehn": 5411,
      "Å«rÄĹ": 5412,
      "volu": 5413,
      "Ġnebe": 5414,
      "ĠÄ¯vairiÅ³": 5415,
      "ÄĹjimÄħ": 5416,
      "ukai": 5417,
      "ĠÐ¼ÐµÑģÑĤÐ¾": 5418,
      "Ġpros": 5419,
      "jer": 5420,
      "Ġnoiembrie": 5421,
      "ĠÈĽ": 5422,
      "Ġgeriaus": 5423,
      "ÑĥÐµÑĤ": 5424,
      "nic": 5425,
      "ĠÃ®mpreunÄĥ": 5426,
      "ĠÂ·": 5427,
      "entai": 5428,
      "ĠÐºÑĢÐ¸": 5429,
      "ĠÄ¯ta": 5430,
      "ÄĹlÄĹ": 5431,
      "ĠÅ¡ie": 5432,
      "ĠÐ´Ð½ÐµÐ¹": 5433,
      "ÐĿÐĺ": 5434,
      "usti": 5435,
      "auna": 5436,
      "ĠÑĩÐµÑĢ": 5437,
      "Ġnauja": 5438,
      "ĠÐ´ÑĢÑĥÐ³Ð¸Ðµ": 5439,
      "ĠSkai": 5440,
      "Ġreprezen": 5441,
      "ĠÑģÐ²ÐµÑĤ": 5442,
      "ĠÑģÐ¾Ð´ÐµÑĢÐ¶Ð°": 5443,
      "Ġlang": 5444,
      "Ġjas": 5445,
      "ĠÈĺi": 5446,
      "ĠGer": 5447,
      "atului": 5448,
      "ĠpasiÅ«ly": 5449,
      "ÐŀÐ±": 5450,
      "ĠngÆ°á»Ŀi": 5451,
      "Ġameri": 5452,
      "ĠÐŁÐµÑĢ": 5453,
      "ĠÐ±Ð»Ð¸": 5454,
      "chÃ¡d": 5455,
      "ĠÐ¿ÑĢÐ¸Ð½Ñı": 5456,
      "loje": 5457,
      "vr": 5458,
      "ĠjÅ«s": 5459,
      "Ð·Ð°ÑĨÐ¸Ñı": 5460,
      "ĠÑĥÐ²Ðµ": 5461,
      "ĠÑįÐºÐ¾Ð½Ð¾Ð¼Ð¸": 5462,
      "ĠÅ¾ini": 5463,
      "ĠJums": 5464,
      "ĠÑĩÐ¸": 5465,
      "ĠÑĥÑĩÐ°ÑģÑĤÐ¸": 5466,
      "Ġobiec": 5467,
      "Ð¾Ð½ÑĤÐ°": 5468,
      "ĠÐ¡Ð¾Ð²": 5469,
      "ÑģÐ¾Ðº": 5470,
      "Ġvarto": 5471,
      "ĠÐ³Ð°Ð·": 5472,
      "Ð´ÑĥÐµÑĤ": 5473,
      "Å¡kos": 5474,
      "ĠfaÅ£Äĥ": 5475,
      "oloÄį": 5476,
      "vat": 5477,
      "ĠÐ¿Ð¾Ð»ÑĥÑĩÐ°": 5478,
      "ĠÐ±Ð¸Ð·": 5479,
      "ĠastÄĥzi": 5480,
      "ĠkrÅ«": 5481,
      "Ġypat": 5482,
      "unie": 5483,
      "ÐºÐ°Ð¼": 5484,
      "ÑĤÐ¸ÑĢÑĥ": 5485,
      "ĠÐ²Ð¾Ð·Ð´Ñĥ": 5486,
      "Ġboli": 5487,
      "ĠFran": 5488,
      "ĠÐ²ÑĭÐ±": 5489,
      "Ġsusitik": 5490,
      "Ð¾Ð·Ñı": 5491,
      "terin": 5492,
      "OM": 5493,
      "ĠÐĶÐ¸": 5494,
      "ĠÐ¾ÑĩÐµ": 5495,
      "Ġkrau": 5496,
      "Ġvisa": 5497,
      "ĠÅ¡iÄħ": 5498,
      "Ġmieste": 5499,
      "ÑĤÑĥÑĢÑĭ": 5500,
      "ĠÃ®nto": 5501,
      "Ġrank": 5502,
      "46": 5503,
      "ÐµÐ½ÑĤÑĭ": 5504,
      "ÐĴÑĭ": 5505,
      "ĠtokiÅ³": 5506,
      "Ġzd": 5507,
      "ÄĮ": 5508,
      "ĠÐ¡ÐµÑĢ": 5509,
      "ĠMun": 5510,
      "Ġministeri": 5511,
      "ĠÑĢÐµÐºÐ»Ð°": 5512,
      "lica": 5513,
      "Ġfotograf": 5514,
      "ĠÑĦÐ¾ÑĤÐ¾": 5515,
      "ĠÑģÐ²ÑıÐ·Ð°": 5516,
      "cij": 5517,
      "ĠÐ½Ð°ÑħÐ¾Ð´Ð¸": 5518,
      "Ġkov": 5519,
      "ĠamÅ¾iaus": 5520,
      "pene": 5521,
      "Ġerd": 5522,
      "Ð¾Ñı": 5523,
      "ity": 5524,
      "ĠRus": 5525,
      "der": 5526,
      "tinka": 5527,
      "Ġvol": 5528,
      "ĠÐ¿Ð¾ÑģÑĤÐ¾ÑıÐ½": 5529,
      "anevÄĹ": 5530,
      "Ġaface": 5531,
      "lusiv": 5532,
      "Ġdocum": 5533,
      "ĠfacÄĥ": 5534,
      "Ġcerce": 5535,
      "ĠÄı": 5536,
      "onÅ³": 5537,
      "sen": 5538,
      "terior": 5539,
      "ĠJAV": 5540,
      "Ġbaza": 5541,
      "leg": 5542,
      "ĠaflÄĥ": 5543,
      "Ġfur": 5544,
      "kstan": 5545,
      "Ð¾ÑĢÐ¾Ð½": 5546,
      "Ġverslo": 5547,
      "ĠgÄĹ": 5548,
      "ÐºÐ¾Ð¼ÐµÐ½": 5549,
      "aukÅ¡": 5550,
      "Ġcin": 5551,
      "Ġscen": 5552,
      "Ġvz": 5553,
      "vaÅ¥": 5554,
      "Ġbani": 5555,
      "meazÄĥ": 5556,
      "ĠPran": 5557,
      "ymo": 5558,
      "ĠÑģÑĤÐ¾Ð¸ÑĤ": 5559,
      "Äįiame": 5560,
      "ÑĢÐ°Ð·Ð´": 5561,
      "Ð²Ð°Ð»": 5562,
      "Ġui": 5563,
      "Ġalb": 5564,
      "Ġdoua": 5565,
      "ybes": 5566,
      "Ġiubi": 5567,
      "ĠÑĤÐµÑĢÑĢÐ¸ÑĤÐ¾ÑĢÐ¸": 5568,
      "Ġket": 5569,
      "ferin": 5570,
      "Ġvls": 5571,
      "ĠVokie": 5572,
      "Ġstal": 5573,
      "ĠBri": 5574,
      "ĠÐºÐ¾ÑĤÐ¾ÑĢÐ¾Ð¹": 5575,
      "ĠÐ¼ÐµÑĢ": 5576,
      "Ġsistema": 5577,
      "42": 5578,
      "ĠAf": 5579,
      "ĠÑĤÑĢÐ°Ð½ÑģÐ¿": 5580,
      "ĠGo": 5581,
      "lÄħ": 5582,
      "ĠcÄĥr": 5583,
      "ĠleidÅ¾ia": 5584,
      "Æ°Æ¡ng": 5585,
      "kiant": 5586,
      "ĠÐºÐ°ÑĩÐµÑģÑĤÐ²Ðµ": 5587,
      "ÑĢÐ°Ñħ": 5588,
      "Ġ&": 5589,
      "Ġbune": 5590,
      "ĠÐ»Ð¸Ð±Ð¾": 5591,
      "Ð¼Ð°ÑĤÐ¸": 5592,
      "ĠÐ½Ð°Ð¸": 5593,
      "ĠpuÈĽin": 5594,
      "Å¾ÄĹs": 5595,
      "Ġsm": 5596,
      "rump": 5597,
      "ĠÑĤÑĢÐµ": 5598,
      "tÄĥÅ£ii": 5599,
      "ĠÐ´Ð¸Ð·Ð°": 5600,
      "rist": 5601,
      "Ġtinka": 5602,
      "ÑĤÐ¾ÑĢÑĭ": 5603,
      "ybiÅ¡k": 5604,
      "deda": 5605,
      "Å¾vel": 5606,
      "Ð»ÑıÐµÑĤÑģÑı": 5607,
      "Ġha": 5608,
      "Ġeconom": 5609,
      "irb": 5610,
      "Ġrecom": 5611,
      "tarp": 5612,
      "Ð¼Ð°Ð½": 5613,
      "Ð¾ÑĢÐ¾Ð½Ñĭ": 5614,
      "Å¡kÅ³": 5615,
      "ĠIo": 5616,
      "ĠÐ¼Ð¾ÑĢ": 5617,
      "Ġzona": 5618,
      "Ġstar": 5619,
      "Ġsusij": 5620,
      "Ġeil": 5621,
      "ÐºÑĨÐ¸Ñı": 5622,
      "Ġegz": 5623,
      "ĠÑĤÐµÑĩÐµÐ½Ð¸Ðµ": 5624,
      "ÑģÐ¼Ð¾ÑĤ": 5625,
      "ĠnhÆ°": 5626,
      "Ð¾Ð±ÑĢÐ°": 5627,
      "Ġjuri": 5628,
      "Ġgauti": 5629,
      "fin": 5630,
      "ÑĥÐ»ÑıÑĢ": 5631,
      "Ġpune": 5632,
      "dea": 5633,
      "ĠÐĳÐ°": 5634,
      "Ð¾Ð½Ñĭ": 5635,
      "Pentru": 5636,
      "ĠCent": 5637,
      "ĠVilniuje": 5638,
      "ÑĦÐ¾ÑĢÐ¼": 5639,
      "Ġnhá»¯ng": 5640,
      "ĠdÅ¾iau": 5641,
      "ĠÑģÐ»Ð¾Ð²Ð°": 5642,
      "Ġpalik": 5643,
      "Ġfaci": 5644,
      "ĠÐ¿Ð¾Ð¼Ð¾ÑīÑĮÑİ": 5645,
      "ĠNo": 5646,
      "Ġsil": 5647,
      "ÑĤÐµÐ»ÑĮÐ½Ð¾Ð³Ð¾": 5648,
      "Ð»Ð¸Ð²": 5649,
      "tombrie": 5650,
      "ĠÐ¸Ð³ÑĢÐ¾Ð²": 5651,
      "Ġapri": 5652,
      "Ġmici": 5653,
      "Ġgru": 5654,
      "Ã´so": 5655,
      "ĠÄ¯vertin": 5656,
      "ĠâĤ¬": 5657,
      "02": 5658,
      "ingÄħ": 5659,
      "ĠBucureÅŁti": 5660,
      "ĠTra": 5661,
      "vÃ¢n": 5662,
      "Ãłn": 5663,
      "ĠÐ½Ð°Ð´Ðµ": 5664,
      "ĠFe": 5665,
      "Ġvairuo": 5666,
      "ĠÐ½Ð°Ð´Ð¾": 5667,
      "Ġata": 5668,
      "cembrie": 5669,
      "ĠÑģÑĥÐ¼": 5670,
      "Ð¾Ð²Ð¾Ð¹": 5671,
      "ĠÑĩÐ°ÑģÑĤÑĮ": 5672,
      "ĠÐ·Ð°Ð½Ñı": 5673,
      "tali": 5674,
      "tiko": 5675,
      "ĠÐ¼Ð¸Ð½ÑĥÑĤ": 5676,
      "Ġkomis": 5677,
      "ĠÐ´Ð¾ÑģÑĤÐ°Ð²": 5678,
      "Ġscur": 5679,
      "viz": 5680,
      "Ġgero": 5681,
      "timas": 5682,
      "2000": 5683,
      "ĠÑģÐµÐ¹ÑĩÐ°Ñģ": 5684,
      "Ġplauk": 5685,
      "cces": 5686,
      "Ġaten": 5687,
      "cijoje": 5688,
      "Ð¾ÑģÐ¸": 5689,
      "ges": 5690,
      "Ġfond": 5691,
      "Ġcrea": 5692,
      "ĠÑĢÐ°Ð´Ð¸": 5693,
      "ÐºÑĤÑĭ": 5694,
      "otriva": 5695,
      "150": 5696,
      "ÐµÐµ": 5697,
      "Ġkurioje": 5698,
      "uÅ¡": 5699,
      "ÑĢÐ°Ð±Ð¾ÑĤÐ°": 5700,
      "ĠÐºÑĢÐ¾Ð²": 5701,
      "imin": 5702,
      "ĠJie": 5703,
      "ĠdarbÄħ": 5704,
      "ĠÐ¸ÑģÑģÐ»ÐµÐ´": 5705,
      "ĠsÄĹ": 5706,
      "ĠaltÄĥ": 5707,
      "til": 5708,
      "ĠUAB": 5709,
      "Ð½ÑıÑı": 5710,
      "ĠÑģÐ°Ð¹ÑĤ": 5711,
      "ĠVid": 5712,
      "ĠidÄĹj": 5713,
      "enÃŃ": 5714,
      "fica": 5715,
      "Ġnek": 5716,
      "Ð»Ð¾Ð¹": 5717,
      "mail": 5718,
      "Ġseptembrie": 5719,
      "klai": 5720,
      "coperi": 5721,
      "ĠAce": 5722,
      "ĠCluj": 5723,
      "ĠsumaÅ¾": 5724,
      "2007": 5725,
      "ÐļÐ°": 5726,
      "odatÄĥ": 5727,
      "áº§u": 5728,
      "ĠTodÄĹl": 5729,
      "Ġkito": 5730,
      "ĠBar": 5731,
      "vine": 5732,
      "vies": 5733,
      "trul": 5734,
      "ÈĻedin": 5735,
      "ĠRad": 5736,
      "Ġarticol": 5737,
      "Ġlit": 5738,
      "Ð´Ð²Ð¸": 5739,
      "Ġpilie": 5740,
      "ĠÄ¯vyk": 5741,
      "Ġridic": 5742,
      "Ð¬": 5743,
      "anta": 5744,
      "ĠÑĤÐµÑħÐ½Ð¸": 5745,
      "49": 5746,
      "Ġkalba": 5747,
      "ĠÐ¸Ñİ": 5748,
      "ĠÐ´ÐµÐ²Ñĥ": 5749,
      "jungos": 5750,
      "vimÄħ": 5751,
      "Ġini": 5752,
      "tiva": 5753,
      "ĠkokybÄĹs": 5754,
      "ĠÑįÐ»ÐµÐ¼": 5755,
      "Ġoamenii": 5756,
      "ÐµÐ½Ð½ÑĭÐµ": 5757,
      "Ġcas": 5758,
      "ĠDa": 5759,
      "Ġjeho": 5760,
      "ĠÐ¿ÑĢÐ¾ÑĨÐµÑģÑģ": 5761,
      "ĠAng": 5762,
      "ef": 5763,
      "Ġtermen": 5764,
      "ĠÑģÑĢÐ¾Ðº": 5765,
      "ĠpuÅ£in": 5766,
      "Ġpon": 5767,
      "Ġmoder": 5768,
      "ĠIar": 5769,
      "Ġsolu": 5770,
      "umu": 5771,
      "ÑĩÐµÐ¹": 5772,
      "ĠÐľÐµ": 5773,
      "Ġnem": 5774,
      "Å£ul": 5775,
      "Ġins": 5776,
      "ĠgrupÄĹs": 5777,
      "Ð¼ÐµÑĢÐ¸": 5778,
      "Ġminim": 5779,
      "dia": 5780,
      "ĠÐĴÐ°Ð¼": 5781,
      "Ð´ÐºÐ¸": 5782,
      "ĠÐ¿Ð¾ÑĢÐ½Ð¾": 5783,
      "ĠÑģÑĩÐµÑĤ": 5784,
      "vÃ½": 5785,
      "ĠÐ¿ÑĢÐ¸Ð¾Ð±": 5786,
      "Ġnemok": 5787,
      "nych": 5788,
      "Ġplace": 5789,
      "Ġnumele": 5790,
      "Å«nÅ³": 5791,
      "Ġrung": 5792,
      "Ġmalon": 5793,
      "ĠÐºÐ¾Ð½Ðµ": 5794,
      "Ġcentro": 5795,
      "ĠÐ´ÐµÑĢÐµ": 5796,
      "ĠkaÅ¾k": 5797,
      "Ġand": 5798,
      "uch": 5799,
      "ĠThe": 5800,
      "ĠÄĳá»Ļ": 5801,
      "Ġkalbos": 5802,
      "Ġkreip": 5803,
      "Ġpasaulyje": 5804,
      "ĠÑģÑĥÑīÐµÑģÑĤÐ²": 5805,
      "Ð²Ð»Ð¸": 5806,
      "ÑĪÐ¸Ð½": 5807,
      "Ġgreitai": 5808,
      "Ġsporto": 5809,
      "Ġpost": 5810,
      "nou": 5811,
      "Å¡ia": 5812,
      "Ġfestival": 5813,
      "Ġerau": 5814,
      "taus": 5815,
      "ĠÑģÑģÑĭ": 5816,
      "ÑĢÐ°Ð¼": 5817,
      "Ġobli": 5818,
      "iri": 5819,
      "kymo": 5820,
      "ĠÐ¿Ð¾Ð¸": 5821,
      "ĠÐłÐ¤": 5822,
      "ĠÑĢÐµÐ³Ñĥ": 5823,
      "Ġmane": 5824,
      "antas": 5825,
      "Ġaug": 5826,
      "tÄĥr": 5827,
      "Ð¶Ð¸ÑĤ": 5828,
      "ĠrÄĥmÃ¢n": 5829,
      "ÑħÐ¾Ð´Ð°": 5830,
      "jami": 5831,
      "Ġconta": 5832,
      "Ġmaisto": 5833,
      "ÈĽul": 5834,
      "ĠÅ¾ais": 5835,
      "ĠÐ´Ð¾ÑģÑĤÐ¸": 5836,
      "ÑĦÐµÑĢ": 5837,
      "ĠÅ¡iandien": 5838,
      "Ġpatik": 5839,
      "Ġpul": 5840,
      "Ġstip": 5841,
      "Ġpatys": 5842,
      "ĠÐ¿ÑĢÐ¸Ð·Ð½Ð°": 5843,
      "Ġnamuose": 5844,
      "Ġstandar": 5845,
      "ÐµÑĤÐµÑĢÐ±ÑĥÑĢ": 5846,
      "ĠÑģÐ°Ð¼Ð¾": 5847,
      "antÄ¯": 5848,
      "Ġinterna": 5849,
      "Ġskat": 5850,
      "ĠÑĢÐ¾Ð´Ð¸": 5851,
      "ĠÐ¾ÑĢÐ³Ð°Ð½Ð¸Ð·": 5852,
      "iá»ĩn": 5853,
      "Ġapskri": 5854,
      "ĠbÅ«du": 5855,
      "ĠgÄĥs": 5856,
      "versi": 5857,
      "Ġautomobil": 5858,
      "ise": 5859,
      ".).": 5860,
      "klas": 5861,
      "Ġmajo": 5862,
      "ĠoferÄĥ": 5863,
      "Ġsave": 5864,
      "mÃ¢nt": 5865,
      "Ġreikalav": 5866,
      "Ġgri": 5867,
      "mÄĻ": 5868,
      "ĠÑģÑĥÐ´": 5869,
      "ĠÐ´Ð²Ðµ": 5870,
      "ĠLenki": 5871,
      "ÐĺÐ½": 5872,
      "Ġstrate": 5873,
      "ÑĤÐµÐ³Ð¾ÑĢÐ¸": 5874,
      "Ġproduse": 5875,
      "Ġefectu": 5876,
      "istÄĥ": 5877,
      "ÑĢÐ¾Ð´Ð°": 5878,
      "Ġ%": 5879,
      "tume": 5880,
      "Ġnesu": 5881,
      "ÑĨÐ¸Ð½": 5882,
      "kej": 5883,
      "Ġgeriau": 5884,
      "Ð¶Ñĥ": 5885,
      "Ġnap": 5886,
      "bru": 5887,
      "tica": 5888,
      "Å¾y": 5889,
      "ĠMok": 5890,
      "Ġoctombrie": 5891,
      "Ġprem": 5892,
      "Ð½Ð°ÑĢÐ¾Ð´": 5893,
      "Ġfapt": 5894,
      "rui": 5895,
      "ĠÐ·Ð°ÑıÐ²": 5896,
      "Ġblo": 5897,
      "isk": 5898,
      "Ð»ÐµÐ½Ð¸Ð¹": 5899,
      "Ð»ÑĮÐ½Ð¾Ðµ": 5900,
      "ĠÐ´Ð¸Ð°": 5901,
      "Ġutiliza": 5902,
      "ÑīÑĳ": 5903,
      "bri": 5904,
      "ĠÅ½em": 5905,
      "Ġluat": 5906,
      "ÈĽiilor": 5907,
      "Ð½Ð°Ñħ": 5908,
      "Ġngh": 5909,
      "irÅ¡": 5910,
      "dÅ¾ios": 5911,
      "liais": 5912,
      "ĠSte": 5913,
      "ĠinformacijÄħ": 5914,
      "ĠeurÅ³": 5915,
      "ĠgrÄ¯Å¾": 5916,
      "nÅ³": 5917,
      "Ġpasik": 5918,
      "Ð²Ð°Ð½": 5919,
      "Ġpublice": 5920,
      "Am": 5921,
      "Ġmodel": 5922,
      "ĠÅ¾ia": 5923,
      "tut": 5924,
      "ÑĩÐ°ÑģÑĤ": 5925,
      "ph": 5926,
      "tika": 5927,
      "IA": 5928,
      "Åłi": 5929,
      "ÐºÑĤÐ¸": 5930,
      "utÄĹ": 5931,
      "amin": 5932,
      "red": 5933,
      "Ġruo": 5934,
      "vita": 5935,
      "ĠaikÅ¡": 5936,
      "ÑĨÐµÐ¿": 5937,
      "Ð²Ð°ÑĤÑĮÑģÑı": 5938,
      "ÑĢÐ°ÑĨÐ¸Ð¸": 5939,
      "itÄĥÅ£ii": 5940,
      "ĠÐ¿Ð°ÑĢÐ°": 5941,
      "ĠÑģÐ»ÑĥÐ¶": 5942,
      "ĠÐºÑĥÐ»ÑĮ": 5943,
      "Ġapar": 5944,
      "Ġkoncer": 5945,
      "ĠÐ³ÑĢÐ°Ð¶": 5946,
      "ĠÐ¾ÑĤÐ»Ð¸": 5947,
      "Ð¾Ð¼Ð¸Ð½Ð°": 5948,
      "ĠÅ¡aliÅ³": 5949,
      "ĠdaÅ¾niausiai": 5950,
      "Ð»ÐµÐ½Ð°": 5951,
      "Ġnuotrauk": 5952,
      "ĠÑĢÐµÐ¶Ð¸": 5953,
      "Æ°á»Ľc": 5954,
      "ĠÐ»Ð¸ÑĪÑĮ": 5955,
      "ĠÐ¿ÑĢÐ¾Ð¼": 5956,
      "ĠÑģÐ¾Ð±Ð¾Ð¹": 5957,
      "ĠvÃ¢n": 5958,
      "terul": 5959,
      "ĠÐ¾ÐºÑĢÑĥ": 5960,
      ".),": 5961,
      "ÑģÑĤÐ°ÑĤÐ¾ÑĩÐ½Ð¾": 5962,
      "ĠÐºÑĢÐµÐ´Ð¸": 5963,
      "Ġpotrivit": 5964,
      "atas": 5965,
      "Ġklub": 5966,
      "ĠLabai": 5967,
      "nio": 5968,
      "ĠlÃ¢ngÄĥ": 5969,
      "Ġetc": 5970,
      "Ġner": 5971,
      "oarece": 5972,
      "ĠÄ¯monÄĹs": 5973,
      "Ġvaikams": 5974,
      "ld": 5975,
      "ĠdÃ´": 5976,
      "ĠSfÃ¢n": 5977,
      "ĠMaÅ¾": 5978,
      "47": 5979,
      "ĠÑĤÐ¾ÑĢÐ³Ð¾Ð²": 5980,
      "ĠGuver": 5981,
      "Ġcauza": 5982,
      "Ġpel": 5983,
      "Ġsolici": 5984,
      "Ġkartus": 5985,
      "ÑĤÑĥÐ°": 5986,
      "Ð¾ÑĤÑĭ": 5987,
      "Ġpake": 5988,
      "Ġgau": 5989,
      "ĠpradÄĹjo": 5990,
      "67": 5991,
      "Ġprelu": 5992,
      "ĠÐ¸ÑģÐºÐ»Ñİ": 5993,
      "ÐºÑĤÐ¾Ð²": 5994,
      "Ġvisiems": 5995,
      "amÄĥ": 5996,
      "teis": 5997,
      "ĠÐºÑĢÑĥÐ¿": 5998,
      "Ġnaudoti": 5999,
      "Ð»Ð°Ð´Ð¸": 6000,
      "Ġvirtu": 6001,
      "Ġporeik": 6002,
      "Ð¼ÐµÑĩÐ°": 6003,
      "OT": 6004,
      "Ġvlas": 6005,
      "á»ģ": 6006,
      "197": 6007,
      "Ġimportant": 6008,
      "Ãłi": 6009,
      "trÃ¢n": 6010,
      "ĠÑĢÐµÑĪÐ¸": 6011,
      "iami": 6012,
      "ĠÐ¾Ð±ÑĢÐ°Ð·Ð¾Ð¼": 6013,
      "Ð²Ð°Ñİ": 6014,
      "viu": 6015,
      "ĠÐ´Ð°Ð»ÑĮ": 6016,
      "ÑĬÐµÐ¼": 6017,
      "ĠÑģÐ²ÑıÐ·Ð¸": 6018,
      "ĠÅ¡eimos": 6019,
      "ĠJude": 6020,
      "2006": 6021,
      "Ġbent": 6022,
      "ðŁ": 6023,
      "ĠÐ²Ð¾Ð·ÑĢÐ°": 6024,
      "ĠÐµÑĳ": 6025,
      "laik": 6026,
      "ÑĩÐ¸Ð½": 6027,
      "giu": 6028,
      "Ġlaikas": 6029,
      "Ġbendradar": 6030,
      "):": 6031,
      "ĠÐ¿Ð¾Ð´Ð¾Ð±": 6032,
      "Äĸ": 6033,
      "Ġfemei": 6034,
      "asis": 6035,
      "ĠgalÄĹtÅ³": 6036,
      "Ġaugal": 6037,
      "ĠlucrÄĥ": 6038,
      "Ġveri": 6039,
      "Ġeduca": 6040,
      "ĠscÄĥ": 6041,
      "ĠPop": 6042,
      "Ġfeme": 6043,
      "ĠJi": 6044,
      "ĠÐ±ÐµÑĢÐµ": 6045,
      "torie": 6046,
      "ĠÐºÐ¾Ð»Ð¸ÑĩÐµÑģÑĤÐ²Ð¾": 6047,
      "vent": 6048,
      "ĠÑĤÐµÐ¿": 6049,
      "alele": 6050,
      "ĠBi": 6051,
      "ĠÐ½ÐµÐ¹": 6052,
      "ĠmuncÄĥ": 6053,
      "Ġajun": 6054,
      "Å£ionalÄĥ": 6055,
      "arg": 6056,
      "Ġrezer": 6057,
      "tinink": 6058,
      "ĠÑĢÐµÐºÐ¾Ð¼ÐµÐ½": 6059,
      "Ġkariuomen": 6060,
      "ulie": 6061,
      "ĠktorÃ¡": 6062,
      "ĠÐ¿Ð¾Ð·Ð²Ð¾Ð»ÑıÐµÑĤ": 6063,
      "Ġgaus": 6064,
      "kreip": 6065,
      "py": 6066,
      "Ġviso": 6067,
      "ĠÐ½ÐµÐ¾Ð±ÑħÐ¾Ð´Ð¸Ð¼": 6068,
      "ĠVas": 6069,
      "ĠÐ±ÑĥÐ´Ñĥ": 6070,
      "Ð¾Ð½Ð¾Ð²": 6071,
      "lii": 6072,
      "ĠÅ¡iek": 6073,
      "abar": 6074,
      "cijai": 6075,
      "nie": 6076,
      "Ð¨ÐĲ": 6077,
      "klausom": 6078,
      "ĠFor": 6079,
      "ĠnouÄĥ": 6080,
      "itas": 6081,
      "tÄĥri": 6082,
      "Ġtex": 6083,
      "ĠÑĢÐ°ÑģÑĤ": 6084,
      "ĠÐ´ÐµÐ½ÑĮÐ³Ð¸": 6085,
      "cen": 6086,
      "ĠÑĢÐµÐ°Ð»ÑĮ": 6087,
      "ĠÑģÐ¾ÑĨÐ¸Ð°Ð»ÑĮ": 6088,
      "cÅ«": 6089,
      "ĠÐŁÐ°": 6090,
      "tud": 6091,
      "Ġpatru": 6092,
      "Ġkasdien": 6093,
      "inka": 6094,
      "ĠÐ²ÑĭÐ±Ð¾ÑĢ": 6095,
      "Ð¾Ð¶Ð´ÐµÐ½Ð¸Ñı": 6096,
      "ĠÑĢÑĥÐ±Ð»ÐµÐ¹": 6097,
      "ĠÃ®nse": 6098,
      "ĠÑĤÐµÐ»ÐµÑĦÐ¾Ð½": 6099,
      "ÑĢÐ¸Ð¹": 6100,
      "Ġeli": 6101,
      "Ð·Ð¾Ð²": 6102,
      "kla": 6103,
      "Ġmax": 6104,
      "Ġtokia": 6105,
      "Ġpuo": 6106,
      "ĠÐ¸Ð½ÑĦÐ¾ÑĢÐ¼Ð°ÑĨÐ¸Ð¸": 6107,
      "!!!": 6108,
      "umin": 6109,
      "ĠfaÈĽÄĥ": 6110,
      "Ġkita": 6111,
      "ĠviskÄħ": 6112,
      "Ġprofesional": 6113,
      "ÑīÐ°ÐµÑĤ": 6114,
      "Ġtrece": 6115,
      "ĠÑħÐ¾Ñĩ": 6116,
      "ĠEur": 6117,
      "icul": 6118,
      "ĠpadÄĹ": 6119,
      "turor": 6120,
      "Ð»Ð¾Ð¿": 6121,
      "ÑģÐ¸ÑĤ": 6122,
      "ĠuÈĻ": 6123,
      "Ġpaskelb": 6124,
      "Ð´ÐµÐ»ÑĮ": 6125,
      "ĠSer": 6126,
      "Ġdomeniul": 6127,
      "ĠÐ¼ÑĥÐ·Ñĭ": 6128,
      "Ġschimb": 6129,
      "ĠRepubli": 6130,
      "trin": 6131,
      "toriai": 6132,
      "Ġconduce": 6133,
      "ĠspoloÄį": 6134,
      "ÃŃs": 6135,
      "ÑĤÐºÐ¸": 6136,
      "ĠÐ¿ÐµÑĢÑģ": 6137,
      "ĠbÅ«klÄĹs": 6138,
      "fes": 6139,
      "ĠÐ¼Ð¸Ð½Ð¸": 6140,
      "raus": 6141,
      "gno": 6142,
      "ĠÑĤÐµÐº": 6143,
      "ĠÐ½Ð°Ð·ÑĭÐ²Ð°": 6144,
      "Ð»ÐµÐ½Ð¸ÐµÐ¼": 6145,
      "Ġanului": 6146,
      "Ð¾Ð·Ð¸": 6147,
      "ĠdidÅ¾i": 6148,
      "ĠJeigu": 6149,
      "ĠMare": 6150,
      "Ġconte": 6151,
      "Ġvisos": 6152,
      "oji": 6153,
      "Ð³ÑĢÐ°Ð½Ð¸": 6154,
      "Ġiunie": 6155,
      "ament": 6156,
      "Ġperk": 6157,
      "ÑģÐºÐ¸Ð¼": 6158,
      "ĀĀĀĀĀĀĀĀĀĀĀĀĀĀĀĀ": 6159,
      "ÑīÑĥ": 6160,
      "Ġkitos": 6161,
      "ĠÑįÑĤÐ¸Ñħ": 6162,
      "Ã¡s": 6163,
      "Ġregis": 6164,
      "Ġpaskir": 6165,
      "ĠÐ´Ð°Ð½Ð½ÑĭÑħ": 6166,
      "alas": 6167,
      "gurÄĥ": 6168,
      "Ġturin": 6169,
      "ĠÐ¿Ð¾Ð½Ñı": 6170,
      "oneazÄĥ": 6171,
      "ÑĢÑĥÐ¶Ð¸": 6172,
      "irea": 6173,
      "Ġdiscu": 6174,
      "Ġden": 6175,
      "gsÄĹjo": 6176,
      "dem": 6177,
      "ante": 6178,
      "Ġprezent": 6179,
      "ÑĥÐ´Ð¸": 6180,
      "Ġveni": 6181,
      "ÑĤÐ¸Ð¸": 6182,
      "ĠÐ¼ÐµÑģÑĤÐ°": 6183,
      "ĠÅ¡ven": 6184,
      "ÐµÑĢÐ¾Ð²": 6185,
      "ĠsiÅ«l": 6186,
      "Ġguver": 6187,
      "ĠautomobiliÅ³": 6188,
      "Ġ,,": 6189,
      "ĠÐºÐ°Ð¶Ð´ÑĭÐ¹": 6190,
      "Ġarch": 6191,
      "Ġmartie": 6192,
      "toarele": 6193,
      "ÑĩÐºÐ°": 6194,
      "ĠUr": 6195,
      "Ġgeria": 6196,
      "pul": 6197,
      "ĠÐ´Ð¾Ð»Ð¶Ð½Ñĭ": 6198,
      "ĠÑģÐ¼Ð¾Ð¶": 6199,
      "ĠÐºÑĢÐ°ÑģÐ¸": 6200,
      "ÐĿÐŀ": 6201,
      "ĠÄĳá»ĥ": 6202,
      "ĠÑģÐ½Ð¸": 6203,
      "Labai": 6204,
      "Ð¾ÑĢÑĭ": 6205,
      "perat": 6206,
      "Ġtris": 6207,
      "itÄĥÈĽii": 6208,
      "Ġdydis": 6209,
      "bol": 6210,
      "ĠveÄ¾mi": 6211,
      "ĠÐŀÑģ": 6212,
      "Ġdovan": 6213,
      "Ġnere": 6214,
      "ĠMas": 6215,
      "Ð¾Ð¼Ð°": 6216,
      "ĠÐ¾Ð´Ð½Ð¾Ð¹": 6217,
      "ĠKad": 6218,
      "Ġservici": 6219,
      "mes": 6220,
      "Ġsiun": 6221,
      "ÑĢÑİ": 6222,
      "ctul": 6223,
      "Ð¾ÑĢÑĤÐ¸": 6224,
      "Ġcolec": 6225,
      "ĠÐ¼Ð°ÑĤÐµÑĢÐ¸Ð°Ð»Ð¾Ð²": 6226,
      "III": 6227,
      "ĠromÃ¢ne": 6228,
      "ĠÐ¸Ñģ": 6229,
      "ĠÑĦÐ¸Ð½Ð°Ð½": 6230,
      "ban": 6231,
      "Ġvieno": 6232,
      "ĠpripaÅ¾": 6233,
      "ĠaratÄĥ": 6234,
      "ĠÑĢÐ°Ð·Ð´Ðµ": 6235,
      "Ã½mi": 6236,
      "pren": 6237,
      "tinÄĹje": 6238,
      "Ġkitas": 6239,
      "Ġafec": 6240,
      "ĠÃ®mpotriva": 6241,
      "Ġbiu": 6242,
      "Ġunele": 6243,
      "Ð»Ð°Ð³Ð¾Ð´Ð°ÑĢÑı": 6244,
      "iÅ³jÅ³": 6245,
      "pol": 6246,
      "Ð¶Ð°ÑĤÑĮ": 6247,
      "ĠaÅ¾": 6248,
      "ÑģÑģÑĥ": 6249,
      "liz": 6250,
      "ĠÑįÐ½ÐµÑĢ": 6251,
      "ĠkeliÅ³": 6252,
      "ÐĶÐ»Ñı": 6253,
      "ure": 6254,
      "ĠTre": 6255,
      "ĠÐ¿ÑĢÐ¾Ð²Ð¾Ð´Ð¸": 6256,
      "ĠÐ¸ÑģÑĤÐ¾Ñĩ": 6257,
      "ĠÑĥÑģÑĤÑĢÐ¾Ð¹": 6258,
      "Ġtom": 6259,
      "ĠiÅ¡g": 6260,
      "ĠÃ®nÈĽele": 6261,
      "ĠÐ´Ð½Ñı": 6262,
      "Dar": 6263,
      "ĠÐ¿Ð¾ÑĢÑıÐ´": 6264,
      "cÃ¢nd": 6265,
      "ÑĨÐ¾Ð²": 6266,
      "ĠryÅ¡": 6267,
      "ĠÐ´Ð¾Ð¿Ð¾Ð»Ð½Ð¸ÑĤÐµÐ»ÑĮ": 6268,
      "Ġbes": 6269,
      "Ġtuturor": 6270,
      "ĠcumpÄĥ": 6271,
      "ĠÑħÐ¾ÑĢÐ¾ÑĪÐ¾": 6272,
      "ĠgrÄĥ": 6273,
      "Ġexperien": 6274,
      "ĠÃ®nregistra": 6275,
      "Îº": 6276,
      "Ġcos": 6277,
      "cula": 6278,
      "ĠÑĢÐ°Ð±Ð¾ÑĤÑĥ": 6279,
      "ĠEu": 6280,
      "ili": 6281,
      "Ġpristaty": 6282,
      "ovo": 6283,
      "ĠÐ¾Ð¿Ð»Ð°": 6284,
      "ĠÑģÐ¾Ð¿": 6285,
      "Ġligon": 6286,
      "Ġsigu": 6287,
      "tament": 6288,
      "skej": 6289,
      "64": 6290,
      "Ġdecembrie": 6291,
      "Ġbio": 6292,
      "Ġkun": 6293,
      "ĠpodÄ¾a": 6294,
      "ĠprekiÅ³": 6295,
      "ĠdienÅ³": 6296,
      "ĠÄ¾ud": 6297,
      "ĠÑįÑĦÑĦÐµÐºÑĤÐ¸Ð²": 6298,
      "Å©": 6299,
      "Ġpoe": 6300,
      "veÅ¾": 6301,
      "ĠÐ¿Ð¾Ð¿ÑĥÐ»ÑıÑĢ": 6302,
      "ĠÃ®nÅ£ele": 6303,
      "Ð»ÐµÐºÑģÐ°Ð½Ð´": 6304,
      "tvar": 6305,
      "ÑģÑĤÐ²ÑĥÑİÑīÐ¸": 6306,
      "eliÅ³": 6307,
      "Pe": 6308,
      "ĠpadÄĹti": 6309,
      "ĠÂ»Â»": 6310,
      "ĠÐ¿ÑĢÑı": 6311,
      "ĠÐ¿Ð¾Ð²ÐµÑĢÑħ": 6312,
      "Ġodos": 6313,
      "Å«ro": 6314,
      "ĠÐ²ÑĭÐ¿Ñĥ": 6315,
      "Ġsvoj": 6316,
      "Ġskiri": 6317,
      "áºŃn": 6318,
      "Ġacestei": 6319,
      "ÐłÐŀ": 6320,
      "Ġneap": 6321,
      "Ġketuri": 6322,
      "ĠÑįÐ»ÐµÐºÑĤÑĢÐ¾Ð½": 6323,
      "Ġamen": 6324,
      "ĠÐºÑĢÐ°Ñģ": 6325,
      "Ġsistemos": 6326,
      "ĠÑģÐ²Ð¾ÐµÐ³Ð¾": 6327,
      "ÃŃnh": 6328,
      "gea": 6329,
      "Ġpasteb": 6330,
      "umos": 6331,
      "ÑĪÑĥ": 6332,
      "gust": 6333,
      "ÑıÑĤÑģÑı": 6334,
      "Ä¯sta": 6335,
      "ĠÐ´Ð²Ð¸Ð³Ð°": 6336,
      "mens": 6337,
      "ĠnebÅ«": 6338,
      "ÑĤÐµÐ»ÑĮÑģÑĤÐ²Ð¾": 6339,
      "ove": 6340,
      "ĠÑģÑĢÐ°Ð·Ñĥ": 6341,
      "stra": 6342,
      "ĠÑħÐ¾Ð»": 6343,
      "á»Ń": 6344,
      "Ġmuzikos": 6345,
      "esnis": 6346,
      "ĠÐ¿ÑĢÐ¸Ð½Ð¸Ð¼Ð°": 6347,
      "Ġ=": 6348,
      "iausias": 6349,
      "Ġkaro": 6350,
      "Ġpopie": 6351,
      "ĠÐļÑĢÐ°Ñģ": 6352,
      "ÑĪÐ°ÑĤÑĮ": 6353,
      "Ð·Ðµ": 6354,
      "ĠdarÅ¾": 6355,
      "IV": 6356,
      "Ġprieten": 6357,
      "Ġprimit": 6358,
      "doje": 6359,
      "ĠuÅ¾sienio": 6360,
      "Ġthá»ĥ": 6361,
      "Ġmokslo": 6362,
      "ĠÑĢÑĥÐºÐ¾Ð²": 6363,
      "ĠpaslaugÅ³": 6364,
      "Å¡tu": 6365,
      "Ġrasti": 6366,
      "ÑĢÐ¸Ð½": 6367,
      "ĠÑĤÐ°ÐºÐ¸Ñħ": 6368,
      "ĠBÅ«": 6369,
      "Ð»Ð¾Ð³Ð¾": 6370,
      "Ġpadid": 6371,
      "Ġja": 6372,
      "Ð¾Ð»Ð½": 6373,
      "Ġhod": 6374,
      "tatele": 6375,
      "ĠIs": 6376,
      "ÑĨÐµÐ½ÑĤ": 6377,
      "tojus": 6378,
      "ĠÄĳÃ£": 6379,
      "ÑĤÐ°Ñħ": 6380,
      "Ð¾Ñħ": 6381,
      "ĠÑĢÐµÐ°Ð»Ð¸": 6382,
      "iny": 6383,
      "onul": 6384,
      "Ġfar": 6385,
      "tol": 6386,
      "Ġmij": 6387,
      "Ġproblema": 6388,
      "ĠÃ®ncepe": 6389,
      "ÑĤÑĥÑĢÐ°": 6390,
      "Ġtobul": 6391,
      "ĠplaÄįiau": 6392,
      "ÑĤÐ°Ð¼": 6393,
      "ĠÐ¡ÑĤ": 6394,
      "Ġputem": 6395,
      "Ġmeil": 6396,
      "yse": 6397,
      "ĠÐ¿Ð¾ÑĤÐ¾Ð¼Ñĥ": 6398,
      "Ġdescoperi": 6399,
      "ĠKe": 6400,
      "ĠiÅ¡mok": 6401,
      "ÑĤÐ°ÑĨÐ¸Ð¸": 6402,
      "avimo": 6403,
      "Ġplus": 6404,
      "ilo": 6405,
      "Ð¾Ð¿ÑĢÐ¸Ñı": 6406,
      "Ġtras": 6407,
      "400": 6408,
      "Ġcate": 6409,
      "gerea": 6410,
      "ÐµÑģÑĤÐ¸": 6411,
      "ÑģÐ¸Ð»Ð¸": 6412,
      "tÄĥÈĽii": 6413,
      "ÑģÐ¸Ð¸": 6414,
      "ĠÅ¾ivo": 6415,
      "Ġform": 6416,
      "ĠÐ¿Ð¾Ð´Ð³Ð¾ÑĤÐ¾Ð²": 6417,
      "ims": 6418,
      "Ġmm": 6419,
      "Ġlaikotarp": 6420,
      "ĠÐ¼Ð¾Ð¼ÐµÐ½ÑĤ": 6421,
      "ĠPanevÄĹ": 6422,
      "Ġapsi": 6423,
      "ĠÃ®ncÃ¢t": 6424,
      "Ġfrumo": 6425,
      "ÑģÐµÑĢ": 6426,
      "oara": 6427,
      "ĠÑĩÐ°ÑģÑĤÐ¾": 6428,
      "Ġcol": 6429,
      "ĠÐ¿Ð¾ÑĤÐ¾Ð¼": 6430,
      "ĠÐ¼ÐµÑĤÐ°Ð»": 6431,
      "dinÄĹs": 6432,
      "Ġinform": 6433,
      "Å£at": 6434,
      "Ġtvir": 6435,
      "iekvien": 6436,
      "ĠDupÄĥ": 6437,
      "ĠÐ¿Ð¾Ð´Ð°": 6438,
      "Ġder": 6439,
      "Ġdraud": 6440,
      "Ġziua": 6441,
      "ÑıÐ²Ð»Ñı": 6442,
      "Ġweb": 6443,
      "ĠLietuva": 6444,
      "66": 6445,
      "ĠsfÃ¢r": 6446,
      "ÑĤÐµÑģÑĮ": 6447,
      "hov": 6448,
      "tribu": 6449,
      "ÄĥrÄĥ": 6450,
      "á»£": 6451,
      "Ġteigia": 6452,
      "Ġobliga": 6453,
      "ingos": 6454,
      "ÑģÑĤÐ°Ð²Ð¸ÑĤÑĮ": 6455,
      "zijos": 6456,
      "ĠiÅ¡skir": 6457,
      "ĠÄįem": 6458,
      "Ã®nd": 6459,
      "Ġreal": 6460,
      "ĠÑĢÐ°Ð·Ð¼ÐµÑĢ": 6461,
      "Ġconfor": 6462,
      "ĠVai": 6463,
      "ĠÅ¡im": 6464,
      "Ġaduce": 6465,
      "Ð½Ð¸ÑĤ": 6466,
      "Ġjung": 6467,
      "jasi": 6468,
      "á»ķ": 6469,
      "Te": 6470,
      "inei": 6471,
      "ĠÐ²Ð½Ð¸Ð¼Ð°Ð½Ð¸Ðµ": 6472,
      "Ġprak": 6473,
      "Ġvaikai": 6474,
      "ÑģÐºÐ¾Ð¼Ñĥ": 6475,
      "hÄ¾ad": 6476,
      "nici": 6477,
      "ĠSeimo": 6478,
      "des": 6479,
      "Ġkitus": 6480,
      "ĠuÅ¾s": 6481,
      "ED": 6482,
      "ĠÐºÐ¾Ð½ÑģÑĤÑĢÑĥ": 6483,
      "ĠbaÅ¾ny": 6484,
      "ore": 6485,
      "Ð½Ð¾ÑģÑĤÐµÐ¹": 6486,
      "Ġlocal": 6487,
      "ĠÑĦÐ¸Ð·Ð¸": 6488,
      "ĠÐ°Ð³": 6489,
      "Ġvieta": 6490,
      "ĠÃ®nseamnÄĥ": 6491,
      "Ġcen": 6492,
      "ecu": 6493,
      "ĠÑĤÑĢ": 6494,
      "ĠpanaÅ¡": 6495,
      "Ġ'": 6496,
      "Å«rÄħ": 6497,
      "ĠÐ°Ð²ÑĤÐ¾": 6498,
      "Ġslap": 6499,
      "ĠÑĢÐ°ÑģÐ¿Ð¾Ð»Ð¾Ð¶": 6500,
      "Ġstatyb": 6501,
      "ĠpÄĥr": 6502,
      "ĠÐ´ÐµÑıÑĤÐµÐ»ÑĮÐ½Ð¾ÑģÑĤÐ¸": 6503,
      "ĠÐºÐ¾Ð¼Ð°Ð½": 6504,
      "ĠÐ§Ðµ": 6505,
      "Ð¸Ð»": 6506,
      "Ġsistem": 6507,
      "Å¡kÄħ": 6508,
      "Ġpamat": 6509,
      "ĠÐ½ÐµÐ·Ð°": 6510,
      "Ġrekl": 6511,
      "ĠÐ¾Ñħ": 6512,
      "ĠÐ¿ÑĢÐ¸Ð¼ÐµÑĢ": 6513,
      "ĠÐºÐ¾ÑĤÐ¾ÑĢÐ¾Ð³Ð¾": 6514,
      "ĠÃ®nche": 6515,
      "Ã¢y": 6516,
      "Ð»ÐµÐµ": 6517,
      "ĠgraÅ¾": 6518,
      "ĠBucureÈĻti": 6519,
      "ĠÐ¿ÑĢÐ°Ð²Ð°": 6520,
      "fect": 6521,
      "ĠÐ¾ÑģÐ½Ð¾Ð²Ð°": 6522,
      "Ġnaujas": 6523,
      "Ġatlikti": 6524,
      "Ð´ÑĭÑħ": 6525,
      "Ð»Ð°Ð´": 6526,
      "ĠcetÄĥ": 6527,
      "ÐµÐ´Ð¸Ð½": 6528,
      "ĠÑģÐ¸ÑĤÑĥÐ°": 6529,
      "ĠÄĮia": 6530,
      "Ġprofesion": 6531,
      "ÑģÑĤÐ²ÐµÐ½Ð½ÑĭÑħ": 6532,
      "ĠÐ³ÑĢÑĥ": 6533,
      "ĠvÄĥzut": 6534,
      "Ġpic": 6535,
      "ÈĽionalÄĥ": 6536,
      "ĠbÅ«na": 6537,
      "Ġkartais": 6538,
      "ĠÑĩÐµÐ³Ð¾": 6539,
      "Ġrecun": 6540,
      "els": 6541,
      "trem": 6542,
      "ĠÑĥÑģÐ»ÑĥÐ³Ð¸": 6543,
      "Ġinformacija": 6544,
      "ÑĩÐµÑĤÐ°": 6545,
      "ĠÐ½Ð¸Ð·": 6546,
      "ĠÐ¿ÑĢÐµÐºÑĢÐ°": 6547,
      "Äįioje": 6548,
      "Ð¾Ð½Ð¸": 6549,
      "ĠÑģÑĤÐµÐº": 6550,
      "Ġvorba": 6551,
      "ĠÐ¿ÑĢÐ°Ð·Ð´": 6552,
      "ĠMod": 6553,
      "ĠbirÅ¾": 6554,
      "Å¾ai": 6555,
      "tÄĥm": 6556,
      "ĠÅ¾al": 6557,
      "anuarie": 6558,
      "ved": 6559,
      "Ġformul": 6560,
      "41": 6561,
      "vede": 6562,
      "ĠreikÅ¡": 6563,
      "ĠÐ·Ð°Ð±Ð¾Ð»Ðµ": 6564,
      "ĠYra": 6565,
      "Ġketvir": 6566,
      "ÑģÑĤÐ°Ð½Ð°": 6567,
      "ĠÐ½Ð°Ð»Ð¸ÑĩÐ¸": 6568,
      "ĠbyÅ¥": 6569,
      "ĠSU": 6570,
      "Ð½Ð¸ÑĨ": 6571,
      "Ð³Ð¾ÑĢÐ¾Ð´": 6572,
      "Ġcomunic": 6573,
      "ĠdÄĹmesÄ¯": 6574,
      "Ð´ÐµÑĤÑĮ": 6575,
      "Ġmani": 6576,
      "uojama": 6577,
      "ĠÐ½Ð°ÑĪÐµÐ¼": 6578,
      "Ġmodul": 6579,
      "ĠNet": 6580,
      "Ġmomentul": 6581,
      "Ġze": 6582,
      "ÐµÐ½Ð¾": 6583,
      "Pa": 6584,
      "duoti": 6585,
      "Ġpriva": 6586,
      "Ġatsto": 6587,
      "tuoja": 6588,
      "Ġlog": 6589,
      "2019": 6590,
      "lien": 6591,
      "chÃ¡dza": 6592,
      "ĠÐ¾Ð±ÐµÑģÐ¿ÐµÑĩÐ¸": 6593,
      "AC": 6594,
      "Ð¾Ð±ÑīÐµ": 6595,
      "Ð¶Ð´ÐµÐ½Ð¸Ðµ": 6596,
      "Ġzis": 6597,
      "Ð±Ð¾ÑĢÐ°": 6598,
      "Ġtotul": 6599,
      "ĠNes": 6600,
      "Äįo": 6601,
      "Ġrekomen": 6602,
      "ĠÐ´Ð¾Ð»Ð¶ÐµÐ½": 6603,
      "Ã¡v": 6604,
      "Ð¼ÐµÐ½ÑĤÑĭ": 6605,
      "Ġkada": 6606,
      "Ġprive": 6607,
      "ĠnaujÄħ": 6608,
      "Ġpavir": 6609,
      "ĠÑģÑĤÐ¾Ð»": 6610,
      "ĠÐ²ÐºÑĥ": 6611,
      "ĠprieÅ¾iÅ«ros": 6612,
      "Ġrepe": 6613,
      "Ð½Ð¾Ðº": 6614,
      "ĠÐ¸ÑģÐ¿Ð¾Ð»ÑĮÐ·Ð¾Ð²Ð°ÑĤÑĮ": 6615,
      "ĠÑĩÑĥÐ²": 6616,
      "ĠÑģÑĢÐµÐ´ÑģÑĤÐ²Ð°": 6617,
      "ĠveiklÄħ": 6618,
      "Ac": 6619,
      "ĠÑĥÑĤÐ²ÐµÑĢ": 6620,
      "ĠÑģÑĤÐ¾ÑĢÐ¾Ð½Ñĭ": 6621,
      "Ġdaik": 6622,
      "Ð²Ð»ÐµÐºÐ°": 6623,
      ".âĢĿ": 6624,
      "ĠÐ»ÑİÐ±Ð¾Ð¹": 6625,
      "dinÄĹ": 6626,
      "kis": 6627,
      "Ġpreci": 6628,
      "ĠÐ·Ð°ÐºÐ°Ð·Ð°": 6629,
      "ĠDes": 6630,
      "ĠÐ¡Ð°Ð½": 6631,
      "icia": 6632,
      "Ġviac": 6633,
      "Ġkie": 6634,
      "ĠÐ³Ð¾Ð»Ð¾Ð²": 6635,
      "Ġtransporto": 6636,
      "leidÅ¾ia": 6637,
      "pÄħ": 6638,
      "ogle": 6639,
      "Au": 6640,
      "ÐºÐ¾Ð²Ð°": 6641,
      "Ð´ÑĥÑĤ": 6642,
      "Ã¢m": 6643,
      "ĠÐ¿Ð¾Ð»ÑĥÑĩÐ¸ÑĤÑĮ": 6644,
      "ĠÐ¿ÑĢÐ¾Ð¿": 6645,
      "gija": 6646,
      "jun": 6647,
      "85": 6648,
      "GB": 6649,
      "95": 6650,
      "ĠÑĤÐ°ÐºÐ¸Ðµ": 6651,
      "Ġpasak": 6652,
      "ĠCum": 6653,
      "ĠÐ±ÑĭÑģÑĤÑĢÐ¾": 6654,
      "Ġcalitate": 6655,
      "ĠÐ¿ÐµÑĢÐµÐ´Ð°": 6656,
      "ĠPR": 6657,
      "Ġsunk": 6658,
      "43": 6659,
      "Ġaplica": 6660,
      "ĠgalimybÄĻ": 6661,
      "Ġvyko": 6662,
      "ĠarÄĥ": 6663,
      "ÑĢÐµÐ·": 6664,
      "Nor": 6665,
      "ystÄĹs": 6666,
      "tukas": 6667,
      "Ġdemon": 6668,
      "gre": 6669,
      "ĠÑĪÐºÐ¾Ð»": 6670,
      "ĠÐºÐ¾Ð½ÐºÑĥÑĢ": 6671,
      "áºŃt": 6672,
      "Ġdalyvavo": 6673,
      "Ġlimba": 6674,
      "ĠmÄĹnesÄ¯": 6675,
      "Ġpriklauso": 6676,
      "ÑģÑĤÐ²ÐµÐ½Ð½Ð¾Ð¹": 6677,
      "ĠÐºÐ°Ð·Ð¸Ð½Ð¾": 6678,
      "Ġkhi": 6679,
      "tÄĥrii": 6680,
      "ĠÑĪÐµ": 6681,
      "ĠÐ½Ð¸Ðº": 6682,
      "Ġdintr": 6683,
      "Ġproprie": 6684,
      "Ġnas": 6685,
      "amÅ³": 6686,
      "Ġofer": 6687,
      "aria": 6688,
      "Ð³Ð°Ð½": 6689,
      "ĠÑĥÐ¿ÑĢÐ°Ð²Ð»ÐµÐ½Ð¸Ñı": 6690,
      "/.": 6691,
      "pÅ³": 6692,
      "ĠÐ¡Ð¨ÐĲ": 6693,
      "estea": 6694,
      "ÑĭÑĪ": 6695,
      "Ð¾Ð·Ð½Ð°": 6696,
      "ĠsÄħraÅ¡": 6697,
      "Ġpreven": 6698,
      "Ð¿Ð¾Ð²": 6699,
      "ÑģÐµÐ´Ð°": 6700,
      "ĠgyvenimÄħ": 6701,
      "enÃ½": 6702,
      "ĠÐ¿Ð¾Ð½Ð¸Ð¼Ð°": 6703,
      "ĠkÅ«no": 6704,
      "rink": 6705,
      "tumÄĹ": 6706,
      "Ġskaity": 6707,
      "vod": 6708,
      "Ġdeoarece": 6709,
      "Ġfon": 6710,
      "ĠÑĢÐ¾ÑģÑģÐ¸Ð¹": 6711,
      "ĠÐ²ÐºÐ»ÑİÑĩÐ°": 6712,
      "Ġnatur": 6713,
      "Å£inut": 6714,
      "ÈĽinut": 6715,
      "adien": 6716,
      "pel": 6717,
      "Ġiulie": 6718,
      "bate": 6719,
      "ĠLietuvÄħ": 6720,
      "ÐºÐ°ÑĢ": 6721,
      "ĠvÅ¡ak": 6722,
      "ĠÅ«kio": 6723,
      "ĠpreÅŁedin": 6724,
      "Ġabsol": 6725,
      "stÄħ": 6726,
      "ÑħÐ°Ð½Ð¸": 6727,
      "Ð´Ð¸Ð²Ð¸Ð´Ñĥ": 6728,
      "Å¾o": 6729,
      "ĠÐºÑĢÑĭ": 6730,
      "tiÅ¡kai": 6731,
      "ĠÑĥÐ·Ð½Ð°": 6732,
      "ĠÐĽÑİ": 6733,
      "Ð»ÑĭÑħ": 6734,
      "nÄĹ": 6735,
      "vz": 6736,
      "rata": 6737,
      "Ġnume": 6738,
      "ĠÐŀÐ½Ð¸": 6739,
      "ĠtÅ«": 6740,
      "kso": 6741,
      "ĠNic": 6742,
      "ÐµÑĢÐ¸": 6743,
      "Ġmama": 6744,
      "Å«kst": 6745,
      "zid": 6746,
      "Ð»ÐµÐ½ÑĮ": 6747,
      "ĠÐºÐ²Ð°ÑĢÑĤÐ¸": 6748,
      "cle": 6749,
      "ĠÐ¾Ð´Ðµ": 6750,
      "Ã´i": 6751,
      "ĠÐ¶Ð¸Ð·Ð½ÑĮ": 6752,
      "Ġcredin": 6753,
      "Ð¾Ð»ÐµÐ·": 6754,
      "ÑĤÑĭÐ¹": 6755,
      "ÑģÐºÑĥ": 6756,
      "Ġanum": 6757,
      "Ġsprij": 6758,
      "gere": 6759,
      "ĠneÅ¾": 6760,
      "ranta": 6761,
      "ĠdefektÅ³": 6762,
      "ĠÑĥÐºÑĢÐ°": 6763,
      "Ġapib": 6764,
      "ĠVar": 6765,
      "ÑĩÐµÑģÐºÐ¸Ð¼": 6766,
      "ĠÐ»ÑİÐ´Ð¸": 6767,
      "xima": 6768,
      "Ð½Ð°ÑĤ": 6769,
      "ÐµÐ»Ð°": 6770,
      "chod": 6771,
      "ĠtÅ«kst": 6772,
      "ĠmedÅ¾iagos": 6773,
      "ÑĦÐ¸ÑĨÐ¸": 6774,
      "ft": 6775,
      "ĠSh": 6776,
      "ĠÐ¿Ð¾Ð»Ð¸ÑĤÐ¸": 6777,
      "apte": 6778,
      "ĠPat": 6779,
      "Ġpadaryti": 6780,
      "ĠÐ½Ð°Ñĥ": 6781,
      "Ġprivire": 6782,
      "astrÄĥ": 6783,
      "ingÅ³": 6784,
      "reu": 6785,
      "ĠÐ²ÐµÑģÑĮ": 6786,
      "ÑĤÐ°Ð½": 6787,
      "1000": 6788,
      "Ġlans": 6789,
      "Ġsucces": 6790,
      "Ġvrea": 6791,
      "ĠÐ²Ð½ÐµÑĪ": 6792,
      "Ġdiferite": 6793,
      "Ð²Ð¾Ðµ": 6794,
      "Ġpadeda": 6795,
      "Ġseri": 6796,
      "ĠÐ¿ÑĢÐµÐ´ÑģÑĤÐ°Ð²Ð»ÐµÐ½": 6797,
      "Ġtap": 6798,
      "ĠÐ½Ð°Ð¹ÑĤÐ¸": 6799,
      "Ġhttp": 6800,
      "vÃŃ": 6801,
      "ĠÐ°Ð±": 6802,
      "okÅ¡": 6803,
      "á»ĥ": 6804,
      "Ġvyksta": 6805,
      "ÐļÐ°Ðº": 6806,
      "Ġris": 6807,
      "Ŀi": 6808,
      "Ġianuarie": 6809,
      "ĠprÃŃpad": 6810,
      "via": 6811,
      "Ġrungtyn": 6812,
      "OL": 6813,
      "ĠkodÄĹl": 6814,
      "Ġachi": 6815,
      "ĠMih": 6816,
      "ÑĩÐµÐº": 6817,
      "ĠÐµÑīÑĳ": 6818,
      "Ġsovie": 6819,
      "ÐľÐ°": 6820,
      "ĠanksÄįiau": 6821,
      "Ġgran": 6822,
      "ĠjokiÅ³": 6823,
      "ĠÐ²Ð½ÑĥÑĤÑĢÐµÐ½": 6824,
      "ĠÐ°Ð»": 6825,
      "ĠreprezintÄĥ": 6826,
      "Ġbáº¡n": 6827,
      "Ð±Ð¸Ð½": 6828,
      "inÄħ": 6829,
      "ĠÐ¿ÑĢÐ¸Ð½": 6830,
      "Ġmeci": 6831,
      "ĠreÅ¾": 6832,
      "ĠÑĤÑı": 6833,
      "yta": 6834,
      "Ġfra": 6835,
      "á»ĳi": 6836,
      "ĠTrump": 6837,
      "ĠÐºÑĢÑĥ": 6838,
      "ykl": 6839,
      "Ġbri": 6840,
      "Ġpries": 6841,
      "ĠÐ¼Ð°ÐºÑģÐ¸": 6842,
      "ĠmÄĥr": 6843,
      "ĠÐ´Ð»Ð¸": 6844,
      "taÈĽi": 6845,
      "Ġroku": 6846,
      "2004": 6847,
      "inimÄħ": 6848,
      "Ġsaul": 6849,
      "ĠÑĩÐ¸ÑģÐ»Ðµ": 6850,
      "Ð¾ÑĪ": 6851,
      "lau": 6852,
      "Ġdeschis": 6853,
      "Ġvideo": 6854,
      "ÐłÐĲ": 6855,
      "ĠlegÄĥ": 6856,
      "Ð»ÐµÐ½Ð½ÑĭÑħ": 6857,
      "ĠÅ¡t": 6858,
      "Ã¢mb": 6859,
      "Ġmuzik": 6860,
      "Ġveikia": 6861,
      "moje": 6862,
      "ĠÐ·Ð½Ð°ÐºÐ¾Ð¼": 6863,
      "ĠÑĥÑģÐ»ÑĥÐ³": 6864,
      "ĠÑģÐ°Ð¼ÑĭÑħ": 6865,
      "Ġpirminink": 6866,
      "ĠÐ½Ð¾ÑĢÐ¼Ð°": 6867,
      "áº©": 6868,
      "tinius": 6869,
      "ÐºÐ¾Ð»Ð¾": 6870,
      "Ġram": 6871,
      "zbo": 6872,
      "ĠÐ½Ð¾Ð¼": 6873,
      "ĠÅ¡ird": 6874,
      "ÑģÑĥÐ»ÑĮ": 6875,
      "Ð»ÑĭÐ¹": 6876,
      "ĠÑĦÐ¾ÑĢÐ¼Ð°": 6877,
      "ĠÐ´Ð¾Ð³Ð¾Ð²": 6878,
      "Ġacestora": 6879,
      "jimas": 6880,
      "ĠÐ½Ð°ÑģÐµ": 6881,
      "uoju": 6882,
      "Ġrecomand": 6883,
      "ĠÐ²ÑĭÑĪÐµ": 6884,
      "ĠSkaityti": 6885,
      "Ġpavas": 6886,
      "ÑĢÐ°Ð¼Ð¸": 6887,
      "ĠcÃ´ng": 6888,
      "ĠPla": 6889,
      "Ð»ÐµÐ½Ñĭ": 6890,
      "Ġgimnaz": 6891,
      "Ð±Ð¾Ð»ÐµÐµ": 6892,
      "ĠÐºÐ°ÑĤÐµÐ³Ð¾ÑĢÐ¸": 6893,
      "ĠAlex": 6894,
      "iniams": 6895,
      "ÐµÑĪÑĮ": 6896,
      "ÄĹjÄĻs": 6897,
      "ĠÐ¸Ð·Ð³Ð¾ÑĤÐ¾Ð²": 6898,
      "ÐµÐ½Ð½ÑĭÐ¹": 6899,
      "ÑģÐ»ÑĥÐ¶Ð¸": 6900,
      "ÄĹme": 6901,
      "ĠÑĤÑĭÑģÑı": 6902,
      "Ġaptar": 6903,
      "Ġpavar": 6904,
      "ĠjÄĹg": 6905,
      "Ġnuk": 6906,
      "ĠoraÈĻ": 6907,
      "ĠdviejÅ³": 6908,
      "Na": 6909,
      "DacÄĥ": 6910,
      "ese": 6911,
      "ĠPh": 6912,
      "ÐŀÑĤ": 6913,
      "Ġmode": 6914,
      "rim": 6915,
      "oca": 6916,
      "ĠÐ½Ð°ÑĪÐµÐ¹": 6917,
      "Ġsvarbu": 6918,
      "Ð¾Ð·ÑıÐ¹": 6919,
      "ĠÄ¯raÅ¡": 6920,
      "Ð¾Ð²Ð¸": 6921,
      "Ġsos": 6922,
      "ĠÑģÑĢÐµÐ´Ð¸": 6923,
      "ÑĪÐµÐ¼": 6924,
      "ovÃ©": 6925,
      "www": 6926,
      "ĠÐ¼ÐµÑĢÐ¾Ð¿ÑĢÐ¸Ñı": 6927,
      "ĠaÈĻte": 6928,
      "Å¡en": 6929,
      "ĠÐĲÐ»ÐµÐºÑģÐ°Ð½Ð´": 6930,
      "Ġatskir": 6931,
      "ĠÐ²ÐµÐ´ÑĮ": 6932,
      "Ġactu": 6933,
      "ĠÐ´ÐµÐ½Ðµ": 6934,
      "ĠalÄĥturi": 6935,
      "Ġcentre": 6936,
      "ĠÑĢÐµÐ³Ð¸ÑģÑĤÑĢÐ°ÑĨÐ¸Ð¸": 6937,
      "ÐµÐ½ÑĤÐ¸": 6938,
      "Ġdeose": 6939,
      "Ã¹ng": 6940,
      "Ð´Ð¾Ð¼": 6941,
      "ĠDan": 6942,
      "mingai": 6943,
      "ĠÐ½ÐµÐ±Ð¾Ð»ÑĮ": 6944,
      "icipi": 6945,
      "Ġkarto": 6946,
      "Ġpatog": 6947,
      "riile": 6948,
      "ĠAÅ¡": 6949,
      "uria": 6950,
      "Ġdaryti": 6951,
      "Ġspecta": 6952,
      "trau": 6953,
      "Ð¿Ð¾Ð´": 6954,
      "áº½": 6955,
      "nit": 6956,
      "datÄĥ": 6957,
      "Ġtema": 6958,
      "rado": 6959,
      "ĠEuropa": 6960,
      "ĠNors": 6961,
      "ĠÑĤÐµÐ¼Ð¿ÐµÑĢÐ°": 6962,
      "umÅ³": 6963,
      "ĠÅ¡ak": 6964,
      "ĠÐľÐ°ÑĢ": 6965,
      "Ġpakei": 6966,
      "EC": 6967,
      "kios": 6968,
      "ĠÑģÐ¸Ð¼": 6969,
      "ĠRy": 6970,
      "guÅ¾ÄĹs": 6971,
      "ĠvisuomenÄĹs": 6972,
      "ÑģÑĤÐ²ÐµÐ½Ð½Ð¾Ð³Ð¾": 6973,
      "Ġteren": 6974,
      "ÑĩÐ½Ð°Ñı": 6975,
      "acebook": 6976,
      "ÑģÑĤÑĮÑİ": 6977,
      "oniÅ³": 6978,
      "Ġcres": 6979,
      "56": 6980,
      "ĠKlaipÄĹdos": 6981,
      "ĠÐ¿ÑĢÐµÐ´Ð¿ÑĢÐ¸Ñı": 6982,
      "ĠpartizanÅ³": 6983,
      "Ġves": 6984,
      "Ġtampa": 6985,
      "ĠÑĢÐ°Ð·Ð²Ð¸ÑĤÐ¸Ñı": 6986,
      "ĠEn": 6987,
      "ĠÐºÐ¾ÑĤÐ¾ÑĢÐ¾Ðµ": 6988,
      "ÑĤÐµÐ»ÑĮÐ½Ð¾Ðµ": 6989,
      "ÑģÑĤÐ²ÐµÐ½Ð½ÑĭÐ¹": 6990,
      "gÅ¾": 6991,
      "ĠÑģÐºÐ¾ÑĢÐ¾": 6992,
      "telÄĹ": 6993,
      "ĠCel": 6994,
      "ĠÅ¾ai": 6995,
      "ĠÐ´ÐµÐ»Ð°ÑĤÑĮ": 6996,
      "Ġpoveik": 6997,
      "truo": 6998,
      "ĠvÄĹ": 6999,
      "ĠÐ·Ð°ÐºÐ°Ð·": 7000,
      "ism": 7001,
      "Ġtelevizi": 7002,
      "ĠÑĪÐ¸ÑĢÐ¾Ðº": 7003,
      "Ġbud": 7004,
      "ÑģÐ¸ÑĤÑĮ": 7005,
      "Ġsmul": 7006,
      "ĠÐ´Ð¾ÑģÑĤÐ°ÑĤÐ¾ÑĩÐ½Ð¾": 7007,
      "Ġacel": 7008,
      "urÄĹs": 7009,
      "ric": 7010,
      "ĠÐ¾ÑĩÐµÑĢÐµÐ´": 7011,
      "Ġkto": 7012,
      "ĠÐ¿ÑĢÐ°Ð²Ð¾": 7013,
      "Ġcompan": 7014,
      "Ð¾Ð³Ñĥ": 7015,
      "Ġreduce": 7016,
      "ĠÑĤÐ¾Ð»": 7017,
      "ĠÐ¿Ð¾ÐºÑĢÑĭ": 7018,
      "ĠÅłis": 7019,
      "Äħs": 7020,
      "kia": 7021,
      "ĠnaÅ¡": 7022,
      "ĠÐ¿ÐµÑĢÐ¸Ð¾Ð´": 7023,
      "Ġconform": 7024,
      "ĠÐ½Ð°Ð±": 7025,
      "aujan": 7026,
      "ĠÐ¿ÑĢÐ¾Ð²ÐµÑĢ": 7027,
      "Ġnepas": 7028,
      "lep": 7029,
      "ĠÐ½Ð°Ð¿ÑĢÑı": 7030,
      "Ð³ÑĢÑĭ": 7031,
      "Cu": 7032,
      "enii": 7033,
      "1944": 7034,
      "kio": 7035,
      "ĠÑıÐ²Ð»ÑıÑİÑĤÑģÑı": 7036,
      "ĠVer": 7037,
      "act": 7038,
      "Ð»ÑĮÑı": 7039,
      "ĠÐ¾ÑĦÐ¾ÑĢÐ¼": 7040,
      "leis": 7041,
      "Ġapdovan": 7042,
      "Å¡kiÅ³": 7043,
      "dÅ¾ius": 7044,
      "ĠreiÅ¡kia": 7045,
      "Ġmergai": 7046,
      "ĠÐĽÐµ": 7047,
      "ĠÐºÑĢÐµ": 7048,
      "ĠÑģÑĤÐ°ÑĢ": 7049,
      "Ð¼Ð¸Ð½Ð¸ÑģÑĤÑĢÐ°": 7050,
      "ĠAsocia": 7051,
      "Ġpunct": 7052,
      "Ġep": 7053,
      "Ð²ÑĭÑħ": 7054,
      "ĠÐ¼ÐµÐ½ÐµÐµ": 7055,
      "telÄĹs": 7056,
      "ĠÑĥÑĩÐµÐ±": 7057,
      "daj": 7058,
      "Ġnivelul": 7059,
      "ĠdarbÅ³": 7060,
      "Ð³Ð¸Ð¸": 7061,
      "ĠÐ¼Ð¾Ð»Ð¾Ð´": 7062,
      "ĠÐºÐ»Ð°ÑģÑģ": 7063,
      "ĠÑģÐ»ÐµÐ´ÑĥÐµÑĤ": 7064,
      "ĠÐ°Ð½Ð°Ð»Ð¸": 7065,
      "ĠÃ®ntrea": 7066,
      "ÐŀÐŀ": 7067,
      "Ã³n": 7068,
      "ÐºÐµÑĤ": 7069,
      "dant": 7070,
      "Ġregul": 7071,
      "ĠÐ¸Ð³ÑĢÐ°": 7072,
      "Ġelement": 7073,
      "Ġconstitu": 7074,
      "EM": 7075,
      "Ġdim": 7076,
      "vej": 7077,
      "ĠTaigi": 7078,
      "ĠÐ¾ÐºÐ¾Ð½": 7079,
      "ĠÐ¾Ð´Ð½Ð¾": 7080,
      "omos": 7081,
      "Ġsuper": 7082,
      "ket": 7083,
      "iesc": 7084,
      "ĠCa": 7085,
      "Æ¡n": 7086,
      "ÑĢÐ¸Ð½Ð°": 7087,
      "Ġdur": 7088,
      "ĠÐ¿Ð¾ÑģÐµ": 7089,
      "ĠÑģÐ»Ð¾Ð²": 7090,
      "ĠÐ¾Ð³ÑĢÐ°Ð½Ð¸": 7091,
      "ĠÐĴÐ¾": 7092,
      "ĠBend": 7093,
      "ikÅ³": 7094,
      "Ġjai": 7095,
      "vais": 7096,
      "ĠpraÅ¡": 7097,
      "ĠXX": 7098,
      "Ð»ÑıÑĤÑĮ": 7099,
      "Ġaugust": 7100,
      "ĠGra": 7101,
      "duc": 7102,
      "Ġgir": 7103,
      "ĠÑĤÐ²Ð¾ÑĢ": 7104,
      "Ġpreto": 7105,
      "bÅ³": 7106,
      "Ġexemplu": 7107,
      "Ġprojekto": 7108,
      "Pir": 7109,
      "Ġavan": 7110,
      "Ġsupl": 7111,
      "ĠÐŁÑĢÐµÐ´": 7112,
      "Ġfinal": 7113,
      "Ġscrie": 7114,
      "ĠKom": 7115,
      "vom": 7116,
      "band": 7117,
      "ĠÐ¼Ñı": 7118,
      "ÑģÑĤÑĥÐ¿Ð¸": 7119,
      "ÑĢÐ¸ÑĤÐµ": 7120,
      "iere": 7121,
      "Ġnea": 7122,
      "anh": 7123,
      "Ġlengvai": 7124,
      "AD": 7125,
      "Ġup": 7126,
      "Ġcuprin": 7127,
      "Ġdreptul": 7128,
      "umul": 7129,
      "ĠÐ²ÑĢÐµÐ¼ÐµÐ½": 7130,
      "kÃ¡": 7131,
      "ĠÅ¾urn": 7132,
      "ÄįnÃ©": 7133,
      "ĠÐºÐ¾Ð¼Ð¿Ð°Ð½Ð¸Ñı": 7134,
      "Ð»ÑĮÐ½ÑĭÐ¼": 7135,
      "Ð¼ÐµÐ½ÑĮ": 7136,
      "Ġconcurs": 7137,
      "Ġiub": 7138,
      "ĠOb": 7139,
      "Ġvidutin": 7140,
      "ĠsÃ¢n": 7141,
      "ĠÐ·Ð°Ð¿Ð°": 7142,
      "Ġprekybos": 7143,
      "ĠUS": 7144,
      "ĠgyventojÅ³": 7145,
      "ĠÐ°Ð²ÑĤ": 7146,
      "ĠÃ®nsc": 7147,
      "ĠDydis": 7148,
      "Ġferi": 7149,
      "ÑĤÐµÐ»ÑıÐ¼": 7150,
      "ĠFil": 7151,
      "Ġevid": 7152,
      "ĠÑģÐ½Ð°": 7153,
      "Ð¾ÑĤÐ¾": 7154,
      "kriÄįio": 7155,
      "vet": 7156,
      "Å«nai": 7157,
      "Ð¾Ð±ÑĢÐ°Ð¶": 7158,
      "iilor": 7159,
      "ĠÐłÐ¾ÑģÑģÐ¸Ð¹ÑģÐºÐ¾Ð¹": 7160,
      "%,": 7161,
      "ÑīÐµÑģÑĤÐ²Ð°": 7162,
      "ÑĢÑĥÐµÑĤ": 7163,
      "Ġcuvin": 7164,
      "ĠBiseri": 7165,
      "ĠÐ´ÐµÑĢ": 7166,
      "Ġanim": 7167,
      "arii": 7168,
      "Ġkelias": 7169,
      "Ġskyriaus": 7170,
      "ĠÅ£": 7171,
      "bie": 7172,
      "Ġservicii": 7173,
      "Ð¾ÑĢÐ¾Ð¶": 7174,
      "ĠÑĢÐ°Ð·ÑĢÐµ": 7175,
      "ĠlÄĹÅ¡": 7176,
      "ĠSen": 7177,
      "Ġdumne": 7178,
      "jamos": 7179,
      "Ð¾Ð»ÐµÑĤ": 7180,
      "Ġluna": 7181,
      "Ġabe": 7182,
      "Ġpaj": 7183,
      "fera": 7184,
      "Ġkt": 7185,
      "ĠskaiÄįius": 7186,
      "Ġsuteikia": 7187,
      "Ġbur": 7188,
      "Ġcat": 7189,
      "Ġkompiuteri": 7190,
      "ĠkÅ«rin": 7191,
      "ÑģÐ¸Ñı": 7192,
      "Ã¤Äį": 7193,
      "ĠnaujÅ³": 7194,
      "ÄįiÅ«": 7195,
      "onsa": 7196,
      "Ġindus": 7197,
      "ÐĴÑģÐµ": 7198,
      "ĠÐºÐ¾Ñģ": 7199,
      "Ġversl": 7200,
      "Ð·Ð¸Ð¸": 7201,
      "Ġprobleme": 7202,
      "Ġmotiv": 7203,
      "trÄħ": 7204,
      "ĠcÄĥlÄĥ": 7205,
      "pli": 7206,
      "Ġnad": 7207,
      "Ġprintre": 7208,
      "ĠÐ¼Ð¸ÑĢÐ°": 7209,
      "ĠÑĤÑĥÑĤ": 7210,
      "stvo": 7211,
      "rÃ¡v": 7212,
      "ÑĪÐµÐµ": 7213,
      "Ġdrum": 7214,
      "not": 7215,
      "120": 7216,
      "Ð¡Ðļ": 7217,
      "ĠÐ¿ÑĢÐ¾ÑĦÐµÑģÑģÐ¸Ð¾Ð½Ð°Ð»ÑĮ": 7218,
      "Ð®": 7219,
      "ĠÐ¿Ð¸ÑĤÐ°Ð½Ð¸Ñı": 7220,
      "ÑħÐ¾Ð´ÑıÑĤ": 7221,
      "ĠÐ¼Ð»": 7222,
      "Ð»ÐµÐ½Ð¸Ñİ": 7223,
      "Ð¾Ð´Ð¾Ð²": 7224,
      "Ġcentras": 7225,
      "Ġsak": 7226,
      "ĠÐ¾Ð´Ð½Ð¾Ð³Ð¾": 7227,
      "Ġraud": 7228,
      "sion": 7229,
      "ilea": 7230,
      "Ð¼Ð¸Ð½": 7231,
      "verse": 7232,
      "vori": 7233,
      "IL": 7234,
      "ovÃ¡": 7235,
      "ĠNau": 7236,
      "Ð»ÑĥÑĩ": 7237,
      "ÑİÑīÐµÐ¹": 7238,
      "ĠÑģÐ¸ÑģÑĤÐµÐ¼Ð°": 7239,
      "odÅ¾io": 7240,
      "mit": 7241,
      "58": 7242,
      "ĠcÃ¢n": 7243,
      "ĠPag": 7244,
      "...]": 7245,
      "Ġdirbti": 7246,
      "toarea": 7247,
      "ĠÅ£Äĥ": 7248,
      "Ġpetre": 7249,
      "goje": 7250,
      "Ġnacional": 7251,
      "ĠuÅ¾saky": 7252,
      "ÑĤÐ¾Ð¹": 7253,
      "dal": 7254,
      "bel": 7255,
      "ĠÐ¼Ð¾Ñī": 7256,
      "Ġkomun": 7257,
      "Ġfilm": 7258,
      "ĠÑĩÐ¸ÑĤÐ°": 7259,
      "ÑĩÐ¸Ðº": 7260,
      "Ġinclusiv": 7261,
      "Å¡ki": 7262,
      "ÄĹlÄĹs": 7263,
      "Ġmeno": 7264,
      "ĠÐ´ÑĥÐ¼Ð°": 7265,
      "Ġatitink": 7266,
      "ĠMat": 7267,
      "ÑİÑīÐ¸Ð¼": 7268,
      "Ġsuntem": 7269,
      "Ġpaten": 7270,
      "Ġdatori": 7271,
      "ĠÐ½Ð¸ÑĩÐµÐ³Ð¾": 7272,
      "Äįiams": 7273,
      "pare": 7274,
      "Ġosob": 7275,
      "Ġkelis": 7276,
      "Ġslu": 7277,
      "angos": 7278,
      "Ġremon": 7279,
      "Be": 7280,
      "ĠÐ±Ð»Ð¾Ðº": 7281,
      "ovanie": 7282,
      "Ġsien": 7283,
      "aisiais": 7284,
      "Ġprotec": 7285,
      "ĠÐ¾ÑĢÐ³Ð°Ð½Ð¸Ð·Ð°ÑĨÐ¸Ð¸": 7286,
      "Ð¶Ð½ÑĭÐµ": 7287,
      "Ġdisponi": 7288,
      "ĠÃ®ÈĽi": 7289,
      "lemen": 7290,
      "ÑīÑĥÑİ": 7291,
      "ÑĤÐ¾ÑĢÐ¾Ð²": 7292,
      "Ġbate": 7293,
      "ts": 7294,
      "ĠJos": 7295,
      "ĠÐ¿Ð¾Ð»Ð½Ð¾ÑģÑĤÑĮÑİ": 7296,
      "bilitate": 7297,
      "ĠÐ°Ð½ÑĤÐ¸": 7298,
      "ĠÐ»Ð¸ÑĨÐ°": 7299,
      "ĠKo": 7300,
      "lais": 7301,
      "ĠhotÄĥr": 7302,
      "ĠÑģÑĢÐ°Ð²": 7303,
      "uta": 7304,
      "ÑĮÑĤÐµ": 7305,
      "ĠÑĢÑıÐ´": 7306,
      "unilor": 7307,
      "Ġ|--": 7308,
      "ĠÐ¿Ð»Ð°ÑģÑĤÐ¸": 7309,
      "ĠÑģÑĤÐµ": 7310,
      "ĠÐ¸ÑģÐºÑĥÑģ": 7311,
      "Ð·Ð¾ÑĢ": 7312,
      "Ð¾ÑĢÑı": 7313,
      "ĠLat": 7314,
      "Ġemis": 7315,
      "ĠÑģÐµÑĢÐ²Ð¸": 7316,
      "zul": 7317,
      "ĠÐ·Ð°Ð¿": 7318,
      "Ġdef": 7319,
      "ĠÐ´Ð¾Ð±Ð°": 7320,
      "Ð¾ÑĤÐ°": 7321,
      "pen": 7322,
      "ĠÐ¿ÑĢÐ¾ÑĦÐ¸": 7323,
      "Ð¸ÑĢ": 7324,
      "To": 7325,
      "ĠÐŁÑĥ": 7326,
      "ĠÐ²Ð¾Ð¿ÑĢÐ¾ÑģÑĭ": 7327,
      "Ġrug": 7328,
      "ÄĹlis": 7329,
      "ÑĪÐµÐ½Ð¸Ð¸": 7330,
      "daug": 7331,
      "itÄĹs": 7332,
      "Ġpotre": 7333,
      "ĠTies": 7334,
      "á»ĳng": 7335,
      "get": 7336,
      "ĠÐ¡Ñĥ": 7337,
      "gii": 7338,
      "ĠÐ¿Ð¾Ð´ÑĤÐ²ÐµÑĢ": 7339,
      "ĠConsiliului": 7340,
      "Ġdrabu": 7341,
      "ID": 7342,
      "Ġrespectiv": 7343,
      "tional": 7344,
      "Ð½Ð¾Ð¿": 7345,
      "ĠGi": 7346,
      "ybÅ³": 7347,
      "ĠkÅ«ryb": 7348,
      "ĠPSD": 7349,
      "cion": 7350,
      "dymas": 7351,
      "Ġlabiausiai": 7352,
      "ĠpinigÅ³": 7353,
      "ÑĩÐ¸Ñģ": 7354,
      "Ġpasis": 7355,
      "ĠKas": 7356,
      "andÅ¾io": 7357,
      "ĠÑģÐ¾ÑģÑĤÐ°Ð²": 7358,
      "monÄĹs": 7359,
      "ĠRÄĥ": 7360,
      "rÄ¯": 7361,
      "ĠCur": 7362,
      "ĠÐ³ÐµÑĢ": 7363,
      "Ġ?": 7364,
      "tuok": 7365,
      "Ð½Ð¸ÑĨÐ¸": 7366,
      "han": 7367,
      "ĠDÄĹl": 7368,
      "ĠvaÅ¾i": 7369,
      "Ġautomobili": 7370,
      "Å¾iÅ«rÄĹti": 7371,
      "Ġdl": 7372,
      "Ġdiena": 7373,
      "ĠturÄĹti": 7374,
      "ĠrugÄĥ": 7375,
      "zas": 7376,
      "Ġpies": 7377,
      "2005": 7378,
      "Äįiui": 7379,
      "ĠÑĥÐ²Ð¸": 7380,
      "ÑıÑĤÐ¸": 7381,
      "ĠÑĢÐ°Ð±Ð¾ÑĤÐµ": 7382,
      "Ġpanaudo": 7383,
      "Ġantre": 7384,
      "Ð³ÑĢÑĥÐ·": 7385,
      "Ġpig": 7386,
      "ĠÐ¸Ð½Ð´Ð¸Ð²Ð¸Ð´Ñĥ": 7387,
      "ĠperioadÄĥ": 7388,
      "Ġimpli": 7389,
      "ĠÑģÐ¾Ð²ÐµÑĢÑĪÐµÐ½": 7390,
      "ĠÐºÐ°ÐºÐ¾Ð¹": 7391,
      "ĠÐŁÐ¾ÑģÐ»Ðµ": 7392,
      "alius": 7393,
      "98": 7394,
      "ĠÑģÑĤÑĢÑĥ": 7395,
      "Ð²Ð°ÑĢÐ¸": 7396,
      "Ġproba": 7397,
      "ÑģÑģÐµ": 7398,
      "ristos": 7399,
      "Ġkab": 7400,
      "Ġdokument": 7401,
      "ĠÅ¡iu": 7402,
      "ĠÅ¡alia": 7403,
      "ĠkaÅ¾d": 7404,
      "ĠAus": 7405,
      "vÄĻs": 7406,
      "ĠÐ¾ÐºÐ¾Ð»Ð¾": 7407,
      "Ġjej": 7408,
      "anÄįius": 7409,
      "Ð¼Ð¾Ð²": 7410,
      "ĠÑģÐ²Ð¾Ð¸Ð¼": 7411,
      "Ð¾ÑıÑĤ": 7412,
      "ĠÐ¿Ð¾ÐºÑĥÐ¿": 7413,
      "Ġaccep": 7414,
      "ĠÐ¾ÑĢÐ¸": 7415,
      "Ġproduc": 7416,
      "ĠÐ½Ð¸ÐºÐ°": 7417,
      "kalb": 7418,
      "ĠÐ²Ð¾Ð´Ñĭ": 7419,
      "vili": 7420,
      "gur": 7421,
      "Ġtemperat": 7422,
      "Ġteks": 7423,
      "tuia": 7424,
      "ĠÐ³Ð°ÑĢÐ°Ð½": 7425,
      "ĠSR": 7426,
      "dag": 7427,
      "uojant": 7428,
      "ĠDu": 7429,
      "Ġmuzie": 7430,
      "ĠÐłÐµÑģÐ¿": 7431,
      "ĠÐĶÐ¾": 7432,
      "Ġsimplu": 7433,
      "Ġcopiii": 7434,
      "ĠdalÄ¯": 7435,
      "ĠÑĤÐ¾ÑĤ": 7436,
      "aniz": 7437,
      "Ġlucruri": 7438,
      "Ġhá»į": 7439,
      "ÄĹly": 7440,
      "Ð½Ð°Ð·Ð½Ð°": 7441,
      "ĠÑĤÑĢÑĥÐ´": 7442,
      "inile": 7443,
      "ÐŁÐµÑĤÐµÑĢÐ±ÑĥÑĢ": 7444,
      "Ġpriim": 7445,
      "ĠnumÄĥrul": 7446,
      "ĠCap": 7447,
      "á»Ļi": 7448,
      "ĠÐ¶Ð¸Ð²Ð¾ÑĤ": 7449,
      "ĠÑĥÑĩÑĢÐµ": 7450,
      "Ġnamo": 7451,
      "Ġtá»«": 7452,
      "ĠIon": 7453,
      "kie": 7454,
      "Ġgana": 7455,
      "Ġconside": 7456,
      "Ġparlamen": 7457,
      "ĠSim": 7458,
      "Ġcamp": 7459,
      "ĠÄıal": 7460,
      "Ġvorb": 7461,
      "ÑĪÐ°ÐµÑĤ": 7462,
      "%.": 7463,
      "ĠdydÅ¾io": 7464,
      "Ġsudaro": 7465,
      "Ġkunig": 7466,
      "Ġskon": 7467,
      "ĠÑģÑĤÐ°Ð»Ð¸": 7468,
      "ĠÑĢÐ°Ð¹Ð¾Ð½Ð°": 7469,
      "rÃ¢n": 7470,
      "ĠCor": 7471,
      "ĠgrÄħ": 7472,
      "dial": 7473,
      "ĠÑģÐ¾Ñģ": 7474,
      "xe": 7475,
      "ĠstÄĥ": 7476,
      "Ð´ÑĢÐ°Ð²": 7477,
      "57": 7478,
      "niai": 7479,
      "lei": 7480,
      "Ġbiseri": 7481,
      "ĠÐ¿Ð¾ÑıÐ²Ð¸": 7482,
      "ĠÑģÐ»Ð¸": 7483,
      "Ð¿Ð»Ð¸": 7484,
      "ĠÐ¼Ð¸Ðº": 7485,
      "ÑĤÑĭÑħ": 7486,
      "PS": 7487,
      "Ġsuge": 7488,
      "vinink": 7489,
      "ĠÐ¸Ð½ÑĦÐ¾ÑĢÐ¼Ð°ÑĨÐ¸Ñİ": 7490,
      "ĠmaÅ¡": 7491,
      "inant": 7492,
      "Ġaer": 7493,
      "ĠOn": 7494,
      "eleÅ¾": 7495,
      "ĠavÃ¢nd": 7496,
      "ĠÐĴÐ°Ñģ": 7497,
      "ÐļÐ¾Ð¼": 7498,
      "ĠpouÅ¾": 7499,
      "Ġocaz": 7500,
      "pid": 7501,
      "Ġrie": 7502,
      "enÈĽi": 7503,
      "umen": 7504,
      "ĠÑģÐºÐ°ÑĩÐ°ÑĤÑĮ": 7505,
      "ĠbÅ«tent": 7506,
      "ĠÑĥÐ½Ð¸Ð²ÐµÑĢ": 7507,
      "ÑĢÐ¾ÑĤÐ¸": 7508,
      "Ġpuslap": 7509,
      "iá»ĥ": 7510,
      "ĠÅłil": 7511,
      "Ð´Ð¸ÑĨÐ¸Ð¾Ð½": 7512,
      "Ġfii": 7513,
      "ximativ": 7514,
      "ĠÑĤÐ¾Ð³Ð´Ð°": 7515,
      "Ġpolitik": 7516,
      "pjÅ«": 7517,
      "ĠÑģÐ²Ð¾Ð±": 7518,
      "NA": 7519,
      "tumÄĹte": 7520,
      "Å¡ÃŃch": 7521,
      "ĠBer": 7522,
      "ĠTad": 7523,
      "Ġjus": 7524,
      "ĠÑģÐ±Ð¾ÑĢ": 7525,
      "tuit": 7526,
      "ÑģÑĤÐ²Ð¾Ð²Ð°ÑĤÑĮ": 7527,
      "Ġgink": 7528,
      "Ġgalime": 7529,
      "ĠAuto": 7530,
      "ÐºÐ»Ð°Ð´": 7531,
      "Ġmagaz": 7532,
      "ĠÑĢÐ°Ð±Ð¾ÑĩÐ¸": 7533,
      "Ġtos": 7534,
      "ĠsavaitÄĻ": 7535,
      "Ð¾Ð¶ÐµÑĤ": 7536,
      "ĠÑģÑħ": 7537,
      "tati": 7538,
      "Ġsiguran": 7539,
      "Ð»ÐµÐ½Ð½ÑĭÐµ": 7540,
      "Ġmaxim": 7541,
      "Ġ)": 7542,
      "ĠtÅ³": 7543,
      "Ð»ÑıÐµÑĤ": 7544,
      "rg": 7545,
      "ĠÄ¯sik": 7546,
      "Ġprovo": 7547,
      "ĠÑĤÐµÑĢÑĢÐ¸ÑĤÐ¾ÑĢÐ¸Ð¸": 7548,
      "alea": 7549,
      "Ġvidur": 7550,
      "Ġefici": 7551,
      "Äĥl": 7552,
      "astÄĥ": 7553,
      "ĠpriemoniÅ³": 7554,
      "ĠnariÅ³": 7555,
      "ĠpraÅ¡y": 7556,
      "ragÄĹs": 7557,
      "Ã¡ci": 7558,
      "ĠðŁ": 7559,
      "á»ī": 7560,
      "kart": 7561,
      "Ġgera": 7562,
      "ĠpaaiÅ¡k": 7563,
      "ĠÑĦÑĥÐ½Ðº": 7564,
      "Ġajung": 7565,
      "ĠnumÄĥr": 7566,
      "62": 7567,
      "Ġbenefic": 7568,
      "ĠÐ±Ð¾ÑĢ": 7569,
      "ĠÐ¿Ð¾Ð»Ð¾Ð¶": 7570,
      "tme": 7571,
      "ĠÐ¿ÐµÑģ": 7572,
      "ÈĽat": 7573,
      "Ġgrie": 7574,
      "Ð¼ÐµÐ½ÑĤÐ¾Ð²": 7575,
      "nat": 7576,
      "ĠkarÅ¡": 7577,
      "ĠuÅ¾duo": 7578,
      "Ã©m": 7579,
      "ÑĮÐµÑĢ": 7580,
      "ĠÑĢÐ¾Ð·": 7581,
      "Ġdai": 7582,
      "Ð±ÐµÐ»ÑĮ": 7583,
      "Ð¡Ð¡": 7584,
      "dina": 7585,
      "anul": 7586,
      "ĠÐŁÐ¾Ð»": 7587,
      "Ġhor": 7588,
      "ĠÐ¸ÑĤ": 7589,
      "iojo": 7590,
      "ĠraÅ¡y": 7591,
      "ĠÑģÐ¿Ð¾ÑĢ": 7592,
      "ĠÑĢÐ°Ð¼": 7593,
      "ĠParlam": 7594,
      "ÑĦÐ¾ÑĢÐ¼Ð¸": 7595,
      "ĠromÃ¢ni": 7596,
      "ÑĥÑİÑĤÑģÑı": 7597,
      "Ġdestul": 7598,
      "ĠÄĳáº¿n": 7599,
      "ĠnÃły": 7600,
      "dÅ¾ioje": 7601,
      "ĠÐĶÐµ": 7602,
      "Ð»ÑĭÐµ": 7603,
      "ĠÐ½Ð°Ð¿ÑĢÐ¸Ð¼ÐµÑĢ": 7604,
      "ĠÐ¾Ð³ÑĢÐ¾Ð¼": 7605,
      ".:": 7606,
      "barea": 7607,
      "ĠÑĢÐ°ÑģÐ¿ÑĢÐ¾": 7608,
      "Ġdirect": 7609,
      "ĠkiekvienÄħ": 7610,
      "ĠÐłÐµÑģÐ¿ÑĥÐ±Ð»Ð¸": 7611,
      "ĠÐ¿Ð¾Ñħ": 7612,
      "800": 7613,
      "ĠÃ®nal": 7614,
      "Ġdarbus": 7615,
      "struk": 7616,
      "ĠTr": 7617,
      "enti": 7618,
      "ĠÑĩÐµÑĤ": 7619,
      "ĠkrÃ¡": 7620,
      "masis": 7621,
      "ĠviaÅ£a": 7622,
      "ĠÑħÐ¸": 7623,
      "Ð»ÐµÐ·": 7624,
      "ĠÑģÐ»ÐµÐ´ÑĥÑİÑīÐ¸": 7625,
      "ÑĢÐ¾Ð¹": 7626,
      "Per": 7627,
      "Äįiam": 7628,
      "ĠIlgis": 7629,
      "ĠRusijos": 7630,
      "tarÄĥ": 7631,
      "Ġia": 7632,
      "ĠÑĢÐµÑģ": 7633,
      "ÑĩÐ°ÐµÑĤ": 7634,
      "Ġmato": 7635,
      "Ġkonferen": 7636,
      "ĠtÄĥu": 7637,
      "Ð¾Ð²Ð°Ð»": 7638,
      "ĠÑĢÐ°Ð·Ð»Ð¸ÑĩÐ½ÑĭÑħ": 7639,
      "ĠÅ¡ia": 7640,
      "Ġpasir": 7641,
      "ĠÐ¤ÐµÐ´ÐµÑĢÐ°ÑĨÐ¸Ð¸": 7642,
      "Ã¡cia": 7643,
      "hy": 7644,
      "Ġnetur": 7645,
      "Ġlanky": 7646,
      "ĠÐ»ÐµÐ³ÐºÐ¾": 7647,
      "Ġsvoje": 7648,
      "ĠÐ²ÑģÑı": 7649,
      "Ġsteng": 7650,
      "jul": 7651,
      "nauj": 7652,
      "tose": 7653,
      "ĠMu": 7654,
      "Ġpromov": 7655,
      "Ġfurni": 7656,
      "Ġcineva": 7657,
      "ira": 7658,
      "Ð°Ð½Ðº": 7659,
      "vÃ©": 7660,
      "ĠÐ´ÑĢÑĥÐ³Ð¾Ð¹": 7661,
      "ĠÑĥÐ¼": 7662,
      "Ġthu": 7663,
      "Ġgale": 7664,
      "risti": 7665,
      "Ġkonkre": 7666,
      "Ġalin": 7667,
      "gres": 7668,
      "Ġvedea": 7669,
      "Ð¼Ð°ÑĤÑĢÐ¸": 7670,
      "ĠÐ±Ð°ÑĤÐ°": 7671,
      "ĠÐ¾ÑĢÐ³Ð°Ð½Ð¸Ð·Ð°": 7672,
      "ybe": 7673,
      "ĠÐ¼ÐµÐ½ÑĮ": 7674,
      "don": 7675,
      "ĠÐ¸Ð¼ÐµÑİÑĤ": 7676,
      "ĠÑĤÐµÐ¿ÐµÑĢÑĮ": 7677,
      "igh": 7678,
      "ĠÐºÐ°ÑĩÐµÑģÑĤÐ²Ð°": 7679,
      "Ð´Ð°Ð½Ð¸Ñı": 7680,
      "ĠÑģÐ¾Ð¾ÑĤÐ²ÐµÑĤÑģÑĤÐ²Ð¸Ð¸": 7681,
      "Ġmijlo": 7682,
      "ĠÐĴÐµ": 7683,
      "ĠTri": 7684,
      "Ġvic": 7685,
      "ĠPirk": 7686,
      "ĠcreÈĻte": 7687,
      "Ġvnt": 7688,
      "ĠÑĢÐµÐ¼Ð¾Ð½ÑĤ": 7689,
      "cur": 7690,
      "bÄħ": 7691,
      "ĠRa": 7692,
      "Ġkompani": 7693,
      "tines": 7694,
      "ziu": 7695,
      "ĠUE": 7696,
      "inÅ£Äĥ": 7697,
      "á»©c": 7698,
      "ĠÐºÐ¾Ð¼Ð¿Ð»ÐµÐº": 7699,
      "Ġmobil": 7700,
      "ĠÐ¾ÑģÑĤ": 7701,
      "Ġatidar": 7702,
      "ĠÑĤÑĥÑĢ": 7703,
      "ĠÐŀÐ´Ð½Ð°ÐºÐ¾": 7704,
      "alu": 7705,
      "ĠÃ®nde": 7706,
      "Ġtari": 7707,
      "iz": 7708,
      "toli": 7709,
      "ĠÑģÑĤÑĢÐ°Ð½": 7710,
      "Ġfim": 7711,
      "ĠÐ½ÐµÑĦ": 7712,
      "Ã®nt": 7713,
      "ger": 7714,
      "Ġtit": 7715,
      "Ġkup": 7716,
      "Ġsunku": 7717,
      "Ġderin": 7718,
      "ÐºÐ»Ð°Ð´Ñĭ": 7719,
      "ingo": 7720,
      "ĠlÄĥ": 7721,
      "viÄį": 7722,
      "ĠÐ½Ð°Ð·Ð½Ð°": 7723,
      "ĠÐ¿Ð¾ÑĩÑĤÐ¸": 7724,
      "ÄĹliÅ³": 7725,
      "land": 7726,
      "Ġversi": 7727,
      "Ġfebru": 7728,
      "ĠÐ²Ð¾Ð»Ð¾Ñģ": 7729,
      "tinas": 7730,
      "ĠÐĴÐ»Ð°Ð´Ð¸": 7731,
      "ĠÑģÐ¾Ð±Ñĭ": 7732,
      "ĠmaÅ¾ai": 7733,
      "Ġkod": 7734,
      "ĠkraÅ¡to": 7735,
      "Ġrezultat": 7736,
      "ĠMÄĥ": 7737,
      "ĠÐ¿Ð¾Ð»ÐµÐ·": 7738,
      "ĠÐ¾ÑĤÐ½Ð¾ÑģÐ¸": 7739,
      "ĠÐ±ÐµÐ·Ð¾Ð¿Ð°ÑģÐ½Ð¾ÑģÑĤÐ¸": 7740,
      "Å¾em": 7741,
      "ĠÄ¯pras": 7742,
      "Ġkaimo": 7743,
      "ĠtÃ¢r": 7744,
      "ĠÑĥÑĩÐ°ÑģÑĤÐ¸Ðµ": 7745,
      "á»ģn": 7746,
      "Ġprasid": 7747,
      "á»ĩn": 7748,
      "ĠprÃŃs": 7749,
      "Ġaprilie": 7750,
      "tiz": 7751,
      "ĠÐĴÐ¾Ð»": 7752,
      "Ġkva": 7753,
      "ĠÐºÐ¾Ð¼Ð¿ÑĮÑİ": 7754,
      "Â°": 7755,
      "ÑĤÐµÐ»ÑıÐ¼Ð¸": 7756,
      "Ġajunge": 7757,
      "rane": 7758,
      "Ð¾Ð»ÑĮÐ½Ð¾": 7759,
      "ĠÑıÑĢ": 7760,
      "ĠviaÈĽa": 7761,
      "Ġformos": 7762,
      "Ġobser": 7763,
      "Ġtuomet": 7764,
      "Ġlaim": 7765,
      "Ð¶Ð½ÑĭÑħ": 7766,
      "oarea": 7767,
      "ĠÐ²ÑĭÐ´Ð°": 7768,
      "Ġsco": 7769,
      "vaigÅ¾": 7770,
      "Ġferici": 7771,
      "Ġechipa": 7772,
      "Ð¢Ðŀ": 7773,
      "ĠÑĥÑģÐ»Ð¾Ð²Ð¸ÑıÑħ": 7774,
      "ĠDirec": 7775,
      "Ġcuno": 7776,
      "Ð±Ð°ÑĤÑĭ": 7777,
      "Ġexecu": 7778,
      "Ġdipl": 7779,
      "ÐµÐ¼ÑĭÐµ": 7780,
      "termin": 7781,
      "ĠAstfel": 7782,
      "Ġtokio": 7783,
      "ÐµÐ½Ð½Ð¾Ð³Ð¾": 7784,
      "ĠLau": 7785,
      "ĠÐŁÐ¾ÑįÑĤÐ¾Ð¼Ñĥ": 7786,
      "Ġchem": 7787,
      "Ġprimi": 7788,
      "Ġdeparte": 7789,
      "ÄĹta": 7790,
      "ÑİÑīÐµÐ³Ð¾": 7791,
      "ĠÐ¿Ð¾ÐºÑĥÐ¿Ð°": 7792,
      "rÄĻsti": 7793,
      "Ġduomenis": 7794,
      "Ð¾Ð»Ð¾Ð³Ð¸Ð¸": 7795,
      "ĠÃºÄį": 7796,
      "ora": 7797,
      "ĠÐ¿Ð¾Ð³": 7798,
      "63": 7799,
      "uoks": 7800,
      "dÅ¾iu": 7801,
      "Ġmln": 7802,
      "teÄ¾": 7803,
      "ducÄĥ": 7804,
      "Ð´ÐµÐ±": 7805,
      "Ġkiekvienas": 7806,
      "ĠÐ¾ÑĦÐ¸ÑĨÐ¸Ð°Ð»ÑĮ": 7807,
      "ÑģÑĤÐ²ÐµÐ½Ð½ÑĭÐµ": 7808,
      "Ch": 7809,
      "Ġvald": 7810,
      "nik": 7811,
      "Ġmetai": 7812,
      "Ġmulti": 7813,
      "ĠÐ¼ÐµÑħÐ°Ð½Ð¸": 7814,
      "ĠÐºÐ¾Ð»Ðµ": 7815,
      "Ġmajori": 7816,
      "Ð¶Ð´Ñĭ": 7817,
      "lieka": 7818,
      "ĠÐ¾Ð¿ÑĭÑĤ": 7819,
      "ĠlÃłm": 7820,
      "250": 7821,
      "ĠÐ±Ñİ": 7822,
      "kup": 7823,
      "Ġintro": 7824,
      "ingumo": 7825,
      "ĠJuk": 7826,
      "giant": 7827,
      "ĠÃ®nchis": 7828,
      "ĠKaz": 7829,
      "ĠSunt": 7830,
      "ĠÐ¿Ð¾Ð·Ð¸": 7831,
      "Ġafir": 7832,
      "ĠPrie": 7833,
      "ĠÐ¿Ð¾Ð¶Ð°": 7834,
      "Ġprevede": 7835,
      "ĠÐ¾Ð±ÑĬÐµÐºÑĤ": 7836,
      "Ð·Ñĥ": 7837,
      "Ð¾ÐºÐ°Ð·Ð°": 7838,
      "Ġazi": 7839,
      "Èļ": 7840,
      "69": 7841,
      "ĠÑĢÐ°Ð·ÑĢÐ°Ð±Ð¾ÑĤ": 7842,
      "ĠpregÄĥti": 7843,
      "ĠcreÅŁte": 7844,
      "ĠÐŀÐ½Ð°": 7845,
      "Ġacestor": 7846,
      "ĠÐ¿Ð¾Ð´Ð´ÐµÑĢÐ¶": 7847,
      "manoma": 7848,
      "ÑģÑıÑĤ": 7849,
      "alizÄĥ": 7850,
      "inkite": 7851,
      "Ġputern": 7852,
      "Ġcame": 7853,
      "ĠÈĽÄĥ": 7854,
      "ĠÑħÐ°ÑĢÐ°ÐºÑĤÐµÑĢÐ¸": 7855,
      "Ġkamb": 7856,
      "Ġvaiko": 7857,
      "Ġpaslaugas": 7858,
      "onÄħ": 7859,
      "ÐºÐ¾ÑĢ": 7860,
      "uÄįiÅ³": 7861,
      "Ġcore": 7862,
      "Ġirgi": 7863,
      "ĠÐŁÑĢÐµ": 7864,
      "ĠteisÄĻ": 7865,
      "Ġdevenit": 7866,
      "Ġsistemul": 7867,
      "ĠtoÅ£i": 7868,
      "ĠÑģÐ¼Ð¾ÑĤ": 7869,
      "Ġatsaky": 7870,
      "ĠÐ½ÐµÐ´Ð¾": 7871,
      "Ġmel": 7872,
      "cha": 7873,
      "ĠÐ±Ð¾Ð»ÑĮÑĪÐ¾Ð¹": 7874,
      "Ð½Ð°Ð»Ð°": 7875,
      "ĠsusipaÅ¾": 7876,
      "ĠkokybiÅ¡k": 7877,
      "Ġpateikti": 7878,
      "600": 7879,
      "led": 7880,
      "apras": 7881,
      "ĠCre": 7882,
      "ĠÑģÑĤÐ°Ð²": 7883,
      "ĠdesfÄĥÅŁ": 7884,
      "ĠÐ¾Ð±ÑĢÐ°Ð·Ð¾Ð²Ð°Ð½Ð¸Ñı": 7885,
      "ĠbÄĥtrÃ¢n": 7886,
      "Å¡al": 7887,
      "Ġpartene": 7888,
      "Ð¾Ð»Ð¸ÑĤ": 7889,
      "Ġinicia": 7890,
      "ÐŁÑĢÐ¾": 7891,
      "ĠÃ¡": 7892,
      "eto": 7893,
      "Ġatsk": 7894,
      "ĠacasÄĥ": 7895,
      "88": 7896,
      "Ġciti": 7897,
      "uojamas": 7898,
      "Ġpol": 7899,
      "ÑĤÐµÐ»ÑĮÐ½Ð°Ñı": 7900,
      "Ġrim": 7901,
      "ĠBa": 7902,
      "Ġkop": 7903,
      "alb": 7904,
      "ĠBan": 7905,
      "ĠÐ²Ð·Ð°": 7906,
      "ĠIa": 7907,
      "Ġgiá»": 7908,
      "Ġdesi": 7909,
      "ĠsÄĥr": 7910,
      "iá»ĩt": 7911,
      "ĠÐ¼ÐµÐ´Ð¸ÑĨÐ¸Ð½": 7912,
      "etas": 7913,
      "Ġnaujo": 7914,
      "Ġkonk": 7915,
      "Ġzm": 7916,
      "ĠÐ½Ð¸Ð¼": 7917,
      "Ġveikla": 7918,
      "ĠÐºÑĢÐ°Ð¹": 7919,
      "vio": 7920,
      "esnÄĹ": 7921,
      "leisti": 7922,
      "plo": 7923,
      "ĠadevÄĥrat": 7924,
      "ĠMil": 7925,
      "Ġalie": 7926,
      "ĠÑĥÐ´Ð¾Ð²": 7927,
      "ÐºÐ¸Ð¼Ð¸": 7928,
      "Ġpoten": 7929,
      "Ġlocuri": 7930,
      "viln": 7931,
      "Su": 7932,
      "kaviÅ¡k": 7933,
      "Ġinteg": 7934,
      "Ġliterat": 7935,
      "ĠFo": 7936,
      "ÑĪÐµÐ½Ð¸Ð¹": 7937,
      "Ð¾Ð²ÑĭÑħ": 7938,
      "ĠVytau": 7939,
      ".\"": 7940,
      "ĠeÅ¡te": 7941,
      "Ġreguli": 7942,
      "ĠbÅ«tina": 7943,
      "Ġsukurti": 7944,
      "Ġinst": 7945,
      "Ġskirtas": 7946,
      "ĠÐ¿Ð¾ÑĤÑĢÐµÐ±": 7947,
      "Ð²Ð¾Ð»": 7948,
      "ĠÐ·Ð°Ð´": 7949,
      "Ġpopul": 7950,
      "ĠÐļÐ°ÑĢ": 7951,
      "Å©ng": 7952,
      "aikÅ¡": 7953,
      "ĠÐ²Ð¾Ð¾Ð±ÑīÐµ": 7954,
      "ĠÅ«": 7955,
      "ĠmedÅ¾io": 7956,
      "dei": 7957,
      "ĠÐ¾ÑĤÐ´ÑĭÑħ": 7958,
      "Ġsáº½": 7959,
      "sled": 7960,
      "nus": 7961,
      "utos": 7962,
      "ĠÑĥÐ»Ð¸": 7963,
      "Ġdeschi": 7964,
      "Ġreprezentan": 7965,
      "ÐºÐ¾Ð»ÑĮ": 7966,
      "Å£iuni": 7967,
      "ĠÑĤÐ¸Ð¿Ð°": 7968,
      "Ð²ÐµÐ·": 7969,
      "Ġtarsi": 7970,
      "ĠÐĶÐ¶": 7971,
      "Ġvá»ģ": 7972,
      "ĠÑģÑĤÐ°Ð»": 7973,
      "ÑģÑĤÐ²ÑĥÑİ": 7974,
      "elti": 7975,
      "Ġresponsa": 7976,
      "ĠBel": 7977,
      "zor": 7978,
      "ĠÐ´ÐµÐ»Ð¾": 7979,
      "deauna": 7980,
      "Ġdau": 7981,
      "ĠSal": 7982,
      "ĠÐ¡Ð°Ð½ÐºÑĤ": 7983,
      "ĠÐºÐ°ÑĤÐ°": 7984,
      "Ġslov": 7985,
      "ÑĩÐ½Ð¾Ðµ": 7986,
      "Ġtams": 7987,
      "ÑĢÐ°Ð¶Ð°": 7988,
      "Ġatmin": 7989,
      "ĠÅ¡un": 7990,
      "Ġmno": 7991,
      "km": 7992,
      "Ġdure": 7993,
      "ĠÑĢÐ¾Ð´": 7994,
      "umai": 7995,
      "ovas": 7996,
      "ĠrugsÄĹjo": 7997,
      "ĠComis": 7998,
      "ĠcuvÃ¢n": 7999,
      "ĠÐ²Ð¼ÐµÑģÑĤÐµ": 8000,
      "Nau": 8001,
      "ĠÐºÐ¾ÑĤÐ¾ÑĢÐ¾Ð¼": 8002,
      "Ð»ÑĥÐ°": 8003,
      "ĠÑģÑĢÐµÐ´ÑģÑĤÐ²": 8004,
      "ĠÑĦÐ¸Ð½Ð°Ð½ÑģÐ¾Ð²": 8005,
      "EO": 8006,
      "Ġmink": 8007,
      "ÑĤÐµÐ»Ñİ": 8008,
      "Ġky": 8009,
      "Ġduo": 8010,
      "ĠdidÅ¾ia": 8011,
      "Ġtrauk": 8012,
      "Ġsecre": 8013,
      "Ġkitaip": 8014,
      "Kaip": 8015,
      "Ġafaceri": 8016,
      "Ġpirmo": 8017,
      "pla": 8018,
      "Ġconstruc": 8019,
      "ÑĪÐµÐº": 8020,
      "Ġprograma": 8021,
      "ÈĻtii": 8022,
      "........": 8023,
      "Ð·Ñı": 8024,
      "Ð²Ð¸ÑĤÑĮ": 8025,
      "vari": 8026,
      "imir": 8027,
      "ĠmedÅ¾iaga": 8028,
      "Ġhotel": 8029,
      "Å¡kus": 8030,
      "dytas": 8031,
      "ĠÑģÐ»Ð°": 8032,
      "mato": 8033,
      "aris": 8034,
      "dinio": 8035,
      "Ġdá»¥": 8036,
      "Ġgav": 8037,
      "ĠaÅŁte": 8038,
      "ĠÐ¼Ð°ÑĤÐµÑĢÐ¸Ð°Ð»Ñĭ": 8039,
      "Ġlaiku": 8040,
      "Ġspate": 8041,
      "ĠJÅ«s": 8042,
      "Ġskaus": 8043,
      "Ġkg": 8044,
      "peci": 8045,
      "Ġdvas": 8046,
      "ĠTu": 8047,
      "Ġsez": 8048,
      "ĠrÄĥmas": 8049,
      "Ġsemin": 8050,
      "ĠTele": 8051,
      "ĠkartÅ³": 8052,
      "ĠnÄĥ": 8053,
      "tÃŃ": 8054,
      "ĠkeletÄħ": 8055,
      "aliÄħ": 8056,
      "ĠgÄĥsi": 8057,
      "Ġvienos": 8058,
      "ĠÐ¾Ð·Ð½Ð°": 8059,
      "Ġkurias": 8060,
      "52": 8061,
      "gisla": 8062,
      "hol": 8063,
      "Ġefektyv": 8064,
      "Ġsol": 8065,
      "ĠÐĺÐ½ÑĤÐµÑĢ": 8066,
      "top": 8067,
      "ÑĤÐµÐ¹": 8068,
      "EA": 8069,
      "Ġbola": 8070,
      "TR": 8071,
      "ĠÐ²Ð¾Ð·Ð¼Ð¾Ð¶Ð½Ð¾": 8072,
      "Ġtokie": 8073,
      "ĠâĨ": 8074,
      "tyva": 8075,
      "ÑħÐ¾": 8076,
      "Ġstuden": 8077,
      "Ġkoks": 8078,
      "Ð½Ð½ÑĭÐµ": 8079,
      "ĠsuknelÄĹ": 8080,
      "Ð¿ÑĢ": 8081,
      "Ġkomplek": 8082,
      "Ġruden": 8083,
      "istÅ³": 8084,
      "ĠÑħÐ¾ÑĤÑı": 8085,
      "ĠÐ·Ð°Ð¿Ð¸": 8086,
      "ĠÐľÐ¾ÑģÐºÐ²Ðµ": 8087,
      "Ex": 8088,
      "ĠÐ´Ð¾Ð»Ð»Ð°": 8089,
      "Ġmik": 8090,
      "lÄ¯": 8091,
      "ĠÐ¾Ð´Ð½Ð°": 8092,
      "art": 8093,
      "ĠIII": 8094,
      "ĠSup": 8095,
      "dob": 8096,
      "ĠBaltijos": 8097,
      "ĠCul": 8098,
      "ĠÐ·Ð²Ñĥ": 8099,
      "ĠjucÄĥ": 8100,
      "Ġlocu": 8101,
      "ĠÐ½Ð¾Ð²ÑĭÐµ": 8102,
      "ĠÐ½ÐµÑģ": 8103,
      "ÑĪÐ»Ð¸": 8104,
      "ĠInterna": 8105,
      "Ġkadangi": 8106,
      "ĠÐ¼Ð°ÐºÑģÐ¸Ð¼Ð°": 8107,
      "Ġgh": 8108,
      "ÑĤÐµÐ»ÑĮÐ½ÑĭÐ¼": 8109,
      "Ġanaliz": 8110,
      "Ġaib": 8111,
      "kol": 8112,
      "bora": 8113,
      "ĠbÅ«s": 8114,
      "inÄĹse": 8115,
      "Ġpartne": 8116,
      "Ð¼Ð¾Ð¹": 8117,
      "Ġflo": 8118,
      "ĠÐĶÑĥ": 8119,
      "Ġaproximativ": 8120,
      "ĠÐ³ÑĢÐ°Ð¶Ð´Ð°Ð½": 8121,
      "ĠÐłÑĥ": 8122,
      "ĠasigurÄĥ": 8123,
      "diniÅ³": 8124,
      "ĠviaÈĽÄĥ": 8125,
      "dicÄĥ": 8126,
      "ĠÐ¿ÑĢÐ¸Ð¾Ð±ÑĢÐµ": 8127,
      "Ġfri": 8128,
      "Ġeis": 8129,
      "Ġkde": 8130,
      "Ġdumneavo": 8131,
      "Ð²ÑĭÐ¹": 8132,
      "bur": 8133,
      "ĠÐ³Ð»Ð°Ð·Ð°": 8134,
      "áº±": 8135,
      "Ġcomerci": 8136,
      "ĠÑĨÐµÐ½Ð°": 8137,
      "ĠÑĤÐ¾Ð½": 8138,
      "Ġgeros": 8139,
      "ĠÐ¸Ð½Ð´Ð¸Ð²Ð¸Ð´ÑĥÐ°Ð»ÑĮ": 8140,
      "59": 8141,
      "ĠÐ½Ð°ÑĪÐ¸": 8142,
      "umit": 8143,
      "Ġpremi": 8144,
      "ÑģÑĤÐ¸ÑĤ": 8145,
      "ĠÐ¼Ð°Ð»ÐµÐ½ÑĮ": 8146,
      "Ġmá»": 8147,
      "Ġvyks": 8148,
      "Ġtokios": 8149,
      "Ġkitais": 8150,
      "ĠÐ§ÐµÑĢ": 8151,
      "ĠpavyzdÅ¾iui": 8152,
      "ĠreikÄĹtÅ³": 8153,
      "ĠGre": 8154,
      "ÄĹd": 8155,
      "ĠVisi": 8156,
      "ĠmulÈĽi": 8157,
      "ĠVa": 8158,
      "ĠÐ½Ð°Ð¹": 8159,
      "unk": 8160,
      "Ġgyventi": 8161,
      "Ġpirma": 8162,
      "ÄĹdami": 8163,
      "Vien": 8164,
      "ĠAcest": 8165,
      "ler": 8166,
      "ĠÐ²ÐµÐ»Ð¸": 8167,
      "ĠSÄħjungos": 8168,
      "ÑıÐ²Ð»ÐµÐ½Ð¸Ñı": 8169,
      "ÑħÐ½Ð¸": 8170,
      "iului": 8171,
      "enÃ¡": 8172,
      "ĠoraÅŁ": 8173,
      "Ġskirti": 8174,
      "toria": 8175,
      "Ġexerci": 8176,
      "ĠÅ¾monÄĹms": 8177,
      "dinti": 8178,
      "elÄĻ": 8179,
      "cop": 8180,
      "Ġgrin": 8181,
      "Ġaplinkos": 8182,
      "Ġchel": 8183,
      "ĠÐ½Ð¾ÑıÐ±ÑĢÑı": 8184,
      "78": 8185,
      "á»ĳc": 8186,
      "telui": 8187,
      "Ð°Ð¼Ð¸": 8188,
      "Ġ!": 8189,
      "ĠÐ¶ÑĥÑĢ": 8190,
      "ĠÅ¾ym": 8191,
      "Kai": 8192,
      "valu": 8193,
      "ÑİÑīÐ°Ñı": 8194,
      "ĠacÈĽi": 8195,
      "ĠÐĴÐ¾Ð·": 8196,
      "ĠrÄĥspuns": 8197,
      "Ġintele": 8198,
      "ĠÐ¿ÑģÐ¸": 8199,
      "IE": 8200,
      "ptat": 8201,
      "fika": 8202,
      "Ã´sob": 8203,
      "Ġseni": 8204,
      "Ġartim": 8205,
      "Ġangaja": 8206,
      "ĠĠĠĠ": 8207,
      "ÅŁtii": 8208,
      "loÅ¾": 8209,
      "Ġnorm": 8210,
      "ĠsÄĥrbÄĥ": 8211,
      "ĠÐ½Ð°ÑĢÐ¾Ð´": 8212,
      "kaz": 8213,
      "Ġmereu": 8214,
      "ĠÑģÑĤÑĢÐµ": 8215,
      "Ġfran": 8216,
      "utÄĥ": 8217,
      "Ġbau": 8218,
      "ĠÐ³Ðµ": 8219,
      "Ġatk": 8220,
      "ĠMer": 8221,
      "Bal": 8222,
      "sias": 8223,
      "ĠStan": 8224,
      "Ġcáº£": 8225,
      "ĠÑģÐµÐ·": 8226,
      "ĠÐ¦ÐµÐ½ÑĤ": 8227,
      "2002": 8228,
      "Ġkomandos": 8229,
      "Ġpik": 8230,
      "stre": 8231,
      "Ġzah": 8232,
      "gui": 8233,
      "Ġsar": 8234,
      "Ġec": 8235,
      "Ġnegu": 8236,
      "ĠÑĢÐµÐ·ÑĥÐ»ÑĮÑĤÐ°ÑĤÐµ": 8237,
      "iniuose": 8238,
      "Ġbolo": 8239,
      "ĠÐ§Ð°": 8240,
      "ÃŃch": 8241,
      "53": 8242,
      "Ġkau": 8243,
      "As": 8244,
      "ograf": 8245,
      "ĠÅ¡iol": 8246,
      "ving": 8247,
      "ÐĿÐĲ": 8248,
      "ĠÐ¾ÑĤÐ»Ð¸ÑĩÐ°": 8249,
      "UÅ¾": 8250,
      "Ð¾Ð½Ñĥ": 8251,
      "ĠÐ¼Ð¸ÑĢ": 8252,
      "Ġdaca": 8253,
      "ÐµÐ½Ð½Ð¾Ð¹": 8254,
      "ÐµÐ½ÐµÑĢÐ°": 8255,
      "ĠQu": 8256,
      "matav": 8257,
      "ĠÐ¿ÑĥÐ½": 8258,
      "ĠformÄĥ": 8259,
      "ĠprekÄĹs": 8260,
      "ĠÐºÐ¾Ð½ÐµÑĩÐ½Ð¾": 8261,
      "Ġspalva": 8262,
      "ĠGar": 8263,
      "randa": 8264,
      "Ġspalio": 8265,
      "Ġjurul": 8266,
      "ÑĢÐ¸ÑĤ": 8267,
      "ĠÐ½Ð°ÑħÐ¾Ð´Ð¸ÑĤÑģÑı": 8268,
      "ĠÐ¢Ð¸": 8269,
      "Al": 8270,
      "cident": 8271,
      "Ġrai": 8272,
      "ĠÑįÑĤÑĥ": 8273,
      "Ð¾ÑĢÐ¾Ð´": 8274,
      "Ð·Ð¸Ð´": 8275,
      "aua": 8276,
      "ĠÅłiauliÅ³": 8277,
      "ĠÐ±Ð¸Ð·Ð½ÐµÑģ": 8278,
      "Ġkategori": 8279,
      "ĠÃ®ncre": 8280,
      "Ġpaty": 8281,
      "pres": 8282,
      "rului": 8283,
      "artament": 8284,
      "ĠstrÃ¡n": 8285,
      "naÄį": 8286,
      "Ġconsul": 8287,
      "ĠÐ¿ÑĢÐ¾ÐµÐºÑĤÐ°": 8288,
      "ĠÐ¿Ð¾Ð´Ð°ÑĢ": 8289,
      "ÑĤÐ¸ÐºÐ°": 8290,
      "ĠmedÅ¾iagÅ³": 8291,
      "ĠWin": 8292,
      "ĠÐ´ÐµÑĢÐµÐ²": 8293,
      "ĠÐ¿ÑĢÐµÐ´Ð½Ð°Ð·Ð½Ð°": 8294,
      "tÄĹje": 8295,
      "ĠPanevÄĹÅ¾io": 8296,
      "ÐµÐ¼ÑĭÑħ": 8297,
      "Ġmig": 8298,
      "ĠÐ¿Ð°Ð¼": 8299,
      "Ġatnauj": 8300,
      "Å¡et": 8301,
      "ĠÐ´Ð¸Ð·Ð°Ð¹Ð½": 8302,
      "ĠgÃ¢n": 8303,
      "ĠÐ¿ÑĢÐ¾ÑģÑĤ": 8304,
      "ĠÑģÐ¾ÑħÑĢÐ°": 8305,
      "roid": 8306,
      "rog": 8307,
      "Ġextra": 8308,
      "ĠpoÈĽi": 8309,
      "PR": 8310,
      "Ġpaie": 8311,
      "Ġsutik": 8312,
      "ĠmulÅ£i": 8313,
      "alizare": 8314,
      "Ġsesi": 8315,
      "ĠparuoÅ¡": 8316,
      "ĠpaÅ¡al": 8317,
      "Ġeurope": 8318,
      "ĠnÃ¡s": 8319,
      "ÑĢÐµÐ½Ð¸Ñı": 8320,
      "viÄįiaus": 8321,
      "Ġrapor": 8322,
      "Ð²ÑĭÐ¼": 8323,
      "ÑģÐ¾Ð»": 8324,
      "ĠVlad": 8325,
      "Ãºp": 8326,
      "kys": 8327,
      "ĠÐºÐ¾Ð»Ð»ÐµÐº": 8328,
      "Ġreda": 8329,
      "Ġrecep": 8330,
      "ĠHristos": 8331,
      "Ġgel": 8332,
      "ĠÐĳÐ¾Ð»ÑĮ": 8333,
      "omo": 8334,
      "Ġinterneto": 8335,
      "ĠÐ¿ÐµÑĢÐ²ÑĭÐ¹": 8336,
      "ĠConstanÈĽa": 8337,
      "ĠveÅ¾": 8338,
      "54": 8339,
      "ĠCod": 8340,
      "poje": 8341,
      "arei": 8342,
      "Ġriz": 8343,
      "IR": 8344,
      "ĠÐ¾ÑĤÑģÑĥÑĤ": 8345,
      "Ð½Ð¸ÑĨÑĥ": 8346,
      "Ġachizi": 8347,
      "âĢĺ": 8348,
      "ĠÐŁÐµÑĤ": 8349,
      "ĠviaÅ£Äĥ": 8350,
      "ĠprevÄĥ": 8351,
      "dr": 8352,
      "Ġvaloare": 8353,
      "ĠÐ±Ð°Ð·": 8354,
      "Ð³Ð¸Ð½Ð°": 8355,
      "aim": 8356,
      "Ġdus": 8357,
      "Å«no": 8358,
      "ĠuÅŁ": 8359,
      "todo": 8360,
      "ÑģÐµÐ¹": 8361,
      "ĠâĨĴ": 8362,
      "ĠÐ§ÑĤÐ¾": 8363,
      "Ð»Ð¸ÑĤÑĮ": 8364,
      "ĠÑģÑĤÐ¾ÑĢÐ¾Ð½": 8365,
      "kovo": 8366,
      "Ġdarbas": 8367,
      "Ġlin": 8368,
      "ĠÄĳÃ³": 8369,
      "aro": 8370,
      "ĠtÃ½m": 8371,
      "Ġextrem": 8372,
      "Ġinternet": 8373,
      "Ð´Ð¸ÑĤÑĮ": 8374,
      "ĠiÅ¡lai": 8375,
      "ÑĢÐ¾ÐºÐ°": 8376,
      "Din": 8377,
      "ĠKre": 8378,
      "ĠTuo": 8379,
      "Ġtikslas": 8380,
      "Ġinteri": 8381,
      "TA": 8382,
      "xt": 8383,
      "Ġpopulia": 8384,
      "ĠVilnius": 8385,
      "ĠparaÅ¡": 8386,
      "kin": 8387,
      "Ġbaig": 8388,
      "Ġvaldymo": 8389,
      "ĠÃ®ns": 8390,
      "tadienÄ¯": 8391,
      "Ġfamilie": 8392,
      "ĠbÄĥrbat": 8393,
      "ĠÑģÐ¾Ð²ÐµÑĤ": 8394,
      "Å¾iÅ«": 8395,
      "ĠÑĤÐ¾Ð¿": 8396,
      "1946": 8397,
      "Ġdienomis": 8398,
      "Ġduce": 8399,
      "ĠÑĤÐ°ÐºÐ¾Ðµ": 8400,
      "ĠÐ°Ð²ÑĤÐ¾Ð¼Ð°ÑĤÑĭ": 8401,
      "Åŀ": 8402,
      "Ġpagalbos": 8403,
      "Ġsla": 8404,
      "Ġpici": 8405,
      "Ð¾ÑĩÐºÐ¸": 8406,
      "Ġkainos": 8407,
      "Ġgai": 8408,
      "Ġstruc": 8409,
      "ÑĩÐºÑĥ": 8410,
      "lic": 8411,
      "ghe": 8412,
      "Ġuo": 8413,
      "ĠniciodatÄĥ": 8414,
      "Ð½ÐµÐ½Ð¸Ðµ": 8415,
      "Ġkeliau": 8416,
      "ĠÑģÐ°Ð¼Ð¸": 8417,
      "ĠÐ´ÐµÐ¼": 8418,
      "Ġmele": 8419,
      "ĠEUR": 8420,
      "Ġrapid": 8421,
      "ĠvieÅ¡bu": 8422,
      "ĠmÃł": 8423,
      "Ġfebruarie": 8424,
      "Ġfot": 8425,
      "ĠÐ¼Ð½Ð¾Ð³Ð¸Ðµ": 8426,
      "Ġacestuia": 8427,
      "Ġfut": 8428,
      "ologie": 8429,
      "Ð¼Ð°Ñı": 8430,
      "ĠadÄĥ": 8431,
      "ÐĵÐŀ": 8432,
      "ĠÐ¿Ð¸ÑģÐ°": 8433,
      "Ġsingur": 8434,
      "ĠÐľÐ°Ðº": 8435,
      "ĠfaÅ£a": 8436,
      "ÐŁÐ¾Ð´": 8437,
      "grin": 8438,
      "ĠÐ²ÑĭÑħÐ¾Ð´": 8439,
      "Ð½Ð¸ÐºÐ¾Ð¼": 8440,
      "Ð¶ÐµÐ½Ð¸Ð¸": 8441,
      "ĠÑģÑĤÑĢÐ°Ð½Ñĭ": 8442,
      "Ð»Ð°Ð¼Ð¸": 8443,
      "Ġcinci": 8444,
      "Ġbra": 8445,
      "Ġexisten": 8446,
      "ÑģÑĤÐ°Ð½Ð°Ð²Ð»Ð¸": 8447,
      "ĠÐ½Ð°Ð¸Ð±Ð¾Ð»ÐµÐµ": 8448,
      "ĠÐ¡ÐºÐ°": 8449,
      "Ġnhiá»ģu": 8450,
      "Ġskirta": 8451,
      "ĠbazÄĥ": 8452,
      "stÄĥ": 8453,
      "Ġurmare": 8454,
      "Ġnaujos": 8455,
      "usiÅ³": 8456,
      "ĠÐµÐ´Ð¸": 8457,
      "VD": 8458,
      "Ġamp": 8459,
      "MA": 8460,
      "áº¥y": 8461,
      "ĠÄ¯vy": 8462,
      "ÐľÑĭ": 8463,
      "ĠÐ¿Ð¾Ð¼Ð¾ÑīÐ¸": 8464,
      "enÅ£i": 8465,
      "Ġkole": 8466,
      "rÄ¯Å¾": 8467,
      "Ġkul": 8468,
      "Ð»Ð¸ÑĤ": 8469,
      "sy": 8470,
      "ĠÐ²ÐºÐ»Ñİ": 8471,
      "vesti": 8472,
      "ĠÅ¾mones": 8473,
      "ĠaibÄĥ": 8474,
      "Ġidenti": 8475,
      "Ð¼ÐµÑĢÐ¸ÐºÐ°Ð½": 8476,
      "ĠOri": 8477,
      "ĠiÅ¡or": 8478,
      "ĠÑįÐºÑģÐ¿Ð»ÑĥÐ°": 8479,
      "ĠmÄĹgsta": 8480,
      "uotÅ³": 8481,
      "tumo": 8482,
      "ĠÑģÑĦ": 8483,
      "Ġpamok": 8484,
      "ĠÐ¼ÐµÐ¶Ð´ÑĥÐ½Ð°ÑĢÐ¾Ð´": 8485,
      "ÑıÑģÑĮ": 8486,
      "ĠÐ¾ÑģÐ½Ð¾Ð²Ðµ": 8487,
      "iui": 8488,
      "ĠÑįÐ»ÐµÐºÑĤÑĢÐ¸": 8489,
      "Ġvio": 8490,
      "ĠhÃłng": 8491,
      "ÑİÑģÑĮ": 8492,
      "ĠpaÅ¾as": 8493,
      "ĠAly": 8494,
      "ĠÐĵÐ°": 8495,
      "ĠdÄĹmesio": 8496,
      "ĠÐ¾Ð¶Ð¸": 8497,
      "ĠAlexand": 8498,
      "Ġmisi": 8499,
      "ficÄĥ": 8500,
      "ĠÑģÐ¾Ð¾Ð±ÑīÐ¸": 8501,
      "ĠÐ¤Ð¸": 8502,
      "Ġpermite": 8503,
      "inul": 8504,
      "Å£elor": 8505,
      "Ġsine": 8506,
      "ĠÐ½Ð¾Ð²ÑĭÐ¹": 8507,
      "Ð¼ÑĥÐ»Ñı": 8508,
      "pect": 8509,
      "xi": 8510,
      "DÄĹl": 8511,
      "adar": 8512,
      "Ġkonsul": 8513,
      "Ġdalyvauti": 8514,
      "ovej": 8515,
      "Ġnumaty": 8516,
      "ĠÑĤÐ°ÐºÐ¾Ð³Ð¾": 8517,
      "ymas": 8518,
      "ĠrÄĥu": 8519,
      "ĠÐ½Ð°Ð»": 8520,
      "ĠÐ¿ÑĢÐ¸Ð¼ÐµÐ½Ñı": 8521,
      "Ġdub": 8522,
      "Ð½Ð¸Ð½": 8523,
      "ĠValstyb": 8524,
      "Ġvod": 8525,
      "Ġche": 8526,
      "Ġintre": 8527,
      "ĠTimi": 8528,
      "ĠsuÅ¾ino": 8529,
      "ĠLoc": 8530,
      "ĠÐ¿Ð¸ÑģÑĮ": 8531,
      "ĠDabar": 8532,
      "Ð½Ð°Ð¼": 8533,
      "ert": 8534,
      "ĠÅ¾inias": 8535,
      "Ð»ÑİÐ´": 8536,
      "kÃ½ch": 8537,
      "jungti": 8538,
      "anas": 8539,
      "gio": 8540,
      "ÑģÑģÐ¸Ð¸": 8541,
      "Ġtáº¡i": 8542,
      "Ġlegi": 8543,
      "ĠÐ²Ð»Ð¸Ñı": 8544,
      "ĠgraÅ¾i": 8545,
      "ĠÐ·Ð°ÐºÑĢÑĭ": 8546,
      "ĠDis": 8547,
      "ĠÅ¡vel": 8548,
      "Ġduomenys": 8549,
      "Ġselec": 8550,
      "Ð½Ð¸ÑĤÐµ": 8551,
      "Ġpager": 8552,
      "oko": 8553,
      "ÑģÑģÑĭ": 8554,
      "ĠÐ¾Ð±ÑĢÐ°Ð·Ð¾Ð²Ð°": 8555,
      "Ġniekas": 8556,
      "ĠÑģÑĤÐ¾Ð¸Ð¼Ð¾ÑģÑĤÑĮ": 8557,
      "ĠjumÄĥ": 8558,
      "ĠÐ¡Ð°Ð¼": 8559,
      "Ð¾Ð²ÑĭÐµ": 8560,
      "ĠÑģÑĤÑĥÐ´": 8561,
      "itrauk": 8562,
      "Ġfer": 8563,
      "ĠÐļÐ¾ÑĢ": 8564,
      "tavo": 8565,
      "Ġskry": 8566,
      "kÃ©": 8567,
      "ĠÑĢÐµÐ±ÐµÐ½ÐºÐ°": 8568,
      "Ġkontak": 8569,
      "pjÅ«Äįio": 8570,
      "cura": 8571,
      "ĠÐ¼Ð¾Ð´ÐµÐ»Ð¸": 8572,
      "ĠÄ¯sigyti": 8573,
      "ĠÑģÑĤÐµÐ½": 8574,
      "pareig": 8575,
      "Ð¼Ð°Ð³Ð°Ð·Ð¸": 8576,
      "forman": 8577,
      "].": 8578,
      "isie": 8579,
      "Ġilgai": 8580,
      "ĠÑģÐ¾Ð²ÑģÐµÐ¼": 8581,
      "áºŃp": 8582,
      "Ġimpo": 8583,
      "Ð±ÐµÑĢ": 8584,
      "Ð´ÐµÐ¼": 8585,
      "Å«ni": 8586,
      "ĠIS": 8587,
      "ĠÐ´Ð°Ð²": 8588,
      "etÅ³": 8589,
      "ĠÐ°Ð²ÑĤÐ¾ÑĢ": 8590,
      "Ġdragos": 8591,
      "kui": 8592,
      "ĠÐļÑĢÑĭ": 8593,
      "Ġfisc": 8594,
      "Ġajutorul": 8595,
      "ĠmaÈĻ": 8596,
      "Ġsluoks": 8597,
      "ĠÐ¿Ð¾Ð´ÑĢÐ¾Ð±": 8598,
      "ĠÐ¿ÑĢÐ¸ÑĩÐ¸": 8599,
      "Ġmoteris": 8600,
      "sas": 8601,
      "ĠÐľÑĥ": 8602,
      "ort": 8603,
      "zer": 8604,
      "Ġjuk": 8605,
      "Ġsociale": 8606,
      "Ġá»Ł": 8607,
      "ĠÐ´Ð°Ð½Ð½ÑĭÐµ": 8608,
      "ÑģÑĤÐ²ÑĥÑİÑĤ": 8609,
      "Ġturime": 8610,
      "cio": 8611,
      "ÑģÑĤÐ¸ÑĤÑĮ": 8612,
      "Ġsand": 8613,
      "ĠFlo": 8614,
      "Ġajuta": 8615,
      "ÑĤÐ¾Ðº": 8616,
      "DupÄĥ": 8617,
      "Ġmad": 8618,
      "aras": 8619,
      "Ð´Ð°ÑİÑĤ": 8620,
      "telis": 8621,
      "oaÈĻte": 8622,
      "Ġnormal": 8623,
      "Ġtel": 8624,
      "Ġvidaus": 8625,
      "pes": 8626,
      "Ð¸Ð¹": 8627,
      "tikÄĹ": 8628,
      "Ġreferi": 8629,
      "ĠÐŁÐµ": 8630,
      "Ġkomanda": 8631,
      "Ġdul": 8632,
      "Ġaus": 8633,
      "Ġdori": 8634,
      "Ġinclu": 8635,
      "vius": 8636,
      "ĠFacebook": 8637,
      "ĠGoogle": 8638,
      "Ġunivers": 8639,
      "ĠturÄĹs": 8640,
      "ĠJur": 8641,
      "ĠpradÅ¾ioje": 8642,
      "Ġaflat": 8643,
      "Ġputut": 8644,
      "ĠSlovensk": 8645,
      "ec": 8646,
      "The": 8647,
      "ĠÑģÐ¾Ð»": 8648,
      "Ġpaprastai": 8649,
      "ĠÐ·Ð°ÐºÐ»Ñİ": 8650,
      "Ġstov": 8651,
      "Ð¼ÑĭÑģ": 8652,
      "ĠIoan": 8653,
      "ill": 8654,
      "Ġaco": 8655,
      ",...": 8656,
      "ĠÐ¾ÑģÐ¾Ð±ÐµÐ½": 8657,
      "ĠpublicÄĥ": 8658,
      "Ġviz": 8659,
      "edy": 8660,
      "mais": 8661,
      "Ġpaslaugos": 8662,
      "ĠMir": 8663,
      "ÐļÐĲ": 8664,
      "inele": 8665,
      "sky": 8666,
      "rian": 8667,
      "Ġkvali": 8668,
      "ĠÅ¾vaigÅ¾": 8669,
      "ÑĥÐ»": 8670,
      "ĠÐ²Ð°ÑĪ": 8671,
      "Ġimportante": 8672,
      "Ġgab": 8673,
      "Ġgenera": 8674,
      "2003": 8675,
      "ĠKaune": 8676,
      "ĠÐ´Ð¾Ð»Ð¶Ð½Ð°": 8677,
      "ĠâĢĺ": 8678,
      "Ġcomuni": 8679,
      "Ġpareng": 8680,
      "ÑĩÐ½ÑĭÐ¼": 8681,
      "ĠpreÈĻedin": 8682,
      "ĠÑĢÐ°Ð·Ð½ÑĭÑħ": 8683,
      "ĠÑĢÐµÑģÑĥÑĢ": 8684,
      "Ã¡ng": 8685,
      "ork": 8686,
      "ĠdesfÄĥÈĻ": 8687,
      "Ġprogramos": 8688,
      "ĠÑĢÐ°Ð²": 8689,
      "ĠGri": 8690,
      "ĠPaul": 8691,
      "ÄĹjome": 8692,
      "ĠgalÄĹjo": 8693,
      "ĠKiekvien": 8694,
      "ĠdÄĹlto": 8695,
      "Ġkuriuo": 8696,
      "ĠÐ¾Ð±Ð½Ð°": 8697,
      "enz": 8698,
      "vanie": 8699,
      "ĠMal": 8700,
      "leÅ¾": 8701,
      "ĠÑģÑĥÐ±": 8702,
      "tuie": 8703,
      "ĠÄĳá»ĭ": 8704,
      "rÄĹÅ¾": 8705,
      "ĠtÅ«kstan": 8706,
      "Ġtemp": 8707,
      "Ġaltfel": 8708,
      "ĠÐ¾Ð±ÑĬÐµÐ¼": 8709,
      "ĠÑĢÐ°ÑģÐº": 8710,
      "ÄĥtÄĥ": 8711,
      "Ġsuma": 8712,
      "Ġatmos": 8713,
      "lip": 8714,
      "ybÄħ": 8715,
      "ĠÑģÐ¼Ð¾ÑĤÑĢÐµÑĤÑĮ": 8716,
      "Ġtaisyk": 8717,
      "Ġmedzi": 8718,
      "Ð´Ð¸Ð½Ð°": 8719,
      "vys": 8720,
      "ÑĩÐ°Ð¹": 8721,
      "Ġapylink": 8722,
      "tinga": 8723,
      "vania": 8724,
      "teris": 8725,
      "Ġcopiilor": 8726,
      "Ġlegisla": 8727,
      "Ġku": 8728,
      "Ġvadovas": 8729,
      "Ġero": 8730,
      "ils": 8731,
      "Ġdeclara": 8732,
      "ĠÐ¾ÑĤÐ»Ð¸Ñĩ": 8733,
      "Ġspiri": 8734,
      "ĠdarbuotojÅ³": 8735,
      "pere": 8736,
      "iausi": 8737,
      "Ð¶Ð½Ð¾Ð¹": 8738,
      "ĠCÃ¢nd": 8739,
      "Ġdail": 8740,
      "ĠgeleÅ¾": 8741,
      "ĠDievo": 8742,
      "Ġ--": 8743,
      "Ġniekada": 8744,
      "ĠÐ¿Ð¾ÑģÐµÑĤÐ¸": 8745,
      "Ce": 8746,
      "ĠÐºÑĢÐµÐ´Ð¸ÑĤ": 8747,
      "ĠRu": 8748,
      "ĠbÄĹg": 8749,
      "gÅ¡": 8750,
      "Ġsulauk": 8751,
      "Ġspau": 8752,
      "ĠÐ²Ð¾Ð·Ð¼Ð¾Ð¶Ð½Ð¾ÑģÑĤÐ¸": 8753,
      "ĠprimÄĥ": 8754,
      "ĠÐ¿Ð»Ð°Ð½Ð¸": 8755,
      "ĠÑįÑĤÐ¸Ð¼": 8756,
      "ĠÐ¼ÐµÑģÑĤÐµ": 8757,
      "intis": 8758,
      "ĠcÅ©ng": 8759,
      "ĠÐ¿ÑĢÐ¾Ð´ÑĥÐºÑĨÐ¸Ð¸": 8760,
      "ĠtikrÅ³": 8761,
      "ÑĩÐµÐ½Ð¸Ð¸": 8762,
      "ĠÐķÐ²ÑĢÐ¾Ð¿": 8763,
      "ĠVic": 8764,
      "Ġtrimis": 8765,
      "anÄįio": 8766,
      "ytÄĹ": 8767,
      "86": 8768,
      "ÑĤÐ°ÑĢ": 8769,
      "Ġautomobilio": 8770,
      "Ġlocale": 8771,
      "Ġtapti": 8772,
      "Ġprakti": 8773,
      "Ġultima": 8774,
      "jÃºce": 8775,
      "ĠmultÄĥ": 8776,
      "Ð²ÑĪÐ¸Ð¹": 8777,
      "dows": 8778,
      "Ð·Ð°Ð´": 8779,
      "ĠÐ½Ð°ÑĩÐ°Ð»Ð°": 8780,
      "Ġvokie": 8781,
      "Ġrodo": 8782,
      "ĠÐ°Ð²ÑĤÐ¾Ð¼Ð°ÑĤÐ¸": 8783,
      "ĠÐ¾Ð±ÑĢÐ°Ð±Ð¾ÑĤ": 8784,
      "Ð²Ð°Ð¹ÑĤÐµ": 8785,
      "Ġdalies": 8786,
      "ÐķÐł": 8787,
      "Ġugdymo": 8788,
      "Ġbucuri": 8789,
      "ĠÐ¸Ð³ÑĢÑĥ": 8790,
      "osÅ¥": 8791,
      "Ġenerge": 8792,
      "ĠÐ¡Ð¾Ð²ÐµÑĤ": 8793,
      "jais": 8794,
      "imentare": 8795,
      "Ġistorijos": 8796,
      "ĠÐĺÑģÐ¿Ð¾Ð»Ð½Ð¸": 8797,
      "jÃºci": 8798,
      "icei": 8799,
      "ÐºÐ°Ð±": 8800,
      "cun": 8801,
      "Ġcandid": 8802,
      "ĠÐ¿Ð¾Ð»Ð¾Ð¶Ð¸": 8803,
      "Ġasisten": 8804,
      "ĠProgra": 8805,
      "ĠlietuviÅ¡k": 8806,
      "Ð¾Ð±Ð°": 8807,
      "ĠmÃ¢": 8808,
      "2001": 8809,
      "Ð¸Ð¼Ñĥ": 8810,
      "Ġrozhod": 8811,
      "ĠÄĥ": 8812,
      "Ġfoc": 8813,
      "Ġelev": 8814,
      "Ð»ÑıÑħ": 8815,
      "Ġscri": 8816,
      "ĠÑİÑĢÐ¸": 8817,
      "ĠÐ°Ð»ÑĮ": 8818,
      "ĠÑĨÐµÐ½Ñĭ": 8819,
      "ĠÑģÐµÑĤÐ¸": 8820,
      "Ð¿Ð°Ð½Ð¸Ñı": 8821,
      "ĠLatvi": 8822,
      "Ġinterven": 8823,
      "Ġatvy": 8824,
      "ÐłÐ°": 8825,
      "aka": 8826,
      "ĠÐ·Ð°Ð²": 8827,
      "Ġnesi": 8828,
      "Ġbank": 8829,
      "ĠÐ¿ÑĢÐ¾Ð¸Ð·Ð²Ð¾Ð´ÑģÑĤÐ²Ð°": 8830,
      "asca": 8831,
      "ĠtokÄ¯": 8832,
      "Ġevolu": 8833,
      "Ġpatiek": 8834,
      "nyga": 8835,
      "artÄĥ": 8836,
      "ĠAukÅ¡": 8837,
      "Ġpien": 8838,
      "ÑıÐ±ÑĢÑĮ": 8839,
      "ĠÅ¾ing": 8840,
      "ĠÑģÑĤÐ°Ð½Ð´Ð°ÑĢ": 8841,
      "ĠpajÄĹg": 8842,
      "ÑĩÐµÑģÐºÑĥÑİ": 8843,
      "ĠÑĤÐ¾Ð²Ð°ÑĢÐ°": 8844,
      "Ġdol": 8845,
      "ĠtoÈĽi": 8846,
      "Ġpardav": 8847,
      "ÄĹda": 8848,
      "Ġsubjek": 8849,
      "51": 8850,
      "Ġcentru": 8851,
      "ĠÐŁÑĢ": 8852,
      "inus": 8853,
      "ÐŁÐ¾Ñģ": 8854,
      "ÑĤÑĮÑı": 8855,
      "iniame": 8856,
      "Ð¾Ð¿Ð°": 8857,
      "ĠÐ¸Ð³ÑĢÐ°ÑĤÑĮ": 8858,
      "ĠÐºÐ°ÐºÐ¸Ðµ": 8859,
      "Ġatsakom": 8860,
      "Ġmuri": 8861,
      "ĠiÅ¡laid": 8862,
      "Ġvalori": 8863,
      "Ġunii": 8864,
      "ĠÑħÐ¾Ð·ÑıÐ¹": 8865,
      "Ð½Ð½ÑĭÑħ": 8866,
      "ĠVyriaus": 8867,
      "yt": 8868,
      "Ð¿Ð°Ñģ": 8869,
      "dijos": 8870,
      "ĠcÄĥu": 8871,
      "ĠÐ·Ð°ÑĤÐµÐ¼": 8872,
      "Ġinstan": 8873,
      "ĠÑĢÐ°ÑģÑĪÐ¸": 8874,
      "Ġadus": 8875,
      "Ġmomen": 8876,
      "cole": 8877,
      "kÄĹs": 8878,
      "Ð¢Ðµ": 8879,
      "ĠÐ¸Ð³ÑĢÐ¾Ð²ÑĭÐµ": 8880,
      "ĠÐ½Ð°Ð¿Ð¸ÑģÐ°": 8881,
      "Ð´ÑĨÐ°": 8882,
      "Ġexc": 8883,
      "Ap": 8884,
      "Ġtotal": 8885,
      "Ġultim": 8886,
      "ĠÐ¿ÑĢÐ¸ÐµÐ¼": 8887,
      "torÄĹ": 8888,
      "ĠatsiÅ¾vel": 8889,
      "Ð¸ÑĢÐ°": 8890,
      "ast": 8891,
      "ĠPl": 8892,
      "Ð¸Ð½Ð°": 8893,
      "Ġkino": 8894,
      "ferent": 8895,
      "ĠvÃło": 8896,
      "ĠpuoÅ¡": 8897,
      "Ġstrukt": 8898,
      "ÑĩÐ½Ð¾ÑģÑĤÑĮ": 8899,
      "ĠÐ¾Ð±Ñĥ": 8900,
      "Ð±Ð¸ÑĢ": 8901,
      "cere": 8902,
      "ÐºÐ²Ð¸": 8903,
      "Ġtej": 8904,
      "Ð»Ð¸Ð¹": 8905,
      "61": 8906,
      "ĠÐ¾Ð±ÑģÐ»ÑĥÐ¶Ð¸": 8907,
      "Ġnimeni": 8908,
      "Ġperman": 8909,
      "regis": 8910,
      "Ð³Ð¾Ðµ": 8911,
      "Ġresta": 8912,
      "Ġpere": 8913,
      "ĠcÃ¢ÈĻti": 8914,
      "ĠdÃ¢n": 8915,
      "ĠReg": 8916,
      "ÑīÐ¸Ð¼": 8917,
      "Ġistorija": 8918,
      "tija": 8919,
      "ĠÑĥÐ»ÑĥÑĩ": 8920,
      "iel": 8921,
      "fon": 8922,
      "ĠuÅ¾k": 8923,
      "pon": 8924,
      "ÐµÑĨ": 8925,
      "Ġtvarka": 8926,
      "ĠÑĢÐµÑĪÐµÐ½Ð¸Ðµ": 8927,
      "Ð´Ð¸ÑĤÐµ": 8928,
      "á»ı": 8929,
      "Ġcompeti": 8930,
      "ĠÑģÐ¼Ð¾Ð¶ÐµÑĤÐµ": 8931,
      "istas": 8932,
      "ĠÐ¾ÐºÑĤ": 8933,
      "ske": 8934,
      "galio": 8935,
      "ĠÑĨÐµÐ»ÑĮ": 8936,
      "ĠÅ¾y": 8937,
      "Ġev": 8938,
      "ĠÐºÐ»Ñİ": 8939,
      "tec": 8940,
      "Ġnusikal": 8941,
      "ĠÐ¾Ð±ÑĥÑĩ": 8942,
      "Ġatri": 8943,
      "Ġcunoscut": 8944,
      "Ġtvark": 8945,
      "Ġcontrol": 8946,
      "uale": 8947,
      "Ġprimar": 8948,
      "ĠÐ¿ÑĢÐ¾ÑģÑĤÑĢÐ°Ð½": 8949,
      "ĠÃ®nf": 8950,
      "peÄį": 8951,
      "Ð¸Ñĩ": 8952,
      "Ġnuos": 8953,
      "ĠÐ½Ð°ÑĥÑĩ": 8954,
      "ĠÐ¼Ð½Ð¾Ð¶Ðµ": 8955,
      "ĠÐ¼Ð¸Ð»Ð»Ð¸": 8956,
      "Ġvyriaus": 8957,
      "ĠgrupÄĹ": 8958,
      "Ġvechi": 8959,
      "tamin": 8960,
      "truc": 8961,
      "ÄĹnÅ³": 8962,
      "rimo": 8963,
      "Ġadresa": 8964,
      "Ġrekomenduo": 8965,
      "zÄĹs": 8966,
      "ĠÑģÐºÐ°Ð·Ð°ÑĤÑĮ": 8967,
      "ĠÐ¿ÑĢÐ°ÐºÑĤÐ¸ÑĩÐµÑģÐºÐ¸": 8968,
      "Ð¶Ð½Ð¾": 8969,
      "ĠÐ¿Ð¾Ð»ÑĥÑĩÐµÐ½Ð¸Ñı": 8970,
      "Ġactivitatea": 8971,
      "ĠsiÅ«lo": 8972,
      "ĠmÃ´Å¾ete": 8973,
      "ĠbÅ«d": 8974,
      "Ġesu": 8975,
      "Ġkokia": 8976,
      "Ãºc": 8977,
      "IX": 8978,
      "ĠneuÅ¾": 8979,
      "Ð¿ÑĥÑĤÐ°": 8980,
      "ĠneÅ¾in": 8981,
      "ĠTuri": 8982,
      "Ð½Ð¸ÑĨÐµ": 8983,
      "Ġplotis": 8984,
      "Ð¼Ñı": 8985,
      "Ġsureng": 8986,
      "ĠÐ½Ð°ÑĪÐ¸Ñħ": 8987,
      "Ġlun": 8988,
      "Ġeveniment": 8989,
      "Ġlank": 8990,
      "ÑĢÐµÐ³Ð¸": 8991,
      "Ġinterpre": 8992,
      "Ġgaz": 8993,
      "ĠÐ³Ð¾ÑĢÐ¾Ð´Ðµ": 8994,
      "olae": 8995,
      "Ġpakank": 8996,
      "Ð¼ÐµÐ½Ð°": 8997,
      "Ġdatelor": 8998,
      "Ġsam": 8999,
      "nea": 9000,
      "ÑģÐ¸Ð±Ð¾": 9001,
      "Ġsausio": 9002,
      "ĠÐµÐ¹": 9003,
      "ĠÑģÐ¾Ðº": 9004,
      "Ġexcep": 9005,
      "Ð¢Ð°Ðº": 9006,
      "ĠGro": 9007,
      "ĠÐºÐ¾ÑĢÐ¿Ñĥ": 9008,
      "ĠÑĢÐ°Ð·Ð½Ð¾": 9009,
      "ĠÐ¼Ð¾Ð±Ð¸": 9010,
      "vaÅ¾ia": 9011,
      "ĠÐ½Ð°ÑĪÐµÐ³Ð¾": 9012,
      "Ð´Ð°Ð½Ð¸Ðµ": 9013,
      "aly": 9014,
      "ĠbirÅ¾elio": 9015,
      "ĠlaisvÄĹs": 9016,
      "ĠzÃ¡klad": 9017,
      "ĠÐ¿Ð¾Ð¼Ð¾Ð³Ð°": 9018,
      "uliar": 9019,
      "ĠtrÃªn": 9020,
      "ĠPrieÅ¡": 9021,
      "Ġnepriklausom": 9022,
      "ÑĥÐº": 9023,
      "Ã²ng": 9024,
      "Ãªu": 9025,
      "Å«rÅ³": 9026,
      "Ã¢l": 9027,
      "utÄ¯": 9028,
      "ote": 9029,
      "Ð²Ð¾Ð·Ð¼Ð¾Ð¶": 9030,
      "Ġkonf": 9031,
      "ĠrÄĥmÃ¢ne": 9032,
      "dagog": 9033,
      "Ġfron": 9034,
      "Ġdve": 9035,
      "Ð½ÑĥÐ»": 9036,
      "ÑĤÐ°Ðº": 9037,
      "antiems": 9038,
      "Ġfrumos": 9039,
      "ĠcÃ¢ÅŁti": 9040,
      "ĠGerman": 9041,
      "Ġexplo": 9042,
      "Ġposibil": 9043,
      "ĠÐĵÐ»Ð°Ð²": 9044,
      "ĠÐ±Ð¾Ð»ÐµÐ·": 9045,
      "Pra": 9046,
      "ĠÐ¿ÑĢÐ¾Ð³": 9047,
      "ĠÑĤÐ°ÐºÐ¸Ð¼": 9048,
      "ĠÐ¼ÐµÐ´": 9049,
      "Ġpoky": 9050,
      "ĠÐ¾ÑĤÐ¼ÐµÑĤÐ¸": 9051,
      "IK": 9052,
      "ÑĤÐ¾ÑĤ": 9053,
      "Ġindustri": 9054,
      "elyje": 9055,
      "ĠSus": 9056,
      "ĠktorÃŃ": 9057,
      "Ġdeb": 9058,
      "ĠSan": 9059,
      "ĠgeguÅ¾ÄĹs": 9060,
      "ceava": 9061,
      "ĠÑĤÐ¾Ð¼Ñĥ": 9062,
      "ĠTÄĹ": 9063,
      "ĠÑģÑĤÐ°Ð½Ð¾Ð²Ð¸": 9064,
      "Ġconsta": 9065,
      "ĠÐ³Ð¾Ð»Ð¾Ñģ": 9066,
      "her": 9067,
      "Ġkoki": 9068,
      "anÄįiÄħ": 9069,
      "ĠÑĩÐ°ÑģÐ¾Ð²": 9070,
      "ĠÐ¸ÑģÐ¿Ð¾Ð»ÑĮÐ·Ð¾Ð²Ð°Ð½Ð¸Ñı": 9071,
      "Ġsavan": 9072,
      "ĠzaÄį": 9073,
      "Ġnariai": 9074,
      "Ġcarte": 9075,
      "Ġmech": 9076,
      "ĠcasÄĥ": 9077,
      "davimo": 9078,
      "Ġsiekiant": 9079,
      "Ð¾Ð´ÐµÐ¹": 9080,
      "vyzdÅ¾iui": 9081,
      "Ġduk": 9082,
      "Ġkomen": 9083,
      "nuo": 9084,
      "Ġprime": 9085,
      "Ġagent": 9086,
      "ĠItali": 9087,
      "ĠuÈĻor": 9088,
      "ĠÑĥÐ²ÐµÑĢ": 9089,
      "Ð»Ð¸Ð½Ð°": 9090,
      "ĠÐ²ÑģÐµÐ¹": 9091,
      "ĠÑĥÑĢÐ¾Ð²Ð½Ñı": 9092,
      "Ġdidelis": 9093,
      "Ġrasite": 9094,
      "alog": 9095,
      "Ġimed": 9096,
      "kusi": 9097,
      "Ġvacan": 9098,
      "ÑĢÑĥÐµÑĤÑģÑı": 9099,
      "Ð±ÑĢÐ°": 9100,
      "ĠpadÄĹs": 9101,
      "ĠÐ³ÑĢ": 9102,
      "ĠÐŀÑĢ": 9103,
      "ĠÑģÐ°Ð¼ÑĭÐµ": 9104,
      "Ã¡ciu": 9105,
      "Ġatvir": 9106,
      "ÐĺÐ·": 9107,
      "Ġuniversiteto": 9108,
      "ĠCS": 9109,
      "ĠMihai": 9110,
      "Ġagen": 9111,
      "Ġpagam": 9112,
      "Ð±Ð¾Ð»": 9113,
      "ĠÐŁÐ¸": 9114,
      "Ġkilomet": 9115,
      "________": 9116,
      "ĠuÅ¾pil": 9117,
      "ĠÄ¯ro": 9118,
      "ÑĤÐµÐ»ÑĮÐ½Ð¾ÑģÑĤÑĮ": 9119,
      "ĠÐ´ÑĢ": 9120,
      "ĠÐ²Ð°Ð»": 9121,
      "ĠteigÄĹ": 9122,
      "ĠÐ¿ÑĢÐ¸Ð½ÑĨÐ¸": 9123,
      "Ġalim": 9124,
      "Ġamb": 9125,
      "och": 9126,
      "ĠÃ®ntÃ¢mplÄĥ": 9127,
      "Ġlitera": 9128,
      "Parduo": 9129,
      "ĠÐ²Ð¾Ð·Ð½Ð¸Ðº": 9130,
      "ĠÐ±ÑĢÐ°": 9131,
      "Ġpabaigoje": 9132,
      "Ta": 9133,
      "Ġcultur": 9134,
      "ĠÐºÐ¾Ð¼Ð¸": 9135,
      "Ġcola": 9136,
      "Ã¡i": 9137,
      "áº¥p": 9138,
      "ĠÄ¯moniÅ³": 9139,
      "rel": 9140,
      "arului": 9141,
      "Ġmerge": 9142,
      "ĠKri": 9143,
      "Ġnereikia": 9144,
      "Ġrealizat": 9145,
      "Ġspar": 9146,
      "fiin": 9147,
      "tyvin": 9148,
      "ĠJau": 9149,
      "Ġcasa": 9150,
      "ĠGy": 9151,
      "Ġrelig": 9152,
      "Ġatlyg": 9153,
      "Ġleid": 9154,
      "ĠÑģÐµÑĢÑĮ": 9155,
      "Ġsutri": 9156,
      "ĠÐ¾ÐºÐ¾Ð½ÑĩÐ°": 9157,
      "ĠÐĵÐµÑĢ": 9158,
      "Ġpaslap": 9159,
      "Ġdienas": 9160,
      "neÅ¡": 9161,
      "ĠÐ¿ÑĢÐ¸ÑıÑĤ": 9162,
      "ÐµÐ·Ð´": 9163,
      "Ġsalari": 9164,
      "ÑĩÐµÑģÑĤÐ²Ð¾": 9165,
      "ĠÐ¼Ð¸ÑĢÐµ": 9166,
      "orii": 9167,
      "ãĥ": 9168,
      "Ġatei": 9169,
      "Ġlucrurile": 9170,
      "Ġpiln": 9171,
      "zÃ¢nd": 9172,
      "ĠÐ°ÑĢÑħÐ¸": 9173,
      "Ð²ÐµÐ´ÐµÐ½Ð¸Ñı": 9174,
      "ĠSuceava": 9175,
      "zice": 9176,
      "Ġdedic": 9177,
      "ĠÐ¢Ð°ÐºÐ¶Ðµ": 9178,
      "Ġsva": 9179,
      "Ġdezvoltarea": 9180,
      "Ġinternetu": 9181,
      "ĠÐ·Ð°ÐºÐ¾Ð½Ð¾Ð´Ð°": 9182,
      "Ġnugar": 9183,
      "Ġstai": 9184,
      "ÐĴÐĲ": 9185,
      "Ġautobus": 9186,
      "Ð¼ÐµÑģÑĤ": 9187,
      "ÐµÑĢÐºÐ°": 9188,
      "ĠÅłiuo": 9189,
      "ĠpriemonÄĹs": 9190,
      "Ġliepos": 9191,
      "ĠÐ¾Ð¿Ð¸ÑģÐ°": 9192,
      "Ġlaiky": 9193,
      "ĠÑıÐ½": 9194,
      "uotos": 9195,
      "Ġpolicijos": 9196,
      "ÑĤÐ¾Ð½": 9197,
      "Ġsusir": 9198,
      "eliai": 9199,
      "depend": 9200,
      "ĠÑĥÐ²ÐµÐ»Ð¸ÑĩÐ¸": 9201,
      "ĠÐ¿Ð¾Ð¿Ð°": 9202,
      "ÑģÑĤÐ¸ÑĤÑĥÑĤ": 9203,
      "Ġada": 9204,
      "Ġpuiki": 9205,
      "ÐłÐµ": 9206,
      "Ġhid": 9207,
      "esni": 9208,
      "ĠHD": 9209,
      "Ġdvs": 9210,
      "Ġciu": 9211,
      "Ġlua": 9212,
      "Aces": 9213,
      "zmo": 9214,
      "Ġgia": 9215,
      "ĠÐ½ÐµÐ´Ðµ": 9216,
      "ĠpaÄįiu": 9217,
      "Ġelectri": 9218,
      "ĠlapkriÄįio": 9219,
      "ĠÐ½Ð°Ð·Ð°Ð´": 9220,
      "ĠÐ¸Ð·Ð¾Ð±ÑĢÐ°Ð¶": 9221,
      "ĠpaÅ¾eid": 9222,
      "ĠÐ¾ÐºÐ°Ð·ÑĭÐ²Ð°": 9223,
      "ĠÐ½Ð¾Ð²ÑĭÑħ": 9224,
      "Ġdetermin": 9225,
      "Ġsusik": 9226,
      "ĠBas": 9227,
      "ĠÑĦÐ¾ÑĤÐ¾Ð³ÑĢÐ°ÑĦÐ¸": 9228,
      "Ġtoho": 9229,
      "ÑĥÑģÐºÐ°": 9230,
      "rant": 9231,
      "ĠÑģÐ²Ð¾Ð¸Ð¼Ð¸": 9232,
      "liuk": 9233,
      "ÄĹjÄĻ": 9234,
      "mokra": 9235,
      "ĠbiudÅ¾": 9236,
      "ĠÐ¼Ð½Ð¾Ð³Ð¸Ñħ": 9237,
      "áº«": 9238,
      "Ġtrys": 9239,
      "Ġprezenta": 9240,
      "ĠÑĢÐ°Ð¼ÐºÐ°Ñħ": 9241,
      "unda": 9242,
      "indu": 9243,
      "ĠdumneavoastrÄĥ": 9244,
      "ĠÑĢÐµÑĪÐµÐ½Ð¸Ñı": 9245,
      "kaitÄĹ": 9246,
      "ĠadicÄĥ": 9247,
      "ĠDomnului": 9248,
[...]
