#version: 0.2
Ġ Ð
Ð ¾
Ð µ
Ð °
Ð ¸
Ñ Ĥ
Ð ½
Ñ ģ
Ñ Ģ
Ð¾ Ð
Ð »
Ð º
Ñ ĥ
Ñ ĭ
Ñ ı
Ð ¼
Ð ²
ĠÐ ¿
Ñ Į
Ð ´
Ñģ ÑĤ
ĠÐ ²
Ñ ĩ
Ġ Ñģ
Ðµ Ð½
ÑĢ Ð°
ĠÐ ½
Ð¾Ð ²
ĠÐ ¸
Ð ·
Ñ ħ
Ð ¿
ĠÐ ¾
Ð ¹
Ð ±
ĠÐ º
ÑĢ Ðµ
Ð ³
Ðµ ÑĤ
ĠÐ ´
Ð½ Ð¸
Ð¾Ð »
Ð½ Ñĭ
Ñ İ
Ð¾Ð ¼
Ð¾ ÑĢ
ÑĤ Ðµ
Ð¾Ð ´
ĠÐ ¼
Ð½ Ð¾
Ñ Ī
Ð» Ð¸
ĠÐ½ Ð°
Ñ Ĩ
Ð ¶
Ð¾Ð ³
ÑĢ Ð¸
Ð» ÑĮ
Ð½ Ð°
Ñģ Ðº
Ð» Ð°
Ð¾Ð ¹
ÑĤ ÑĮ
ÐµÐ½ Ð¸
ÑĤ Ð°
ĠÐ ±
Ðµ ÑĢ
Ðº Ð°
Ð¾ ÑĤ
Ñ ī
ĠÐ ·
Ġ Ñĥ
Ð² Ð°
Ñ Ħ
Ñģ Ñı
ĠÐ½ Ðµ
ÑĤ Ð¾
Ðµ Ð¼
ÑĢ Ð¾
ÑĤ Ð¸
Ð» Ñı
Ð¾Ð³ Ð¾
ĠÐ ³
Ġ Ñĩ
ÑĨ Ð¸
ĠÐ¿ Ð¾
Ðº Ð¸
Ð¾Ð ±
Ð» Ðµ
ÑĢ Ñĥ
ĠÐ· Ð°
Ġ ÑĢÐ°
Ñ į
Ð¼ Ð¸
Ð´ Ð°
Ð¾ Ð½
Ġ ÑĤ
ÑģÑĤ Ð°
Ð¾Ð² Ð°
ÑģÑĤ Ð²
ĠÐ °
Ð¾Ð º
Ð¾Ð ¶
Ġ Ñį
ĠÐ »
ĠÐ¾ Ð±
ÑģÑĤ Ð¸
ĠÐ¾ ÑĤ
Ñĩ Ðµ
Ð´ Ðµ
ĠÐº Ð°
ĠÐ Ł
ĠÐ Ĵ
ĠÐ¿ ÑĢÐ¸
ĠÐ ¡
Ð¾Ð» ÑĮ
Ñĩ Ð¸
Ð² Ð¸
Ð¼ Ð°
Ð¾ Ñģ
ÐµÐ½Ð¸ Ñı
Ð½ Ðµ
Ñĩ Ð°
Ð· Ð°
Ð½Ñĭ Ñħ
Ð¾Ð ·
Ñģ Ð¸
Ð½Ñĭ Ðµ
ĠÐ² Ñĭ
Ð´ Ð¸
Ð½ Ð¾Ð¹
Ð¾Ð ¿
ĠÐ µ
ĠÐ ļ
ÑĤÐµ Ð»ÑĮ
Ñģ Ð¿
ÑģÐº Ð¸
ĠÐ¿ ÑĢÐ¾
Ñģ Ðµ
Ð½Ñĭ Ð¹
Ð½ Ð¾Ð³Ð¾
Ġ ÑĢÐµ
â Ģ
Ġ (
ĠÐ¿ ÑĢ
Ð³ Ð¾
Ðµ Ð¹
ÑĢÐµ Ð´
ÑģÑĤ ÑĮ
ĠÐ¸ Ð·
ÑĪ Ð¸
Ñĥ Ñİ
Ġ ÑĦ
Ñī Ð¸
Ð³ Ð°
ĠÐ ľ
ĠÐ Ŀ
Ġ ÑģÑĤ
ÐµÐ½Ð¸ Ðµ
ĠÐ ¶
Ġ ÑĤÐµ
ĠÐ´ Ð»Ñı
Â »
Ð° Ð½
Ġ ÑĤÐ°
Ñİ ÑĤ
ĠÐ¿ Ð¾Ð´
Ġ -
Ð° Ð¼
ĠÑĩ ÑĤÐ¾
ÑĢ Ñĭ
ĠÐ ŀ
ĠÑĢÐ° Ð·
Ðº Ð¾
ÐµÑĤ ÑģÑı
Ġ âĢ
ĠÐ¼ Ð°
Ð¼ ÐµÐ½
Ðº Ñĥ
Ð ¡
Ð¿ Ð°
Ð» Ð¾
ĠÐ Ķ
Ð¼ Ðµ
ĠÐ ł
Ðº ÑĤ
Ġ Â
ĠÐ± Ñĭ
ĠÑģ Ð²
Ð ŀ
ĠÐ Ĳ
. .
ĠÑģ Ð¾
Ð» Ñĥ
Ðµ ÑĢÐµ
Ð½Ð¸ Ñı
Ð¾Ð´ Ð¸
Ð Ł
Ð³ Ð¸
Ð¶ Ðµ
Ñģ Ð°
Ñģ ÑĮ
Ñī Ðµ
Ð² Ðµ
ĠÐ¿ Ð¾Ð»
ÑĪ Ðµ
ĠÂ «
Ñĭ Ðµ
Ð Ĵ
ĠÐ ĺ
Ñĥ ÑĤ
ĠÐ ¢
Ð½Ð° Ñı
Ġ Ñħ
Ð¾Ð´ Ð°
Ð¿ Ð¸
ÑĨÐ¸ Ð¸
ÑĢ Ð¾Ð²
ÑģÑĤ Ð¾
Ð½ Ñı
ĠÐ¸ Ð½
ĠÐº Ð¾ÑĤ
Ð¸ Ð·
Ð½ Ð¾Ð²
Ð Ĳ
ÑĤ Ñĭ
Ðº Ð¾Ð²
2 0
Ñĥ Ð´
Ð ļ
ĠÐ¿ ÑĢÐµÐ´
Ġ Ñı
Ð½Ð¾ Ðµ
Ð Ŀ
ĠÐ ĳ
Ð» ÐµÐ½
Ð½Ð¸ Ðµ
ÑģÐº Ð°
ĠÐ² ÑģÐµ
ĠÐ´ Ð¾
ÑĤ Ð¾Ð¼
ĠÐ¼ Ðµ
Ð· Ð¸
ĠÐºÐ° Ðº
Ð¶ Ð¸
ĠÐºÐ¾ÑĤ Ð¾ÑĢ
Ñĭ Ñħ
Ð½ Ð¾Ð¼
ÑĢÐ° Ð²
Ñ ĳ
Ð° ÑĢ
Ð¾ Ðµ
ĠÑĤÐ° Ðº
ĠÐº Ð¾Ð¼
Ðµ Ðº
Ð» Ð¾Ð²
Ð½Ñĭ Ð¼
Ðµ Ð·
ĠÐ» Ð¸
Ñĭ Ð¹
Ð´ Ñĥ
Ð ĺ
Ð° Ð»ÑĮ
ĠÐ´ Ðµ
Ġ ÑģÑĤÐ°
ÑĤ Ñĥ
ÑĨ Ðµ
ĠÐ¼ Ð¾Ð¶
Ð» Ñİ
Ð± Ð¾
ÑģÑĤÐ² ÐµÐ½
ÑĢ Ð¾Ð²Ð°
Ð½Ð¾ ÑģÑĤÑĮ
ÐµÐ½ ÑĮ
Ð½Ð¾ ÑģÑĤÐ¸
ĠÐº Ð¾Ð½
ÑĢ Ñı
ÑĩÐµ ÑģÐºÐ¸
Ð¸ Ð½
ĠÐ ĵ
ĠÑģ Ð¿
ÑģÑĤÐ° Ð²
Ñģ Ñģ
ÑĤ Ð¾ÑĢ
ÑĤÑĮ ÑģÑı
Ð¶ Ð°
ÑģÑĤ Ð²Ð°
Ð ¢
Ð ľ
Ð ł
ĠÑģ Ð¸
Ðº Ðµ
ĠÐ¸ Ð»Ð¸
Ð¾ Ð½Ð°
ÑģÐº Ð¾Ð¹
ÐµÐ½ ÑĤ
ĠâĢ ĵ
ÑĢÐ° Ð½
Ñĥ ÑĢ
Ð± Ð¸
ĠÐ¾ Ñģ
ÑĦ Ð¸
Ð· Ñĭ
ÑĪ Ð°
ĠÐ² Ð¾Ð·
ĠÐ Ĺ
0 0
Ð¾Ð³ Ð¸
Ð² ÐµÑĢ
ĠÑį ÑĤÐ¾
ĠÐ² Ð°
Ð° Ð¹
Ġ "
Ð Ķ
ĠÐ¾ Ð¿
Ð° Ðº
ĠÐ £
Ð² ÐµÑĤ
Ġ ÑĤÐ¾
ĠÐ½ Ð¸
ĠÐ² Ðµ
ĠÐ² Ð¸
ÑĢÐ° Ð·
ĠÐ¿Ð¾ Ñģ
Ð ķ
Ð¾Ð»ÑĮ ÐºÐ¾
ĠÐ½ Ð¾
ÑĤ ÑģÑı
Ñģ Ð»Ð¸
Ð¼ Ð¾
ÑģÑĤÐ² Ð¾
20 1
Ñī Ð°
Ð¾ÑĢ Ð¸
ĠÑģ Ðµ
Ð¶ Ð´
ĠÐ¶ Ðµ
Ġ ÑĨ
Ð¾ Ð¸
ĠÐ¿ ÐµÑĢÐµ
Ð¼ Ñĥ
Ñħ Ð¾Ð´Ð¸
Ð¾Ð» Ðµ
Ð± Ð¾ÑĤ
ĠÐ» Ñİ
ĠÐ´ Ð°
Ġ ÑĢÑĥ
Ðº Ð¾Ð¼
ĠÐ¿ ÑĢÐµ
ÑĨÐ¸ Ñı
ÑģÐº Ð¾Ð³Ð¾
Ð» ÐµÐ½Ð¸Ñı
Ð½ ÑĥÑİ
ÐµÑĤ Ðµ
Ð° Ð»
Ð¾Ð»ÑĮ Ð·
.. .
ĠÐ Ľ
Ð»Ðµ Ð¹
Ð¾ Ñĩ
Ð½ Ñĥ
ĠâĢ Ķ
ĠÐ± ÑĥÐ´
- -
Ð± Ðµ
ÑĤÐ¸ Ð²
Ð¾Ðº Ð°
Ð¾Ð» Ð¸
ÑĨ Ð°
Ñı ÑĤ
ĠÐ ķ
ĠÑģ Ð°Ð¼
ÑĢÐµ Ð¼
Ð¾Ð´ Ñĥ
ĠÐ ¤
ĠÐ¼ Ð¸
ĠÐĿ Ð°
Ð»Ðµ Ð´
Ñ Ĭ
ÑĦ Ð¾ÑĢ
ĠÐ´ ÑĢÑĥ
Ġ ÑĪ
ĠÐµ Ð³Ð¾
Ñĥ Ñĩ
ÑģÑĤÐ² Ð¸
ĠÑĩ Ð°
Ð½Ð¸ Ð¼Ð°
Ñİ ÑīÐ¸
ĠÐ¸ ÑģÐ¿
ĠÑģ Ñĥ
ĠÐ° Ð²
Ð¼ ÐµÑĢ
ĠÐ¾ Ð½
Ð¼ Ñĭ
Ð¾Ð± Ñĭ
ĠÐ Ń
ÑİÑĤ ÑģÑı
ĠÐ´ Ð¸
ÐµÐ½Ð¸ Ð¸
Ð½Ð¸ Ð¸
ÑģÐºÐ° Ñı
ĠÐ¾ Ð´
Ð½Ñĭ Ð¼Ð¸
Ñħ Ð¾Ð´
ÑĤÐµ ÑĢ
Ġ ÑĢ
Ð± Ð°
Ðµ Ð´
Ñģ Ñĭ
ĠÐ¿ Ð¾Ð¼
ĠÑį ÑĤ
Ð ĳ
ÑģÑĤÐ¾ Ñı
ĠÐ± Ð¾Ð»ÑĮ
ĠÐ¿ Ð°
ÐºÐ° Ð·Ð°
ÑģÐºÐ¸ Ð¹
Ñĥ Ð¶
ĠÐ¿ Ðµ
ĠÐ· Ð½Ð°
Ð¾ÑĢ Ð¾
Ðº Ð¾Ð½
ĠÐ± ÐµÐ·
Ð £
ÑĤÐµ ÑĢÐ¸
Ñģ ÑģÐ¸
ĠÐ¿ ÐµÑĢ
Ðµ ÑĢÐ°
Ðµ ÑģÐ¿
ĠÐº Ñĥ
ÐµÑĤ Ð°
Ð¾Ð³ Ð´Ð°
Ð½Ð¸ ÐºÐ°
ÑģÑĤ Ñĥ
Ð¼ Ð¾Ð¶
ĠÐ §
ĠÐ¸ Ð³
ÑĤ Ð¾Ð²
Ðµ Ð²
ĠÐ² Ð¾
ÑĢÐ° Ð²Ð¸
ĠÑģ Ð»Ñĥ
Ð ĵ
ĠÐ² ÑĢÐµÐ¼
ÐµÐ½Ð¸ Ð¹
ĠÐ´ Ð¾Ð»
ĠÑĩ Ðµ
ĠÐ¿ Ð»Ð°
ĠÐ³ Ð¾ÑĢ
ÑĢ Ð¾Ð¼
e r
ĠÐĹ Ð°
Ðº Ð¾Ð¹
ÐµÑĤ Ð¸
Ð Ľ
Ð Ĺ
Ð¼ Ð¾ÑĤ
ÑģÑĤ ÑĢÐ°
Ð¾Ñģ ÑģÐ¸
ĠÑĤ Ð¾Ð»ÑĮÐºÐ¾
ĠÐ¼Ð¾Ð¶ Ð½Ð¾
Ð¾Ð»ÑĮÐ· Ð¾Ð²Ð°
ĠÐ¿ Ð¸
Ð½Ð¸ Ð¹
Ð² Ð»Ñı
ĠÐ½ Ð¾Ð²
ĠÐ¼ Ñĭ
Ð¿ ÑĢÐ°Ð²
Ð² Ñĭ
Ð» ÐµÐ¼
ĠÐ¸ Ñħ
ĠÑĢÐ° Ð±Ð¾ÑĤ
Ð» ÐµÐ½Ð¸Ðµ
Ñĩ Ð½Ð¾
1 0
Ð² Ð¾
ĠÑģ Ð¾Ð²
ÑĤÐµ Ð»Ñı
Ð½Ð¸ Ðº
Ð½Ðµ Ð¹
i n
Ñħ Ð°
Ð» ÑģÑı
ĠÐ» Ðµ
ĠÑĦ Ð¸
ĠÑģ Ð¾Ð±
ĠÐ¾Ð± Ð»Ð°
Ñģ Ñĥ
Ð» Ð¾Ð¶
Ð¿ Ñĥ
ĠÐ¿ Ð¾Ð²
Ð¾Ð³ ÑĢÐ°
Ð»Ðµ ÐºÑĤ
ÑĤÐµÐ»ÑĮ Ð½Ð¾
ĠÑĢÐ° Ð±Ð¾
ĠÐ¾ ÑĢ
1 9
ĠÐ¿ÑĢ Ð¾Ð²
Ñģ Ð¾Ð²
Ð²Ð° ÑĤÑĮ
Ñĥ Ð±
Ð¾Ð´ Ðµ
Ð° Ð·
ĠÐ¶ Ð¸
ĠÐł Ð¾ÑģÑģÐ¸
Ð¾ÑĤ Ð¸
) .
ÐµÐ½ Ð°
Ð· Ð½Ð°
ĠÐ¿ÑĢÐ¾ Ð¸Ð·
Ð» Ð¾Ñģ
Ð¾Ð¼ Ñĥ
ĠÑĥ Ñģ
Ð² Ñĥ
Ð³ Ñĥ
Ð» Ñĭ
Ð¾ÑĤ Ð¾Ð²
Ðº ÑĢÐ°
Ð´ Ð¾
Ð¾Ð»Ðµ Ðµ
ĠÐ¿ Ð¾ÑĢ
ĠÐ¿Ð¾Ð» Ñĥ
Ð¾Ð» Ð¾Ð³Ð¸
Ð² Ð¾Ð´
ĠÐ¿ Ð¾ÑĤ
ÑĨÐ¸ Ð¾Ð½
ĠÑģÑĤ ÑĢÐ°
Ð¿ Ð¾Ð»
ÑĤ Ð¾Ð±Ñĭ
Ð´Ð¸ Ð½
ĠÐ¼Ð¾Ð¶ ÐµÑĤ
Ð¿ ÑĢÐ¸
ĠÐ¿ Ð¾Ð·
Ð± Ð¾ÑĢ
ĠÑģ Ð°Ð¹
Ð´ Ñĭ
) ,
Ġ S
Ð± Ñĭ
ĠÑĦ Ð¾ÑĢ
ÑģÑĤ ÑĢ
ĠÐ¾ÑĢ Ð³Ð°
Ð¾Ðº Ñĥ
Ñĩ ÐµÐ½ÑĮ
ĠÐº ÑĢÐ°
o n
Ð¾ ÑĢÐ°
Ð»Ðµ Ðº
ÐµÐ½Ð¸ Ñİ
Ð¾Ð± Ð¸
ĠÐ³ Ð¾Ð´Ð°
ĠÑį ÑĤÐ¾Ð¼
ÑĢ ÐµÐ½
ÑģÑĤÐ° Ð½Ð¾Ð²
ĠÐ ¥
ĠÑĤÐ°Ðº Ð¶Ðµ
ĠÐ±ÑĥÐ´ ÐµÑĤ
ĠÐ²ÑĢÐµÐ¼ Ñı
ĠÐ¼ ÐµÐ½
Ð ¤
ÑĤÐµ Ð»ÐµÐ¹
Ð»Ð¸ ÑģÑĮ
ĠÐ¾Ð± ÑĬ
Ð¸ Ñģ
Ð° Ð»Ð¸
Ð³ ÑĢÐ°
ÑĢÐ° Ðº
Ðº Ð»Ñİ
ÐµÐ¼ Ñĥ
ĠÐ ¯
ĠÑĢÐ° Ñģ
Ð¾Ð²Ð° Ð½Ð¸Ñı
ÑĨÐ¸ Ð°Ð»ÑĮ
ÐµÐ½ Ñĭ
ĠÐºÐ¾ÑĤÐ¾ÑĢ ÑĭÐµ
Ġ |
ÑĤÐ¸ Ñı
Ð·Ñĭ Ð²Ð°
ĠÐ´ Ð°Ð½
ï ¿
ÑĢÐµ Ð±
ï¿ ½
ĠÐŁ ÑĢÐ¸
ĠÐº Ð¾ÑĢ
ĠÐµ ÑģÐ»Ð¸
ÑģÑĤ Ðµ
Ñĥ Ñģ
ÑĦÐ¾ÑĢ Ð¼Ð°
ĠÐ° Ðº
ÑĮ Ñİ
Ðº ÑĢÑĭ
Ðµ ÐºÑĤ
ĠÑĥ ÑĩÐ°
Ð»Ð° Ð²
ĠÑĤÐµ Ñħ
ÑĨ Ñĭ
ĠÐ² Ñģ
ĠÐĴ Ñĭ
ĠÐ¸ Ð¼Ðµ
ĠÐ»Ñİ Ð±
ĠÑĩ ÑĤÐ¾Ð±Ñĭ
Ð»Ð¾Ñģ ÑĮ
ÑĢ Ð¾Ðº
Ð¾Ð¼ Ð¸
Ð´Ð° ÑĢ
Ð´ ÐµÑĢ
Ñı Ð·Ð°
Ð´Ðµ Ð»Ð°
Ð³ Ð¾Ð²
ÑģÑĤÐ°Ð² Ð»Ñı
Ð»Ð¸ Ñĩ
ĠÐºÐ¾Ð¼ Ð¿
ÑĨÐ¸ Ñİ
ĠÐ¿ Ð¾Ð¿
ĠÑĥ Ð¶Ðµ
Ñĥ Ð»ÑĮ
Ð° Ñģ
ÐµÐ½Ð¸ ÐµÐ¼
Ðº Ð»Ð°
a n
ĠÑģÐ² Ð¾Ð¸
ÐºÐ° Ð·
ĠÐ²Ð¾Ð· Ð¼Ð¾Ð¶
ĠÑı Ð²Ð»Ñı
ĠÑģÐ² Ð¾
Ð¿ Ðµ
ĠÑį Ðº
ĠÑĩÐµ Ð»Ð¾Ð²
ĠÐ¾Ð± ÑĢÐ°Ð·
ĠÐµ ÑģÑĤÑĮ
Ð¾Ð½Ð° Ð»ÑĮ
ĠÐºÐ° ÑĢ
ĠÐ¾ ÑĩÐµÐ½ÑĮ
ĠÐ¿ Ñĥ
ÑĢÐ° Ð¶
ĠÐ± Ð¾Ð»ÐµÐµ
ĠÐļ Ð°
ĠÐ±Ñĭ ÑĤÑĮ
ÑģÑĤ ÐµÐ¼
ĠÐ¼ Ð¾Ð³
ÑģÑĤÐ° Ð²Ð¸
ĠÐ´Ð¾Ð» Ð¶
ĠÐ´ Ð¾Ð¼
ÑĢÐ¾ Ñģ
Â» .
Ð¹ Ð½
Ð»Ð° ÑģÑĮ
a r
ĠÐ¸ Ð¼
ĠÐºÐ° ÑĩÐµ
ĠÑģ Ð°
ĠÑģÐ¿ Ðµ
ÑĢÐµ Ñģ
Ñĭ Ð¼
Ð½ ÐµÑĤ
ĠÑģ ÑĢÐµÐ´
ĠÐºÐ¾Ð¼ Ð¿Ð°
ĠÑģÐ»Ñĥ ÑĩÐ°
Ð½Ð¸ ÐºÐ¸
ĠÐ°Ð² ÑĤÐ¾Ð¼
Ð¹ ÑĤÐµ
ĠÐ¼Ð° ÑĤÐµÑĢÐ¸
ĠÐ¼ Ð¾
Ð¾Ð± ÑħÐ¾Ð´Ð¸
ĠÐ²Ñĭ Ñģ
ĠÑģ Ð¾Ð·
Ġ M
Ð´ Ð¾Ð²
ĠÐ´ÑĢÑĥ Ð³Ð¸
Ð° ÑĤ
Â» ,
ÑģÑĤ ÑĢÐ¾
ÑīÐµ ÑģÑĤÐ²
Ñħ Ð¸
ÑģÑĤ ÑĢÑĥ
ï¿½ ï¿½
ĠÐ±Ñĭ Ð»Ð¾
Ð½Ðµ Ðµ
ÐºÐ¸ Ðµ
ĠÐ¼ Ð½
ĠÐ¿ÐµÑĢ Ð²
Ð½Ð¸ ÐºÐ¾Ð²
ÑĢ Ð¾Ð´
ĠÑĢÐ° ÑģÐ¿
Ñĩ ÐµÐ½
Ñı Ð²
ĠÐ¾ÑĢÐ³Ð° Ð½Ð¸
Ð¿ ÐµÑĢ
Ð²Ðµ Ð´
o r
Ð¾Ð» Ñı
Ð¾Ð½ Ðµ
ĠÐ² ÐµÑĢ
ĠÐ½Ðµ Ð¾Ð±ÑħÐ¾Ð´Ð¸
ĠÐ´ ÐµÑĤ
ÑģÐºÐ¸ Ðµ
ÑĢÐµ Ð¼ÐµÐ½
1 5
Ġ A
ÑģÐºÐ¸ Ñħ
Ð³ Ð¾Ð´
ÐµÐ½ ÑĤÐ°
ÑĢÑĥ Ð¿
ĠÐ½ ÑĥÐ¶
Ð¾Ð» Ð½Ð¸
ÑĢÐµ Ð´Ðµ
Ð¾Ð¶ Ð¸
Ð»Ð° ÑĤ
ĠÑģ ÐµÑĢ
ÑĪÐ¸ Ñħ
ÐºÐ¸ Ñħ
Ñĩ ÐµÐ½Ð¸Ðµ
ĠÐ» ÐµÑĤ
ĠÐ¾ Ð½Ð¸
ĠÐŁ Ð¾
Ġ C
ĠÐ²Ð¸ Ð´Ðµ
ĠÐ± Ð°
ĠÐłÐ¾ÑģÑģÐ¸ Ð¸
Ġ ÑĨÐµ
ĠÐ¿ Ð¾ÐºÐ°
ĠÐ´ ÐµÐ½ÑĮ
Ð²Ð° ÐµÑĤ
ÑĪ ÑĮ
ÑĤÐµ Ð»Ð¸
Ðº Ð¾Ð»
ĠÑĤÐµ Ð¼
ĠÑĢÐµ Ð·
Ð¾ÑĢ Ð¾Ð²
ÑĤ ÑĢÐ°
Ð¾Ð¶ Ðµ
ĠÑģÐ¸ ÑģÑĤÐµÐ¼
ĠÑĩ ÐµÐ¼
ÑĦ Ðµ
ÑĢÐ¾Ð²Ð° Ð½
Ð¾Ñģ Ð¾Ð±
ĠÑį ÑĤÐ¸
ĠÐĿ Ð¾
Ð¸ Ð¼
ĠÐ¿Ð¾Ñģ Ð»Ðµ
ĠÐ¸ÑģÐ¿ Ð¾Ð»ÑĮÐ·Ð¾Ð²Ð°
1 2
Ñĩ ÐµÑĤ
ĠÐ½Ð° Ñģ
ÑĢÐµ Ð´Ð¸
ĠÐ¸Ð½ ÑĦÐ¾ÑĢÐ¼Ð°
ÐĿ Ð°
Ð± Ñı
ĠÐ¾Ð± ÑĢÐ°
ÐºÐ° Ð¼Ð¸
Ð¸ ÑĤ
ÑĢÐ° Ð»ÑĮ
Ð §
ĠÑģÐ¾Ð· Ð´Ð°
ĠÑĤ Ð¾Ð¼
ĠÐ½Ð° ÑĪ
ÑĢ Ð¾Ð¿
Ð² Ð¾Ð´Ð¸
Ð½ Ð¾Ð²Ð°
ĠÐ ¨
ĠÐ½Ð° ÑĩÐ°
ĠÑĤ Ð¾Ð³Ð¾
Ð¸ ÑĤÐ°
ĠÑį Ð»ÐµÐºÑĤ
ĠÐŀ Ð±
ÑģÐº Ð¾Ð¼
ÑĩÐµÑģÐºÐ¸ Ñħ
ĠÐ¶ Ð¸Ð·
Ð» Ð¾Ð¼
e n
Ñı Ñħ
Ð ¯
ĠÑĢÐ°Ð±Ð¾ ÑĤÐ°
Ð½ Ð³
ĠÐ¼ ÐµÑĤ
Ñĩ ÐµÐ½Ð¸Ñı
Ð» ÐµÑĤ
Ð¾Ñģ Ñĥ
ĠÐº Ð¾Ð³Ð´Ð°
a l
Â Ń
Ð¾Ð³ Ð°
ÐºÐ° Ð½
ĠÐĿ Ðµ
ĠÐ² Ð¾Ð¿
ĠÐ ¦
ĠÐ¼ Ñĥ
ĠÐºÐ¾ÑĤÐ¾ÑĢ ÑĭÐ¹
Ð½ ÑĥÑĤ
ĠÑįÑĤ Ð¾Ð³Ð¾
Ġ P
ÑĪ ÐµÐ½Ð¸Ñı
ĠÐ¿ ÑĢÐ°Ð²
1 8
ĠÐ± Ðµ
ĠÐ´Ðµ Ð»Ð°
ĠÐ² Ð¾Ñģ
Ñĥ Ð½
Ð³ Ð¾ÑĤÐ¾Ð²
ĠÑģ Ðº
ĠÐ± ÐµÑģÐ¿
ĠÐµ Ðµ
ÑĪ ÐµÐ½
ÑĢÑĥ Ð´
Ð»ÑĮ Ð½Ð¾
Ð½Ð¾Ð¼ Ñĥ
ÑģÑĤÐ² Ðµ
ÑĥÑİ ÑīÐ¸
Ð¶ Ð´Ñĥ
Ġ ÑĢÑĭ
ÑĩÐµÑģÐºÐ¸ Ðµ
ÑģÑĤÐ² Ñĥ
ĠÐ´ ÐµÐ¹
ĠÐºÐ° Ð¶Ð´
-- --
ĠÐµ ÑīÐµ
ĠÐ¿ ÑĢÐ°Ð²Ð¸
ÐºÐ° Ñħ
ÑģÑĤÑĥ Ð¿
Ð¼ ÐµÑĤ
ÑģÐº Ð¾Ðµ
Ð¾ ÑģÑĤ
ĠÐľ Ð°
Ð¾ ÑģÐº
Ð Ń
ĠÐ¸Ð½ ÑĤÐµÑĢ
ĠÐ´ Ñĥ
âĢ ¦
Ð¾Ð³ÑĢÐ° Ð¼
ĠÐĴ Ð°
ĠÐ¼ÐµÐ½ Ñı
ÑĤÐ¾ ÑĢÐ°
ĠÐ¾Ñģ Ð½Ð¾Ð²
Ð´Ðµ Ð¹
ĠÐ±Ñĭ Ð»
Ġ T
ÑĨÐ¸ Ð¹
ÑĢÐ¸ Ñı
Ð½ ÑĮ
Ð»Ð¸ ÑĩÐ¸
ĠÐº Ð¾Ð»
ĠÐ¾ Ð½Ð°
ÑĩÐ¸ ÑĤÐ°
ĠÐ¸Ð½ ÑĤÐµ
ÑĪÐµ Ð³Ð¾
ĠÑĢÐµ Ð³Ð¸
ÑĩÐµ ÑģÐºÐ¾Ð¹
Ð½Ð¾ÑģÑĤÑĮ Ñİ
ĠÑĢÐ°Ð±Ð¾ÑĤ Ñĭ
Ð´ ÐµÑĤ
ÑĢÐ° ÑĤÑĮ
ĠÑĤ Ñĭ
ĠÐ² Ð·
Ð¾Ð´ Ñĭ
Ñī ÐµÐ¹
20 0
Ð»Ð¾Ð² Ð¸
Ñı Ð±
ĠÐº Ð»Ð°
Ð¾Ð³ Ð¾Ð²
ĠÑıÐ²Ð»Ñı ÐµÑĤÑģÑı
ÐµÐ½ Ðµ
ĠÐ¿Ð¾Ð»Ñĥ ÑĩÐ¸
3 0
ÑīÐµ Ð³Ð¾
Ð²Ð° ÑĢ
ĠÐ¿ Ð°ÑĢ
ĠÑģ Ð´ÐµÐ»Ð°
e s
Ð ¥
ĠÑħ Ð¾ÑĢÐ¾
Ġ /
Ð¾ÑĤ Ð²ÐµÑĤ
ĠÐ¾Ð¿ ÑĢÐµÐ´Ðµ
ĠÐĺ Ð½
ÑģÑĤ ÑĢÐµ
Ð½Ð¸ Ñİ
Ð»Ð° Ð³
Ð²Ð° Ñı
ĠÑĤ Ð¾ÑĢ
Ð³Ð° Ð·Ð¸
ÑĩÐ° ÑĤÑĮ
ĠÑĤÐµ Ð»Ðµ
ĠÐ» ÑĥÑĩ
ĠÐ¾ÑĤ Ð½Ð¾
Ð¾Ð³ Ð»Ð°
Ġ Â»
Ġ ÑĢÐ¾
Ġ B
ĠÐ¾Ð±Ð»Ð° ÑģÑĤÐ¸
ĠÑģÐ¿ Ð¾ÑģÐ¾Ð±
ÑĮ Ñı
ĠÐ´Ð° Ð¶Ðµ
Ñĥ Ð¼
ĠÐ¿Ð¾ Ñĩ
Ð¾ ÑģÑĤÐ¸
ÐµÑĢÐµ Ð·
ĠÐĿ Ð¾Ð²
ĠÐ³ Ð¾Ð»
ĠÐ¼ Ð¾Ð»
a t
Ñī ÐµÐ½
ĠÑĨ Ð²ÐµÑĤ
ĠÑĤ Ð¾Ð²Ð°
ÑĥÐ»ÑĮ ÑĤÐ°
ÑĢÐµ ÑĤÑĮ
Ð¿ ÑĢÐµ
ĠÐ² Ð°Ð¼
ĠÐ²ÑģÐµ Ñħ
Ġ â
Ð ¨
Ñī ÐµÐ½Ð¸Ñı
ĠÐ¿Ð¾Ð¼ Ð¾
ĠÐķ ÑģÐ»Ð¸
ĠÐ° ÑĢ
ĠÐ ĸ
ĠÐ¿ Ð¾Ðº
ÑĢÐ¾ Ð¸
1 1
ĠÐ¿ÑĢ Ð¾Ð±
Ð¾Ð²Ð° ÑĤÑĮ
ÑĪÐ¸ Ðµ
Ñģ Ð»Ñĥ
Ð± Ñĥ
ĠÐŃ ÑĤÐ¾
5 0
Î ¿
Ð¾ÑĢ ÑĤ
ĠÐ¿ÑĢ Ð¾Ð´Ñĥ
Ð¿Ð¸ ÑĤÑĮ
ĠÑģÐ¾ Ð¾Ð±
ĠÑĢÐ°Ð· Ð²Ð¸
ÑĪ ÐºÐ¸
Ð²Ð° Ð½Ð¸Ñı
ĠÐ¿ÑĢÐ¾ ÑĨÐµ
Ð¼ÐµÐ½ ÑĤÐ°
Ð²Ð° ÐµÑĤÑģÑı
Ð» Ð¾Ðº
ĠÐ¿Ð¾Ñģ Ð»ÐµÐ´
Ġ I
ÑĩÐµÑģÐºÐ¸ Ð¹
ĠÐ¿Ð¾Ð» Ð¸
Ð»Ð¸ Ñı
ĠÐ³ Ð´Ðµ
ÑĥÐ± Ð»Ð¸
Ð·Ð° ÑĨÐ¸Ð¸
Ð¾ÑģÑĥ Ð´Ð°ÑĢ
Ð½Ð¾ ÑģÑĤ
ĠÑĥ ÑģÑĤÐ°Ð½Ð¾Ð²
Ð´ ÑĮ
ÑģÑĤ Ð¾Ð²
ĠÐ¿ÑĢÐ¾ ÑģÑĤÐ¾
ÑĤ ÑĢ
ĠÑģÑĤ Ð¾Ð¸
Ð»Ð° Ð¹Ð½
ĠÐº Ð»Ð¸
ĠÐ³ Ð¾Ð²
Ð»Ð° Ð½
ÑģÑĤ Ñĭ
ĠÐ¿Ð¾Ð· Ð²
ÑģÑĤÑĢ Ð¾Ð¹
Ð»ÑĮ Ð½ÑĭÐµ
ĠÐ¼Ð¾Ð³ ÑĥÑĤ
Ġ D
Ð½Ðµ Ñģ
ÑİÑīÐ¸ Ñħ
ÑĩÐµ ÑģÐºÐ¾Ð³Ð¾
ĠÑģÐ¾ Ð¾ÑĤÐ²ÐµÑĤ
ĠÑģ Ð¼
ĠÑĢÑĥ Ð±
ĠÑĤÐµ ÑĢ
r o
Ð»ÑĮ Ð½ÑĭÐ¹
ĠÐ´ Ð¾Ð¿
ĠÐĶ Ð»Ñı
Ð¾ ÑĤÐµ
ÑĦ ÑĦ
ÑĢÐ¾ Ð½
ĠÐ¾ ÑģÑĤÐ°
Ð¿Ð¸ ÑģÐ°
Ġ ÑĤÐ¸
ĠÑĥÑģ Ð»Ñĥ
ĠÐ¸ ÑģÐº
Ð¾Ð´ ÐµÑĢ
ĠÐ²ÑĭÑģ Ð¾Ðº
ĠÐ±ÐµÑģÐ¿ Ð»Ð°ÑĤ
ĠÐ³ Ð¾Ð´Ñĥ
Ð¸ ÑĤÑĮ
Ð² Ð¾ÑĢ
ÑĪ ÐµÐ½Ð¸Ðµ
Ñħ Ð¾Ð²
ÑĢ Ð¾Ð±
ĠÑĦ Ð¾ÑĤ
r u
Ð³ Ðµ
ĠÐ½ ÐµÑĤ
ÑĤÐ¾Ð¼ Ñĥ
ÑħÐ¾Ð´Ð¸ ÑĤ
ĠÑģÐµ Ð±Ñı
1 00
Ð¾Ð²Ð° Ñı
ĠÐ¼ Ð½Ð¾Ð³Ð¾
ĠÐ° Ð´
ĠÑĢÐµÐ· ÑĥÐ»ÑĮÑĤÐ°
1 4
ĠÐľ Ð¾ÑģÐº
ĠÐ¼Ðµ Ð¶Ð´Ñĥ
ĠÐ²ÑģÐµ Ð³Ð¾
i t
Ð½ ÐµÑĢ
ĠÐ´ÑĢÑĥ Ð³
ÐºÐ¸ Ð¼
ĠÐ² Ð»Ð°
ĠÐ±Ð¾Ð»ÑĮ ÑĪÐµ
Ð²Ð° ÑİÑĤ
Ġ R
ĠÐº Ð¸
Ġ G
ĠÑĦ Ð°
ĠÐ¿ÑĢ Ð¾Ð³ÑĢÐ°Ð¼
ĠÐ¾ÑĤ ÐºÑĢÑĭ
ĠÑĥÑĩÐ° ÑģÑĤ
ĠÐ¾Ñģ Ð¾Ð±
Ð¾Ð²Ð° Ð½Ð¸Ðµ
Ñį ÑĤÐ¾Ð¼Ñĥ
ĠÐ½Ðµ ÑģÐº
ĠÑģ ÐµÐ¼
ĠÑģÐ² Ñı
ĠÑĩ ÐµÑĢÐµÐ·
ĠÐ½Ð¸ Ñħ
ĠÐ´ Ð¾Ð±
ÑĢÐ¾Ð²Ð° ÑĤÑĮ
i c
Ñı Ð¼
ĠÑĤ ÑĢÐµÐ±
ĠÐ± Ð°Ð½
Ð¾ÑĤ Ð¾ÑĢ
ĠÑĢÐ° Ð¹
Ñı ÑĤÑĮ
Ð½Ð¸ ÐµÐ¼
Ġ Ñİ
e l
ĠÐ³ Ð¸
ĠÐ± Ð¸
ÑĪ ÐµÐ¹
ĠÐ¢ Ð°Ðº
Ð² Ð¾Ð¹
s t
ĠÐľ Ð¸
Ð´Ð° Ð½
ĠÐ½ÑĥÐ¶ Ð½Ð¾
Ñĩ ÐºÐ¸
ĠÐŁ ÑĢÐ¾
ĠÐ³ Ð°
ĠÐĴ ÑģÐµ
ĠÐ¶ ÐµÐ½
ĠÑĩÐµÐ»Ð¾Ð² Ðµ
ÑģÑĤ ÐµÑĢ
ÑİÑīÐ¸ Ðµ
! !
Ġ ÑĪÐ¸
ÐºÐ° Ñı
Ð¾Ð¶ Ð´
ĠÑĢÐ° ÑģÑģ
ĠÐ¿ÑĢ Ð¾Ð´
Ħ ĸ
ÑĪÐ¸ Ð¹
ĠÐ± Ñĥ
ÑĤÐ¾ÑĢ Ð¸
ĠÑĥÑģ Ð»Ð¾Ð²Ð¸
ĠÐ¾ÑĤ Ð´Ðµ
ĠÑģÐ»ÑĥÑĩÐ° Ðµ
ĠÐ²Ñĭ Ð¿Ð¾Ð»
Ð»ÑĮ Ð½ÑĭÑħ
Ð¾Ð»Ð¸ ÑĩÐµ
ĠÐŀ ÑĤ
1 6
ÐºÐ¸ Ð¹
ĠÐº Ð¾
ĠÑģ ÐµÐº
ĠÐ´ÐµÐ¹ ÑģÑĤÐ²Ð¸
ĠÐ¿ÑĢ Ð¾ÑĤÐ¸
ĠÑĤ Ñĥ
ĠÐ±Ñĭ Ð»Ð¸
ĠÐ³ ÑĢÐ°
ĠÐ´ Ð²Ð¸
ĠÐ³ Ð¾Ð´
ĠÐ¼ Ð¸Ð½
Ġ ,
ĠÐ½ÐµÐ¾Ð±ÑħÐ¾Ð´Ð¸ Ð¼Ð¾
ĠÐ³ Ð»Ð°
201 8
Ðº ÑĨÐ¸Ð¸
ÐµÑģÐ¿ Ðµ
" .
Ñģ ÑģÐ°
ĠÐ¾ Ðº
ÑĤ ÑĢÐ¸
ÑĢ ÑĮ
ÑĨÐ¸ Ð°Ð»Ð¸
ÑĢÐ° Ð±Ð¾ÑĤ
ĠÐ¾ Ð´Ð¸Ð½
ÐµÐ½ÑĤ Ð¾Ð²
ĠÐ¾Ð½ Ð»Ð°Ð¹Ð½
ÐµÑĤ Ñĭ
Ð»Ð¸ Ð½
ÑĩÐ¸ Ð½Ð°
ÑĢÐ° ÑĤ
Ð¾Ð»Ð½Ð¸ ÑĤÐµÐ»ÑĮ
Ġ H
ĠÑĥ ÑĢÐ¾Ð²
Ñı Ð½
ĠÑģ Ð»ÐµÐ´
ĠÑģÐ¾ ÑģÑĤÐ¾Ñı
ĠÑĥ Ð¿ÑĢÐ°Ð²
Ð² Ð»Ðµ
ÑģÐ¿ Ðµ
ĠÐ¿ Ð»Ð¾
ÑīÐ° Ñı
ĠÐĿ Ð¸
ÑģÑĤ Ð¾ÑĢÐ¸
Ð² Ð¾Ð·
ĠÐ¾Ð± ÐµÑģÐ¿Ðµ
Ð¶ Ð´Ð°
Ð²Ðµ ÑģÑĤ
Ġâ Ħĸ
Ġ L
Ġ F
Ð¶ ÐµÐ½
Ð ¦
_ _
Ð½Ð¸ Ð¼
Ð¶ ÐµÐ½Ð¸Ñı
ĠÐ³ Ð¾ÑģÑĥÐ´Ð°ÑĢ
Ð¿ ÑĢÐ¾
ĠÐ¾ÑĤ Ð²ÐµÑĤ
ĠÐ¼ Ð½Ðµ
ĠÐº ÑĥÑĢ
ĠÐ¿ÑĢ Ð¾Ð´Ð°
Ð° Ð²
Ð³ Ð¾ÑĢ
1 3
ÑĢÐ° Ñģ
Ð¾Ð¶ Ð°
ĠÑģÐ² Ð¾Ðµ
ĠÐ¢ Ðµ
ĠÐ½Ð° Ð¿
ĠÑĤ ÑĢÑĥ
ÐºÐ°Ð· ÑĩÐ¸
Ð³Ð¾Ð´ Ð½Ñı
Ð±Ð¾ ÑĤÐ°
1 7
ĠÐ¿ÑĢÐ¸ Ð¼ÐµÐ½
ÑĤ Ð²ÐµÑĢ
Ñı Ð²Ð¸
" ,
ĠÑĢÐ°Ð· Ð¼Ðµ
ĠÑģÐ² Ð¾Ð¹
ĠÐ´Ð¾Ð¼ Ð°
Ð³ Ð´Ð°
ÑĥÑİ ÑĤ
ĠÑĨ ÐµÐ½ÑĤ
ÑĤÐ¸ Ðµ
ĠÐ¿ÑĢÐ¾Ð± Ð»ÐµÐ¼
ĠÐ²Ð° Ñģ
ĠÐ·Ð° ÑīÐ¸
2 5
Ð½Ð¸ Ñħ
Ðµ Ð´Ðµ
ÑģÑĤÐ² Ð¾Ð¼
ĠÐ¿ÑĢÐµÐ´ Ð¾
Ð»Ñı ÑĢ
ĠÐ·Ð° ÐºÐ¾Ð½
ĠÑħ Ð°
ĠÑĩ Ñĥ
ÑĢÑı Ð´
Ġ E
ÑĨ Ñĥ
Ð¼ÐµÐ½ Ð½Ð¾
ĠÑĤ ÑĢÐ°
ĠÐ¾Ð± ÑıÐ·Ð°
Ð¼ Ð¾Ð½
Ð» ÐºÐ¸
ÑĢÑĥ Ð³
Ð¹ ÑĤÐ¸
ĠÑįÑĤ Ð¾ÑĤ
ĠÐ±Ñĭ Ð»Ð°
Ð´ Ð¾ÑĢÐ¾Ð²
ĠÐº ÑĤÐ¾
Ġ ÑĨÐ¸
Ð¿ Ð¾
Ð»ÐµÐº Ñģ
o m
ĠÑģÐ°Ð¹ ÑĤÐµ
Ð½Ð° Ð»Ð¸
Ð¾Ð²Ð° Ð½
Ð´Ðµ ÑģÑĮ
ĠÐº Ð¾Ð»Ð¸ÑĩÐµ
ÐºÐ¾ Ðµ
ĠÑģ Ð¾Ð³Ð»Ð°
ĠÐºÐ¾Ð¼Ð¿Ð° Ð½Ð¸Ð¸
ĠÑįÑĤ Ð¾Ð¹
ĠÑģ Ð¾Ð´ÐµÑĢ
ĠÑĥ Ñĩ
ĠÐ¼ Ð¾Ð¼
ĠÐ¿ÑĢÐ¾Ð¸Ð· Ð²Ð¾Ð´Ð¸
Ġ ÑĢÐ¸
e t
ĠÐ² Ð¾Ð»
ÐµÐ½ Ð½Ð¾
ĠÐ¢ Ð°
ĠÐ°Ð²ÑĤÐ¾Ð¼ Ð¾Ð±Ð¸
r a
Ð» Ð¾ÑĤ
ÑģÑĤ Ð¾Ð¹
Ð»Ð° Ð³Ð°
ÑĪ ÐºÐ°
ĠÑĤ ÑĢÐ°Ð½
ĠÐ¼Ð¾Ð¶ ÐµÑĤÐµ
ÑĦÐµ ÑģÑģÐ¸
ĠÐ° Ð½
ĠÐ´ Ð¾ÑĢ
ĠÐ±Ð¾Ð»ÑĮ ÑĪ
ĠÑģ ÐºÐ°
Ð»ÑĮ Ð½Ð¾Ð³Ð¾
Ġ N
ĠÑĥ Ð³
ÑīÐµ Ðµ
ĠÐ¾Ð± Ð¾ÑĢ
ÐºÐ»Ñİ ÑĩÐ°
ĠÐļ Ð°Ðº
ĠÐ»Ðµ Ð³
Ðµ Ð´Ð¸
ĠÑĩÐµÐ»Ð¾Ð² ÐµÐº
ĠÐ¿Ðµ ÑĢÐµÐ´
ÐŁ ÑĢÐ¸
Ñĩ Ð½ÑĭÐµ
ĠÐŁ Ð¾Ð´
ĠÐ¡ Ð¾
ĠÐĶ Ð°
ĠÐ´ Ð²Ñĥ
. ,
Ġ ÑģÑĤÐ¸
Ð² Ð½Ð¾
ÑĢÐ°Ðº ÑĤÐ¸
Ñĩ Ð½ÑĭÐ¹
ÑģÑĤÐ°Ð² Ð»ÐµÐ½
ĠÐ¿ÑĢÐ¾Ð¸Ð· Ð²Ð¾Ð´
ÑĨ ÐµÐ½
ĠÐ¼Ð°ÑĤÐµÑĢÐ¸ Ð°
ĠÐ¿Ð¾Ð¼Ð¾ Ñī
ĠÑĥ Ð´Ð°
Ġ [
ÑĨÐµ Ð²
Ðµ Ð»
ÑħÐ¾Ð´ Ñı
ĠÐ³Ð¾ÑĢ Ð¾Ð´
ÐµÐº ÑĤÐ¸Ð²
Ð²Ð° Ð»Ð¸
ÑĪÐ¸ Ð¼
Ñī ÐµÐ½Ð¸Ðµ
ĠÑį ÑĤÐ°
ĠÐł Ð°
Ð²Ð° Ð½Ð¸Ðµ
Ð¼ ÐµÐ½Ð¸
Ð²Ð° ÐµÐ¼
ĠÐ¸Ð½ÑĤÐµ ÑĢÐµÑģ
Ð¿ Ñĭ
ĠÐ¾Ñģ Ñĥ
Ġ W
i l
Ð½Ðµ Ð³Ð¾
Ð» Ð¾Ð²Ð°
ĠÐĺ ÑģÐ¿
2 4
ÑĢÑĥ Ð·
ÑĤÐ¸ Ð½
ÑĮ Ðµ
ĠÐ ®
ĠÑģ Ð¿Ð¸
ĠÐ¶Ð¸Ð· Ð½Ð¸
ĠÐ½Ð° Ð´
Ð¾ÑĢÐ° Ñı
Ð°Ð½ Ð´
ÑıÐ± ÑĢÑı
ĠÐ½Ð° Ð¿ÑĢÐ°Ð²
ĠÐºÐ¾ÑĤÐ¾ÑĢ ÑĭÑħ
Ð¾ ÑĢÐµ
Ñı Ñģ
Ð²Ð¸ ÑģÐ¸
ĠÐ¼Ð° ÑĢ
Ð¿ Ð»Ð°
ĠÐ· ÐµÐ¼
Ġ ...
Ð¶Ð´ ÐµÐ½Ð¸Ñı
ÑĤÐµÐ»ÑĮ ÑģÑĤÐ²Ð°
ĠÑģ ÐºÐ°Ð·Ð°
ÑĦ Ð¾Ð½
ĠÐ¸ÑģÐ¿ Ð¾Ð»ÑĮÐ·
ÑĤÐ¸ Ð¹
ĠÐ² Ð½Ð¸Ð¼Ð°
ÑĢÐ¸ Ð¸
ÑģÑĤÐ²ÐµÐ½ Ð½Ð¾
ĠÐ² Ð½Ðµ
ÐºÐ¾Ð½ Ð¾Ð¼Ð¸
ĠÐ´ÑĢÑĥÐ³Ð¸ Ñħ
ÑĩÐ° Ñģ
Ġ .
ĠÑĩ Ð¸Ñģ
ĠÐ´ Ð¾ÐºÑĥ
Ð± ÑĥÑĢ
Ð½ ÐµÐ½Ð¸Ñı
ĠÑģ Ð¾ÑĤ
ĠÐºÐ¾ÑĤ Ð¾ÑĢÐ°Ñı
ĠÐ½Ðµ Ð¿
ÑĢÐµ Ð¹
ÐµÐ½ Ð½ÑĭÑħ
ÐºÑĤ Ð¾ÑĢ
ÑīÐ¸ Ñħ
ĠÐ·Ð° Ð´Ð°
ĠÐ¸Ð¼Ðµ ÐµÑĤ
ĠÐ¼Ð° Ð³Ð°Ð·Ð¸
ĠÐŀ Ð½
Ñĩ Ð½Ð¾Ð¹
ĠÑį ÑĦÑĦ
ĠÐ¿Ð¾Ð·Ð² Ð¾Ð»Ñı
ÐµÑĢ Ñĭ
ÐµÑĢ Ñħ
ÑİÑīÐ¸ Ð¹
ÐµÐº ÑĤÐ°
Ð¾ÑĤ Ñı
ĠÐ½ÐµÑģÐº Ð¾Ð»ÑĮÐºÐ¾
Ð± Ð»Ð¸
ĠÑģ Ð»Ðµ
ĠÐ¿ Ð¾ÐºÑĥ
Ð½Ð¸ ÑĤÑĮ
ĠÐ°Ð²ÑĤÐ¾Ð¼ Ð°
Ð´ Ð¾Ð±
ĠÑĢÐ°Ð· Ð»Ð¸Ñĩ
ĠÐ²Ñģ ÐµÐ¼
ĠÐ²ÑģÐµ Ð³Ð´Ð°
ĠÐ¾ Ð³
ÑĢÐµ ÑĤ
ÑģÑĤÐ° Ð½
Ð½ Ð¾Ð»Ð¾Ð³Ð¸
ĠÑĦ ÑĥÐ½
Ð² ÑĭÐµ
Ð¼ ÐµÑĤÐ¸
ĠÑģÑĤ ÑĢÐ¾Ð¸
ĠÐĹÐ° ÐºÐ°Ð·ÑĩÐ¸
ÑģÐº Ðµ
Ñĩ Ñĥ
Ð¼Ð¾ÑĤ ÑĢÐµÑĤÑĮ
ĠÐ¸ ÑģÑĤÐ¾ÑĢÐ¸
ĠÑħÐ° ÑĢÐ°Ðº
Ð´ ÐµÐ½
ÐºÑĤ Ñĥ
ĠÐ² Ð¾Ð´
i s
ĠÐ¡ Ð°
Ñĳ Ð½
ĠÑģÑĤÐ° ÑĤÑĮ
Ñħ ÑĢÐ°
ĠÐĲ ÑĢ
Ñı Ð¼Ð¸
ĠÐ³ Ð»Ð°Ð²
r e
ĠÐ³ ÑĢÑĥÐ¿
ĠÐ¾ ÑĦÐ¸
ĠÐ² Ð½ÑĥÑĤ
ÑĤÐµ Ð¼
ÐµÐ¹ ÑĩÐ°Ñģ
ĠÐ¿Ðµ ÑĢÐ¸
ĠÐ¡ ÑĤÐ°
ĠÐ¿Ð¾ÐºÐ° Ð·Ð°
ĠÐ³Ð¾Ð² Ð¾ÑĢÐ¸
Ðº ÑģÐ¸
ĠÑĦÐ¸ Ð»ÑĮ
ÑĢÐµ Ð²
ĠÐļ Ð¸
u s
Ñı ÑĤÐµÐ»ÑĮ
Ð¼Ð¾ ÑģÑĤÑĮ
Ð½Ð° Ð»
h t
ĠÐ²ÑĢÐµÐ¼ ÐµÐ½Ð¸
Ġ t
ĠÐ¿ÑĢÐ¾Ð² ÐµÐ´
Ð «
ĠÐ» Ð°
ĠÐ²Ð¸Ð´Ðµ Ð¾
ĠÑįÐº ÑģÐ¿
Ñĩ ÑĮ
ĠÐ±ÑĥÐ´ ÑĥÑĤ
ĠÐ½Ð° Ð¼
ĠÐ¿ ÑĢÐ°ÐºÑĤÐ¸
Ð¼Ð¾ ÑģÑĤÐ¸
ĠÐ¿ Ð¾Ð»ÑĮÐ·Ð¾Ð²Ð°
ĠÐ´ Ð²Ð°
ĠÐ·Ð° Ð±
ÑĩÐµ ÑģÐºÐ°Ñı
ĠÐ¼Ð° ÑĪÐ¸
ĠÐ² ÑĤÐ¾ÑĢ
ĠÐł Ðµ
Ð¾Ð¿ Ð¸
Ġ V
Ð¶ ÐµÐ½Ð¸Ðµ
ĠÑģÐ¾Ð± ÑģÑĤÐ²ÐµÐ½
ĠÑģÐµ Ð±Ðµ
Ð¾Ð¿ Ð°Ñģ
Ġ c
ĠÑģÐ¿Ðµ ÑĨÐ¸Ð°Ð»ÑĮ
ĠÐļ Ð¾Ð½
Ð¾Ð³ÑĢÐ° ÑĦÐ¸
ĠÑģ ÑĩÐ¸ÑĤÐ°
Ð»ÑĮ Ð½Ð¾Ð¹
Ð»Ð°Ð³ Ð¾Ð´Ð°
ĠÐĴ Ð¸
ĠÐ²Ð¾Ð¿ ÑĢÐ¾
ĠÐ¿ÑĢÐ¾ÑĤÐ¸ Ð²
ĠÐĲ Ð²
ĠÐĺ Ð·
ĠÑĢÐµ Ð±
Ð¼Ð¸ Ð½Ð¸
ÐĹ Ð°
ÑģÑĤÐ¾ Ñĩ
Ð½Ñı ÑĤÑĮ
ÑīÐ¸ Ð¹
ĠÑĢÑĭ Ð½
Ð¾Ð» Ð¾Ð¶
ĠÐ¾Ð±Ð¾ÑĢ ÑĥÐ´
ĠÐ¼ ÑĥÐ¶
ĠÑĥ ÐºÐ°Ð·Ð°
ĠÐł Ð°Ð·
ĠÐ² ÑģÑĤÑĢÐµ
ÑĤÐ° Ð¼Ð¸
ĠÐ³ Ð¾ÑĤÐ¾Ð²
ÑģÑĤ ÑĢÐ°Ð½
Ðº Ñģ
ÐµÐ¼ Ð°
ĠÐ³Ð¾ÑĢ Ð¾Ð´Ð°
Ð²Ð¸ Ð´
Ð½Ð° Ð½
ĠÐ¼ Ð¾Ð´Ðµ
Ð½Ð° ÐºÐ¾
ĠÐ¾Ð± ÑīÐµ
Ð½ ÐµÐ¼
ĠÐŁ Ð¾Ñģ
ÑģÑĤÐ°Ð²Ð»Ñı ÐµÑĤ
l e
Ð» ÐµÐ½Ð¸Ð¸
ÑĤÐµÐ»ÑĮ Ð½ÑĭÑħ
ĠÐ¼ Ð¼
ĠÐ¼Ð½ Ð¾Ð³Ð¸
Ñı Ð´
ÑģÑĤÐ²Ð¸ Ðµ
ĠÐ¡ Ðµ
ĠÐļ Ñĥ
ĠÐºÑĥ Ð¿Ð¸ÑĤÑĮ
ÑĢÐµ Ð¿
2 3
ĠÐ½Ðµ Ðº
Ð ĸ
ĠÐ¿ Ð¾Ð±
ĠÐº Ð½Ð¸
ĠÐ¼Ðµ ÑģÑı
ÑģÐº ÑĥÑİ
ĠÐ½Ð° ÑģÑĤÐ¾Ñı
ĠÐļ Ð¾Ð¼
Ð¸ Ð»Ð¸
Ð² ÑĢÐ°
ĠÐ¶Ð¸ Ð²
ÑĨÐ¸ Ð¾Ð½Ð°Ð»ÑĮ
Ð»Ñĥ Ð±
ĠÑĥ Ð¿
ĠÐ´ Ð¾Ð²
ĠÐ£ ÐºÑĢÐ°
ĠÑħÐ¾ÑĢÐ¾ ÑĪ
ĠÐ¿Ð¾Ð´ Ð´ÐµÑĢ
ĠÐ· Ð´Ð¾ÑĢÐ¾Ð²
Ð´Ð¸ Ð²Ð¸
Ð¾Ð» Ð°
Ð½Ð¸ ÑĨÐ°
Ð¾ÑĢ ÑĤÐ°
Ð¿ÑĢÐ¸ Ð¼ÐµÑĢ
ÑĩÐ° ÑĤ
ĠÐ² Ð¾ÑĤ
ĠÐ±ÐµÑģÐ¿Ð»Ð°ÑĤ Ð½Ð¾
ÑĤÑĥ ÑĢ
Ð· Ð¼
ĠÂ ¦
ĠÐ»Ñİ Ð±Ð¸
Ð» Ð¾Ð½
Ñĭ ÑĤ
Ðµ Ð»Ð¸
ĠÑĨ ÐµÐ½
ĠÐ¿ÑĢÐµÐ´ Ð»Ð¾Ð¶
ĠÐ¿Ð¾Ð» ÑĥÑĩ
ÑĢÐ¸ Ð°Ð½
Ð¡ Ð¢
ĠÐ»Ñİ Ð´ÐµÐ¹
Ð¿ ÐµÑĢÐ°
a m
ĠÐ¶ÐµÐ½ ÑīÐ¸
ĠÑĤÐ° Ð¼
ĠÐ¾Ð± Ñĭ
ĠÑĢÐµ Ð¼Ð¾Ð½
Ñĩ Ð½ÑĭÑħ
Ñĥ ÐµÑĤÑģÑı
ĠÐº Ð²Ð°ÑĢ
ĠÐ²Ð° Ð¶
ÑĩÐµ Ð³Ð¾
ĠÐ¸Ð· Ð¼ÐµÐ½
ĠÐ¸Ð½ÑĤÐµÑĢ Ð½ÐµÑĤ
Ð² Ñı
Ñĳ ÑĤ
ĠÑĩÐ° ÑģÑĤ
ĠÑģÐ¿Ðµ ÑĨÐ¸Ð°Ð»Ð¸
ĠÐ¿ÑĢÐ¾ ÑĦÐµÑģÑģÐ¸
ÑģÑĤÑĢÐ° ÑĨÐ¸Ð¸
ĠÐ¾ ÐºÐ°Ð·Ð°
ÑĤÐµ ÑĢÐ°
ĠÐ¿ÑĢÐµÐ´ Ð¿ÑĢÐ¸
Ġ ÑĪÐ°
ÑĪÐ° Ñı
Ñģ ÑĥÑĤ
ĠÑĢÑĥ Ñģ
ĠÑģÐ²Ð¾ Ñİ
ĠÑģ Ñĭ
ÑĢÐ¾Ð²Ð° Ð½Ð¸Ñı
a s
ĠÐ´Ðµ ÑıÑĤÐµÐ»ÑĮ
ÑĩÐµ Ð±
Ð¼ÐµÐ½ ÑĤ
ĠÑģÐ²Ð¾ ÐµÐ¹
Ð¾Ð± ÑĢÐ°Ð·
Ð± Ð¾Ð»ÑĮ
ĠÑģ Ð»Ð¾Ð¶
ÑģÑĤÐ° ÑĤÐ¾
ĠÐ¸Ð½ ÑģÑĤÑĢÑĥ
ÑģÑģ Ð»ÐµÐ´
ĠÐ·Ð½Ð° ÑĩÐ¸
Ð» Ð¾Ð³
ï¿½ï¿½ ï¿½ï¿½
Ġ Ġ
ĠÐ° Ð¿
ĠÐ¾Ð¿ ÐµÑĢÐ°
Ñģ Ð½Ð¾
ÑĤÐµÐ»ÑĮ Ð½Ð¾Ð¹
ĉ Ċ
ÐµÑĢ ÑĤ
Ð´ Ð¶
ĠÑĤ ÑĢÐ¸
Ð¸Ð· Ð¸
ĠÑĢÐ°Ñģ ÑģÐºÐ°
Ñĭ ÑĤÐ°
ÑĪÐµ Ð»
Ñĩ ÐµÑĢ
ĠÐ¶Ðµ Ð»Ð°
ĠÑĥ ÑĩÐ¸
ĠÐ½Ð° Ð·
ĠÑģÐ¾Ð² ÐµÑĢ
ÑĤÐµ Ð»ÐµÐ¼
ĠÐ·Ð° Ð½Ð¸Ð¼Ð°
ĠÐ²Ð¾Ð·Ð¼Ð¾Ð¶ Ð½Ð¾ÑģÑĤÑĮ
Â «
Ð²Ðµ ÑģÑĤÐ¸
o l
Ð´Ðµ Ð»Ð¸
ĠÑĩÐ° ÑģÑĤÐ¸
ĠÐ½Ð° ÑĢÑĥ
Ð¿Ð° ÑĢÐ°
ĠÐĲ Ð½
ĠÐľ Ñĭ
Ð¿Ð¸ ÑĤÐ°
ĠÐ½Ðµ Ð¼
Ð½Ðµ Ð²
ÐºÑĥ ÑĢ
ĠÐ¾ÑģÑĥ ÑīÐµÑģÑĤÐ²
ÑĢÐ¾Ð¼ Ðµ
ÑĤÐµÐ»ÑĮ Ð½ÑĭÐµ
ĠÐ½Ðµ Ð³Ð¾
ĠÐŀ Ð´
ĠÐ¿Ð¸ ÑĤÐ°
ĠÐ¸ Ð¼ÐµÐ½Ð½Ð¾
ĠÑı Ð·Ñĭ
ĠÐ¾Ð±Ð»Ð° ÑģÑĤÑĮ
ĠÐĽ Ð¸
Ð½ ÐµÐ½
ÑĤÐ¸ ÑĤÑĮ
Ð³ Ð»Ð°
Ð°Ð» Ñĭ
Ðµ Ð»ÑĮ
ÑĦÐ¸ ÐºÐ°
ÑģÑĤ ÑĢÐ¸
ĠÐ³Ð¾ÑģÑĥÐ´Ð°ÑĢ ÑģÑĤÐ²ÐµÐ½
Ñĥ Ð¼Ð°
6 0
ĠÐºÐ¾Ð½ ÑĤÑĢ
ĠÐµ Ð¼Ñĥ
ĠÐ°Ðº ÑĤÐ¸Ð²
ĠÑĥ Ð´Ð¾Ð±
Ðķ ÑģÐ»Ð¸
ÑĨÐ¸ ÐµÐ¹
ÑĤ ÐµÐ½
Ð½ Ñİ
Ñĭ Ð¼Ð¸
Ð¿ÐµÑĢ ÑĮ
Ð½Ð° Ð¼Ð¸
Ð´Ð° ÑĤÑĮ
ĠÐ¼Ðµ Ð´Ð¸
ĠÐ¸Ð· Ð²ÐµÑģÑĤ
4 0
ÑģÑĤÐ²Ð¸ Ñı
Ð´Ð° ÐµÑĤ
Ñĳ Ð¼
ĠÑģÐ´ÐµÐ»Ð° ÑĤÑĮ
ĠÑģÐ¾Ð² ÑĢÐµÐ¼ÐµÐ½
ĠÐ¿ÑĢÐµÐ´ ÑģÑĤÐ°Ð²Ð¸
ÑģÑĤÐ¾Ñı Ð½
ĠÑĩÐµÐ»Ð¾Ð²Ðµ ÐºÐ°
o t
ÑģÑĤÑĥ Ð¿Ð°
ÐŁ Ð¾
Ð³ Ð»Ñı
ĠÐ¼Ðµ ÑģÑĤ
ÐºÐ° Ð·ÑĭÐ²Ð°
ĠÐ² ÑĢÐ°
Ð³ Ð¾ÑĢÐ¸
ĠÐ¿Ð¾Ð¼ Ðµ
ÑĢ ÑĤ
Ð¾ÑĢ Ð¼Ð°
ĠÐ¿Ð¾ ÑįÑĤÐ¾Ð¼Ñĥ
ĠÑģÐ¸ÑģÑĤÐµÐ¼ Ñĭ
201 7
ĠÐ¿Ð¾Ð² Ñĭ
ĠÐ´Ð²Ñĥ Ñħ
Ñģ ÐµÐ¼
Ñī ÐµÐ¼
Ð¾Ð· Ð°
Ð½Ð° Ð´
ÑĢÐ°Ð· Ñĥ
Ñģ Ð¾
ĠÐ¡ Ð¸
a c
ÑĤ Ñı
ĠÑģ Ð¿Ð°
ĠÐ²Ð¸ Ð´
ĠÑĢÐ¾ ÑģÑģÐ¸
ĠÐ¤ ÐµÐ´Ðµ
ĠÐ´ÐµÑĤ ÐµÐ¹
ĠÑģÐ°Ð¹ ÑĤÐ°
ÑĦ Ð°
ÑīÐ¸ Ðµ
Ġ p
Ð¹ ÑģÐºÐ¾Ð¹
Ð¾Ð» Ð¾Ð²
ĠÑĤÐµÑħ Ð½Ð¾Ð»Ð¾Ð³Ð¸
i on
Ñĩ Ð½Ð¾Ð³Ð¾
ĠÐ²Ð° ÑĢÐ¸Ð°Ð½
Ðº Ð¾Ð³Ð¾
Ð²Ð° ÑİÑĤÑģÑı
ĠÐ¿Ð»Ð¾ ÑīÐ°
ĠÐ² Ð¼Ðµ
ÑĩÐ¸ ÑĤÑĮ
ĠÐ¿ÑĢÐµÐ´ Ð»Ð°Ð³Ð°
ÑģÑĤÐ²Ð¸ Ð¸
ĠÐ¿ ÑĢÐ°
ĠÐ±ÐµÐ· Ð¾Ð¿Ð°Ñģ
ÑĩÐµ ÑģÐºÐ¾Ðµ
ÑĤÐµÐ»ÑĮ Ð½ÑĭÐ¹
ÐµÑĤ ÑĮ
ĠÐ²Ð¾Ð¿ ÑĢÐ¾Ñģ
ĠÐ¿ÑĢÐ¾ ÑĪ
Ġ s
Ð½Ð¸ ÑĨÑĭ
Ð» Ð»Ð¸
ĠÐ² Ð¾Ð¹
ĠÑģÐ¾ÑĤ ÑĢÑĥÐ´
201 6
ĠÑĤÐ°Ðº Ð¾Ð¹
Ð» ÐºÐ°
ĠÑĥ Ð½Ð¸
h e
ĠÐ¿ÑĢÐ¾ ÐµÐºÑĤ
ĠÐ·Ð° Ð²Ð¸ÑģÐ¸
Ð±Ð¸ ÑĢÐ°
ÑĢÐ¾Ð²Ð° Ð½Ð¸Ðµ
Ð Ļ
ĠÐ· Ð´ÐµÑģÑĮ
ĠÐ¼Ð° Ñģ
ĠÐ£ÐºÑĢÐ° Ð¸
ÐµÑĤ ÐµÑĢ
ĠÑģ Ð¼Ðµ
Ð·Ð¸ Ð½Ð¾
ÑģÐº Ð¾Ð²
ÐĿ Ðµ
ĠÐ½ÐµÐº Ð¾ÑĤÐ¾ÑĢ
ÑĢÐ¸ ÑĤÐ¾ÑĢÐ¸
ÑģÑĤÐ²Ñĥ ÐµÑĤ
Ð² ÑĢÐ¾Ð¿
ĠÑģÐµ Ð³Ð¾Ð´Ð½Ñı
ĠÑĢÐµÐ± ÐµÐ½
ĠÐ¿ÑĢÐ¾Ð´ Ð¾Ð»
ĠÑĤ Ð¾Ð¶Ðµ
ĠÐ»ÑĥÑĩ ÑĪÐµ
ĠÐ¸ Ð´Ðµ
ĠÐ´Ð¾ ÑģÑĤÑĥÐ¿
Ñĩ ÐµÐ¼
ĠÐ¸Ð³ ÑĢÑĭ
ĠÐ²Ñģ Ñĳ
Ð»ÑĮ Ð½Ð°Ñı
ĠÐ»Ð¸ ÑĨ
Ð» ÐµÑĢ
ĠÑģÑĤÐ° Ð½
ĠÑģÐ²Ð¾Ð¸ Ñħ
ĠÑĥ ÑģÐ¿Ðµ
ĠÐ¿ÑĢÐ¾ Ð¸Ñģ
Ð½Ñĥ ÑĤÑĮ
Ñģ Ð¾Ð¼
ĠÐ½Ð° ÑĩÐ¸Ð½Ð°
Ð½Ð¾Ð² Ð¸
00 0
i g
ĠÐ¼Ðµ ÑģÑĤÐ¾
Ñĥ ÐµÑĤ
ĠÐ´ Ð½ÐµÐ¹
ÐĿ Ðĺ
ĠÑĩ ÐµÑĢ
ĠÑģÐ² ÐµÑĤ
ĠÐ´ÑĢÑĥÐ³Ð¸ Ðµ
ĠÑģÐ¾Ð´ÐµÑĢ Ð¶Ð°
ĠÐº ÑĢÐ¸
ĠÐ± Ð»Ð¸
ĠÐŁ ÐµÑĢ
Ðŀ Ð±
ĠÐ¿ÑĢÐ¸ Ð½Ñı
ĠÑį ÐºÐ¾Ð½Ð¾Ð¼Ð¸
Ð·Ð° ÑĨÐ¸Ñı
in g
ĠÑĥ Ð²Ðµ
ĠÑĥÑĩÐ° ÑģÑĤÐ¸
ĠÐ¡ Ð¾Ð²
Ñģ Ð¾Ðº
ĠÑĩ Ð¸
Ð¾Ð½ ÑĤÐ°
ĠÐ³ Ð°Ð·
Ð´Ñĥ ÐµÑĤ
ĠÐ¿Ð¾Ð»Ñĥ ÑĩÐ°
ĠÐ± Ð¸Ð·
ÐºÐ° Ð¼
ÑĤÐ¸ ÑĢÑĥ
ĠÐ²Ð¾Ð· Ð´Ñĥ
2 2
Ð¾Ð· Ñı
ĠÐ¾ ÑĩÐµ
ĠÐ²Ñĭ Ð±
ĠÐĶ Ð¸
Ġ m
ÑĤÑĥ ÑĢÑĭ
ÐµÐ½ ÑĤÑĭ
ĠÑĢÐµ ÐºÐ»Ð°
ĠÑĦÐ¾ÑĤ Ð¾
ĠÐ½Ð° ÑħÐ¾Ð´Ð¸
ĠÐ¡ ÐµÑĢ
ĠÑģÐ² ÑıÐ·Ð°
ÐĴ Ñĭ
Ð¾ Ñı
ĠÐ¿Ð¾ ÑģÑĤÐ¾ÑıÐ½
Ð¾ÑĢ Ð¾Ð½
ÐºÐ¾Ð¼ ÐµÐ½
ĠÑģÑĤÐ¾Ð¸ ÑĤ
Ð²Ð° Ð»
ÑĢÐ°Ð· Ð´
ĠÑĤÐµÑĢ ÑĢÐ¸ÑĤÐ¾ÑĢÐ¸
ĠÐºÐ¾ÑĤÐ¾ÑĢ Ð¾Ð¹
ĠÐ¼ ÐµÑĢ
ÑĢÐ° Ñħ
ĠÑĤÑĢÐ°Ð½ ÑģÐ¿
ĠÐ»Ð¸ Ð±Ð¾
ĠÐºÐ°ÑĩÐµ ÑģÑĤÐ²Ðµ
ĠÐ½Ð° Ð¸
ĠÑĤ ÑĢÐµ
Ð¼Ð° ÑĤÐ¸
ĠÐ´Ð¸ Ð·Ð°
Ð»Ñı ÐµÑĤÑģÑı
ÑĤÐ¾ÑĢ Ñĭ
Ð¾ÑĢÐ¾ Ð½Ñĭ
Ð¼Ð° Ð½
u n
Ðº ÑĨÐ¸Ñı
ĠÐ¼ Ð¾ÑĢ
ĠÑĤÐµ ÑĩÐµÐ½Ð¸Ðµ
Ġ +
Ñģ Ð¼Ð¾ÑĤ
Ð¾Ð± ÑĢÐ°
Ñĥ Ð»ÑıÑĢ
ĠÐĳ Ð°
ÑĦÐ¾ÑĢ Ð¼
ĠÑģ Ð»Ð¾Ð²Ð°
Ð¾ Ð½Ñĭ
ĠÐ¿Ð¾Ð¼Ð¾Ñī ÑĮÑİ
ÑĤÐµÐ»ÑĮ Ð½Ð¾Ð³Ð¾
Ð»Ð¸ Ð²
ĠÐ¸Ð³ ÑĢÐ¾Ð²
ĠÐ½Ð° Ð´Ðµ
ĠÐ½Ð° Ð´Ð¾
Ð¾Ð² Ð¾Ð¹
ĠÐ·Ð° Ð½Ñı
ĠÐ´Ð¾ ÑģÑĤÐ°Ð²
ĠÑģÑĥ Ð¼
ĠÐ¼Ð¸Ð½ ÑĥÑĤ
ĠÑģ ÐµÐ¹ÑĩÐ°Ñģ
ĠÑĩÐ° ÑģÑĤÑĮ
a d
Ð¾Ñģ Ð¸
ĠÑĢÐ° Ð´Ð¸
Ðµ Ðµ
ÑĢÐ° Ð±Ð¾ÑĤÐ°
ĠÐº ÑĢÐ¾Ð²
ÐºÑĤ Ñĭ
ĠÐ¸ ÑģÑģÐ»ÐµÐ´
ĠÑģÐ°Ð¹ ÑĤ
Ð» Ð¾Ð¹
Ð½Ñı Ñı
Ð´ Ð²Ð¸
Ðļ Ð°
Ð ¬
ĠÐ¸ Ñİ
ĠÑĤÐµÑħ Ð½Ð¸
ĠÐ´Ðµ Ð²Ñĥ
ĠÑį Ð»ÐµÐ¼
ÐµÐ½ Ð½ÑĭÐµ
ĠÐ¿ÑĢÐ¾ÑĨÐµ ÑģÑģ
ĠÑģ ÑĢÐ¾Ðº
ÑĩÐµ Ð¹
ĠÐľ Ðµ
Ð¼Ðµ ÑĢÐ¸
ĠÐĴ Ð°Ð¼
ĠÑģ ÑĩÐµÑĤ
ĠÐ¿Ð¾ÑĢ Ð½Ð¾
Ð´ ÐºÐ¸
ĠÐ¿ÑĢÐ¸ Ð¾Ð±
ĠÐºÐ¾Ð½ Ðµ
ĠÐ´ ÐµÑĢÐµ
2 1
ĠÑģÑĥ ÑīÐµÑģÑĤÐ²
Ð² Ð»Ð¸
ÑĪÐ¸ Ð½
ÑĢÐ° Ð¼
ĠÑģ ÑģÑĭ
8 0
ĠÐ¿Ð¾ Ð¸
ĠÑĢÐµ Ð³Ñĥ
ĠÐł Ð¤
Ð¶Ð¸ ÑĤ
Ñħ Ð¾Ð´Ð°
ĠÐ´Ð¾ ÑģÑĤÐ¸
ÑĦ ÐµÑĢ
ĠÐ¿ÑĢÐ¸ Ð·Ð½Ð°
ÐµÑĤÐµÑĢ Ð±ÑĥÑĢ
ĠÑĢ Ð¾Ð´Ð¸
ĠÐ¾ÑĢÐ³Ð°Ð½Ð¸ Ð·
ĠÑģÐ°Ð¼ Ð¾
ĠÑģ ÑĥÐ´
ĠÐ´ Ð²Ðµ
Ðĺ Ð½
ÑĤÐµ Ð³Ð¾ÑĢÐ¸
ÑĢ Ð¾Ð´Ð°
Ð¶ Ñĥ
Ð½Ð° ÑĢÐ¾Ð´
ÑĨÐ¸ Ð½
Ð» ÐµÐ½Ð¸Ð¹
Ð»ÑĮ Ð½Ð¾Ðµ
Ñī Ñĳ
ĠÐ·Ð° ÑıÐ²
ĠÐ´Ð¸ Ð°
Ð½Ð° Ñħ
Ð²Ð° Ð½
Ðº ÑĤÐ¸
Ð²Ð° ÑĤÑĮÑģÑı
ÑĨÐµ Ð¿
ÑĢÐ° ÑĨÐ¸Ð¸
ĠÐ³ ÑĢÐ°Ð¶
ĠÐ¾ÑĤ Ð»Ð¸
ĠÐ¿Ð° ÑĢÐ°
Ð¾Ð¼Ð¸ Ð½Ð°
ĠÑĢÐµ Ð¶Ð¸
ĠÐ»Ð¸ ÑĪÑĮ
ĠÐºÑĥ Ð»ÑĮ
ÑĩÐ° ÑģÑĤ
ĠÐ¿ÑĢ Ð¾Ð¼
Ð»ÐµÐ½ Ð°
ĠÑģÐ»Ñĥ Ð¶
ĠÑģÐ¾Ð± Ð¾Ð¹
ĠÐ¾Ðº ÑĢÑĥ
ÑģÑĤÐ°ÑĤÐ¾ ÑĩÐ½Ð¾
ĠÐº ÑĢÐµÐ´Ð¸
) )
ĠÑĤÐ¾ÑĢ Ð³Ð¾Ð²
ÑĤÑĥ Ð°
201 5
Ð¾ÑĤ Ñĭ
ĠÐº ÑĢÑĥÐ¿
ÐºÑĤ Ð¾Ð²
ĠÐ¸ÑģÐº Ð»Ñİ
Ð»Ð° Ð´Ð¸
Ð¼Ðµ ÑĩÐ°
e d
ĠÑĢÐµ ÑĪÐ¸
ĠÐ¾Ð±ÑĢÐ°Ð· Ð¾Ð¼
Ð²Ð° Ñİ
ĠÐ´ Ð°Ð»ÑĮ
ÑĬ ÐµÐ¼
ĠÐ²Ð¾Ð· ÑĢÐ°
ÑĩÐ¸ Ð½
ĠÐµ Ñĳ
ĠÐ¿Ð¾Ð´ Ð¾Ð±
ĠÑģÐ²Ñı Ð·Ð¸
ĠÐ± ÐµÑĢÐµ
i d
ĠÐºÐ¾Ð»Ð¸ÑĩÐµ ÑģÑĤÐ²Ð¾
ĠÑĤÐµ Ð¿
ĠÐ½Ðµ Ð¹
ĠÑĢÐµ ÐºÐ¾Ð¼ÐµÐ½
ĠÐ¿Ð¾Ð·Ð²Ð¾Ð»Ñı ÐµÑĤ
ĠÐ±ÑĥÐ´ Ñĥ
ĠÐ½ÐµÐ¾Ð±ÑħÐ¾Ð´Ð¸ Ð¼
Ð¾Ð½ Ð¾Ð²
Ð¨ ÐĲ
ĠÑĢÐ° ÑģÑĤ
ĠÑĢÐµ Ð°Ð»ÑĮ
ĠÑģÐ¾ ÑĨÐ¸Ð°Ð»ÑĮ
ĠÐ´ÐµÐ½ÑĮ Ð³Ð¸
ĠÐŁ Ð°
ĠÐ²Ñĭ Ð±Ð¾ÑĢ
ĠÑĢÑĥÐ± Ð»ÐµÐ¹
Ð¾Ð¶Ð´ ÐµÐ½Ð¸Ñı
ĠÑĤÐµÐ»Ðµ ÑĦÐ¾Ð½
ÑĢÐ¸ Ð¹
Ð· Ð¾Ð²
ĠÐ¸Ð½ÑĦÐ¾ÑĢÐ¼Ð° ÑĨÐ¸Ð¸
ĠÑħ Ð¾Ñĩ
Ð» Ð¾Ð¿
ÑīÐ° ÐµÑĤ
ÑģÐ¸ ÑĤ
ÑĤ ÐºÐ¸
Ð´Ðµ Ð»ÑĮ
ĠÐ¼Ñĥ Ð·Ñĭ
ĠÐ¼Ð¸ Ð½Ð¸
ĠÐ¿ÐµÑĢ Ñģ
ĠÐ½Ð° Ð·ÑĭÐ²Ð°
ĠÑĤÐµ Ðº
Ð» ÐµÐ½Ð¸ÐµÐ¼
Ð¾Ð· Ð¸
Ð³ÑĢÐ° Ð½Ð¸
ÑģÐºÐ¸ Ð¼
u r
Ñī Ñĥ
ĠÑįÑĤÐ¸ Ñħ
ĠÐ¿Ð¾ Ð½Ñı
ĠÐ´Ð°Ð½ Ð½ÑĭÑħ
ÑĢÑĥ Ð¶Ð¸
Ġ O
Ñĥ Ð´Ð¸
ÑĤÐ¸ Ð¸
ĠÐºÐ°Ð¶Ð´ ÑĭÐ¹
ÐµÑĢ Ð¾Ð²
ĠÐ¼Ðµ ÑģÑĤÐ°
Ñĩ ÐºÐ°
ĠÐ´Ð¾Ð»Ð¶ Ð½Ñĭ
7 0
ĠÑģ Ð½Ð¸
ĠÑģ Ð¼Ð¾Ð¶
ÐĿ Ðŀ
Ð¾ÑĢ Ñĭ
ĠÐŀ Ñģ
ĠÐ¾Ð´ Ð½Ð¾Ð¹
2 6
ÑĢ Ñİ
Ð¾Ð¼ Ð°
ĠÐ¼Ð°ÑĤÐµÑĢÐ¸Ð° Ð»Ð¾Ð²
ĠÐ¸ Ñģ
Ð¾ÑĢ ÑĤÐ¸
ĠÑĦÐ¸ Ð½Ð°Ð½
ĠÐºÑĢÐ° ÑģÐ¸
ĠÑĢÐ°Ð· Ð´Ðµ
Ð»Ð°Ð³Ð¾Ð´Ð° ÑĢÑı
ĠÑį Ð½ÐµÑĢ
ÑģÑģ Ñĥ
Ð¶Ð° ÑĤÑĮ
o d
ĠÐ¸ ÑģÑĤÐ¾Ñĩ
ĠÑĥ ÑģÑĤÑĢÐ¾Ð¹
ÐĶ Ð»Ñı
ĠÐ¿ÑĢÐ¾Ð² Ð¾Ð´Ð¸
ĠÐ´ Ð½Ñı
ÑĨ Ð¾Ð²
ĠÐ¿Ð¾ÑĢ ÑıÐ´
ĠÑħÐ¾ÑĢÐ¾ÑĪ Ð¾
ĠÐ¾Ð¿ Ð»Ð°
ĠÑĢÐ°Ð±Ð¾ÑĤ Ñĥ
ĠÐ´Ð¾Ð¿ Ð¾Ð»Ð½Ð¸ÑĤÐµÐ»ÑĮ
ĠÑģ Ð¾Ð¿
ĠÑįÑĦÑĦ ÐµÐºÑĤÐ¸Ð²
ĠÐ¿Ð¾Ð¿ ÑĥÐ»ÑıÑĢ
ÑģÑĤÐ² ÑĥÑİÑīÐ¸
ĠÐ¿ÑĢ Ñı
ĠÐ¿Ð¾Ð² ÐµÑĢÑħ
ĠÐ²Ñĭ Ð¿Ñĥ
ĠÑįÐ»ÐµÐºÑĤ ÑĢÐ¾Ð½
Ð»ÐµÐºÑģ Ð°Ð½Ð´
âĢ Ķ
Ðł Ðŀ
ĠÐºÑĢÐ° Ñģ
ĠÑģÐ²Ð¾Ðµ Ð³Ð¾
Ñı ÑĤÑģÑı
ÑĪ Ñĥ
ĠÑģ ÑĢÐ°Ð·Ñĥ
ÑĤÐµÐ»ÑĮ ÑģÑĤÐ²Ð¾
---- ----
ĠÐ´Ð²Ð¸ Ð³Ð°
ĠÐ¿ÑĢÐ¸ Ð½Ð¸Ð¼Ð°
ĠÑħ Ð¾Ð»
ĠÂ» Â»
ĠÐļ ÑĢÐ°Ñģ
ÑĪÐ° ÑĤÑĮ
Ð· Ðµ
ĠÑĢÑĥ ÐºÐ¾Ð²
ĠÑĤÐ° ÐºÐ¸Ñħ
Ð» Ð¾Ð³Ð¾
Ð¾Ð» Ð½
ÑĢÐ¸ Ð½
Ð¾ Ñħ
ÑĨ ÐµÐ½ÑĤ
ÑĤÐ° Ñħ
ĠÑĢÐµ Ð°Ð»Ð¸
ÑĤÐ° Ð¼
ÑĤÑĥ ÑĢÐ°
ĠÐ¿Ð¾ÑĤ Ð¾Ð¼Ñĥ
Ðµ ÑģÑĤÐ¸
ÑĤÐ° ÑĨÐ¸Ð¸
ĠÐ¡ ÑĤ
Ð¾Ð¿ ÑĢÐ¸Ñı
ÑģÐ¸ Ð¸
ÑģÐ¸ Ð»Ð¸
ĠÐ¿Ð¾Ð´ Ð³Ð¾ÑĤÐ¾Ð²
ĠÑĩÐ° ÑģÑĤÐ¾
ĠÐ¿Ð¾ÑĤ Ð¾Ð¼
ĠÐ¼ÐµÑĤ Ð°Ð»
ĠÐ¼Ð¾Ð¼ ÐµÐ½ÑĤ
ĠÐ¿Ð¾Ð´ Ð°
Ñģ ÐµÑĢ
Ñı Ð²Ð»Ñı
ÑĤÐµ ÑģÑĮ
ĠÑĢÐ°Ð· Ð¼ÐµÑĢ
ÑģÑĤÐ°Ð²Ð¸ ÑĤÑĮ
= =
Ð½Ð¸ ÑĤ
ÑģÐº Ð¾Ð¼Ñĥ
ĠÐ²Ð½Ð¸Ð¼Ð° Ð½Ð¸Ðµ
ĠÐºÐ¾Ð½ ÑģÑĤÑĢÑĥ
ĠÑĦ Ð¸Ð·Ð¸
Ð½Ð¾ÑģÑĤ ÐµÐ¹
ĠÑĤ ÑĢ
ĠÐ° Ð³
ĠÑĢÐ°ÑģÐ¿ Ð¾Ð»Ð¾Ð¶
c h
Ð¸ Ð»
ĠÐºÐ¾Ð¼ Ð°Ð½
ĠÐ§ Ðµ
ĠÐ´ÐµÑıÑĤÐµÐ»ÑĮ Ð½Ð¾ÑģÑĤÐ¸
ĠÐ¾ Ñħ
ĠÐ½Ðµ Ð·Ð°
ĠÐ¿ÑĢÐ¸ Ð¼ÐµÑĢ
ĠÐºÐ¾ÑĤÐ¾ÑĢ Ð¾Ð³Ð¾
9 0
ĠÐ¿ÑĢÐ° Ð²Ð°
Ðµ Ð´Ð¸Ð½
ĠÑģÐ¸ ÑĤÑĥÐ°
ĠÐ¾Ñģ Ð½Ð¾Ð²Ð°
en t
Ð»Ð° Ð´
ĠÐ³ ÑĢÑĥ
ÑģÑĤÐ²ÐµÐ½ Ð½ÑĭÑħ
ĠÑĩÐµ Ð³Ð¾
Ð´ ÑĭÑħ
Ð»Ðµ Ðµ
Ñĩ ÐµÑĤÐ°
ĠÐ½ Ð¸Ð·
ĠÑģÑĤ ÐµÐº
ĠÐ¿ÑĢÐµ ÐºÑĢÐ°
ĠÐ¿ ÑĢÐ°Ð·Ð´
ĠÐ°Ð² ÑĤÐ¾
Ġ K
Ð¾ Ð½Ð¸
ĠÑĥÑģÐ»Ñĥ Ð³Ð¸
Î º
ĠÐ½Ð° Ð»Ð¸ÑĩÐ¸
ĠÐ·Ð°Ð± Ð¾Ð»Ðµ
ÑģÑĤÐ° Ð½Ð°
Ð´ÐµÑĤ ÑĮ
Ð½Ð¸ ÑĨ
ĠÐ½Ð°ÑĪ ÐµÐ¼
Ð³Ð¾ÑĢ Ð¾Ð´
ÐµÐ½ Ð¾
Ð¾Ð± ÑīÐµ
ĠÐ¾Ð±ÐµÑģÐ¿Ðµ ÑĩÐ¸
Ð±Ð¾ ÑĢÐ°
Ð¶Ð´ ÐµÐ½Ð¸Ðµ
Ð¼ÐµÐ½ ÑĤÑĭ
ĠÐ´Ð¾Ð»Ð¶ ÐµÐ½
Ð½ Ð¾Ðº
ĠÐ² ÐºÑĥ
ĠÑģÑĤ Ð¾Ð»
ĠÑĥ ÑĤÐ²ÐµÑĢ
ĠÑģÑĤ Ð¾ÑĢÐ¾Ð½Ñĭ
ĠÐ¸ÑģÐ¿Ð¾Ð»ÑĮÐ·Ð¾Ð²Ð° ÑĤÑĮ
ĠÑĩÑĥ Ð²
ĠÐ»ÑİÐ± Ð¾Ð¹
ĠÐ·Ð° ÐºÐ°Ð·Ð°
âĢ Ŀ
ĠÑģÑĢÐµÐ´ ÑģÑĤÐ²Ð°
Ð²Ð»Ðµ ÐºÐ°
ĠÐ¡ Ð°Ð½
ĠÐ³Ð¾Ð» Ð¾Ð²
Ð´ ÑĥÑĤ
2 8
ĠÐ¿ÑĢ Ð¾Ð¿
an d
ĠÐ¿Ð¾Ð»ÑĥÑĩÐ¸ ÑĤÑĮ
ĠÑĤÐ° ÐºÐ¸Ðµ
ĠÐ±Ñĭ ÑģÑĤÑĢÐ¾
Ðº Ð¾Ð²Ð°
ĠÐ¿ÐµÑĢÐµ Ð´Ð°
ÑĢÐµ Ð·
ÑģÑĤÐ²ÐµÐ½ Ð½Ð¾Ð¹
ĠÐºÐ¾Ð½ ÐºÑĥÑĢ
ĠÑĪ ÐºÐ¾Ð»
Ġ ÑĪÐµ
ĠÐ½Ð¸ Ðº
ĠÐºÐ° Ð·Ð¸Ð½Ð¾
ĠÑĥÐ¿ÑĢÐ°Ð² Ð»ÐµÐ½Ð¸Ñı
ĠÐ¡ Ð¨ÐĲ
Ð¾Ð· Ð½Ð°
Ð³Ð° Ð½
ÑģÐµ Ð´Ð°
Ñĭ ÑĪ
Ð¿ Ð¾Ð²
ĠÐ¿Ð¾ Ð½Ð¸Ð¼Ð°
ĠÐ² ÐºÐ»ÑİÑĩÐ°
ĠÑĢÐ¾ÑģÑģÐ¸ Ð¹
ÐºÐ° ÑĢ
ÑħÐ° Ð½Ð¸
Ð´Ð¸Ð²Ð¸ Ð´Ñĥ
Ð» ÑĭÑħ
ĠÑĥ Ð·Ð½Ð°
ĠÐº ÑĢÑĭ
ĠÐŀ Ð½Ð¸
ĠÐĽ Ñİ
Ðµ ÑĢÐ¸
Ð»ÐµÐ½ ÑĮ
ĠÐ¶Ð¸Ð· Ð½ÑĮ
ĠÐºÐ²Ð°ÑĢ ÑĤÐ¸
ĠÐ¾ Ð´Ðµ
Ð¾Ð» ÐµÐ·
ÑģÐº Ñĥ
âĢ ĵ
2 7
ĠÑĥ ÐºÑĢÐ°
ÑĤÑĭ Ð¹
u t
Ð½Ð° ÑĤ
ÑĩÐµÑģÐºÐ¸ Ð¼
ĠÐ»Ñİ Ð´Ð¸
Ðµ Ð»Ð°
ÑĦÐ¸ ÑĨÐ¸
ĠÐ¿Ð¾Ð»Ð¸ ÑĤÐ¸
o f
ĠÐ½Ð° Ñĥ
ĠÐ²Ðµ ÑģÑĮ
ÑĤÐ° Ð½
Ð² Ð¾Ðµ
ĠÐ²Ð½Ðµ ÑĪ
ĠÐ¿ÑĢÐµÐ´ ÑģÑĤÐ°Ð²Ð»ÐµÐ½
ĠÐ½Ð° Ð¹ÑĤÐ¸
ĠÐ° Ð±
Ðļ Ð°Ðº
ÑĩÐµ Ðº
ĠÐµ ÑīÑĳ
ĠÐ²Ð½ÑĥÑĤ ÑĢÐµÐ½
Ð± Ð¸Ð½
ĠÐ° Ð»
ĠÐ¿ÑĢÐ¸ Ð½
ĠÐº ÑĢÑĥ
ĠÑĤ Ñı
ĠÐ´ Ð»Ð¸
ĠÐ¼Ð° ÐºÑģÐ¸
Ðľ Ð°
Ð¾ ÑĪ
ĠÑĩÐ¸Ñģ Ð»Ðµ
Ð»ÐµÐ½ Ð½ÑĭÑħ
ĠÐ½ Ð¾ÑĢÐ¼Ð°
ĠÑģÐ°Ð¼ ÑĭÑħ
ĠÑĥÑģÐ»Ñĥ Ð³
ĠÐ·Ð½Ð° ÐºÐ¾Ð¼
ĠÐ½ Ð¾Ð¼
ĠÐ´ Ð¾Ð³Ð¾Ð²
ĠÑĦÐ¾ÑĢ Ð¼Ð°
ÐºÐ¾Ð» Ð¾
Ġ :
Ð» ÑĭÐ¹
ĠÐ²Ñĭ ÑĪÐµ
ĠÐ½Ð° ÑģÐµ
Ġ X
ÑĢÐ° Ð¼Ð¸
Ðł ÐĲ
ÑģÑĥ Ð»ÑĮ
Ð± Ð¾Ð»ÐµÐµ
Ð»ÐµÐ½ Ñĭ
ĠÐºÐ° ÑĤÐµÐ³Ð¾ÑĢÐ¸
Ðµ ÑĪÑĮ
ĠÐ¸Ð· Ð³Ð¾ÑĤÐ¾Ð²
ÑģÐ»Ñĥ Ð¶Ð¸
ÐµÐ½ Ð½ÑĭÐ¹
ĠÑĤÑĭ ÑģÑı
Ðŀ ÑĤ
ĠÐ½Ð°ÑĪ ÐµÐ¹
Ð¾Ð·Ñı Ð¹
o w
ĠÑģ ÑĢÐµÐ´Ð¸
ÑĪ ÐµÐ¼
w w
Ð¾Ð² Ð¸
ĠÐ¼ÐµÑĢ Ð¾Ð¿ÑĢÐ¸Ñı
ĠÐ´ ÐµÐ½Ðµ
ĠÐ²Ðµ Ð´ÑĮ
ĠÐĲ Ð»ÐµÐºÑģÐ°Ð½Ð´
ÐµÐ½ ÑĤÐ¸
Ð´ Ð¾Ð¼
ĠÐ½Ðµ Ð±Ð¾Ð»ÑĮ
ĠÑĢÐµÐ³Ð¸ ÑģÑĤÑĢÐ°ÑĨÐ¸Ð¸
Ð¿ Ð¾Ð´
ĠÑĤÐµÐ¼ Ð¿ÐµÑĢÐ°
__ __
ĠÐľ Ð°ÑĢ
ĠÑģÐ¸ Ð¼
ÑģÑĤÑĮ Ñİ
ÑģÑĤÐ²ÐµÐ½ Ð½Ð¾Ð³Ð¾
ĠÐ¿ÑĢÐµÐ´Ð¿ÑĢÐ¸ Ñı
Ñĩ Ð½Ð°Ñı
ĠÑĢÐ°Ð·Ð²Ð¸ ÑĤÐ¸Ñı
ÑĤÐµÐ»ÑĮ Ð½Ð¾Ðµ
ĠÐºÐ¾ÑĤÐ¾ÑĢ Ð¾Ðµ
ÑģÑĤÐ²ÐµÐ½ Ð½ÑĭÐ¹
ĠÐ·Ð° ÐºÐ°Ð·
ĠÐ´ÐµÐ»Ð° ÑĤÑĮ
ĠÑģÐº Ð¾ÑĢÐ¾
ÑģÐ¸ ÑĤÑĮ
ĠÐ´Ð¾ ÑģÑĤÐ°ÑĤÐ¾ÑĩÐ½Ð¾
ĠÑĪÐ¸ ÑĢÐ¾Ðº
ĠÐ¾ÑĩÐµ ÑĢÐµÐ´
Ð¾Ð³ Ñĥ
ĠÐ¿ÑĢÐ°Ð² Ð¾
ĠÐ¿Ð¾Ðº ÑĢÑĭ
ĠÑĤ Ð¾Ð»
ĠÐ½Ð° Ð±
ĠÐ¿ÐµÑĢÐ¸ Ð¾Ð´
ĠÐ¿ÑĢÐ¾Ð² ÐµÑĢ
ĠÐ½Ð°Ð¿ ÑĢÑı
Ð³ ÑĢÑĭ
ĠÑıÐ²Ð»Ñı ÑİÑĤÑģÑı
ĠÐ¾ ÑĦÐ¾ÑĢÐ¼
Ð»ÑĮ Ñı
ĠÐº ÑĢÐµ
Ð² ÑĭÑħ
ĠÑĥ ÑĩÐµÐ±
ĠÐĽ Ðµ
ĠÐ¼ÐµÐ½ ÐµÐµ
Ð³Ð¸ Ð¸
ĠÑģÑĤÐ° ÑĢ
ĠÐ¼Ð¾Ð» Ð¾Ð´
Ð¼Ð¸Ð½Ð¸ ÑģÑĤÑĢÐ°
ĠÐ° Ð½Ð°Ð»Ð¸
Ðŀ Ðŀ
ĠÑģÐ»Ðµ Ð´ÑĥÐµÑĤ
Ðº ÐµÑĤ
ĠÐºÐ»Ð° ÑģÑģ
ĠÐ¾ ÐºÐ¾Ð½
201 4
ĠÐ¸Ð³ ÑĢÐ°
ĠÐ¾Ð´ Ð½Ð¾
ĠÑģ Ð»Ð¾Ð²
ĠÐ¾ Ð³ÑĢÐ°Ð½Ð¸
ĠÐ¿Ð¾ ÑģÐµ
ĠÐĴ Ð¾
ÑĢÐ¸ Ð½Ð°
Ð»Ñı ÑĤÑĮ
ĠÑĤ Ð²Ð¾ÑĢ
ĠÐ¼ Ñı
ĠÐŁ ÑĢÐµÐ´
ÑģÑĤÑĥ Ð¿Ð¸
ÑĢÐ¸ ÑĤÐµ
ĠÐ² ÑĢÐµÐ¼ÐµÐ½
Ð»ÑĮ Ð½ÑĭÐ¼
ĠÐºÐ¾Ð¼Ð¿Ð° Ð½Ð¸Ñı
Ð¼ÐµÐ½ ÑĮ
ĠÐ°Ð² ÑĤ
ĠÑģ Ð½Ð°
ÑĤÐµÐ»Ñı Ð¼
Ð¾Ð± ÑĢÐ°Ð¶
ÑĢÑĥ ÐµÑĤ
ÑīÐµ ÑģÑĤÐ²Ð°
ĠÐłÐ¾ÑģÑģÐ¸ Ð¹ÑģÐºÐ¾Ð¹
ĠÐ´ ÐµÑĢ
Ð¾ÑĢ Ð¾Ð¶
Ð¾ÑĤ Ð¾
ĠÑĢÐ°Ð· ÑĢÐµ
Ð¾Ð» ÐµÑĤ
ĠÐ·Ð° Ð¿Ð°
ĠÐº Ð¾Ñģ
ÑģÐ¸ Ñı
Ð·Ð¸ Ð¸
ĠÑĤ ÑĥÑĤ
ÐĴ ÑģÐµ
ÑĪÐµ Ðµ
ĠÐ¼Ð¸ ÑĢÐ°
Ð ®
ĠÐ¿ÑĢÐ¾ÑĦÐµÑģÑģÐ¸ Ð¾Ð½Ð°Ð»ÑĮ
ĠÐ¿Ð¸ÑĤÐ° Ð½Ð¸Ñı
ÑħÐ¾Ð´ ÑıÑĤ
Ġ U
Ð» ÐµÐ½Ð¸Ñİ
Ð¾Ð´ Ð¾Ð²
Ð¼Ð¸ Ð½
Ð¡ Ðļ
ĠÐ¾Ð´ Ð½Ð¾Ð³Ð¾
Ð»Ñĥ Ñĩ
Ñİ ÑīÐµÐ¹
ĠÐ¼ Ð»
Ġ d
ĠÑģÐ¸ÑģÑĤÐµÐ¼ Ð°
ÑĤ Ð¾Ð¹
ĠÑĩ Ð¸ÑĤÐ°
ÑĩÐ¸ Ðº
ĠÐ¼Ð¾ Ñī
ÑİÑīÐ¸ Ð¼
ĠÐ´Ñĥ Ð¼Ð°
ĠÐ½Ð¸ ÑĩÐµÐ³Ð¾
r i
2 9
ĠÐ± Ð»Ð¾Ðº
ĠÐ¾ÑĢÐ³Ð°Ð½Ð¸ Ð·Ð°ÑĨÐ¸Ð¸
Ð¶ Ð½ÑĭÐµ
Ñī ÑĥÑİ
ĠâĢ ľ
ĠÐ¿Ð¾Ð» Ð½Ð¾ÑģÑĤÑĮÑİ
ĠÐ»Ð¸ ÑĨÐ°
ĠÐ°Ð½ ÑĤÐ¸
ĠÑģ ÑĢÐ°Ð²
ÑĤÐ¾ÑĢ Ð¾Ð²
ÑĮ ÑĤÐµ
ĠÐ¿Ð»Ð° ÑģÑĤÐ¸
Ġ ÑĢÑıÐ´
Ð· Ð¾ÑĢ
Ð¾ÑĢ Ñı
ĠÑģÑĤ Ðµ
ĠÐ¸ÑģÐº ÑĥÑģ
ĠÑģÐµÑĢ Ð²Ð¸
ĠÐ´Ð¾Ð± Ð°
ÑĪ ÐµÐ½Ð¸Ð¸
ĠÐŁ Ñĥ
ĠÐ²Ð¾Ð¿ÑĢÐ¾ ÑģÑĭ
Ð¸ ÑĢ
Ð¾ ÑĤÐ°
ĠÐ¿ÑĢÐ¾ ÑĦÐ¸
ĠÐ¿Ð¾Ð´ ÑĤÐ²ÐµÑĢ
Ð½ Ð¾Ð¿
ĠÐ¡ Ñĥ
ÑĩÐ¸ Ñģ
ĠÑģÐ¾ ÑģÑĤÐ°Ð²
ĠÐ³ ÐµÑĢ
3 5
Ð½Ð¸ ÑĨÐ¸
Ñı ÑĤÐ¸
ĠÑĥ Ð²Ð¸
ĠÑĢÐ°Ð±Ð¾ ÑĤÐµ
Ð³ ÑĢÑĥÐ·
ĠÐ¸Ð½ Ð´Ð¸Ð²Ð¸Ð´Ñĥ
ĠÐºÐ°Ðº Ð¾Ð¹
ĠÐŁÐ¾Ñģ Ð»Ðµ
ĠÑģÐ¾Ð²ÐµÑĢ ÑĪÐµÐ½
Ñģ ÑģÐµ
Ð²Ð° ÑĢÐ¸
ĠÐ·Ð° Ð¿
ĠÑģÑĤ ÑĢÑĥ
ĠÐ¾ ÐºÐ¾Ð»Ð¾
Ð¾ ÑıÑĤ
ĠÑģÐ²Ð¾Ð¸ Ð¼
ĠÐ¿Ð¾ÐºÑĥ Ð¿
Ð¼ Ð¾Ð²
ĠÐ² Ð¾Ð´Ñĭ
ĠÐ½Ð¸ ÐºÐ°
ĠÐ³Ð° ÑĢÐ°Ð½
ÐµÑģÐ¿ ÑĥÐ±Ð»Ð¸
Ġ f
ĠÑĤ Ð¾ÑĤ
ĠÐĶ Ð¾
Ð½Ð° Ð·Ð½Ð°
ĠÑĤ ÑĢÑĥÐ´
ÐŁ ÐµÑĤÐµÑĢÐ±ÑĥÑĢ
ĠÑĥÑĩ ÑĢÐµ
ĠÐ¶Ð¸Ð² Ð¾ÑĤ
ĠÐ¾ ÑĢÐ¸
ÑĪÐ° ÐµÑĤ
ĠÑĢÐ°Ð¹ Ð¾Ð½Ð°
4 5
ĠÑģ Ð¾Ñģ
ĠÑģÑĤÐ° Ð»Ð¸
ĠÑģ Ð»Ð¸
ĠÐ¿Ð¾ ÑıÐ²Ð¸
Ð¿ Ð»Ð¸
ÑĤÑĭ Ñħ
ĠÐ¼Ð¸ Ðº
Ð´ ÑĢÐ°Ð²
ĠÐ¸Ð½ÑĦÐ¾ÑĢÐ¼Ð° ÑĨÐ¸Ñİ
Ðļ Ð¾Ð¼
t p
ĠÐĴ Ð°Ñģ
ÑĢ Ð¾ÑĤÐ¸
Ð´Ð¸ ÑĨÐ¸Ð¾Ð½
ĠÑģÐºÐ° ÑĩÐ°ÑĤÑĮ
ĠÑĥÐ½Ð¸ Ð²ÐµÑĢ
ĠÑĤ Ð¾Ð³Ð´Ð°
ĠÑģÐ² Ð¾Ð±
ĠÑģ Ð±Ð¾ÑĢ
ÑģÑĤÐ² Ð¾Ð²Ð°ÑĤÑĮ
ĠÑģ Ñħ
Ð¾Ð¶ ÐµÑĤ
ĠÑĢÐ°Ð±Ð¾ ÑĩÐ¸
ÐºÐ»Ð° Ð´
Ð»Ñı ÐµÑĤ
Ð»ÐµÐ½ Ð½ÑĭÐµ
ĠÑĤÐµÑĢÑĢÐ¸ÑĤÐ¾ÑĢÐ¸ Ð¸
ĠÐ¿Ð¾Ð» Ð¾Ð¶
ĠÑĦÑĥÐ½ Ðº
ĠÐ± Ð¾ÑĢ
ĠÐ¿Ðµ Ñģ
ÑĮ ÐµÑĢ
ĠÐ¸ ÑĤ
Ð±Ðµ Ð»ÑĮ
ĠÑĢ Ð¾Ð·
ĠÐŁ Ð¾Ð»
ĠÑģÐ¿ Ð¾ÑĢ
ĠÑĢÐ° Ð¼
Ð¼ÐµÐ½ ÑĤÐ¾Ð²
ÑĦÐ¾ÑĢ Ð¼Ð¸
ÑĥÑİ ÑĤÑģÑı
Ð» ÑĭÐµ
ĠÐ½Ð° Ð¿ÑĢÐ¸Ð¼ÐµÑĢ
Ð¡ Ð¡
ĠÐĶ Ðµ
ĠÐ¾Ð³ ÑĢÐ¾Ð¼
ĠÐł ÐµÑģÐ¿ÑĥÐ±Ð»Ð¸
ĠÑĢÐ°ÑģÐ¿ ÑĢÐ¾
ĠÑĩ ÐµÑĤ
ĠÐ¿Ð¾ Ñħ
ĠÑħ Ð¸
Ð»Ðµ Ð·
ĠÑģÐ»ÐµÐ´ ÑĥÑİÑīÐ¸
ÑĢ Ð¾Ð¹
Ð¾Ð²Ð° Ð»
ĠÑĢÐµ Ñģ
ÑĩÐ° ÐµÑĤ
Ġ b
ĠÑĢÐ°Ð·Ð»Ð¸Ñĩ Ð½ÑĭÑħ
ĠÐ¤ÐµÐ´Ðµ ÑĢÐ°ÑĨÐ¸Ð¸
ĠÐ² ÑģÑı
201 3
ĠÐ»ÐµÐ³ ÐºÐ¾
ĠÐ´ÑĢÑĥÐ³ Ð¾Ð¹
Ð¼Ð° ÑĤÑĢÐ¸
ĠÐ±Ð° ÑĤÐ°
ĠÐ¼ ÐµÐ½ÑĮ
a y
ĠÑĥ Ð¼
Ð´Ð° Ð½Ð¸Ñı
ĠÑĤÐµ Ð¿ÐµÑĢÑĮ
Ð°Ð½ Ðº
ĠÐ¸Ð¼Ðµ ÑİÑĤ
ĠÐºÐ°ÑĩÐµ ÑģÑĤÐ²Ð°
ĠÑģÐ¾Ð¾ÑĤÐ²ÐµÑĤ ÑģÑĤÐ²Ð¸Ð¸
ĠÐĴ Ðµ
ĠÐ¾ÑĢÐ³Ð°Ð½Ð¸ Ð·Ð°
ĠÑĢÐµÐ¼Ð¾Ð½ ÑĤ
ĠÐ¾ ÑģÑĤ
ĠÐ½Ðµ ÑĦ
ĠÐŀÐ´ Ð½Ð°ÐºÐ¾
ĠÑĤ ÑĥÑĢ
ĠÑģÑĤ ÑĢÐ°Ð½
ĠÐºÐ¾Ð¼Ð¿ Ð»ÐµÐº
ht tp
ĠÐ½Ð° Ð·Ð½Ð°
ÐºÐ»Ð° Ð´Ñĭ
ĠÐ¿Ð¾Ñĩ ÑĤÐ¸
ĠÐĴ Ð»Ð°Ð´Ð¸
ĠÐ²Ð¾Ð» Ð¾Ñģ
ĠÐ¿Ð¾Ð» ÐµÐ·
ĠÐ¾ÑĤÐ½Ð¾ ÑģÐ¸
ĠÐ±ÐµÐ·Ð¾Ð¿Ð°Ñģ Ð½Ð¾ÑģÑĤÐ¸
ĠÑĥÑĩÐ°ÑģÑĤÐ¸ Ðµ
ĠÐĴ Ð¾Ð»
ĠÑģ Ð¾Ð±Ñĭ
Ð¾Ð»ÑĮ Ð½Ð¾
ĠÑı ÑĢ
ÑĤÐµÐ»Ñı Ð¼Ð¸
ĠÐºÐ¾Ð¼Ð¿ ÑĮÑİ
Ð¶ Ð½ÑĭÑħ
ĠÐ²Ñĭ Ð´Ð°
ĠÑĥÑģÐ»Ð¾Ð²Ð¸ ÑıÑħ
ÐµÐ½ Ð½Ð¾Ð³Ð¾
ÐµÐ¼ ÑĭÐµ
Ð±Ð° ÑĤÑĭ
e c
ĠÐŁÐ¾ ÑįÑĤÐ¾Ð¼Ñĥ
a g
Ñİ ÑīÐµÐ³Ð¾
Ð¾Ð»Ð¾Ð³Ð¸ Ð¸
ĠÐ¿Ð¾ÐºÑĥ Ð¿Ð°
o p
ĠÐ¿ Ð¾Ð³
Ð´Ðµ Ð±
ÑģÑĤÐ²ÐµÐ½ Ð½ÑĭÐµ
ĠÐ¾ÑĦÐ¸ ÑĨÐ¸Ð°Ð»ÑĮ
ĠÐ¼Ðµ ÑħÐ°Ð½Ð¸
ĠÐº Ð¾Ð»Ðµ
ĠÐ± Ñİ
Ð¢ Ðŀ
ĠÐ¾Ð¿ ÑĭÑĤ
Ð¶Ð´ Ñĭ
ĠÐ¿Ð¾Ð· Ð¸
Ð¾ÐºÐ° Ð·Ð°
ĠÐ¾Ð±ÑĬ ÐµÐºÑĤ
ĠÐ¿ Ð¾Ð¶Ð°
ĠÐŀ Ð½Ð°
ĠÑĢÐ°Ð· ÑĢÐ°Ð±Ð¾ÑĤ
Ð· Ñĥ
ÑģÑı ÑĤ
ĠÑħÐ°ÑĢÐ°Ðº ÑĤÐµÑĢÐ¸
ĠÐ¿Ð¾Ð´Ð´ÐµÑĢ Ð¶
Ðº Ð¾ÑĢ
ĠÑģ Ð¼Ð¾ÑĤ
ĠÐ½Ðµ Ð´Ð¾
ĠÐŁ ÑĢÐµ
ĠÐ±Ð¾Ð»ÑĮÑĪ Ð¾Ð¹
Ð½Ð° Ð»Ð°
ĠÑģÑĤÐ° Ð²
Ð¾Ð»Ð¸ ÑĤ
ÐŁ ÑĢÐ¾
ĠÐ¾Ð±ÑĢÐ°Ð· Ð¾Ð²Ð°Ð½Ð¸Ñı
ÑĤÐµÐ»ÑĮ Ð½Ð°Ñı
ĠÐ² Ð·Ð°
ĠÐ½Ð¸ Ð¼
ĠÐ¼ÐµÐ´Ð¸ ÑĨÐ¸Ð½
ĠÑĥ Ð´Ð¾Ð²
ÐºÐ¸ Ð¼Ð¸
ÑĪ ÐµÐ½Ð¸Ð¹
Ð¾Ð² ÑĭÑħ
ĠÐ·Ð° Ð´
ĠÐļ Ð°ÑĢ
ĠÐ²Ð¾ Ð¾Ð±ÑīÐµ
ĠÐ¿Ð¾ÑĤ ÑĢÐµÐ±
Ð² Ð¾Ð»
ĠÑĥ Ð»Ð¸
ĠÐºÑĢÐ° Ð¹
Ðº Ð¾Ð»ÑĮ
ÑģÑĤÐ² ÑĥÑİ
Ð²Ðµ Ð·
ĠÑģÑĤÐ° Ð»
ĠÑĤÐ¸ Ð¿Ð°
ĠÐºÐ° ÑĤÐ°
ĠÐĶ Ð¶
ĠÐ´Ðµ Ð»Ð¾
ĠÐ¡Ð°Ð½ ÐºÑĤ
Ñĩ Ð½Ð¾Ðµ
ÑĢÐ° Ð¶Ð°
ĠÐ¾ÑĤ Ð´ÑĭÑħ
19 9
ĠÑĢ Ð¾Ð´
ĠÐºÐ¾ÑĤÐ¾ÑĢ Ð¾Ð¼
ĠÐ²Ð¼Ðµ ÑģÑĤÐµ
/ /
ÑĤÐµ Ð»Ñİ
Ð»Ñĥ Ð°
ĠÑģÑĢÐµÐ´ ÑģÑĤÐ²
ĠÑĦÐ¸Ð½Ð°Ð½ ÑģÐ¾Ð²
i a
ÑĪÐµ Ðº
Ð· Ñı
Ð²Ð¸ ÑĤÑĮ
ĠÑģ Ð»Ð°
ĠÐ¼Ð°ÑĤÐµÑĢÐ¸ Ð°Ð»Ñĭ
ĠÐ¾ Ð·Ð½Ð°
Ñħ Ð¾
ÑĤÐµ Ð¹
ĠÐ²Ð¾Ð·Ð¼Ð¾Ð¶ Ð½Ð¾
ĠÐĺÐ½ ÑĤÐµÑĢ
Ð½ Ð½ÑĭÐµ
Ð¿ ÑĢ
ĠÐ·Ð° Ð¿Ð¸
ĠÑħ Ð¾ÑĤÑı
ĠÐ´Ð¾Ð» Ð»Ð°
ĠÐľÐ¾ÑģÐº Ð²Ðµ
ĠÐ¾Ð´ Ð½Ð°
o k
ÑĪ Ð»Ð¸
ĠÐ· Ð²Ñĥ
ĠÐ½Ðµ Ñģ
ĠÐ½Ð¾Ð² ÑĭÐµ
ÑĤÐµÐ»ÑĮ Ð½ÑĭÐ¼
ĠÐ¼Ð°ÐºÑģÐ¸ Ð¼Ð°
Ð¼ Ð¾Ð¹
ĠÐĶ Ñĥ
ĠÐł Ñĥ
ĠÐ³ÑĢÐ°Ð¶ Ð´Ð°Ð½
Ð² ÑĭÐ¹
201 2
ĠÐ³Ð»Ð° Ð·Ð°
ĠÐ¿ÑĢÐ¸Ð¾Ð± ÑĢÐµ
ĠÐ½Ð° ÑĪÐ¸
ĠÑĨ ÐµÐ½Ð°
ĠÐ¸Ð½Ð´Ð¸Ð²Ð¸Ð´Ñĥ Ð°Ð»ÑĮ
ÑģÑĤÐ¸ ÑĤ
ĠÐ¼Ð° Ð»ÐµÐ½ÑĮ
ĠÑĤÐ¾ Ð½
ĠÐ§ ÐµÑĢ
Ġ| --
ĠÐ½Ð° Ð¹
ĠÐ²Ðµ Ð»Ð¸
ÑıÐ² Ð»ÐµÐ½Ð¸Ñı
Ñħ Ð½Ð¸
e m
Ð° Ð¼Ð¸
ĠÐ½Ð¾ ÑıÐ±ÑĢÑı
ĠÐ¶ ÑĥÑĢ
ĠÐ¿ ÑģÐ¸
Ñİ ÑīÐ°Ñı
ĠÐĴ Ð¾Ð·
ĠÐ½Ð° ÑĢÐ¾Ð´
ĠÐ³ Ðµ
ĠÑģÑĤ ÑĢÐµ
ĠÑģ ÐµÐ·
ĠÐ¦ ÐµÐ½ÑĤ
ĠÑĢÐµÐ·ÑĥÐ»ÑĮÑĤÐ° ÑĤÐµ
ĠÐ§ Ð°
: //
ÐµÐ½ Ð½Ð¾Ð¹
ÐµÐ½ ÐµÑĢÐ°
Ð¾Ð½ Ñĥ
ÐĿ ÐĲ
ĠÐ¼Ð¸ ÑĢ
ĠÐ¾ÑĤÐ»Ð¸ ÑĩÐ°
ĠÐºÐ¾Ð½Ðµ ÑĩÐ½Ð¾
ĠÐ¿Ñĥ Ð½
ĠÐ½Ð°ÑħÐ¾Ð´Ð¸ ÑĤÑģÑı
Ð¾ÑĢ Ð¾Ð´
ĠÑį ÑĤÑĥ
ĠÐ¢ Ð¸
Ð·Ð¸ Ð´
ĠÐ±Ð¸Ð· Ð½ÐµÑģ
ÑĢÐ¸ ÑĤ
ÑĤÐ¸ ÐºÐ°
ĠÐ¿ÑĢÐ¾ ÐµÐºÑĤÐ°
ĠÐ¿Ð¾Ð´ Ð°ÑĢ
ĠÐ¿ Ð°Ð¼
ÐµÐ¼ ÑĭÑħ
ĠÐ¿ÑĢÐµÐ´ Ð½Ð°Ð·Ð½Ð°
ĠÐ´ÐµÑĢÐµ Ð²
ĠÑģÐ¾ ÑħÑĢÐ°
ĠÐ´Ð¸Ð·Ð° Ð¹Ð½
ÑĢ ÐµÐ½Ð¸Ñı
ĠÐ¿ÑĢÐ¾ ÑģÑĤ
Ð²Ñĭ Ð¼
Ñģ Ð¾Ð»
ĠÐºÐ¾Ð» Ð»ÐµÐº
ĠÐĳ Ð¾Ð»ÑĮ
ĠÐ¿ÐµÑĢÐ² ÑĭÐ¹
Ð½Ð¸ ÑĨÑĥ
ĠÐ¾ÑĤ ÑģÑĥÑĤ
ĠÐ± Ð°Ð·
ĠÐŁ ÐµÑĤ
Ð»Ð¸ ÑĤÑĮ
ĠÑģÑĤ Ð¾ÑĢÐ¾Ð½
ĠÐ§ ÑĤÐ¾
ÑĢ Ð¾ÐºÐ°
Ð´Ð¸ ÑĤÑĮ
ÑģÐµ Ð¹
Ġ a
ĠÑģÐ¾Ð² ÐµÑĤ
ĠÑĤ Ð¾Ð¿
ĠÑĤÐ° ÐºÐ¾Ðµ
Ñĩ ÐºÑĥ
Ð¾Ñĩ ÐºÐ¸
Ġ J
Ð½ ÐµÐ½Ð¸Ðµ
ĠÑģÐ° Ð¼Ð¸
i m
ĠÐ´ ÐµÐ¼
Ð³Ð¸ Ð½Ð°
ĠÐ°Ð²ÑĤÐ¾Ð¼Ð° ÑĤÑĭ
ĠÐ¼Ð½Ð¾Ð³Ð¸ Ðµ
Ð¼Ð° Ñı
ĠÐľ Ð°Ðº
Ðĵ Ðŀ
Ð¶ ÐµÐ½Ð¸Ð¸
ĠÐ²Ñĭ ÑħÐ¾Ð´
ÐŁ Ð¾Ð´
ĠÑģÑĤÑĢÐ° Ð½Ñĭ
p l
Ð½Ð¸ ÐºÐ¾Ð¼
Ð»Ð° Ð¼Ð¸
ĠÐ½Ð°Ð¸ Ð±Ð¾Ð»ÐµÐµ
ÑģÑĤÐ°Ð½Ð° Ð²Ð»Ð¸
ĠÐ¡ ÐºÐ°
ĠÐµ Ð´Ð¸
Ðľ Ñĭ
ĠÐ¿Ð¾Ð¼Ð¾ ÑīÐ¸
Ð¼ÐµÑĢÐ¸ ÐºÐ°Ð½
ÑĤ Ð¾Ðº
Ñı ÑģÑĮ
ĠÐ² ÐºÐ»Ñİ
ĠÑģ ÑĦ
ĠÑįÐ»ÐµÐºÑĤ ÑĢÐ¸
ĠÐ¾ÑģÐ½Ð¾Ð² Ðµ
ĠÐ¼ÐµÐ¶Ð´Ñĥ Ð½Ð°ÑĢÐ¾Ð´
ĠÑįÐºÑģÐ¿ Ð»ÑĥÐ°
Ñİ ÑģÑĮ
ĠÐ¾ Ð¶Ð¸
ĠÐĵ Ð°
ĠÐ¤ Ð¸
ĠÐ¿Ð¸ ÑģÐ°
ĠÑģÐ¾Ð¾Ð± ÑīÐ¸
Ð¼Ñĥ Ð»Ñı
ĠÑĤÐ°Ðº Ð¾Ð³Ð¾
ĠÐ½Ð¾Ð² ÑĭÐ¹
ĠÐ¿ÑĢÐ¸Ð¼ÐµÐ½ Ñı
ĠÐ½Ð° Ð»
Ð½Ð° Ð¼
Ð»Ñİ Ð´
ĠÐ¿Ð¸ ÑģÑĮ
ĠÐ² Ð»Ð¸Ñı
ĠÐ·Ð° ÐºÑĢÑĭ
ÑģÑģÐ¸ Ð¸
Ð¾Ð² ÑĭÐµ
ĠÐ¡ Ð°Ð¼
ĠÐļ Ð¾ÑĢ
ĠÑģÑĤ ÑĥÐ´
ÑģÑģ Ñĭ
ĠÐ¾Ð±ÑĢÐ°Ð· Ð¾Ð²Ð°
ĠÑģÑĤÐ¾Ð¸ Ð¼Ð¾ÑģÑĤÑĮ
ĠÑĢÐµÐ±ÐµÐ½ ÐºÐ°
Ð½Ð¸ ÑĤÐµ
Ð¼Ð° Ð³Ð°Ð·Ð¸
ĠÑģÑĤ ÐµÐ½
ĠÐ¼Ð¾Ð´Ðµ Ð»Ð¸
Ð½Ð¸ Ð½
ĠÑģÐ¾Ð² ÑģÐµÐ¼
Ð± ÐµÑĢ
ĠÐ¿ÑĢÐ¸ ÑĩÐ¸
ĠÐļ ÑĢÑĭ
ĠÐ´Ð° Ð²
ĠÐ°Ð² ÑĤÐ¾ÑĢ
c om
Ð´ ÐµÐ¼
ÑģÑĤÐ² ÑĥÑİÑĤ
ĠÐ¿Ð¾Ð´ ÑĢÐ¾Ð±
ĠÐ´Ð°Ð½ Ð½ÑĭÐµ
Ð´Ð° ÑİÑĤ
ÑģÑĤÐ¸ ÑĤÑĮ
ĠÐľ Ñĥ
Ð¸ Ð¹
ĠÐŁ Ðµ
Ð»Ð¸ ÑĤ
ĠÐ·Ð° ÐºÐ»Ñİ
3 7
ĠÑģ Ð¾Ð»
Ð¼Ñĭ Ñģ
ĠÐ¾ÑģÐ¾Ð± ÐµÐ½
ĠÐ²Ð° ÑĪ
Ñĩ Ð½ÑĭÐ¼
ĠÑĢÐ°Ð· Ð½ÑĭÑħ
ĠÐ´Ð¾Ð»Ð¶ Ð½Ð°
ĠÑĢÐµÑģ ÑĥÑĢ
Ñĥ Ð»
ĠÑĢÐ° Ð²
ĠÐ¾Ð± Ð½Ð°
ĠÑģÑĥ Ð±
ĠÑĢÐ° ÑģÐº
ĠÐ¾Ð±ÑĬ ÐµÐ¼
ĠÑģ Ð¼Ð¾ÑĤÑĢÐµÑĤÑĮ
Ð´Ð¸ Ð½Ð°
ÑĩÐ° Ð¹
Ðļ ÐĲ
Ð¶ Ð½Ð¾Ð¹
ĠÐ¾ÑĤ Ð»Ð¸Ñĩ
ĠÐ¿Ð¾Ñģ ÐµÑĤÐ¸
!! !
ĠÐºÑĢÐµÐ´Ð¸ ÑĤ
ĠÐ¼Ðµ ÑģÑĤÐµ
ĠÐ¿Ð»Ð° Ð½Ð¸
ĠÐ²Ð¾Ð·Ð¼Ð¾Ð¶ Ð½Ð¾ÑģÑĤÐ¸
ĠÑįÑĤÐ¸ Ð¼
Ñĩ ÐµÐ½Ð¸Ð¸
ĠÐ¿ÑĢÐ¾Ð´Ñĥ ÐºÑĨÐ¸Ð¸
t er
u l
Ð² ÑĪÐ¸Ð¹
Ð·Ð° Ð´
ĠÐķ Ð²ÑĢÐ¾Ð¿
ĠÐ½Ð°ÑĩÐ° Ð»Ð°
ÑĤÐ° ÑĢ
Ð²Ð° Ð¹ÑĤÐµ
ĠÐ¾Ð±ÑĢÐ° Ð±Ð¾ÑĤ
ĠÐ°Ð²ÑĤÐ¾Ð¼Ð° ÑĤÐ¸
Ðķ Ðł
ĠÐ¸Ð³ ÑĢÑĥ
ĠÐĺÑģÐ¿ Ð¾Ð»Ð½Ð¸
ĠÐ¡Ð¾Ð² ÐµÑĤ
ÐºÐ° Ð±
ĠÐ¿Ð¾Ð» Ð¾Ð¶Ð¸
Ð¸ Ð¼Ñĥ
Ð»Ñı Ñħ
Ð¾Ð± Ð°
ĠÑĨ ÐµÐ½Ñĭ
ĠÑİ ÑĢÐ¸
o s
ĠÑģ ÐµÑĤÐ¸
ĠÐ·Ð° Ð²
ĠÐ° Ð»ÑĮ
Ð¿Ð° Ð½Ð¸Ñı
Ðł Ð°
ĠÐ¿ÑĢÐ¾Ð¸Ð·Ð²Ð¾Ð´ ÑģÑĤÐ²Ð°
ÑıÐ± ÑĢÑĮ
ĠÑĤÐ¾Ð²Ð° ÑĢÐ°
ĠÑģÑĤÐ°Ð½ Ð´Ð°ÑĢ
ÑĩÐµ ÑģÐºÑĥÑİ
ÑĤÑĮ Ñı
ÐŁ Ð¾Ñģ
Ð½ Ð½ÑĭÑħ
ĠÐºÐ° ÐºÐ¸Ðµ
ĠÐŁ ÑĢ
ĠÑħ Ð¾Ð·ÑıÐ¹
ĠÐ·Ð° ÑĤÐµÐ¼
Ð¾Ð¿ Ð°
Ð¿Ð° Ñģ
ĠÐ¸Ð³ ÑĢÐ°ÑĤÑĮ
o c
o v
ĠÐ½Ð° Ð¿Ð¸ÑģÐ°
Ð¢ Ðµ
ĠÑĢÐ°Ñģ ÑĪÐ¸
Ð¸ ÑĢÐ°
Ð´ ÑĨÐ°
ĠÐ¿ÑĢÐ¸ ÐµÐ¼
ĠS t
Ð¸ Ð½Ð°
Ñĩ Ð½Ð¾ÑģÑĤÑĮ
Ðº Ð²Ð¸
ĠÐ¸Ð³ÑĢÐ¾Ð² ÑĭÐµ
5 00
Ð»Ð¸ Ð¹
ĠÐ¾Ð± Ñĥ
ĠÐ¾Ð± ÑģÐ»ÑĥÐ¶Ð¸
Ð±Ð¸ ÑĢ
in e
ĠÑĥ Ð»ÑĥÑĩ
ÑīÐ¸ Ð¼
Ðµ ÑĨ
Ð´Ð¸ ÑĤÐµ
Ð³Ð¾ Ðµ
ĠÐ¾ ÐºÑĤ
ĠÐº Ð»Ñİ
ĠÐ¾Ð± ÑĥÑĩ
ĠÑĢÐµ ÑĪÐµÐ½Ð¸Ðµ
ĠÑĨÐµ Ð»ÑĮ
ĠÑģÐ¼Ð¾Ð¶ ÐµÑĤÐµ
ĠÐ½Ð° ÑĥÑĩ
Ð¸ Ñĩ
ĠÐ¿ÑĢÐ¾ ÑģÑĤÑĢÐ°Ð½
ĠÐ¼Ð¸ Ð»Ð»Ð¸
Ð¶ Ð½Ð¾
ĠÐ¼Ð½ Ð¾Ð¶Ðµ
ĠÑģÐºÐ°Ð·Ð° ÑĤÑĮ
ĠÐ¿ÑĢÐ°ÐºÑĤÐ¸ ÑĩÐµÑģÐºÐ¸
ĠÐ¿Ð¾Ð»ÑĥÑĩ ÐµÐ½Ð¸Ñı
Ð¿Ñĥ ÑĤÐ°
Ð¼ Ñı
ĠÐ½Ð° ÑĪÐ¸Ñħ
3 1
Ð½Ð¸ ÑĨÐµ
Ð¼ÐµÐ½ Ð°
ĠÑģ Ð¾Ðº
ÑĢÐµ Ð³Ð¸
ÑģÐ¸ Ð±Ð¾
ĠÐµ Ð¹
Ð¢ Ð°Ðº
ĠÐ³Ð¾ÑĢ Ð¾Ð´Ðµ
ĠÐºÐ¾ÑĢ Ð¿Ñĥ
ĠÐ¼ Ð¾Ð±Ð¸
ĠÐ½Ð° ÑĪÐµÐ³Ð¾
Ð´Ð° Ð½Ð¸Ðµ
ĠÑĢÐ°Ð· Ð½Ð¾
ĠÐ¿Ð¾Ð¼ Ð¾Ð³Ð°
Ð²Ð¾Ð· Ð¼Ð¾Ð¶
ÑĤÐ° Ðº
Ð½Ñĥ Ð»
Ñĥ Ðº
ĠÐ± Ð¾Ð»ÐµÐ·
ĠÐ¾ÑĤ Ð¼ÐµÑĤÐ¸
ĠÐ¿ÑĢ Ð¾Ð³
ĠÑĤÐ° ÐºÐ¸Ð¼
ĠÐ¼Ðµ Ð´
ĠÐĵ Ð»Ð°Ð²
ÑĤ Ð¾ÑĤ
ĠÑĤ Ð¾Ð¼Ñĥ
ĠÑĩÐ° ÑģÐ¾Ð²
ĠÐ³Ð¾Ð» Ð¾Ñģ
ĠÑģÑĤÐ° Ð½Ð¾Ð²Ð¸
ĠÐ¸ÑģÐ¿Ð¾Ð»ÑĮÐ·Ð¾Ð²Ð° Ð½Ð¸Ñı
Ð¾Ð´ ÐµÐ¹
Ð»Ð¸ Ð½Ð°
ĠÑĥ Ð²ÐµÑĢ
ĠÐ²ÑģÐµ Ð¹
ĠÑĥÑĢÐ¾Ð² Ð½Ñı
ĠÐ³ ÑĢ
ÑĢÑĥ ÐµÑĤÑģÑı
ĠÑģÐ°Ð¼ ÑĭÐµ
Ð± Ð¾Ð»
ĠÐ´ ÑĢ
ÑĤÐµÐ»ÑĮ Ð½Ð¾ÑģÑĤÑĮ
ĠÐŀ ÑĢ
Ðĺ Ð·
Ð± ÑĢÐ°
ĠÐŁ Ð¸
ĠÐ²Ð¾Ð· Ð½Ð¸Ðº
ĠÐ²Ð° Ð»
ĠÐ¿ÑĢÐ¸Ð½ ÑĨÐ¸
ĠÐºÐ¾Ð¼ Ð¸
ĠÐ± ÑĢÐ°
ĠÑģÐµÑĢ ÑĮ
ĠÐ¾ÐºÐ¾Ð½ ÑĩÐ°
ĠÐ¿ÑĢÐ¸ ÑıÑĤ
ĠÐĵ ÐµÑĢ
ÑĩÐµ ÑģÑĤÐ²Ð¾
ÐµÐ· Ð´
ĠÐ¼Ð¸ ÑĢÐµ
ĠÐ°ÑĢ ÑħÐ¸
ĠÐ¢Ð°Ðº Ð¶Ðµ
Ġ http
ĠÐ¾ Ð¿Ð¸ÑģÐ°
ÐµÑĢ ÐºÐ°
Ð¼Ðµ ÑģÑĤ
Ð²ÐµÐ´ ÐµÐ½Ð¸Ñı
ĠÐ·Ð°ÐºÐ¾Ð½ Ð¾Ð´Ð°
ÐĴ ÐĲ
ĠÑı Ð½
ĠÐ¿Ð¾Ð¿ Ð°
ĠÑĥÐ²Ðµ Ð»Ð¸ÑĩÐ¸
ÑģÑĤÐ¸ÑĤ ÑĥÑĤ
ÑĤÐ¾ Ð½
Ðł Ðµ
ĠÐ¾ ÐºÐ°Ð·ÑĭÐ²Ð°
ĠÐ½Ð° Ð·Ð°Ð´
ĠÐ½Ðµ Ð´Ðµ
ĠÐ¸Ð· Ð¾Ð±ÑĢÐ°Ð¶
ĠÐ½Ð¾Ð² ÑĭÑħ
Ġ w
Ñĥ ÑģÐºÐ°
.. ..
ĠÑģÐ²Ð¾Ð¸ Ð¼Ð¸
u m
ĠÑĦÐ¾ÑĤ Ð¾Ð³ÑĢÐ°ÑĦÐ¸
ĠÐ¼Ð½Ð¾Ð³Ð¸ Ñħ
Ð² ÑĪÐ¸Ñħ
ĠÑĢÐµ ÑĪÐµÐ½Ð¸Ñı
ĠÑĢÐ°Ð¼ ÐºÐ°Ñħ
ĠÐ¿ Ð¾Ð¶
ĠâĢ ¢
ĠÑģÐ°Ð¼Ð¾ ÑģÑĤÐ¾Ñı
ĠÐŁ Ð¾ÑĢ
ĠÑģÐºÐ°Ð·Ð° Ð»
ĠÐ²ÑĤÐ¾ÑĢ Ð¾Ð¹
ĠÐ¸Ð½ ÑĦ
Ñħ Ñĥ
Ð´Ðµ Ð»
ĠÑģÐ² Ðµ
Ñĳ ÑĢ
ÑĤÐ¸Ð² Ð½ÑĭÐµ
ĠÑĤÐ¾Ð²Ð° ÑĢ
ĠÐľ Ð¸Ð½
ĠÐºÐ¾Ð¼ Ð½Ð°
ĠÐ¼Ð¾Ð¼ ÐµÐ½ÑĤÐ°
ĠÐ¾ÑĤÐ²ÐµÑĤ ÑģÑĤÐ²ÐµÐ½
ĠÑħÐ°ÑĢÐ°ÐºÑĤÐµÑĢÐ¸ ÑģÑĤÐ¸
ĠÑĩ Ð»ÐµÐ½
ĠÐ¿ÑĢÐ¾Ð³ÑĢÐ°Ð¼ Ð¼Ñĭ
ĠÐ´Ð¾Ð¼Ð° ÑĪ
ĠÐ½ÐµÐ¼ Ð½Ð¾Ð³Ð¾
ĠÐ¾ ÑĪÐ¸
Ð»Ñİ Ð´Ð°
ĠÑĦÐ¸ ÑĢ
ĠÐ¿ÑĢÐ¾Ð¸Ñģ ÑħÐ¾Ð´Ð¸ÑĤ
ĠÐ¿Ð¾ ÑģÑĤÐ°Ð²
Ð¾Ð»Ð¾Ð³Ð¸ Ñı
ĠÐ·Ð° Ð²ÐµÑĢ
ĠÑģÐµÐº Ñģ
i r
ĠÑĩ ÐµÑĤÑĭ
ĠÐ¾Ð¿ ÑĤÐ¸
ÐµÐ´ Ð¶
ĠÐ¿Ð»Ð° Ð½
ĠÐ¿ÑĢÑı Ð¼Ð¾
ĠÐ²Ð·Ð° Ð¸Ð¼
Ð¿ Ð¾Ð½
ÑīÐ° ÐµÑĤÑģÑı
ĠÐ¥ Ð°
Ð¾Ð¹ ÑĤÐ¸
ĠÐºÐ° Ð¿Ð¸ÑĤÐ°
Ñį Ð½
Ð¾Ð»ÑĮ ÐºÑĥ
i v
ĠÑħ ÑĢÐ°
ĠÐ¿ÑĢÐµÐ´ Ð¼ÐµÑĤ
Ð·ÑĭÐ²Ð° ÐµÑĤ
Ð²Ð¸Ð´ ÐµÑĤÐµ
ĠÑģ ÐºÐ¸
ĠÑĥ Ðº
ĠÐ³ ÑĢÐ¸
ÑĢÐ°Ð½ ÐµÐ½Ð¸Ñı
ĠÐķ Ð³Ð¾
ĠÐĹÐ°ÐºÐ°Ð·ÑĩÐ¸ ÐºÐ°
ĠĠ ĠĠ
ĠÐ£ÐºÑĢÐ°Ð¸ Ð½Ñĭ
. )
ĠÑĥ Ð½Ð¸ÐºÐ°
ĠÐºÐ°ÑĩÐµ ÑģÑĤÐ²Ð¾
Ð¾Ð³ Ðµ
ĠÐ³ Ð»ÑĥÐ±
ÑĩÐµ ÑģÑĤÐ²Ð°
Ð³Ð° Ð½Ð¸
ĠÑģÐ°Ð¼ Ð¾Ð¼
Ð½Ð¸ÐºÐ° Ð¼Ð¸
ÑĢÐ° Ð¹
ĠÐ± ÑĢÐ¸
ĠÐ¿ÑĢÐ¾Ð±Ð»ÐµÐ¼ Ñĭ
Ð¸ Ñħ
ĠÐĲ Ð´
ÑĨÐ¸Ð¾Ð½ Ð½ÑĭÑħ
Ð»Ð¸ Ð¸
ÑĪÐ¸ ÑģÑĮ
ÐĶ Ð°
ĠÐºÐ»Ð° ÑģÑģÐ¸
ĠÐ¿ÑĢÐ¾Ð²ÐµÐ´ ÐµÐ½Ð¸Ñı
ĠÐ½Ð° ÑħÐ¾Ð´Ñı
Ð»Ð¸ Ð±Ð¾
ĠÑĥ Ð¿Ð°
ĠÐ¼Ð° ÑĤ
Ðĺ ÐĿ
Ñĥ ÑĩÐ¸
Ð± ÑĥÐ´
ÑĪ ÐµÑĤ
ĠÑħ Ð¾
3 3
ĠÐ¼Ð¸ ÑĢÐ¾Ð²
Ġ of
ÐĿ Ð¾Ð²
ĠÑĤÑĢÐµÐ± Ð¾Ð²Ð°Ð½Ð¸Ñı
ĠÐ°Ð¿ Ð¿Ð°ÑĢÐ°
ĠÐ¿ÑĢÐ¾Ð´Ð¾Ð» Ð¶Ð°
ĠÑģ ÐµÑĤ
ĠÐºÐ¾Ð¼Ð¿ Ð»ÐµÐºÑģ
ĠÑģÐ»ÑĥÐ¶ Ð±Ñĭ
o g
ĠÐ¾Ð±Ð¾ÑĢÑĥÐ´ Ð¾Ð²Ð°Ð½Ð¸Ñı
ĠÐ¸Ð½ÑĦÐ¾ÑĢÐ¼Ð° ÑĨÐ¸Ñı
ÑĢÐ¸ ÑģÑĤÐ¸
Ð¾Ð²Ð° Ð»Ð¸
ĠÐĴ Ð¾ÑĤ
ĠÑĦÐ¾ÑĢ Ð¼Ð¸
Ñģ Ð°Ð½
ĠÐ± Ð»Ð°Ð³
Ð´Ð¸ Ñı
Ð¾Ð¿ ÑĢÐ¾
ĠÑįÐ»ÐµÐºÑĤ ÑĢÐ¾
ĠÐ±Ñİ Ð´Ð¶
ĠÐļ ÑĢÐ¾Ð¼Ðµ
ĠÑĢÐ°Ð±Ð¾ÑĤÐ° ÐµÑĤ
ÑĭÑĪ Ð»ÐµÐ½
Ð¶ Ð½ÑĭÐ¹
ĠÐ¾Ð¿ÑĢÐµÐ´Ðµ Ð»ÐµÐ½
ÑģÑĤÐ²ÐµÐ½ Ð½Ð¾Ðµ
ĠÐĴÐ»Ð°Ð´Ð¸ Ð¼Ð¸
Ð± Ð¾Ð¹
ÑĨ ÐµÐ½Ð¸
Ð¿ ÑĢÐ°Ð²Ð¸
ĠÐ¾ ÑĨÐµÐ½
ĠÐ²Ðµ Ñģ
ĠÑħÐ°ÑĢÐ°Ðº ÑĤÐµÑĢ
ĠÑĤÑĭÑģÑı Ñĩ
Ðľ Ðĺ
Ð½ Ð¾Ð²Ð°Ð½Ð¸Ñı
ĠÐ¼Ð° ÑģÑĤÐµÑĢ
Ð¾Ñĩ Ð½ÑĭÐµ
ĠÐ±Ñĥ Ðº
u b
ĠÐº Ð¾Ð¶
ÑģÑĤÐ° ÑĤÐ¸
ĠÐ° ÑĤ
ĠÐ¾ÑĤ Ð·Ñĭ
ĠÐ²Ð¾Ð· Ð´ÐµÐ¹
ĠÑĢÐ°Ð±Ð¾ÑĤÐ° ÑĤÑĮ
Ð´ ÐºÐ¾
Ð¾ÑĢ Ð¾ÑĤ
ĠÐ¾ÑĤ Ð¿ÑĢÐ°Ð²
ĠÐ¿ ÑĥÐ±Ð»Ð¸
ĠÐ² ÑģÐ¿
ĠÐ¼Ð½ Ð¾Ð³
ĠÐ½ Ñĥ
Ð¶ Ð´Ðµ
Ð¾Ñģ Ð¿
ĠÑĦ ÑĥÑĤ
ĠÑĢÐ°ÑģÑģÐºÐ° Ð·Ð°
Ðµ Ð²Ð°
ĠÐ¾Ð±ÑĢÐ° ÑĤÐ¸
ĠÑĤ ÑĢÐµÑĤÑĮ
ĠÐ¡ Ð°Ð¹
ĠÐºÐ¾ÑĤÐ¾ÑĢ ÑĥÑİ
Ð± ÑĢÐ¸
ĠÐ²Ð»Ð° ÑģÑĤÐ¸
ĠÐ±Ð»Ð¸ Ð·
ĠÐ¿ ÑĭÑĤÐ°
Ð· ÑĮ
ĠÐ± Ð»Ð°Ð³Ð¾Ð´Ð°ÑĢÑı
ÑģÐµ ÑģÑģÑĥ
Ð»Ñĥ Ð¹
ĠÐ´Ð¾ÐºÑĥ Ð¼ÐµÐ½ÑĤÐ°
ĠÐ¿Ð¾ÑģÑĤÐ¾ÑıÐ½ Ð½Ð¾
ĠÑĤ ÐºÐ°
ĠÐ¾Ð±ÑıÐ·Ð° ÑĤÐµÐ»ÑĮÐ½Ð¾
ĠÐ¾Ð±Ð¾ÑĢÑĥÐ´ Ð¾Ð²Ð°Ð½Ð¸Ðµ
Ð¸ÑĤÐ° Ð¹
ĠÐ¿Ð°ÑĢ ÑĤ
ĠÐ·Ð°Ð²Ð¸ÑģÐ¸ Ð¼Ð¾ÑģÑĤÐ¸
ĠÐ²ÑĭÐ± ÑĢÐ°ÑĤÑĮ
Ġ =
ĠÑĥ Ð·
ĠÐ·Ð° ÑıÐ²Ð¸
Ð´Ð¸ Ð¸
ĠÑģÐ¾ ÑģÑĤÐ°Ð²Ð»ÑıÐµÑĤ
ĠÐĽ Ð°
ÐºÐ¾Ð» Ð°
ĠÐ¿ÑĢÐ¾Ð´Ñĥ Ðº
Ðļ Ñĥ
a v
ĠÐ¿ Ð¾Ð»ÑĮÐ·
Ð´ Ð¾ÑĢ
ĠÐ¾ ÑīÑĥ
ĠÐ¡ Ð¿
ÑģÐ¾Ð» ÑİÑĤ
Ġ i
ĠÐ½Ð¸ Ð¶Ðµ
Ðķ ÐĿ
Ð· Ð¼Ð°
ĠÐ¾ÑģÐ¾Ð± ÐµÐ½Ð½Ð¾
ĠÐ± Ð°Ð»
ÑĪÐ¸ ÑĤÑĮ
ĠÐ¿ÑĢÐµÐ´ ÑĥÑģ
ĠÐ² Ð¿
Ð¾Ð³Ð¸ Ðµ
ĠÐ´ÐµÐ¹ÑģÑĤÐ²Ð¸ ÑĤÐµÐ»ÑĮÐ½Ð¾
ĠÐ¼Ð°ÑĤÐµÑĢÐ¸Ð° Ð»Ð°
Ð½Ñı ÐµÑĤÑģÑı
ĠÐľÐ¾ÑģÐº Ð¾Ð²
Ð· ÐµÑĢ
ĠÑģÐ¾ ÑģÑĤÐ¾
ĠÐĳ Ð¸
ĠÐ°Ð² Ð³Ñĥ
3 6
ĠÑģ ÐµÐ½ÑĤ
ĠÐľ Ð¾Ð»
ĠÐ±Ð¾Ð»ÑĮ ÑĪÐ¸Ð½
ĠÐ¾Ð±ÑĬ ÑıÑģ
ÑĢÐ° Ð±Ð°ÑĤÑĭ
ÑĪ ÐºÐ¾Ð¼
ĠÐ° ÑģÑģ
Ð½Ð¸ÑĨÐ¸ Ð¿Ð°
Ñĩ Ð½Ð¾ÑģÑĤÐ¸
ĠÐ·Ð° Ð¼
ĠÐºÐ¾Ð¼ ÑĦÐ¾ÑĢ
ĠÑģÐ¸ Ð³
7 7
ÑĤ Ð½ÑĭÐµ
Ñħ Ð²Ð°
ÑĪ Ð»Ð°
Ñĳ Ð»
ÑĤ Ð½Ð¾
Ð´Ð¸ ÑĤ
ĠÐ¾ Ð½Ð¾
ĠÐ¿ÑĢÐ¾ ÑģÐ¼Ð¾ÑĤ
ÑĢÐ¾Ð² ÐºÐ¸
ĠÐ´Ð¾Ð»Ð¶ Ð½Ð¾
ĠÐ¸Ð·Ð¼ÐµÐ½ ÐµÐ½Ð¸Ñı
Ð¾ Ñĥ
ĠÐ¿ÑĢÐµ Ð¿
ĠÐ¿Ð¾ÑĢ ÑĤÐ°
ÑĢÐµÐ¼ÐµÐ½ Ð½Ð¾
ĠÐ´Ð¾Ð² Ð¾Ð»ÑĮÐ½Ð¾
3 4
Ð¼ Ð¼
ÑĤÐ¾ Ñĩ
ĠÐ¼Ð° Ð³
ĠÑĤÐ¾Ð²Ð° ÑĢÐ¾Ð²
Ġ #
ĠÐ¿ÑĢÐ¸ ÑĢÐ¾Ð´
ĠÐ¿Ð¾ ÑģÑĤÑĢÐ¾
ĠÑĦ Ð¾Ð½
ĠÐ¿Ð¾Ñĩ ÐµÐ¼Ñĥ
Ð²Ð° Ð»Ð°
ĠÐļÐ° Ð·Ð°
ĠÐ¾ ÑĤÐµ
Ð¶ ÐµÐ¼
ĠÑģÐ¼ Ð¾Ð³
ĠÑĢÑĥÐºÐ¾Ð² Ð¾Ð´Ð¸
ĠÑģ Ð²Ð°
ĠÑħ ÑĥÐ´
ĠÐ´Ðµ Ð»Ðµ
ĠÐ¿Ð»Ð¾ÑīÐ° Ð´
ig ht
Ð° Ð³Ð°
ĠÐ·Ð° Ð¿Ñĥ
ÑĤÑĥ ÑĢÐ°Ð»ÑĮ
ĠÑĢÐ°ÑģÐ¿ÑĢÐ¾ ÑģÑĤÑĢÐ°Ð½
ĠÐ² Ð¾Ðº
ĠÐ·Ð° Ð¿ÑĢÐµ
ĠÑĨ ÐµÐ½Ðµ
ĠÐłÐ¾ÑģÑģÐ¸ Ñı
ĠÐºÐ°Ð¶Ð´ Ð¾Ð³Ð¾
ĠÑĥÑĢÐ¾Ð² ÐµÐ½ÑĮ
ĠÐ· Ð¾Ð»
Ð²Ð¸ Ð°
ĠÐµ Ð´Ð¸Ð½
Ð°Ð»ÑĮ Ð½Ð¾
Ð¶ ÐµÑĤ
ÑĩÐµ ÑģÐºÐ¾Ð¼
ĠÐ¿ÑĢÐ¸ Ð³Ð¾ÑĤÐ¾Ð²
ĠÐŀ ÐŀÐŀ
Ðł Ð°Ð·
ĠÐ½Ðµ Ðµ
ĠÐ¾Ð± Ðµ
ĠÐ¿ÑĢÐ¾ Ñģ
ĠÐ¼ÑĥÐ·Ñĭ ÐºÐ°
ĠÐ½Ð° ÑģÑĤ
ÑĩÐ° Ð»Ð°
3 00
ÑĪ ÐµÐ½Ð¸Ñİ
ĠÐ³ ÑĢÑĥÐ·
Ð¾Ð¶ Ð½Ð¾
ĠÐ²Ñģ Ñİ
ĠÐ½Ð° Ð¿Ð¸
ÑģÐº Ð¾
Ð½Ñı ÐµÑĤ
Ð¿Ðµ ÑĩÐ°ÑĤ
ĠÑĨÐ²ÐµÑĤ Ð°
ÑĤÐ¸ Ð»
ĠÐ³ Ð¾Ð´Ñĭ
ĠÐ·Ð° Ð³
ĠÐ£ ÑģÐ»Ñĥ
ĠÐ»Ðµ Ñģ
ĠÐ³Ð¾Ð²Ð¾ÑĢÐ¸ ÑĤ
) ;
0 1
ÑĤÐµ ÑĢÐµÑģ
Ð»ÑĮ Ð·Ñı
ÑĦ ÑĤ
ÑĢÑĭ Ð¹
Ġt he
Ð¾Ð²Ð° Ð½Ð¸Ð¹
ĠÐĲ Ð»
ÑĢ Ð¾Ð´Ðµ
ĠÑĢÑĭÐ½ ÐºÐµ
ĠÐ²Ð°ÑĢÐ¸Ð°Ð½ ÑĤ
ĠÑģÑĤÐµ Ð¿
Ñī ÐµÐ½Ð¸Ð¸
ĠÑģÐ°Ð¼ ÑĭÐ¹
ĠÐ¸ÑģÑĤÐ¾ÑĢÐ¸ Ð¸
ĠÑĤÑı Ð¶Ðµ
ĠÐºÐ° Ð¼
ĠÐ¿ÑĢÐ¸ Ñģ
ÑĩÐ¸ ÑĤÑĭ
ÑģÐ° Ð¼Ð¸
on e
Ðµ Ð»ÐµÐ½
Ð¼Ð° ÑĢ
ĠÐļ Ð¾Ð»
ĠÐ¸Ð³ ÑĢÐ¾Ðº
ĠÑĤÑĢÐ°Ð½ÑģÐ¿ Ð¾ÑĢÑĤ
ĠÐ²Ð°Ð» ÑİÑĤ
ÑģÑĤ Ð¾Ð¼
Ð¾ÑĢ ÑĥÐ¶
ÑĢÐ¸ ÑĤÑĮ
Ð°Ð¼ ÐµÑĤ
Ð¿Ð° ÑĢ
ĠÐºÐ¾Ð¼Ð¿ Ð»ÐµÐºÑĤ
ĠÑĤÑĢÐµ Ñħ
0 7
ÑĢÐµ Ð±Ð¸
ÑĢÐ¸ Ðº
ĠÐ° Ð½Ð³
ĠÐ¾ÑĤ Ðº
ĠÐĴ ÐµÐ»Ð¸
ĠÐ²Ð¾Ð· Ð²ÑĢÐ°
ĠÐ³ÑĢÑĥÐ¿ Ð¿Ñĭ
Ð¶ ÐµÑĤÑģÑı
Ð¾Ð¹ Ð´ÐµÑĤ
ĠÐ·Ð° Ð¼Ðµ
ĠÐ½Ð¾Ð¼ ÐµÑĢ
Ð² ÑĪÐ¸Ðµ
ĠÐº Ð¾Ð¶Ð¸
ÑģÐº Ð¾Ð»ÑĮÐºÑĥ
ĠÑģÐ°Ð¼ Ð¾Ðµ
Ðµ ÑħÐ°
ĠÐ½ Ð¾Ñģ
Ð¾Ð» Ð¾Ð³
201 1
ĠÐ¾ ÑĩÐ¸
ĠÐ° Ð¼ÐµÑĢÐ¸ÐºÐ°Ð½
Ð¡ Ðµ
Ð·Ð¸ ÑĢÐ¾Ð²Ð°Ð½
ÑĤÐ¸Ð² Ð½ÑĭÑħ
Ð¾Ð³ Ð¾ÑĢ
Ð¾ÑĤ ÑĢÐµÐ±
ĠÐŁ Ð»Ð°
ĠÐ´ÑĢÑĥ Ð·
4 4
ĠÐ·Ð° Ð±Ñĭ
ĠÑĤÐ° Ð½
ĠÑįÑĤÐ¾Ð¼ Ñĥ
6 5
ĠÑģ Ñİ
Ð»ÑĮ Ð½ÑĥÑİ
ĠÐ¿ÑĢ ÑıÐ¼
ĠÐ¼ Ð¾Ð½
ÑĦ Ð¾Ð½Ð°
Ðļ Ðŀ
Ð¶Ð¸ ÑĤÐµ
ÑĩÐµÑģÐºÐ¸ Ð¼Ð¸
ÐĽ Ð¬
ĠÐ¼Ð°ÑĤÐµÑĢÐ¸ Ð°Ð»
ÑĮ Ð¸
ÐŁ ÑĢÐµÐ´
ĠÑĦÐ¾ÑĢ Ð¼Ñĥ
ĠÐ¿ÑĢÐ°Ð²Ð¸ Ð»Ð¾
a p
Ð¸ Ð´
ĠÐ¿ Ð»
ĠÐļ Ð¾Ð³Ð´Ð°
ĠÑģÐ¾Ð± Ð¸ÑĢÐ°
ĠÑĢÐµÐ³Ñĥ Ð»Ð¸
Ð²Ð¸ Ð³Ð°
ĠÐ²Ð¸ Ð´Ð°
Ð»Ðµ Ð³
ĠÐŁ Ð°ÑĢ
ĠÑĤÐµ Ð±Ðµ
Ð±Ð¸ Ð»Ð¸
ĠÐ²Ð½ÑĥÑĤ ÑĢÐ¸
ĠÐŁ ÐµÑĢÐµ
ÑģÐ° Ð´
ĠÑĤÑĢÑĥ Ð´Ð°
ÑĢÐµÐ³Ð¸ ÑģÑĤÑĢÐ¸
Ð¸Ð½ Ñĥ
Ð¾ÑĤÐ¸ ÑĤÐµ
Ñĩ Ð½ÑĥÑİ
ĠÐº Ð½Ð¾Ð¿
ĠÐ¡ ÑĤÑĢÐ°
ĠÐµ Ð²
ĠÑģÐ¾ ÑģÑĤÐ°Ð²Ð»Ñı
Ð»ÐµÐ½ Ð¾
3 2
ĠÐº ÑĢÐµÐ¿
ĠÐ° Ð½Ð°Ð»
ĠÐŁ ÑĢÐ°Ð²Ð¸
ĠÐ²Ð¾Ñģ ÑģÑĤÐ°Ð½Ð¾Ð²
ÐĴ Ðŀ
ĠÐ¶Ðµ ÑģÑĤ
ĠÐ¾Ð´ Ð½Ð°ÐºÐ¾
ĠÐ¸ÑģÐ¿Ð¾Ð»ÑĮÐ· Ñĥ
ĠÐ·Ð½Ð°ÑĩÐ¸ ÑĤ
Ð¿Ð° Ð´
ÑģÑĤÐ²ÐµÐ½ Ð½Ð°Ñı
ĠÐ±Ñĥ Ð¼Ð°
ĠÐ¸Ñİ Ð»Ñı
ÑĪ Ð½Ð¾
ĠÑĢÐ° Ð·Ð°
ĠÐ¿Ð° ÑĤ
ÐµÐ½Ð¸ Ð½
ĠÐ½Ðµ Ð´Ð²Ð¸
Ð¹ÑĤÐµ ÑģÑĮ
ĠÐ²ÐºÑĥ Ñģ
Ð¸ ÑĤÑĮÑģÑı
Ñĩ Ð½Ð¾Ð¼
ĠÑģÐ¾Ð³Ð»Ð° Ñģ
ĠÐ°Ð´ ÑĢÐµÑģ
Ð´ ÐµÑĤÑģÑı
ĠÐ¿ÑĢÐµÐ´ ÑģÑĤÐ°Ð²Ð»Ñı
ĠÐ¾Ð´ Ð½Ð¸Ð¼
ĠÐ²ÑģÑĤÑĢÐµ ÑĩÐ°
ÑĪ ÐºÑĥ
ĠÐ¿ÑĢ Ð¾Ðº
Ð³Ð¸ Ñı
ÑģÐ° Ñħ
ĠÐ´Ðµ Ð²
ĠÑĥÑģÐ»Ð¾Ð²Ð¸ Ñı
Ð¶ ÐºÐ¸
ĠÐ¼Ðµ Ð»
ĠÑĢÐ°Ð¹ Ð¾Ð½
Ðº ÑĢÐµÑĤ
ĠÐº Ð³
ĠÐ¾ÑĤ Ð»Ð¸ÑĩÐ¸
ĠÐµ Ð¶Ðµ
ĠÑĤÐµ Ð±Ñı
ĠÐ´ÐµÐ½Ðµ Ð³
ĠÐ½ÐµÐ´Ð²Ð¸ Ð¶Ð¸
ÐµÐ½ Ð½ÑĭÐ¼
ĠÐ¼ Ð¾Ð¸
ĠÐĿ Ñĥ
Ð¾Ðº Ð¾Ð¹
ÐºÑĥ Ð»ÑĮ
ĠÐ¿ÑĢÐµ Ð¿Ð°ÑĢÐ°
ĠÑģÐ²Ð¾Ð± Ð¾Ð´
ĠÑģÑĤÐ°Ð½Ð¾Ð²Ð¸ ÑĤÑģÑı
ÑĢÐ° Ð·Ð¸
ÑĢÐ¾ ÑģÐ¸
Ð»Ðµ Ð¶Ð°
ĠÐ´Ðµ ÐºÐ°Ð±
ĠÐ¿ÐµÑĢÑģ Ð¾Ð½Ð°
Ġ h
ĠÑĤ ÑĢÐ°Ð²
Ġ- -
ĠÐ´Ð¸ ÑĢÐµ
ÑģÐµÑģÑģÑĥ Ð°
ÑĪ ÑĥÑİ
ÐµÐ¼ Ð¾Ð¹
ĠÐ¿ÑĢÐ¾ÑĨÐµ Ð´Ñĥ
ĠÐ·Ð°Ð²Ð¸ÑģÐ¸ ÑĤ
ĠÐº Ð¸Ñģ
ÑĤÐ° Ñı
ĠÐ± Ð¾Ðº
7 5
ĠÐ· Ð²
ĠÐ³ Ð¾
ĠÐ¾ÑĤ Ð²Ðµ
ĠÐ°Ðº ÐºÑĥ
ĠÐ¼Ð¾Ð³ Ñĥ
ĠÐĺÑģÐ¿ Ð¾Ð»Ð½Ð¸ÑĤÐµÐ»ÑĮ
ĠÐ¿ÑģÐ¸ Ñħ
ĠÑģ Ð¼ÐµÑĢ
ĠÐ¿Ð¾ Ð½
ĠÐľ Ð°Ð¹
ĠÐŃ Ð»ÐµÐºÑĤ
ĠÑĢ Ð¾Ð»Ð¸
ĠÑģÐ¾Ð± ÑĢÐ°
ĠÐ¸Ð¼ ÐµÑĤÑĮ
Ñĥ Ð¿
Ð»Ð° ÐºÑĤÐ¸
ĠÐŁ Ðŀ
ĠÐ½ÐµÑģÐº Ð¾Ð»ÑĮ
ĠÐ¿ ÑıÑĤ
ĠÑģ Ð½Ðµ
ĠÐºÐ¾Ð¼ Ð¼Ñĥ
ĠÐ´Ð¸Ð° Ð³
ĠÐ°Ð± ÑģÐ¾Ð»ÑİÑĤ
a b
Ġ ÑĢÑı
ĠÐĳ Ñĭ
ĠÑįÑĦÑĦ ÐµÐºÑĤ
ĠÐ¾ÑĩÐµÑĢÐµÐ´ ÑĮ
ĠÑģ Ð»Ð¾
Ð´Ðµ Ð»Ð¸Ñı
ĠÐ¿ÑĢÐ¸ Ð»Ð¾Ð¶
ĠÑĦÐ¾ÑĢ Ð¼Ñĭ
ĠI n
ĠÐ´ÐµÐ¹ÑģÑĤÐ²Ð¸ Ñı
Ð´Ð° Ð³
ĠÐ°Ð´ ÑĢÐµ
ĠÐºÐ° ÑģÐ°
at ion
ÑĩÐ¸ ÐºÐ¾Ð²
ÑĢÐ¾Ð¼ Ð°
ĠÐ¿ÑĢÐµÐ´Ð¾ ÑģÑĤÐ°Ð²Ð»Ñı
ĠÐ¿Ð¾Ð¼ Ð¾Ð³
ĠÐºÐ°ÑĢ ÑĤÐ¸Ð½
ĠÐĲÐ½ Ð´
ĠÐ² Ð´
ĠÐ²Ñĭ Ð¸
Ðº ÑģÐ°
ĠÐ¿ÑĢÐ¸ ÑħÐ¾Ð´Ð¸
ĠÑģÑĤÐ° ÑĢÐ°
ĠÑĩÐµÑĤÑĭ ÑĢÐµ
a il
ÑĦ Ñĭ
ĠÐºÐ¾ÑĤÐ¾ÑĢ ÑĭÐ¼
ĠÑģÐµÐ¼ ÐµÐ¹
ĠÐ¼Ñı Ð³
ĠÐ¼ÐµÐ½ÑĮ ÑĪÐµ
ĠÐ² Ð¾Ð´Ð¸
ÑĪ ÑĤÐ°
ĠÐŁ Ð¾ÑĤ
ÐĽ ÐĲ
ĠÐ½Ð¸Ðº Ð¾Ð³Ð´Ð°
ĠÐ¾ÐºÑĤ ÑıÐ±ÑĢÑı
0 6
3 8
Ñĩ ÐµÐ½Ñĭ
ĠÑĦÐ¾ÑĢ ÑĥÐ¼
ĠÑĥ Ð¼ÐµÐ½ÑĮ
ĠÑĦ Ð°Ð¹
ĠÐ´Ðµ ÑģÑı
Ð·Ñĭ Ð²Ð°ÑĤÑĮ
ĠÑĢÑĥ ÐºÐ¸
ĠÑģ ÑĥÑĤ
ĠÐ¼ Ð¾Ð¹
Ð¶ ÐµÐ¹
Ð¿Ð¸ Ð¾Ð½Ð°
ĠÐ¿ÑĢÐµÐ´Ð¾ ÑģÑĤÐ°Ð²
ĠÑĩ ÑĤ
ĠÐ¿ÑĢÐ¾Ð³ÑĢÐ°Ð¼ Ð¼Ð°
I I
ĠÐ¿ÑĢÐ¸ Ð±Ñĭ
ĠÐ²Ñĭ Ð³Ð¾Ð´
ĠÑģÑģÑĭ Ð»
ĠÐ¡ÐºÐ° ÑĩÐ°ÑĤÑĮ
e x
ĠÐ° ÑĥÐ´Ð¸
ĠÐºÐ¾Ð½ ÑģÑĥÐ»ÑĮ
ĠÐ²ÐµÑĢ Ñħ
ĠÐ²Ð¾Ñģ Ð¿
ã ĥ
Ð· ÐµÐ¼
ĠÐ²Ñĭ Ð´Ðµ
ĠÑģÑĤÐ° Ð»Ð¾
ĠÐ½Ð°ÑģÐµ Ð»ÐµÐ½Ð¸Ñı
ÑĤ ÑĭÐµ
ĠÐ½Ðµ Ð»ÑĮÐ·Ñı
ĠÐĿÐ¾Ð² Ð¾ÑģÑĤÐ¸
ĠÐ¾ ÑģÑĤÐ°Ð½Ð¾Ð²
ĠÐ¿ÑĢÐ¸ Ð²Ñĭ
ĠÑĢÐµ Ð´Ð°
Ð¡ Ð°
ÑĨÐ¸Ð¾Ð½ Ð½ÑĭÐµ
ĠÐ²Ð· Ð³Ð»Ñı
ĠÐ±Ð°Ð½ Ðº
ĠÐ» Ð¾Ð¶
Ð¼ Ð¾Ñģ
ĠÑģ Ð¼ÑĭÑģ
Ð»ÑĮ Ð½Ð¾Ð¼
Ñī ÐµÐ½Ð¸Ð¹
Ð·Ð¸ Ñı
201 0
ĠÐ¿ÐµÑĢÑģ Ð¾Ð½Ð°Ð»ÑĮ
5 5
ĠÐº Ð¾ÑģÑĤ
ÐºÐ¸ Ð½
Ð¿Ð° ÑĢÐ°ÑĤ
ĠÐ°Ð´ Ð¼Ð¸Ð½Ð¸ÑģÑĤÑĢÐ°
ĠÑģÐ¾ ÑģÑĤÐ°
ÑĤÐ¸Ð² Ð½Ð¾Ð¹
ĠÑĦÐ° ÐºÑĤ
ĠÑĥÐ²Ðµ Ð»Ð¸Ñĩ
ĠÐłÐµÑģÐ¿ÑĥÐ±Ð»Ð¸ ÐºÐ¸
ĠÑĤ ÐµÐ½
ÑĩÐ¸ ÐºÐ¸
ĠÐĺ Ð²Ð°
Ð°Ð»ÑĮ Ð½ÑĭÐµ
ĠÐ¿ÐµÑĢÐ² Ð¾Ð³Ð¾
ĠÑĥÐºÐ°Ð·Ð° Ð½
ĠÐ½Ð° Ð±Ð¾ÑĢ
ĠÑĥ Ð±Ðµ
Ð¾Ñģ ÑĢÐµÐ´
ĠÐ¾Ð´ Ð½Ð¾Ð¼
ĠÐ´Ð°Ð½ Ð½ÑĭÐ¹
ÐŃ ÑĤÐ¾
Ð³ ÐµÐ¹
ĠÐ¿Ñĥ ÑĤÐµ
ĠÑģÐ¾Ð·Ð´Ð° Ð½Ð¸Ñı
ĠÑĥÐ½Ð¸Ð²ÐµÑĢ ÑģÐ¸ÑĤ
Ð² ÐµÐ¹
ĠÑĢÐ°Ð· ÑĢÐ°Ð±Ð¾ÑĤÐ°
ÐµÐ´ ÑĮ
ĠÑĦÐ¾ÑĢ Ð¼Ðµ
Ġ| ----
Ð¾Ð² Ð¾Ð³Ð¾
Ð»ÑĮ Ðµ
Ð¾ÑĤ Ð½Ð¾
ĠÐºÐ¾Ð½ ÐºÑĢÐµÑĤ
ĠÑģÐ°Ð¼ ÑĭÐ¼
ĠÐ¿Ð¾ÑĤ Ð¾Ð»
ĠÐ¼ÐµÑģÑı ÑĨÐµÐ²
ĠÐ´Ð°Ð»ÑĮ Ð½ÐµÐ¹
ĠÐ½Ð°Ð» Ð¾Ð³Ð¾Ð²
ĠÐ¾ Ð¿Ð°Ñģ
Ð± Ð°Ð½
ÑĪ Ð¾Ð¹
ĠÐ¿ÑĢÐ¸ ÑģÑĥÑĤ
Ð²Ð¸ Ð½
ÑİÑīÐ¸ Ð¼Ð¸
ÑĨÐ¸Ð¾Ð½ Ð½Ð¾Ð³Ð¾
ĠÑģÐ¾Ð¾Ð± ÑīÐ°ÐµÑĤ
ĠÐ°Ð²ÑĤÐ¾Ð¼Ð¾Ð±Ð¸ Ð»Ñı
ĠÐºÐ°ÑĤÐµÐ³Ð¾ÑĢÐ¸ Ð¸
ĠÐ¾ÑĪÐ¸ Ð±
0 9
ÑĢÐ¾ Ð½Ð¸
ĠÐ¿ÑĢÐ¸ Ð½Ð°Ð´
ĠÐ´ÑĢÑĥ Ð³Ð°
4 8
Ð¾ÑĤ Ñĥ
ĠÑĥ ÑģÑĤÐ°Ð½Ð°Ð²Ð»Ð¸
ÑĤÐ¸ Ñİ
ÑĤÐ¸ ÑĦÐ¸ÐºÐ°
ÑĨÐ¸Ð¾Ð½ Ð½ÑĭÐ¹
ĠÑģ Ð¸Ð½
ĠÐ½Ð° Ðº
ÐĲ Ð²
ĠÑģÐ»ÐµÐ´ ÑĥÑİ
ÑĢ Ð¾Ð·
ĠÐĳ Ñĥ
Ðĵ Ð»Ð°Ð²
ĠÐ»ÑİÐ± Ð¾Ð²
ĠÐ¼Ñĥ Ð½Ð¸ÑĨÐ¸Ð¿Ð°
ĠÐ¾ÑĤÐ½Ð¾ ÑĪÐµÐ½Ð¸Ñı
ĠÐºÑĥÑĢ Ñģ
ĠÑģÐ¸ Ð»Ñĥ
ĠÐ²Ð· ÑĢÐ¾Ñģ
0 3
ÑĤ Ð¾Ð³Ð¾
ĠÐ¿Ð¾Ð¼ Ð¾Ð¶ÐµÑĤ
ĠÑģÐ»ÑĥÑĩÐ° Ð¹
ĠÐ¿ÑĢÐ°Ð²Ð¸ Ð»ÑĮÐ½Ð¾
ÑģÑĤÑĥÐ¿ Ð»ÐµÐ½Ð¸Ñı
ĠÐ·Ð´Ð¾ÑĢÐ¾Ð² ÑĮÑı
Ñİ ÑīÐµÐµ
Ð»Ñı Ð½
ÑĢÑĥ Ñģ
Ð´ÐµÑĢ Ð¶Ð¸
ĠÑĢÑĭ Ð±
ĠÑıÐ½ Ð²Ð°
Ð² ÐµÐ½
Ñĩ ÐµÐ½Ð¸ÐµÐ¼
ĠÐ´ ÐµÑĤÐ°
ĠÐºÐ»Ð° ÑģÑģÐ°
Ð² Ð¾Ð±
Ð¾Ðº Ð¾
ÑĢÐ¾Ð² ÐºÐ°
Ðľ ÐĲ
c e
ĠÑģÐ¾ ÐµÐ´Ð¸Ð½
ĠÑħ Ð¾ÑĤÐµ
ĠÐ¿ÑĢÐµ Ð¸Ð¼Ñĥ
ĠÑģÐµÑĢÑĮ ÐµÐ·
Ð² ÑĪÐµÐ³Ð¾
ĠÑĥ ÑĩÐµÑĤ
ĠÐ½Ðµ Ð¼Ðµ
ĠÐ¸Ð· Ð¼ÐµÐ½Ð¸
ÑĪÐ¸ Ð¼Ð¸
ĠÐ¼Ð° Ð»Ð¾
ĠÐ¿ÐµÑĢÐ² Ð¾Ð¹
ĠÐ² ÐµÑĤ
ĠÑģ Ð¼Ð°
ĠÑģ ÐºÑĢÑĭ
ĠÐº ÑĢÑĥÐ³
ĠÐ½Ðµ Ð¿ÑĢÐ¸
Ð¼Ð¸ Ð¸
ĠÐ¿Ð¾Ð¼Ð¾Ñī ÑĮ
Ð¼ Ð¾ÑĢ
ĠÐ¢ Ñĥ
i k
Ġ v
ĠÐ³ ÑĥÐ±
ĠÐ»Ð¸ ÑĤÐµÑĢÐ°
ĠÐºÐ¾Ð½ ÑĨÐµ
ĠÐ»Ðµ ÑĩÐµÐ½Ð¸Ñı
ĠÑİÑĢÐ¸ Ð´Ð¸
ĠÐ¿Ð¾Ñģ Ð¾Ð±Ð¸
ÑģÑĤ ÐµÐ¹
ĠÐº Ð¼
ÑĢÐµ Ð²Ð°
ĠÐ¿Ð¾Ð´ Ð¿Ð¸
ĠÐºÑĥ Ñħ
ĠÐ¿Ð»Ð° ÑĤÐµ
ĠÑģÑĤÑĢÑĥ ÐºÑĤÑĥ
Ð±ÑĥÐ´ ÑĮ
ÑĨÐ¸ Ð¾Ð½Ð°
ĠÐ²Ð¾Ð· Ð½Ð¸ÐºÐ°
ĠÐ´Ñĥ ÑħÐ¾Ð²
ĠÐ±Ð°Ð½ ÐºÐ¾Ð²
ĠÐ±Ð¸Ð· Ð½Ðµ
o b
Ð¾ÑĢ Ð¾Ð½Ðµ
ĠÐ¼ Ð¾Ð´Ñĥ
Ð¾Ð½ ÑĤ
ĠÑģÑĤ ÑĢÐ¾
ĠÐ´Ð° Ð²Ð½Ð¾
Ð³ÑĢÐ° Ð´
ĠÑĢÑĭÐ½ ÐºÐ°
ĠÐ¾Ð±Ñĭ ÑĩÐ½Ð¾
ĠÐ½ÐµÐºÐ¾ÑĤÐ¾ÑĢ ÑĭÐµ
4 9
Ð² Ð¾Ð²
ÐĿ Ð¾
ĠÐ½Ð¾Ð² Ð¾Ð³Ð¾
ĠÑģÑĤÑĢÐ° ÑħÐ¾Ð²
ĠÐ¿ÑĢÐµÐ´Ð»Ð°Ð³Ð° ÐµÑĤ
ĠÐ¼ Ð¾Ð´
ĠÐ¿ÑĢÐµÐ´ Ð¿Ð¾Ð»
ÑģÐºÐ° ÑĤÑĮ
ĠÐĺÐ½ÑĤÐµÑĢ Ð½ÐµÑĤ
e w
Ñĥ Ð¼Ðµ
ĠÑĥ Ð±Ð¸
Ð¸Ð½ Ð³
ĠÐ¿Ð¾Ñģ Ð²Ñı
ĠÑĩÐµÑĤ Ð²ÐµÑĢ
Ðº Ð¾Ð³
Ð½Ð¸ ÐºÑĥ
Ð»Ð° Ð¼
ÑĤÐ¸ Ð¼
ĠÐ» Ð¾Ð³Ð¸
Ð°Ð»ÑĮ Ð½Ð¾Ð¹
ĠÐ²Ð° ÐºÐ°Ð½
ĠÐķ Ð²
ĠÐ³Ð¾ÑĢ Ñı
ÑİÑīÐ¸Ñħ ÑģÑı
ĠÐ·Ð°ÑīÐ¸ ÑĤÑĭ
Ðº Ð¾Ð»Ðµ
ĠÐ¢ ÑĥÑĢ
ĠÑģÐ¿ ÑĢÐ°Ð²
ĠÐ²Ð° ÑĪÐµÐ³Ð¾
ĠÐ¿Ð¾ÑĤ ÑĢÐµÐ±Ð¸
Ġ l
Ðº Ð»
ĠÐ½Ðµ Ð²Ð¾Ð·Ð¼Ð¾Ð¶
ĠÐ¿ÑĢÐ¸ Ð³Ð»Ð°
ĠÐ¾Ð±ÑĬ ÑıÐ²
ĠÐ¿ÑĢÐ¾Ð³ÑĢÐ°Ð¼ Ð¼
ĠÐ¾ÑĢÐ¸ Ð³Ð¸Ð½Ð°
Ġ n
ÑĢÐµ Ð·Ð°
ÑĢÑĥ ÑİÑĤ
ĠÑģÐº Ð¾Ð»ÑĮÐºÐ¾
ĠÐ± ÑĢÐµÐ½
Ð´Ð° Ð»Ð¸
es s
ĠÑĤÑĢÑĥ Ð±
ÑĤ Ð½ÑĭÐ¹
Ð¿ Ð¾Ñĩ
ĠÐ¼Ðµ Ñĩ
ÑħÐ¾Ð´Ð¸ ÑĤÑĮ
ĠÐ¿ÑĢÐµÐ´Ð¿ÑĢÐ¸ Ð½Ð¸Ð¼Ð°
Ð² Ð¾ÑĢÐ¸
ĠÑģÑĤ ÑĢ
Ð¿Ð¾Ð» Ð½Ðµ
0 5
ĠÐ²Ñĭ Ð³Ð»Ñı
ĠÑģÑĤÐ° Ð½ÐµÑĤ
ĠÑĢÐ°Ð¹ Ð¾Ð½Ðµ
ĠÐ¿ ÐµÐ½
ĠÑĥ Ð»
ĠÐ·Ð° Ðº
ĠÐ·Ð° Ð¿Ð¾Ð»
ÐŁ ÐµÑĢ
ÑīÐµ ÑģÑĤÐ²Ð¾
ĠÐ½Ð° Ð³ÑĢÑĥÐ·
ĠÐ¾ÑĤ ÐºÐ°Ð·Ð°
ĠÐµ ÑģÑĤÐµ
ĠÐ·Ð°Ð±Ð¾Ð»Ðµ Ð²Ð°Ð½Ð¸Ñı
ĠÐ±Ð¾ÑĢ ÑĮ
Ð»Ð° Ñı
ÑĨÐ¸Ð¾Ð½ Ð½Ð¾Ð¹
Ġ >
Ð½Ð¸ Ð»
ĠÐºÐ° Ð½
ĠÐĲ Ðº
ĠÐ½Ð¾Ð² Ð¾ÑģÑĤÐ¸
ĠÐ¸ÑģÐºÐ»Ñİ ÑĩÐ¸
ĠÐ· Ð¸Ð¼
ĠÐ³ Ð¾ÑģÑĤÐ¸
ÑģÑĤÐ¸ Ð½
Ð¶Ð¸ Ð½
ĠÐ¸ÑģÐ¿ Ð¾Ð»
ĠÂ»Â» Â»
Ð² ÑĪÐ¸ÑģÑĮ
ĠÐ¸ Ð¼Ñĥ
ÑĢÐµ Ðµ
ĠÐºÐ¾Ð¼ Ð¼ÐµÐ½ÑĤÐ°
ĠÐĹ Ð´ÐµÑģÑĮ
Ð¶Ð´ ÐµÐ½Ð¸Ð¹
ĠÐ¿ÑĢÐµ ÑģÑģ
ĠÐ¾Ð´ Ð½Ñĥ
) :
ĠÐ½Ð° ÑĤÑĥÑĢÐ°Ð»ÑĮ
ĠÐ¿Ð¾ ÑģÐºÐ¾Ð»ÑĮÐºÑĥ
ÑģÐºÐ¸ Ð¼Ð¸
Ðľ ÐĹ
ĠÐļÐ¾Ð¼ Ð¿
ĠÐ¿Ð¾Ð½ ÑĢÐ°Ð²Ð¸
Ġ ï¿½ï¿½ï¿½ï¿½
ÐµÐ¼ ÑĭÐ¹
ĠÐ³ ÐµÐ½ÐµÑĢÐ°
Ð´Ð¸ Ð¼
Ð¾Ð¿ ÑĢÐ¸
ĠâĢ ¦
ĠÐĳ ÐµÐ»
ĠÐ¿Ð¾Ð²ÐµÑĢÑħ Ð½Ð¾ÑģÑĤÐ¸
ĠÑĢÑıÐ´ Ð¾Ð¼
ĠÐ½Ð° ÑĨÐ¸Ð¾Ð½Ð°Ð»ÑĮ
Ñī ÐµÐ¼Ñĥ
ĠÐ¿Ð¾ ÑıÐ²Ð»Ñı
ĠÐļ ÑĥÑĢ
ĠÐ¼Ð° ÑģÑģÐ°
ĠÐ¿ÑĢÐµÐ´ ÑģÑĤÐ°Ð²Ð»ÑıÐµÑĤ
ĠÐ½ ÐµÑĢ
Ð¿ Ð¾Ð¼
ÐµÐ´ ÐµÐ½Ð¸Ñı
ĠÐ´Ð¸Ð·Ð° Ð¹
Ð¾ÑģÐ¸ Ð±Ð¸ÑĢ
ĠÐº Ð¾Ð³Ð¾
ĠÐ° ÑĢÐµÐ½
ĠÐ²Ñĭ Ð·
ĠÐ¸Ð· Ð´ÐµÐ»Ð¸Ñı
ĠÑĦ ÐµÐ´Ðµ
Ð¢ Ð°
ĠÑģÐ²Ð¾Ð¹ ÑģÑĤÐ²Ð°
ÐµÐ½ÑĤÐ¸ Ð»Ñı
ĠÐ¼Ð¸Ðº ÑĢÐ¾
Ð»Ðµ Ð²
ÑīÐ° ÑĤÑĮ
ĠÐ³Ð¸ Ð´
ĠÑģÐ¾Ð²ÐµÑĢÑĪÐµÐ½ Ð½Ð¾
Ñĩ Ð¾Ðº
ĠÐ¿Ð¾Ð´ ÐºÐ»Ñİ
ÐºÐ¾ Ð½Ð°
ĠÑĤÐ¾ ÑĩÐ½Ð¾
ĠÑĪ ÑĤÐ°
ÑģÑĤÑĢÐ° Ð¸
ĠÑģÐ²Ð¾ ÐµÐ¼
ĠÐºÐ¸ Ð½Ð¾
ĠÐ½ÐµÐ¿ Ð¾ÑģÑĢÐµÐ´
ÐµÐ¼ ÑģÑı
Ð»Ñı ÑİÑĤ
ĠÐ¾Ð±ÑıÐ·Ð° Ð½
ĠÑģÐ¾ÑĤÑĢÑĥÐ´ Ð½Ð¸
ÑģÐ¼Ð¾ÑĤ ÑĢÑı
Ð² Ð¾Ð¸
Ð»Ð¸ Ð·
Ð½Ñİ Ñİ
Ñħ Ðµ
Ð²Ð¸ Ñĩ
Ðŀ Ñģ
ĠÑħ Ð²Ð°
Ð·Ð¸ Ð½
Ð² Ð¾Ð´Ð°
âĢ ¢
ÐĿ Ð«
ĠÑģÑĤÐ° Ð»Ð°
ĠÐ²Ðµ ÑĩÐµÑĢ
Ð½ Ð¾Ð·
ĠÐ³ Ð»Ñĥ
ĠÐ³ Ð°ÑĢ
ÑģÑĤÐ°Ð² ÐºÐ°
ĠÑģÐ°Ð¼ Ð¾Ð³Ð¾
ĠÐºÑĥ Ð´Ð°
ĠÐ³ÑĢÐ° ÑĦÐ¸
ĠÐ¾ÑĤÐ´ÑĭÑħ Ð°
ÑĢÐµ Ð»
Ð¢ ÐĲ
Ð½Ð¸ÐºÐ° Ð¼
ĠÐº Ð¾Ð¿Ð¸
ĠÐ¼Ð° ÑģÑģ
ĠÐ§ ÑĤÐ¾Ð±Ñĭ
ĠÐľÐ¸ Ð½Ð¸
ĠÐºÐ½Ð¸ Ð³Ð¸
ĠÐ´Ð²Ðµ ÑĢÐ¸
ĠÑģÑĦ ÐµÑĢÐµ
Ð± Ð¾Ð²
ÑĤÐ¸ Ð²Ð°
ÑĤÐ¸ ÐµÐ¼
ĠÐ·Ð° ÑĢÐµÐ³Ð¸ÑģÑĤÑĢÐ¸
ĠÑĤÐ° ÐºÐ°Ñı
ww w
ĠÑĥÐ´Ð¾Ð² Ð¾Ð»ÑĮ
ar t
ĠÐ´Ð²Ð¸ Ð¶ÐµÐ½Ð¸Ñı
ĠÐ¿ÑĢ Ð¾Ð¶Ð¸
Ð°Ð»ÑĮ Ð½ÑĭÐ¹
ĠÐºÐ¾Ð½ ÑĤÐ°
ĠÑģÐµ Ð»ÑĮ
ĠÑĤÐµÑħÐ½Ð¾Ð»Ð¾Ð³Ð¸ Ð¸
e b
ĠÐ¿Ð¾ ÑĤÐµ
ĠÑĢÐµ ÑĨÐµÐ¿
ĠÑĢÐµÐºÐ»Ð° Ð¼
Ñĥ Ð³
Ñĥ ÑģÑĤÐ¸
ÑĪ Ð½Ð¸Ð¹
ĠÑĤÐµ Ð»Ð°
ÑģÑĤÐ¾Ð¹ ÑĩÐ¸
ĠÐ¶ÐµÐ½ÑīÐ¸ Ð½
ĠÑģ Ð½Ð¾Ð²Ð°
Ñħ Ð°Ð½
Ð¶ ÐºÐ°
ÑīÐ¸ Ðº
ĠÐºÐ¾ÑĢ Ð¾ÑĤ
al l
ĠÐ´Ð¾Ð± Ð°Ð²
ĠÑĪÐºÐ¾Ð» Ñĭ
ĠÐ± Ð¾Ðµ
ĠÐ¶Ðµ Ð»ÐµÐ·
ĠÐ²Ð°Ð¶ Ð½Ð¾
ĠÐ´ Ð¾Ðº
ÐµÐ½ Ð½Ð°Ñı
ĠÑĥ ÑĤ
Ð¼Ñĥ Ð¼
ĠÐ²Ð· Ñı
ĠÐ¸ÑģÑģÐ»ÐµÐ´ Ð¾Ð²Ð°Ð½Ð¸Ñı
ĠÑĢÐµÐºÐ¾Ð¼ÐµÐ½ Ð´Ñĥ
Ð¸ Ð»ÑĮ
Ð´ Ð½ÐµÐ²
ĠÐ½Ðµ Ð´Ð°
ĠÐ²Ðµ Ð´Ñĥ
ĠÐ´Ð°Ð½ Ð½Ð¾Ð¹
ĠÑĩÐ¸ ÑģÑĤ
ĠÐ¿ÑĢÐµÐºÑĢÐ° Ñģ
ÑĤ Ð½Ð¾Ð¹
ÑģÑĤ ÐµÐ¼Ñĥ
ÑĤÐ¸ Ð½Ð°
ÑĤÐµÐ»ÑĮ Ð½Ð¾ÑģÑĤÐ¸
Ð¼Ð¾ÑĤ ÑĢÐµÐ½
Ð¿ÐµÑĢ Ð²ÑĭÐµ
ĠÐ¼ÐµÑģÑı ÑĨ
ĠÐ²Ð¾Ð¹ Ð½Ñĭ
Ðº Ð»Ð¸
ÑĥÑİÑīÐ¸ Ðµ
ĠÐ¼Ð°Ð³Ð°Ð·Ð¸ Ð½
ĠÐ½Ð° ÑģÑĤÑĢÐ¾
ĠÑģÐ¾ ÑģÑĤÐ°Ð²Ð¸
Ð¢ Ðķ
ĠÐ½Ð¸ Ð¼Ð¸
ĠÐ¤ Ð¾ÑĢ
ĠÐ¸Ð¼ ÐµÐ½Ð¸
ĠÐ² Ð°Ð½
ĠÐŁ Ð¾Ñĩ
ĠÐ´Ðµ ÑĪÐµ
ĠÑģÐ¸ Ð»ÑĮÐ½Ð¾
Ð½Ð¾ÑģÑĤ ÑĢÐ°Ð½
ĠÐ¿Ð¾ÑĢÑıÐ´ ÐºÐµ
ĠÐ² Ð¿Ð¾Ð»Ð½Ðµ
ĠÐĲ Ð»ÐµÐº
ĠÑģÐ¾ ÑĩÐµÑĤÐ°
ÑĤÐ¾ÑĢ Ð¾Ð¼
ĠÑģÐµ ÑĢÐ¸Ð¸
ĠÑĨÐ¸ ÑĦ
ĠÐ½ÐµÐºÐ¾ÑĤÐ¾ÑĢ ÑĭÑħ
ĠÐ°Ð³ ÐµÐ½ÑĤ
ĠÐ¼Ð½Ð¾Ð¶Ðµ ÑģÑĤÐ²Ð¾
ĠÐ°Ð²Ð³Ñĥ ÑģÑĤÐ°
4 00
u p
ĠÐ¿Ð¾Ð´Ð´ÐµÑĢ Ð¶Ð¸
ĠÐ¿Ð°ÑĢÐ° Ð¼ÐµÑĤ
Ð²Ð¸Ð´ÐµÑĤÐµ Ð»ÑĮ
ĠÐ²Ð¾Ðº ÑĢÑĥÐ³
ÑĨ Ð²ÐµÑĤ
ĠÐ¾Ð± Ñģ
ĠÐĳ Ðµ
ĠÑģÐ»ÑĥÑĩÐ° ÑıÑħ
ĠÐºÐ»Ð¸ ÐµÐ½ÑĤÐ¾Ð²
Ð½Ð¸ ÐºÐµ
ĠÐ¼ Ð¾Ð½ÑĤÐ°
ÐºÐ¾Ð² ÑĭÐµ
Ð¶Ð° Ð¹
ÑĨÐ° Ð¼Ð¸
ĠÑĢ Ð¾Ð¶Ð´ÐµÐ½Ð¸Ñı
ĠÐ¿ÑĢÐ¾Ð² Ð¾Ð´
ĠÐ´Ð° ÐµÑĤ
ĠÐ´Ð¾ÐºÑĥ Ð¼ÐµÐ½ÑĤÐ¾Ð²
ĠÐ¿ÑĢÐ¸ Ð²Ð»ÐµÐºÐ°
ĠÐ¿ÑĢÐ¾Ð¼ ÑĭÑĪÐ»ÐµÐ½
ĠÐ±ÐµÑĢÐµ Ð¼ÐµÐ½
ÑĢÐµ ÑģÑģ
ĠÐ¿Ð° ÑĨÐ¸
Ð¼Ð¾ÑĤ ÑĢ
ĠÑĢÐ°Ñģ ÑħÐ¾Ð´
ĠÐ¼Ð¾Ð´Ðµ Ð»ÑĮ
ĠÑĢÑĥÐºÐ¾Ð² Ð¾Ð´
Ñī ÐµÐ½Ñĭ
ĠÑĢÐµ ÑģÐ¿
ÐĴ Ð¾
Ð¼Ð¸Ð½Ð¸ ÑģÑĤÑĢÐ°ÑĨÐ¸Ð¸
ĠÑĥÑģÑĤÑĢÐ¾Ð¹ ÑģÑĤÐ²Ð°
ĠÐ¾ ÑħÑĢÐ°
ĠÑĥ ÑģÐ¸Ð»Ð¸
ĠÐ²Ð¸ Ð´Ð¾Ð²
ĠÐ¸Ð½ÑĤÐµ ÑĢÐµ
ĠÐºÐ»Ð¸ ÐµÐ½ÑĤÐ°
ĠÐ±Ð¾Ð»ÑĮÑĪ Ð¾Ðµ
ĠÐ½Ð°Ð»Ð¸ÑĩÐ¸ Ð¸
Ð½ Ð´
Ñĩ ÐµÐ½Ð¸Ð¹
ĠÑģÑĤÑĢÐ° Ð½Ðµ
ĠÐ¿ÑĢÐ¸Ð¼ÐµÐ½ ÐµÐ½Ð¸Ñı
ĠÑĢÐ°Ð±Ð¾ÑĩÐ¸ Ñħ
0 4
ĠÐ¾ÑĤ Ð¿ÑĢÐ°Ð²Ð¸
ĠÑĥÑĢÐ¾Ð² Ð½Ðµ
ĠÑĨÐµÐ»ÑĮ Ñİ
ĠÐ·Ð° ÑģÐµÐ´Ð°
ĠÐ¢ ÐµÐ¼
ĠÐ´ÐµÐ»Ð° ÐµÑĤ
ĠÐĲÐ² ÑĤÐ¾
ĠÐ´ ÑĢÐµÐ²
ÑģÑĤÐ¸ ÑĤÑĥ
Ðŀ Ð´
ĠÑĩÐ° ÑīÐµ
ĠÐ¼ÐµÐ½ ÐµÐ´Ð¶
ĠÐºÐ¾ÑĢ ÑĢÐµ
ĠÐĸ Ð¸
Ġ in
ĠÐ¾Ð± Ð½Ð¾Ð²
ĠÐ¿ÑĢÐµÐ´Ð»Ð¾Ð¶ ÐµÐ½Ð¸Ñı
ĠÐ° Ð¿ÑĢÐµ
Ð»ÐµÐ½ Ð½ÑĭÐ¹
ĠÐ¸ÑģÐ¿Ð¾Ð»ÑĮÐ·Ð¾Ð²Ð° Ð½Ð¸Ðµ
ĠÐ»ÑİÐ±Ð¸ Ð¼
ĠÑģÐµÐ½ÑĤ ÑıÐ±ÑĢÑı
Ð¶ Ð½Ð¾Ð³Ð¾
Ð±Ðµ Ð»Ð¸
ĠÐºÑĥÐ»ÑĮ ÑĤÑĥÑĢÑĭ
ĠÐ²Ð¾Ð·ÑĢÐ° ÑģÑĤÐ°
4 6
ĠÑģÑĤ Ð¾Ð»Ð¸
ĠÐ¼Ð° Ñı
ÑģÑĤ Ñı
Ð³ Ð¾Ð½
Ð¶ Ð½Ð°Ñı
ĠÐ½Ðµ Ñĥ
ĠÐ¸Ð· Ð´ÐµÐ»Ð¸
ĠÐ¼Ñĭ ÑĪ
ÑĢÐ°Ð»ÑĮ Ð½Ð¾Ð³Ð¾
ĠÐ³Ð»Ð° Ð·
ĠÑĤÑĥÑĢ Ð½Ð¸
ĠÑģÐµÐ· Ð¾Ð½
0 8
3 9
ÑĤÐ° Ð»ÑĮ
ĠÑĦ Ð°Ðº
ĠÐĿ ÐĲ
ĠÑģÐ¾ÑģÑĤÐ¾Ñı Ð½Ð¸Ð¸
ĠÑģÐ»Ð¸ ÑĪÐºÐ¾Ð¼
Ð¾ ÑĦ
ĠÐ² ÑħÐ¾Ð´
ĠÐ¾ ÑĨÐµÐ½Ð¸
ĠÐº ÑĢÐ¾Ð¼Ðµ
ĠÐ¿ÑĢÐµÐ´ Ð²Ð°ÑĢÐ¸
ĠÑĢÐµÐ³Ð¸ Ð¾Ð½Ð°
ÑĪÐµ Ð´
ĠÐĵ Ð¾ÑĢ
es t
ĠÐ³Ð¾Ð² Ð¾ÑĢ
Ð½ ÐµÐ½Ð¸Ñİ
Ð» Ð¾Ð±
ĠÐ² Ð¸Ð·
ĠÐ´ Ð»Ð¸Ð½
Ð½Ð¸ Ð±ÑĥÐ´ÑĮ
ĠÐ¼ ÑĥÐ»ÑĮ
ĠÐĴ ÐµÑĢ
ĠÐ¿ÑĢ Ð¾ÑĤÑı
Ð°Ð½ ÑĤÐ°
Ðŀ Ðł
ÐĽ Ðĺ
ÐµÐ¼ Ð¾Ð³Ð¾
ĠÑģÑĤÐ° ÑĤÑĥ
ĠÑģÐ¸ ÑģÑĤÐµÐ¼Ñĥ
ĠÑħÐ¾Ð» Ð¾Ð´
ÑĢÐ° ÑĤÐ¸
Ð± Ð¾Ð¼
ĠÑģÐ¾Ð´ÐµÑĢ Ð¶Ð¸ÑĤ
ÑĦÐµÑĢ ÐµÐ½
Ð¾Ð² ÑĭÐ¹
Ð»Ð¸ Ð¼
Ð¾Ð¶Ð´ ÐµÐ½Ð¸Ðµ
ĠÐ¿ Ð»Ð¾ÑĤ
ÑĢÐ¸ ÑĨÐ°
Ð±Ð¸ Ð½Ð°
ĠÑģÑĤÑĢÐ¾Ð¸ ÑĤÐµÐ»ÑĮÑģÑĤÐ²Ð°
ĠÐ¾Ð± ÑģÑĥ
ĠÐ¼Ð° Ð»Ñĭ
ĠÑģÐµ ÑĢÐ¸
ĠÐĽ Ñĥ
ĠÐ¨ Ð¸
ĠÑģÑĤÐ°ÑĤÑĮ Ð¸
ĠÐ¾ÐºÑĢÑĥ Ð¶Ð°
0 2
ÑĤ ÐºÐ°
ÑģÐ¿ Ð¾ÑĢÑĤ
ĠÐ¸Ð½ Ð²ÐµÑģÑĤÐ¸
ĠÑģÐ¾Ð² Ð¼ÐµÑģÑĤ
Ñģ Ð¼
Ñħ Ð¾Ð¼
ÑĩÐ¸ ÐºÐ°
ĠÐ¼Ð° Ð»ÑĮ
ÑĪÐ° ÐµÑĤÑģÑı
ÐµÑĤÐµ ÑģÑĮ
ĠÐŃ Ðº
ĠÑĢ Ð¾Ð»ÑĮ
ĠÐ»ÑİÐ± Ð¾Ð³Ð¾
ĠÐ¿ÑĢÐµÐ´Ð¿ÑĢÐ¸Ñı ÑĤÐ¸Ñı
] .
ÑĢ Ð´
Ñĩ ÑĤÐ¾
ĠÐ¸ Ð´ÐµÑĤ
Ð¾Ð¼ Ð°Ð½
ĠÐĶ Ð°Ð½
15 0
Ðº ÑĥÑİ
er s
ĠÑĥ Ð¶
ĠÐ° Ñį
ĠÑĤÐµ Ð¾ÑĢÐ¸
ĠÐ¿ÑĢÐµÐ´ ÑģÑĤÐ°Ð²
ĠÐ´Ð° Ð»ÐµÐµ
Ð¾Ñĩ Ð½ÑĭÐ¹
ĠÐ¡Ðµ Ð²ÐµÑĢ
ĠÐºÐ° Ð¼ÐµÑĢ
Ð¡ Ð¸
Ð²Ðµ Ð»Ð¸
ĠÐĳ ÐµÐ·
Ð°ÑĢ ÑĮ
ĠÐ´Ðµ Ð¿ÑĥÑĤÐ°
Ð¾ÑģÑģÐ¸ Ð¹
ĠÐºÐ°ÑĢ ÑĤÑĭ
ĠÐºÐ°Ð¶Ð´ Ð¾Ð¹
ĠÐºÐ¾Ð¼Ð¿ÑĮÑİ ÑĤÐµÑĢ
Ð»ÑĥÐ¹ ÑģÑĤÐ°
ÐĴ Ð°
ĠÐ¾Ð´ Ð½Ð¾Ð²
Ð³ÑĢÐ° ÑĤÑĮ
ĠÐ¼ÐµÑĢÐ¾Ð¿ÑĢÐ¸Ñı ÑĤÐ¸Ñı
Ð¸ ÑģÐ¿
ĠÐ´ Ñĭ
ĠÐĹ ÐµÐ¼
ĠÐ½Ð°ÑĩÐ° Ð»Ðµ
ĠÐ³Ð¸ Ð¿
ĠÑĨÐµÐ½ÑĤ ÑĢ
ĠÑįÐºÑģÐ¿Ð»ÑĥÐ° ÑĤÐ°ÑĨÐ¸Ð¸
ĠÐ²Ð·Ð°Ð¸Ð¼ Ð¾Ð´ÐµÐ¹
Ñĥ Ð²
ĠÐ¿ÑĢÐ¾ ÑĤÐµ
ÑĤÐ¸Ð² Ð½Ð¾
19 8
ĠÐ¦ Ð²ÐµÑĤ
ĠÐ²Ð¾Ñģ Ð¿Ð¸ÑĤÐ°
Ñģ ÐµÐ½
ĠÐ½Ðµ Ð¸Ð·
Ð¾Ð½ Ð´
ĠÑĦ ÐµÐ²
Ð²Ð¾ ÑĢÐµ
Ð´ÐµÐ¼ Ð¸
ĠÐ³ÑĢ Ð½
Ġ e
ĠÐ· ÑĥÐ±
ĠÐ·Ð° Ð¼ÐµÑĩÐ°
ÑĦÐ¸ Ð»ÑĮ
ĠÐ²Ðµ ÐºÐ°
ÑĢÐµÐ¼ Ñı
ĠÐ¿Ð° Ð½Ðµ
Ð½Ð¸ Ð»Ð¸
ÑĤÐ¸ ÑĢÐ¾Ð²Ð°
ĠÐ´Ð²Ð¸Ð³Ð° ÑĤÐµÐ»Ñı
Ð¿ Ð¾ÑĢÐ°
ĠÑħ Ð¾ÑĤÐ¸ÑĤÐµ
ÑĤÑĭ Ð¼
ĠÑģÐ¿ Ð¾ÑĢÑĤ
ĠÐ½Ð¾Ð² Ð¾Ð¹
Ð¾Ð³ÑĢÐ° Ð´
ĠÑĤÐ¾Ð²Ð° ÑĢÑĭ
ĠÐ²ÐµÑģÑĮ Ð¼Ð°
ĠÐ½ Ð¾Ð³
ĠÐ° ÐºÑĤÑĥ
ĠÐ¿Ð¾Ñģ Ð¼Ð¾ÑĤÑĢÐµÑĤÑĮ
Ð¾Ñĩ Ð½ÑĭÑħ
ĠÐ´Ð¸ Ð°Ð¼ÐµÑĤ
ĠÐ´Ð°Ð½ Ð½ÑĭÐ¼
ÑĢÐ°Ð»ÑĮ Ð½Ð¾Ð¹
ĠÐ½ÐµÐ´Ðµ Ð»Ñİ
ĠÑģÐ°Ð¼Ð¾ÑģÑĤÐ¾Ñı ÑĤÐµÐ»ÑĮÐ½Ð¾
Ð¸ Ð¿
ĠÑģ Ð°Ð½
Ð³ ÐµÑĤÐ¸
ÑģÑĤÐ¸ ÐºÐ°
Ð¾Ñĩ ÑĮ
ĠÐ·Ð½Ð° Ñİ
ĠÑĥÑĩÐ°ÑģÑĤ Ð½Ð¸ÐºÐ¾Ð²
ĠÐ¼Ð°ÑĪÐ¸ Ð½
ÑĪ ÐµÐ½Ð¸ÐµÐ¼
ĠÑģÐ°Ð¼ Ð¾Ð¹
ĠÑĤÑĭ Ñģ
ĠÐ¾ÑģÑĥÑīÐµÑģÑĤÐ² Ð»ÑıÐµÑĤÑģÑı
ĠÑĥÐ·Ð½Ð° ÑĤÑĮ
Ð° ÑĤÐ¸
Ð»Ðµ ÐºÐ¾
ĠÐŁ Ð¾Ð»Ð¸
Ð½Ðµ ÑĨ
Ð°Ð»ÑĮ Ð½ÑĭÑħ
ĠÐŃ ÑĤÐ¾ÑĤ
ĠÐ¼Ð°ÑĪÐ¸ Ð½Ñĭ
ÑĤ Ð½ÑĭÑħ
Ð½Ð¾ Ñģ
ÐºÑĤ ÑĥÑĢ
ĠÐ¢ Ð¾Ð»ÑĮÐºÐ¾
ĠÐ¾ÑĢÐ³Ð° Ð½Ð¾Ð²
ĠÐ¿Ñĥ ÑĤÐ¸
ĠÑĥÑĩÑĢÐµ Ð¶Ð´ÐµÐ½Ð¸Ñı
ĠÐµÐ² ÑĢÐ¾
ĠÐº Ð»Ñĥ
ĠÐ» Ñĥ
ĠÐł ÑĥÑģ
ĠÐ¸ Ð½Ð¾ÑģÑĤÑĢÐ°Ð½
ĠÐ¼ Ð³
ĠÐ¡ Ð¿Ð°
ĠÐ¿Ðµ Ð´Ð°Ð³
ĠÐ¿Ð¾Ð² ÑĤÐ¾ÑĢ
Ð¾Ð½Ðµ ÑĩÐ½Ð¾
Ð´ Ñı
ĠÑģÐ¾Ð¾ÑĤÐ²ÐµÑĤ ÑģÑĤÐ²ÑĥÑİÑīÐ¸
ĠÑı Ð²
ĠÐ¾Ð¿ ÑĥÐ±Ð»Ð¸
ĠÑĢÐµÐ³Ñĥ Ð»ÑıÑĢ
ĠÐ¾ÑĢÐ³Ð°Ð½Ð¸Ð· Ð¼Ð°
ÐµÐ½ Ð½Ð¾Ðµ
Ð»Ð° Ð²Ð°
ÐĲ ÐĹ
Ð²ÐµÑĢ ÑĮ
100 0
ÑĦÐ¸ÑĨÐ¸ ÑĢÐ¾Ð²Ð°Ð½
Ð»Ð¸ Ð²Ð¾
ĠÐļ Ð°Ð¼
Ð´Ð¾ Ñħ
ĠÐ¿ÑĢÐ¾ÑĨÐµ ÑģÑģÐµ
ĠÐºÐ¾Ð½ÑģÑĤÑĢÑĥ Ðº
ĠÑģÐ¸ÑĤÑĥÐ° ÑĨÐ¸Ð¸
ĠÐ½ÐµÑģÐºÐ¾Ð»ÑĮ ÐºÐ¸Ñħ
Ġ g
Ð¾ ÑģÑĤÑĮ
ÑģÑĤ Ð¾Ðº
ĠÐ² Ð¸Ð½
Ð²Ð° Ð½Ð¸ÐµÐ¼
ĠÐ´Ð¾ ÑħÐ¾Ð´
Ð°Ð»ÑĮ Ð½Ð¾Ð³Ð¾
ĠÐ¿ÑĢÐ¾Ð¸Ð· Ð¾ÑĪ
ĠÐºÐ¾Ð¼Ð¿Ð° Ð½Ð¸Ð¹
ÑģÑĤÐ¾Ð² ÐµÑĢ
ĠÐ°Ð²ÑĤÐ¾Ð¼Ð¾Ð±Ð¸ Ð»ÐµÐ¹
ĠÐ¾Ð±ÐµÑģÐ¿ÐµÑĩÐ¸ Ð²Ð°ÐµÑĤ
ĠÐº Ð¾Ð´
ĠÐ³ ÑĢÐµ
ĠÐ¡ Ð²ÐµÑĤ
ĠÐ¸Ð½ Ð¾Ð³Ð´Ð°
Ð»ÐµÐ½ Ð½Ð¾Ð¹
ĠÑĨÐµÐ½ÑĤ ÑĢÐ°
ĠÐºÐ¾Ð½ÑĤÑĢ Ð¾Ð»ÑĮ
Ð° Ñħ
ĠÐĴ ÐµÐ´ÑĮ
ÐŁ Ðĺ
ĠÐ¢ Ð°Ð¼
ĠÐľÐ¾ÑģÐº Ð²Ð°
ĠÐŀÑģ Ð½Ð¾Ð²
ĠÑıÐ½Ð²Ð° ÑĢÑı
ĠÐº Ð»ÑĥÐ±
ÑĤÐµ ÑĢÑĭ
ĠÐ¼ Ð¾Ð·
Ð»ÑĮ Ð½Ð¸Ðº
ĠÐ´Ð¾Ð» Ð³Ð¾
ĠÐ½Ð°Ð¿ÑĢÐ°Ð² Ð»ÐµÐ½Ð¸Ñı
ĠÐ£ÐºÑĢÐ°Ð¸ Ð½Ðµ
ĠÐ¿Ð¾Ð¶ Ð°ÑĢ
ĠÐ´ÐµÐºÐ°Ð± ÑĢÑı
ĠÐ´Ð¸Ð°Ð³ Ð½Ð¾ÑģÑĤÐ¸
Ð¾ÑĢ Ñĥ
ĠÐ± Ð»Ð°
ĠÑĤÐ° Ð¹
ĠÐĶ ÑĢÑĥ
6 8
q u
ĠÐ¿ Ð°Ðº
ĠÐº Ð»ÐµÑĤ
Ð»Ð° Ñħ
ÑĩÐ° ÑģÑĤÐ¸
ĠÑģÐµ ÑĢÐ¸Ñı
ĠÐ¾ÑĢÐ³Ð°Ð½Ð¸ Ð·Ð°ÑĨÐ¸Ñı
ÐŁÐ¾Ñģ Ð»Ðµ
ĠÑģ ÐµÑĢÐµ
ÑĨÐ¸ Ð¾Ð½Ð¸
ÑĤÐµÐ»ÑĮ Ð½ÑĥÑİ
ÑĨÐ¸Ñı Ñħ
ĠÐ´ÑĢÑĥÐ³Ð¸ Ð¼Ð¸
c t
ĠÐĺ Ð¼ÐµÐ½Ð½Ð¾
ĠÐºÐ¾Ð½ ÑĨÐ°
Ð»Ñĭ Ð¼
ĠÑĢÐµÐ°Ð»Ð¸ Ð·Ð°ÑĨÐ¸Ð¸
ÑĤÐµ Ðº
Ð´Ðµ Ð¾
ĠÐ¿Ð¾Ñģ ÑĢÐµÐ´
in d
or t
ĠÐ¼ÐµÑģÑı ÑĨÐ°
pl us
ÑĮ ÐµÐ²
Ð´Ð° Ð»
ÑĩÐ¸ Ðµ
ĠÐĶ ÐµÑĤ
ĠÑģÐ² ÐµÑĤÐ°
ÑīÐ° ÑĤÑĮÑģÑı
ĠÐ¿Ð¾Ð· Ð½Ð°
ĠÐ°Ð±ÑģÐ¾Ð»ÑİÑĤ Ð½Ð¾
ĠÐ´ ÐµÑĤÐ¸
Ð´Ð° ÐµÑĤÑģÑı
ĠÐ» Ð°Ð¼
Ð¾Ñģ Ð°
Ð¡ Ð¾
ĠÐºÐ¾Ð¼Ð¿ Ð¾Ð½
ĠÐ¼Ð¾ ÑĢÐµ
ĠÐ¸Ñİ Ð½Ñı
o ok
ĠÐļ Ð½Ð¸
ÐºÐ¾ ÑĢÐ°
ÐĲ Ðŀ
ÑĤÑĥ ÑĢÐµ
ĠÐ½Ð¸ Ð¶
ÑģÑĤÐ²Ð¸ ÐµÐ¼
ĠÐľÐ¾ÑģÐº Ð²Ñĭ
ĠÐŁ Ð¾Ð»ÑĮÐ·Ð¾Ð²Ð°
ĠÐ¿ÑĢÐ¸ Ð±Ð¾ÑĢ
Ð¾Ð´Ð° ÑĢ
Ðł Ðķ
ĠÐ¾Ñģ Ð²Ðµ
ĠÐ¿Ñĥ ÑĤÐµÐ¼
ĠÑģÐ¾ÑģÑĤÐ¾Ñı Ð½Ð¸Ðµ
ĠÐ¿ÑĢÐ¾ÑĦÐ¸ Ð»Ð°ÐºÑĤÐ¸
ĠÐ±ÑİÐ´Ð¶ ÐµÑĤ
ĠÐ¿Ð¾ÑģÐ¾Ð±Ð¸ Ðµ
ĠÐ½Ð° Ð²ÐµÑĢ
ÑĤÑĮ Ðµ
ĠÐ³ Ð¾ÑģÑĤ
ÑĢÑĭ Ð²
Ð»ÐµÑĤ Ñĭ
ĠÑģÑĥÑīÐµÑģÑĤÐ² ÑĥÐµÑĤ
ĠÑĥÐ¿Ð° ÐºÐ¾Ð²
ĠÐ¿ÑĥÑĤÐµ ÑĪÐµ
ĠÑĢÐ° Ð²Ð½Ð¾
ÑģÑĤÐ² Ð¾Ð²Ð°
ÐĽ Ðŀ
ĠÑģÑĤÑĢÐ° Ñħ
ĠÐ´Ð°Ð½ Ð½Ð¾Ð³Ð¾
ĠÐ¿ÐµÑĢÐ² ÑĥÑİ
ĠÐ½ÐµÐ¾Ð±ÑħÐ¾Ð´Ð¸Ð¼Ð¾ ÑģÑĤÐ¸
23 8
Ð¡Ð¡ Ðł
ĠÐ² ÑĢÐµÐ´
ĠÐ½Ð° Ð¼Ð¸
ĠÐł ÐµÐº
ÑģÑĤÐ²ÐµÐ½ Ð½ÑĭÐ¼
Ð¢ Ðĺ
ĠÐ»ÑİÐ± Ð¾Ð¼
ĠÐ´Ð¾Ð¼ Ðµ
ĠÐ¿Ð¾Ð¼Ðµ ÑīÐµÐ½Ð¸Ñı
ĠÐ°ÑģÑģ Ð¾ÑĢÑĤÐ¸
Ð² Ð¾Ð³Ð¾
ĠÐ¿ÑĢÐµ Ð²Ñĭ
ĠÐ¿Ð¾ÑĤ ÐµÐ½
Ð¾ Ñī
Ñģ Ð¾Ð½
ĠÑģ Ð½Ð¸Ð¼Ð°
Ð¿ ÐµÑĢÐµ
ÑĭÑħ Ð°
ĠÐ¿ÑĢÐµ Ð²ÑĢÐ°
ĠÐ¿ÑĢÐ¾Ð¸Ð·Ð²Ð¾Ð´Ð¸ ÑĤÐµÐ»ÐµÐ¹
ĠÐ¸ÑģÐ¿Ð¾Ð»ÑĮÐ· ÑĥÐµÑĤÑģÑı
ĠÐ·Ð° ÑĤÑĢÐ°
ĠÐ¶ Ð°
ĠÐĺ Ð³
ĠÐĿÐ° Ð¿ÑĢÐ¸Ð¼ÐµÑĢ
ĠÑģÑĤÑĢÐ° ÑĤÐµ
ĠÐ¿Ð¾Ð· Ð´
ĠÑģÐ¾Ð¾ÑĤÐ²ÐµÑĤ ÑģÑĤÐ²ÑĥÑİ
ÑģÐµÑģÑģÑĥÐ° ÑĢÑĭ
ĠÑģ ÐºÐ¾
ÑĢÐ¸ Ð¼
ÑĢÑĭ Ðµ
ÑĤÐ¸Ð² Ð½ÑĭÐ¹
ĠÐ¼Ð°Ð³Ð°Ð·Ð¸ Ð½Ðµ
Ð±Ð»Ð¸ Ð¾ÑĤÐµ
ĠÐĹÐ°ÐºÐ°Ð·ÑĩÐ¸ ÐºÐ¾Ð¼
ĠÐ¾ Ð¿Ð¸
Ð¾ÑĤ Ð¾Ð¹
ĠÑģÐ¾Ð·Ð´Ð° ÑĤÑĮ
ĠÐ¿Ð¾ÑģÐ»ÐµÐ´ Ð½Ð¸Ðµ
ĠÐ´Ð°Ð»ÑĮ ÑĪÐµ
ÑĢÐ¾ÑĤÐ¸ Ð²
ĠÐ¾Ð±ÑĬÐµÐºÑĤ Ð¾Ð²
ĠÐ¿Ð°ÑĢÑĤ Ð½ÐµÑĢ
Ġ ÑīÐµ
Ñĩ ÑĤ
ÑģÐº Ð¾Ð»ÑĮÐºÐ¾
ĠÐŁ ÑĢÐ°Ð²
ĠÑħ Ð¾Ð´Ðµ
ĠÐ¸Ð½ Ð½Ð¾Ð²Ð°
ĠÑģÐ¿ ÑĢÐ°
ĠÑģÐ¸ Ð»Ñĭ
____ ____
ĠÐ¿ÑĢÐµÐ´Ð½Ð°Ð·Ð½Ð° ÑĩÐµÐ½
Ð½ ÐµÑĤÐµ
Ð³Ð° Ð¼Ð¸
ĠÐ¶ÐµÐ½ÑīÐ¸ Ð½Ñĭ
ĠÐľÐµ Ð¶Ð´Ñĥ
ĠÐ¿ Ð°Ð»ÑĮ
ĠÐ½ ÑĢÐ°Ð²Ð¸
ĠÐ± Ð°ÑĢ
ĠÐ²Ñĭ ÑĢÐ°Ð¶
Ðł Ðĺ
ĠÐ²Ð¸ ÑĤÐ°Ð¼Ð¸
ĠÑģÑĥ ÑīÐµ
ĠÐ¾ÑĤÐ½Ð¾ ÑĪÐµÐ½Ð¸Ð¸
ĠÐ½Ð¸Ðº ÑĤÐ¾
9 9
ÑĢÐ° Ð¿Ð¸
Ð¿ ÑĤÐ¸
ÐµÑĢ Ð½Ð°
ĠÐ½Ðµ Ð¾Ð±Ñĭ
ĠÐ¿ÑĢÐ¸ Ð´ÐµÑĤÑģÑı
Ð¶Ð´ ÑĭÐ¹
ĠÐ¾Ð±Ð»Ð° Ð´Ð°ÐµÑĤ
ĠÐ¿Ð¾Ð² ÑĢÐµ
ĠÐ¾Ð·Ð½Ð° ÐºÐ¾Ð¼
ÑĪ ÐµÐ¼Ñĥ
Ð»Ð¸ Ð²Ð°
ĠÐ¿Ð¾ ÑģÑĤÐµ
Ðļ Ð¾Ð½
ÐĿ Ð¸
ĠT plus
ĠÐĿÐ¾Ð² Ð¾ÑģÐ¸Ð±Ð¸ÑĢ
ĠÐ¼Ð» Ð½
ÐŁÐµÑĤÐµÑĢÐ±ÑĥÑĢ Ð³
i st
ĠÐľ Ð¾Ð¶Ð½Ð¾
ÑģÑģÐ¸ Ð²
ĠÑĦÐ¾ÑĢ ÑĥÐ¼Ð°
ĠÑĢÐ°Ñģ ÑĩÐµÑĤ
ĠÐ´Ð¾ÐºÑĥ Ð¼ÐµÐ½ÑĤÑĭ
ĠÑĥ ÑģÐ¸
ĠÐ¾ÐºÑĢÑĥ Ð³Ð°
ĠÐ±Ð¸Ð·Ð½Ðµ ÑģÐ°
ĠÑĢÐ°Ð·Ð²Ð¸ ÑĤÐ¸Ðµ
ĠÑĢÐ°Ð·Ð»Ð¸Ñĩ Ð½ÑĭÐµ
ĠÑįÐºÑģÐ¿ ÐµÑĢ
ĠÐ½ Ð¾ÑĢ
ĠÐ´ Ð²
Ð½ÑĮ ÑĪÐµ
ĠÐ¿ Ð¾Ð³Ð¸
ĠÐ¸ Ð´
ÑĤÐµ Ñħ
ÑĢÐ¸ ÑĦ
ÑĤÐ° ÑĨÐ¸Ñı
ĠÐ· ÐµÑĢÐºÐ°
ĠÐ° Ð¼
ĠÐ¿ÑĢÐ¾ ÐµÐº
ĠÐ¸Ð³ ÑĢ
ĠÑģÐ¸ÑģÑĤÐµÐ¼ Ðµ
ĠÑħÐ¾Ñĩ ÐµÑĤ
ĠÐ°Ð» ÐºÐ¾Ð³
ĠÐ¼ Ð°Ð½
ĠÐ´ÑĢÑĥ Ð³Ð¾Ðµ
ĠÐ¼ÑĥÐ¶ ÑĩÐ¸
Ð²ÑĢÐ¾Ð¿ ÐµÐ¹
Ñħ Ð¾ÑĤ
ĠÐ¼ Ð°Ð¼
ĠÐ° Ð²Ð¸Ð°
ÑĩÐ¸ Ð»
ÑīÐ¸ ÐºÐ¾Ð²
ÐºÐ¾ ÑģÑĤÑĮ
Ð¾Ñĩ Ð½Ð¾Ð¹
ĠÑĤÐµÐ»Ðµ ÑĦÐ¾Ð½Ð°
ĠÐ¿Ð¾Ðº Ð¾Ð»
Ð¾Ð»Ð° Ð³Ð°
7 8
ĠÑĥ Ð´Ð¸Ð²Ð¸
ĠÐŀ ÑĩÐµÐ½ÑĮ
Ðľ Ðµ
ĠÑĪ ÐºÐ¾Ð»ÑĮ
ĠÐ¼ÐµÑĤ Ð¾Ð´
ĠÐľÐ° ÑĤÐµÑĢÐ¸
ĠÐ¿ÑĢÐ¾Ð´Ñĥ ÐºÑĤÐ¾Ð²
ĠÑĢÐ°ÑģÑģ Ð¼Ð°ÑĤÑĢÐ¸
ÑĦ ÐµÐ¹
ĠÐ¸Ð· Ð±Ð°
ÑīÐ¸ Ð¼Ð¸
ĠÑĥÑĩÐ¸ ÑĤÑĭ
ĠÑģ ÑĨ
ÑģÐ¿ ÐµÐºÑĤ
ÐºÐ¾ ÑģÑĤÐ¸
Ð±Ðµ ÑĢÐ¸ÑĤÐµ
Ð²ÐµÐ´ Ð¾Ð¼
ĠÑĥÐ¿ÑĢÐ°Ð² Ð»ÐµÐ½Ð¸Ðµ
ĠÐ³Ð»Ð°Ð² Ð½Ð¾Ðµ
ĠÐ¿Ð¾Ð± ÐµÐ´Ð¸
ĠÑĤÐµÐ¿ Ð»Ð¾
ĠÐ½Ð°Ð¹ Ð´
ĠÐº Ð¾Ð»ÑĮ
ĠÑĥ ÑĤÐ¾Ñĩ
ĠÐºÐ° Ð·Ð°
ĠÑĢÐµ Ð¹
ĠÑĤÑĢÐ° Ð´Ð¸ÑĨÐ¸Ð¾Ð½
ĠÐ¾ÑĤÐ·Ñĭ Ð²Ñĭ
a k
ĠÑĢÐ° Ð½
ÑģÐ¸ Ð¾Ð½
ĠÐ¢ Ð¾
ĠÐ¶Ðµ Ð»
ĠÐ³Ð¾ÑģÑĥÐ´Ð°ÑĢÑģÑĤÐ²ÐµÐ½ Ð½Ð¾Ð¹
ĠÐ²Ð¾Ð·Ð´Ñĥ ÑħÐ°
ĠÑĤÐµÐ»ÐµÑĦÐ¾Ð½ Ñĥ
% .
ÑĢ ÐµÐ½ÑĤ
ÑĢÐ° Ð»
Ð³ ÐµÐ½
ĠÐł Ð¸
ÑīÐ° ÑİÑĤ
ĠÐ·Ð½Ð° Ð½Ð¸Ñı
ĠÑĢÐµÐ³Ð¸ ÑģÑĤÑĢÐ°
ĠÑģÑĤÐ¾Ð¸ Ð¼Ð¾ÑģÑĤÐ¸
ĠÑĢÐµÐ·ÑĥÐ»ÑĮÑĤÐ° ÑĤ
ĠÑĤÑĥ ÑĢÐ¸
ĠÐ·ÐµÐ¼ Ðµ
ĠÐ²ÑĭÐ¿Ñĥ ÑģÐºÐ°
Ð·Ð¸Ð´ ÐµÐ½ÑĤ
ĠÑģ Ð²Ð¸
Ð´Ðµ ÐºÑģ
Ð»Ñĥ Ð´
ĠÐ¿Ð° ÑĢÑĥ
ĠÐ´Ð°Ð½ Ð½Ð¾Ð¼
ĠÑģÐ¿Ð¸ ÑģÐ¾Ðº
ĠÐ·Ð´Ð¾ÑĢÐ¾Ð² ÑĮÐµ
ĠÐ¿ÐµÑģ Ð½Ð¸
ĠÐ¾ÑĤ Ð¼ÐµÑĩÐ°
ÑĩÐ° Ñı
20 00
ĠÐķ ÑģÑĤÑĮ
ĠÐ´Ð¾ÑĢ Ð¾Ð¶
ac k
ĠÐ¸ÑģÐºÐ»ÑİÑĩÐ¸ ÑĤÐµÐ»ÑĮÐ½Ð¾
ĠÑģ Ð½Ñı
ĠÐ³ Ñĥ
ĠÑĢÐµ Ð»Ð¸
ĠÐ¸Ð¼ Ñı
ĠÐ²Ð»Ð° Ð´ÐµÐ»ÑĮ
ĠÐ¼ ÐµÑĢÐµ
ĠÐ³ Ð¾Ñģ
Ð²Ð¸ Ñģ
ĠÐĶ ÐµÐ½ÑĮ
ĠÐ¢ Ñĭ
Ðķ ÐĿÐĺ
ĠÐ³Ð¾ÑĢÐ¾Ð´ ÑģÐºÐ¾Ð³Ð¾
ĠÐ¿ ÑıÑĤÑĮ
ĠÐ¿ÑĢÐ¸ ÑĪ
Ð¾Ð¿ ÑĢÐ¾Ð²
ĠÐºÐ°ÑĢ ÑĤÐ¾
ĠÐ¶Ð¸Ð²Ð¾ÑĤ Ð½ÑĭÑħ
i p
Ð¼ Ð¾Ð·
ĠÑģ Ð¾Ð¼
ĠÑĤÐ° Ð±
ĠÐºÐ¾Ð½ ÑĤÑĢÐ°
ĠÐ²Ð° Ð¼Ð¸
ĠÑĢÐµÐ³Ð¸ Ð¾Ð½Ð°Ð»ÑĮ
ĠÑĨÐµÐ½ÑĤ ÑĢÐµ
ĠÑģÐ¾Ð¿ ÑĢÐ¾Ð²
ĠÐ¾Ð± Ð¼ÐµÐ½
ĠÐ¾ÑĤ ÑĩÐµÑĤ
ĠÑĤÐµ Ð°ÑĤ
ÐºÐ¾Ð² Ð¾Ð¹
ĠÐĹ Ð½Ð°
ÑİÑīÐ¸Ðµ ÑģÑı
ĠÐĿÐ¸ ÐºÐ¾Ð»Ð°
ĠÑĦÐµÐ² ÑĢÐ°
ÑĤ Ð½Ð¾Ð³Ð¾
Ðº ÐµÑĢ
ÑģÑĤ ÑĢÐ¾Ð²
ÑĪ ÑĢÑĥ
Ð»ÑĮ Ð½ÑĭÐ¼Ð¸
ĠÐ° Ð·Ð°
ĠÑĢÐ°Ð· Ð½ÑĭÐµ
ĠÑĤÐ°Ðº Ð¾Ð¼
ÐµÑģÑĤÐ¸ Ð²Ð°
ÑĢÐµ Ð¸
ÑĤÐµ Ð¼Ð°ÑĤÐ¸
ĠÑģÑĤ Ð¾Ñı
ÑĥÑĤ Ð±Ñĥ
ĠÑĥÑĤÐ²ÐµÑĢ Ð¶Ð´
4 1
ÑĤÐ° Ð¹
ĠÑĢÐ° Ð½ÑĮÑĪÐµ
ĠÐºÐ° ÐºÐ¸Ñħ
Ð³Ð° Ð»
ĠÑģÐ¸ Ð»
ĠÑĤÐ¾ ÑĩÐºÐ¸
Ð½Ñĥ Ð»ÑģÑı
ĠÐ·Ð½Ð° ÑĩÐµÐ½Ð¸Ðµ
Ñĥ Ð·
ÑĤÐ° ÐºÐ¸
ĠÑĢÑĥ Ðº
ĠÑĨÐµÐ½ Ð°Ð¼
ĠÑģÐ¾Ð±Ñĭ ÑĤÐ¸Ñı
ĠÐ¿ÑĢÐµÐ¿ Ð¾Ð´Ð°
ÐĵÐ»Ð°Ð² Ð½Ð°Ñı
Ð¸ ÑĤÑģÑı
ÐºÐ° ÑĤÐµÑĢÐ¸
ĠÐĲ Ð»ÑĮ
ĠÐĿÐ¸ Ð¶
ĠÑĢÐ¸ ÑģÑĥ
ĠÐ½Ð°ÑģÑĤÐ¾Ñı ÑīÐµÐµ
ĠÑģÐ¾ÑģÑĤÐ¾ Ð¸ÑĤ
ÐµÐ½ Ñı
ĠÐ´ ÑĢÐ°
Ð²Ð° Ð½Ð¸Ð¹
ĠÐ¿ÑĢ Ð¾Ð·
ĠÐľ Ð½Ðµ
Ð½Ð¾Ð² ÐµÐ½Ð¸Ñı
ĠÐŃ ÑĤÐ¸
ĠÑĤÑĢ ÐµÐ½Ð¸
ĠÐ±Ð°ÑĤÐ° ÑĢÐµÐ¹
Ñİ Ð¼Ðµ
ĠÐ¡ Ð¡Ð¡Ðł
ÑģÐ¸ Ð¹
Ð¾Ð¿ Ð»Ð°
ĠÑĤÐµ ÐºÑĥ
ĠA n
ĠÐ·Ð½Ð°ÑĩÐ¸ ÑĤÐµÐ»ÑĮÐ½Ð¾
ĠÑıÐ·Ñĭ Ðº
ÑģÑĤ Ð½Ð¾
ĠÐ± Ð»
ĠÑĨ ÐµÑĢ
ĠÑįÐ»ÐµÐºÑĤÑĢÐ¾Ð½ Ð½Ð¾Ð¹
Ġ and
ĠÐ² Ð¿ÐµÑĩÐ°ÑĤ
Ñħ Ð°ÑĢ
ĠÐ¡ Ð¿Ðµ
ÑĤÐµÐ»ÑĮ Ð½Ð¾Ð¼
Ð»ÐµÐ½ Ð½Ð¾
Ð¶Ð¸ Ð¼
ÐĽ Ð¸
ĠÑģÐ¾Ð± Ð°
ĠÑģÐ²Ð¾ ÐµÐ¼Ñĥ
ÑģÐ»Ñĥ Ð¶
ĠÐ½Ð°Ð· Ð²Ð°Ð½Ð¸Ðµ
ĠÐ¿ÑĢÐ¸Ð¼ÐµÑĢ Ð½Ð¾
ĠÐ¾Ð´Ð½Ð¾Ð² ÑĢÐµÐ¼ÐµÐ½Ð½Ð¾
ĠÐ´ Ð½Ð¸
Ð»Ñı ÑİÑĤÑģÑı
ĠÐ²Ñĭ ÑģÑĤÐ°Ð²
ĠÐ»Ñİ Ð´
ĠÐ¤ ÑĢÐ°Ð½
ĠÑĤÑĢÐµÐ± ÑĥÐµÑĤÑģÑı
ĠÐ¢Ðµ Ð¿ÐµÑĢÑĮ
ĠÐ²Ð¾Ð·Ð´Ñĥ ÑĪ
Ð½ Ð½ÑĭÐ¹
ĠÐ² Ð¾Ð²
ÑĤÐµÐ»ÑĮ ÑģÑĤÐ²Ð¾Ð¼
ĠÑĤÐµ Ð¼Ñĥ
ÐĴ Ðµ
ĠÐĵ Ðŀ
ĠÐ¼Ð¸ Ð½Ð¸Ð¼Ð°
ĠÐ±Ð»Ð¸ Ð¶Ð°Ð¹
Ð´Ð° ÑĨÐ¸Ð¸
ĠÐ¾ÑĤ Ð²ÐµÑĢ
ĠÐŁ Ð¾Ð¼
ĠÑģÐ² ÐµÑĢÑħ
Ð¶Ð¸ ÑĤÑĮ
ĠÑĪ ÐºÐ°
ĠÑģÐ¾Ð³Ð»Ð° ÑģÐ½Ð¾
ĠÐ¼Ð°ÑĢ ÑĤÐ°
ĠÐ¡ÐµÑĢ Ð³ÐµÐ¹
ĠÐ³ÑĢÐ°Ð¶ Ð´Ð°
ĠÐ·Ð² Ð¾Ð½
Ð½ Ð¾Ð³Ð¸Ðµ
ĠÑģ Ð¾ÑĢ
ĠÐ·Ð° ÐºÑĥ
ĠÐ²Ð° ÑĪÐµÐ¹
Ð¼Ñĭ Ð¼
Ð²ÐµÐ´ ÐµÐ½Ð¸Ðµ
ĠÑĩÐµÐ¼ Ð¿Ð¸Ð¾Ð½Ð°
Ð»Ð¾ÑĤ Ñĭ
ĠÑĢÐµÐ¶Ð¸ Ð¼Ðµ
ĠÐ¿ Ð»Ðµ
ÑģÐ¸ Ð¼
Ð´Ð¸ Ð´Ð°
Ðļ Ðĺ
ÐĶ Ð¸
ĠÑįÐ»ÐµÐ¼ ÐµÐ½ÑĤÐ¾Ð²
ĠÐ¿Ð¾Ð´ÑĤÐ²ÐµÑĢ Ð¶Ð´Ð°
Ġ $
ĠÐ¿ ÑĤÐ¸
ÑĩÐµ ÑĢÐ°
ĠÐ¯ Ð½
ĠÐ´ÑĢÑĥÐ³Ð¸ Ð¼
ĠÐĴÐ¾Ð· Ð¼Ð¾Ð¶
Ð´Ñĥ Ð¼Ð°
ĠÐ¯ ÐľÐĹ
ÑıÐ² Ð»ÐµÐ½Ð¸Ðµ
Ð²Ð¾Ð´Ð¸ ÑĤ
ĠÐ»Ð¸ÑĨ Ð¾
ĠÐĲÐ»ÐµÐºÑģÐ°Ð½Ð´ ÑĢ
ÑĢ ÐºÑĥ
Ð» ÑĳÐ½
ÑĮ Ð¼Ð¸
ĠÐ¸ Ð¼Ð¸
Ð¾Ð» Ñİ
Ñĳ ÑĤÑģÑı
ÑĤÐ¸Ð² Ð½Ð¾Ð³Ð¾
ĠÐ»Ðµ ÑĩÐµÐ½Ð¸Ðµ
ĠÑĤÐµÑħ Ð½Ð¸ÐºÐ¸
ĠÐ¿Ð¾Ð¿ ÑĢÐ¾Ð±
ĠÑħÐ¾ ÑĤÑĮ
i f
ÑĤ ÐµÑĤ
Ñħ Ð¾Ð¶Ð´ÐµÐ½Ð¸Ñı
Ð¾Ð¼ ÐµÐ½
ÑĩÐ¸ ÑĤ
ĠÐ¸ÑģÐ¿ ÑĭÑĤÐ°
ĠÐ¿Ð¾Ð·Ð² Ð¾Ð»Ð¸ÑĤ
ĠÑĥÐºÑĢÐ° Ð¸Ð½
ĠÑģÐµÑĢÐ²Ð¸ Ñģ
ĠÐ¾Ð±Ð½Ð° ÑĢÑĥÐ¶Ð¸
ĠÐ½ÐµÐ¼Ðµ ÑĨ
6 6
Ñĩ ÐµÐ½Ð°
ÑĨ ÐµÐ¼
ÑīÐ¸ ÐºÐ°
ĠÐĶ Ð¼Ð¸
ĠÐ¿Ð¾Ð» Ðµ
ĠÐ¿ÐµÑĢÐµ Ð²Ð¾Ð·
ÐµÐ´ Ñĭ
Ð¿Ð¸ÑģÐ° Ð½Ð¸Ðµ
Ð±ÑĥÑĢ Ð³
ĠÑģÑĩÐ¸ÑĤÐ° ÐµÑĤÑģÑı
ĠÐ¼Ð°Ñģ Ð»Ð¾
ĠÐ¿ÑĢÐ¸Ð¾Ð± ÑĢÐµÑĤ
ĠÐ¾ ÐºÑĢÐ°
ĠÐ·Ð° ÐºÐ»ÑİÑĩÐ°
ĠÐ²Ñĭ ÑģÑĤÑĥÐ¿Ð°
ÑĪÐ¸ Ð²
ĠÑĤÑĢÐ°Ð½ Ñģ
ĠÐ¿Ð¾Ð»ÑĮÐ·Ð¾Ð²Ð° ÑĤÐµÐ»ÐµÐ¹
ĠÑħÐ¾Ñĩ Ñĥ
ĠÑĢÐ°Ð·Ð½Ð¾ Ð¾Ð±ÑĢÐ°Ð·
ĠÐĴÐ»Ð°Ð´Ð¸Ð¼Ð¸ ÑĢ
4 2
Ñĭ Ð´Ñĥ
ÑĢÐµ ÑĤÐ°
Ð¡ ÐŁ
ĠÐ¿Ð¾Ð» Ð½Ð¾Ð¼
ar d
ĠÐļÐ¸ ÐµÐ²
ĠÐ½Ð°Ð± Ð»ÑİÐ´Ð°
ĠÐ¿ÑĢÐ¸Ð¾Ð±ÑĢÐµ ÑģÑĤÐ¸
ĠÐĵÐµÑĢ Ð¼Ð°
Ð° Ð»Ð°
ĠÐ² ÐµÐ½ÑĤÐ¸Ð»Ñı
Ñİ ÑĢ
Ð¶Ð¸ Ð³Ð°
ĠÐ£ Ð¿ÑĢÐ°Ð²
ĠÐ²ÐºÐ»ÑİÑĩÐ° Ñı
ĠÐ² Ð¿ÐµÑĢÐ²ÑĭÐµ
Ð²Ð° Ð»Ð¸ÑģÑĮ
Ðľ Ð¸
ĠÑįÐº ÑģÐº
ĠÐ²ÐµÑĢ Ð¾ÑıÑĤ
ÑĢÐ°Ð»ÑĮ Ð½ÑĭÐ¹
ĠÑĥÑģÑĤÐ°Ð½Ð¾Ð² ÐºÐ¸
ĠÑĩÑĥ ÑĤÑĮ
ĠÐłÐ° Ð±Ð¾ÑĤÐ°
ĠÐ¼Ð°ÑĢ ÐºÐ¸
ĠÐ¿Ð¾Ð± Ðµ
ĠÑģ Ð²Ð¸Ð´ÐµÑĤÐµÐ»ÑĮ
ĠÐº Ð²Ð°
ĠÐ·Ð° ÑĢÐ°Ð±Ð¾ÑĤ
ÑģÐ¿ ÐµÐº
ĠÐ¿Ð¾Ð» Ð¾Ð²Ð¸
ĠÐ·Ð°ÐºÐ°Ð·Ð° ÑĤÑĮ
ĠÐºÐ²Ð°ÑĢÑĤÐ¸ ÑĢÑĭ
ĠÐ´Ð¾Ð±Ð° Ð²Ð»Ñı
Ð½ ÐµÐ¼Ñĥ
Ð¿ Ð¾Ð·
Ð½Ð° Ð±
ĠÑĩ Ð°Ð¹
Ñį Ðº
ÐºÐ¾Ð² ÑĭÑħ
ĠÐĳ ÐµÐ»Ð°
ÑģÑģÐ¸ Ñı
ÐµÐ² Ð¾Ð¹
ĠÐ¡Ðµ Ð³Ð¾Ð´Ð½Ñı
Ð¾Ð±ÑĢÐ° Ð·Ð¸
ĠÐ½ÐµÐ·Ð° Ð²Ð¸ÑģÐ¸
Ġ Y
ĠÐ¿ Ð»Ñİ
ĠÐ¿Ð¾Ð´ Ð²Ðµ
Ð»Ð¾ Ðµ
Ð¸Ð· Ð²Ð¾Ð´
ĠÐ»Ð¸ Ð½Ð¸Ð¸
ĠÑĨÐ²ÐµÑĤ Ð¾Ð²
ĠÐ¾ Ð·
ĠÐ·Ð° Ð²Ð¾Ð´
ÑģÑĤÐ° Ð»
ĠÐ¿ÑĢÐ¾ ÑĨ
ĠÑĥÐ¿ Ð¾ÑĤÑĢÐµÐ±
ĠÑĢÐ°Ð´Ð¸ Ð°
Ðº ÑĤÐ¾ÑĢÐ°
ĠÑĥ Ð¼Ðµ
ĠÐ¾ÑĤ Ñģ
ĠÑĩÐ° ÑģÐ°
Ð¾ÑĤÐ¾ÑĢ ÑĭÐµ
ĠÐŁÐ¾ÑĢ Ð½Ð¾
4 7
u d
Ð¶ Ð½Ð¾ÑģÑĤÐ¸
Ñį Ð¹
ĠÑĢÐµ Ð°Ðº
ÐŁ Ð°
ĠÐ¼Ðµ Ð¶
ĠÑģÐ¿ Ð¾ÐºÐ¾Ð¹
ĠÐ¿ÐµÑĢÐµ Ð¼Ðµ
ÑīÐ¸Ñħ ÑģÑı
ĠÑģÑĤÐµÐ¿ ÐµÐ½Ð¸
i e
ĠÐ½Ð° Ñĩ
Ð´Ð° Ð¼
ĠÐ» ÑĮ
Ð¡ ÑĤÐ°
ÑĢÐ¾Ð² ÑĭÐµ
ĠÑĢÑĥ ÐºÐ°Ð¼Ð¸
ĠÐ¿Ð¸ ÑīÐµ
ĠÐ°Ð½Ð³ Ð»Ð¸Ð¹
ĠÑĢÐµÑģÐ¿ ÑĥÐ±Ð»Ð¸
ĠÐ°Ð¿ÑĢÐµ Ð»Ñı
ĠÐ Ļ
Ð¿ Ð°Ð½
ĠÐ½Ð° ÑĢ
ĠÐ½Ð° Ð¿Ð¾Ð»
ĠÐ· Ð²ÐµÐ·
ÑĢÐ¾ ÑģÑĤ
ĠÐ·Ð° Ð¼ÐµÐ½
ĠÐľ ÐµÑĤ
ĠÐĿ ÐµÑĤ
ĠÐŃ ÑĤÐ°
ĠÐ·Ð½Ð° ÑĤÑĮ
ĠÐ´Ð¾Ð» Ð³
ĠÐ¶Ð¸ Ð´ÐºÐ¾
ĠÐ²ÑĭÐ¿Ð¾Ð» Ð½
ĠÐ´Ð¾ÑģÑĤÐ°Ð² ÐºÐ¾Ð¹
Ð¿ ÑĤÐ¾Ð¼
ÑĨ Ð°Ð¼
Ð²Ð° Ð½Ð¸Ñİ
Ð¾Ð½ ÑĥÑģ
ĠÐºÐ° Ð½Ð°
ĠÐ¿ÑĢÐ¸ Ð·
Ðŀ ÐĿ
ĠÐ¾Ð±ÑĬ ÐµÐºÑĤÐ°
Ð§ ÑĤÐ¾
ĠÐ¾ÑģÐ½Ð¾Ð² Ð½Ð¾Ð¼
ĠÐºÐ¾Ð»Ð¸ÑĩÐµ ÑģÑĤÐ²Ð°
ĠÐ¾ÑĢÐ³Ð°Ð½Ð¸Ð·Ð° ÑĨÐ¸Ð¹
ÐµÑĢ Ð¾Ð¼
ĠÐ½Ðµ Ð´ÐµÐ»Ð¸
ĠÑĢÐ° Ð´Ð¾
ĠÐ¡ Ðº
ĠÐĶ Ð¸Ð½
ÐĲ ÑĢ
ĠÑģÑĥ Ð¿ÐµÑĢ
ĠÐ¼Ð¾Ð³ Ð»Ð¸
el l
ĠÑģÑĤÐ¾ÑĢÐ¾Ð½ Ñĥ
o x
ĠÑģÐ¾ Ñħ
Ð»ÐµÐ½ Ð½Ð¾Ð³Ð¾
ĠÑħÐ¸ Ð¼Ð¸
ĠÑģÐºÐ¸ Ð´
Ñģ Ð½ÑĭÐµ
Ñĥ Ð¿ÑĢÐµ
ĠÐº Ð²Ð°Ð»Ð¸
ĠÐ± ÐµÐ½
ÐºÐ° Ð´ÐµÐ¼Ð¸
Ñį ÑĢ
Ð³Ð° ÑĢ
ĠÑģÑĥÐ± ÑĬ
A N
Ð¾ ÑĨÐ¸
ĠÑģ Ð»Ñĭ
ÑĢÐµ ÑģÑĤ
ĠÐ½Ð° Ð³
ĠÐ¡ ÑĤÐ¾
ÑĩÐ° ÑİÑĤ
ÑĤÐµÐ»ÑĮ Ð½ÑĭÐ¼Ð¸
ĠÐĳ Ð»Ð°Ð³Ð¾Ð´Ð°ÑĢÑı
ĠÐºÐ¾Ð¼ Ð°Ð½Ð´
ĠÐ¼Ñĭ ÑģÐ»Ð¸
ĠÐ»Ðµ ÐºÐ°ÑĢ
ĠÐ´ÐµÐ²Ñĥ ÑĪÐºÐ°
1 20
ĠÐ¶ Ð°Ð»
ÐŁ ÐµÑĢÐµ
ĠÑģÑĤÐ° ÑĤÐ¸
ĠÐ´Ð¸ ÑģÐº
ĠÐºÐ¾ÑĢ Ð¾Ð±
200 9
ĠÑĦÑĥÐ½ ÐºÑĨÐ¸Ð¸
ĠÐ´ÐµÐ²Ñĥ ÑĪÐºÐ¸
ĠÐļÑĢÑĭ Ð¼
ĠÑģÐ¾ÑģÑĤÐ° Ð²Ðµ
c k
Ð¼ ÑĥÑĢ
Ð²Ð° Ð¹
Ð´Ð° Ð¼Ð¸
ĠÐ²Ñĭ Ð¿Ð»Ð°
ĠÐµ Ð²ÑĢÐ¾Ð¿ÐµÐ¹
ĠÑģÑĥ Ð´ÐµÐ±
ĠÑģÐµÐº ÑģÑĥ
ĠÑĥÐ´Ð° Ð»Ð¾ÑģÑĮ
6 00
a st
ĠÐ· ÑĢÐµÐ½Ð¸Ñı
ĠÐŁ ÑĢÐ¾Ð²
Ð½Ðµ ÑĢÐ°
ĠÐ¿ÑĢÐµ Ð´ÐµÐ»Ð°
ĠÐ´ÐµÑıÑĤÐµÐ»ÑĮ Ð½Ð¾ÑģÑĤÑĮ
ĠÐ· ÐµÐ»ÐµÐ½
ĠÐ·Ð° Ð¿ÑĢÐ¾
ĠÑĤ Ð¾Ð¹
ĠÐ²Ñĭ Ð²Ð¾Ð´
ĠÐĺ Ñħ
Ð¸Ð· Ð²Ð¾Ð´Ð¸
ĠÐ¼Ðµ Ð±ÐµÐ»ÑĮ
ĠÐ¿ÑĢÐµ Ð¶Ð´Ðµ
Ð¾Ñĩ ÐºÐ°
ĠÐ¾Ð±ÐµÑģÐ¿Ðµ ÑĩÐµÐ½Ð¸Ñı
ÑĦÐµÑģÑģÐ¸ Ð¾Ð½Ð°Ð»ÑĮ
ĠÐ²ÑģÐµÐ¼ Ð¸
ĠÐ°Ð³ ÑĢÐµ
ĠÐ¾Ð±ÑĥÑĩ ÐµÐ½Ð¸Ñı
ĠÐ¿Ð¾ÑĤÐµ ÑĢÑı
ĠÐ¿ÑĢÐ¸ Ð²Ð»Ðµ
ĠÐ¸ÑģÑĤÐ¾ÑĢÐ¸ Ñı
ĠÐ´ÑĢÑĥÐ· ÑĮÑı
Ð½ ÐºÐ¸
ĠÐ¾ Ð²Ð¾
ÑĢÐ¸ ÐºÐ°
ĠÑĢÐ° Ð½ÐµÐµ
ĠÑħ ÑĢÐ°Ð½ÐµÐ½Ð¸Ñı
ĠÐ²Ðµ ÑīÐ¸
Ð¾Ð½Ðµ ÑĨ
ĠÑĨÐµ Ð»Ð¾Ð¼
ĠÐ¿ÑĢÐ°Ð²Ð¸ Ð»Ð°
200 8
ĠÐ²ÑĭÐ¿Ð¾Ð» Ð½Ñı
ĠÑħÐ¾Ñĩ ÐµÑĤÑģÑı
4 3
Ð¿ Ð¿
ĠÑģÐ¾ ÑĢÐµÐ²
ĠÐ¿ÑĢÐµÐ´ ÑģÐµÐ´Ð°
Ð½Ñĥ ÑĤÑĮÑģÑı
ĠÑģÐµÑĢ Ð´
ĠÐ¿ÑĢÐ¾ÑĤÐ¸Ð² Ð¾Ð¿
Ð² ÑģÐµ
Ñĩ Ð½ÑĭÐ¼Ð¸
Ð¿ Ð»Ð¾Ð¼
ĠÐ²Ñĭ Ð±Ð¸ÑĢÐ°
ĠÐŀ Ð´Ðµ
ÐĴ Ð¸
ĠÐ²Ð¾ ÑģÑĤ
ĠÐ¼Ð°Ñģ Ð»Ð°
ĠÑģÑĥÐ¼ Ð¼Ñĥ
ĠÑĤÐµÐº ÑģÑĤ
ĠÐ¿ÑĢÐµÐ´ÑĥÑģ Ð¼Ð¾ÑĤÑĢÐµÐ½
Ð¡Ðµ Ð³Ð¾Ð´Ð½Ñı
Ñģ Ñĳ
ĠÐ¼ Ð¾Ðµ
ĠÑĢÐµ Ð°
ĠÐĹ Ð°Ðº
ĠÐ²Ð¾Ñģ Ð¿ÑĢÐ¸
ĠÐºÑĢÐ¾Ð² Ð¸
ĠÐ°Ð½Ð°Ð» Ð¾Ð³Ð¸
e g
ĠÐ´ Ð¾ÐºÐ°Ð·Ð°
Ð¾ÑĢ Ð¾Ð¼
ÐĲ ÐĿ
ĠÐ·Ð½Ð° Ð¼ÐµÐ½Ð¸
ĠÐ§ ÐµÐ¼
ĠÐ»ÑĥÑĩ ÑĪÐ¸Ðµ
ĠÑģÑĢÐ¾Ðº Ð¸
ĠÐ¼ÐµÑĤ Ð¾Ð´Ð¸
ĠÑĤÐ¾ÑĢ ÑĢÐµÐ½ÑĤ
ĠÐ¿ÑĢÐ¾ÑĨÐµ ÑģÑģÐ°
ĠÑĦÐ¸Ð»ÑĮ Ð¼
ĠÐ½Ð°Ð»Ð¸ÑĩÐ¸ Ðµ
Ðº ÑĤÐ°
ĠÐ² Ð½ÐµÑģ
ĠÐº ÑĢÐµÐ¼
ÑĤÐ¸ Ð²Ð¸
Ð¼Ð¸ Ð½Ð°
ĠÐ¡ Ñĭ
Ð²Ð¸ Ð»Ð¸
ĠÐ¿Ð¾Ð´ ÑħÐ¾Ð´Ð¸ÑĤ
Ð°Ð»ÑĮ Ð½Ð°Ñı
ĠÐ²ÑĭÑģÐ¾Ðº Ð¾Ð¹
ĠÐ²Ð¾Ð´ Ð¾Ð¹
ĠÑģÐ¿ÐµÑĨÐ¸Ð°Ð»Ð¸ ÑģÑĤÑĭ
ÑĦÐ¸ÐºÐ° ÑĨÐ¸Ð¸
ĠÐļÑĢÐ°Ñģ Ð½
ĠÐ±Ð°Ð· Ðµ
ĠÐ°Ð´ÑĢÐµ ÑģÑĥ
ĠÐ¿ Ñĭ
Ð¾Ð² Ñĭ
ĠÐ´ ÑĢÐµ
ÑĨ ÐµÐ¹
Ð¿Ð° Ð·
ĠÂ ·
ĠÐ¿Ð¾Ð¼ Ð¾ÑĩÑĮ
ĠÐ·Ð½Ð° ÐµÑĤ
ĠP ro
ĠÐ¾ÑģÐ½Ð¾Ð² Ð½ÑĭÑħ
ĠÑĥÑģÐ»Ð¾Ð²Ð¸ Ð¹
ĠÐ¾ÑĤ ÑĤÐµÐ½
ĠÐºÐ° Ð»ÐµÐ½
Ð½Ðµ ÑģÑĤÐ¸
ĠÐ¸Ð½ Ð¶ÐµÐ½
ĠÐ¿Ð»Ð° ÑĤ
ĠÐ¾Ð±Ð»Ð° ÑģÑĤ
or d
ĠÑĤÐ¸ Ð¿
ĠÐŀÑģ Ð¾Ð±
ĠÐľÐ¾ÑģÐºÐ¾Ð² ÑģÐºÐ¾Ð¹
Ñĩ ÐµÐ½Ð¸Ñİ
Ð¶ ÑĥÑĤ
Ð¾ÑĤ Ð¾Ðº
ĠÐ¿Ð¾Ð´ Ñģ
ĠÐĵ Ð¾Ñģ
ĠÐ¾Ñģ Ð½Ð°
ĠÑĪ ÑĤ
ĠÐ¿Ð¾Ð»ÑĥÑĩÐ¸ Ð»
ĠÑĢÐµÐ·ÑĥÐ»ÑĮÑĤÐ° ÑĤÑĭ
ĠÑĥÑĩ ÐµÐ½Ð¸
ĠÐ½ÐµÐ´Ð¾ ÑģÑĤÐ°
ĠÐ°ÑĢÑħÐ¸ ÑĤÐµ
ĠÐ½ÐµÐ¿Ð¾ÑģÑĢÐµÐ´ ÑģÑĤÐ²ÐµÐ½Ð½Ð¾
Ġ Z
ÑĤÐ¸ ÑĤ
Ñį ÐºÐ¾Ð½Ð¾Ð¼Ð¸
Ð¼Ð° Ñħ
ÑĤÐ¾Ð² Ð¾Ð¹
ĠÐ¶ÐµÐ½ÑīÐ¸ Ð½Ð°
ĠÐ¸Ð·Ð²ÐµÑģÑĤ Ð½Ð¾
ĠÐ°ÑĤ Ð¼Ð¾Ñģ
ĠÐ´ Ð¾Ð±Ð¸
ĠÐļ Ð¾
ĠÑĢÐµ Ð·Ð¸
ĠÐ¸Ð· Ð´Ð°
ÑĢÐ¾Ð² Ð¾Ð¹
ÑģÐºÐ° Ð·Ð°
ĠÐ´Ð¸ Ð½Ð°Ð¼Ð¸
ĠÑĢÐ°ÑģÐ¿ Ð¾Ð»Ð°Ð³Ð°
ĠÐ¸Ñģ ÑħÐ¾Ð´
ĠÐ¿ÐµÑĢÑģÐ¾Ð½Ð°Ð»ÑĮ Ð½ÑĭÑħ
ĠÐºÐ° Ð±Ð¸Ð½
ÑĤÐµÐ»ÑĮ ÑģÑĤÐ²
ĠÐ²Ð¸ Ð´Ñĭ
ĠÑģÐ° Ð¼Ð°
ĠÐ²ÐµÑĢ ÑģÐ¸Ð¸
ÑĢÐ¾Ð²Ð°Ð½ Ð½ÑĭÐ¹
ÑĥÑİÑīÐ¸ Ñħ
Ð¼ÑĥÐ»Ñı ÑĤÐ¾ÑĢ
ĠÑĤÐºÐ° Ð½Ð¸
E R
Ñı ÑĢ
ĠÑģ Ð´Ðµ
ĠÐº Ð²
ÑĪ ÐºÐµ
ĠÐ¿Ð¾ ÑģÑĤ
ĠÐ±ÑĥÐ´ ÐµÐ¼
ĠÐ°Ðº ÑĨÐ¸Ð¸
ĠÑĨÐµ Ð»Ð¸
ĠÐ´ÐµÐ»Ð° ÑİÑĤ
ĠÐ°Ð´ Ð¼Ð¸Ð½Ð¸ÑģÑĤÑĢÐ°ÑĨÐ¸Ð¸
ĠÐĹÐ°ÐºÐ°Ð·ÑĩÐ¸ Ðº
ĠÐ³ÑĢÑĥÐ¿ Ð¿Ð°
ĠÐ³Ð¾Ð²Ð¾ÑĢÐ¸ ÑĤÑĮ
-------- --------
ĠÑĥÐ²Ð¸ Ð´ÐµÑĤÑĮ
ÑĢ ÐµÐ½Ð¸Ðµ
Ð² Ð¾Ð¼
ÑĮ ÐµÑĢÐ°
Ð»Ð° Ð±
ÑĤÐ° ÐµÑĤ
Ð²Ð° Ð»ÑģÑı
ĠÐ·Ð° Ð¹
Ð¡ ÐĲ
ĠÑħ Ð»Ð¾Ð¿
ÑĪÐ° ÑİÑĤ
ĠÐ²Ð¾Ð¿ÑĢÐ¾Ñģ Ð°Ð¼
ĠÐ¿ÑĢÐµÐ´ÑģÑĤÐ°Ð²Ð»ÐµÐ½ Ñĭ
ĠÐ¿Ð¾Ð¼Ð¾Ð³Ð° ÐµÑĤ
ĠÑĥ ÑĩÐµÐ½
ĠÑĥ ÑģÑĤÐ¾Ð¹ÑĩÐ¸
ĠÐ·Ð° ÑĤ
ĠÑį ÐºÑĢÐ°
ÑģÐ¿ Ð¾ÑģÐ¾Ð±
ĠÐĽ ÑĥÑĩ
ĠÑĪ ÑĤÑĥ
ÑĢÐ¾Ð²Ð°Ð½ Ð½ÑĭÐµ
ĠÐ¸ÑģÐ¿Ð¾Ð»ÑĮÐ·Ð¾Ð²Ð° Ð½Ð¸Ð¸
ĠÐºÑĥÐ»ÑĮ ÑĤÑĥÑĢ
Ð± ÐµÑĢÐµ
ĠÐº Ð¾Ð¿
Ð³ ÐµÑĢ
Ñį Ð½ÐµÑĢ
Ð´Ð¸ Ð¹
ĠÐ¿Ð¾Ð´ ÑħÐ¾Ð´
Ð»Ð¾ Ð½Ð°
ĠÐ±Ñĭ Ð²Ð°ÐµÑĤ
ĠÐºÐ¾Ð¼ Ñĥ
ĠÐ»Ð¸ ÑĩÐ½Ð¾
ĠÑĦÐµÐ²ÑĢÐ° Ð»Ñı
Ð¾Ð¼ ÐµÑĤ
ĠÑĥ ÐºÐ°Ð·ÑĭÐ²Ð°
ĠÐ¾Ð± ÑģÑĤÐ¾Ñı
ÑĢÐ¾Ð²Ð° ÑĤÑĮÑģÑı
ÐĶ ÐĲ
ĠC h
ĠB l
ĠÐ¼Ð°ÐºÑģÐ¸Ð¼Ð° Ð»ÑĮÐ½Ð¾
ĠÐ±ÑĢÐ¸ Ð³Ð°
ĠÐ¾ ÑĢÑĥÐ¶Ð¸
ÑĢÐ¸ Ñģ
ĠÐ¾Ð± ÑīÐµÐ¼
ĠÐºÐ° Ð´
Ð¾Ñĩ Ð½Ð¾Ð³Ð¾
ĠÐ¼ÐµÑĤ ÑĢÐ¾Ð²
ĠÐ¼Ð°ÑĢ ÑĪÑĢÑĥ
ĠÐºÐ¾Ñģ Ð¼ÐµÑĤÐ¸
ĠÐ½ÐµÐ´Ð²Ð¸Ð¶Ð¸ Ð¼Ð¾ÑģÑĤÐ¸
ĠÐºÐ°Ð½ Ð´Ð¸Ð´Ð°
Ð¸ Ð»Ð°
ĠÐ¸Ð· Ð±Ðµ
Ð³Ð¾Ð² Ð¾ÑĢ
Ð¦ ÐµÐ½ÑĤ
ĠÐºÐ°ÑĤÐ° Ð»Ð¾Ð³
ĠÑģÐ¾Ðº ÑĢÐ°
ĠÐ·Ð°ÑıÐ²Ð¸ Ð»
ĠÐ± ÑĢÐ¾
ĠÑĢÐ° ÑģÑĤÐ²
ĠÐł Ñĭ
ĠÐ¤ Ð°
ĠÐ¿ÑĢÐ¾Ð´Ð° Ð¶
ĠÑģÐ¼Ð¾Ð¶ ÐµÑĤ
t h
Ð´ Ð¾Ð²Ð°
ÑĢÐ¸ Ð»
ĠÑį Ð¼Ð¾
Ð¾Ð· Ñĭ
ÑĪÐ¸ ÑĤÐµ
Ð¡ Ð°Ð¼
ĠÐĳ Ð°ÑĢ
ĠÐºÐ¾Ð½ÑĤÑĢ Ð¾Ð»Ñı
ĠÑģÐ»Ð¾Ð²Ð° Ð¼
Ð²Ð¾Ð» Ñİ
ĠÐ¿ ÐµÑĤ
Ñħ Ð¾Ð¹
ĠÐ¿Ð¾ ÑģÑĤÐ°Ð½Ð¾Ð²
ĠÐ¸Ð· ÑĥÑĩ
ĠÐĲ Ð½Ð³
ÐºÐ¾Ð² Ð¾
Ð±Ð¾ ÑĢÐµ
ÐĽ Ñİ
ĠÐ¿ÐµÑĢÐ² ÑĭÐµ
ĠÐ³Ð¾Ð²Ð¾ÑĢ ÑıÑĤ
ĠÐ°Ð·Ð° ÑĢÑĤ
Ð¸ Ðµ
Ð½ Î¿
ĠÐ¿Ð¾ Ñį
ĠÐ¾Ð± Ð¾Ð¸
ĠÐ¿ÐµÑĢÐµ Ð²Ð¾Ð´
ĠÑĢÐ°Ð±Ð¾ÑĤÐ° ÑİÑĤ
ĠH D
ĠÐ³Ð¾ÑĤÐ¾Ð² Ñĭ
ĠÐ¼ÐµÑĤÐ°Ð» Ð»Ð¸
ĠÑģ Ð¾Ð¶
ĠÐ± Ð»Ð°Ð³Ð¾Ð´Ð°
Ð¸Ð½ ÑĤÐµÑĢÐµÑģ
Ð¢ ÐŁ
ĠÐ½Ð¾ ÑĥÑĤÐ±Ñĥ
Ð²Ñĭ Ð¼Ð¸
ĠÑĨÐµ Ð»ÑıÑħ
ĠÑĢÐ¸ ÑģÐº
ĠÑĢÐµÐ¶Ð¸ Ð¼
ĠÐºÐ¾Ð¼Ð°Ð½ Ð´Ñĭ
ĠÑģÑĤÐµÐº Ð»Ð¾
Ð·Ð¸Ð´ ÐµÐ½ÑĤÐ°
6 7
Ġ %
Ñİ Ð·
Ñİ Ð·Ð°
ĠÐ° Ð´Ð°
ĠÐŁ Ð¾Ð¿
Ð¼Ð° ÑĤ
ĠÐ¾Ð´Ðµ Ð¶Ð´Ñĭ
* *
Ñı Ð·
ÑĢÐµ Ð»Ð¸
Ð³ Ð¾Ð¼
Ð»Ñı Ð±Ð¸Ð½
ĠÑĢÐ°ÑģÐ¿ ÑĢÐµÐ´Ðµ
ĠÐ¸Ð½ÑģÑĤÑĢÑĥ Ð¼ÐµÐ½ÑĤÐ°
Ð¾ ÑĩÐ¸
ĠÐ¡ ÑĢÐµÐ´
ĠÐ¿ÑĢÐ¾ ÑģÑĤÐ¸ÑĤÑĥÑĤ
Ð³Ð¸ ÑģÑĤÑĢÐ°
ĠÐĳ Ð¾Ð³
ĠÑĦÐ¸ Ð»Ð¾Ñģ
Ð´ÐµÑĢ Ð¶Ð°
ĠÐ´Ð¾ÑģÑĤÐ¸ Ð³Ð°
ĠÐ¾ÑĤÐ»Ð¸ ÑĩÐ½Ð¾
ĠÐ¿Ð¾Ð´Ð°ÑĢ Ð¾Ðº
ĠÐºÐ¾Ð¶ Ñĥ
8 5
9 5
ĠÐ¿ ÑıÑĤÐ¸
ÑģÑĤÐ° Ñı
ÑģÑĤÐ¸ ÐºÐ¸
ĠÐ¿Ð¾Ð» Ð½Ð¾
ĠÐ¢ Ð¾ÑĢ
ÑĢÐ°Ð· Ð´Ð¾
ĠÐ¨ Ð°
ĠÑĤÑĢÐµÐ± ÑĥÐµÑĤ
ĠÐłÐ°Ð· Ð¼ÐµÑĢ
ĠÐ¸ÑģÑĤÐ¾Ñĩ Ð½Ð¸ÐºÐ°
ĠÑĥÐ´Ð¾Ð² Ð»ÐµÑĤ
ĠÐ½ Ñĭ
ĠÐ½ Ð¾Ð¶
ĠÐ½Ð° ÑģÑĤÑĢÐ¾Ð¹
ĠÑĩ ÐµÐ¼Ñĥ
ĠÐ·Ð° Ð¼ÐµÑĤÐ¸
ĠÐ¾ÑĤ Ð´Ð°
Ðĳ Ðŀ
ÐµÑģÐ¿ Ð»Ð°ÑĤ
ĠÐ¿ÑĢÐ¾Ð² ÐµÑģÑĤÐ¸
ĠÑģÑĤÑĢÐ° Ð½Ð¸ÑĨÐµ
ĠÐ²Ñģ ÐµÐ¼Ñĥ
Ð¦ Ðĺ
ĠÑĢÐ°Ð·Ð¼Ðµ ÑīÐµÐ½Ð¸Ñı
ĠÑĢÐ¾Ð´Ð¸ ÑĤÐµÐ»ÐµÐ¹
Ð½Ð° ÑĩÐµ
ĠÐºÑĢÐ° Ñı
Ð§ ÑĤÐ¾Ð±Ñĭ
ĠÐ¼ÑĥÐ¶ ÑĩÐ¸Ð½
ÑģÐ¾ ÑĤÐ°
ĠÐ´Ð¾ÑģÑĤÐ°Ð² ÐºÐ¸
ĠÐ¸ÑĤ Ð¾Ð³Ðµ
Ñģ Ð°Ð¼
ÑĢ Ð½ÑĭÐµ
Ð»Ð° ÑģÑĤÐ¸
ÑģÑĤÐ¸ ÑĩÐµÑģÐºÐ¾Ð¹
ĠÐ¾ÑĤ Ð´ÐµÐ»Ð°
ĠÐ¡ ÐŁ
ĠÐļ Ð¸ÑĤÐ°
ĠÐ¸Ð· Ð¼ÐµÑĢ
ÑīÐ¸ Ð½Ð°
ĠÑĢÐ°Ð· ÑĢÑĥ
ĠÐ¿ÑĢÐµÐ´ ÑĭÐ´Ñĥ
ĠÑģÐµ Ð²ÐµÑĢ
ĠÐ¿Ð° ÑģÑģÐ°
ĠÐ¼Ñĭ Ñģ
ĠÐ²ÑĭÐ¿Ð¾Ð» Ð½ÐµÐ½Ð¸Ñı
ĠÑĢÐ°Ð·Ð´Ðµ Ð»Ðµ
ĠÐ²Ð¾ÑģÐ¿ Ð¾Ð»ÑĮÐ·Ð¾Ð²Ð°
O S
Ð¶ ÐµÐ½Ð¸ÐµÐ¼
ĠÑĤ ÑīÐ°
ĠÐ¡ ÐľÐĺ
ĠÐ¢ Ð¾Ð³Ð´Ð°
ÑĤÐ¸Ð² Ð½Ð°Ñı
ĠÑĢÐ¾ ÑģÑĤÐ°
ĠÐ¢Ðµ Ð»Ðµ
ĠÐ¾Ð¿ÑĤÐ¸ Ð¼Ð°
ĠÐ½Ð° Ð³ÑĢÐ°
Ð²Ð° Ð¶Ð°
Ð»Ñı ÑĨÐ¸Ð¸
ĠÐ¿Ð¾ ÑģÑĤÑĢÐ°
Ð´Ð° Ñħ
ĠÐ¸ÑģÐ¿Ð¾Ð»ÑĮÐ·Ð¾Ð²Ð° Ð½Ð¸ÐµÐ¼
ĠÐ¾ÑģÑĤÐ° ÐµÑĤÑģÑı
ĠÑĩÐ¸Ñģ Ð»Ð¾
ĠÑĦÑĥÑĤ Ð±Ð¾Ð»
ĠÐ£ÑģÐ»Ñĥ Ð³Ð¸
ĠÐ¿ÑĢÐ¾ÑĤÑı Ð¶ÐµÐ½Ð¸Ð¸
ĠÑģ Ð°Ð»
ĠÐ´ ÐµÐº
ÑģÑĤÐ° Ð¼Ð¸
ĠÐ¿Ð¾Ð´ Ð½Ñı
ĠÐĽ ÐµÐ½Ð¸Ð½
ĠÐºÐ¾ÑĢ Ð¿Ð¾ÑĢÐ°
ĠÐ¢Ð° ÐºÐ¸Ð¼
ĠÐ¿ÑĢÐ¾Ð¸Ð·Ð²Ð¾Ð´ ÑģÑĤÐ²Ð¾
Ð¾Ð±ÑĢÐ°Ð· Ð¾Ð²Ð°
ĠÐ¼ÐµÑħÐ°Ð½Ð¸ Ð·Ð¼
ĠÐ¾ÑĤÐ¼ÐµÑĤÐ¸ ÑĤÑĮ
Ð± Ð¾Ðº
Ð½Ð° ÑĩÐ°
ĠÐ¾ÑĤ Ð¿Ñĥ
ÐŁ ÑĢÐµ
ÑĢÐ°Ð· Ð´Ðµ
Ð¶Ð´Ð° Ñı
ĠÐ´Ð²Ñĥ Ð¼Ñı
ĠÐ¾ÐºÐ°Ð·Ð° Ð½Ð¸Ñı
ĠÑģÑĢÐ°Ð² Ð½ÐµÐ½Ð¸Ñİ
Ð²Ð° ÑİÑīÐ¸Ðµ
ÑĦ Ð»Ð¸
ĠÐ¾Ð± ÑīÐµÐ³Ð¾
ĠÐºÐ° Ð±Ðµ
ĠÐ»Ð¸ ÑĨÐµÐ½
ĠÐ¸ÑģÐ¿ Ð¾Ð»Ð½
Ð¾ÑģÑĤ Ð¾Ð²
ĠÐĸ ÐµÐ½
ĠÐ¸ÑģÑģÐ»ÐµÐ´ Ð¾Ð²Ð°
ĠÐºÐ¾Ð½ÑģÑĤÑĢÑĥ ÐºÑĨÐ¸Ð¸
ĠÐ¿Ð¾Ð¼Ð¾Ð³ ÑĥÑĤ
ĠÐ¿ÑĢÐµÐ´Ð¿Ð¾Ð» Ð°Ð³Ð°
i o
ĠÐ¿ Ð»ÐµÐ½
Ð± Ð°Ð¹
Ð¾Ð± Ñĥ
ĠÐ·Ð° ÐºÐ°Ð·ÑĩÐ¸
Ð¡ Ð¾Ð²
ĠÐºÐ¾Ð½ ÑĨ
ĠÐ²Ð° ÑĪÐ¸
ĠÐ¿Ðµ ÑĩÐ°
ĠÐ»ÑİÐ± ÑĭÑħ
ĠÐ¾ÑĤÐ»Ð¸ÑĩÐ° ÐµÑĤÑģÑı
ĠÑĢÐµ Ð¹ÑĤÐ¸
ĠÐºÐ¾Ð½ Ð´Ð¸ÑĨÐ¸Ð¾Ð½
Ð¾Ð¶Ðµ Ð»Ð°
ĠÑģÐ¿ÐµÑĨÐ¸Ð°Ð»Ð¸ ÑģÑĤÐ¾Ð²
ĠÐ³Ð¾ÑģÑĥÐ´Ð°ÑĢÑģÑĤÐ²ÐµÐ½ Ð½Ð¾Ð³Ð¾
ĠÐ¾Ð¿Ð»Ð° ÑĤÑĭ
ĠÑĢÐµÐ°Ð»Ð¸ Ð·
ĠÑĥÐ½Ð¸Ð²ÐµÑĢ ÑģÐ°
ĠÐ¾ÑģÐ¾Ð±ÐµÐ½ Ð½Ð¾ÑģÑĤÐ¸
ĠÐ´Ð¸ÑĢÐµ ÐºÑĤÐ¾ÑĢ
ÑĢÑĥ ÑĢ
Ð²ÐµÑĢ Ð´
ĠÐĹÐ° ÑĤÐµÐ¼
Ð¤ Ð¡
ĠÐ¾Ð±ÑĬ ÐµÐ´Ð¸Ð½
an t
ĠÑģÐµÑĢ ÑĤÐ¸ÑĦÐ¸ÐºÐ°
ĠÑĤÐ¾ÑĢ Ð¼Ð¾Ð·
Ð½Ð¾ÑģÑĤ ÑıÐ¼Ð¸
ĠÐ¿ÑĢÐ¾ÑĦÐµÑģÑģÐ¸ Ð¾Ð½Ð°
ĠÐ¾ÑĤÐ½Ð¾ÑģÐ¸ ÑĤÐµÐ»ÑĮÐ½Ð¾
ĠÐ½ÐµÐ²Ð¾Ð·Ð¼Ð¾Ð¶ Ð½Ð¾
Ġ &
ĠÑģÐµÐ¼ ÑĮÐ¸
ĠÑĥÐ³ Ð¾Ð»Ð¾Ð²
ĠÐĹÐ°ÐºÐ°Ð·ÑĩÐ¸ ÐºÑĥ
ĠÑĦÐ¸Ð»ÑĮ Ð¼Ñĭ
ĠÐĳÐµÐ»Ð° ÑĢÑĥ
ĠÐ´ ÑĭÑħÐ°
ĠÐ¡ ÐµÐ¹ÑĩÐ°Ñģ
ĠÐĿ Ð°ÑĢ
Ðļ Ð¾Ð³Ð´Ð°
ĠÐ¾Ð¿ Ñĭ
ĠÐ¡Ð¾ ÑĩÐ¸
ĠÐ¼Ð°Ñģ ÑĪÑĤÐ°
ĠÑĥÐ»Ð¸ ÑĨÐµ
Ð¾ ÑĦÐ¸
ĠÐº Ð¾ÑĢÐ°
Ð½Ð¸ ÐµÐ¹
ÐºÐ° ÑĨÐ¸Ð¸
ĠÑħ Ñĥ
ĠÐķ ÐºÐ°ÑĤÐµÑĢÐ¸
ĠÑģÑĤÐ¸ Ð»Ðµ
ĠÑģÑħ ÐµÐ¼
ĠÑĥÐ²ÐµÑĢ ÐµÐ½
Ð» Ð¾ÑĢÐ¸
ÑĤÐ¾ ÑģÑĤÐ¸
ĠÐ¸Ð· Ñĥ
ĠÑĪ ÑĤÑĢÐ°
ĠÑįÐº ÑģÐ¿Ðµ
Ð¾Ð³Ð»Ð° ÑģÐ½Ð¾
ĠÑģÐ¾Ð¾Ð± ÑīÐµÐ½Ð¸Ñı
ĠÐ³Ð¾ÑģÑĥÐ´Ð°ÑĢ ÑģÑĤÐ²Ð°
ĠÐ·ÐµÐ¼ Ð»Ð¸
ĠÐ²Ð½Ð¸Ð¼Ð° Ð½Ð¸Ñı
ĠÐ¿Ð°Ð¼ ÑıÑĤÐ¸
ĠÐ³Ð¾ ÑĢÐ°Ð·Ð´Ð¾
ĠÐ½Ðµ Ð²ÐµÑĢ
ĠÐºÐ° Ð¶ÐµÑĤÑģÑı
ĠÑģÑĤ Ð¾Ð¹
ÑĢÐ¾Ð²Ð° Ð½Ñĭ
Ðľ Ðŀ
ĠÐ¾Ð±ÑĢÐ°Ð· Ð¾Ð²Ð°Ð½Ð¸Ðµ
ĠÐ²Ð· ÑıÑĤÑĮ
ĠÑĢÐ¾ ÑģÑĤ
ĠÑģÐ¾Ð³Ð»Ð° ÑģÐ¸
ĠÐ¸ÑģÐ¿Ð¾Ð»ÑĮÐ· ÑĥÑİÑĤÑģÑı
ĠÐ¼ÐµÑĢÐ¾Ð¿ÑĢÐ¸Ñı ÑĤÐ¸Ð¹
ĠÑģÐºÐ¾ÑĢÐ¾ ÑģÑĤÑĮ
ĠÐ´Ð°Ð² Ð»ÐµÐ½Ð¸Ñı
Ð ©
ĠÐ¿ÑĢÐ¸ Ð²ÐµÐ´
ĠÑħ Ð¾Ð´Ð¸
ÑĢÐ¾Ð² Ð¸
ÑĤÑĥ ÑĢÑĥ
ĠÐ²Ðµ Ð´
ĠÐ²Ðµ ÑģÐµ
ĠÑĪ Ð°Ð½
ĠÑĦÐ¸ Ð³
ĠÑģÑĤÑĢÐ° Ð½Ð¸ÑĨÐ°
ĠÐ¼Ð¾ Ð½Ð¸
ĠÑģÐ¾ÑģÑĤÐ¾Ñı Ð½Ð¸Ñı
ĠÑĤÐµÑħÐ½Ð¾Ð»Ð¾Ð³Ð¸ Ð¹
7 9
Ð» ÐµÑĤÐ°
ÑĤÐ¸ Ð»Ð¸
Ð»Ñı Ð¼Ð¸
ĠÑĢÐ° ÑģÑĤÐ¸
Ð¸Ð½ ÐºÐ¸
ĠÐ¾Ð¿ ÑıÑĤÑĮ
ĠÑģÐµ ÐºÑĥ
ĠÐ¿Ð¾Ð· Ð²Ð¾
ĠÑģÐ»ÑĥÑĩÐ° ÐµÐ²
ĠÐ¼Ð½ ÐµÐ½Ð¸Ñİ
ĠÐ´Ñĥ ÑĪÐµ
ĠÐ¾Ð±ÑīÐµ ÑģÑĤÐ²Ð°
ĠÑıÐ·Ñĭ ÐºÐ°
ĠÑģÐ¾ÑĤÑĢÑĥÐ´ Ð½Ð¸ÐºÐ¾Ð²
ĠÐ´ÐµÑĢ Ð¶Ð°
ĠÐºÐ°ÑģÐ° ÐµÑĤÑģÑı
Ð½ ÐµÐ½Ð¸Ð¹
ĠÐ¾ÑĤ ÑĢÐ¸ÑĨÐ°
ĠÐł ÐµÐ¼
ĠÐł Ð°Ñģ
Ðķ Ð¢
ĠÐ»ÑİÐ± Ð¾Ðµ
ĠÐ±Ð°Ð½ ÐºÐ°
ĠÐ¸ÑģÐ¿Ð¾Ð»ÑĮÐ· ÑĥÑİÑĤ
ĠÑĩÐ°ÑģÑĤ Ð½Ð¾ÑģÑĤÐ¸
ÑĢ Ð¾ÑĤ
Ð± ÑĢÐ°Ð½
Ð½Ð¸ Ð½Ð°
ĠÑĢÐµ ÑĩÑĮ
ĠÑĤÐ¾ Ñĩ
ĠÐ¿ÑĢÐ¾Ð´Ñĥ ÐºÑĤ
ĠÐ¿ÑĢÐ¾Ð´ Ð²Ð¸
ĠÐ¾Ñħ Ð»Ð°
ĠÐ¾ÑĦÐ¾ÑĢÐ¼ Ð»ÐµÐ½Ð¸Ñı
ĠÐľÐ¸Ð½Ð¸ ÑģÑĤÐµÑĢ
ĠÐ½ÑĢÐ°Ð²Ð¸ ÑĤÑģÑı
ÑĢ ÑĤÑĥ
ÐŁ Ð¾Ð»
ÐµÐ· Ð´Ðµ
ĠÐ´ÑĢÑĥÐ³ Ð¾Ð¼
ĠÐ¿ÑĢÐ¾Ð¸Ð·Ð²Ð¾Ð´Ð¸ ÑĤÑģÑı
ĠÐºÐ¾Ð½ÑĤÑĢ Ð¾Ð»
ĠÐºÐ¾Ð¼Ð¸ ÑģÑģÐ¸Ð¸
ĠÐ¾ÑĤÐ²ÐµÑĤÑģÑĤÐ²ÐµÐ½ Ð½Ð¾ÑģÑĤÐ¸
2 50
T A
Ñģ Ð½Ð¾Ð¹
ĠÐ¡ ÐµÐ¼
ĠÐ¿Ð¾Ð´ ÑĢÑĥ
Ð»Ñİ Ð¼Ð¸
ĠÐ¶Ðµ Ð»Ðµ
Ð³Ð¾Ð´ Ð½Ð¾
ĠÐ´ÐµÐ¹ÑģÑĤÐ²Ð¸ Ð¹
ĠÐ´Ð¾ÑģÑĤÐ¸ Ð³
Ñĥ Ñħ
ĠÐ¿Ð¾ ÑģÑĤÐ°
ĠÐ¾Ð± Ð»
ĠÐºÐ¾Ð¼ Ð¼ÐµÑĢ
ÐµÐº Ñģ
ĠÐ´Ð° ÑĤÑĮ
ÑĥÑģ Ð»Ð¾Ð²
ĠÑįÐº Ð¾Ð»Ð¾Ð³Ð¸
ĠM od
ÐµÐ¼Ð° Ñı
6 4
ÑĢÐ° ÑĤÐ¾Ð²
ÐµÑĤ Ð¾Ð½
ÑĨ Ð¾
ÑĤÐ¸ ÐºÐ¸
ĠÐļ Ð»Ð°
ĠÑģÐ² ÐµÐ´ÐµÐ½Ð¸Ñı
ĠÐĵ Ð¾ÑģÑĥÐ´Ð°ÑĢ
Ð»Ð¾Ð¶ ÐµÐ½Ð¸Ñı
ĠÑģÑĢÐµÐ´ ÑģÑĤÐ²Ð¾
ĠÐ»ÑĥÑĩ ÑĪÐ¸Ñħ
ĠÑģÐ½Ð° ÑĩÐ°Ð»Ð°
Ġ= >
ind ow
ĠÐ¿Ð°ÑģÑģÐ° Ð¶Ð¸
Ġ ==
Ðº Ð¾Ð²Ð°Ð½
Ð² ÑĮÑİ
ÐµÑĤ ÑĢÐ¾Ð²
ĠÐŁ ÑĢÐ¾Ð´
Ð²Ð¸ Ð»
ĠÑĦ ÐµÑģÑĤÐ¸Ð²Ð°
ĠÑĤÐµ Ð¼Ð°ÑĤÐ¸
il l
ĠÑģÐºÐ¾ ÑĢÐµÐµ
e p
Ð² Ð¾Ñģ
Ð¾Ð³ Ð¾Ð´
ĠÑĥ ÑĤÑĢÐ°
ÑģÐ¸ Ñİ
ĠÐļ Ð°Ð»Ð¸
Ð¸Ð½ Ð³Ð°
ĠÐĵ Ð¾Ð»
ĠÐ¿Ð¾Ð²Ñĭ ÑĪÐµÐ½
ĠÐ´Ð¾Ð³Ð¾Ð² Ð¾ÑĢÐ°
ĠÑģ ÑĬÐµÐ¼
ÑĤÐµ ÑħÐ½Ð¸
Ð¶ Ð½Ð¾ÑģÑĤÑĮ
ĠÐ¿ÑĢÐ¸ Ð²Ð¾Ð´
Ð¾Ñģ Ñĭ
Ð½Ðµ ÑĪ
ĠÐ³Ð»ÑĥÐ± Ð¾Ðº
ã Ĥ
ÑĤÐ¸ ÑĢÐ¾Ð²Ð°ÑĤÑĮ
ĠÐ·Ð° Ð¼ÐµÑĤ
ĠÑĤ ÑĢÐµÐ½
ĠÐ¡ ÑĤÐµ
ĠÐļ Ð»Ð¸
ĠÑĥÑĩÐ°ÑģÑĤ ÐºÐ°
ĠÑģÑģÑĭ Ð»ÐºÐ¸
ĠÐ¼ÐµÑģÑĤÐ° Ñħ
ĠÐ´Ð¾Ð³Ð¾Ð² Ð¾ÑĢ
ĠÑĦÐ¾ÑĤÐ¾Ð³ÑĢÐ°ÑĦÐ¸ Ð¸
O N
Â °
ÑģÑĤ ÑĭÐµ
ĠÐ¸ ÑģÑĤÐ¸Ð½
Ð½Ð¸ Ð¼Ð¸
ĠÐĶ Ð¾Ð¼
Ð²Ðµ Ð»
ĠÑĦÐ¸ Ð³Ñĥ
ĠÐ²Ð½Ðµ Ð´
ĠÑģÐ»Ð¾Ð¶ Ð½Ð¾
ĠÐ¾Ð±ÑĢÐ°Ð±Ð¾ÑĤ ÐºÐ¸
ĠÐºÐ²Ð° Ð´
Ġ )
Ð» Ð¾ÑĢ
Ð´ Ð½Ð¾
Ñİ ÑīÑĥÑİ
ÑģÐ¸ Ð²
ÐµÑĢÐµ Ð¹
ĠÐĳ ÑĥÐ´
ĠÐ´Ð° Ð»ÐµÐºÐ¾
ĠT he
ĠÑįÐ»ÐµÐ¼ ÐµÐ½ÑĤÑĭ
a x
e v
ĠÐ± Ð¾Ð»
ĠÐ±Ð¸ Ð±Ð»Ð¸Ð¾ÑĤÐµ
ĠÐ¿Ð¾Ð·Ð²Ð¾Ð»Ñı ÑİÑĤ
ĠÐ¿Ð¾Ð¶Ð° Ð»ÑĥÐ¹ÑģÑĤÐ°
6 9
ĠÑģ ÐºÐ»Ð°
ÑĢÐ¸ ÐºÐ¸
ĠÐ¿ÑĢÐ¸ ÑĩÐ¸Ð½Ð°
Ð·Ð° ÑĤÐ¾ÑĢ
ÐŁ Ðµ
ÐŁ ÑĢ
ÑĥÑĤ Ñĭ
Ð¸Ð· Ð½ÐµÑģ
ĠÐ½Ð°ÑĩÐ° ÑĤÑĮ
un d
ĠÐºÐ¾Ð½ÐºÑĥÑĢ ÑģÐ°
ĠÐ½Ð°ÑħÐ¾Ð´Ñı ÑĤÑģÑı
8 00
ĠÐ¿ÑĢÐ¸ Ð±Ð»Ð¸
ĠÐ¿Ð¾Ð´ ÑħÐ¾Ð´Ñı
ĠÐĳ Ð°Ð½
Ð·Ð¸ ÑĢÑĥ
ÑĦÐ¾ÑĢÐ¼Ð° ÑĨÐ¸Ñı
ÑĢ Ð½ÑĭÑħ
ĠÑģ ÐºÐ°Ð·
ÐµÐ½ ÑĤÑĥ
ÐµÐ½ Ð½ÑĭÐ¼Ð¸
Ð½Ð¾ ÑģÐ¸
Ð¾Ðº ÑģÐ¸
Ð½Ðµ Ð¿
Ð³Ð° Ñħ
ĠÐºÐ¾Ð½ ÑĦÐ¸
ĠÐ¿Ð¾Ñģ Ñĭ
ĠÐ±Ð¾Ð»ÑĮ ÑĪÐ¸Ðµ
ĠÐ¿ÐµÑĢÐ² ÑĭÑħ
ĠÐ±Ð¸ ÑĢ
ĠÐ¿ÑĢÐ¾Ð´Ð° Ð¶Ðµ
ĠÐ¾Ð¿ÐµÑĢÐ° ÑĨÐ¸Ð¸
ÐļÐ¾Ð¼ Ð¿Ð°Ð½Ð¸Ñı
ÐºÐ° Ðº
ĠÐĴ Ð¸Ð½
ĠÐ¡ ÑĤÑĢ
ĠÐ¿ÑĢÐ¾ ÑħÐ¾Ð´Ð¸ÑĤ
ĠÑĦ ÑĢÐ°Ð½
ĠÐ¿Ð¾Ð´ Ð²ÐµÑĢ
ÐĴ Ðĺ
ĠÐ°Ð²ÑĤÐ¾Ð¼Ð¾Ð±Ð¸ Ð»ÑĮ
ĠÐ¼Ð¾ÑĢ Ñı
ĠÑĢÐµÑĪÐ¸ Ð»Ð¸
ĠÐ½ÐµÐ¾Ð±ÑħÐ¾Ð´Ð¸Ð¼ ÑĭÐµ
% ,
= >
ĠÐºÐ° Ð¿
ĠÐ¡ Ðŀ
Ð¾Ñģ Ð»Ð°Ð²
ĠÐ´Ðµ ÐºÐ¾ÑĢÐ°
ĠÑĢÑĥ ÐºÐ°
ÑĨÐ¸Ð¾Ð½ Ð½Ð¾Ðµ
ĠÐ¥ ÑĢÐ¸
ĠÐ²ÑĭÐ¿Ð¾Ð» Ð½ÐµÐ½
ĠÐļÑĥ Ð¿Ð¸ÑĤÑĮ
ĠÐ½Ð°Ð¿ÑĢÑı Ð¶ÐµÐ½Ð¸Ñı
ĠÑģÐ¾Ð» Ð½Ðµ
ĠÑĥÐº ÑĢÐµÐ¿
ĠÐ·Ð°Ð¼Ðµ ÑģÑĤÐ¸
r y
Ð² ÑĪÐµÐ¹
Ð¶ Ð°Ð½
Ñī ÐµÐ½Ð°
ĠÐ· ÑĢÐ¸
ÑĢÑĥ Ð±Ðµ
ĠÐ¾Ð± Ð¾Ð·Ð½Ð°
ĠÐĺ Ð»Ð¸
ĠÐ¾Ð±Ð»Ð° Ð´Ð°
ĠÐ´Ð¾Ð¼ Ð¾Ð²
ÑĢÐ°ÑĤ Ð½Ð¾
ĠÑĤÑĢÐ° Ð´Ð¸
ĠÐ¿Ð¾Ð²ÐµÑĢÑħ Ð½Ð¾ÑģÑĤÑĮ
ĠÐ¾Ð·Ð½Ð° ÑĩÐ°ÐµÑĤ
ÑĤÐ°Ð»ÑĮ ÑıÐ½
ĠÐ¿ Ð¾Ð¹
ÑģÑĤ ÐºÐ¸
Ð¾Ð± Ðµ
ĠÐļ Ð¾Ð¼Ð¸
ÑģÑĤÑĮ Ñı
ĠÐ¼Ð¾Ð¶ ÐµÐ¼
ĠÐ±Ð¾Ð»ÑĮ ÑĪÐ¸Ð¼
ĠÐºÐ°ÑĢ ÑĤÐ¸
ÑĢÐ¾Ð²Ð°Ð½ Ð½ÑĭÑħ
ĠÐ´Ð¾ÑĢ Ð¾Ð³
ĠÐ¸Ð½ÑĤÐµÑĢÐµÑģ Ð½Ð¾
ĠÑĢÐµÐ±ÐµÐ½ Ð¾Ðº
ĠÐ¾ÑģÐ½Ð¾Ð²Ð° Ð½Ð¸Ð¸
ĠÐ´ÑĥÐ¼Ð° Ñİ
ĠÐ±Ð»Ð¾Ðº Ð¸
ĠÐ² Ð¾Ð´Ñĥ
ĠÑĥ ÑĤÐµ
ĠÑĥ Ð¼ÐµÑĢ
ĠÐ¾Ð± Ð»Ð¸
ĠÐ¾Ñģ Ð²Ð¾Ð±
ÑĨÐ¸Ñı Ð¼Ð¸
ĠÑģÐ¿Ðµ ÑĨ
ĠÑĥÑĩÐ°ÑģÑĤ Ð¾Ðº
ĠÐ²Ð¼Ðµ ÑģÑĤÐ¾
ĠÑĢÐµÑĪÐ¸ Ð»
ĠÑħÐ°ÑĢÐ°ÐºÑĤÐµÑĢÐ¸ÑģÑĤÐ¸ ÐºÐ¸
indow s
ĠÐ½Ð° ÑĪÐ¸Ð¼
ĠÑĥ Ð´Ð¾
Ð»Ðµ Ð±
ĠÐ·Ð° ÐºÐ°
Ð´Ðµ Ð²
Ð³Ð¸ Ðµ
Ð¾Ðµ Ð²
ĠÐ¿ÐµÑĢÐµ ÑħÐ¾Ð´
ĠÐ¼Ð½ ÐµÐ½Ð¸Ðµ
ĠÑĦÑĥÐ½ Ð´Ð°
ĠÑĥÑĩÐµÐ± Ð½Ð¾Ðµ
ĠÐ°Ñį ÑĢÐ¾Ð¿
ĠÑģ ÐºÑĥ
ĠÐ± Ð¾Ð½ÑĥÑģ
ÑĤÐ¸ Ðº
Ð¡ ÑĤ
ĠÑģÐ¾ ÐµÐ´Ð¸
Ð»Ð¾Ð² Ð¾Ð¹
201 9
ĠÐ±ÑĥÐ´ ÐµÑĤÐµ
ĠÐ¼Ð¾Ð» Ð¾Ð´Ðµ
ÑĤÐ¸ÑĢÑĥ ÐµÑĤ
ĠÑįÐ»ÐµÐ¼ ÐµÐ½ÑĤÐ°
ĠÐ¿Ð¾Ð¸ ÑģÐºÐ°
ĠÐ¿Ð¾ÑģÐ²Ñı ÑīÐµÐ½
g e
Ñģ Ð»Ð¾Ð²Ð¸
ĠÐ³ ÑĢÑı
ĠÐ¿Ð¾ Ð½ÑıÑĤÑĮ
ĠÐ¼Ð° ÑĤÐµÐ¼Ð°ÑĤÐ¸
ĠÑģÐ¾ Ð¾ÑĢÑĥÐ¶
ĠÐ¿ÑĢÐ¾Ð¸Ð· Ð²ÐµÐ´
ĠÐ¸Ð¼Ðµ ÐµÑĤÑģÑı
ĠÐ¿Ð¾Ð¿ ÑĭÑĤ
ÑģÑĤÑĢÐ¾ Ð¸
ĠÐ½Ð°ÑĩÐ° Ð»
ĠÐ´Ð¾ÑĢ Ð¾Ð³Ð¸
ĠÐ¿Ð»Ð¾ÑīÐ° Ð´Ð¸
ĠÐ¼Ð°Ð³ Ð½Ð¸ÑĤ
b er
Ð» ÐºÑĥ
ÑģÑĤ ÐµÑĢÐ°
ĠÐº Ð¾Ð²
ĠÑĥ ÑģÑĤÐ°
ĠÐĴ ÑģÐµÐ¼
Ð¾Ð¿ Ð¾Ð»ÑĮ
Ð¸Ð· Ð¾Ð»Ñı
ÑĢÐ¾Ð²Ð° Ð»Ð¸
ÑĤÐ¾ÑĢÐ° Ð¼Ð¸
Ð¼ÐµÐ½Ð¸ ÑĤÑĮ
ĠÐ·Ð°Ð±Ð¾Ð»Ðµ Ð²Ð°Ð½Ð¸Ð¹
ĠÐ´ÐµÐ¼ Ð¾Ð½
ĠÐ¿Ð¾ ÑģÑĤÑĥÐ¿Ð°
ĠÐ¿ÑĢÐ¸ Ð½ÑıÑĤÑĮ
ÑĪÐµ Ð±
ÑģÑĤÐ¾ ÑĢÐ°
ĠÐ´Ðµ Ð»
ĠS p
Ð·ÑĭÐ²Ð° ÑİÑĤ
ĠÑĥÑģÑĤÐ°Ð½Ð¾Ð² Ð¸ÑĤÑĮ
ĠÑĢÐµÐ¼Ð¾Ð½ ÑĤÐ°
ĠÐ²Ð½ÑĥÑĤÑĢÐµÐ½ Ð½Ð¸Ñħ
I N
ĠÐ¿ Ð»Ð¸
ĠÐ· Ð´Ð°
ĠÐ¿ÑĢÐ¾ Ð¸
ĠÑĦ Ð°Ð½ÑĤÐ°
Ðļ ÑĢÐ°Ñģ
ĠÐ»Ð¸ ÑĪ
Ðĳ Ð£
ĠÐ³ÑĢÑĥÐ¿ Ð¿
ĠÐ¿Ð»Ð¾ÑīÐ° Ð´ÑĮ
ĠÐ¿ÑĢÐ¾ÐµÐºÑĤ Ð¾Ð²
ĠÑįÐ½ÐµÑĢ Ð³Ð¸Ð¸
ĠÐ´ Ð¾Ð±Ñĭ
ÑĤÐ° ÑĨÐ¸Ñİ
ĠÐ± Ð¾Ñı
ĠÐľ Ð¾ÑĢ
ÑģÐ° Ð¹
ĠÐĹ ÐĲ
ĠÐ¸ÑģÐ¿ Ð¾Ð»Ð½Ð¸
ÑĤÐµÑĢ Ð½Ð°
ÑĨÐ¸Ð¾Ð½ Ð½Ð°Ñı
ĠÐ³Ð¸ Ð¿ÐµÑĢ
ĠÐ¿Ð¾Ð»ÑĥÑĩÐ° ÐµÑĤÑģÑı
ĠÑįÐ½ÐµÑĢ Ð³ÐµÑĤÐ¸
ĠÐ½ÐµÑģ ÐµÑĤ
ĠÐ¿ÑĢÐ¸ÑħÐ¾Ð´Ð¸ ÑĤÑģÑı
ĠÐ»ÑİÐ´ ÑıÐ¼
i z
Ð´Ð¸ Ð°
ÐµÐ· Ð¶Ð°
ĠÑĢÐ°Ñģ ÑģÑĤÐ¾Ñı
ĠÑģÐ¾Ð·Ð´Ð° Ð½Ð¸Ðµ
ĠÐŁÐ¾Ð´ ÑĢÐ¾Ð±
ĠÑħÐ¾ÑĢÐ¾ÑĪ ÐµÐ¼
ĠÑĢÐ°Ð·Ð´Ðµ Ð»
ĠÑĥÑĤÐ²ÐµÑĢ Ð¶Ð´Ð°
ĠÑģÑĤÑĥÐ´ ÐµÐ½ÑĤÐ¾Ð²
Ð¸ Ð¼Ð¾ÑģÑĤÑĮ
ÑĩÐµ ÑģÐºÐ¾Ð¼Ñĥ
ÑĩÐ¸ ÑĤÑĮÑģÑı
ĠÐļ ÑĤÐ¾
ĠÐ»Ð¸ Ð´ÐµÑĢ
ĠÑĩÐ° Ñģ
ĠÐ¾ÑģÐ½Ð¾Ð² Ð½Ð¾Ð¹
ĠÐ¿Ð¾Ð»ÑĥÑĩÐ¸ Ð»Ð¸
ĠÐ¿ÑĢÐ¾Ð´Ð¾Ð» Ð¶Ð¸
ÐµÑĢ ÑĪÐµÐ½
ĠÑį Ð¿Ð¸
ĠÐ²Ñĭ ÑıÑģ
ĠÐ²Ñĭ ÑħÐ¾Ð´Ð°
ĠÐ²Ð¾Ð· Ð±Ñĥ
ÐĶ Ðķ
ĠÐ¿Ð¾Ð² Ð¾Ð´Ñĥ
ÑĢÐ¾Ð¸ Ð´
ĠÐ´ÑĢÑĥÐ³ Ð¾Ð³Ð¾
ĠÐ½Ð°ÑģÑĤ Ð¾Ð»ÑĮÐºÐ¾
ĠÐ¾ÑĤÐ»Ð¸ÑĩÐ¸ Ðµ
ĠÐºÐ¾Ð¼Ð¼Ñĥ Ð½Ð¸ÐºÐ°
ĠÐ¸Ð·Ð´ÐµÐ»Ð¸ Ð¹
ĠÐ¿ÑĢÐµÐ¿Ð¾Ð´Ð° Ð²Ð°
ĠÑģÐ¾Ð¶ Ð°Ð»
ĠÐ² ÑĢÐ¾Ð´Ðµ
ĠÐº Ð¾Ð¶Ð°
Ð¾Ð¶ Ð´Ð°
Ð´Ð¸ ÐºÐ°
Ð°Ð»ÑĮ Ð½Ð¾Ðµ
ĠÐĹ Ð°Ð¼
ĠÐ²Ðµ ÑīÐµÑģÑĤÐ²
ĠÐ¶Ð¸ Ð»Ð¸
on t
ÑĩÐµÐ½ Ð¾
ĠÐ²ÑĭÐ¿Ñĥ ÑģÐº
ĠÐ²Ð¾Ð»Ð¾Ñģ Ñĭ
ĠÑĢÐ¾Ð´ ÑģÑĤÐ²ÐµÐ½
o y
Ð» Ð»ÐµÐºÑĤ
ÑĢÐµ ÑĨ
ÑĪ ÐºÐ¾Ð¹
ÑĤÐ° ÑĤÑĮ
ĠÐ± Ð°Ñģ
ĠÐ½Ðµ Ð¼Ñĥ
ĠÐ²Ðµ Ð»Ð¸ÑĩÐ¸
ĠÐ¤ Ð¾ÑĤÐ¾
ĠÐ»ÑİÐ± ÑĭÐµ
ĠÐ¾ÑĤÐ½Ð¾ ÑģÑı
ĠÐ³Ð¾Ð² Ð¾ÑĢÑı
ĠÑĢÑĭÐ½ Ð¾Ðº
ĠÐ·Ð°Ð½Ð¸Ð¼Ð° ÑĤÑĮÑģÑı
ĠÐľÐµÐ¶Ð´Ñĥ Ð½Ð°ÑĢÐ¾Ð´
ĠÐ½Ð°Ð¹Ð´ ÐµÑĤÐµ
o st
ĠÐ· Ð´ÑĢÐ°Ð²
ĠÐ¿Ð¾ ÑĢÐ°Ð¶
ÑĤÐµÐ»ÑĮ ÑģÑĤÐ²Ðµ
ĠÐ¿ÑĢÐ¸Ð½Ð°Ð´ Ð»Ðµ
o ur
s h
ĠÑģ ÑĢÐ¾ÐºÐ°
ÑĢÐ¸ ÑĤÐ°
Ð»Ñı ÐµÐ¼
ÑĩÐ¸ Ð²Ð°ÐµÑĤÑģÑı
ĠÑĦ ÐµÑĢ
ĠÐĶ Ð¾Ð±Ð°
ĠÐ¿Ð¾Ð» Ð½ÑĭÐ¹
Ð±Ð¸ ÑĢÐ°ÑĤÑĮ
ÐĶ Ðµ
ĠÐ¶Ðµ Ð»ÑĥÐ´
ĠÐ±Ð¾Ð»ÑĮ ÑĪÐ°Ñı
ĠÐ½Ð°Ð¿ Ð¾Ð¼Ð¸Ð½Ð°
ĠÑĤÑĢÐ°Ð½ÑģÐ¿ Ð¾ÑĢÑĤÐ°
ĠÐ»ÑİÐ±Ð¾Ð² ÑĮ
Ð½ Ð¾Ð´
ĠÐ· Ð´Ð°Ð½Ð¸Ñı
ĠÐ¾Ð± Ð¸
ĠÐŁ ÑĢÐ¾Ð´Ð°
ĠÑĤÐµ Ð¼Ñĭ
ÑĢÐ¾Ð²Ð° Ð½Ð¾
ĠÐĴÐ° ÑĪ
ĠÑĥÑģÐ¿Ðµ ÑĪ
ĠÐ·Ð°Ð½Ñı ÑĤÐ¸Ñı
ĠÑĢÐ°ÑģÑĤ ÐµÐ½Ð¸Ñı
Ñ ĸ
ÑĤ ÐºÐ¾Ð²
ĠÐ² ÐµÐº
ĠÐ¾ Ð´Ð¸Ð½Ð°
ĠÐ± Ð¾Ð³
ĠÐ·Ð° ÑħÐ²Ð°
ĠÑĦ ÑĢÑĥ
ĠÐĶ Ð¾Ð±
ĠÑģÐ¿ Ð¾ÑĢÑĤÐ°
ÑĥÐ± Ð»Ð¸Ñĩ
ĠÐ¿Ð¾ÑĢ ÑĤ
ĠÐ¿ÑĢÐ¾Ð¸Ð·Ð²Ð¾Ð´Ð¸ ÑĤÐµÐ»Ñı
ĠÐ¸Ð·Ð¼ÐµÐ½ ÐµÐ½Ð¸Ð¹
ĠÐ½Ð°ÑĩÐ¸Ð½Ð° ÐµÑĤ
ĠÐ½ÐµÑĦ ÑĤÐ¸
ÑĥÐ» ÐºÐ°Ð½
Ð»Ðµ ÑĢÐ°
Ð»Ðµ ÑĨ
Ð¡ Ñĥ
ĠÑĤÐ°Ðº ÑĥÑİ
ĠÐĵ Ñĥ
ĠÐ§ Ð¸ÑĤÐ°
ĠÐ¿Ð¾Ð² Ðµ
ĠÐ¶Ð¸ ÑĤÑĮ
ĠÐ¿ÐµÑĢÐ² Ð¾Ð¼
ĠÑĥÑģÑĤÐ°Ð½Ð¾Ð² Ð»ÐµÐ½
ĠÑģÑĤÑĢÐ¾Ð¸ ÑĤÐµÐ»ÑĮÑģÑĤÐ²Ð¾
ĠÐ¡ÐµÑĢ Ð³Ðµ
ĠÐ¿Ð¾Ð´Ð³Ð¾ÑĤÐ¾Ð² ÐºÐ¸
ĠÐºÐ¾Ð½ÑĤÐ° ÐºÑĤ
ĠÐ¿Ð¾ÑģÑĢÐµÐ´ ÑģÑĤÐ²Ð¾Ð¼
U S
ĠÐ» Ð¾
ĠÐ¿Ð¾Ð´ ÑĩÐµÑĢ
Ð¼Ñĥ Ð»Ð¸
ĠÐŀÐ± ÑĬ
ĠÐĿÐ¾Ð² ÑĭÐ¹
ĠÑĥÐ³ Ð¾Ð»
ĠÑģÑĤÐ°ÑĤÑĮ Ðµ
ĠÐ²ÐºÐ»ÑİÑĩÐ° ÐµÑĤ
ĠÐ´Ð¾Ð±Ð° Ð²Ð¸ÑĤÑĮ
ĠÐ½Ð¸ÐºÐ° ÐºÐ¸Ñħ
L E
Ð²Ð° Ð½Ð¸Ð¸
ÑĩÐµ Ðµ
ĠÑģÑĤ Ð¾
Ð³Ð¾Ð² Ðµ
ĠÐ¿ÑĢÐ¾Ð±Ð»ÐµÐ¼ Ð°
ĠÐ´Ð¾Ð»Ð»Ð° ÑĢÐ¾Ð²
ĠÐºÐ¾ÑģÑĤ Ñİ
ĠÐ¡Ð¿Ð° ÑģÐ¸Ð±Ð¾
o u
ĠÐ ©
ĠÑĥ ÑĢ
ĠÐºÐ° ÐºÐ¸Ð¼
Ð¾ÑĢÐ¾ ÑĪ
ĠÐ½Ð¾Ð² Ð¾Ðµ
ĠÐ¿Ð¾Ð·Ð² Ð¾Ð»Ð¸
Ð»Ð¸Ð½ Ð´
ĠÐ´Ð¾ÑģÑĤÐ°Ð² ÐºÐ°
ĠÐ¿ÑĢÐ¸Ð½Ð¸Ð¼Ð° ÑĤÑĮ
ĠÐ¾ÑĤÐ½Ð¾ÑģÐ¸ ÑĤÑģÑı
ĠÐ¾Ð±Ð½Ð° ÑĢÑĥ
ĠÐ¸Ð·Ð¾Ð±ÑĢÐ°Ð¶ ÐµÐ½Ð¸Ñı
Ġ Q
ĠÐ² Ð¾Ð´Ð°
ĠÐ½Ð° ÑģÑĭ
ĠÐ¿ÑĢÐ¸ ÐµÐ¼Ð°
Ð¾Ð»ÑĮ ÑĪÐµ
Ð³Ð¸ Ð½
ÑĥÐ´ Ð¾Ð²
Ð½Ñĥ Ð»Ð°
ÑģÑĤÐ²Ð¸ Ð¹
ĠÐ¶Ð¸ ÑĤÐµÐ»ÐµÐ¹
ĠÐ¿Ð¾Ð»Ñĥ ÑĩÐ°ÑĤÑĮ
ĠÑĤÑĥ Ð´Ð°
ÑĨÑĥ Ð·
ĠÐĲÑĢ ÑħÐ¸
ĠÑģÐ»ÐµÐ´ÑĥÑİÑīÐ¸ Ðµ
ĠÑģÐ¼Ð° ÑĢÑĤ
Ð´ Ð¾Ð»
ÐµÐ½ ÑĤÐ¾Ð¼
ĠÐ¼Ð° Ð¹
ĠÐ²Ð¸ Ð´ÐµÑĤÑĮ
ĠÐ¾ÑĦÐ¸ Ñģ
ĠÐ¿Ð¾ÑĢÑıÐ´ Ð¾Ðº
ĠÑĢÐ°ÑģÐº ÑĢÑĭ
ĠÐ²Ð°ÐºÐ°Ð½ ÑģÐ¸Ð¸
ĠÑģÐ¾Ð¶Ð°Ð» ÐµÐ½Ð¸Ñİ
Ð° Ð´
ĠÐº ÑĢÐ¾
ĠÐ³ ÑĢÑĥÐ´
ĠÐ° Ð²Ð°
ÑīÐ¸ ÐºÐ¸
ÐºÑĤ ÑıÐ±ÑĢÑĮ
Ð½Ð¾Ð² ÑĮ
ĠÑģÐ¸ Ñħ
ĠÐ½Ð¾ ÑĩÑĮ
ĠÑĩÐ° ÑģÑĭ
Ð½ÐµÐ¹ ÑĪÐ¸Ñħ
ĠÐ¿Ñĥ ÑĤÑĮ
ĠÐºÐ°Ð¶Ð´ Ð¾Ð¼
it y
ĠÐ³Ð° Ð·Ð°
ĠÐ¿ÑĢÐ¸Ð½Ñı Ð»Ð¸
ĠÑĥÑĩÐµÑĤ Ð¾Ð¼
ĠÐ±Ð»Ð° Ð³Ð¾
ĠÐļ Ð¾Ð½ÐµÑĩÐ½Ð¾
ÑģÐµ Ð»
Ð¾Ðµ Ð´Ð¸
ÐµÐ· Ð´Ð°
ĠÐ¸Ð³ ÑĢÐµ
ĠÐ¸Ð½ÑĤÐµÑĢ Ð½ÐµÑĤÐµ
ÑĩÐ¸ÑĤÐ° ÑĤÑĮ
ĠÐ²Ð¾Ð¿ÑĢÐ¾ ÑģÐ¾Ð²
ĠÑģÑĥÐ´ ÑĮ
ĠÐ¿ÑĢÐ¾Ð²Ð¾Ð´Ð¸ ÑĤÑģÑı
ĠÐ²ÑĢÐµÐ¼ÐµÐ½ ÐµÐ¼
ĠÐļÐ°Ð·Ð° Ñħ
ĠÑĢÐµÐºÐ¾Ð¼ÐµÐ½Ð´Ñĥ ÐµÑĤÑģÑı
Ð¸ Ð¼Ð¾
Ð¼ Ð¾Ð»
ĠÐ° Ð½Ð°
ĠÐļ ÑĢÐ¸
Ġ- >
ÐµÐº Ð¾ÑĤÐ¾ÑĢÑĭÐµ
ĠÐ¿ÑĢÐ°Ð² Ð´Ð°
ĠÐ¿Ð¾ÑģÐ»ÐµÐ´ Ð¾Ð²Ð°
ĠÐ´ÐµÐ¹ÑģÑĤÐ²Ð¸ Ðµ
ĠÐĶÐ° Ð¶Ðµ
ĠÑĢÐµÐºÐ»Ð° Ð¼Ñĭ
ĠÐ±Ð¾Ð»ÐµÐ· Ð½Ð¸
u a
ĠÑģ ÑĩÐ°ÑģÑĤ
ÐµÑĤ Ð¾Ð²
ĠÐ´ Ð²Ð¾ÑĢ
Ð¾Ð¼ Ð°ÑĤ
ÑģÐº Ð¾Ð¿
ĠÐ¿ÑĢÐ¾ ÑħÐ¾Ð´Ð¸
ĠÐŀ ÑĤÐµ
ĠÐ¿ÑĢÐµÐ´ Ð¿Ð¾Ñĩ
ĠÐ¿ÑĢÐµ ÑģÑĤÑĥÐ¿
ĠÑĤÐµÑħ Ð½Ð¸ÐºÐ°
ĠÐ²ÑĭÑģÐ¾Ðº Ð¾Ð³Ð¾
ĠÐ¸ÑģÑĤÐ¾Ñĩ Ð½Ð¸Ðº
ĠÐļÑĢÐ°Ñģ Ð½Ð¾
ĠÑĢÐ¾ÑģÑģÐ¸Ð¹ ÑģÐºÐ¸Ñħ
ĠÑģÐ¸Ð¼ Ð¿ÑĤÐ¾Ð¼
ĠÑģÐ»Ð¾Ð² Ð¾
ĠÐ¸ Ð½Ð°ÑĩÐµ
ĠÐ¾ ÐºÐ°
ÑĤÐ¾ Ðµ
ĠÐ¿Ð¾Ð» Ñı
ĠÑģÑĤÐ° Ð½Ð¾Ð²
ĠÐ¥ Ð¾ÑĤÑı
ÑĢÐ¾Ðº Ð¸
Ð¾Ð³ÑĢÐ°Ð¼ Ð¼Ð°
Ð¾Ð»Ð½ ÑĨÐµ
ĠÑģÐµÑĢÐ´ ÑĨÐµ
Ñĩ ÑĳÑĤ
Ð· ÐµÐ¹
Ð· Ð¾ÑĢÐ°
Ð¿ Ð»ÐµÐºÑĤ
ĠÐļ ÐĲ
ĠÐļ Ð¸ÑĤÐ°Ð¹
ÐºÐ¾Ð² ÑĭÐ¹
ĠÐºÐ¾Ð¼Ð¿ Ð¾Ð·Ð¸
ĠÐ¿ÑĢÐ¾Ð´Ñĥ ÐºÑĤÑĭ
ĠÐ·ÐµÐ¼ Ð»Ðµ
ĠÐ¼Ð°Ð³Ð°Ð·Ð¸ Ð½Ð°
ĠÑģÐ¾Ð´ÐµÑĢÐ¶Ð° Ð½Ð¸Ðµ
Ð»Ð¸Ð¼ Ð¿Ð¸
Ð± ÑĢÐ¾
Ð¾Ð½ ÑĮ
Ð³Ð¾ ÑĤÐ°
ĠÐľ Ð¾Ð¶ÐµÑĤ
Ð·Ñĭ ÐºÐ°
ĠÐ¸ÑģÐ¿ Ð¾Ð»Ð½Ð¸ÑĤÐµÐ»ÑĮ
ĠÐ¾Ð±ÑĬ ÑıÐ²Ð»ÐµÐ½Ð¸Ñı
ÑģÑĤÐ°Ð²Ð¸ Ð»
ĠA l
ĠC ar
ĠÑĢÐµÐ·ÑĥÐ»ÑĮÑĤÐ° ÑĤÐ¾Ð²
ĠÐ¿ÑĢÐµÐ´Ð¾ ÑģÑĤÐ°Ð²Ð»ÐµÐ½
ĠÐ¿ÑĢÐµÐ´Ð»Ð°Ð³Ð° ÐµÐ¼
ĠÐ´Ð¸Ð° Ð¿Ð°Ð·
ĠÐ¿ÑĢÐ¸Ð¼ÐµÑĢ Ñĥ
ĠÐ¿Ð¾ÐºÑĥÐ¿ ÐºÐ¸
ĠÐ¿Ð¾Ð»Ð¾Ð¶ ÐµÐ½Ð¸Ñı
iv e
ĠÐ²Ð·Ð³Ð»Ñı Ð´
ĠÐ´ÐµÑĤÐ° Ð»Ð¸
O R
ĠÐ² ÐµÑĤÐµ
ĠÐ² ÑħÐ¾Ð´Ð¸ÑĤ
Ð¿ ÐµÐ²
ĠÐ½Ð° ÐºÐ¾Ð½
ĠÐ± Ð¾Ð³Ð°
ÐµÑĢ Ñĥ
ĠÐ¿Ð¾ ÑĢÐ°
ÐĴ ÐĶ
ĠÐ´Ð¸ Ñģ
ÑĢÐ¾Ð²Ð°Ð½ Ð½Ð¾Ð¹
ĠÐ¸Ð³ÑĢÐ¾Ðº Ð¾Ð²
. :
Ð½ Ð½Ð¾Ð¹
Ð½ ÐµÑĤÑģÑı
Ñĩ Ñĳ
ÑĢÐ° Ð²Ðµ
ĠÐ½Ðµ Ð´Ð¾ÑĢ
ÑĤÐ¸ Ð½Ð³
Ñį ÑĦ
ÐĶ Ðŀ
ĠÐ²Ðµ ÑīÐµÑģÑĤÐ²Ð°
200 7
ÑħÑĢÐ° Ð½Ð¸
ĠÐ·Ð½Ð°ÐºÐ¾Ð¼ ÑģÑĤÐ²Ð°
ĠÑģÐ¾Ð±Ñĭ ÑĤÐ¸Ð¹
ÑĢÐ¸ÑģÑĤÐ¸ Ð°Ð½
5 3
h one
ĠÐ½Ð° Ð»Ð¾Ð³
ĠÑĥ Ð´Ð¸
ĠÐ¿Ð¾Ð» Ð½Ð¾Ð¹
ĠÐĺ ÑĤÐ°
ÑĢÐ¾Ð²Ð° Ð½Ð¸Ð¸
ÐĶ Ð¾
ĠÑĢ Ð¾Ð´Ð°
ĠÐ·Ð½Ð° ÑĩÐµÐ½Ð¸Ñı
ÑģÑĤÐ²Ñĥ Ð¹ÑĤÐµ
ĠÑģÐ¾Ð¾Ð±ÑīÐ¸ Ð»
" :
Ð´ Ð¶Ð¸
Ð½Ð¸ Ð²ÐµÑĢ
ĠÑĥ Ð¶Ð°
ĠÐ½Ðµ Ð¼Ð°
Ð»Ðµ Ñģ
Ð¾Ð¶ Ð´Ðµ
ĠÐ» Ð¾Ð²
Ð·Ð° ÑĨÐ¸Ñİ
Ðļ Ð¸
ĠÐ²Ðµ Ð±
ĠÐ²Ð¸ Ð´Ð¸
ĠÐ¿ÑĢÐµ Ð·
ĠÐ¤ ÐµÐ´
ĠÑģÑĥ Ð´Ð°
ĠÑĢÐ°Ð±Ð¾ ÑĩÐµÐ³Ð¾
ĠÐ¸Ð¼ Ð¿
ĠÐ¾ÑģÐ½Ð¾Ð² Ð½ÑĭÐµ
ĠÐ¡Ð¸ ÑģÑĤÐµÐ¼
ÐµÑĢÐ¸ ÑĤÑĮ
ĠÑģÐ¾Ñģ ÐµÐ´
Ð¼Ð°Ð³Ð°Ð·Ð¸ Ð½
ĠÐ¿ÑĢÐ¾Ð¸Ð·Ð¾ÑĪ Ð»Ð¾
ĠÐ°Ð´Ð° Ð¿
5 7
ĠÐ½Ð° Ð²Ñĭ
Ð¾Ð± Ð¾ÑĢÐ¾ÑĤ
Ð¼Ð¸ ÑĤÐµ
ĠÐ¢ Ð¾Ð¼
ĠÐ´Ð¾ ÑģÑĤÐ¾Ð¹
ĠÑģÑĤÐ° Ð±Ð¸
ĠÐºÑĥ Ð¿Ð¸
ĠÐĲÐ² ÑĤÐ¾Ð¼
ĠÐ¾Ð±ÑĬÑıÐ² Ð»ÐµÐ½Ð¸Ð¹
E N
p t
Ð½ ÐºÐ°
ÑģÑĤ ÑĢÑĭ
ĠÐ¾ ÑģÑĤÐ°Ð²Ð»Ñı
ÑĤÐµ Ð»Ðµ
ĠÐ½Ð° ÐºÐ°
ĠÐ·Ð° Ñħ
ĠÐ¿ÑĢ Ð¾Ð¹ÑĤÐ¸
ĠÐ¶ ÐµÑĢÑĤ
ĠÐ¿Ð¾Ð´ Ð¿Ð¸ÑģÐ°
Ð´Ñĥ Ð¼Ñĭ
Ð¼Ð¾ÑĤ ÑĢÐ¸ÑĤÐµ
ĠÐ²Ð¾Ñģ Ð¿Ð°
Ð¾Ð³ÑĢÐ°ÑĦÐ¸ Ð¸
ĠÑģÐ¾ÑĨÐ¸Ð°Ð»ÑĮ Ð½Ð¾Ð¹
ĠÐŁÐµ ÑĢÐµÐ´
Ġhttp s
ĠÐ²ÑģÐ¿ Ð¾Ð¼
ĠÐ·Ð°ÐºÐ»ÑİÑĩÐ° ÐµÑĤÑģÑı
Ð» ÐµÑĤÐ¸
Ð² ÑıÑĤ
ĠÐº Ð»Ðµ
Ñī ÐµÑĢ
Ð¼ÐµÐ½ Ñĭ
ĠÐł ÐµÐ·
ĠÐ´Ð° ÑĤ
ĠÑģÐµÑĢ Ð´Ðµ
ĠÐ±Ðµ ÑģÐº
ĠÐ¼ÑĥÐ¶ ÑĩÐ¸Ð½Ð°
ĠÑģÐ¾Ð²ÑĢÐµÐ¼ÐµÐ½ Ð½ÑĭÑħ
ĠÐºÐ¾ÑĢÐ¿Ñĥ Ñģ
ĠÐ½ÐµÐ´Ð° Ð²Ð½Ð¾
ĠÐ¼ Ð¾ÑĤÐ¾ÑĢ
ĠÑĥ Ñħ
ĠÐ¿Ð¾ ÑıÑģ
Ñį ÑĤÐ°
ÑĩÐ¸ Ð¹
Ðĵ Ð£
ÐĽ Ðµ
ÐĽ Ðķ
Ġâ Ĩ
ĠÐ¼Ð½Ð¾Ð³Ð¾ Ðµ
ĠÐ·Ð°Ð´Ð° ÑĩÐ°
ĠÑģÐ¿ÐµÑĨÐ¸Ð°Ð»ÑĮ Ð½Ð¾
ĠÐ°ÐºÑĤÐ¸Ð² Ð½Ð¾
ĠÑģÐ²ÑıÐ·Ð° Ð½Ð¾
ĠÑģÑĤÑĢÐµ Ð¼Ð¸
ĠÐ¿Ð¾Ð»ÑĮÐ· Ñĥ
ĠÑģÐ¼ÐµÑĢ ÑĤÐ¸
ĠÐºÐ°ÑĢÑĤÐ¸Ð½ ÐºÐ¸
ÑĢÐµ Ñı
ĠÐ± Ð¾Ð¹
ÐºÐ° Ð¶Ð¸ÑĤÐµ
ÐºÑĥ Ð´Ð°
ÐºÐ¾Ð¼ Ñĥ
-- -
ĠÐķ ÑīÐµ
ĠÐ¾Ð´ Ð½
ĠÐ¾ÑĢÐ³Ð°Ð½Ð¸ Ð·Ð¼
ÑĤÐ¾ÑĢÐ¸ Ð¸
ĠÐ±Ð¾Ð»ÑĮÑĪ ÑĥÑİ
ĠÑĢÐµÐºÐ¾Ð¼ÐµÐ½ Ð´
ĠÐ³ÑĢÑĥ Ð½
ĠÐ´ÐµÑĢÐµÐ² ÑıÐ½
ĠÐ¾Ð¿Ð¸ÑģÐ° Ð½Ð¸Ðµ
ĠÐĶÐ¼Ð¸ ÑĤÑĢÐ¸
ÐµÐ½ Ð½ÑĥÑİ
ÑĤÐµ ÑĢÐ¾Ð²
ĠÐºÐ¾Ð½ ÑĦÐµÑĢÐµÐ½
ĠÐ²Ð° ÑĪÐ¸Ñħ
ĠÐ´Ð¸ Ð¿Ð»Ð¾Ð¼
ĠÐ·Ð½Ð° ÑİÑĤ
ĠÐ´Ð¾Ð¿ ÑĥÑģÐºÐ°
ĠÐ¼Ð¸Ð½ Ñĥ
ĠÑĥÐ½Ð¸ ÑĩÑĤ
ĠÐ²Ð¾Ð·ÑĢÐ° ÑģÑĤÐµ
ĠÑħÑĥÐ´ Ð¾Ð¶
ĠÐ¾ÑĤÐ²ÐµÑĢ ÑģÑĤÐ¸
ĠÐŁ ÐµÐ½
ĠÐ¡ Ð²Ñı
Ð³Ð¾ ÑĢÐ°
ĠÐ±Ð¾Ð»ÑĮ ÑĪÐ¸Ñħ
ÐµÑĢÐ° Ð¼Ð¸
ĠÐĴÐ¸ Ð´ÐµÐ¾
ĠÐ¼Ð¸Ð½Ð¸ Ð¼ÑĥÐ¼
ĠÐ½Ð°Ð·ÑĭÐ²Ð° ÐµÑĤÑģÑı
ĠÐ¿ÑĢÐµÐ´Ð¿ÑĢÐ¸Ñı ÑĤÐ¸Ð¹
ĠÑĦÑĥÐ½Ðº ÑĨÐ¸Ð¾Ð½Ð°Ð»ÑĮ
ĠÐĶÑĥ Ð¼Ñĭ
ĠÐ²Ð´ ÑĢÑĥÐ³
i an
ÑĢÐ° Ð½ÐµÐµ
Ð¿ ÐºÐ¸
Ñĳ Ð·
ĠÐ±ÑĥÐ´ ÑĤÐ¾
ĠÐ¸Ð½ÑĤÐµÑĢ ÑĦÐµÐ¹
ĠÑĢÐ¸ Ñģ
ĠÐ¸Ð½ÑģÑĤÑĢÑĥ Ð¼ÐµÐ½ÑĤ
ĠÐ¿ÑĢÐ¾Ð²Ð¾Ð´Ð¸ ÑĤÑĮ
ĠÐºÐ»Ñİ ÑĩÐµ
ĠÐ¿ÑĢÐ¾ÑģÐ¼Ð¾ÑĤ ÑĢÐ°
5 6
5 8
m ail
Ð¸ Ð¼Ð¸
ĠÐ² Ð½Ð¾Ð²ÑĮ
ĠÐº Ð¾ÑĢÐ¸
Ð²Ð° ÑİÑīÐ¸Ð¹
Ð¾Ð²Ð° ÑĢÐ¸
ÑĩÐ¸ Ñħ
ĠÐ¿Ð¾Ð´ ÐµÐ»Ð¸
Ð¿Ð° Ð½Ð¸Ð¸
Ð½Ñı ÑİÑĤ
ĠÐºÐ¾Ð½ ÑĤ
Ð±Ð¸ ÑĤ
Ð¾Ð»ÑĮÐ· Ñĥ
Ð¾ÐºÐ° Ñı
ĠÑģÑĢÐµÐ´ Ñĭ
ĠÑģÐ¾Ð· Ð½Ð°
ĠÑģÐ´ÐµÐ»Ð° Ð»
ĠÐŁÐ¾Ñĩ ÐµÐ¼Ñĥ
ĠÑģÑĨ ÐµÐ½Ð°
ÑįÑĦ ÑĦÐ¸ÑĨÐ¸
Ñĩ ÐºÐ¾Ð¹
ĠÑģ Ð´Ð°
ĠÑģ ÑĬ
ĠÐ½Ð° ÑĪÐ°
Ð¡ ÐµÑĢ
Ð¼Ðµ ÑĢÐ°
ĠÐ²Ð¸ ÑĢÑĤÑĥ
ĠÐ¿ÐµÑĢÐµ ÑģÐµ
ĠÐ´Ð¸ ÑģÐ¿
Ðĵ Ðĺ
Ð±Ð¾ÑĢ Ñĭ
ĠÐ¼Ð¾ ÐµÐ¹
ĠÐºÑĥÑĢ ÑģÐ°
ĠÐ¿ÑĢÐ¾Ð´Ð° Ð¶Ð¸
ĠÐºÐ½Ð¸ Ð³Ð°
ĠÐ²ÑĢÐ° Ñĩ
ĠÐĺÑģÐ¿Ð¾Ð»Ð½Ð¸ ÑĤÐµÐ»ÐµÐ¼
Ð³Ð¾ÑĤÐ° Ð²Ð»Ð¸
a z
ÑĢ Ð¿Ð¸
ĠÐº ÑĢÑİ
ÐºÑĤ Ð¾ÑĢÐ¾Ð²
ÐºÐ¾Ð² ÑĮ
ĠÐºÐ¾ÑĤÐ¾ÑĢ Ð¾Ð¼Ñĥ
ÑģÑĤÐ²ÐµÐ½ Ð½ÑĥÑİ
Ð¾Ñĩ Ð½Ð°Ñı
ĠÐ¿Ð»Ð° Ð½ÐµÑĤ
ĠÐ±Ð° Ð³Ð°
it e
ĠÑģÐµÐº ÑģÐ°
ĠÐ·Ð°Ð´Ð° ÑĩÐ¸
ĠÐ²Ð¾Ð·ÑĢÐ° ÑģÑĤ
ĠÐķÐ²ÑĢÐ¾Ð¿ Ñĭ
ĠÐ¿ ÑĥÐ±Ð»Ð¸Ñĩ
ÑĤÐ¸ ÐºÑĥ
Ð»Ðµ Ð³Ð°
ĠÐ¡ Ð¸Ð¼
ÐŁ Ðŀ
ĠÐ¿ÑĢÐµ ÑĤÐµÐ½
ĠÑģÑĤÑĢÐ° Ð½Ð°Ñħ
ĠÐ°Ðº ÑĤÐ¸Ð²Ð¸
ĠÐļÐ° Ð¶Ð´ÑĭÐ¹
Ġt o
ĠÐ²ÑĤÐ¾ÑĢ Ð¾Ð³Ð¾
ĠÐ¼ÐµÐ´Ð¸ ÑĨÐ¸
Ð½Ð°Ð´ ÑĨÐ°
ĠÐ½Ð°Ð·ÑĭÐ²Ð° ÑİÑĤ
Ġ k
Ð» Ð»Ñİ
ĠÑĦ ÑĢÐ¾Ð½
ĠÐ¿Ð¾Ð´ ÑĬ
ÑģÑĤÐ¾ Ð¸Ð½
Ðļ ÑĥÑĢ
ĠÐĳ ÐµÑĢ
Ðĺ ÑģÐ¿
Ðľ Ð¾ÑģÐº
ÑĥÐ¶ Ð´Ð°
ĠÐĴÐ° ÑģÐ¸
!! !!
ĠW indows
ĠÐ²ÑģÑĤÑĢÐµ ÑĩÐ¸
ĠÐ½Ð°ÑĢÑĥ ÑĪÐµÐ½Ð¸Ñı
ĠÐ¿Ð¾Ð¸ ÑģÐº
ĠÐ§Ðµ Ð»ÑıÐ±Ð¸Ð½
ec t
Ð¿Ð°ÑĢ ÑĤÐ°
ĠÐº Ð¸ÑĤÐ°Ð¹
Ð¾Ð» Ñĭ
ĠÐ° Ð»ÑİÐ¼Ð¸
ĠÐĶ Ð¾Ð³Ð¾Ð²
ĠÐ´Ñĥ ÑĪÐ¸
ĠÐ¿ÑĢÐ¾Ð³ÑĢÐ°Ð¼ Ð¼Ðµ
ĠÐ³Ð¾Ð´ Ð¾Ð²
ĠÑĤÑĢÐ° ÑħÐ°
ĠÑĥÐ¿ ÑĢÐ°Ð¶
ĠÑģÐ½Ð¸ Ð¶Ð°
ĠÐ¸ÑģÐ¿Ð¾Ð» Ð½ÐµÐ½Ð¸Ñı
A R
p p
Ð² ÑĮ
ĠÐ¿ Ð»Ñı
ĠÐ¸ Ð¼ÐµÐ½
Ð± Ð°ÑĢ
Ð²Ð° ÑİÑīÐ¸Ñħ
ĠÐ¾Ð± ÑīÐµÐ¹
ĠÐ¿ÑĢÐ¸ ÑĩÐµÐ¼
ÑģÐ¿ Ð¸
ĠÑģÑĤ Ð¾Ð¼Ð°ÑĤ
ĠÐŀ Ð´Ð¸Ð½
ĠÐ¿ÑĢÐµÐ´ ÑĥÐ¿ÑĢÐµ
ĠÐĵ ÑĢÑĥ
ĠÐ¿Ð¾Ð´Ð´ÐµÑĢÐ¶ ÐºÐ¸
ĠÐ²ÑĭÐ¸ Ð³ÑĢÑĭ
Ð¾ÑĢÐ¾Ð½Ðµ Ð¶
ĠÐļÐ½Ð¸ Ð³Ð¸
A S
ÑĤÐ¸ ÑĩÐµÑģÐºÐ¸
ĠÐ» Ð¾Ñħ
ĠÐ¿ÑĢÐ¸ Ðº
ĠÐł Ð¾Ñģ
ĠÐĲ Ð±
Ð½Ñĥ Ð¶Ð´
ÐµÐ´ ÐµÐ½Ð¸Ðµ
ĠÐ¾Ð±ÑĬ ÐµÐ´Ð¸
ĠÐ»ÑİÐ± Ð²Ð¸
ĠÐ²ÐµÑĢ ÑģÐ¸Ñı
ĠÐ´Ð²Ð¸ Ð¶ÐµÐ½Ð¸Ðµ
ĠÐ¢Ðµ Ñħ
ĠÑĢÐ°Ð·Ð¼Ðµ ÑĢÐ°
)) )
ĠÐ²Ð¿ ÑĢÐ°Ð²Ðµ
Ð± Ð°Ð½Ðº
Ð³ Ð¾ÑĤ
ĠÐ´ Ð°ÑĢ
Ð²Ð¸ Ð·Ð¸
Ð¼ÐµÐ½ Ñı
ĠÑħ Ð¾Ð´
ĠÐ¸Ð½ Ð´Ñĥ
ĠÐºÐ¾Ð½ ÐºÑĥ
ĠÑģÐ¿ ÐµÐºÑĤ
ĠÐłÐ¾ÑģÑģÐ¸ Ð¹
ĠÐºÐ°ÑĢ ÑĤÑĥ
ĠÐĺÐ½ ÑģÑĤÑĢÑĥ
Ð´ÑĮ Ð¼Ð¸
ĠÐ¿ÑĢÐµÐºÑĢÐ° ÑģÐ½Ð¾
ĠÐ¸Ð·Ð³Ð¾ÑĤÐ¾Ð² Ð»ÐµÐ½Ð¸Ñı
ĠÐ¾ÑĤÐµ ÑĩÐµ
ÑĤ Ð½Ð°Ñı
Ð¿ ÐµÐ½Ð½Ð¾
ĠÐ½Ð° Ð½ÐµÑģ
ĠÐ·Ð° Ð¸Ð½ÑĤÐµÑĢÐµÑģ
ĠÑĤ Ñİ
ĠÐĳ Ð»Ð¾Ðº
Ð»ÐµÐ½ Ð½Ð°Ñı
ĠÐ²Ð¾ ÑģÐº
ĠÑħÐ¾ÑĢÐ¾ ÑĪÐ¸Ð¹
Ð³Ðµ Ð»ÑĮ
ĠÐ·Ð°Ð½Ð¸Ð¼Ð° ÐµÑĤ
ĠÑĥÑģÐ¿Ðµ ÑĪÐ½Ð¾
ÐŁÐµÑĤÐµÑĢÐ±ÑĥÑĢ Ð³Ð°
ĠÐ¿Ð¸ÑģÑĮ Ð¼ÐµÐ½
ĠÐ¸Ð½ÑĦ ÐµÐº
? ?
Ðº Ð¾Ð±
ĠÐ¸ ÑĤÐ°Ð»ÑĮÑıÐ½
ĠÐ± Ð°Ðº
ĠÑĩ ÑĢÐµÐ·
Ð»Ðµ Ð²Ð¾Ð¹
ĠÐ¿Ð¾Ð´ Ð±Ð¾ÑĢ
ĠÐĲ ÑĦ
ĠÐ¿Ð¾Ð» Ð¾Ð²
ÐĿ Ñĥ
ĠÐĳ Ð¾Ð»ÐµÐµ
ĠÐ¸Ð½ÑĤÐµ Ð»Ð»ÐµÐºÑĤ
200 6
ĠÑģÐ¿Ð¾ÑģÐ¾Ð± Ð¾Ð¼
ÑīÐµÐ½ Ð¾
ĠÐŁÑĢÐ¾ ÑĦÐµÑģÑģÐ¸Ð¾Ð½Ð°Ð»ÑĮ
ĠÑĤÑĢÑĥ Ð´Ð¾Ð²
ĠÐ±Ð¾Ð»ÑĮÑĪ Ð¾Ð³Ð¾
ĠÐºÐ²Ð°ÑĢ ÑĤÐ¸ÑĢÑĥ
ĠÑĥÐ´Ð¾Ð± Ð½Ð¾
ĠÐ¶ÑĥÑĢ Ð½Ð°Ð»Ð¸
ĠÑģÑĥÑĤ ÐºÐ¸
ĠÐ¿ÐµÐ´Ð°Ð³ Ð¾Ð³Ð¸
Ð² ÑıÐ·Ð°
ĠÐ¿ Ð¾Ð¶ÐµÐ»Ð°
ĠÐ¿Ð¾ ÑģÑĤÑĥÐ¿Ð¸
Ð¾Ð»ÑĮ Ð½ÑĭÐµ
ĠÐ²Ñĭ ÑĢÐ°
ÑĪÐ¸ Ð¿
ÑīÐ¸ Ð½Ñĭ
ĠÐľ Ðŀ
Ð³Ð¸ Ñİ
ĠÐºÐ¾Ð¼ Ð½Ð°ÑĤ
ĠÐĿÐ° ÑĪÐ¸
Ð²Ð°ÑĢ ÑĤÐ¸
ĠÑĨÐ¸ ÐºÐ»
ĠÐ¸ÑģÑĤÐ¾ÑĢÐ¸ Ñİ
ĠĠĠĠ ĠĠĠĠ
ĠÐ³Ð¸Ð´ ÑĢÐ¾
ĠÐ¿ÑĢÐ¸ Ð²Ð¾Ð´Ð¸ÑĤ
ĠÑĤÐµ ÑĢÑı
Ð°Ð½ ÑĮ
ĠÑģÐ² ÐµÑĤÐ¸
ĠÐ¢ ÐµÑĢ
ĠÐ¼Ðµ Ð±ÐµÐ»Ð¸
Ð±Ð° ÑĢÐ¾Ð²
Ð»Ð¾Ð¶ ÐµÐ½Ð¸Ðµ
ĠÐ¿ÑĢÐ°Ð²Ð¸ Ð»
ĠÑĢÐµÐ³Ð¸ Ð¾Ð½Ðµ
ÑģÑĤÑĢÐµ Ðµ
ĠÐ¿ÑĢÐµÐ´Ð»Ð¾Ð¶ ÐµÐ½Ð¸Ðµ
ĠÐ¡ÑĤ ÑĢÐ¾Ð¸
ĠÑģÐ»ÐµÐ´ÑĥÑİÑīÐ¸ Ð¹
Ð¼Ð°Ð³Ð°Ð·Ð¸ Ð½Ðµ
ĠÐ¾Ð±ÑĢÐ°ÑĤÐ¸ ÑĤÑĮÑģÑı
Ñģ Ð½ÑĭÐ¹
Ð¶ Ð½Ð¾Ðµ
Ð»ÑĮ Ð½Ð¾ÑģÑĤÑĮ
ÑģÐº Ð¾ÑĢ
ĠÐ± ÑĥÑĢ
ĠÐ·Ð° Ð²Ðµ
Ð¾Ðº Ð¸
ĠÐ¿ÑĢÐ¾ ÑĦ
ĠÐºÐ¾Ð¼ Ð¸ÑĤ
ĠÑģÐ¸ Ð»ÑĮ
Ð½Ñĥ Ð»Ð¸
Ð¾Ð¶Ð¸ Ð´Ð°Ð½
ĠÐ¦ ÐµÐ½Ð°
ĠÐĴÐ° ÑĪÐ¸
Ð²Ð°Ñı ÑģÑĮ
ĠÐºÑĢÐ°Ð¹ Ð½Ðµ
ĠÐ´ÑĢÐµ Ð²Ðµ
Ñĥ ÑģÑĤÑĢÐ¾Ð¹
Ð² Ð»Ð°
Ð»ÑĮ Ð½Ð¸ÐºÐ°
ĠÐ³ ÑĢÐ°Ð½
ĠÐ·Ð° ÑĢ
ĠÑģÑĤ Ð¾ÑĢ
ĠÐ¿Ð¾Ð´ ÑĢÐ°Ð·Ð´Ðµ
Ð»Ñİ Ð±
ÑīÐ° ÑİÑĤÑģÑı
ĠÑģÐ»Ñĥ ÑĪÐ°
ĠÐ¿Ð¾Ð»ÑĥÑĩÐ¸ ÑĤÐµ
Ð»Ð°Ð½ Ð´
ÑĢÐ°Ð±Ð¾ÑĤÐ° ÑĤÑĮ
ĠÑĤÐµÐ¼Ð¿ÐµÑĢÐ° ÑĤÑĥÑĢÑĭ
ĠÐ°Ð½Ð°Ð»Ð¸ Ð·
ĠÐŀÑĢ Ð³Ð°Ð½Ð¸
ĠÐºÐ»Ñĥ Ð±Ð°
5 9
6 3
ÑĤ ÑĦÐ¸Ð»ÑĮ
Ð± ÐµÑĤ
Ð²Ð° Ð»Ð°ÑģÑĮ
ĠÐºÐ° ÐºÐ°Ñı
ĠÐŁ Ð¾Ð²
ĠÑĢÐµ Ð´
ĠÐ»Ð¸ Ð½
ÑĢÐ°Ð½ Ñģ
Ð¾ÐºÐ° ÑĩÐµ
Ðĳ Ð°
Ð¾ÑĢÐ¾ ÑĤÐ°
ĠÑģÐ°Ð¹ ÑĤÐ¾Ð²
ĠÑĦÐ¾ÑĢ ÑĥÐ¼Ðµ
Ð§ Ðµ
ĠÐ¾ÑĤÐ½Ð¾ ÑĪÐµÐ½Ð¸Ð¹
ĠÐ±ÑĥÐº Ð²Ð°
Ñģ Ð½ÑĭÑħ
ĠÐ¸ Ð½Ð¸ÑĨÐ¸
ÑĪ Ð»Ð¾
ĠÑĥ Ð»Ñĭ
ĠÐ·Ð° ÑĢÑıÐ´
ĠÐ·Ð° ÐºÐ¾Ð½Ð°
Ð¾Ðº Ð¾Ð¼
ĠÐ¿ÑĢÐ¸ ÑĩÐ¸Ð½
ÑĩÐ° ÐµÑĤÑģÑı
ĠÑĦ Ð°ÑĢ
ĠÑģÐ² ÐµÑĢ
Ð¶Ðµ Ðº
ĠÐ¸Ð½ ÑĤÐ¸Ð¼
ĠÐĳ ÐµÑģÐ¿Ð»Ð°ÑĤ
ÑĨÐ¸Ð¾Ð½ Ð½Ð¾
ÑĩÐµÐ½ ÐºÐ¾
en d
ĠÐ±Ðµ Ñģ
ĠÑģÐ²Ñı Ð·ÑĮ
ĠÐ·Ð°Ð´Ð° Ñĩ
ĠÑĢÐ°Ð´Ð¸ Ð¾
ĠÐ½ÐµÐ±Ð¾Ð»ÑĮ ÑĪÐ¾Ð¹
Ð¾ÐºÐ°Ð·Ð° ÑĤÑĮ
ĠÐ¾Ð¿ÑĤÐ¸ Ð¼Ð¸
5 4
Ġ y
Ñħ Ð°Ð»
ĠÐ½Ðµ ÑģÐ¼Ð¾ÑĤÑĢÑı
ĠÂ ©
Ðļ Ð¡
ĠÐ¼Ð¾ Ñı
ÑıÐ± ÑĢÐµ
ĠÑĪÐ¸ Ð½Ñĭ
ĠÑĩÐ¸Ñģ Ð»Ð°
ĠÐ¶ÐµÐ»Ð° Ð½Ð¸Ðµ
ĠÐºÐ¾Ð½ÑĤÑĢ Ð¾Ð»Ð¸
ÐĺÐ½ ÑĤÐµÑĢ
ĠÐ±Ð°ÑĤÐ° ÑĢÐµÐ¸
ĠÐ¿Ð¾Ð·Ð¸ ÑĨÐ¸Ð¸
Ġ re
Ð¼ ÑĭÑħ
ÐµÐ½ Ð½Ð¾ÑģÑĤÐ¸
ĠÐ¸ Ð±Ð¾
ĠÐ½Ðµ Ð³Ð°
ĠÐŀ Ð¿
ĠÐ»Ð¸ ÑĨÐµ
ÑĢÐ¾Ð²Ð° Ð»
Ðł Ð£
ĠÐ¾Ñģ Ð½Ð¾Ð²Ð°Ð½Ð¸Ñı
ĠÐ»Ñİ Ð´ÑĮÐ¼Ð¸
ĠÑĢ Ð¾Ð¼Ð°Ð½
Ð»Ð¾Ð¶ Ð¸ÑĤÑĮ
ÐŃ Ðº
ĠÐ¿Ð¾ÑģÐ»ÐµÐ´ Ð½Ð¸Ñħ
ĠÐ¡Ð¾ ÑĨÐ¸Ð°Ð»Ð¸
ĠÐ£ÐºÑĢÐ°Ð¸ Ð½Ð°
ĠÑģÐ¼Ð¾Ð³ ÑĥÑĤ
S B
Ñģ Ð¾ÑĢ
Ð³Ð° ÑĤÑĮ
ÑĢÐ¾Ð² Ð¾Ð´
ĠÐĳ Ð¾Ð³Ð°
in o
ĠÑĢÐ°ÑģÐ¿ Ð¾ÑĢÑı
ĠÑģÐµÑĢ Ð´ÑĨÐ°
Ð¥ ÐŁÐĺ
ĠÐ¼Ð°Ð³Ð°Ð·Ð¸ Ð½Ñĭ
as h
ĠÐ¿Ð¾Ð²Ñĭ ÑĪÐµÐ½Ð¸Ñı
ĠÑģÐ¿Ð° ÑģÐ¸Ð±Ð¾
ĠÐ³Ð¾Ð»Ð¾Ð² Ñĥ
ĠÐ½ÐµÑĦ ÑĤÐµ
ĠÐ·Ð°Ð¿Ð¸ ÑģÐ¸
Ð¢Ð°Ðº Ð¶Ðµ
ĠÐ±Ð¾Ð»ÑĮÑĪÐ¸Ð½ ÑģÑĤÐ²Ð¾
ĠÐ°ÑģÑģÐ¾ÑĢÑĤÐ¸ Ð¼ÐµÐ½ÑĤ
Â ©
Ġ *
Ð¾ Ð¾Ñħ
ĠÐ½Ð° ÑĪÐµ
ÑĩÐµ Ð²
ÑģÐ¿ ÐµÐºÑĤÐ¸Ð²
ĠÐºÐ°Ð¶Ð´ Ð¾Ð¼Ñĥ
ĠÐ¿Ð¾ÑģÐ»ÐµÐ´ Ð½Ð¸Ð¹
ĠÐ´Ð¾Ð¿ Ð¾Ð»Ð½Ð¸
ĠÑĦÐ¸Ð»ÑĮ Ð¼Ð°
ĠÐŁÐ¾Ñģ Ð»ÐµÐ´
ĠÑģÐ¾ÑĨÐ¸Ð°Ð»ÑĮ Ð½ÑĭÑħ
ĠÐ¾Ð±ÑĥÑĩ ÐµÐ½Ð¸Ðµ
ĠÐ²Ð·ÑĢÐ¾Ñģ Ð»ÑĭÑħ
Ġï¿½ï¿½ï¿½ï¿½ ï¿½ï¿½ï¿½ï¿½
ĠÐ¿Ð¾ÐºÐ¾Ð» ÐµÐ½Ð¸Ñı
v er
Ð´ Ð»Ñı
ĠÐ¾ ÑĦÐ¾ÑĢÐ¼Ð¸
ĠÐ± Ð»Ð¾Ð³
Ð¾Ð± Ð»Ð°
ĠÐ» ÐµÐº
ĠÐĴ ÑģÑĳ
ĠÐļ Ð¾ÑģÑĤ
ĠÐ¿Ð¾Ð´ Ð¾Ð·
ĠÑħ Ð¾ÑĤ
ĠÐ´Ð¾ ÑģÑĤÑĥÐ¿Ð°
ĠÑĪ ÐºÐ¾Ð»Ðµ
Ð¾Ð´Ðµ Ð»ÑĮ
ĠÐ¸Ð¼ Ð¼Ñĥ
Ð±Ñı ÑĤÐ°
ĠÐ¿ÑĢÐ¾Ð³ÑĢÐ°Ð¼ Ð¼Ñĥ
ĠÑĩÐµÐ»Ð¾Ð²Ðµ ÐºÑĥ
ĠÐ³Ð¾ÑĢÐ¾Ð´ ÑģÐºÐ¾Ð¹
ĠÐ¾ÑĤÐ²ÐµÑĤÑģÑĤÐ²ÐµÐ½ Ð½Ð¾ÑģÑĤÑĮ
7 2
Ġ ÑīÐ¸
ĠÐ¼ Ð¾ÑĤÐ¸
ĠÐ³ Ð¾Ð½
ÑģÑĤÐ° Ð¼
ĠÑģÑĤ Ð¾Ð»ÑĮÐºÐ¾
ĠÑĤÐµ Ð¼Ðµ
ÐŁ ÐŁ
ĠÐ²Ðµ ÑģÑĤÐ¸
Ð³Ñĥ Ð»Ð¸
ÑĢÐ¾Ð²Ð°Ð½ Ð½Ð¾Ð³Ð¾
Ð¾Ð³ÑĢÐ°ÑĦÐ¸ Ñı
ĠÑģÐµÐ³Ð¾Ð´Ð½Ñı ÑĪÐ½Ð¸Ð¹
ĠÐĲÐ´ Ð¼Ð¸Ð½Ð¸ÑģÑĤÑĢÐ°
ĠÑĢÐ°ÑģÑģÐºÐ°Ð·Ð° Ð»
ĠÑģÐ²Ð° Ð´ÑĮ
ĠÐ¿Ð¾Ð·Ð½Ð° ÐºÐ¾Ð¼
Ġ ÑĢÐ¾Ð²
Ð² ÑĢÐ°ÑĤ
ĠÐ¿ Î¿
ĠÐ½ Ð¾Ð¼Ð¸Ð½Ð°
Ð»ÑĮ Ð½Ð¾ÑģÑĤÐ¸
ÑĦ Ð¾Ð½Ñĭ
ÑĩÐ¸ Ð²Ð°ÑĤÑĮ
Ð²Ð¸ ÑĤ
Ð¡ Ð¿
ĠÐĶ ÐµÐ²
ÐĴ Ð¾Ð·
ĠÐ»Ð¸ ÐºÐ²Ð¸
Ð±Ð° Ñı
ÑģÑĤÐ¾ÑĢÐ¸ Ñı
ÐºÑĤÐ¾ÑĢ Ñĭ
ĠÐ¿ÐµÑĢÐ¸ Ð¾Ð´Ð¸
ĠÐ¸ÑĤ Ð¾Ð³
ĠÐ³Ð°ÑĢ Ð¼Ð¾
5 2
ĠÐ² ÑģÑĤÑĢÐ¾
ÐµÐ½ Ð¾Ñģ
Ð¿ ÑĢÐµÐ´
ĠÐ¾ ÑģÑĤÐ°Ð²
ÑĢÐ¸ Ð°
ĠÐŁ ÐµÑĤÐµÑĢÐ±ÑĥÑĢ
ÐĴ Ð¾ÑĤ
ĠÐ¾ÑģÐ¾Ð± Ð¾
ĠÑĢÐ°ÑģÑģ ÑĩÐ¸ÑĤÑĭ
ĠÐ¿ÑĢÐ¸Ð¼ÐµÐ½ ÐµÐ½Ð¸Ðµ
ÑģÑĤÐ²ÑĥÑİÑīÐ¸ Ñħ
ĠÐ°Ð²ÑĤÐ¾ Ð½Ð¾Ð¼
ĠÑģÐºÐ¾ÑĢÐ¾ ÑģÑĤÐ¸
ĠÐ¿Ð¾Ð»Ð¾Ð¶ ÐµÐ½Ð¸Ðµ
ĠÑħÑĥÐ´ Ð¾Ð¶Ðµ
Ġ== =>
Ġ on
Ð¾Ñģ Ð½Ð¾Ð²Ð°
ĠÐ²Ñĭ Ð¿
ĠÐ¿ÑĢÐ¾ Ñħ
ĠÐ¶ Ð°ÑĢ
ĠÐĺ Ñİ
ĠÐ´Ð¾ ÑģÑĤÐ¾Ð¸Ð½
ĠÑģÑĥ Ð¿
ÐµÐ² Ð½Ð°
ĠÐ½Ð¾Ð² ÑĥÑİ
ÐºÐ»Ñİ ÑĩÐµÐ½Ð¸Ñı
ĠÐ½Ð°ÑĩÐ° Ð»Ð¸
ĠÑĤÐµÑĢ Ð¼Ð¸
ĠÑģÑĩÐ¸ÑĤÐ° ÐµÑĤ
ĠÑĦÐ¾ÑĢÐ¼Ð° ÑĤÐµ
ĠÐ¾Ð±ÑģÐ»ÑĥÐ¶Ð¸ Ð²Ð°Ð½Ð¸Ñı
ĠÐ¿ÑĢÐ¸Ð½Ð°Ð´ Ð»ÐµÐ¶Ð°
ĠÐºÐ°Ð»ÐµÐ½ Ð´Ð°ÑĢ
Ð» ÐºÐµ
Ð¼ Ð³
ĠÐ² Ð½Ð¸
ÐµÑĤ ÐºÐ¸
Ð¶ ÐµÐ½Ð¸Ñİ
Ð¾ÑĤ Ð²ÑĢÐ°
ĠÐ½Ðµ Ð·Ð½Ð°
ĠÐ¿Ð¾ ÑģÑĤÐ°Ð²Ð¸ÑĤÑĮ
ĠÐ·Ð° ÑĢÑĥÐ±Ðµ
ÐºÐ¾Ð² Ð¾Ð³Ð¾
ĠÑĤÐ¾ÑĢ Ð¶Ðµ
ĠÐ°Ð½Ð°Ð»Ð¸ Ð·Ð°
ĠÐ¢Ð¸ Ð¿
ĠÑģÑĥÑĤ Ð¾Ðº
. ).
8 8
Ð° Ñı
ĠÐ¼ Ð¾Ð½Ð°
ĠÐ·Ð° Ð¿Ð»Ð°
Ð´Ð¸ Ð»Ð¸
Ð¼Ðµ Ð»ÑĮ
ĠÐ¾Ð¿ ÑĤÐ¾Ð¼
Ð¼Ñĭ ÑĪ
Ð¤ ÐĹ
ĠÑģÐ¿Ðµ ÑĨÐ¸
ĠÑĥÑģÑĤÑĢÐ¾Ð¹ ÑģÑĤÐ²Ð¾
ĠÑħÐ¸ ÑĢÑĥÑĢ
ĠÐ¿Ð¾Ð³Ð¸ Ð±
ĠÑģÐ¾Ñħ ÑĢÐ°Ð½
ÑģÑĤ Ð½ÑĭÐµ
ĠÐ± Ð°Ð¼
ĠÐ¾Ð± ÑīÐµÑģÑĤÐ²
ĠÐŀ ÐºÑĤÑıÐ±ÑĢÑĮ
Ðŀ Ð½
ÐĶ Ð¾Ð±
ĠÐ´Ð° ÑİÑĤ
ĠÐ³Ð¾ÑĢ Ð¸Ð·
ĠÑģÐ° Ð¼Ð°Ñı
ĠÑĢÐµÐ· ÑİÐ¼Ðµ
ĠÑĥÑģÑĤÐ°Ð½Ð¾Ð² ÐºÐ°
ĠÐ°Ð½ Ð´
ĠÐ½Ð°Ð¼ Ð½Ð¾Ð³Ð¾
of t
ĠÐºÐ¾Ð»Ðµ Ð±Ð°
ĠÐ¾ÐºÐ¾Ð½ÑĩÐ° Ð½Ð¸Ñı
ÑĤÑĮ Ð¸
ĠÑĢÐµ Ð²Ð¾Ð»Ñİ
ĠÐ¸Ð· Ð¾Ð±
ĠÐĿ ÐĶ
ĠÐĲ Ð¼ÐµÑĢÐ¸
Ð»ÐµÐ½ Ð½ÑĭÐ¼
ĠÐ»ÑİÐ± ÑĥÑİ
ÑĦÐµ ÑģÑģ
ĠÐ°ÑĢ Ð¼Ð¸
ĠÐ¿ÑĢÐ¾Ð´Ð° Ð¶Ð°
ra ck
ĠÑģÐ¾Ð±ÑģÑĤÐ²ÐµÐ½ Ð½Ð¾ÑģÑĤÐ¸
ÑĤÑı Ð³Ð¸
Ð½Ð¾Ð²Ð¸ Ð´
ĠÑįÐºÐ¾Ð½Ð¾Ð¼Ð¸ ÐºÐ¸
ĠÑģÑĢÐ°Ð² Ð½Ð¸
ĠÑĢÐ°ÑģÐ¿ÑĢÐ¾ ÑģÑĤÑĢÐ°
ĠÐ¾Ð±ÑģÐ»ÑĥÐ¶Ð¸ Ð²Ð°Ð½Ð¸Ðµ
ĠÐ½Ð°ÐºÐ¾Ð½ ÐµÑĨ
ĠÐ² ÑĢÑĥ
ĠÐ½ ÐµÐ½Ð°
Ñħ Ð³Ð°Ð»
Ġ- ---
ĠÐºÐ¾Ð½ ÑĨÐµÐ½ÑĤ
Ð¾Ð¸ ÑģÐº
ĠÐ·Ð½Ð° Ð½Ð¸Ð¹
ÐĽ Ð¯
ĠÐ¦ ÐµÑĢ
at e
ĠR e
ĠÐ±Ð¸ Ð¾ÐºÐ°
ĠÐ´Ð¾Ð¿Ð¾Ð»Ð½Ð¸ÑĤÐµÐ»ÑĮ Ð½ÑĭÐµ
ĠÑĥÐ½Ð¸Ð²ÐµÑĢÑģÐ¸ÑĤ ÐµÑĤÐ°
ĠÐ±ÐµÑĢÐµÐ¼ÐµÐ½ Ð½Ð¾ÑģÑĤÐ¸
ĠÐĵÐµÑĢÐ¼Ð° Ð½Ð¸Ð¸
ĠÐ¾ ÑģÑĤÐ°Ð²Ð¸ÑĤÑĮ
Ð¾Ðº Ðµ
ĠÐĴ Ðŀ
ĠÐ»Ðµ ÑĩÐµÐ±
ĠÑĨÐµ Ð»ÐµÐ¹
Ð¾Ð³Ð° Ñħ
ĠÐ¼Ð½Ð¾Ð³Ð¾ ÑĩÐ¸Ñģ
ĠÑıÐ·Ñĭ ÐºÐµ
ĠÑĩÐ°ÑģÑĤÑĮ Ñİ
ĠÐ·Ð°Ð¿Ð° Ð´
1 10
Ð¿ ÐµÑĤÐ¸
ĠÐ¼ ÑıÑģ
Ñį ÑĤ
ĠÐºÐ° ÐºÐ¾Ðµ
ĠÐ¸Ð· Ð±Ð¸ÑĢÐ°
ĠÐľ Ð°Ñģ
ĠÐ±Ñĭ ÑģÑĤÑĢÐµÐµ
ĠÐĺ Ð¼
ĠÑģÐ¿ Ñĥ
ĠÑģÐ¸ Ð´
ĠÑĢÐµÐ· ÐµÑĢ
ĠÐ¾Ð¿ÑĢÐµÐ´Ðµ Ð»Ð¸ÑĤÑĮ
ÑĢÐ°Ð±Ð¾ÑĤ ÐºÐ¸
ĠÐ¾Ð±ÐµÑģÐ¿Ðµ ÑĩÐ¸ÑĤÑĮ
ĠÑħÐ¾Ð» Ð¾Ð´Ð¸
ĠÑĦÐ¸ÑĢ Ð¼Ñĭ
ÐµÑħÐ° ÑĤÑĮ
ĠÐ²Ð¾ÑģÐ¿Ð¾Ð»ÑĮÐ·Ð¾Ð²Ð° ÑĤÑĮÑģÑı
ĠâĨ Ĵ
Ð¸ Ðº
ÑĤ Ð½ÑĭÐ¼
Ð² ÑĪÐ¸Ð¼
ĠÑģ ÑĩÐ°
ĠÐ¼ Ð½Ð¾Ð¹
ĠÑĥ ÑİÑĤ
Ð¾Ð²Ð° ÑĢÑĭ
ĠÐļ ÑĥÐ±
ĠÐ¿ÑĢÐ¾ ÑĪÐµÐ»
ĠÐĶ Ð¾Ð¼Ð°
Ð²Ðµ ÑĢÐ°
Ð¿Ð¸ ÑģÑĮ
ĠÐ»Ð¸ Ð½ÐµÐ¹
Ð¾Ð½Ð° ÑĩÐ°
ĠÐ¿ÐµÑĢÐµ Ð¶Ð¸
ĠÐ¿ÐµÑĢÐ² Ð¾Ðµ
ĠG o
ĠÑģÐµÐ¼ ÑĮÐµ
ĠÐľÐ¸ ÑħÐ°
ĠÐ¸ÑģÑģÐ»ÐµÐ´ Ð¾Ð²Ð°Ð½Ð¸Ð¹
ĠÐ¾Ð´Ðµ Ð¶Ð´Ð°
ÐŀÑģ Ð½Ð¾Ð²
Ð°ÑĢÑĮ ÐºÐ¾Ð²
l ine
Ð° Ð¿
ĠÑģ Ð½ÑıÑĤÑĮ
ÑĤÐ° Ð»Ð¾Ð³
ÑĦ Ð¾Ð²
ĠÐ½Ðµ Ð´
ĠÐ³ Ð»Ð¾Ð±
ĠÑĤÐ° Ð±Ð»Ð¸
ĠÐĶ Ñį
ĠM ar
ÑīÐµÐ½ Ð½ÑĭÐµ
ĠÐ¼Ð°ÑĪÐ¸ Ð½Ð°
ĠÐ¸ÑģÑĤÐ¾Ñĩ Ð½Ð¸ÐºÐ¾Ð²
ĠÐ¿ÐµÑĢÐµÐ´Ð° ÑĩÐ¸
ĠÐ½Ð°Ñĥ ÐºÐ¸
ĠÐ½Ð¾Ð¼ ÐµÑĢÐ°
ag e
ĠÐĺÑģÐ¿Ð¾Ð»Ð½Ð¸ ÑĤÐµÐ»Ñı
ĠÑįÐºÑģÐº ÑĥÑĢ
Ñģ Ð»Ð°Ð²
Ð¼ ÑĥÑİ
ĠÐ² Ñĥ
ĠÐŀ Ð»ÑĮ
Ð¼ÐµÐ½ ÑĤÐ¾Ð¼
ĠÐ¿Ð¾Ð» Ð¾ÑĤ
ĠÐºÐ¾ÑĤÐ¾ÑĢ ÑĭÐ¼Ð¸
ĠÐ²Ð¸ Ð´Ñĥ
in t
ĠA d
ÑĢÐ°Ð»ÑĮ Ð½ÑĭÑħ
ĠÑĢÐ°Ð·Ð²Ð¸ ÑĤÐ¸Ñİ
as s
ĠÐ¾ÑģÑĥÑīÐµÑģÑĤÐ² Ð»Ñı
ĠÑĥÑģÑĤÑĢÐ¾Ð¹ ÑģÑĤÐ²
ĠÑĪÐºÐ¾Ð» Ð°
ĠÐ¾Ð³ÑĢÐ°Ð½Ð¸ ÑĩÐµÐ½
Ð»ÑİÐ´ ÐµÐ½Ð¸Ñı
oc k
Ð± ÐµÐ·
ĠÐ¼ Ð¾ÑĤ
ÑĪ Ð°Ð½
Ð¾Ð²Ð° Ð½Ð¸Ñİ
ĠÐ¿ÑĢÐ¾ ÑģÑĤÐ¾Ð¹
ÑĪÐ¸ Ð»
ĠÑĤÐµ Ð»Ð¾
ĠÐŀ Ðĳ
ĠÐĵ ÑĢÐ°
Ð°Ðº Ð¾Ð¼
ĠÐ²Ðµ Ð´Ð¾Ð¼
ĠS h
ĠÐ´ÐµÑĤ ÑıÐ¼
ĠÐ¼Ð¾Ð» Ð¾ÐºÐ°
ÑģÑĤÐ°Ð½ ÑĨÐ¸Ð¸
ĠÐ²Ð¾Ð´ Ð¾
ĠÐ¿ÑĢÐ¸Ð³Ð¾ÑĤÐ¾Ð² Ð»ÐµÐ½Ð¸Ñı
Ð¦ÐµÐ½ÑĤ ÑĢ
ĠÐ¸ ÑģÐºÐ°
ĠÐ¿ÑĢÐ¸ Ð²ÐµÑģÑĤÐ¸
ĠÐļ ÑĢÐ°
ĠÐ¿ÑĢÐ¾ ÑģÑĮ
Ðŀ Ð¿Ð¸ÑģÐ°Ð½Ð¸Ðµ
ĠÐĳ Ð¾ÑĢÐ¸
Ð¾Ð»ÑĮÐ·Ð¾Ð²Ð° Ð½Ð¸Ðµ
ĠÐ±Ð° Ð»Ð°Ð½
ĠÐŁÑĢÐ¾ ÑģÑĤÐ¾
ĠÐ¾ÑĤÐ´Ðµ Ð»ÑĮÐ½ÑĭÑħ
ĠÐ»Ð° Ð±Ð¾ÑĢÐ°
ÑĤÐµÐ½ ÑģÐ¸Ð²
ĠÐºÑĢÑĥÐ¿ Ð½ÑĭÑħ
ĠÑįÑĦÑĦÐµÐºÑĤÐ¸Ð² Ð½Ð¾ÑģÑĤÐ¸
ĠÐ¿Ð¾ÐºÑĢÑĭ ÑĤÐ¸Ñı
ĠÑĤÐµÐ¾ÑĢÐ¸ Ð¸
ÑĤ Ð¾Ð¿
Ð² ÑĪÐ°Ñı
Ñĩ Ð½Ð¸ÐºÐ°
Ð¶ Ð½ÑĭÐ¼
ĠÐ± Ð»Ðµ
ĠÑĥ Ð²Ð»ÐµÐºÐ°
Ð¾Ð¿ ÐµÑĢÐ°
ĠÐºÐ¾Ð½ ÑĨÐµÐ¿
ĠÐ¿ÐµÑĢ Ð²ÑĭÐ¼
ĠI I
ĠÑģÐµÐ¼ ÑĮ
ĠÑģÐ¼Ð¾ÑĤ ÑĢÑı
ĠÑħÐ¾Ð·ÑıÐ¹ ÑģÑĤÐ²Ð°
i es
Ð¼ ÐµÐ¹
ĠÐ² ÑģÐº
ĠÐ½ Ð¾Ð²Ð°Ñı
Ð¾ÑĢÐ¸ ÑĤ
ĠÑĢÐ°Ð±Ð¾ÑĤ Ð½Ð¸ÐºÐ¾Ð²
ÑģÐ¾Ð² ÐµÑĢÑĪÐµÐ½
ĠÑģÐ¾Ð¾ÑĤÐ²ÐµÑĤ ÑģÑĤÐ²ÐµÐ½Ð½Ð¾
ĠÐ¿ÑĢÐ¾Ð²ÐµÐ´ ÐµÐ½Ð¸Ð¸
ĠÐ´Ð¾ÑģÑĤÐ¸ Ð¶ÐµÐ½Ð¸Ñı
ĠÑĢÐ°Ð·Ð¼ÐµÑĢ Ð¾Ð²
ĠÐ¿Ð¾Ð´Ð´ÐµÑĢÐ¶ ÐºÑĥ
ĠÐ¾Ð¶Ð¸ Ð´Ð°
ĠÐ¿ÑĢÐ¾ÑģÑĤÑĢÐ°Ð½ ÑģÑĤÐ²Ð°
ĠÐ¿ÑĢÐ¾Ð³ Ð½Ð¾Ð·
ÑĢÐ¾ÑģÐ¸ Ð»
ĠÐ½ÐµÐ¿ÑĢÐ¸ ÑıÑĤ
ĠÐľÐ°ÑĤÐµÑĢÐ¸ Ð°Ð»
n et
Ð½ Ð½Ð°Ñı
Ð½ ÐµÑĤÐ°
Ðº Ð²Ð°
Ð¼ ÑģÑı
ÐµÐ½ ÐºÐ¾
Ð¾Ð¼ ÐµÑĢ
ĠÐ½Ð° Ð¼ÐµÑĢ
Ñī Ð°Ð¹
ĠÑĥ ÑĩÐµ
ÑĦ ÐµÐ´
ÑĤÐ¸ ÑĩÐµÑģÐºÐ¸Ðµ
ĠÐ¡ Ð¾Ð»
Ð²Ðµ ÑĨ
ÐµÐ½ÑĮ Ðµ
ĠÐ¿Ð»Ð° ÑĤÑĮÐµ
ĠÑģÐ° Ð´
ĠI P
ÑĢÐ°Ð±Ð¾ÑĤ ÐºÐ°
ĠÐ°Ð¿ Ð¿Ð°ÑĢÐ°ÑĤ
ĠÐ¿ÑĢÐ°Ð·Ð´ Ð½Ð¸Ðº
ĠÐ¿Ð°Ð¼ ÑıÑĤ
ĠÐ¸Ð½ÑĦ ÑĢÐ°
ĠÐ¡Ð°Ð¹ ÑĤÐµ
ĠÐ´ÑĢÑĥÐ· ÐµÐ¹
ĠÐ´Ð¸Ð·Ð°Ð¹ Ð½Ð°
ĠÐºÐ¾ÑĢÐ° Ð±
i x
Ġ x
ĠÐ¿ÑĢÐ¸ Ð½Ð¾
ĠÑģÑĤ ÐµÐ½Ñĭ
ĠÑĤÐ° Ð»Ð°Ð½
Ð¸Ð· Ð¼
ÑģÑĤÐ²ÐµÐ½ Ð½Ð¾Ð¼
ĠÐĵ Ðµ
ÑĨÐ° Ñħ
ĠÑģÐ¾Ð² Ð¼Ðµ
ÐµÐºÑĤ Ð¾Ð²
ĠÑĨÐ¸ Ð»Ð¸Ð½Ð´
ĠÐ²Ð¸Ð´ Ð½Ð¾
ĠÑĪÐ¸ÑĢÐ¾Ðº Ð¾
ÐļÑĥ Ð¿Ð¸ÑĤÑĮ
ĠÑģÐ²Ð° Ð´ÐµÐ±
ĠÐ¿ÐµÐ½ ÑģÐ¸Ð¾Ð½
Ð¾Ð¿ÑĢÐ¸ ÑıÑĤ
ĠÐ½ÐµÐ¸Ð· Ð²ÐµÑģÑĤ
ĠÐ¼ÑĥÐ¶ÑĩÐ¸ Ð½Ñĭ
ĠÐ±Ð°Ð³Ð° Ð¶
p e
ĠÐľ Ð¥ÐŁÐĺ
ĠÐ¿ÑĢÐµÐ´ Ð¾ÑĤÐ²ÑĢÐ°
Ðľ Ð¾Ð»
ĠÐºÐ¾Ð¼Ð¿ ÐµÐ½
ĠÐºÐ¾Ð» Ð¾Ð½
ĠÐºÐ½Ð¸ Ð³
ĠÐ½Ð°ÑĩÐ¸Ð½Ð° ÐµÑĤÑģÑı
ĠÐ½Ð°ÑĥÑĩ Ð½Ð¾
ĠÐĲÐ½Ð´ ÑĢÐµÐ¹
ĠÐ³Ð¾ÑģÑĤ ÐµÐ¹
ĠÐĵÐŀ Ð¡Ð¢
i al
Ñĥ ÑĪÐºÐ¸
ĠÐ² Ð°ÑĢ
ĠÑģ ÑĦÐ¾ÑĢÐ¼Ð¸
ĠÐ¸ Ð½ÑĭÑħ
ÑĢÐµ Ñħ
ĠÐ½Ðµ Ñĳ
ĠÑĤ Ð²Ð¾
ĠÑį Ð½
ĠÐ²Ñĭ Ð±Ð¾ÑĢÐ°
ÑĥÐ´ Ñĭ
ĠÐ»Ð¸ Ð½Ð¸Ñı
ĠÑģÐ¿ ÑĢÐ¾
Ðľ Ð¡
ĠP l
ĠÐ½Ð°Ð· Ð²Ð°Ð½Ð¸ÐµÐ¼
ĠÐ²Ð°ÑĢÐ¸Ð°Ð½ ÑĤÐ¾Ð²
ĠÑĩÐµÑĢ Ð½ÑĭÐ¹
ĠÐ²ÑĭÐ± ÑĢÐ°
ĠÐ¿Ð¾Ð¸ ÑģÐºÐ¾Ð²
ĠÐºÐ¾Ð¼Ð°Ð½ Ð´Ð¸
ĠÐºÐ²Ð°ÑĢÑĤÐ¸ ÑĢÐµ
ĠÐĲÐ»ÐµÐºÑģÐ°Ð½Ð´ ÑĢÐ¾Ð²
ĠÐºÐ¾Ð¼Ð¿Ð»ÐµÐº ÑģÐ°
ĠÐ¤Ð¾ÑĢ ÑĥÐ¼
7 3
Ð´ Ð½Ðµ
ĠÐ½Ð° Ð»Ð¸Ñĩ
ÑĤÐ¾ ÑĢÐµ
ĠÐ¿Ð¾ ÑıÐ²
ĠÐ·Ð° Ð±Ð¾ÑĤ
ĠÐ¾Ð± Ð»ÐµÐ³
ĠÐºÐ° Ð»ÑĮ
ĠÐ¿ÑĢÐ¾ ÑıÐ²Ð»Ñı
ĠÐĶ Ð¾Ð»
ĠÑģÐ°Ð¼ Ð¾Ð»
ĠÐ¿ÑĢÐ¾ÑĪ Ð»Ð¾Ð¼
ĠÐ¿Ð¾Ð´Ð¾Ð± ÑĢÐ°ÑĤÑĮ
ĠÑģÐ¸Ð¼ Ð²
ĠÐ½Ð°Ð·Ð½Ð° ÑĩÐµÐ½Ð¸Ñı
ĠÐ¸Ð´ ÑĤÐ¸
ÑĢÐºÑĥ ÑĤ
ĠÑħÐ¾ÑĤ ÑıÑĤ
o ut
Ñı ÐµÑĤ
Ð¿ ÑĢÐ¾Ð¼
ĠÐ½Ð° ÐºÐ°Ð·Ð°
Ð»Ð° Ð¹
ĠÑĥ Ð»ÑĮ
ĠÐ½Ðµ Ð¾Ð¶Ð¸Ð´Ð°Ð½
ĠÑį ÑĢÐ¾ÑĤÐ¸
ĠÐŁ Ð¾ÐºÐ°
ĠÐ¡ Ð¾Ð±
ÑĩÐ¸ Ð½Ð°Ñı
ÑģÐ¸ Ð½
Ð³Ð° Ð»Ð¸
ĠÐºÐ°Ðº Ð¾Ð³Ð¾
Ð¢ Ð¡
ĠÐ²Ðµ Ð»Ð¾Ñģ
Ð¾ÑĢÐ¸ ÑĤÑĮ
ĠÐ§ Ð¸
Ð¾Ð»Ð¾Ð³Ð¸ ÑĩÐµÑģÐºÐ¸Ñħ
Ð¾Ð¼Ð¸ Ð¼Ð¾
an g
ĠÐ´Ð¾Ð¼ Ð¾Ð¹
ĠÑģÐ° ÑħÐ°ÑĢ
Ð¾Ð²Ð°Ð½ Ð½ÑĭÑħ
ĠÐĲÑĢ ÑĤ
ĠÑģÐ²ÐµÑĤ Ð¾Ð´Ð¸
Ð¡Ðļ Ðŀ
ĠÑĢÐ°Ð±Ð¾ÑĩÐ¸ Ð¹
ĠÐ¾ÑģÑĤ ÑĢÐ¾Ð²
ĠÐºÐ¾Ð¼Ð½Ð° ÑĤÑĭ
Ð¿Ð¾Ð· Ð¸ÑĤ
ĠÐ¿ÑĢÐµÐ´ÐµÐ»Ð° Ñħ
ÑĢÐµ Ð°
ĠÐľ ÑĥÐ¶
ĠÑģÑĤ Ð¾Ð»Ð°
Â» Â»
Ð·Ð¸ ÑĤÑĮ
ÑĢÐ°Ð½ ÑģÐ¿Ð¾ÑĢÑĤ
ĠÐºÑĥ Ð¿
ĠÐ¯ Ð¿Ð¾
ro s
ĠÐ¿Ð»Ð¾ ÑħÐ¾
ĠÐ¿ÑĢÐµÐ´Ð¾ ÑģÑĤÐ°Ð²Ð»ÑıÐµÑĤ
Ð¿Ð»Ð° ÑĤÐ°
ĠÐĲÐ² ÑĤÐ¾ÑĢ
ĠÐ¿Ð¾Ð¼Ðµ ÑīÐµÐ½Ð¸Ð¹
ÑīÐ¸Ðµ ÑģÑı
ĠÐ¸Ð³ÑĢÐ¾Ð² Ð¾Ð¹
ĠÐ¡Ð¾Ð²ÐµÑĤ ÑģÐºÐ¾Ð¹
ĠÐ¼Ð¸Ð»Ð»Ð¸ Ð¾Ð½Ð¾Ð²
Ð¾Ð³Ð¾ÑĢ ÑģÐº
Ð¤Ð¡ ÐĺÐĿ
Ð° Ð½Ð°
Ð± Ð°Ð»
ĠÐ½Ð° ÑģÐºÐ¾Ð»ÑĮÐºÐ¾
ĠÐ± Ð¾Ð»Ðµ
ÑĦ ÐµÑĢÐ°
ÑģÐ¿ Ð¾ÑĢ
ĠÐ¿Ð¾Ð´ ÑĢÑıÐ´
Ð¼ÐµÐ½ ÑĤÐµ
ÑĢÐ¾Ð²Ð° Ð½Ð¸Ñİ
ÑĪÐ° Ð»
18 0
ĠÐ¾ÑĤÐ½Ð¾ ÑĪÐµÐ½Ð¸Ðµ
ĠÑĢÐ°Ð·Ð¼Ðµ ÑĢÐµ
ĠÐ¼Ð°ÑĢ ÐºÐµÑĤ
is h
ĠÐ¿Ð¾Ð»ÑĮÐ·Ð¾Ð²Ð° ÑĤÑĮÑģÑı
ĠÐ¼Ð°ÑĪÐ¸ Ð½Ñĥ
ĠÐ¿ÑĢÐµÐ´ÑģÑĤÐ°Ð²Ð¸ ÑĤÐµÐ»ÐµÐ¹
ĠÑĢÐ¾Ð´Ð¸ ÑĤÐµÐ»Ð¸
ĠÐ´Ð¾Ð»Ð»Ð° ÑĢÐ°
ĠÐĺÐ²Ð° Ð½Ð¾Ð²
ĠÐ¿Ð¾ÑĤÑĢÐµÐ±Ð¸ ÑĤÐµÐ»ÐµÐ¹
ĠÐ¸Ð½Ð¶ÐµÐ½ ÐµÑĢ
ĠÑģÑĤÐ¾ÑĢ Ð¾Ð½Ð°
! Â»
Ñĩ ÐºÐ¾Ð¼
Ð¿ Ð¾Ñģ
ÑĢÑĥ Ð±
ÑģÑĤÐ² Ð¾Ð²Ð°Ð»
ĠÐ¿Ð¾Ð´ ÑĥÐ¼Ð°
ĠÐ¾Ð¿ ÑĭÑĤÐ°
ĠÑģÑĢÐµÐ´ Ð½ÐµÐ³Ð¾
ĠÐ½Ð°Ñģ Ð»Ð°
ĠÑģÐ¾Ð¾ÑĤÐ²ÐµÑĤ ÑģÑĤÐ²ÑĥÐµÑĤ
ĠÐ±ÐµÑģÐ¿Ð»Ð°ÑĤ Ð½ÑĭÐµ
ĠÑĦÐ° ÐºÑĥÐ»ÑĮ
ĠÑĢÐ°ÑģÑģ Ð¼Ð¾ÑĤ
ĠÑģÐ»Ð¾Ð¶ Ð½Ð¾ÑģÑĤÐ¸
ĠÐºÐ¾Ð¼Ð°Ð½ Ð´Ð°
Ð½Ð¸ÑĨ ÐµÐ¹
ĠÐ½Ð¸ÐºÐ° Ðº
ĠÐ¾ÑģÑĤ ÑĢÐ¾Ð²Ð°
ĠÐ¾Ð±Ñĥ ÑĩÐ°
ĠÐºÐ¾ÑĢÐ¿Ñĥ ÑģÐ°
ĠÑħÐ¾ÑĤÐµ Ð»Ð¾ÑģÑĮ
ÑĥÐ³ Ð¾Ð»ÑĮ
ĠÐłÐµÐ¼ Ð¾Ð½ÑĤ
f t
ĠÑģ Ð¾Ð½
Ð¾Ð² Ð¾Ðµ
Ð± Ð¾Ð»Ð¸
Ð»Ð° ÑģÑģ
ĠÑĥ Ð²ÐµÐ´Ð¾Ð¼
ĠÐ·Ð° ÑĢÐ°Ð½ÐµÐµ
ĠÐ° ÐºÑĤ
ĠÑį ÑĦÐ¸
Ð²Ð¸ Ñı
ĠÐł Ð¾ÑģÑĤÐ¾Ð²
ĠÐĲ Ð¿
ĠÑħ Ð¾Ð·Ñı
ÑĤÐ¸Ð² Ð½Ð¾Ðµ
ÑĤÐ¾Ð² ÑĭÑħ
ĠÐ½Ð°ÑĪ Ñĥ
ĠÑģÐ´ÐµÐ»Ð° Ð»Ð¸
ĠÐ¾ÑĤÐ²ÐµÑĤ Ñĭ
ĠÑģÑĥÐ¼ Ð¼Ð°
og le
ĠÐļÑĢÐ°ÑģÐ½ Ð¾Ð´Ð°ÑĢ
ĠÑĤÑīÐ° ÑĤÐµÐ»ÑĮÐ½Ð¾
Ð¾ Ñİ
Ð» ÑĥÑİ
Ð³ Ð½Ð¸ÑĤ
ĠÐŁ Ð¾Ð·
ÑĢÑĭ Ñħ
ĠÐ¼Ð° Ð¼Ð°
Ðļ ÑĢÐ¾Ð¼Ðµ
ĠÑı Ð¹
Ð¾Ðµ Ð´Ð¸Ð½
ĠÑĢÑĥ ÐºÐ°Ñħ
Ð²Ð¾ ÑĢÐ°
Ð¿Ðµ ÑĢÐµÐ´
ar e
ĠÐ½Ð°Ñģ Ð¾Ñģ
ĠÑĥÑĩ ÐµÑĤÐ°
ĠÐ¾Ð³ Ð½Ðµ
ĠÑĤÑĢÐ°Ð½ÑģÐ¿ Ð¾ÑĢ
id e
ĠÐ¸Ñģ ÑĩÐµ
ĠÐ¾ÑĦÐ¾ÑĢÐ¼ Ð»ÐµÐ½Ð¸Ðµ
ĠÑĢÐ°Ð·ÑĢÐµ ÑĪÐµÐ½Ð¸Ñı
ĠÑĩÐ¸ÑĤÐ° ÑĤÑĮ
ĠÐ¿ÑĢÐ¸Ð¼ÐµÐ½Ñı ÐµÑĤÑģÑı
ĠÐĴÐ¾Ð·Ð¼Ð¾Ð¶ Ð½Ð¾
m ent
Ñĩ ÐºÐµ
ĠÑģ Ð¾Ð»Ð¸
ĠÐ¿ÑĢÐ¸ Ð²ÐµÑĤ
ĠÐµ Ð·
ĠÐľ Ð½Ð¾Ð³Ð¸Ðµ
ĠÐĵ Ð¸
Ð¶Ð° Ð»
ĠÐ¤ Ð¾ÑĤ
ĠÐ¾Ðº ÑĢÑĥÐ³
ĠÑĢÐ°ÑģÐ¿Ð¾Ð»Ð¾Ð¶ ÐµÐ½
ĠÑĤÑĭÑģÑı ÑĩÐ¸
ĠÐ¸ÑģÐºÑĥÑģ ÑģÑĤÐ²Ð°
ĠÐ¾Ð±ÑĢÐ°Ð±Ð¾ÑĤ ÐºÑĥ
ĠÐĺÑģÐ¿Ð¾Ð»Ð½Ð¸ ÑĤÐµÐ»Ñİ
Ð´ÑĨÐ° ÑĤÑĮ
ĠÐ´Ð°Ð»ÑĮÐ½ÐµÐ¹ ÑĪÐµÐ¼
ĠÑĥÐ´Ð¾ ÑģÑĤÐ¾Ð²ÐµÑĢ
6 2
u st
Ñĩ ÑĮÑİ
Ð¾Ð´ Ð½ÑĭÐµ
ĠÐ³ Ð³
ĠÐ·Ð° Ð»
ÑĪÐ¸ Ð½Ð°
ĠÐ¶ Ð°Ð½
ĠÐ¿Ð¾Ð´ Ð½Ð¸Ð¼Ð°
ĠÐĶ Ð¢ÐŁ
ĠÐ¼Ðµ Ð´Ð°
Ð¶Ð¸ Ð¼Ð°
ÑģÑĤÐ²ÐµÐ½ Ð½ÑĭÐ¼Ð¸
Ð½Ñĥ Ð»Ð°ÑģÑĮ
ĠÐ°Ð² ÑĤÐ¾ÑĢÐ°
ÑĢÐ¾Ð¼ Ð°ÑĤ
ĠÑĦÐ¾ÑĢ Ð¼
ÑĩÐµÐ½ Ð½ÑĭÐµ
Ð§ Ð¡
ĠÐºÐ¾ ÑįÑĦÑĦÐ¸ÑĨÐ¸
ĠÐ½ÐµÐ¿ Ð»Ð¾
Ð´ÑĢÐ°Ð² ÑģÑĤÐ²ÑĥÐ¹ÑĤÐµ
Ġi P
ĠÐ¿ÑĢÐµÐ¿Ð°ÑĢÐ° ÑĤÐ°
ĠÐ¿ÑĢÐµÐ´Ð¾ÑģÑĤÐ°Ð² Ð»ÐµÐ½Ð¸Ñı
ĠÐ¾Ð¿ÑĥÐ±Ð»Ð¸ ÐºÐ¾Ð²Ð°
ĠÐ½ÐµÐ²ÐµÑĢ Ð¾ÑıÑĤ
. ),
Ðµ ÑģÐ»Ð¸
Ð» Ð»Ñı
Ðº Ð¾ÑĤÐ¸
Ð´ Ð¾Ð½
ÑģÑĤ ÐºÐ°
Ñħ Ð¾Ð»
Ñħ Ð¾Ð·
ĠÐ´ Ð²Ð¾Ð¹
Ð·Ð° Ð¼Ð¸
Ð¾Ð¿ Ð¾Ð»
Ð»Ð¾ ÑīÐ°
ĠÐĺ Ð¼Ðµ
Ð²ÐµÑĢ Ñħ
ĠÑĦÐ¸ Ð»Ð¸
ĠÐ¼ÐµÑĤ ÑĢÐ¾
ĠÐ¼Ñĥ Ð·Ðµ
ĠÑģÐ¿Ð¾ÑģÐ¾Ð± ÑģÑĤÐ²ÑĥÐµÑĤ
ĠÑĤÑĢÐµÐ± Ð¾Ð²Ð°Ð½Ð¸Ð¹
ĠÐ¿ÑĢÐ¾ÑĤÐ¸ Ð²Ð¾
ĠÐ³ÑĢÐ° Ð´Ñĥ
Ð²Ð°ÐµÐ¼ ÑĭÑħ
ĠÐ¼Ð¾Ð´Ðµ Ð»ÐµÐ¹
ĠÐ»ÑİÐ±Ð¸ ÑĤ
ĠÐ²Ð°ÑĢÐ¸Ð°Ð½ ÑĤÑĭ
ĠÐ·Ð°Ð½Ñı ÑĤÐ¾ÑģÑĤÐ¸
ĠÑĤÑĢÐµÐ±Ð¾Ð²Ð°Ð½Ð¸Ñı Ð¼
ĠÐºÐ½Ð¾Ð¿ ÐºÑĥ
ĠÐ¸Ð¼Ñĥ ÑīÐµÑģÑĤÐ²Ð°
ĠÑģÐ¿Ð¾ÑĢÑĤ Ñģ
ĠÐ¿ÑĢÐ¸ÑĪ Ð»Ð¾ÑģÑĮ
ĠÐ±Ð» Ð¾ÐºÐ°
I T
Ñģ Ð½Ð¾Ð³Ð¾
Ð² Ð½Ð¾Ð¹
ĠÐ¾ ÑĦ
Ð¾ÑĤ ÑĢÑĥÐ´
Ñī ÐµÐ½Ð¸Ñİ
ĠÑĥ ÑģÑĤÑĢÐ¾
ÑĨÐ¸ Ðº
ÑģÐµ Ð´Ð½ÐµÐ²
ĠÑĤÐµ ÑĢÐ°Ð¿Ð¸
ĠÐŀ Ð¼
ÑģÑĤÑĥ Ð¿Ð¸ÑĤÑĮ
ĠÑįÐº ÑģÑĤÑĢÐ°
ĠÐ¼Ð¾ ÑģÐº
ĠÐ´Ð¾Ð¿ Ð¾Ð»
ĠÐ³ÑĢÐ° Ð¼Ð¾ÑĤ
ĠÐ·Ð°ÐºÐ¾Ð½ ÑĩÐ¸
ĠÐ°Ð²ÑĤÐ¾Ð¼Ð¾Ð±Ð¸ Ð»Ð¸
ĠÐ¿ÑĢÐ¾Ð¿ Ð°
ĠÑĪÐ¸ÑĢÐ¾Ðº Ð¸Ð¹
ĠÐ¿ÑĢÐ¾ÑģÑĤÑĢÐ°Ð½ ÑģÑĤÐ²Ð¾
ĠÑĥÐ´Ð¾Ð²Ð»ÐµÑĤ Ð²Ð¾ÑĢ
ĠÐ¼Ð¾Ð½Ð¸ ÑĤÐ¾ÑĢ
ĠÐºÐ¾Ð½ÐºÑĥ ÑĢÐµÐ½
s k
Ð² ÐµÐ½Ð¸
ÑģÑĤ Ð½Ð¾Ð¹
ĠÐ¾Ð± Ð²Ð¸
ĠÐ¾Ð± ÐµÐ·
ĠÐĴ Ð¼Ðµ
ĠÐ¡ Ð¼Ð¾ÑĤÑĢÐµÑĤÑĮ
Ð¾Ð¿ Ð»ÐµÐ½Ð¸Ñı
ÑģÑĤÐ¾ Ð¸ÑĤ
Ðļ Ð°ÑĢ
ĠÑı Ð±
ĠÐĵ Ð°ÑĢ
ÐĶ Ðĺ
ĠÑĨ Ð°ÑĢ
ĠÑĢÑĥ ÐºÑĥ
ĠÑĢÐ°Ð±Ð¾ÑĤ Ð¾Ð´Ð°
Ð§ ÐµÑĢ
ÐºÐ°Ð½ ÑĮ
ĠÐ¾ÑĤÐ´Ðµ Ð»ÐµÐ½Ð¸Ñı
ĠÑĤÑĢÑĥÐ´ Ð½Ð¾
ĠÐ²Ð¾Ð·Ð´ÐµÐ¹ ÑģÑĤÐ²Ð¸Ñı
av a
ĠÐ¼ÑĥÐ½Ð¸ÑĨÐ¸Ð¿Ð° Ð»ÑĮÐ½Ð¾Ð³Ð¾
ĠÑĢÐµÐ»Ð¸ Ð³Ð¸
Ñģ Ñİ
ĠÐ± ÐµÐ´
ĠÐ· Ð¾Ð½Ñĭ
ĠÑĥ Ð´Ðµ
ĠÐ·Ð° ÐºÐ°Ð½
ĠÐ¿ÑĢÐ¸ Ð´Ð°
ĠÐ¡ ÐĿ
Ð¼Ð° Ð½Ð°
ÑĢÐ¾Ð²Ð° Ñı
ĠÐºÑĥ ÑħÐ½Ð¸
ĠÐ¿Ð¾ÐºÐ° Ð·ÑĭÐ²Ð°ÐµÑĤ
ĠÐ½Ð°Ñģ Ð»ÐµÐ´
ĠÐ¿Ð¾ÑģÐ»ÐµÐ´ Ð½ÐµÐµ
ĠÐ½Ð°Ð¿ ÑĢÐ°Ð²Ð¸
ĠÐ¢Ð° ÐºÐ¸Ðµ
ĠÐ¾ÑĩÐµ Ð²Ð¸Ð´
ĠÐ½ÐµÐ¾Ð±ÑħÐ¾Ð´Ð¸Ð¼ ÑĭÑħ
ĠÑģÐ²Ðµ Ð¶Ð¸
ĠÑģÐ¾ÑĢÐµÐ² Ð½Ð¾Ð²Ð°Ð½Ð¸Ñı
Ð½ Ð¾Ð³
Ð»Ð¸ Ðº
Ð¾Ð²Ð° Ð½Ð¸Ð¸
ĠÐ» Ð¾Ð´
Ð²Ð¸ ÑĤÑĮÑģÑı
Ð·Ð° ÑīÐ¸
Ð´Ð¸ Ð»
ĠÐļ Ðŀ
ĠÑı Ð¿Ð¾Ð½
ĠÐĳ Ð°Ð½Ðº
Ð»Ð¾Ð² ÐµÐº
Ð¾Ñĩ Ð½Ð¾
ĠÐ¿ÐµÑĢ ÑģÐ¿ÐµÐºÑĤÐ¸Ð²
Ð½Ð¸ÐºÐ° Ñħ
ĠÐ½Ð¾Ð² Ð¾ÑģÑĤ
ÑģÑĤÐ°Ð½Ð¾Ð² ÐºÐ°
Ð§ Ðķ
ĠÐ¾Ð¿ÑĢÐµÐ´Ðµ Ð»ÑıÐµÑĤÑģÑı
Ð¿ÑĢÐ¾ ÑĩÐµÐ¼
ĠÐºÑĥÑĢ ÑģÑĭ
ĠÑĦÐ¸Ð»ÑĮ ÑĤÑĢÐ°
ĠÑģÑĩÐ¸ÑĤÐ° ÑĤÑĮ
ĠÐ·Ð°Ð½Ð¸Ð¼Ð° ÐµÑĤÑģÑı
ĠÑģÐ¼Ðµ ÑģÑĮ
ĠÐ²Ð¾Ð·Ð´Ñĥ Ñħ
ĠÑĢÐ°Ð·Ð¼ÐµÑĢ Ñĭ
ĠÑģÐ¸ÑĤÑĥÐ° ÑĨÐ¸Ñı
ĠÐ½Ð°Ð¿ÑĢÑı Ð¶ÐµÐ½Ð¸Ðµ
ĠÐ¿ÑĢÐµÐ´Ð¼ÐµÑĤ Ð¾Ð²
ĠÐ²Ð¾Ð·Ð½Ð¸ÐºÐ° ÐµÑĤ
ĠÐĲÐ»ÐµÐº ÑģÐµÐ¹
c o
p h
Ġ www
Ðµ Ð²Ðµ
ĠÐ¸ ÑģÐºÐ°ÑĤÑĮ
Ð¿ Ð¾ÑĤÐµ
Ð¾Ð²Ð° Ð½Ð¸ÐµÐ¼
Ð¾Ð¶ Ð°ÑĢ
ĠÑĢÐµ Ð´ÐºÐ¾
Ġ( Â«
ĠÐ¿Ð¸ ÑĪÐµÑĤ
Ð½Ð¾Ð²Ð° Ñı
Ð½Ð¾ÑģÑĤ ÑıÑħ
ĠÐ¾ÑģÑĥ Ð¶Ð´
ĠÐ¿ÑĢÐµÐ´ÑģÑĤÐ°Ð²Ð¸ ÑĤÐµÐ»Ð¸
ĠÑĢÐµÐ³ÑĥÐ»ÑıÑĢ Ð½Ð¾
ĠÑģÐ²ÐµÑĢÑħ Ñĥ
5 1
Ġ r
Ñģ Ð»ÐµÐ´
Ñĭ ÑĤÑĭ
ĠÐļ ÐµÐ¼
ĠÐ¿ÑĢ Ð¾Ð³Ñĥ
ÑģÑĤÑĮ Ðµ
ÑĢÐ¾Ð²Ð° Ð½Ð°
ĠÐ¿Ð¾Ñģ Ð»Ñĥ
Ðĳ Ñĭ
ĠÐ¾Ð±Ð»Ð° Ð´Ð°ÑİÑĤ
Ð¾ÐºÑĥ Ð¿
ĠÑģÐ¾Ð¾Ð± ÑīÐµÐ½Ð¸Ðµ
ĠÐ¾Ðº Ð½Ð°
ĠÐ³Ð¾ÑĢÐ¾Ð´ Ð¾Ð²
ĠÑħÐ°ÑĢÐ°Ðº ÑĤÐµÑĢÐ°
ĠÐ°Ð¿ ÑĤÐµ
ĠÐ´Ð¾Ð¼Ð°ÑĪ Ð½Ð¸Ñħ
ĠÐ´Ð² ÐµÑĢÐµÐ¹
ĠÐ¼Ð¾Ðµ Ð³Ð¾
ĠÐ±Ð»Ð°Ð³Ð¾Ð´Ð° ÑĢ
Ð¼ ÑĭÐµ
ĠÐ² ÑıÐ·Ð°
ĠÐ± ÑĢÐ°ÑĤÑĮ
Ð¾Ð²Ð° ÑĤÑĮÑģÑı
ĠÐ¡ ÑĢÐµÐ´Ð¸
ÑĩÐ° Ð»
ĠÑĢÐµ ÐºÐ¸
âĢ Ļ
ÐĲ Ðł
ĠÐ£ ÑģÐ»Ð¾Ð²Ð¸
ĠÐ²Ð¾Ð·Ð¼Ð¾Ð¶ Ð½Ð¾ÑģÑĤÐµÐ¹
ĠÐºÐ¾Ð¼Ð¿Ð° Ð½Ð¸Ñİ
ÑĤÐ¾ÑĢÐ° Ñı
ĠÐºÐ¸ ÑĢÐ¿Ð¸
ĠÐ³Ð»Ð°Ð² Ð½ÑĭÐ¹
ĠÐĺÐ· ÑĢÐ°
ĠÐ¸Ð´Ðµ Ð¸
Ġf or
ĠÐºÐ¾Ð»Ð»ÐµÐº ÑĤÐ¸Ð²
ĠÐ·Ð°ÐºÐ¾Ð½Ð¾Ð´Ð° ÑĤÐµÐ»ÑĮÑģÑĤÐ²Ð¾Ð¼
ĠÑĩÐµÑĤÑĭÑĢÐµ Ñħ
ĠÐ¿ÑĢÐ¾Ð· ÑĢÐ°
ĠAn d
Ð² Ð½ÑĭÐµ
ÑģÑĤ ÑĭÐ¹
Ð³ ÑĢÐµ
ĠÐ´ Ð²ÐµÑĢÑĮ
ĠÐ½Ð° Ð¾Ð±Ð¾ÑĢÐ¾ÑĤ
Ð¼Ð¸ ÑĢÐ°
Ð´Ð° Ð»ÐµÐµ
ĠÑĤ ÑĢÐ¾
ĠÐŁ Ð¾Ð±
ĠÐ¿ÑĢÐ¾ ÑĦÐµÑģÑģ
ÑģÐµ Ð»ÑĮ
ĠÐºÐ°Ðº ÑĥÑİ
Ð¿Ðµ Ð»ÑĮ
ĠÐ½Ð°ÑĩÐ° Ð»Ð¾
ĠÐ³Ð¾Ð²Ð¾ÑĢÐ¸ ÑĤÑģÑı
ĠÐ¡Ð¾Ð² ÐµÑĤÐ°
ĠÐ²ÑĭÐ± ÑĢÐ°Ð½
ĠÑĢÐµÐºÐ»Ð° Ð¼Ð°
ĠÐ¿Ð¾Ð»Ð¸ÑĤÐ¸ ÐºÐ¸
ĠÐ¼Ð¾Ñī Ð½Ð¾ÑģÑĤÑĮ
ĠÑĢÐ°Ð·ÑĢÐ°Ð±Ð¾ÑĤ ÐºÐ¸
ĠÐ¾ÐºÐ°Ð·ÑĭÐ²Ð° ÐµÑĤ
ĠÑģÐ¾Ð²Ð¼ÐµÑģÑĤ Ð½Ð¾
Ð¾ÑĨÐ¸ Ð°
Ġ st
Ðº Ð¾Ð²Ð°Ñı
Ð½Ð¸ ÑĤÐ°ÑĢ
ĠÐ¾ÑĤ ÑĢÐ°
ĠÐºÐ° ÑĦÐµ
Ð·Ð° Ð¹Ð½
ĠÐļ Ð¾Ñģ
ĠÐŀ ÑģÑĤÐ°
Ðŀ ÑĢ
ĠÐĿÐ° ÑĨÐ¸Ð¾Ð½Ð°Ð»ÑĮ
Ð¾Ð»Ð¾Ð³Ð¸ ÑĩÐµÑģÐºÐ¸Ðµ
Ð¾ÐºÑĥ ÑĢÐ°
ĠÐºÑĢÐ° ÑĤ
ĠÑģÐ° Ð´Ð¾Ð²
ÑĥÐ½ Ðº
ĠÐ´ÐµÐ¹ ÑģÑĤÐ²ÑĥÐµÑĤ
ĠÐ¼Ð¾Ð» Ð¾ÐºÐ¾
ĠÑĦÐ° Ð¼Ð¸
ĠÑĥÐ¿ÑĢÐ°Ð² Ð»Ñı
ĠÑģÑĤÐ¸ Ð»ÑĮ
ĠÑģÐ»Ð¾Ð²Ð° Ð¼Ð¸
ĠÑĢÐ°ÑģÑĤ ÐµÐ½Ð¸Ð¹
ĠÐ¿ÑĢÐ°Ð·Ð´ Ð½Ð¸
ĠÑĥÑĩÑĢÐµ Ð¶Ð´ÐµÐ½Ð¸Ð¹
ĠÐ³Ð»Ð°Ð·Ð° Ð¼Ð¸
ĠÐ²Ð°ÑĪ ÐµÐ¼Ñĥ
ĠÐ¸Ð·Ð¼ÐµÐ½Ð¸ ÑĤÑĮ
m e
Ð¾Ð´ ÑĬÐµÐ¼
Ð¶ Ð½ÑĥÑİ
ĠÐ¿Ð¾ Ð½Ð¸
Ð¾Ðº Ð¾Ð½
Ð¾Ðº Ð°Ð¼
ĠÐŁ Ð°Ð²
Ð¾Ñģ ÑĢÐ¾
ÑģÐ¸ Ð½Ñĭ
ĠÐľ ÐµÐ´Ð¸
ĠÐ¢ ÑĢÐ¸
Ð½Ñĥ Ð»Ð¸ÑģÑĮ
ÑģÑĭ Ð¿Ð°
ĠÐĹÐ° Ð¿
ĠÑįÐº ÑĢÐ°Ð½
ĠÐ´ÐµÑĤ ÑģÐºÐ¸Ñħ
ĠÐ½ÑĥÐ¶ ÐµÐ½
ro id
ĠÐ¿ÑĢÐ¾Ð²ÐµÑĢ ÐºÐ¸
ĠÐ¿ÑĢÐ¸ÑıÑĤ Ð½Ð¾
ĠÐ¿ÑĢÐ¾Ð´ÑĥÐº ÑĨÐ¸Ñİ
f f
Ð´ ÑĢÐ°
Ð¾Ð² Ð¾Ð»ÑĮ
Ñħ Ð°Ð¹
ĠÑĥ ÑģÐ¿
ĠÐ³ ÐµÐ½
Ð»Ðµ Ð²Ð°Ñı
Ð¾Ð²Ð° Ð½Ñĭ
ĠÐ» ÐµÐ²
ĠÐ¾Ð± Ð¾
Ð¾Ð¿ Ðµ
ĠÑģÑĤ Ð¾ÑĢÐ¾Ð½Ðµ
ĠÐ¢ Ñİ
ĠÐ´Ðµ Ð»Ð¸
ĠÐĿÐ° Ð¸
ĠÑĪ Ñĥ
ÑĥÑĩ ÐµÐ½Ð¸Ðµ
ĠÑģÑĤÑĢÐ° Ð½Ð¸ÑĨÑĭ
ĠÑģÐ²Ð¾ Ñĳ
ĠÐ¾Ð¿ÑĢÐµÐ´Ðµ Ð»Ñı
ĠÐºÐ»Ð¸ ÐµÐ½ÑĤ
ĠÑĤÐ¸ Ð¿Ð¾Ð²
ĠÐ´ÑĢÑĥÐ³ ÑĥÑİ
ĠÐ¾Ð±ÐµÑģÐ¿Ðµ ÑĩÐµÐ½Ð¸Ðµ
ĠÑĢÑĥÑģ ÑģÐºÐ¾Ð³Ð¾
ĠÑģÐ¾ÑĤÑĢÑĥÐ´ Ð½Ð¸ÐºÐ¸
ĠÐºÐ¾Ð½Ðµ ÑĨ
ĠÐ·Ð°ÑıÐ² ÐºÑĥ
ĠÐ¿Ð¾ÑĢÑıÐ´ ÐºÐ°
ĠÐ´Ð¾Ð¿Ð¾Ð»Ð½Ð¸ÑĤÐµÐ»ÑĮ Ð½ÑĭÑħ
ĠÐ°Ð» Ð»ÐµÑĢ
ĠÐĲÐ»ÐµÐºÑģÐ°Ð½Ð´ ÑĢÐ°
ĠÐ¿ÑĢÑıÐ¼ Ð¾Ð¹
ĠÐ¼ÑĥÐ»ÑĮ ÑĤÐ¸
ĠÐ¿ÑĢÐ¾ÑģÑĤÐ¸ÑĤÑĥÑĤ ÐºÐ¸
Ð½Ð¾Ð´ Ð¾ÑĢÐ¾Ð¶
7 6
Ñĥ ÑĪÐºÐ°
Ð² ÐºÐ°
ĠÑģ ÑĢÐ¾
Ð¿ ÑĤ
Ð³ ÑĢÑĥ
ÑĤÐµ ÑĢÐµ
ÑĢÑĥ ÑİÑĤÑģÑı
ĠÑģÑĤ Ð¾Ð»Ð¾Ð²
ĠÐ¿Ð¾Ð´ Ð²Ð¸
ĠÑĢÐ°Ð· Ð²Ð»Ðµ
ĠÑħ ÑĢÐ¾Ð½Ð¸
Ð»Ñİ Ð·Ð¸
Ðĳ Ð¾Ð»ÑĮ
ĠÐļÐ¾Ð½ ÑģÑĤÐ°Ð½
ĠÐºÐ½Ð¸ Ð³Ñĥ
ĠÑģÑĭ ÑĢ
ĠÑĤÐµÐ¼Ð¿ÐµÑĢÐ° ÑĤÑĥÑĢÐ°
ĠÑģÑĤÐ°Ð² ÐºÐ¸
ĠÐ¾ÑĤÐ»Ð¸ÑĩÐ° ÑİÑĤÑģÑı
ĠÐ¤Ð¸ Ð»ÑĮ
ĠÐ°Ð»ÑĮ ÑĤÐµÑĢÐ½Ð°
ĠÐ¼Ð¸ÑĢÐ¾Ð² Ð¾Ð¹
ĠÐ¿ÑĢÐµÐ¿ ÑıÑĤ
ĠÐļÐ¾Ð¼Ð¿ Ð»ÐµÐºÑĤ
ĠÐ¿Ð¾ÑģÑĤÐµ Ð¿ÐµÐ½Ð½Ð¾
ĠÐ¿Ð»Ñİ Ñģ
ĠÐĹÐ°Ðº Ð¾Ð½
ĠÐķÐºÐ°ÑĤÐµÑĢÐ¸ Ð½
9 8
R O
k s
Ð» ÐµÑĢÑĭ
ĠÐ² ÐµÐ½
ĠÐ¸ Ð´ÐµÐ½
Ð¿ Ð¾Ð»Ð¸
Ð½Ð¸ Ð½Ð³
ÐºÐ° ÑĥÐ½
ĠÑĥ ÑħÐ¾Ð´
Ð¾Ð²Ð° Ð»Ð°
ĠÐºÐ° Ð½Ð°Ð»Ð°
ĠÐ¿ÑĢÐ¾ ÑĨÐµÐ½ÑĤ
ĠÑĢÐµ ÑĪÐµÐ½Ð¸Ð¹
Ð¡ ÐºÐ°
Ð¿Ð¸ Ð½
Ð·Ð¸ ÑĢÐ¾Ð²Ð°ÑĤÑĮ
ĠÐ´Ðµ ÑģÑıÑĤ
ÑĢÑı Ð·
ĠÑģÐ¿ ÐµÑĢ
ĠÐ·Ð½Ð° ÐµÑĤÐµ
Ð¾Ð»Ð¾Ð³Ð¸ ÑĩÐµÑģÐºÐ¾Ð³Ð¾
ĠÑģÑĢÐµÐ´ Ð½ÐµÐ¼
ĠÐ½ÑĥÐ¶ Ð½Ð°
ĠÑĥÑĩÐ°ÑģÑĤ ÐºÐ¾Ð²
ĠÐ¿Ð°Ð¼ ÑıÑĤÑĮ
ĠÐľÐ¾Ð» Ð´Ð¾Ð²
2 10
Ð² Ð¾ÑĤ
Ð¶ ÐµÐ½Ð¸Ð¹
ĠÑĥ Ð´
ĠÐµ Ð¼
ÑĤÐµÐ»ÑĮ Ð½Ð°
ÑģÐµ Ð´
ĠÑģÑĤ ÑĥÐ´Ð¸
ĠÑģÑĤ ÑĢÐ¾Ð¹
Â» :
ÐºÐ¾ Ð½Ñĭ
Ð¡ Ð¿Ðµ
ĠÐ¢ ÐĴ
ÑģÐºÐ° Ð¼Ð¸
Ð±Ð¸ ÑĤÑĮ
ÑĦÐ¸ ÑĨÐ¸Ð°Ð»ÑĮ
ÑģÑĤÐ°Ð²Ð¸ Ð»Ð¸
ĠÐºÐ¾Ð¼Ð¿Ð° Ð½Ð¸ÐµÐ¹
ÐºÐ¾Ð» Ñĭ
ĠÐ¼ÐµÑĤ Ð¾Ð´Ñĭ
ĠÑĢÐ°ÑģÑģ ÑĩÐ¸ÑĤÐ°
ĠÐ´Ð¾Ð² Ð¾Ð»ÑĮ
ĠÐ²ÑĢÐ° ÑĩÐ°
ĠÐ½ÐµÐ±Ð¾Ð»ÑĮ ÑĪ
ĠÐºÐ»Ñİ Ñĩ
ĠÐ¾ÑĨÐµÐ½ ÐºÐ¸
ÐºÐ¾Ð»Ðµ Ð¿
E S
ĠÐ² ÑģÑĤÐ°
Ð¾Ð² Ðµ
Ð¿ Ð¾ÑĤ
ĠÐº Ð¸Ð½
ÑĨ Ð¾Ð¼
Ð¼Ð¸ ÑĤ
ĠÐ²Ñĭ Ð¿Ð¸
ĠÑĢÐ°Ð· Ð²Ðµ
ĠÐĶ Ð°Ð»ÑĮ
Ð½Ñı ÑİÑĤÑģÑı
ÐĲ Ð½
ĠÐĵ ÑĢÐµ
ÐĶ ÐĶ
ÑĤÐ¾Ð² ÑĭÐµ
Ð»Ñĭ Ð¼Ð¸
ĠÐ½Ð°ÑĪ Ð»Ð¸
ĠÐ¿ÑĢÐ°Ð²Ð¸ ÑĤÐµÐ»ÑĮÑģÑĤÐ²Ð°
ĠÑģÐµÐ¼ Ð¸Ð½Ð°
ĠÐ¾ÑĤÐ´Ðµ Ð»ÑĮÐ½Ð¾
ĠÐ¸Ð½ÑĤÐµÑĢÐµÑģ Ð½ÑĭÐµ
ĠÐ¿Ð¾Ð»ÑĮÐ·Ð¾Ð²Ð° ÑĤÐµÐ»ÑĮ
ĠÐ·Ð°ÐºÐ¾Ð½Ð¾Ð´Ð° ÑĤÐµÐ»ÑĮÑģÑĤÐ²Ð°
ĠÐ¥Ð° Ð±Ð°ÑĢÐ¾Ð²
ĠÑģÐºÐ¸ Ð´ÐºÐ¸
ĠÑĩÑĤ Ð¾Ð±
ĠÐ½Ð°Ð²ÐµÑĢ Ð½Ð¾Ðµ
ĠÐ·Ð´ÑĢÐ°Ð² Ð¾Ð¾Ñħ
ĠÐ¸Ð½ÑĤÐµÐ»Ð»ÐµÐºÑĤ Ñĥ
k a
Ð² ÑĥÑİ
ÐµÑĤ ÑĢÐ°
Ð½Ð¸ Ð»Ð°
ĠÐ¿ÑĢÐ¸ Ð¼Ðµ
ĠÐ¡ Ð»Ñĥ
ĠÐ¿ÑĢÐ¾ ÑīÐµ
ĠÑģÑĤ Ð¾Ð»ÑĮ
ĠÑĤÐ° ÑĢÐ¸ÑĦ
Ð½Ð¾Ð² ÐµÐ½Ð¸Ðµ
ÐĲ Ð´
Ñĳ Ñħ
ÑģÑĤÐ°Ð² ÐºÐ¸
Ð¾ÑĢÐ¸ Ñı
ĠÐ±Ð° ÑĢÐ°
ÑĥÑİÑīÐ¸ Ð¹
ĠÐ¿Ð¾Ð½Ñı ÑĤÐ¸Ñı
ĠÐºÑĢÐ°Ñģ Ð¾ÑĤÑĭ
ĠÐ¾Ð³ÑĢÐ¾Ð¼ Ð½Ð¾Ðµ
ĠÐ·Ð°Ð² ÑĤÑĢÐ°
ĠÑģÑģÑĭÐ» ÐºÐ¾Ð¹
ĠÐĿÐ¾Ð²Ð¾ÑģÐ¸Ð±Ð¸ÑĢ ÑģÐºÐµ
I S
Ġ Îº
ĠÑģ ÑĩÐµÑĤÐ°
ĠÐ¸ Ñī
ÑĦ Ñĥ
ĠÐ» ÐµÐ´
Ð¡ Ðŀ
ÐĴ Ð¾Ð»
ĠÐ¸Ð½ ÑĤÐµÐ½ÑģÐ¸Ð²
ĠÐĳ Ð¾Ð»
ĠÐ¾ÑĢÐ³Ð° Ð½Ñĭ
ĠÐ°Ðº ÑģÐµÑģÑģÑĥÐ°ÑĢÑĭ
ĠÐļÐ° ÑĢÐ°
ĠÐĴÐ° ÑĪÐµÐ³Ð¾
ĠÐºÐ¾Ð» Ð¾
ĠÑįÑĤÐ° Ð¿Ðµ
Ð¾Ð½ÑĤÐ° Ð¶
ĠÑĤÐµÐ¼Ð¿ÐµÑĢÐ° ÑĤÑĥÑĢ
ĠÐ²Ð»Ð¸Ñı Ð½Ð¸Ðµ
ĠÐŁÐ¾ÑĤ Ð¾Ð¼
ĠÐŁÐ¾ÑĤ Ð¾Ð¼Ñĥ
ĠÑĥÐ±Ðµ Ð´Ð¸
ĠÑĥÐ±Ð¸ Ð¹
ĠÐ¿ÑĢÐ¾ÑĦÐ¸Ð»Ð°ÐºÑĤÐ¸ ÐºÐ¸
ĠÑĢÐµÐ¹ÑĤÐ¸ Ð½Ð³
ĠÐ¾ÑĤÐ½Ð¾ÑģÑı ÑĤÑģÑı
9 6
ĠÐ² Ð¾Ð´Ðµ
ĠÑģ Ð»Ð¾ÑĤ
Ð³ Ð¾Ð´Ð¸
ĠÐĴ ÑĤÐ¾ÑĢ
Ð¾Ð¿ ÑĢÐ¾Ñģ
ĠÐ¸Ð· Ð³Ð¾ÑĤÐ°Ð²Ð»Ð¸
ĠÑĢÐ°Ð· Ð´ÐµÐ»Ð°
ÑĤÑĭ Ð¼Ð¸
Ðķ Ðľ
ĠÐ¿Ð¾Ð² ÐµÑĢ
Ð±Ñĭ ÑĩÐ½Ð¾
ĠÑĢÐ°Ñģ ÑĩÐµÑĤÐ°
ĠÐ¼Ð¾ ÑģÐºÐ¾Ð²
ĠÑĨÐµ Ð¿
ĠÐŀÐ± ÑĢÐ°Ð·
ĠÐ¾Ð¿ÑĢÐµÐ´Ðµ Ð»ÐµÐ½Ð¸Ñı
ĠÐ³Ð»Ð° Ð²Ð°
ĠÑģÐ»ÐµÐ´ Ð¾Ð²Ð°
ĠÑģÐ¼Ðµ ÑģÐ¸
ĠÐ¿Ð¾Ð»ÑĥÑĩÐ° ÐµÑĤ
ĠÐ¿Ð¾Ð´ÑĢÐ¾Ð± Ð½ÐµÐµ
ĠÐľÑĥ Ð·ÑĭÐºÐ°
Ð²ÑĪÐ¸Ð¹ ÑģÑı
Ð¾Ð³Ð¾ÑĢ Ð¾Ð´Ð¸
ĠÐ°ÑĤÐ¼Ð¾Ñģ ÑĦÐµÑĢ
S t
ÑĢÐ° Ð³
ĠÐ½ Ð¾Ð³Ð¸
ĠÐ¼ Ð¾Ð´Ð¸
ĠÑĥ Ð±Ð¾ÑĢ
ĠÑĢÐ° Ð´
ĠÐĴ Ð¾ÑģÑĤ
ĠÐ¿ÑĢÐ¸ ÑĪÐ»Ð¸
ĠÐľ Ð¾Ð½
ÐŁ ÑĢÐ¾Ð´
ĠÐºÐ¾Ð¼ Ð±Ð¸Ð½Ð°
Ð»Ð¾Ð² Ð¾
ĠÐ¾Ð¿ ÑĢÐ°Ð²
ĠÐ¿ÐµÑĢÐµ Ð¼ÐµÐ½
ĠÐ²Ð¾ Ð¾ÑĢÑĥÐ¶
ĠÑģÐ»Ñĥ ÑĩÐ¸
ĠÐºÐ¾ÑĢ Ð·Ð¸
Ð¾Ð»Ñı Ñħ
ĠÐ±Ð° Ð·Ð°
ÑĢÐµÐ´Ð¸ ÑĤ
ĠÑįÐ»ÐµÐºÑĤ ÑĢÐ¾Ð¿
ĠÑģÐº Ð¾ÑĢ
ÐŃ ÑĤÐ¾ÑĤ
ĠÐ¿Ð¾Ñĩ ÑĤÑĭ
ÑİÑīÐ¸Ð¹ ÑģÑı
ĠÐ¡ÑĤÐ° ÑĤÑĮÐ¸
ĠÑģÑĩÐ¸ÑĤÐ° ÑİÑĤ
ĠÐ¾ÐºÐ°Ð·Ð° Ð»ÑģÑı
ĠÐ¿ÑĢÐµÐ´ÑģÑĤÐ°Ð²Ð¸ ÑĤÐµÐ»ÑĮ
ĠÑģÑģÑĭ Ð»ÐºÐ°
I P
ĠÐ¿ Ð»Ð¸ÑĤ
ĠÐ² Ð²ÐµÐ´
ĠÐº ÑĢÐ¾Ð²Ð°
Ð½Ð° Ð¿ÑĢÐ¸Ð¼ÐµÑĢ
Ð¾Ð¶ Ñĥ
ĠÐ²Ñĭ Ð½ÑĥÐ¶Ð´
ÑģÐµ Ðº
ĠÑĢÐµ ÑģÑĤÐ¾ÑĢÐ°
ĠÑĢÐ°Ð· Ð¾Ð±ÑĢÐ°
ĠÐ¢ Ðŀ
ĠÐ¸Ð½ ÑģÑĤÐ¸ÑĤÑĥÑĤ
Ðĺ ÐĲ
ÑĢÑı Ð´Ð°
Ð½Ñĥ Ð²
ĠÐ¸ÑģÐ¿ ÑĭÑĤÑĭ
ĠÐ½Ð¾Ð² ÑĭÐ¼
ĠÑģÐ¾Ð± Ð°Ðº
ĠÐĸ Ðµ
ĠÐ¿Ð¾Ðº Ð»Ð¾Ð½
ĠÑĩÐµÐ»Ð¾Ð²ÐµÐº Ð¾Ð¼
ĠÐ¿Ð¾ÐºÐ°Ð·Ð° ÑĤÑĮ
ĠÐ½Ð°ÑĢÑĥ ÑĪÐµÐ½Ð¸Ðµ
ĠÐ±ÐµÐ·Ð¾Ð¿Ð°Ñģ Ð½Ð¾ÑģÑĤÑĮ
ĠÐ¼ÐµÑĤÐ°Ð» Ð»Ð°
âĢĿ .
ĠÐ¿ÑĢÐ¸ÑĢÐ¾Ð´ Ñĭ
ĠÐ¼ÐµÑĩ ÑĤÐ°
ĠÐ±Ð¾ÑĢÑĮ Ð±Ñĭ
ĠÐºÐ²Ð°Ð´ ÑĢÐ°ÑĤ
ĠÐŁÐ¾Ð´ÑĢÐ¾Ð± Ð½ÐµÐµ
i b
Ð» Ð»Ðµ
Ñı Ð³
ĠÐ¾ ÑĩÐ°
ĠÐ» Ð¾Ð³
ĠÐĴ ÑĥÐ»ÐºÐ°Ð½
Ð¼Ð¾ ÑģÐºÐ¾Ð²
ĠÐ´Ð° Ð»
ĠÐ¿ÑĢÐµ Ð´Ðµ
ĠÑģÑĥ Ð¶Ð´ÐµÐ½Ð¸Ñı
ÐºÐ¾Ð½ ÑģÑĤÑĢÑĥ
ĠÐºÐ¸ Ð¿
ĠÐ¾ÐºÐ°Ð·Ð° Ð»Ð¾ÑģÑĮ
ĠÐ¿ÑĢÐµÐ´ÑģÑĤÐ°Ð²Ð¸ ÑĤÑĮ
ĠÐŁÐµÑĢ Ð²ÑĭÐ¹
ĠÐ¿ÑĢÐ¾ÑĨÐµÑģÑģ Ð¾Ð²
ĠÐ³ÑĢÑĥ Ð´Ð¸
ĠÑģÑĤÐ¾Ð» Ðº
ĠX X
ĠÐ¼ÐµÐ´Ð¸ÑĨÐ¸Ð½ ÑģÐºÐ¾Ð¹
ĠÐ¿ÑĥÐ½ ÐºÑĤ
ĠÐŁÐµÑĤ ÑĢ
ĠÐķÐ²ÑĢÐ¾Ð¿ Ðµ
ĠÐ¾ÑħÑĢÐ° Ð½Ñĭ
ĠÑįÐºÑģÐ¿Ðµ ÑĢÐ¸
ĠÐ± ÑĢÑİ
ĠÑĥ Ð¿Ð»Ð°
ĠÐ½Ðµ Ð´ÐµÐ»ÑĮ
Ð»Ñı ÑĤÐ¾ÑĢ
ĠÐ·Ð° Ñģ
ĠÐŁ Ð¾ÐºÐ°Ð·Ð°ÑĤÑĮ
ĠÐ¡ Ð¾Ð·
ĠÐ¡ Ð²ÑıÑĤ
Ð³Ð° Ð¼
ĠÐ¿Ð¾Ð» Ð°
Ð½Ñı Ð¼Ð¸
ĠÐ´Ð¾ ÑģÑĤÐ°
ĠÐĵ Ð°Ð·
ĠÐ²Ð° ÑĪÐµ
ÐĶ Ð°Ð½
ÐºÐ¾Ð¼ Ð°
ĠÐ¿Ð° Ð´
ĠÐ¿ÑĢÐ¾Ð¸Ð· Ð²ÐµÐ´ÐµÐ½Ð¸Ñı
ĠÑģÑĤÑĢÐ° ÑĪ
ĠÐ½ÑĥÐ¶ Ð½Ñĭ
Ð§ Ð°
ĠÐĿÐ¸ Ðº
ĠÐ³Ð¾Ð²Ð¾ÑĢÐ¸ Ð»
ĠÑĢÑĥÑģ ÑģÐºÐ¸Ð¹
ĠÐºÑĢÐ¸ Ð·Ð¸
ĠÑģÑĥÐ¼ Ð¼Ñĭ
ÑĩÐ°ÑģÑĤ ÑĥÑİ
ÐŁÐµÑĤÐµÑĢÐ±ÑĥÑĢ Ð³Ðµ
ĠÐ¾ÑĢÐ¸ ÐµÐ½ÑĤÐ¸
Ð¿ÑĢ Ð¾Ð´Ñĥ
ĠÐ¿Ð¸ÑģÑĮ Ð¼Ð°
ĠÐ°Ð²ÑĤÐ¾Ð¼Ð°ÑĤÐ¸ ÑĩÐµÑģÐºÐ¸
f o
Ġ ÑĪÐµÐ»
Ð¶ ÐºÑĥ
ĠÐ¿Ð¾ ÐµÐ·Ð´
Ð¼Ð¸ ÑĢ
Ð¾Ðº Ð°ÑĢ
ĠÐ¾ÑĤ ÑĢÐ°Ð¶Ð°
ĠÑĤÐ° ÐºÐ¸Ð¼Ð¸
ÐµÐº ÑģÐ°
ÐĹ Ðŀ
ĠÑĥÑģ Ð»Ñĭ
ĠÐ¿Ñĥ ÑģÑĤÑĮ
ĠÐ¸Ð½ÑĤÐµÑĢ Ð²ÑĮÑİ
200 5
ĠÐ¿ÑĢÐ¾ÑĤÐ¸ Ð²Ð¾ÑĢÐµ
Ð¾Ð²Ð°Ð½ Ð½ÑĭÐ¹
ĠÑģÐ¿ÐµÑĨÐ¸Ð°Ð»ÑĮ Ð½ÑĭÐµ
âĢĿ ,
ĠÑģÑİ Ð´Ð°
Ġ> >
Ð¾ ÑĪÐµÐ»
ĠÐ¿ Ð¾Ð¶Ð¸
ÑĢÐµ Ð¿Ð¸
ĠÐ·Ð° ÑĩÐµÐ¼
ĠÐ° ÐºÐ°Ð´ÐµÐ¼Ð¸
ĠÐľ ÐµÐ´
Ð¾Ð´Ð° Ð¼Ð¸
ĠÐºÐ¾Ð½ ÑĦÐ»Ð¸
ÐĽ ÑĥÑĩ
Ð²Ñĭ ÑĩÐ°Ð¹
Ð³ÑĢÐ° Ð»
ĠC om
ĠÐ³Ð¾ÑģÑĥÐ´Ð°ÑĢÑģÑĤÐ²ÐµÐ½ Ð½ÑĭÑħ
ĠÐ¼Ð¾Ð»Ð¾Ð´ ÑĭÑħ
ĠÐ¾ÑĤÑģÑĥÑĤ ÑģÑĤÐ²Ð¸Ðµ
ĠÑģÐ¾Ð¾Ð±ÑīÐ¸ Ð»Ð¸
ĠÑĢÐµÑģÑĥÑĢ ÑģÐ¾Ð²
ĠÐ¿ÑĢÐ¾Ð¼ÑĭÑĪÐ»ÐµÐ½ Ð½Ð¾ÑģÑĤÐ¸
ĠÐĽÐµÐ½Ð¸Ð½ Ð³ÑĢÐ°Ð´
ĠÐ¸ÑĤÐ¾Ð³ Ð°Ð¼
ĠÐ¸ Ð½Ð¾Ð¹
Ð¾ÑĢ Ð³Ð°Ð½Ð¸
ĠÐ¼ Ð¾Ð´ÐµÑĢ
ÑĤÐ° ÑĢÐ¸
ĠÐ· ÑĢÐµ
ĠÐ¡ Ð»ÐµÐ´
ĠÐ¿Ð¾Ð´ ÑĪÐ¸Ð¿
Ð½Ñı ÐºÐ°
ĠÐĵ Ð¾Ð´
ĠÐĵ ÑĢÐ¸
ÐĶ ÐµÑĤ
Ð¾Ð»Ðµ Ð²
ĠÐºÐ°ÑĢ ÑĤ
ÑĢÐ¾Ñģ Ð»Ð°Ð²
ĠÑĥÑĩÐ°ÑģÑĤ ÐºÐµ
Ð¿Ð¾ ÑĩÐ¸ÑĤÐ°
ĠÐ´ÐµÐ²Ñĥ ÑĪÐµÐº
ĠÐ¼Ð» ÑĢÐ´
ĠÐĴÐ¾Ð» Ð³
ĠÑĩÐ»ÐµÐ½ Ð¾Ð²
ĠÑģÑİ Ð¶ÐµÑĤ
ĠÐ¿ÑĢÐ¾ÑĨÐµÐ´Ñĥ ÑĢÑĭ
ĠÐ²Ð·Ð°Ð¸Ð¼Ð¾Ð´ÐµÐ¹ ÑģÑĤÐ²Ð¸Ñı
Ð¸Ð·Ð²Ð¾Ð´ ÑģÑĤÐ²Ð¾
n e
Ġ !
ĠÐ ¹
ĠÑģ Ð»Ð°Ð´
ĠÐ¼ ÐµÑĤÐ°
ÑĪ ÐºÐ°Ð¼Ð¸
ĠÐ· Ð¾Ð½
ĠÐ¿Ð¾ ÑģÐ°Ð´
ĠÐ·Ð° Ð²ÐµÐ´
ĠÐĴ ÑģÐµÑĢ
ÑĩÐ¸ Ð»Ð¸
ĠÐł Ð¾Ð´Ð¸
ÑĪÐµ Ð»ÑĮ
ĠÑħ ÑĢÐ¸ÑģÑĤÐ¸Ð°Ð½
ÐµÐ½ÑĮ Ñİ
ĠÑĪ ÐµÑĢ
ÐĹ ÐĲ
on d
ĠÐ¼ÐµÐ½ Ñİ
ĠÐ¼Ð¾Ð³ Ð»Ð°
ĠÑģÐµÑĢ Ð²ÐµÑĢ
Ð²Ð°ÐµÐ¼ ÑĭÐµ
ĠÐ¿ÑĢÐ¾Ð²ÐµÐ´ ÐµÐ½Ð¸Ðµ
un g
ĠÐ·Ð°Ð¿Ð¸ ÑģÑĮ
ĠÐ²Ð°Ð»ÑİÑĤ Ñĭ
ĠÐ¿ÑĢÐ¸Ð±Ð¾ÑĢ Ð¾Ð²
s p
Ð¸ ÑģÑĥ
Ñģ Ð¾ÑĢÐ¸
ÑĢ Ð¾Ð´Ð¸
Ðº Ð²
Ð² ÑĢÐµÐ¼ÐµÐ½
ĠÐ² Ð´Ð¾Ñħ
Ð¾Ð² ÑĭÐ¼
Ð± ÑĢÐ°ÑĤÑĮ
ÑĢÐµ Ð´Ð°
Ð¾Ð´ Ð½ÑĭÐ¹
Ð²Ð° ÑĤÐ¸
ĠÐ½Ðµ Ð¿ÑĢÐ¾
ÑĢÑĥ ÐµÐ¼
ĠÐ²Ñĭ Ð·ÑĭÐ²Ð°ÐµÑĤ
ĠÐ¸Ð· Ð±ÑĢÐ°Ð½
ĠÑĦ Ð¾Ð½Ðµ
ÑģÐ° Ð»
ĠÐ¿ÑĢÐµÐ´ ÑĬ
ÐĿ Ð¡
Ð·Ð¸ Ð¹
ĠÐ²Ð° ÑĪÐµÐ¼
ĠÐ»Ñİ Ð±Ñĭ
ĠÐĿÐ° ÑĤÐ°
ĠÐ¿Ðµ ÑĩÐºÐ¸
Ð³Ð¾Ð² Ð¾Ð¹
ĠÐºÐ°ÑĢ ÑĤÐ°
ÑĩÐµÐ½ Ð½ÑĭÑħ
ÐµÐ½ÑĤÐ° Ð¼
ĠÐ»ÑĥÑĩ ÑĪÐ¸Ð¹
Ð¾Ð»Ð¸ÑĩÐµ ÑģÑĤÐ²Ð¾
ĠÐļÐ¾Ð¼ Ð¿Ð°Ð½Ð¸Ñı
ĠÐ¾ÑģÑĥÑīÐµÑģÑĤÐ² Ð»ÐµÐ½Ð¸Ñı
ĠÑĢÐµÐ°Ð»ÑĮ Ð½Ð¾
ĠÐºÐ²Ð°ÑĢÑĤÐ¸ ÑĢ
ĠÐ¶ÑĥÑĢ Ð½Ð°
ĠÐĵÐ»Ð°Ð² Ð½Ð¾Ðµ
ĠÐ´Ð¾Ð±Ð¸ ÑĤÑĮÑģÑı
ĠÑĦÑĢÐ°Ð½ ÑĨÑĥÐ·
ĠÐ¡Ð¾ÑĨÐ¸Ð°Ð»Ð¸ ÑģÑĤÐ¸ÑĩÐµÑģÐºÐ¾Ð¹
Ġ j
ÑĤ Ð½Ð¾Ðµ
Ð´ Ð¶Ð°
Ð²Ð° Ð»Ð¾
ĠÐ½Ðµ Ð²
ÑĤÐ¸ ÑĩÐµÑģÐºÐ¸Ð¹
ĠÐ·Ð° Ð³Ð°
ĠÐŁ Ð¾ÑĢÑĤÐ°
ÑĩÐ° Ð»Ð¸
Ð»Ð¾ Ð½Ñĭ
Ð»Ð¾ ÑĤÐ°
ĠÑģÐ¾ Ð¾ÑĤÐ½Ð¾
ĠÐ¿Ð¾Ð» Ð°Ð³Ð°
Ðļ Ð¾ÑĢ
Ð»Ð¾Ð² ÑĭÐµ
ĠÐ¾Ð´ Ð½Ð¾Ðº
Ð²Ð¾ ÑģÑĤÑĮ
ĠC l
ĠÐ°ÑĢ Ð¼Ð¸Ð¸
ĠÐ³Ð»Ð° Ð²Ñĭ
ĠÐ¡Ð¾ ÑİÐ·Ð°
ĠÑģÐ¾Ð±ÑģÑĤÐ²ÐµÐ½ Ð½Ð¾Ð³Ð¾
ĠÐ¿ÑĢÐ¸Ð½Ñı ÑĤÐ¾
ĠÑģÐ²ÑıÐ·Ð° Ð½
ĠÐ±ÑĥÐ´Ñĥ ÑīÐµÐ¼
ĠÐ¿Ð¾Ð½Ñı ÑĤÐ½Ð¾
ĠÑģÐ¸Ð¼ Ð²Ð¾Ð»
ĠÐĶÐ¾ ÑģÑĤÐ°Ð²ÐºÐ°
ĠÐ¿ÑĢÐ¸ÑĩÐ¸ Ð½Ñĭ
ĠÐ°Ð¿Ð¿Ð°ÑĢÐ° ÑĤÑĭ
ĠÐ´ÐµÑĤÐ° Ð»ÐµÐ¹
ĠÑģÐµÑĢÐµ Ð´Ð¸
7 4
p ro
Ðº ÐµÑĤÑĭ
ĠÐ½ Ð¾ÑģÐ¸
Ð¾Ð² Ð¾
ÐµÑĤ Ñĥ
Ð»ÑĮ Ð½Ð¸ÐºÐ¸
ĠÐ· Ð²Ð¾
ĠÐ½Ðµ Ð²Ñĭ
ĠÐ³ ÐµÐ¼
ĠÐ¿Ð¾ Ð½Ðµ
Ð´Ð° ÑĩÐ¸
ĠÐ¾Ð± Ð¾Ð»
ÑģÑĤÐ¸ Ðº
ĠÐ¾ÑĤ ÑĢÐ°Ñģ
ĠÐ²Ñĭ ÑģÑĤÑĥÐ¿Ð¸
ĠÐ¿ÑĢ Ð¾ÐºÐ°
ĠÐĶ Ð¾ÐºÑĥ
ĠÐĳ Ð¾Ð³Ð¾ÑĢÐ¾Ð´Ð¸
Ð·Ð¸ Ð°ÑĤ
Ð»Ñİ Ð´Ð°ÑĤÑĮ
ĠÑĪ Ð°Ð¼
ĠÑįÐº Ð·Ð°
ÑħÐ¸ Ð¼Ð¸
ÑĦÑĦ ÐµÐºÑĤÐ¸Ð²
ĠÐ·Ð°ÑıÐ² Ð»ÐµÐ½Ð¸Ñı
ĠÑĦÐ¸Ð½Ð°Ð½ ÑģÐ¸
ĠÑĥÐ´Ð¾Ð²Ð¾Ð»ÑĮ ÑģÑĤÐ²Ð¸Ðµ
ĠÑĤÐ¾ÑĢÐ¼Ð¾Ð· Ð½Ð¾Ð¹
ĠÐ¸Ð½ÑĦÑĢÐ° ÑģÑĤÑĢÑĥ
7 1
Ñİ ÑīÐµÐ¼
Ð¾Ð¼ Ñı
ĠÐ± ÐµÑĢ
Ð²Ð° Ð¼Ð¸
Ð²Ð° ÐµÑĤÐµ
ĠÑģÑĤ ÑĢÐµÐ¼
ĠÐĲ Ð½Ð°
Ðł Ð¾ÑģÑģÐ¸
Ðĵ ÐĲ
ĠÐ¿Ð¾Ð² ÑģÐµÐ´Ð½ÐµÐ²
ĠÐ¥ Ð°ÑĢÑĮÐºÐ¾Ð²
ĠÐ¾Ð±ÑĬ ÐµÐºÑĤÐ¸Ð²
ĠÑģÐ¸ÑģÑĤÐµÐ¼ Ð¾Ð¹
ĠÐ±Ðµ Ð»ÑĭÐ¹
ÑģÑĤÑĥÐ¿ Ð»ÐµÐ½Ð¸Ðµ
ĠÐ²Ð»Ð° ÑģÑĤÑĮ
ĠÐľÐ¸ ÑĢ
ĠÐ»ÐµÐ³ ÐµÐ½
ĠÐ¿Ð¸ÑĤÐ° Ð½Ð¸Ðµ
ĠÑĢÐµÐºÐ¾Ð¼ÐµÐ½ Ð´Ð°ÑĨÐ¸Ð¸
ĠÐ²Ð½ÐµÑĪ Ð½Ð¸Ð¹
ĠÐ¿Ð¾ÑĤÐµÐ½ ÑĨÐ¸Ð°Ð»ÑĮ
ĠÐ¿ÑĢÐ¾ÑĨ ÐµÐ½ÑĤÐ¾Ð²
ĠÐ±Ð°Ñģ ÑģÐµÐ¹
ĠÐĶÐ¾Ð±Ð° Ð²Ð¸ÑĤÑĮ
ĠÐ´Ð¸Ñģ ÑĨÐ¸
ÑĢ Ð¾Ð³
ÑģÑĤ ÑĭÑħ
ÐµÑĤ Ð¾Ð¼
ĠÐ» Ð¾Ðº
ĠÐĴ ÐµÑĢÑħ
ĠÐ²Ñĭ Ð±Ð¾ÑĢÐµ
ĠÐ¿ÑĢÐ¾ ÑĪÐµÐ´
ĠÐ¿Ð¾Ð´ Ð¾Ð¹Ð´ÐµÑĤ
ĠÑģÐ² ÑıÑĤ
Ðł Ñĥ
ĠÐ»Ðµ Ð¶Ð°
ÑĢÐµÐ½ Ð´Ð°
ĠÑģÐ¾Ð·Ð´Ð° Ð½
ĠÐ¾ÑģÐ½Ð¾Ð² Ñĭ
ru s
ĠÐ¿ÑĢÐ¸Ð¼ÐµÐ½ ÑıÑĤÑĮ
ĠÐ¿ÑĢÐ¾Ð¸Ð·Ð²Ð¾Ð´ ÑģÑĤÐ²Ðµ
Ð´ÐµÐ½ ÑĨÐ¸Ð°Ð»ÑĮ
ĠÐ¿Ð¾Ð¿ÑĥÐ»ÑıÑĢ Ð½ÑĭÑħ
ĠÑģÑħ ÐµÐ¼Ð°
ĠÐ·Ð°Ð´ Ð½Ð¸Ð¹
ĠÑĤÐ¾Ð¿ Ð»Ð¸Ð²Ð°
ĠÐ¾ÑĤÐ¼ÐµÑĤÐ¸ Ð»
ĠÐ¼Ð¾Ð¸ Ñħ
ĠÐ²ÑĭÐ³Ð»Ñı Ð´Ð¸ÑĤ
ĠÐĲÐ»ÐµÐº ÑģÐµ
ĠÐ´Ð¾Ð¿Ð¾Ð»Ð½Ð¸ ÑĤÐµÐ»ÑĮÐ½Ð¾
ĠÑģÐ¿ÐµÑĨÐ¸ ÑĦÐ¸
Ðµ Ð²Ð¸Ñĩ
ÑĢ Ð¾Ð·Ð¸
ĠÐ½ ÑĢÐ°Ð²
ĠÐ´ Ð¾Ð¼Ð¸
ĠÐ± Ð¾Ð½Ñĥ
Ñī ÐµÐ½Ð¸ÐµÐ¼
ĠÐ³ ÑĢÐ¾Ð¼
ĠÑĢÐ° ÑģÑĤÐ²Ð¾
Ð´Ð¸ Ð½Ð¾
ĠÐľ ÐµÑĢ
ĠÐĶ Ðŀ
ÐŁ ÐĲ
Ð¶Ð¸ ÑĤÑģÑı
Ð°Ð»ÑĮ Ð½ÑĭÐ¼
ĠÐ¿Ð¾Ñģ Ð¼Ð¾ÑĤ
ĠÑģÑĢÐµÐ´ Ð½ÐµÐ¹
ĠÐ´Ð¾Ð± ÑĢÐ°
ĠÐ¢Ð°Ðº Ð¾Ð¹
ĠÑĢÐ°ÑģÑģ Ñĭ
ĠÑĩÑĥ Ð´Ðµ
ÐºÑĤÑĥ ÑĢÐ°
ĠÐ¡Ð° ÑĢÐ°ÑĤÐ¾Ð²
ĠÐ¸Ð½ÑģÑĤÑĢÑĥ Ð¼ÐµÐ½ÑĤÑĭ
ĠÐ¿ÑĢÐ¾ÐµÐºÑĤ Ñĭ
ĠÑģÐ¸ÑĤÑĥÐ° ÑĨÐ¸Ñİ
Ð¾Ð²Ð¸ Ñĩ
ĠÑģÐµÐ· Ð¾Ð½Ð°
ĠÐľÐ°Ðº ÑģÐ¸
Ð¢Ðµ Ð¿ÐµÑĢÑĮ
ĠÐ¿Ð¾ÑıÐ²Ð»Ñı ÐµÑĤÑģÑı
ĠÐłÐµÐº Ð¾Ð¼ÐµÐ½
ĠÐ¾Ð¿Ñĭ ÑĤÐ¾Ð¼
Ñı ÑĤÐ¸Ñı
Ð¼ Ð¾Ð¼
ÑĮ ÐµÑĤ
ĠÐ¾ ÐºÑĥ
ĠÐ¾ ÐºÐµ
ĠÐ½Ðµ Ð¿ÑĢÐµ
ÑĩÐµ ÑģÑĤÐ²Ðµ
ĠÐ¿Ð¾Ð´ ÑĢÐ¾ÑģÑĤ
Ð¶Ðµ Ð»Ð¸
ĠÐĵ Ð¾ÑĢÐ¾Ð´
ĠÐ£ Ð¤Ð¡ÐĺÐĿ
ĠÐ´ÐµÑĤ ÑģÐºÐ¸Ð¹
ĠÑģÐ¾Ð·Ð´Ð° Ð²Ð°ÑĤÑĮ
ĠÐ±Ðµ ÑģÑģ
Ġ/ /
ĠÑģÐµÐ¼ ÑĮÑı
ĠÐ¿ÐµÑĢÐ¸ Ð¾Ð´Ð°
ĠÑģÐ¿ÐµÑĨÐ¸Ð°Ð»ÑĮ Ð½ÑĭÑħ
ĠÐ·Ð°Ð¿Ñĥ ÑģÐºÐ°
Ð²ÑĪÐ¸Ðµ ÑģÑı
ĠÐ·Ð°Ðº ÑĢÐµÐ¿
ĠÐ¿Ð¾ÑıÐ²Ð»Ñı ÑİÑĤÑģÑı
ĠÐ³Ð¾ÑĢÐ¸Ð· Ð¾Ð½ÑĤÐ°
Ð´ ÑĳÑĤ
ĠÐ² Ð¿Ð¸
Ð³ ÑĢÐ¾Ð¼
ÑĨ ÐºÐ¸Ð¹
ĠÐ¡ Ð±Ð¾ÑĢ
ÐŁ Ðļ
ĠÐĺ Ð²Ð°Ð½
ĠÐ¢ Ð°Ð¹
Ð½Ð¾Ð² ÑĭÐ¹
Ðķ ÑīÐµ
ĠÑĪ Ð¾Ñĥ
ĠÐ¿Ð¸ ÑĤÑĮ
ÐºÐ»Ð° Ð´ÐºÐ¸
ĠÐ±Ð° Ð±Ñĥ
ÐºÐ¾Ð» Ð°Ð¹
ĠÑĤÐµÐ»Ðµ Ð²Ð¸
ĠÐ³Ð»Ð°Ð² Ð½ÑĭÐ¼
ĠÐ¿ÑĢÐ¾ÑĪ Ð»Ð¾Ð³Ð¾
ĠÑĩÐ¸ ÑģÑĤÐ¾
ĠÐ·Ð°ÑıÐ² ÐºÐ¸
ĠÐ§Ð° ÑģÑĤÑĮ
ĠÐ¿ÑĢÐ¸ÑĩÐ¸ Ð½Ð¾Ð¹
ĠÑģÐ¼ÑĭÑģ Ð»
ĠÐ¸Ð·Ð±Ðµ Ð¶Ð°ÑĤÑĮ
ĠÑģÑĤÐ°Ð½Ð¾Ð² ÑıÑĤÑģÑı
ĠÐ¿ÑĢÐµÐ· ÐµÐ½ÑĤÐ°
9 00
e ch
ĠÑģ ÐµÑĤÑĮ
ĠÐ¼ ÐµÑĢÑĭ
ĠÐ¼ Ð¾Ð»Ð¸ÑĤ
Ð½Ð° ÑĩÐ°Ð»Ð°
ĠÑĥ ÑģÑĤÑĢÐ°Ð¸
Ð¾Ð± ÑĥÑģ
Ñį ÑĤÐ¾
Ð¾Ð½ ÑıÑĤ
ÑģÑĤÐ² Ð¾Ð²Ð°Ð»Ð¸
ĠÐŁ ÑĥÐ±Ð»Ð¸
ĠÐĴ Ð¡
ĠÑĢÐ°Ð· Ð³Ð¾Ð²
ĠÐ¢ ÑĢÑĥ
ĠÑģÐ¿ ÑĥÑĤ
ĠÐ£ Ð·Ð½Ð°
ĠÐ¼Ð¸ ÑĢÑĥ
Ð²Ð¾ ÑĩÐµÐº
ĠÐ´ÐµÑĤ ÑĮÐ¼Ð¸
ĠÑĢÑĭ Ð±Ð°
ĠÐ¿Ð¾Ð»ÑĥÑĩÐ¸ ÑĤÑģÑı
Ð»Ð¾Ðº Ð¸
ĠÐ¿Ð¾Ð»Ð¸ Ñį
Ð¾Ð´ÐµÑĢ Ð¶Ð°
ĠÐºÐ¸ Ð»Ð¾Ð¼
ĠÐ²Ð¾Ð» ÑĪÐµÐ±
ĠÐ´Ð¾ÐºÑĥ Ð¼ÐµÐ½ÑĤ
ĠÐ²ÑģÑĤÑĢÐµ ÑĤÐ¸
Ð´ÐµÐ»Ð¸ ÑĤÑĮ
ĠÐ¸Ð·Ð²ÐµÑģÑĤ Ð½ÑĭÑħ
ĠÑģÐ²ÑıÐ·Ð° Ð½Ð½ÑĭÑħ
ĠÐ¼Ð¾Ñī Ð½Ð¾ÑģÑĤÐ¸
ĠÐ¿Ð¾ÐºÑĥÐ¿ ÐºÐµ
ĠÑĦÑĥÐ½Ðº ÑĨÐ¸Ð¹
ĠÐ¿ÑĢÐ¾Ð´ÑĥÐº ÑĤÐ°
ĠÑģÐ¸Ð³ Ð½Ð°
ĠÐ·Ð¾Ð» Ð¾ÑĤ
ĠÐ¿ÑĢÐµÐ¸Ð¼Ñĥ ÑīÐµÑģÑĤÐ²Ð°
ĠÑħÐ²Ð° ÑĤÐ°ÐµÑĤ
ĠÐ¿Ð¾ÑĤÐµÐ½ ÑĨÐ¸
ĠÐ±Ð¾Ð³ Ð°ÑĤ
2 20
Ð¿ ÑĢÑı
Ð¾ÑĢ Ð½Ð¾
ĠÐĴ Ð¾ÑĢÐ¾Ð½ÐµÐ¶
Ð·Ð° Ð½
ÑĤÐµÐ»ÑĮ ÑģÑĤÐ²Ñĥ
ĠÐľ ÐĲ
ĠÑģÑĤ Ñĥ
ĠÐ¼Ð° ÑģÑģÑĥ
ĠÐ±Ñĭ Ð²Ð°ÑİÑĤ
ĠÐĲ Ðļ
ĠÐ¿ÑĢÐµÐ´ Ð¿Ð¾ÑĩÐ¸ÑĤÐ°
ĠÑĪ Ð°ÑĢ
ĠÐ¿Ð¾Ð· Ð¶Ðµ
ĠÐ¥ Ð¾Ð»
ĠÐĴÐ° Ð¼Ð¸
ĠÐ¾Ð¿ÑĢÐµÐ´Ðµ Ð»Ð¸
ic e
ĠÐ·Ð°ÑīÐ¸ ÑīÐµÐ½Ñĭ
ĠÐļÐ¸ ÑĢÐ¾Ð²
ĠÐ´Ð¾Ð² ÐµÑĢ
ĠÑĢÐµÐ¼Ð¾Ð½ ÑĤÑĥ
ĠÐ¿ÑĢÐ¸Ð½Ð¸Ð¼Ð° ÐµÑĤ
ĠÑĢÐ¾ÑģÑģÐ¸Ð¹ ÑģÐºÐ¾Ð³Ð¾
ĠÑĦÑĥÐ½Ðº ÑĨÐ¸Ð¾Ð½Ð¸
ĠÐ¿Ð¸ÑģÐ° ÑĤÑĮ
ĠÐ¿ÑĢÐ¸ÑĩÐ¸ Ð½Ðµ
ĠÐ³ÑĥÐ± ÐµÑĢÐ½Ð°
ĠÑģÑĤÑĢÐ°Ñħ Ð¾Ð²Ð°Ð½Ð¸Ñı
ĠÐ°Ð½Ð´ ÑĢÐ¾Ð¸Ð´
l a
Ġ ÑģÑĤÐ²
ÑĤ ÐµÑĤÐ°
Ð· Ð¾
ĠÑĩ ÐµÑĢÐµ
ĠÐºÐ° ÑĢÐ°
ĠÐ¡ ÑĥÐ´
ĠÑĤÐµ Ð¼Ð°
ÐŁ Ð¾Ñĩ
ÑĪÐµ Ð²
ĠÐ¿ÐµÑĢÐµ Ð³Ð¾Ð²
Ð°Ð» ÐºÐ¸
ĠÐ±Ð¾Ð»ÑĮ ÑĪÐµÐ¹
ĠÐ¿ÑĢÐ°ÐºÑĤÐ¸ ÐºÐµ
ĠÑģÐ¿Ð° Ñģ
ĠÐ¼Ð¸Ð½Ð¸ ÑģÑĤÐµÑĢ
ĠÐ¿Ð¾ÑıÐ²Ð¸ Ð»Ð°ÑģÑĮ
ĠÐ¶ÑĥÑĢ Ð½Ð°Ð»Ð°
ĠÐ¿Ð¾Ð¼Ð¾Ð³Ð° ÑİÑĤ
ĠÐ¾Ð±Ñģ Ð»ÐµÐ´
ĠÐĲÐ²ÑĤÐ¾ Ð½Ð¾Ð¼
ÐŀÐ´ Ð½Ð°ÐºÐ¾
r ess
u re
ĠÐ¼ ÑĥÑģ
Ð½Ð¾ ÑģÐ¸ÑĤÑĮ
ĠÑĥ Ð¿ÑĢÐ¾
ÑĤÐ¾ Ð½Ð°
Ð¾Ðº Ð¾Ð»
ĠÐ¡ Ð¿Ð¸
Ð½Ðµ Ðº
Ð¾Ð¿ ÑĭÑĤ
ĠÐľ ÐµÐ½Ñı
Ð»Ð¾ ÑģÑĤÐ¸
Ð»ÐµÐ½ Ð½Ð¾Ðµ
ĠÑģÑĤÐ° Ð´Ð¸
ĠÐ²Ð¸ Ð´Ð¸Ð¼
ĠÐĿÐ° ÑĪ
Ð½Ð¸Ð¼Ð° Ð½Ð¸Ðµ
Ð¼ÐµÑĢ Ñĭ
ĠM ight
ÑīÐµÐ½ Ð½ÑĭÑħ
ĠÐĸ Ðļ
ĠÐ¿ÑĢÐ¾Ð´Ð° Ð²
Ð¿Ð¾ ÑĤÐ°
ĠÑįÑĤÐ° Ð¶
ĠÐ·Ð°Ð´Ð° Ð½Ð¸Ñı
ĠÐ¿Ð¾Ð»ÑĥÑĩÐ° ÑİÑĤ
ĠÑĢÐµÐ¶Ð¸ Ð¼Ð°
ĠÐ¼Ð¾Ð»Ð¾Ð´ Ð¾Ð¹
ĠÑĦÐ¸Ð³ ÑĥÑĢ
ĠÐ¿Ð¾Ð´ÑĩÐµÑĢ Ðº
Ð¼ ÐµÑĤÐ°
Ð´ Ð²Ð°
Ð· Ð½ÐµÑĨ
ĠÑĥ ÑģÑĤÑĢÐ°
Ð²Ð° Ð»Ð¾ÑģÑĮ
ĠÐ³ ÐµÐ¹
ÐºÐ¸ Ñı
ĠÐ·Ð° Ð²Ð¸
ĠÐ¿ÑĢ Ð¾Ð¹
ĠÐĿ Ðķ
ĠÐĶ Ð¾Ð¿
Ðŀ ÑĩÐµÐ½ÑĮ
ÐºÐ¾Ð² Ð¸
Ñĳ Ð³
Ð¢ Ð¬
ĠÐ¿ÑĢÐµ Ð¼
ĠÐ§ ÐµÑĢÐµÐ·
ĠÐ¶Ð¸ ÑĤÐµÐ»Ð¸
ĠÐ¾Ð±ÑĬ ÐµÐ¼Ð°
ĠÐ°Ð²ÑĤÐ¾Ð¼ Ð°ÑĤ
Ð²Ð¾Ð´Ð¸ ÑĤÑĮ
ĠÐ±Ñĥ ÑħÐ³Ð°Ð»
ĠÐ´Ð¾ÑĢ Ð¾Ð³Ð¾
ĠÐ³Ð¾ÑĢÐ¾Ð´Ð° Ñħ
ĠÑĨÐµÐ½ Ñĥ
ĠÑģÐ²ÑıÐ·Ð° Ð½Ð½ÑĭÐµ
ĠÐ³Ð¾Ð»Ð¾Ð² Ñĭ
ĠÑģÑĤÑĢÑĥ ÐºÑĤÑĥÑĢ
ĠÐ·Ð°Ð³ ÑĢÑĥ
ĠÐķÐ² Ð³
ĠÐºÐ¾Ð½Ð´Ð¸ÑĨÐ¸Ð¾Ð½ ÐµÑĢÐ°
ÐºÐ¾Ð± ÑĢÐ¸ÑĤÐ°
p er
u x
ÑĢÐ° Ð¿ÐµÐ²
Ð¶ Ð¼Ð¸ÑĤÐµ
ÑĤÐ¸ ÑĩÐµÑģÐºÐ¸Ñħ
Ð¾Ñģ Ð½Ð°Ð±
ĠÐĿ ÐµÐ´
ĠÐĳ ÑĢÐµÐ½
ĠÐ´Ðµ Ð²Ð¾ÑĩÐµÐº
ÑīÐ° ÐµÐ¼
ĠÐ¾Ð´ Ð½Ð¾Ð¼Ñĥ
ĠÑģÐ¾Ð² ÐµÑĤÐ°
ĠÑģÐ¾Ð·Ð´Ð° Ð½Ð¸Ð¸
Ðĸ Ð¸
ĠÑģÐ¿ÐµÑĨÐ¸Ð°Ð»Ð¸ Ð·Ð¸ÑĢÐ¾Ð²Ð°Ð½
ĠÐŀÐ´ Ð½Ð°
ĠÐ¿ÑĢÐ¾ÑĪ Ð»Ð°
ĠÑĤÐµÐ»ÐµÑĦÐ¾Ð½ Ð¾Ð²
ĠÑģÑĤÐµÐº Ð»Ð°
ĠÐ¿Ð¸ÑģÐ° Ð»
ĠÐ¿Ð¸ÑģÑĮ Ð¼Ð¾
ĠÐ²Ð¾Ð·Ð½Ð¸Ðº Ð½Ð¾Ð²ÐµÐ½Ð¸Ñı
ĠÐ³Ð»Ñĥ Ð±Ð¸
ĠÐ²ÐµÐ´Ñĥ ÑīÐ¸Ñħ
ĠÐ¿Ð°ÑĨÐ¸ ÐµÐ½ÑĤÐ¾Ð²
ĠMod s
E L
P S
Ġ ?
ĠÐ¿ ÑĩÐµ
Ð¾ÑĢ Ð´Ð¸Ð½Ð°
ĠÐ½Ð° ÑĤÑı
Ð»Ðµ ÑĢÐ¸Ð¹
ĠÐ° Ñģ
ĠÐ° Ð²Ð¸
ÑģÑĤÐ¸ Ð»
ĠÐ¿ÑĢÐ¸ Ð½ÐµÑģ
ĠÐ±Ñĭ ÑģÑĤ
ĠÐ¸Ð½ ÑģÐ¿ÐµÐº
ĠÐĳ Ð¸Ð·Ð½ÐµÑģ
ĠÐ¸ÑģÐ¿ ÑĢÐ°Ð²Ð¸
ĠÑĩÐµ ÑģÑĤÑĮ
ĠÐ¿Ð¾Ð· Ð°
ĠÐ´ÐµÑĤ ÑģÐºÐ¾Ð³Ð¾
ĠÐ¿Ð¾Ð»ÑĥÑĩ ÐµÐ½Ð¸Ðµ
ĠÐŁÐµÑĢ Ð¼
ĠÑĤÐµÐº ÑģÑĤÐ¾Ð²
ĠÐ²Ð¾Ð² ÑģÐµ
ĠÐ¿Ð¾ÑģÑĤÑĢÐ° Ð´Ð°
ĠMight y
Ðµ ÑħÐ°Ð»
Ð± ÐºÐ¸
Ð¾Ð» Ð¾Ð³Ð°
Ð¾ÑĢ ÑıÐ´
Ñį ÑĪ
ĠÑį Ð¿Ð¾
Ð¾Ð»ÑĮ Ð½ÑĭÐ¹
ĠÐ´Ð° ÑĤÑĭ
Ð¿Ñĥ Ð»ÑĮ
Ð¿ÐµÑĢ Ð²ÑĭÑħ
ÑĢÐ¾Ð¿ Ð¸
ÑĢÐ¾Ð¿ Ñĭ
ĠÑĢÑĥÐ± Ð»Ñı
ÑĪÐºÐ° ÑĢ
ĠÑįÑĤÐ° Ð¿Ð°
ÐºÑĤÑĥ ÑĢÑĭ
ĠÑģÐ¾Ð±ÑģÑĤÐ²ÐµÐ½ Ð½Ð¾Ð¹
ĠÐ½Ð°ÑģÑĤÐ¾Ñı ÑīÐµÐ³Ð¾
Ġp ro
ĠÐ¿ÑĢÐ¾ÑĪ Ð»Ð¸
ĠÐ¿Ð¾Ð½Ð¸Ð¼Ð° Ñİ
ĠÑĤÐ¾Ð½ Ð½
Ð²ÑĪÐ¸Ñħ ÑģÑı
ĠÐ¿ÑĢÐ¾Ð´Ð¾Ð»Ð¶Ð° ÐµÑĤ
ĠÑģÑĤÐ°ÑĤÑĥ Ñģ
ĠÑģÑĥÑīÐµ ÑģÑĤÐ²ÐµÐ½Ð½Ð¾
ĠÐºÐ°ÑĢÑĤÐ¾ ÑĦÐµ
Ð¼ Ð¾Ð½Ð°
ĠÐ¿ Ð¾Ð»ÑĮ
Ð»ÑĮ Ñİ
Ñī ÑĳÐ½
ĠÐ·Ð° Ð¿Ð¸ÑģÐ°
Ñį Ð¼
ĠÐ¼Ð° ÑģÑĤÐµÑĢÐ°
Ð¡ Ð¿Ð°
ÑģÐ° Ð´ÐºÐ¸
ĠÐ¸Ð½ ÑģÑĤÐ¸ÑĤÑĥ
ĠÑģÐ¿ ÑĢÐ°Ð²Ð¸
Ð±Ð¸ Ð»
ÑĨÐ¸Ñı Ð¼
Ð£ ÐĹ
ĠÐ²Ñģ Ð»ÐµÐ´
or g
ĠA S
Ð¾Ð¶Ð¸ ÑĤÑĮ
ĠÐ±Ð° Ð·Ñĭ
ĠÐ¾Ð±ÑĢÐ° Ð±Ð°ÑĤÑĭ
ĠÑĢÐµÐ³Ð¸ Ð¾Ð½Ð¾Ð²
Ð¾ÑĢÐµ ÐºÑģ
ĠÑĢÑĥÑģ ÑģÐºÐ¾Ð¹
ĠÑĢÐµÑĪÐ¸ ÑĤÑĮ
ĠÑĪÐµ ÑģÑĤÐ¸
ĠÑģÐ¾ÑħÑĢÐ° Ð½Ð¸ÑĤÑĮ
ĠÐ¿Ð¾ÑĢÑĤÐ° Ð»
ĠÐ´ÐµÑģÑı ÑĤÑĮ
ĠÐ¿Ð°Ð½Ðµ Ð»Ð¸
ĠÐ¶Ð¸Ð´ÐºÐ¾ ÑģÑĤÐ¸
ĠÐ¿Ð¾Ð½Ðµ Ð´ÐµÐ»ÑĮ
s e
Ð² ÐºÐ¸
ĠÐ´ Ð½ÐµÐ²
Ð¾Ð» Ð¾Ð¼
ĠÐ¿Ð¾ ÑģÑĤÐ°Ð²Ð»ÐµÐ½
Ð¾Ð± Ð¾ÑĢ
ĠÐ¾Ð± Ð°
ÑĩÐ° ÑĤÑĭÐ¹
ĠÐ²Ñĭ ÑĢÐ°Ð¶Ð°
ĠÑĢÐ°Ð· Ð²ÐµÐ´
ĠÐ¿ÐµÑĢÐµ ÑĩÐ¸Ñģ
ĠÐºÐ¾ ÑĦÐµ
ĠÐ·Ð°ÑīÐ¸ ÑĤÐµ
ĠÐºÐ¾Ð»Ð¸ÑĩÐµ ÑģÑĤÐ²Ðµ
ĠÐ´Ð¾ÑĢ Ð¾Ð³Ðµ
ĠÐ¿Ð¾ÐºÐ°Ð·Ð° ÑĤÐµÐ»Ð¸
ĠÐºÐ²Ð°ÑĢ ÑĤÐ°
ĠÐ¸Ð´Ðµ Ð°Ð»ÑĮÐ½Ð¾
ĠÐºÐ¾Ð½ÐºÑĥÑĢ Ñģ
ĠÐ²ÑĢÐµÐ¼ÐµÐ½ Ð°
ĠÑģÐ¼Ð¾Ð³ Ð»Ð¸
ĠÑĢÐµÐºÐ¾Ð¼ÐµÐ½Ð´Ñĥ ÐµÐ¼
Ð´Ð½Ðµ Ð²Ð½Ð¾
ĠÐ·Ð´ÑĢÐ°Ð²Ð¾Ð¾Ñħ ÑĢÐ°Ð½ÐµÐ½Ð¸Ñı
Ġ {
Ð´ Ð½ÑĭÐ¹
ĠÑģ ÐµÐ¹
ĠÑģ Ð»Ð¾Ð¹
Ð· Ð¾Ð½
ĠÐ± Ð¾Ð»Ð¸
ÑĨÐ¸ Ð½Ð°
ĠÐĴ Ðĺ
ĠÐ²Ñĭ ÑĢÐ¾Ñģ
ĠÐĿ Ð°Ðº
ĠÑģÑĤ Ð¾ÑıÑĤ
ÑĢÑĭ Ð¼
ĠÐĺ Ð³Ð¾ÑĢ
ĠÐĺ ÑĢÐºÑĥÑĤ
ĠÑĢÑĥ Ð±Ðµ
ĠÐ¿ÑĢÐ¾Ð² ÐµÑĢÐ¸ÑĤÑĮ
ÐºÑĢÐ° ÑĦÑĤ
ÑĢÐ¾Ð²Ð°Ð½ Ð½Ð°Ñı
ÑģÑĤÑĢÐ¾Ð¹ ÐºÐ¸
ra m
ĠÐ»ÑİÐ±Ð¸ ÑĤÐµÐ»ÐµÐ¹
ĠÑģÑĭ Ð½
ĠÐ½Ð°Ð· Ð²Ð°ÑĤÑĮ
ĠÑģÐ¾Ð²ÑĢÐµÐ¼ÐµÐ½ Ð½Ð¾Ð¹
ĠÐ¼ÐµÑģÑĤ Ð½Ð¾Ð³Ð¾
Ġm p
ĠÐºÐ¾Ð½ÑģÑĤÑĢÑĥ ÐºÑĨÐ¸Ñı
ĠÐ¿Ð¾Ð³ ÑĢÑĥ
ĠÑģÐ¾ÐµÐ´Ð¸Ð½ ÐµÐ½Ð¸Ñı
ĠÑħÐ¾ÑĤÐµ Ð»
ÐĿÐ« Ðķ
ĠÐ°Ð³ÐµÐ½ÑĤ ÑģÑĤÐ²Ð°
ĠÐ¸Ð½Ð¾ÑģÑĤÑĢÐ°Ð½ Ð½ÑĭÑħ
ĠÐºÐ¾Ð½ÑģÑĤÑĢÑĥÐº ÑĨÐ¸Ð¹
ĠÐ·Ð´Ð° Ð½Ð¸Ð¹
ĠÐ§Ð¸ÑĤÐ° ÑĤÑĮ
ĠÐŀÑĤÐµ ÑĩÐµ
8 7
l y
r an
Ð² ÑĤÐ¾ÑĢ
Ð± ÐºÐ°
Ð²Ð° Ð¸
ĠÐ·Ð° Ð»Ðµ
ĠÐ¾ÑĤ Ð¼ÐµÑĤ
ĠÐ¡ Ð¼Ðµ
ĠÐľ Ð§Ð¡
Ð¿Ð° ÑĤÐ¸
ĠÐĺ Ð³ÑĢÐ°
ĠÑģÑĤÐ° Ð±Ð¸Ð»Ð¸
ĠÐŁÑĢÐ¸ ÑĩÐµÐ¼
ĠÐ´ÐµÑĤ ÑģÐºÐ¸Ðµ
14 0
ĠÐ¡Ð¾ ÑģÑĤÐ°Ð²
24 0
ĠÐ½ÐµÐ¿ ÑĢÐ°Ð²Ð¸
ĠÑģÑĭ Ð½Ð°
ĠÐ´ÐµÑĢÐµ Ð²Ð¾
ĠÑĤÐ¾ÑĢÐ³Ð¾Ð² Ð»Ð¸
ĠÐ¼ÑĥÐ·Ñĭ ÐºÑĥ
ĠÐ¾Ñħ Ð¾ÑĤ
ĠÑģÐ½Ð° Ð±
ĠÐ´Ð°Ð² Ð»ÐµÐ½Ð¸Ðµ
ĠÐ¿Ð¾ÑģÐµÑĤÐ¸ ÑĤÐµÐ»ÐµÐ¹
ĠÐ¡Ð¿ Ð¾ÑĢÑĤ
ĠÑģÐ¾ÑģÑĤÐ¾ Ð¸ÑĤÑģÑı
ĠÐ°ÐºÐºÑĥ Ð¼ÑĥÐ»Ñı
ĠÑģÑĤÑĢÑĥÐºÑĤÑĥ ÑĢÑĭ
ĠÐ¾Ð±ÑıÐ·Ð°Ð½ Ð½Ð¾ÑģÑĤÐ¸
ÑħÐ°Ð½ Ð³ÐµÐ»ÑĮ
ĠÑĢÐ°ÑģÑħÐ¾Ð´ Ñĭ
ĠÐ¿ÑĢÐµÐ´Ð¿Ð¾Ñĩ ÑĤ
I X
l d
Ñĭ ÑĪÐµ
ÑģÑĤ Ð¾ÑĢÐ¾Ð½
ĠÐ·Ð° Ð´ÐµÑĢ
Ñį Ð»ÐµÐºÑĤ
ĠÐ° ÑĢÐ¾Ð¼Ð°ÑĤ
ĠÐ» ÐµÑĤÐ°
ĠÐľ Ð°ÑĤ
ĠÐĲ Ð¼ÑĥÑĢ
Ð³Ð¸ Ð¹
Ð°Ð»ÑĮ Ð½ÑĥÑİ
ĠÑĨ Ð°
Ð¾Ñĩ ÐºÑĥ
ĠÐ¿Ð»Ð° ÑĤÑĮÑı
ĠÐ¶Ð¸ ÑĢ
ĠÐ»ÑİÐ± ÑıÑĤ
Ð»ÐµÑĤ Ð¾Ð²
ĠÐ²Ð»Ð° Ð´Ðµ
ĠÑģÐ²Ñı Ð·
am p
ĠÐ¾Ð¿ÐµÑĢÐ° ÑĨÐ¸Ð¹
ĠÐ¿Ð¾Ð´Ð¾Ð± Ð½ÑĭÑħ
ĠÐ²Ð½ÑĥÑĤÑĢÐµÐ½ Ð½ÐµÐ¹
ĠÐ·Ð°Ð² Ð¾Ð´Ð°
ĠÐ±ÑİÐ´Ð¶ ÐµÑĤÐ°
ĠÐ²Ð¾ÑģÐº ÑĢÐµÑģ
O W
Ð» Ð¾ÑĤÐ¸
ĠÐ± Ð»ÑİÐ´Ð°
ĠÐŁ ÑĢÐ¾Ñģ
ĠÐ¿ÑĢ Ð¾Ð¹Ð´ÐµÑĤ
Ð¿Ð° Ð´Ð°
ĠÐ¸Ð½ Ð²Ð°Ð»Ð¸
Ð½Ð¾Ð² ÑĭÐµ
ĠÐ´Ð¾ ÑģÑĤÐ°ÑĤÐ¾
ĠÐºÐ¾Ð¼ Ð±Ð¸
Ð»Ð¾Ð² Ðµ
ĠÐ´Ðµ ÑĦ
ĠÐ¿ÐµÑĢÐµ Ð´Ð°ÐµÑĤ
ĠÐ¿ÑĢÐµ Ð·Ð¸Ð´ÐµÐ½ÑĤÐ°
Ð¾Ñĩ Ñĥ
ĠÐ¿Ð»Ð° Ð½Ðµ
ĠÑģÑĤÑĢÐ° Ð½Ð¸ÑĨÑĥ
ĠÑĢÐ°ÑģÐ¿ Ð¸
ÐµÐ½ÑĤÐ° Ð¼Ð¸
ĠÐ¸Ð½ÑĤÐµÑĢ ÑĮÐµÑĢ
ĠÑĨÐ²ÐµÑĤ Ñĭ
ĠÐ¾ÑĤÐºÑĢÑĭ ÑĤÑĮ
ĠÐ±Ð°Ð½ ÐºÐ¸
ĠÐ³Ð»Ð° Ð´
ĠÑĥÐ³ Ð»Ðµ
am s
Ð²Ñı Ð·
ĠÐ¿ÑĢÐµÐ´Ð»Ð°Ð³Ð° ÑİÑĤ
ĠÐ½Ð°ÑĩÐ¸Ð½Ð° ÑİÑĤ
ĠÐ½Ð¸Ð· ÐºÐ¾Ð¹
ĠÑĩÑĥÐ² ÑģÑĤÐ²Ð°
ĠÐ´ÐµÐ¿ÑĥÑĤÐ° ÑĤÐ¾Ð²
Ð²Ð°Ð¶Ð° ÐµÐ¼ÑĭÐµ
ĠÐ¾ÑħÐ»Ð° Ð¶Ð´ÐµÐ½Ð¸Ñı
8 9
ĠÐ² ÑħÐ¾Ð´ÑıÑĤ
Ñĩ ÐºÐ°Ð¼Ð¸
ÑĪ ÐµÐ½Ð°
ĠÐ·Ð° ÑģÐ»Ñĥ
ĠÐ¾Ð± ÑīÐµÐ½Ð¸Ñı
Ð¾Ñģ Ð¾Ð±Ñĭ
ĠÐĿ ÐµÐ¼
ĠÑĤÐµ ÑģÑĤÐ¸
ĠÐĲ ÑĤ
ĠÐ¿Ð¾Ð» Ð½ÑĥÑİ
ĠÐ¼Ðµ ÑģÑĤÑĥ
Ðľ Ð°ÑĢ
ĠÐ¿ÐµÑĢÐµ ÑģÑĤÐ°
ĠÐ¿ÑĢÐµ Ð²Ð¾Ñģ
ĠÑĢ Ð¾Ð»ÑıÑħ
ÑīÐµÐ½ Ð½ÑĭÐ¹
ĠÐ´Ð¾Ð¿ ÑĥÑģÑĤÐ¸
ĠÐ²ÑĭÑģÐ¾Ðº Ð¾
ĠÑĥÑĩÐ°ÑģÑĤ Ð½Ð¸ÐºÐ¸
ĠÐ¢Ð° ÑĤÑĮÑı
ĠÐ²ÑĤÐ¾ÑĢ Ð¾Ð¼
ĠÐ´Ð¾ÑģÑĤÐ°Ð² ÐºÑĥ
ĠÐ¿ÑĢÐ¾ÑĨÐµÑģÑģ Ñĭ
ĠÐ´ÐµÑĢÐµ Ð²Ð°
ĠÐ¿Ð¾ÐºÑĢÑĭ ÑĤÐ¸Ðµ
ul t
ĠÐ¡ÑĤÐ¾ Ð¸Ð¼Ð¾ÑģÑĤÑĮ
ĠÐłÐµÐ· ÑĥÐ»ÑĮÑĤÐ°
Ġ Ã
Ð½ ÐµÐ½Ð½Ð¾
Ñģ Ð½Ð°Ñı
ĠÐº Ð»ÐµÐ¼
ÑĤÐ¸ ÑĢÐ¾Ð²Ð°Ð½Ð¸Ðµ
ĠÐ¿Ð¾ Ð½Ð°Ð´
ĠÐŁ Ð¾Ð¸ÑģÐº
ĠÑĤÐµ Ð»
ĠÐ¿Ð¾Ð´ Ð²Ð¾Ð´
ĠÐ¿Ð¾Ð´ Ð¾ÑĪ
ĠÑĢÐ°Ð· ÑĥÐ¼
Ð¡ ÑĤÐ¾
ĠÐł ÐµÐ¹
ÐŁ ÑĢÐ¾Ð´Ð°
ĠÐ¢ ÑĥÑĤ
ĠÐĳ Ð°Ð»
ĠÐºÑĥ ÑĢÐ¸
ĠÐĸ Ð°Ð½
ĠÐ²ÑĭÑģÐ¾Ðº Ð¸Ð¼
ĠÑĢÐµÐ·ÑĥÐ»ÑĮÑĤÐ° ÑĤÐ°Ð¼
ic h
ĠÐ¼Ð°Ð³Ð°Ð·Ð¸ Ð½Ð¾Ð²
ĠÐ³ÑĢÑĥÐ¿ Ð¿Ðµ
ĠÐ½Ð°ÑģÑĤÐ¾Ñı ÑīÐ¸Ð¹
Ð¡Ð¢ Ðĺ
ÐľÐ° ÑĤÐµÑĢÐ¸
ĠÐºÐ¾Ð¼Ð¿Ð»ÐµÐº ÑĤÐµ
ĠÐ¾Ð±Ñĥ Ð²ÑĮ
ĠÐ¼Ð¾Ð±Ð¸ Ð»ÑĮÐ½ÑĭÑħ
ĠÐ¿ÑĢÐ¸Ð½ÑĨÐ¸ Ð¿Ðµ
ĠÑģÐµÑĤ ÑıÑħ
ĠÐ±Ð¾Ð»ÑĮÑĪÐ¸Ð½ ÑģÑĤÐ²Ðµ
ĠÐ¾Ð±Ðµ ÑīÐ°
ĠÑĦÐ°ÐºÑĤ Ð¾ÑĢÐ¾Ð²
ĠÑĥÐ´Ð¾Ð²Ð¾Ð»ÑĮ ÑģÑĤÐ²Ð¸ÐµÐ¼
ĠÐ¼Ð¾Ð· Ð³Ð°
ĠÐ·ÐµÐ¼Ðµ Ð»ÑĮÐ½Ð¾Ð³Ð¾
ĠÐ¾Ð±ÑģÑĤÐ¾Ñı ÑĤÐµÐ»ÑĮÑģÑĤÐ²Ð°
ĠÑĪÑĤÑĢÐ° ÑĦ
Ð¾ ÑĪÐºÐ°ÑĢ
Ñĥ ÐµÐ¼
Ð¿ ÐµÐ½
ÑĪ Ð½Ð¸
Ð»Ð¸ Ð·Ð¼
ÑĢÐ¾ ÑģÑĤÐ¸
ĠÑĩ ÑĥÐ´
ĠÐ° ÑĢÐ¾Ð¼Ð°
ĠÐŁ ÐłÐŀ
ĠÐ²Ñĭ Ð´Ð²Ð¸
ĠÐ¶ Ð´Ð°ÑĤÑĮ
ĠÑĢÐ°Ð· ÑĬ
ÐŁ Ð¸
ÑĢÐ¾Ð² ÐºÑĥ
ĠÐºÐ¾Ð½ ÑģÐµÑĢ
Ð¸Ð½ ÑģÐº
Ð¸Ð½ ÐºÐ°
ĠÑģÐ°Ð¼ Ð¾Ð»ÐµÑĤ
ĠÑĢ Ð¾ÑĤ
ÑĥÐ¶ Ð½Ð¾
ĠÐ§ Ñĥ
ĠÐ»ÑİÐ± Ð»Ñİ
ĠÐ²Ð¾Ñģ Ð¿ÑĢÐ¾
ÑĪÐµÐ½ Ð¾
ĠÐľÐ° ÑĢÐ¸
ÐŃ Ð»ÐµÐºÑĤ
ĠÐ¿Ð¾Ð»ÑĥÑĩÐ¸ Ð»Ð°
ĠÐ¾ÑģÑĤÐ° Ð»ÑĮÐ½ÑĭÐµ
ĠE x
ĠÑįÑĤÐ° Ð¿
ĠÐĺÑģÐ¿ Ð°
ĠÐ·ÐµÐ¼ Ð»Ñı
ĠÑĦÑĥÐ½ ÐºÑĨÐ¸Ñı
ĠÐ½ÐµÐ·Ð° ÐºÐ¾Ð½
ĠÐ½Ð°Ñĥ Ðº
ĠÐ¿Ð¾Ñħ Ð¾Ð¶Ð¸
ĠÑģÐ¿ÑĢÐ° ÑĪÐ¸
ĠÐ¿Ð¾Ð¿ÑĢÐ¾Ð± Ð¾Ð²Ð°ÑĤÑĮ
ĠÐ²Ð¾ÑģÑĤ ÑĢÐµÐ±
ĠÐ¿Ð¾Ð½Ð°Ð´ Ð¾Ð±Ð¸
ĠÐº ÐµÐ¼
ĠÐ´ Ð²ÐµÑĢ
Ð³Ð° ÐµÑĤ
Ðļ Ð£
Ð»Ð¾Ð² ÑĭÑħ
Ðľ ÐµÑĤ
ĠÐ²Ð¾Ð· Ð»Ðµ
ĠÐķ Ðµ
ĠÐ´ÑĢÑĥ Ð³Ñĥ
Ð¾Ð´Ðµ Ð»Ð¸
ĠÐ¾Ð±ÑĢÐ° ÑīÐµÐ½Ð¸Ñı
16 0
ĠÑĨÐ¸ Ð²Ð¸Ð»Ð¸
ĠÐºÐ¾Ð»Ð¸ÑĩÐµ ÑģÑĤÐ²Ð¾Ð¼
ĠÐ·Ð°ÑıÐ² Ð»ÐµÐ½Ð¸Ðµ
ĠÐ¸ÑģÐºÐ»Ñİ ÑĩÐµÐ½Ð¸ÐµÐ¼
ĠÑĪÐµ ÑģÑĤÑĮ
Ġ: :
ĠÑĢÐ¾Ð· Ð½Ð¸
ĠÐ¾ÑĦÐ¸ÑĨÐ¸Ð°Ð»ÑĮ Ð½ÑĭÐ¹
ĠÐ¿Ð¾Ð´ÑĢÐ¾Ð± Ð½Ð¾
ĠÐ£ÑģÐ»Ñĥ Ð³
ĠÐ²Ð¸Ð· Ñĥ
ĠÐ¸Ð·Ð±Ð° Ð²Ð¸ÑĤÑĮÑģÑı
ĠÑĤÐ°Ð± Ð»ÐµÑĤ
ĠÑģÐ¾Ð³Ð»Ð°ÑģÐ¸ Ðµ
ĠÑĦÑĥÐ½Ð´Ð° Ð¼ÐµÐ½ÑĤÐ°
ĠÐĶÐ¼Ð¸ÑĤÑĢÐ¸ Ð¹
ĠÐ¸ Ð¿Ð¾ÑĤÐµ
Ð¿ ÑĢÐ¾Ð´Ð°
ĠÐº Ð¾Ðº
ÑĢÐµ ÑĤÑĭ
ĠÐ· Ð¾Ð½Ðµ
ĠÐ· Ð´Ð°Ð½Ð¸Ðµ
ĠÑĥ ÑģÑĤÑĢÐ°Ð½
ÑĦ ÑĤÐµ
ĠÐºÐ° ÑĦÐµÐ´
ÑģÐ¸ Ð»
ĠÐ¿ÑĢÐ¾ ÑħÐ¾Ð´ÑıÑĤ
ÑĪÐ¸ Ð²Ð°Ð½Ð¸Ñı
ĠÐĵ ÐµÐ½
ĠÐ¿ÐµÑĢÐµ ÐºÐ»ÑİÑĩÐ°
ÑĤÐ¾Ð² ÑĭÐ¹
er n
ĠÐ½Ð¾Ð² Ð¾Ð¼
200 2
Ð¾Ð²Ð°Ð½ Ð½ÑĭÐµ
Ð²Ð°ÐµÐ¼ ÑĭÐ¹
ĠÑĢÐ°ÑģÑģÐºÐ° Ð·ÑĭÐ²Ð°
ĠÐ½Ð°Ð· Ð²Ð°Ð½Ð¸Ñı
ĠÐ¾ÑģÑĥÑīÐµÑģÑĤÐ² Ð»ÑıÐµÑĤ
ĠÐ»Ð¸ÑĨ Ð°Ð¼
ĠÐ¾ÑĩÐµÑĢÐµÐ´ Ð½Ð¾Ð¹
ĠÐ¾ÑģÑĤ Ð¾ÑĢÐ¾Ð¶
ĠÐºÐ¾Ð¼Ð¿ÑĮÑİ ÑĤÐµÑĢÐ°
ĠÐ°Ð»ÑĮ Ð±Ð¾Ð¼
ĠÐ¿ÑĢÐ¸Ð»Ð¾Ð¶ ÐµÐ½Ð¸Ñı
ĠÑĥÐ½Ð¸Ð²ÐµÑĢÑģÐ¸ÑĤ ÐµÑĤ
6 1
ĠÑģ ÐºÐ»Ð°Ð´
Ð¿ Ð¾ÑĢÑĤÐ°
ĠÐ¾ Ð¿Ð°
Ñİ Ð¹
ÑĤÐµ ÐºÐ°
Ð»Ð° Ð¼Ð°
ĠÐ± ÑĢÐ¾Ð½
ĠÐ·Ð° ÑĢÐ°Ð±Ð°ÑĤÑĭ
ĠÐ¡ ÑĥÐ¼
ĠÑĢÐµ ÑĪÐ°
ĠÐĺ Ð¸ÑģÑĥ
ÐĿ Ðķ
ĠÐ¿ÑĢÐµ Ð·Ð¸Ð´ÐµÐ½ÑĤ
ĠÑĪ Ð»Ð¸
or e
ĠÐ²ÐµÑĢ ÑĤÐ¸ÐºÐ°
ĠÐ¿Ð°ÑĢ ÑĤÐ¸Ð¸
ĠÑĥÑģÐ»Ð¾Ð²Ð¸ Ð¸
ĠÐ½Ð°Ð¿ÑĢÐ°Ð² Ð»ÐµÐ½Ð¸Ð¸
ĠÐ¡Ð° Ð¼Ð°
ĠÑģÑĤÐµÐº Ð»Ð¾Ð¿
ow er
ĠÑģÐµÑĢÐ²Ð¸ ÑģÐ°
ĠÐĴÐµ Ñģ
ĠÑĦÐ¾Ð½ Ð´Ð°
ĠÐ½Ð°Ð³ÑĢÑĥÐ· ÐºÐ¸
ĠÐ²ÐµÑĩÐµÑĢ Ð¾Ð¼
ĠÐ¿ÑĢÐµÐ´ÑģÑĤÐ°Ð² Ð»ÐµÐ½Ð¸Ñı
ĠÐºÐ°Ð¼ÐµÑĢ Ñĭ
ĠÑĥÑĤÐ²ÐµÑĢÐ¶Ð´ ÐµÐ½Ð¸Ð¸
ĠÐ¿Ð¾Ð»Ð½Ð¾ ÑĨÐµÐ½
ĠiP hone
ĠÐ¾ÑĤÑĢÐ° ÑģÐ»Ð¸
Ð´ Ð¾Ðº
ÑģÑĤ ÐµÑĤÐ¸
ĠÐ¼ ÑĥÐ´
ĠÐ½Ð° ÑĩÐ¸Ð½Ð°Ñı
ÑģÑĤÐ¸ Ð»Ð°
Ð´Ðµ ÑĢÐ°
ĠÐŁ ÑĢÐ¾Ð¼
ĠÐ¿ÑĢÐ¸ ÑĢÐ¾Ð´Ðµ
ĠÐ²Ñĭ ÑĢÐ°Ð·Ð¸
ĠÑĢÐµ Ð±ÑıÑĤÐ°
ĠÑı Ð²Ð½Ð¾
ÑĢÑı Ð½
Ðł ÑĥÑģ
Ð¼Ñĭ Ð¼Ð¸
Ð¾ÐºÑĥ Ð¿Ð°
ĠÐ³Ð¾Ð» ÑĥÐ±
ĠÐ²ÑĭÐ¿Ð¾Ð» Ð½ÑıÑĤÑĮ
ĠÐ½Ð°Ð¿ÑĢÐ°Ð² Ð»ÐµÐ½Ð¸Ðµ
ĠÑĩÐ°ÑģÑĤ ÐµÐ¹
ĠÐ¶ÐµÐ»Ð° Ð½Ð¸Ñı
ĠÐĽÑİ Ð´Ð¸
ĠÑĤÐ²Ð¾ÑĢ ÑĩÐµÑģÑĤÐ²Ð°
Ð¡Ðļ Ðĺ
ĠÐ¾Ð±ÑĬÐµÐºÑĤ Ñĭ
ĠÐĶÐ¶ Ð¾Ð½
ĠÑģÐ¾Ð» Ð´Ð°
ĠÐºÐ¾Ð¼Ð¸ ÑģÑģÐ¸
ĠÑĦÐ¾ÑĢÐ¼Ð¸ ÑĢÐ¾Ð²Ð°Ð½Ð¸Ñı
ĠÐ¸ÑģÐ¿Ð¾Ð»ÑĮÐ·Ñĥ Ñı
ĠÐ»Ð¾ ÑĪÐ°
ĠÑĩÑĢÐµÐ· Ð²ÑĭÑĩÐ°Ð¹
ĠÐĿÐĶ Ð¡
ĠGo ogle
ÑĤ ÑĢÐ¾
Ðº ÑĢÐ¾
ÑĢÐ° ÑģÑĤÐ°
ĠÐ¸ ÑģÑĤÐ¸
ÑĢÐµ Ð»ÑĮ
ĠÐ± Ð¸ÑĤ
ĠÐ³ Ð¾ÑĢÐµ
ĠÐ¾Ð± Ð·Ð¾ÑĢ
ĠÐ¶ ÐµÐ½Ð°
ÐĴ Ðķ
ĠÐ¢ ÐµÐº
Ð½Ð¾Ð² Ð¾Ð¹
ÐµÐ² Ð¾
ÐµÑĤÐ¸ Ñı
Ð²Ð¾Ð´Ð¸ ÑĤÑģÑı
Ð»ÐµÑĤ Ð½Ð¸Ð¹
200 3
200 4
ĠÐłÐ° ÑģÐ¿
ĠÑģÐºÐ°Ð·Ð° Ð»Ð°
ĠÐ¿Ð¾Ð»ÑĮÐ·Ð¾Ð²Ð° ÑĤÐµÐ»Ñı
ĠÑĢÑĥÑģ ÑģÐºÐ¾Ð¼
ĠÑģÐ»Ð¾Ð¶ Ð¸
ĠÐ¸Ð½ÑģÑĤÑĢÑĥ Ð¼ÐµÐ½ÑĤÐ¾Ð²
ĠÐ¿Ð¾Ð¼Ðµ ÑīÐµÐ½Ð¸Ðµ
ĠÑĩÐ¸ Ð½Ð¾Ð²
ĠÐĽÑİ Ð±
ĠÐ¾ÐºÐ°Ð·ÑĭÐ²Ð° ÐµÑĤÑģÑı
ĠÐ½Ð¾Ñģ Ð¸ÑĤ
ĠÑĤÑĢÑĥÐ± Ð¾Ð¿ÑĢÐ¾Ð²
ĠÑģÑĤÑĢ Ð¾Ð³Ð¾
ĠÐ¼Ð°ÑģÑģÐ° Ð¶
ĠÐ¼Ð¾Ð½ÑĤÐ° Ð¶
ĠÐºÐ¾Ð½ÑĦÐ¸ Ð´ÐµÐ½ÑĨÐ¸Ð°Ð»ÑĮ
ĠÐĴÑģÐµÐ¼ Ð¸ÑĢ
Â ®
Ñĩ ÐºÐ¾Ð²
ÑĢÐ° Ð±
ĠÐ´ Ð°Ð¼
ĠÐ´ Ð¸Ð·
ĠÐ¼ ÐµÐ¼
ÑĨ Ðº
ĠÐ· Ð¸
ĠÐ· Ñĥ
ĠÑĩ Ð»ÐµÐ½Ð°
ĠÑģÑĤ ÑĥÐ¿
ĠÐ¼Ð° ÑģÑģÑĭ
ĠÑģÐ² ÑĭÑĪÐµ
ĠÐĺ ÐĿ
ÑĥÐ´ Ð¾Ð²Ð°Ð½Ð¸Ðµ
Ðł ÐµÑģÐ¿
ĠÐĿÐ° Ð´Ðµ
ĠÑĪ Ð²ÐµÐ¹
ÑģÑĭ Ð²Ð°ÑĤÑĮ
ĠÐ²Ð¾ ÐµÐ½Ð½Ð¾
Ð¿Ð¾Ð» Ð½Ð¾Ð¼
ĠÐ¿Ð¾Ð¿ ÑĢÐ¾
ĠÐ´Ñĥ ÑĪÐ°
ĠÐĴÐ° Ð»ÐµÐ½
ĠÐ¾ÑĤÐ½Ð¾ ÑĪÐµÐ½Ð¸Ñİ
ĠÑģÐ¿Ð¾ÑģÐ¾Ð± Ð¾Ð²
ĠÐ³Ð¸ Ð±
ĠÑģÐ¾ÑģÑĤÐ¾Ñı Ð»ÑģÑı
ĠÐ¿ÑĢÐ¾Ð±Ð»ÐµÐ¼ Ñĥ
ĠÑģÐ»Ðµ Ð³
ĠÑģÑĤÑĢÐ¾Ð¸ ÑĤÐµÐ»ÑĮÑģÑĤÐ²Ðµ
ĠÐ¾Ð±ÑīÐµ ÑģÑĤÐ²Ð¾
ĠÐ¿ÑĢÐµÐ´Ð»Ð¾Ð¶ ÐµÐ½Ð¸Ð¹
ĠÑģÑĤÐ°Ð½ ÑĨÐ¸Ð¸
ĠÐ´Ð»Ð¸ Ð½Ð°
Ġ: )
ĠÐ¾ÑĤÑģÑĥÑĤ ÑģÑĤÐ²Ð¸Ð¸
ĠÑĤÐºÐ° Ð½ÐµÐ¹
ĠÐ³ÑĢÐ°Ð´Ñĥ ÑģÐ¾Ð²
Ðµ ÑģÑĤÑĮ
Ð° Ð»Ð¾Ð²
ĠÐ² Ð¿ÐµÑĢÐµÐ´
Ð½Ð¾ Ð½
ĠÐ½Ðµ Ð±
ĠÐ¿ÑĢÐ¸ ÑĪÐµÐ»
ÑģÐ¿ Ð¾ÑĢÑĤÐ°
ĠÐĿ ÐµÐºÐ¾ÑĤÐ¾ÑĢÑĭÐµ
ĠÐ¶ Ð´ÐµÑĤ
ĠÐĵ Ð´Ðµ
ÑģÑģ ÐµÑĢ
ÑĦÐ¸ ÐºÑģÐ¸
ÑĢÐ°Ð»ÑĮ Ð½ÑĭÐ¼
ĠÐ±Ðµ Ð»
ĠÑħÐ¾ÑĢÐ¾ ÑĪÐ¸Ðµ
ĠÑģÐ¿Ð¾ÑģÐ¾Ð± ÐµÐ½
ÑĢÐ¾Ð± Ð»ÐµÐ¼
ĠÐŀÐ½ Ð»Ð°Ð¹Ð½
ĠÑĢÑĥÑģ ÑģÐºÐ¸Ñħ
ĠÐ´Ð¾ÑģÑĤÑĥÐ¿ Ð½Ñĭ
ĠÑĢÐµÐ°Ð»ÑĮ Ð½ÑĭÐµ
ĠÐ¸Ð³ÑĢÐ° ÐµÑĤ
ĠÐłÑĥ ÐºÐ¾Ð²
Ð»ÑİÐ´ ÐµÐ½Ð¸Ðµ
ĠÐ²Ð»Ð¸Ñı ÐµÑĤ
ÐłÐ° Ð±Ð¾ÑĤÐ°
ĠÐ¿Ð» Ð¾Ð´
ĠÐĲÐº ÑģÐµÑģÑģÑĥÐ°ÑĢÑĭ
ĠÐĶÐµÑĤ ÑģÐºÐ¸Ðµ
ĠÑĩÐµÐ¼Ð¿Ð¸Ð¾Ð½Ð° ÑĤÐ°
Ð¾Ð¼ÐµÑĤ ÑĢÐ¸
ĠÐľÐ¸Ð½Ð¸ÑģÑĤÐµÑĢ ÑģÑĤÐ²Ð°
ĠÑģ ÐµÐ½
Ð¿ Ð¾Ð·Ð¸
ĠÑĥ Ð²Ð°
ĠÑĥ ÑħÐ¾Ð´Ð°
ÑĦ Ð°Ð»ÑĮ
ĠÐ³ Ð°Ð¹
ĠÑĩ Ð»ÐµÐ½Ñĭ
ĠÐĲ Ð½Ð°ÑĤ
ÐĴ Ð¡
ĠÐĺ Ð³ÑĢÑĭ
ĠÐ¢ Ð¾Ð»
ÐºÐ¾Ð² Ñĭ
ĠÐºÐ¾Ð½ ÑĤÐ°Ðº
Ðľ Ð½Ðµ
ĠÐ£ Ð½Ð¸Ð²ÐµÑĢ
ĠÐ²Ðµ ÑīÐµÐ¹
ĠÐ¿Ð° ÑĢÑĭ
ÐĽ Ð°
Ð´Ð¸Ð½ Ð³
ĠÐ¸Ð¼Ðµ ÑİÑĤÑģÑı
ĠÑģÐ° Ð»Ð¾Ð½Ð°
ĠÐ¼ÐµÐ½Ñı ÑĤÑĮ
ĠÐ°ÑĢ ÑĤÐ¸
ĠÐ¿ÑĢÐ¾Ð´Ñĥ ÐºÑĨÐ¸Ñı
ĠÐ²ÑĭÑģÐ¾Ðº Ð¾ÐºÐ°ÑĩÐµ
ĠÐ·ÐµÐ¼ ÐµÐ»ÑĮ
ĠÑĤÐµÐ¼Ð¿ÐµÑĢÐ° ÑĤÑĥÑĢÐµ
ĠÐ´Ð¾Ð»Ð»Ð° ÑĢ
ĠÐ¿ÑĢÐµÐ´ÑĥÑģ Ð¼Ð°ÑĤÑĢÐ¸
ĠÐĻ Ð¾ÑĪÐºÐ°ÑĢ
Ð¾ÑĢÐ¾ÑĪ Ð¾
ĠÐ±ÑĥÐºÐ²Ð° Ð»ÑĮÐ½Ð¾
ĠÑĢÐµÐ»Ð¸Ð³Ð¸ Ð¾Ð·
Ñĩ ÐµÑĤÐµ
Ð³ Ð´Ðµ
ĠÐ´ Ð¾Ð»Ð¸
Ð¾Ð´ ÑģÑĤÐ²Ð¾
ĠÐ³ Ð¾ÑĢÐ¾
ĠÐ¿Ð¾ ÑĤÐµÑĢ
ÑģÑĤÐ¸ ÑĩÐµÑģÐºÐ¸Ñħ
ĠÐºÐ° Ð½Ð°Ð»
ĠÐ¿ÑĢÐ¸ ÑħÐ¾Ð´Ð¸ÑĤ
ĠÐ¡ Ð²Ð°
ĠÐļ Ð°Ð½
ĠÐĶ ÐµÐ¹
ĠÑĤÐ°Ðº ÑģÐ¸
ĠÐĽ ÑĮ
Ð±Ð° Ð¼Ð¸
ĠÐ¿Ð¾ÑĤ ÑĢÑı
ĠÑĨÐµ Ð»ÑĭÐ¹
ĠÐ¸Ð½ÑĤÐµÑĢ ÑĮÐµÑĢÐ°
Ð¥ Ð°
ĠÐľÐ¸ ÑħÐ°Ð¹
ĠÑĪÐ¸ ÑĢÐ¸
ĠÑĢÐ¾ÑģÑģÐ¸ Ð¹ÑģÐºÐ¾Ð¹
ĠÐ¸Ð´Ðµ Ñı
ĠÐ¿Ð¾Ð½Ñı Ð»
Ð¾Ñħ Ð¾Ð·ÑıÐ¹
ĠÑĦÐ¸Ð·Ð¸ ÑĩÐµÑģÐºÐ¸Ñħ
ĠÐ¿Ð¾ÐºÑĥÐ¿ ÐºÑĥ
ĠÐ·Ð°ÐºÐ»Ñİ ÑĩÐµÐ½Ð¸Ñı
ĠÐ¸Ð³ÑĢÑĥ ÑĪÐºÐ¸
ĠÑģÐµÑĤ ÐµÐ¹
ĠÐµÑģÑĤÐµ ÑģÑĤÐ²ÐµÐ½Ð½Ð¾
ĠÐ½Ð°ÑĨÐ¸Ð¾Ð½Ð°Ð»ÑĮ Ð½Ð¾Ð¹
ĠÐĹÐµÐ¼ Ð»Ð¸
ĠÐ·ÐµÑĢÐºÐ° Ð»Ð¾
ĠÑģÐ»ÐµÐ³ ÐºÐ°
ĠÐ¿ Ð¸Ð·
Ð½Ð¸ Ð²
ĠÑĥ Ð´Ð°ÑĢ
Ð»Ðµ Ð¸
ĠÑĤ ÐºÐ°Ð½ÑĮ
ÑģÑĤÐ° Ð½Ðµ
ĠÐ²Ñĭ ÑħÐ¾Ð´Ð¸ÑĤ
ĠÐľ Ðĺ
ÑīÐµ ÑģÑĤÐ²Ð¸
Ð¿Ð¸ Ð¾Ð½
ĠÐĳ Ð¾ÑĢ
Ð½Ð¾Ð¼ ÐµÑĢ
ĠÐ¿ÑĢÐµ Ð±Ñĭ
Ð¤ Ð¸
ĠÐ¾Ð±ÑĬ ÑıÐ²Ð¸
ĠÐĴÑĭ ÑģÐ¾Ðº
ÑıÐ·Ð° Ð½
ĠÐĿÐ¾Ð² Ð³Ð¾ÑĢÐ¾Ð´
ĠÐ²ÑĭÑģÐ¾Ðº Ð¸Ð¹
Ð¾Ð¶Ð´ ÐµÐ½Ð¸Ð¸
ĠÐ½ÐµÐ¾Ð±ÑħÐ¾Ð´Ð¸Ð¼Ð¾ ÑģÑĤÑĮ
ĠÐĲÐ² ÑĤ
ĠÑĥÑĩÐ°ÑģÑĤÐ¸ Ñı
ĠÐ¿Ð°ÑĢÐ° Ð»Ð»Ðµ
ĠÐ½ÐµÐ¾Ð±ÑħÐ¾Ð´Ð¸Ð¼ Ð¾Ðµ
ÑģÑĤÐ²ÑĥÑİÑīÐ¸ Ðµ
ĠÑĢÐ°ÑģÐ¿Ð¾Ð»Ð¾Ð¶ ÐµÐ½Ñĭ
ĠÑĩÑĥÐ² ÑģÑĤÐ²Ð¸
ĠÑĤÐ¾Ð» ÑīÐ¸
ĠÐ²ÐµÐ»Ð¸ ÐºÐ¾Ð»ÐµÐ¿
ĠÐ¿ÑĥÐ½ Ðº
ĠÐ¿Ð¾Ð´Ð°ÑĢ ÐºÐ¸
Ð´ÑĨÐ° ÑĤÐ¸
ĠÑĥÐ²ÐµÐ»Ð¸ÑĩÐ¸ ÑĤÑĮ
ĠÐºÐ¾Ð¼ÑĦÐ¾ÑĢ ÑĤ
ĠÐĴÐµÐ»Ð¸ ÐºÐ¾Ð±ÑĢÐ¸ÑĤÐ°
ĠÐ¿ÑģÐ¸Ñħ Ð¾Ð»Ð¾Ð³Ð¸
ĠÑģÐ¼ÐµÑĢ ÑĤÑĮ
ĠÐŀÑģÐ¾Ð± ÐµÐ½Ð½Ð¾
ĠÐ¾ÑĦÐ¾ÑĢÐ¼Ð¸ ÑĤÑĮ
ĠÐ´Ð¸ÑģÑĨÐ¸ Ð¿Ð»Ð¸
8 4
Ð½ Ð¾Ð¶
Ð½ ÐµÐ½Ð¸Ð¸
Ñı ÑĤÑĮÑģÑı
Ð³ Ð¾Ð´Ð°
Ð½Ð¸ ÑĤÑĮÑģÑı
Ð»Ð° Ð½Ð°
ÐºÐ° Ð½Ð°
Ð¾Ð²Ð° Ð½Ð°
ĠÐºÐ° Ð´Ð°
ÑĩÐ¸ Ð¼
Ð¾Ñģ Ð»Ð¾Ð²
ÑĤÐµÐ»ÑĮ Ð½Ñĭ
ĠÐ¸Ð· Ð¾Ð»Ñı
ĠÐĶ ÑĥÐ¼Ð°
ĠÑģÐ¾ ÑĨ
ĠÐºÐ°Ðº Ð¾Ð¼
ÑģÑģ Ð¾Ð²
ĠÑģÑĥ Ñħ
ĠÐºÐ¾Ð¼Ð¿Ð° ÐºÑĤ
ĠÑģÐ¿Ð¾ÑģÐ¾Ð± Ð½Ñĭ
Ð¾Ð²Ð°Ð½ Ð½Ð¾Ð³Ð¾
ÐµÐºÑĤÐ° Ðº
ĠÑĢÐ°Ð·Ð»Ð¸Ñĩ Ð½ÑĭÐ¼Ð¸
Ð¾Ð»Ð¾Ð¶ ÐµÐ½Ð¸Ðµ
ÑģÑĤÑĥÐ¿Ð° ÐµÑĤ
ĠÐ»Ð¸ÑĨ Ð¾Ð¼
Ð²Ð°Ñİ ÑīÐµÐ¹
ĠÑĢÐ°ÑģÑĤ Ñı
ĠÐ¿Ð¾ÑıÐ²Ð¸ Ð»Ð¸ÑģÑĮ
ĠÐ²ÑĭÐ´Ð° ÑĩÐ¸
ĠÐ¾ÑĤÐµ ÑĨ
ĠÐºÐ¾Ð¼Ð¼ÐµÐ½ÑĤÐ° ÑĢÐ¸
ĠÐºÐ»Ð¸ÐµÐ½ÑĤÐ° Ð¼
ĠÐ£Ð¿ÑĢÐ°Ð² Ð»ÐµÐ½Ð¸Ðµ
ĠÐ°Ð³ÑĢÐµ Ð³Ð°
ĠÐ¼Ð¾Ð´ÐµÑĢ Ð½Ð¸
Ġ <
ÑĤ ÑĢÐ°Ðº
Ñĩ Ð½Ð¾ÑģÑĤÑĮÑİ
ĠÐ± ÐµÑĤÐ¾Ð½
Ð»Ñı ÑĤÑĮÑģÑı
ĠÐ³ Ð°Ð¼
ĠÐ³ Ð¸Ð¼
ĠÐ¡ ÑĤÐ¸
ĠÑģÐ¾ ÑĨÐ¸
Ð¾Ð´Ð¸ Ð½
ĠÐ¿Ð¾Ð» Ð½Ð¾Ð³Ð¾
Ð½Ð¾Ð² Ð¾
ĠÐ´Ð¾ ÑģÑĤÐ¾Ð²ÐµÑĢ
ĠÐ£ Ð¶Ðµ
ĠÐ²Ðµ Ð´ÐµÑĤ
ĠÐ¿ÑĢÐµ Ð¾Ð´
ÑĤÐ¸Ð² Ð½ÑĭÐ¼
ĠÐ´Ð¸ ÑģÐºÐ¸
Ð±Ð° Ñħ
Ðĵ ÐµÑĢ
ĠÐ²ÑĭÐ¿Ð¾Ð» Ð½ÐµÐ½Ð¸Ðµ
ĠÐ·Ð°ÑīÐ¸ ÑĤÑĥ
ĠÐºÐ½Ð¸ Ð³Ðµ
ĠÐ¿ÑĢÐ¸Ð½Ñı Ð»
Ð¾Ð±ÑĢÐ° Ð¶Ð°
ĠÑĤÐµÐº ÑģÑĤÐ°
ĠÐ°Ð²ÑĤ Ð¾Ð±Ñĥ
ĠÑģÑģÑĭÐ» ÐºÑĥ
ĠÑĤÐµÐ½ Ð´ÐµÐ½
ĠÐºÑĥÑħ Ð½Ñı
ĠÐ¾Ð¿ÑĥÐ±Ð»Ð¸ ÐºÐ¾Ð²Ð°Ð½
ĠÑĢÐ°Ð·Ð¾Ð±ÑĢÐ° ÑĤÑĮÑģÑı
ÐłÐ¾ÑģÑģÐ¸ Ñı
T E
Ð¼ ÑĭÐ¹
ĠÑģ Ð»Ð¸Ð²
ĠÐ¸ ÐºÐ¾Ð½
Ð³ Ð¾Ð»
Ð¶ Ð½Ð¾Ð¼
Ð¶ ÑĮÑı
ĠÐ± ÑĥÑĤÑĭ
Ð¾ÑĤ Ð²Ð¾ÑĢÐ¸
Ð¾Ð²Ð° ÑĢ
ĠÐ¡ ÑĤÐ¾ÑĢ
ÑĢÐ¾Ð² ÐºÐµ
ĠÐ¾ÑĢÐ³Ð° Ð½Ð°
or m
Ð»Ð¾Ð¼ Ð°
ĠÐ¾Ð¿ÑĢÐµÐ´Ðµ Ð»ÑĳÐ½
ÑĪÐºÐ¸ Ð½
ĠÐºÐ»Ð¸ Ð½Ð¸
ĠÑĥÑĩ Ñĳ
ĠÑĥÐ³ ÑĢÐ¾Ð·
ÐºÑĤÐ¾ÑĢ Ð¾Ð¼
ĠÐ¿Ð¾Ð´Ð´ÐµÑĢ Ð¶Ð°
ĠÑģÐ¿ÐµÑĨÐ¸Ð°Ð»Ð¸ ÑģÑĤ
ĠÑģÐ¾Ð²ÑĢÐµÐ¼ÐµÐ½ Ð½ÑĭÐµ
ĠÑģÐ¾Ð²ÑĢÐµÐ¼ÐµÐ½ Ð½Ð¾Ð³Ð¾
ĠÐ¿Ð¾Ð²Ñĭ ÑĪÐµÐ½Ð¸Ðµ
ĠÐ²Ð¾Ð¹ Ð½Ð°
ĠÑģÐ°Ð¼Ð¾ Ñĥ
ĠÑĢÐ¾Ð· Ñĭ
ĠÐ·Ð°Ð´ Ð¾Ð»
ĠÐ¦ÐµÐ½ÑĤ ÑĢÐ°
ĠÐ¿ÑĥÐ±Ð»Ð¸ ÐºÐ°ÑĨÐ¸Ð¸
ĠÐ½ÐµÐ´Ð²Ð¸Ð¶Ð¸ Ð¼Ð¾ÑģÑĤÑĮ
ĠÐ´Ð¸ÑĢÐµ ÐºÑĤÐ¾ÑĢÐ°
ĠÐ½Ñĭ Ð½ÐµÑĪ
ĠÐĳÐµÐ»Ð°ÑĢÑĥ ÑģÑĮ
I D
a i
Ð² Ð¾Ð»ÑĮ
ĠÐ¿ Ñı
ÑĮ ÐµÐ¼
ĠÑģ ÐºÐ»Ð°Ð´Ñĭ
Ð¾Ð» Ð¾Ð³Ð¾Ð²
ÐµÐ¼ Ñĭ
Ð¾Ñģ Ðµ
ÑĪÐ¸ ÑĤ
ÑĪÐ¸ Ð»Ð¸
ĠÑģÐ² ÐµÐ´
Ð²Ðµ ÑĢÐ¸
ÑĢÐ¾Ð² ÑĭÑħ
ĠÐĳ Ð¾Ð¶Ð¸
ĠÐ£ ÑĩÐµÐ±
ĠÑĦÐ¸ ÐºÑģÐ¸
Ð¾Ð³ÑĢÐ° Ð½Ð¸
ĠÑĢÐ°Ð±Ð¾ ÑĩÐµÐ¹
ÑĩÐµÐ½ Ð½ÑĭÐ¹
ĠÐ¶Ð¸Ð· Ð½ÐµÐ½
ĠÐ¾ÑģÐ½Ð¾Ð² Ð½Ð¾Ð³Ð¾
ĠÐºÐ¾Ð» Ð»Ðµ
ĠÐ¾Ð¿ÑĢÐµÐ´Ðµ Ð»ÑıÐµÑĤ
ĠÐ¿ÑĢÐ¾Ð¸Ð·Ð²Ð¾Ð´Ð¸ ÑĤ
ĠÑĢÐµÐ± ÑĳÐ½
ĠÐ½Ð°Ð¸ Ð¼ÐµÐ½
ĠÐ¿ÑĢÐ¾Ð¿ Ñĥ
ĠÑĥÐºÑĢÐ° ÑĪÐµÐ½Ð¸Ñı
ĠÐ³ÐµÑĢ Ð¾Ð¸
ĠÐ¿Ð¾ÐºÑĥÐ¿Ð° ÑĤÐµÐ»ÐµÐ¹
ĠÐ¼Ð¸Ð»Ð»Ð¸ Ð°ÑĢ
ĠÐ°Ð¿Ð¿Ð°ÑĢÐ° ÑĤÐ°
ĠÐ¡Ð°Ð¹ ÑĤ
ĠÐ¿ÐµÑĢÑģÐ¾Ð½Ð° Ð»Ð°
ĠÑĢÑı Ð´Ð°
ĠÑģÐ¾ÑģÑĤÐ° Ð²Ð°
ĠÐºÐ¾Ð¼Ð¼ÐµÐ½ÑĤÐ° ÑĢÐ¸Ð¸
ĠÐ²Ð°Ð½ Ð½Ð¾Ð¹
ĠÐŁÑĢÐ°Ð² Ð´Ð°
ĠÐ¶ÐµÐ»Ðµ Ð·Ñĭ
ĠÐ¡ÐĿ Ðĵ
Ð¿Ð¾Ð»Ð½Ð¾Ð¼ Ð¾Ñĩ
Ð¼ Ð¾Ð³Ð¾
ĠÑģ Ð¾Ð»ÑĮ
ÐµÐ½ Ð½Ð¾Ð¼
ÑĢÐ° ÑĨÐ¸Ñı
ĠÐ¾ ÑĢÑĥ
Ð± ÐµÐº
Ð³ ÑĢ
ĠÐ´ Ð¾Ð¼Ñĥ
ĠÐ¾Ð± Ð¾ÑĢÐ¾Ð½Ñĭ
ĠÐ¼Ð° ÑĤÑĢÐ°
ĠÐĶ ÐµÑĢ
ĠÐł ÐĲ
ÐºÐ¾Ð² ÑĭÐ¼
Ðļ Ð¾Ð»
Ðľ Ñĥ
ĠÐ´Ð° ÑĤÑĥ
ĠÐ¿ÐµÑĢ Ð²Ð°Ñı
ĠÑįÐº Ð·
ĠÐ²ÐµÑĢ Ð½ÑĥÑĤÑĮ
ĠÑįÐ»ÐµÐºÑĤ ÑĢÐ¾Ð´
Ð¾ÑģÑĥ Ð´Ð¸
ĠÑĢÑĭ Ð±Ñĭ
ĠÐŀÑĤ ÐºÑĢÑĭ
ĠÐ¸Ð½ÑģÑĤÑĢÑĥ ÐºÑĨÐ¸Ñı
ÐµÑĢÑĤ Ð¾Ð¹
ĠÐ¿ÑĢÐ¾ÑĪ Ð»Ð¾
ĠÐ¼ÑĥÐ·Ñĭ ÐºÐ¸
ĠÐ½Ð°Ð¿Ð¸ÑģÐ° ÑĤÑĮ
ĠÐ¿ÑĢÐµÐ´ÑģÑĤÐ°Ð²Ð»Ñı ÑİÑĤ
ĠÐ½Ð¾ÑĥÑĤÐ±Ñĥ ÐºÐ°
ĠÐ¿Ð¾ÑģÑĤÐ° ÑĢÐ°
ĠÐ±Ð°Ð³Ð°Ð¶ Ð½Ð¸ÐºÐ°
9 4
Ðµ Ð³Ð¾
Ðº ÐµÑĤÐ°
ĠÑģ Ð¾Ð»Ð½ÑĨÐµ
ĠÐ¸ Ð´ÑĥÑĤ
Ð± ÐµÐ½
ĠÑĥ ÑīÐµÑĢ
ĠÐ½Ðµ Ð¸ÑģÐ¿
ÐºÐ¸ Ñģ
ĠÐ¾ÑĤ ÐºÐ»Ñİ
ĠÐºÐ° Ð¶Ð´Ð°Ñı
ĠÐŁ Ð¾Ðº
ĠÑĤÐµ Ð¾ÑĢÐµ
Ð¶Ðµ Ð²
ĠÐ¿ÑĢÐµÐ´ ÑģÑĤÐ¾Ñı
ĠÐĹ Ð¾Ð»
ĠÐ¿ÐµÑĢÐµ Ñģ
ĠÑĢÑĥ ÐºÐ¾Ð¹
ĠÑĪ Ð»Ð°
ĠÑģÑĥ ÑĤÐ¸
ĠÑĢ Ð¾Ð¼Ð°
Ð³Ð¾Ð² ÑĭÐµ
ĠÐ»ÐµÑĤ Ð¾Ð¼
ÑĢÐ°Ð»ÑĮ Ð½ÑĭÐµ
ĠÐ¿ÑĢÐ°Ð² Ð¾ÑģÐ»Ð°Ð²
ĠÐ¿Ð¾ÑģÐ»ÐµÐ´ Ð½ÐµÐ³Ð¾
ĠÐ´Ð¾Ð¿ Ñĥ
ĠÐŁÑĢÐ¾ ÐµÐºÑĤ
ĠÐļÐ¸ ÐµÐ²Ðµ
ĠÐ³Ð¾ÑģÑĥÐ´Ð°ÑĢÑģÑĤÐ²ÐµÐ½ Ð½ÑĭÐ¹
ĠÑĥÑĩÐ°ÑģÑĤÐ¸ ÐµÐ¼
Ð²Ð°Ñİ ÑīÐ°Ñı
ĠÐ¿Ð¾Ð½Ð¸Ð¼Ð° ÑĤÑĮ
ĠÐ¿Ð¾ÐºÑĢÑĭ ÑĤÐ¸ÐµÐ¼
Ð»ÑĮÑı Ð½Ð¾Ð²
ĠÐ¾Ð³ÑĢÐ°Ð½Ð¸ ÑĩÐ¸
ĠÐ°ÐºÐºÑĥ Ð¼ÑĥÐ»ÑıÑĤÐ¾ÑĢ
ĠÐ´ÐµÑĪÐµ Ð²Ð»Ðµ
ĠÑĨÐµÑĢ ÐºÐ²Ð¸
ĠÐ¶Ð¸Ð»Ð¸ Ñī
ĠÐ·Ð°Ð²Ðµ ÑīÐ°
ĠÑģÐ¿Ñĥ ÑģÑĤÑı
7 00
R A
ĠÐ² Ð½Ñĥ
ĠÐ´ Ð½ÐµÐ¼
Ð¾Ð´ Ð½ÑĭÑħ
ĠÐ½Ð° ÑĢÐ¾Ð´Ð°
Ð¶ ÐµÐ½Ñĭ
ĠÑĤ Ð²ÐµÑĢÐ´
Ð¾Ð¿ ÑĢÐµÐ´Ðµ
ĠÐ¿ÑĢÐ¾ Ð½Ð¸Ðº
Ð¼ÐµÐ½ Ð¾Ð²
ÐºÑĥ ÑĥÐ¼
ĠÐł Ð¾Ð±
ĠÐ»Ð¸ ÑģÑĤÐ¾Ð²
ĠÐ²Ð° ÑĪÐ°
ĠÑģÐ°Ð¼ Ð¾Ð¼Ñĥ
ĠÐºÐ°ÑĩÐµ ÑģÑĤÐ²Ð¾Ð¼
ĠÑĢÐµÐ· ÐºÐ¾
ĠÑģÐº Ð»Ð¾Ð½
ĠÐ¿Ð°ÑĢ Ð»Ð°
ĠÑħÐ¾ÑĢÐ¾ ÑĪÐµÐµ
ĠÑģÐ¿Ð¾ÑģÐ¾Ð± Ð½Ð¾ÑģÑĤÑĮ
ĠÑĦÐ° Ð±ÑĢÐ¸
ĠÐºÑĥÑĢ ÑģÐµ
ĠÑģÑĤÐ¸ ÑħÐ¸
ĠÐ½Ð°Ð´ Ð·Ð¾ÑĢ
Ð¿ÐµÑĢÐ° ÑĤÐ¾ÑĢ
ĠÐ¾ÑĢÐ³Ð°Ð½Ð¸Ð· Ð¼Ðµ
ĠÐ±ÑĥÐ´Ñĥ ÑīÐµÐ³Ð¾
ĠÑįÑĦÑĦÐµÐºÑĤÐ¸Ð² Ð½Ð¾ÑģÑĤÑĮ
ĠÐ¾Ð´Ðµ Ð¶Ð´Ñĥ
ĠÑģÐ»Ð° Ð±
ĠÐ¿ÑģÐ¸ ÑħÐ¸
ub e
ĠÑĥÑĩÐ¸ÑĤÑĭ Ð²Ð°ÑĤÑĮ
ĠÐ¿Ð¾Ð´Ð²Ðµ ÑģÐºÐ¸
ĠÐļÑĢÐ°ÑģÐ½Ð¾ ÑıÑĢ
ĠÐ±Ð°Ðº ÑĤÐµÑĢÐ¸
ĠÐļÐµÐ¼ ÐµÑĢÐ¾Ð²
u g
ÑĢ Ð¾Ð´Ñĥ
ÑģÑĤ Ð¾Ð³Ð¾
ĠÐ¸ Ð»Ð»Ñİ
ÑĪ ÐµÐ½Ñĭ
ĠÐ° ÑĥÐº
ĠÐĴ Ð°Ð»
Ð¾Ð¿ ÐµÑĢÐµ
ĠÐľ Ð¾
ĠÐ¼Ð° Ð»
Ð½Ð¸Ñı Ñħ
ĠÐ¿Ð¾Ð» Ñİ
Ðļ Ð°Ð¼
ĠÑı Ð³Ð¾Ð´
ĠÐºÐ¾Ð½ ÑĤÐµÐº
ĠÐ²Ð° ÑĪÑĥ
ÑħÐ¾Ð´ Ð¾Ð²
ĠÐ¿ÐµÑĢ ÐµÐ½Ðµ
in a
ÑĨÐ¸Ð¾Ð½ Ð½ÑĭÐ¼
ĠÐļÐ° ÑĤÐ°Ð»Ð¾Ð³
ar k
ĠÑĢÑĭ ÑĩÐ°
ĠÐ¿Ð°ÑĢ ÐµÐ½ÑĮ
ĠÐ¾ÑģÑĥ ÑīÐµÑģÑĤÐ²Ð¸
ĠÐ¾Ð³ Ð¾Ð½ÑĮ
ĠÑĤÑĢÐµ ÑĤÐ¸Ð¹
ĠÑģÑĥÑīÐµÑģÑĤÐ² ÑĥÑİÑĤ
ÑĪÐ¸Ð½ ÑģÑĤÐ²Ð¾
ĠÐ¿ÑĢÐ¾Ð¼ Ðµ
ĠÐ¿Ð¾ÑıÐ²Ð¸ ÑĤÑģÑı
ĠÐŁÑĢÐ°Ð²Ð¸ ÑĤÐµÐ»ÑĮÑģÑĤÐ²Ð°
ĠÑģÐ¼ÑĭÑģ Ð»Ðµ
ĠÑĤÐµÐ½ Ð½Ð¸
ĠÐ·Ð°ÑĤÑĢÐ° ÑĤ
ĠÐ¾Ð±Ð»Ð¸ ÑĨÐ¾Ð²
ĠÐ¸Ð½Ð¸ÑĨÐ¸ Ð°
9 2
Ñı ÑĤÐ¸Ðµ
ĠÐ¾ Ð³ÑĢÐ°
Ð³ ÐµÐ½ÑĤ
ÑĪ ÑĥÑĤ
Ð½Ð° Ñģ
ĠÐ± Ð¾
ÐºÐ¸ Ð½Ð°
ĠÐ·Ð° Ð»Ð¸
ĠÐ¾Ð± ÑīÐ¸Ð¹
Ð·Ð° Ð¿
ĠÐļ ÑģÑĤÐ°ÑĤÐ¸
ĠÑĢÐµ ÐºÐ¾Ð½ÑģÑĤÑĢÑĥ
Ð³Ð° Ñı
ĠÐľ ÐµÐ½
ĠÐľ ÑĥÐ»ÑĮ
ĠÐŀ Ð±ÑĭÑĩÐ½Ð¾
ÐŁ Ð°ÑĢ
ĠÐ¿Ð¾Ð» Ð½Ð¾Ðµ
ĠÐ¿ÑĢÐµÐ´ ÑģÑĤÐ¾Ð¸ÑĤ
Ð°Ð¹ ÑĤ
ĠÑĨ ÐµÐ½Ð¸
ÐĹ Ð´ÑĢÐ°Ð²ÑģÑĤÐ²ÑĥÐ¹ÑĤÐµ
ĠÐĴÑĭ Ð±ÐµÑĢÐ¸ÑĤÐµ
ĠÐ¿Ð¾Ð¿ ÑĭÑĤÐ°
ĠÐ´ÐµÑĤ ÑģÐºÐ¾Ð¹
ĠÐ¾Ð±ÑĢÐ° ÑĤÐ½Ð¾
Ð½ÑĥÑĤ ÑĢÐ¸
ÑĥÑİÑīÐ¸ Ð¼
ĠÐ¿Ð¾Ñĩ ÑĥÐ²
ĠÑĢÐ°ÑģÑģ Ð¼Ð¾ÑĤÑĢ
ĠÑĤÑĢÑĥ Ð´Ð¾
ĠE n
ra ft
ĠÐĶÐ° Ð»ÐµÐµ
ĠÐ³Ð»Ð°Ð² Ð½Ð¾Ð¹
ĠÐ²Ð¸Ð´ Ð¾Ð¼
ĠÑĤÐµÑħÐ½Ð¸ ÑĩÐµÑģÐºÐ¸Ñħ
ĠÐ¿Ð¾Ð´Ð° ÑĩÐ¸
ĠÐĳÐ¾Ð»ÑĮ ÑĪ
ĠÐĵÐ»Ð°Ð² Ð½ÑĭÐ¹
Ð¿Ð¾Ð¼ Ð½Ð¸Ð¼
ĠÐĺÐ³ ÑĢÐ¾Ð²ÑĭÐµ
ĠÐ°Ð»ÐºÐ¾Ð³ Ð¾Ð»ÑĮ
ĠÐºÐ¾Ð»ÑĮ ÑĨÐ°
ĠÐ¯Ð½ Ð´ÐµÐºÑģ
ĠÑĦÐ¸Ð»Ð¾Ñģ Ð¾ÑĦÐ¸
ĠÐļÐ°Ð»Ð¸ Ð½Ð¸Ð½
8 2
Ġ '
Ð² ÐºÑĥ
ÑĢÐµ Ðº
Ð³ ÑĢÐ°Ð½
Ð¶ Ð½ÑĭÐ¼Ð¸
ĠÐ·Ð° Ð²Ð¾Ðµ
ĠÐ·Ð° Ð³ÑĢÑĥÐ·
ĠÐ·Ð° Ð¶Ð¸Ð³Ð°
Ð¾Ðº Ð¾Ð»Ð°
ĠÐºÐ° Ð¿Ð¾ÑĤÐ°
ĠÐ¸Ð· Ð´Ð°Ð½Ð¸Ñı
ÑĪÐ¸ Ð½Ñĭ
ĠÐĶ Ð¾Ð½ÐµÑĨ
ĠÐĲ Ð¼
ÐŁ Ñĥ
ĠÐĺ ÑģÐº
ĠÑģÐ¿ ÑĢÐ¾Ñģ
ĠÐķ Ð¡
ĠÑĪ ÑĥÐ¼
Ð²Ð¾ ÑģÑĤÐ¾Ðº
ĠA r
ĠÑįÑĤÐ¸ Ð¼Ð¸
ÑĢÐ°Ð»ÑĮ Ð½Ð°Ñı
ĠÐºÐ¸ ÑĪÐµ
ĠÐ¾ÑĤÐºÑĢÑĭ ÑĤÐ¸Ñı
ĠÐĿÐ¸ ÐºÐ¾Ð»Ð°Ð¹
ĠÐ·ÐµÐ¼ Ð»Ñİ
ĠÑģÐ¿ÐµÑĨÐ¸Ð°Ð»ÑĮ Ð½Ð¾Ð¹
ĠÑĥÐ¿ Ð»Ð¾ÑĤ
ĠÐ¿ÑĢÐµÐ´Ð»Ð¾Ð¶ Ð¸ÑĤÑĮ
ĠÑĥÑĩÐ¸ ÑĤÑĮÑģÑı
ÑĢÐ°Ð·Ñĥ Ð¼Ðµ
ĠÐºÑĢÐ¸ ÑĤÐµÑĢÐ¸
ĠÐ·Ð°Ð½Ñı ÑĤÐ¸Ð¹
== ==
ĠÐ³Ð°ÑĢÐ°Ð½ ÑĤÐ¸ÑĢÑĥÐµÑĤ
ÐĿÐĲ Ð¯
ĠÐ¸Ð·Ð¾Ð±ÑĢÐ°Ð¶ ÐµÐ½Ð¸Ðµ
ĠÐ²Ð´ Ð¾Ð»ÑĮ
ĠÐĳÐµÐ»Ð°ÑĢÑĥ ÑģÐ¸
ĠAnd roid
ĠÐĴÑģÐµÑĢ Ð¾ÑģÑģÐ¸Ð¹
ĠÐ² Ð²Ð¾Ð´
Ð³ ÑĢÐ¸
Ð»ÑĮ Ð½Ð¾Ð¼Ñĥ
ĠÑĥ Ð±Ñĭ
ĠÐ½Ðµ Ð±Ðµ
ĠÐ²Ñĭ Ð±Ð¸ÑĢÐ°ÑĤÑĮ
Ð´Ð¸ Ð¾
ĠÑĢÐ°Ð· Ð´
ĠÑĢÐ°Ð· Ð½Ð¾Ð²Ð¸Ð´
ĠÑı Ð¸
Ð»ÐµÐ½ Ð½ÑĥÑİ
ĠÑģÑĤÐ° Ð»ÐºÐ¸
Ð¢ Ð£
ĠÐ¼Ð¸ Ð½Ðµ
ĠÐĹÐ° ÐºÐ°Ð·
ĠÐºÐ°ÑĢ ÑĤÐµ
ĠÑĨÐµ Ð»Ðµ
Ð²Ð°ÑĢ ÑĮ
ĠÐĺÐ½ Ð¾Ð³Ð´Ð°
ĠÑĤÑĥ ÑĢÐ¸ÑģÑĤÐ¸
Ð¦ Ð²ÐµÑĤ
ĠÑģÐ¾Ð³Ð»Ð° ÑģÐ¸Ñı
il e
ĠÐ³Ð»Ð°Ð² Ð½ÑĭÑħ
ĠÐ¿Ð¾ÑıÐ²Ð¸ Ð»ÑģÑı
ĠÐ´ÐµÐ¼ Ð¾
ÐµÑħÐ° Ð»Ð¸
ĠÐ»Ð¸ÑĤÐµÑĢÐ° ÑĤÑĥÑĢ
ĠÑģÑĤÑĢÐ°ÑĤÐµ Ð³Ð¸Ð¸
Ð¾Ð±ÑĢÐ°Ð·Ð¸ Ðµ
ĠÐĴÐ°ÑģÐ¸ Ð»ÑĮ
Ð²Ð»Ð° Ð¶
ĠÑģÑĥÐ¿ ÑĢÑĥ
M E
u e
ÑĢÐ° Ñı
ĠÐ· Ð»Ð¾
ĠÑĤ ÑĢÐµÐ¹
ĠÐ¾Ð± ÑģÑĤÐ°Ð½Ð¾Ð²
ĠÐºÐ° Ð¼ÐµÐ½
Ð¾Ð· Ðµ
ÑģÐ¸ Ñħ
ĠÐ²Ñĭ Ð·Ð¾Ð²
ĠÐļ Ð»ÑĥÐ±
ÑĤÐµÐ»ÑĮ ÑģÐºÐ¸Ñħ
ĠÐĿ Ð¾Ð²Ð°Ñı
Â» )
ĠÐĶ Ð½ÐµÐ¿
ĠÐĳ Ð»Ð°
ĠÑĢ Ð¾Ð±
ĠÐ¾ÑģÑĤÐ° Ð»ÑĮÐ½ÑĭÑħ
ĠÐŀÑĤ Ð²ÐµÑĤ
ĠÐłÐ° Ð´Ð¸Ð°
ĠÑĥÐ´Ð¾Ð± Ð½ÑĭÐ¹
ĠÑĢÐµÐ±ÐµÐ½ ÐºÑĥ
ĠÑģÐ¾ÑĨÐ¸Ð°Ð»ÑĮ Ð½Ð¾
ĠÐ½Ð¾ÑĢÐ¼Ð° Ð»ÑĮÐ½Ð¾
ĠÐ¿Ð¾Ð»Ð¾Ð¶ ÐµÐ½Ð¸Ð¸
ĠÑħÐ°ÑĢÐ°ÐºÑĤÐµÑĢÐ¸ Ð·
ĠÐ¼Ð°ÑĤ ÑĩÐ°
ĠÐ·Ð°Ð³ ÑĢÑıÐ·
ĠÐ±ÑĥÐ¼Ð° Ð³Ð¸
ĠÐºÐ¸Ñģ Ð»Ð¾ÑĤÑĭ
ĠÐŃÐ»ÐµÐºÑĤ ÑĢÐ¾Ð½
ĠÐ¿Ð°Ð½Ðµ Ð»ÑĮ
ĠÐ½Ð°ÑĢ ÐºÐ¾ÑĤÐ¸
ĠÐ¿ÑĢÐ¾ÑĤÐ¸Ð²Ð¾Ð¿ Ð¾Ð»Ð¾Ð¶
ĠÐ¿ÐµÑĩÐ° ÑĤÐ¸
ĠÐ¤ÐµÐ´ Ð¾ÑĢÐ¾Ð²
ÑĥÐ½Ðº ÑĨÐ¸Ð¾Ð½Ð°Ð»ÑĮ
â Ĩ
Ð´ Ð½ÑĭÐµ
ĠÐ² ÐºÐ»Ð°Ð´
Ð¶ Ð¾Ð¼
ĠÐ·Ð° ÑĦÐ¸ÐºÑģÐ¸
Ð¾Ð¿ Ð°ÑĢ
ĠÐŀ Ð½Ð¾
ĠÑĢÐ°Ð· Ð»Ð¸
ĠÑģÐ¾Ð± ÑĢÐ°ÑĤÑĮ
Ð³ÑĢÐ° ÑĦ
ĠÐºÐ°ÑĩÐµ ÑģÑĤÐ²ÐµÐ½Ð½Ð¾
ĠÐ¿ÐµÑĢÐ² Ð¾Ð½Ð°ÑĩÐ°
or ld
ĠÐ¦ Ð¸
200 1
ic k
ĠÐ²ÑĭÐ¿Ð¾Ð» Ð½Ð¸ÑĤÑĮ
Ð»Ð°Ð³Ð° ÐµÐ¼
ĠÐŁÐ¾Ð´ Ð¼Ð¾ÑģÐºÐ¾Ð²
ĠÐ³ÑĢÑĥÐ¿ Ð¿Ñĥ
Ð¾Ð·Ð° Ð²Ð¾Ð´
ac t
ĠÐ´Ð¾Ð¿Ð¾Ð»Ð½Ð¸ÑĤÐµÐ»ÑĮ Ð½Ð¾Ð³Ð¾
ĠÐ·Ð¾Ð» Ð¾ÑĤÐ°
Ð¸Ð·Ð²Ð¾Ð´Ð¸ ÑĤÐµÐ»ÑĮ
Ðº ÑĢÑĥ
Ñħ Ð»Ñĭ
ĠÐ·Ð° ÑĩÐ°ÑģÑĤÑĥÑİ
ĠÐŁ Ð¾Ð³
ĠÐ²Ñĭ Ð·ÑĭÐ²Ð°
ÑĢÐµÐ´ ÐºÐ¾
ĠÐ¶ Ð´ÑĥÑĤ
ĠÑĢÐ°Ð· Ñĭ
ĠÑĢÐ°Ð· ÑĢÐ°Ð±Ð°ÑĤÑĭ
Ðł ÐµÐº
Ðķ ÑģÑĤÑĮ
ĠÐ¿ÑĢÐµ Ð¶
ĠÐ¿ÑĢÐµ Ð¼Ð¸
Ð¾Ñĩ Ð½Ð¾Ðµ
ĠÐ¿Ð»Ð° ÑĤÑĭ
ĠÐĴÐ° ÑĪÐµ
ĠÐ¾Ð¿ÑĢÐµÐ´Ðµ Ð»ÐµÐ½Ð½ÑĭÑħ
ĠÑģÐµÐº ÑĢÐµÑĤ
Ð´ÐµÐ½ ÑģÐ°
ĠÐ°ÐºÑĤÐ¸Ð² Ð½Ð¾ÑģÑĤÐ¸
ĠÐ²Ð¾Ð·Ð´Ñĥ ÑħÐµ
ÐĿÐŀ ÐĵÐŀ
ĠÐ¸Ñģ ÑħÐ¾Ð´Ñı
ĠÐ¿ÑĢÐ¾Ð²Ð¾Ð´Ð¸ ÑĤ
ĠÑģÑĢÐµÐ´ÑģÑĤÐ²Ð° Ð¼Ð¸
ĠÐºÐ²Ð°ÑĢÑĤÐ¸ ÑĢÐ°
ĠÐ½Ð°Ð¿ÑĢÑı Ð¼ÑĥÑİ
ĠÑģÐ»Ð¾Ð² Ð½Ð¾
ĠÐºÐ¾Ñģ Ð¼Ð¸
Ð¡Ðļ ÐĲ
ĠÐ¼ÑĥÐ»ÑĮ ÑĤÑĦÐ¸Ð»ÑĮ
ĠÐ´Ð¸Ð°Ð¼ÐµÑĤ ÑĢÐ¾Ð¼
ĠÐĶÑĢÑĥ Ð³Ð¾Ðµ
ĠÐ¿Ð°Ðº ÐµÑĤ
ĠÐ¾Ð·Ð½Ð°ÐºÐ¾Ð¼ Ð¸ÑĤÑĮÑģÑı
ÑĤ ÑĢÐ¾Ð²
Ð½ Ð½Ð¾Ð³Ð¾
Ð½ Ñĳ
ÑģÑĤ Ð½ÑĭÐ¹
ĠÐº ÑģÑĤÐ°ÑĤÐ¸
Ð¶ ÑĥÑĢ
Ð²Ð° Ð»ÑĮ
Ð¾Ð½ Ð½ÑĭÐµ
Ð¾Ðº Ð¾Ð¸
ĠÐ¿ÑĢ Ñĭ
ĠÐ¿ÑĢ Ð¾Ð¿Ð¸
ĠÐ¿ÑĢ Ð¾ÑĤÐ¾Ðº
ĠÑģÑĤ Ñĭ
ĠÐĺ ÑĢÐ°
ÐĲ Ðº
ĠÑģÑĤÐ° ÑĤÐµÐ¹
Ð¶Ð° Ð²Ðµ
ĠÐķ Ð»ÐµÐ½Ð°
ĠÐ¤ Ð¸Ð»Ð¸
ĠÐ´ÐµÐ¹ ÑģÑĤÐ²ÑĥÑİ
ĠÐºÐ°Ð¶Ð´ ÑĭÐ¼
ĠÐ¿Ð¾Ð»Ð¸ ÑĨÐ¸Ð¸
ĠÐ¿ÑĢÐ¾Ð¸Ð·Ð²Ð¾Ð´Ð¸ ÑĤÐµÐ»ÑĮ
ĠÑģÑĤÑĢÐ¾Ð¸ ÑĤÐµÐ»ÑĮÐ½ÑĭÑħ
ĠÑĥÐºÐ°Ð·Ð° Ð½Ð½ÑĭÑħ
ĠÐ¿Ð¾Ð¼Ðµ ÑīÐµÐ½Ð¸Ð¸
ĠÑĥÑģÐ¿Ðµ ÑħÐ°
ig n
ĠÑįÐ»ÐµÐ¼ ÐµÐ½ÑĤ
ĠÐ¿ÑĢÐ¾ÑĦÐµÑģÑģÐ¸Ð¾Ð½Ð°Ð»ÑĮ Ð½Ð¾Ð³Ð¾
ĠÑĥÐ²Ð¸ Ð´ÐµÐ»
ĠÐºÐ¾Ð¼Ð½Ð° ÑĤÐµ
ĠÐµÐ¶Ðµ Ð´Ð½ÐµÐ²Ð½Ð¾
ĠÐ±Ð¾ÑĢÑĮ Ð±Ðµ
Ġï¿½ï¿½ï¿½ï¿½ ï¿½ï¿½
ĠÐ¾ÑĨÐµÐ½Ð¸ ÑĤÑĮ
ĠÐļÑĢÑĭÐ¼ ÑģÐºÐ¾Ð¹
ĠÐ²Ð¾ÑģÐ¿ÑĢÐ¸ Ð½Ð¸Ð¼Ð°
ĠÐ±ÑĢÐ¸Ð³Ð° Ð´Ñĭ
, ...
3 20
9 3
ÑĢ Ð¾Ð»Ð¸
Ðº Ð½Ð¾Ð²
ĠÐ² ÑħÐ¾Ð´Ñı
ĠÐ² ÑģÑĤÑĥÐ¿Ð¸
ĠÐ² ÑĩÐµÑĢÐ°
ĠÑģ Ð±Ð¾ÑĢÐ°
Ñİ Ð½
ÑĤÐµ Ð¹Ð½
ÑĤÐ¸ ÑĤÐµ
ĠÐ¿Ð¾ ÑģÑĤÑĥÐ¿Ð»ÐµÐ½Ð¸Ñı
Ð»Ðµ Ñı
Ð´Ð° ÑĩÐ°
ĠÐŁ Ð°ÑĤ
ĠÐ¿ÑĢÐ¸ Ð´ÑĥÐ¼Ð°
ĠÐ¡ Ð¾Ð³Ð»Ð°ÑģÐ½Ð¾
ĠÐ¿Ð¾Ð´ ÑģÐºÐ°
ÑĢÑĭ Ð²Ð°
ĠÐ¼Ð° ÑĤÑĮ
ĠÐĶ Ð¶Ðµ
ĠÐĳ ÐµÑĢÐµ
Ð·Ð¸ Ñİ
Ð¶Ð¸ Ð²Ð°ÑĤÑĮ
ĠÐ»Ð¸ ÑĩÐ½Ð¾ÑģÑĤÐ¸
ĠÐ´Ðµ Ð»Ñĥ
ĠÑģÑĤÐ° Ð´Ð¸Ð¸
Ðł Ð¸
Ð°Ð» Ð¾Ð³
ĠÑĪ Ð»Ñİ
Ð£ ÐºÑĢÐ°
ĠÐ§ Ð°ÑĤ
ĠÐ¿Ð¾ÑĢ Ð¾Ð¹
Ð¤ Ð¾ÑĢ
ÑĢÐ°Ðº ÑĤÐµÑĢÐ¸
ĠÐ°Ðº ÐºÐ°ÑĥÐ½
ĠÐ²Ð¾Ð·Ð¼Ð¾Ð¶ Ð½Ð¾ÑģÑĤÑĮÑİ
ĠÐ¾Ð±ÑĢÐ° ÑĤÐ¸ÑĤÑĮ
ĠÑĤÐ¾Ð²Ð° ÑĢÐ¸
ĠÐ·Ð°ÐºÐ¾Ð½ Ð¾Ð¼
ÑĢÑĥÐ³ Ð¾Ð¹
ĠÐ³Ð»Ð°Ð² Ð½Ð¾Ð³Ð¾
ĠÑģÐ»ÐµÐ´ÑĥÑİÑīÐ¸ Ñħ
ĠÐĳÐ¾Ð»ÑĮ ÑĪÐ¾Ð¹
ĠÑģÑĥÐ± Ð±Ð¾ÑĤ
ĠÐ¾ÑĤÐ²Ðµ ÑĩÐ°ÐµÑĤ
ĠÐ·Ð°ÑģÐµÐ´Ð° Ð½Ð¸Ð¸
ĠÐŃÐº ÑģÐ¿
ĠÑĢÐ¸ÑģÑĥ Ð½
ĠÑģÐµÐºÑĥ Ð½
ĠÐºÐ°ÑĢÑĤÐ¸ Ð½Ñĭ
ĠÐ²ÐµÐ»Ð¾Ñģ Ð¸Ð¿
1 15
i re
ÑĤ Ð¾Ð»
Ñĥ ÑĤÐ¾
Ð² ÐµÑĢÐµ
ĠÐ½Ð° Ð²Ðµ
ÑĢÑĥ Ñİ
ÑĩÐµ ÑĪÑĮ
ÑĩÐ¸ ÐºÐ¾Ð¼
ĠÐ¸Ð· Ð´Ð°Ð½Ð¸Ðµ
ÐºÐ¾Ð² ÐºÐ°
Ð»ÐµÐ½ Ð½Ð¾ÑģÑĤÐ¸
Ðľ Ðķ
ĠÐ¿ÐµÑĢÐµ ÑĩÐµÐ½ÑĮ
ĠÐ¤ Ð¸Ð½
ĠÐŃ Ð»
ĠÐ¿Ð° Ð»Ð°
ĠÑĢÐ°Ð±Ð¾ÑĤ Ð¾Ð¹
ĠÐłÐ¾ÑģÑģÐ¸ Ñİ
ĠÐ²ÐµÑĢ ÑģÐ¸Ñİ
ĠÑģÐº ÑĢÐ¸
ĠÐĺÐ½ ÑĤÐµÑĢÐµÑģ
ĠÐ¿Ð¾Ñĩ ÑĤÑĥ
ĠÐ±ÐµÑģÐ¿Ð»Ð°ÑĤ Ð½ÑĭÑħ
ĠÑĥÑĩÐ°ÑģÑĤ ÐºÐ¸
re e
ĠÑįÑĦÑĦÐµÐºÑĤÐ¸Ð² Ð½Ð¾
ĠÐ½Ð¸ÐºÐ° ÐºÐ¾Ð³Ð¾
ĠÐ¼ÐµÐ´Ð¸ÑĨÐ¸Ð½ ÑģÐºÐ¸Ñħ
ĠÐ¿ÑĢÐµÐ´Ð½Ð°Ð·Ð½Ð° ÑĩÐµÐ½Ñĭ
ĠÐĴÐµÐ»Ð¸ ÐºÐ¾Ð¹
ĠÐ¿ÑĢÐ¸Ð±Ñĭ Ð»ÑĮ
ĠÐ½Ð°ÑģÑĤÑĢÐ¾ ÐµÐ½Ð¸Ðµ
Ð¢Ðķ ÐĽÐ¬
ÐķÐĿÐĺ Ðķ
ÐĺÐ½ÑĤÐµÑĢ Ð½ÐµÑĤ
ĠÐ¸Ð·Ð¾Ð± ÑĢÐµÑĤ
Ñĥ Ð¹ÑĤÐµ
ĠÐ¸ Ð½ÑĭÐµ
ĠÐ´ Ð¾ÑģÑĥ
Ð¶ ÑĮÐµ
ÑĤÐ¸ ÑĩÐµÑģÐºÐ¾Ð¹
ĠÐºÐ° Ð»Ð¾ÑĢÐ¸
ĠÐŁ Ð¾Ð¼Ð¸Ð¼Ð¾
ĠÐ¿ÑĢÐ¸ ÐºÐ°Ð·
ÑģÑĤÐ²ÐµÐ½ Ð½Ð¾ÑģÑĤÑĮ
ĠÐĿÐ° ÑĪÐ°
ĠÐ°Ð² ÑĤÐ¾ÑĢÐ¾Ð²
ĠÐ¸Ð³ ÑĢÐ¾ÐºÐ°
ĠÑģÐ¾Ð² ÐµÑĤÑĭ
ĠÐ¿Ð¾Ð² ÐµÐ´ÐµÐ½Ð¸Ñı
Ð¾Ð³ÑĢÐ° ÑĦ
ĠÐºÐ¾Ð¼Ð¿ ÑĢÐµÑģÑģ
ĠÐºÐ°ÑĢ Ð¼Ð°
ĠÐŀÐ± ÑīÐµ
ÑĪÐµÐ½ ÐºÐ¾
ĠÐľÐ° Ð³Ð°Ð·Ð¸
ÑīÐµÐ½ Ð½Ð¾Ð¹
ĠÐ¾ÑģÑĤÐ° ÑİÑĤÑģÑı
ĠÐ²ÑĭÑģÐ¾Ðº ÑĥÑİ
ĠÐ²ÑĭÑģÐ¾Ðº Ð¾Ðµ
ĠÐ»ÐµÐ³ ÑĩÐµ
ĠÑģÑĤÐ°ÑĤÑĮ Ñı
ĠÐ¿Ð¾Ð»ÑĮÐ·Ð¾Ð²Ð° ÑĤÐµÐ»Ð¸
ĠÐ¤ÐµÐ´Ðµ ÑĢÐ°Ð»ÑĮÐ½Ð¾Ð³Ð¾
ĠÐ¼Ð¸Ð½ÑĥÑĤ Ñĭ
ĠÑĢÐµÑĪÐ¸ Ð»Ð°
ĠX V
ĠÐ¾Ð³ÑĢÐ°Ð½Ð¸ ÑĩÐµÐ½Ð¸Ñı
ĠÐłÐµÑģÐ¿ÑĥÐ±Ð»Ð¸ ÐºÐ°
ĠÐ¿Ð¾Ð»ÑĮÐ· ÑĥÑİÑĤÑģÑı
ĠÑģÐ¾ÑģÑĤÐ°Ð²Ð¸ ÑĤ
ĠÐ¿Ð¾Ð¶Ð°ÑĢ Ð½Ð¾Ð¹
ĠÐŁÑĢÐ¾Ð² ÐµÑĢ
ĠÐ¾ÑĢÑĥÐ¶Ð¸ Ñı
ĠÐºÐ¾Ð½ÑĨ ÐµÑĢ
pp le
M A
Ð° Ð½Ð°Ð»Ð¸
ÑĢ ÐµÐ½Ð°
ĠÐ¿ ÑĢÑĥÐ¶Ð¸
Ñĩ Ð½ÐµÐ²
ĠÐ¾ Ð¼
Ð»Ð° Ð´Ñĭ
Ð»Ðµ Ð²Ð°
ĠÐ¾ÑĤ ÑĨÐ°
ĠÐŁ ÑĢÑı
ĠÐĴ Ð¾Ñģ
ĠÐ¡ Ðĺ
ĠÐ¡ ÐµÐ½ÑĤ
ĠÐ¡ Ð´ÐµÐ»Ð°
ÑĩÐ° Ð½
ĠÐļ ÐŁ
ÑģÐ¿ Ð°
ĠÐł Ðķ
ĠÐĲ Ðŀ
ĠÐ²Ð¾Ð· Ð¼Ðµ
ÐºÐ¾Ð¼ Ð¿Ð»ÐµÐºÑĤ
ÑĤÐ¸Ð² Ð½ÑĥÑİ
Ðĳ ÐµÐ»
Ðĵ Ð¾ÑĢÐ¾Ð´
ĠÐĹÐ° ÑīÐ¸
ĠÐĹÐ° Ð¿Ð°Ð´
ĠÐ¿Ð¾Ð¿ Ð¾Ð»
ÑħÐ¸ Ðµ
ĠÐĿÐ¾ ÑıÐ±ÑĢÑĮ
us s
ĠÐ¿Ð¾Ð¿Ð° ÑģÑĤÑĮ
ĠÐ³ÑĢÑĥÐ· Ð¾Ð²
ĠÐ´ÑĢÑĥÐ³Ð° Ñı
ĠÐ°Ð³ÐµÐ½ÑĤ ÑģÑĤÐ²Ð¾
ĠÑģÐ¿ÑĢÐ° Ð²ÐµÐ´
ÑĤÐµÑħ Ð½Ð¸ÐºÐ°
ĠÑģÑĤÐ°ÑĤÐ¸ ÑģÑĤÐ¸
ĠÐĺÑĤÐ° Ð»Ð¸Ð¸
s on
Ñģ Îº
ÑĢ Ð½Ð¾Ð¹
Ð² Ð¾ÐºÐ°
Ð´ Ð¾Ð¹
Ð´ ÐºÐ°
Ñĩ ÐµÐ½Ð¸
ĠÐ¾ ÑĩÐºÐ¸
ĠÐº Ð½Ñı
ĠÐ´ Ð¾Ð¶
ĠÐ± ÑĢÐ°ÑĤ
ĠÐ¾ÑĤ ÐºÐ°Ð·ÑĭÐ²Ð°
ĠÐ¿ÑĢÐ¸ ÑĪÐ»Ð°
ĠÐĿ ÐµÐ²
Ð¸Ð· Ð¼Ð°
ÑĪÐ° ÐµÐ¼
ĠÑģÐµ Ð³
ĠÐ´Ð¸ ÑģÑĤÐ°Ð½
ÐºÐ¾Ð½ Ð¾Ð¼
ÐĹ Ð½Ð°
ÑģÑĤÑĢÐ° Ñħ
ĠÐ¿Ð¾Ð¿ Ñĥ
ĠÐ²Ð¸Ð´Ðµ Ð»
ÐŃ Ð¡
ĠÑĤÐµÐ»Ðµ Ð²Ð¸Ð´
ĠÐ´Ð¾Ð± ÑĢÐ¾Ð²
ĠÐ¿ÑĢÐµÐ´Ð¾ ÑģÑĤÐ°Ð²Ð¸ÑĤÑĮ
ĠÑģÑĤÐ¸ Ð¼ÑĥÐ»Ð¸
ĠÑģÐ¾ÑĤ Ð½Ð¸
ĠÐºÑĢÐµÐ´Ð¸ ÑĤÐ°
ĠÑĩÑĥÐ² ÑģÑĤÐ²Ð¾
ĠÐ¿Ð¾Ð»Ð¸ÑĤÐ¸ ÐºÐ°
ĠÐ½ÐµÐ±Ð¾Ð»ÑĮ ÑĪÐ¸Ðµ
ĠÐ½ÐµÑĦ ÑĤÑı
ĠÐ¿ÑĥÐ½ ÐºÑĤÐ¾Ð²
ĠÐļÐ¾Ð¼Ð¿ ÑĮÑİ
ĠÑĢÐ°Ð´Ð¸Ð° ÑĤÐ¾ÑĢÐ°
ĠÑħÐ»Ð¾Ð¿ Ð¾Ðº
ĠÐ¼Ð°ÑģÑĪÑĤÐ° Ð±
ĠÐ»Ð¾Ð³ Ð¾ÑĤÐ¸
ĠÑĢÐ°ÑģÑĤÐ²Ð¾ ÑĢÐ°
9 7
a in
ÑĤ ÑĢÐ¾Ð¿
ÑĢ Ð¾Ð»
Ñĥ ÑģÐ°
ĠÐ¿ ÑĥÐ»ÑĮ
ÑģÑĤ Ð½ÑĭÑħ
ĠÑģ ÐºÐ°Ð½
Ð¿ Ð¾Ðº
ĠÐ½Ð° Ð¶Ð¼Ð¸ÑĤÐµ
ĠÐ· Ð¾Ð½Ð°
ĠÐ¿Ð¾ ÑģÑĤÑĥÐ¿
Ð»Ðµ Ð´ÑĥÐµÑĤ
Ð´Ðµ ÐºÐ²Ð°
ĠÐ²Ñĭ ÑĪÐµÐ»
ĠÐ¿Ð¾Ð´ ÑĩÐ¸
Ð¡ ÐµÐ¹ÑĩÐ°Ñģ
ĠÐĺ Ñģ
ĠÑħ Ð¾Ð´Ñĥ
Ð·Ð¸ Ð´ÐµÐ½
ĠÐĵ Ðļ
ĠÐ¾Ñģ Ð¼Ð¾ÑĤ
ÐºÐ¾Ð¼ Ð½Ð°ÑĤ
ĠÐ¤ Ð¡
Ðĳ ÐµÐ·
Ð³Ñĥ ÑģÑĤ
ÑĪÐµÐ½ Ð½ÑĭÐµ
ĠÑĦÐ¸Ð»ÑĮ Ð¼Ð¾Ð²
Ġc om
ĠÐ¸Ð·Ð¼ÐµÐ½ ÐµÐ½Ð¸Ðµ
Ð¾Ð»Ð½ ÐµÐ½Ð¸Ðµ
ĠÐ¼ÐµÑĤÐ°Ð» Ð»
ĠÐ¿Ð¾Ð´ÑĤÐ²ÐµÑĢ Ð¶Ð´ÐµÐ½Ð¸Ñı
ĠÐ¾Ð³ÑĢÐ¾Ð¼ Ð½ÑĭÐ¹
ĠÐ¿Ð¾ÐºÑĥÐ¿Ð° ÑĤÑĮ
ĠÐ¼Ð°Ð»ÐµÐ½ÑĮ ÐºÐ¸Ñħ
ĠÐºÐ°Ð¿Ð¸ÑĤÐ° Ð»Ð°
ĠÐ¿ÑĢÐµÐ´Ð¼ÐµÑĤ Ñĭ
Ð¾Ð¿ÑĢÐ¾ ÑģÑĭ
ĠÑĢÑĥÐºÐ¾Ð²Ð¾Ð´Ð¸ ÑĤÐµÐ»ÑĮ
ĠÐºÐ°Ð¼ Ð½Ñı
ĠÐ¿ÑĢÐ¸Ñģ Ð¾ÐµÐ´Ð¸
ĠÑĥÐ²ÐµÐ»Ð¸Ñĩ ÐµÐ½Ð¸Ðµ
ÐĿÐ« ÐĻ
ĠÐ¿ÐµÑĤ Ð»Ð¸
ĠÐ¸Ð·Ð¼ÐµÑĢ ÐµÐ½Ð¸Ñı
ĠÑĪÐ°Ð½ Ñģ
ĠÑģÐµÐºÑĥ Ð½Ð´
ĠÐ±Ð¸ÑĢ Ð¶Ðµ
ĠÐ¡Ð¸ÑģÑĤÐµÐ¼ Ð°
f i
ÑĢ Ð½ÑĭÐ¹
ĠÐ² Ð¾ÑĢ
Ð¾Ð´ Ð¾Ð¼
Ð¾Ð³ ÑĢÐµ
ÑĢÐ¸ Ð´Ð¸
ĠÑĤ Ð¾Ðº
ĠÑĤ Ð²Ð¾Ð¸
ĠÐ¾Ð± Ð¼ÐµÐ½Ð°
ĠÐļ Ð¾ÑĢÐµ
ĠÐ¿ÑĢÐ¾ ÑĩÐ¸Ñħ
ĠÐŀ Ð¡
Ð¡ Ð¾Ð³Ð»Ð°ÑģÐ½Ð¾
ÐĴ ÑĤ
ĠÐ²Ð° Ð»Ñİ
ĠÐ²Ðµ Ñī
ĠÐ¿Ð° Ð»Ð°ÑĤ
ĠÑģÐ»Ñĥ ÑĪÐ°ÑĤÑĮ
ĠÐ¿Ð»Ð° ÑĤÐ¸ÑĤÑĮ
ĠÐ°Ðº ÑģÐµÑģÑģÑĥÐ°
ÑģÑĤÐ°Ð²Ð»Ñı ÑİÑĤÑģÑı
ĠÑįÐº Ð·ÐµÐ¼
ĠÑģÑĢÐµÐ´ Ð½Ðµ
ĠÐ¸ÑģÐ¿Ð¾Ð»ÑĮÐ·Ð¾Ð²Ð° ÑĤÑĮÑģÑı
ĠP r
ĠÑħÐ¾ÑĢÐ¾ ÑĪÐµÐ¹
ĠÑģÐ¿Ð¾ÑģÐ¾Ð± Ð½Ð¾ÑģÑĤÐ¸
ĠÐ¾ÑĤÐºÑĢÑĭ ÑĤÑĭÑħ
ĠÑĤÑĢÐµÐ± ÑĥÑİÑĤ
ĠÑĥÑĢÐ¾Ð² Ð½ÐµÐ¹
ĠÐ¢Ðµ ÑħÐ½Ð¸
ĠÑĥÐ³ ÑĢ
ĠÑĢÑĥÑģ ÑģÐºÐ¸Ðµ
ĠÐ¿Ð»Ð¾ÑīÐ° Ð´ÐºÐ¸
ĠÐ²Ð¼Ðµ ÑĪÐ°
ĠÐ²Ð¾Ð¹ ÑģÐº
ĠÐ»ÑĥÑĩÑĪÐµ Ðµ
Ð²Ð°Ñİ ÑīÐµÐ³Ð¾
ĠÐºÑĢÐ°ÑģÐ¸ Ð²Ð¾
Ð³Ð°Ð½ ÑĤ
ĠÑģÐ½Ð° ÑĢÑı
ĠÑĢÐµÑģÑĥÑĢ Ñģ
Ð»Ð¸Ð¹ ÑģÐºÐ¸Ð¹
ew s
ĠÑĢÐµÑĨÐµÐ¿ ÑĤÑĭ
ĠÐ¿Ð°ÑĢÐ°Ð¼ÐµÑĤ ÑĢÑĭ
ĠÐ¾ÐºÑĢÑĥÐ¶Ð° ÑİÑīÐµÐ¹
________ ________
ÑģÐ»ÑĥÐ¶ Ð±Ð°
ĠÐ±ÐµÐ½ Ð·Ð¸
ĠÐĴÐ¾Ð»Ð³ Ð¾Ð³ÑĢÐ°Ð´
e k
Ñĥ Ð¼Ñĭ
ĠÐ² ÐµÐ·Ð´Ðµ
ĠÐ¸ ÑģÑĤÐµ
ĠÐ¸ Ð´ÐµÐ¹
ÑĪ Ð½ÑĭÐµ
ĠÐ½Ð° ÐºÐ»Ð°Ð´
ĠÐ¿Ð¾ ÑıÐ²Ð»ÐµÐ½Ð¸Ñı
ĠÐ¾Ð± Ð¸ÑĤÐ°
ĠÐ¿ÑĢÐ¸ ÑģÐ¿Ð¾ÑģÐ¾Ð±
ĠÐ²Ñĭ Ð¹ÑĤÐ¸
ĠÐļ ÑĢÐµ
ĠÑĢÐµ Ð´Ñĥ
ĠÑĤÐ° Ð¼Ð¾Ð¶
ĠÐĲ ÑģÑģ
ĠÐĵ Ðĺ
ĠÐĵ Ð»Ð°Ð²Ð°
ĠÐ½Ð¾Ð² Ð¸Ð½ÐºÐ¸
ĠÐ»Ðµ ÑģÑĤ
ÑĢÐ°Ð¶ ÐµÐ½Ð¸Ñı
ĠÐ´Ð¾Ð»Ð¶ Ð½Ð¾ÑģÑĤÑĮ
ĠÐ·Ð°ÑīÐ¸ ÑĤÐ°
ĠÑĥÐ´Ð¾Ð± ÑģÑĤÐ²Ð°
ĠÐ¿ÑĢÐ¾Ð¼ Ñĭ
ĠÑģÐ¾ÑĨÐ¸Ð°Ð»ÑĮ Ð½Ð¾Ð³Ð¾
ĠÐ¶ÑĥÑĢ Ð½Ð°Ð»
ĠÐŁÐµÑĤ ÑĢÐ¾Ð²
ĠÐ·Ð°ÐºÐ»Ñİ ÑĩÐµÐ½Ð¸Ðµ
ĠÑģÐ¸Ð³ Ð½Ð°Ð»Ð°
ÑĥÐ¼Ðµ ÐµÑĤÑģÑı
ĠÐ¿ÑĢÐ¾Ð¶Ð¸ Ð²Ð°Ð½Ð¸Ñı
ĠÐ²Ð·Ñı Ð»
ĠÐ²Ð½Ð¸ Ð·
8 6
r on
Ñı ÑİÑĤ
ĠÑģ ÐµÑĤÐµ
ĠÐ½ Ñİ
Ð¿ Ð»Ñİ
ÑĨ ÐºÐµ
Ð¾ÑĤ Ð¾Ð²Ð°
Ð»Ñı Ð¼
ĠÐ·Ð° Ð±Ð°
ĠÐ·Ð° Ð¼ÐµÐ½Ð¸ÑĤÑĮ
ĠÐĴ Ð°ÑĢ
Ð²Ð¸ ÑĩÐ°
ĠÐļ ÑĥÐ»ÑĮ
âĢ ľ
ÑīÐ¸ Ð½
ĠÐ¿Ð¾Ð´ ÑħÐ¾Ð´ÑıÑĤ
ĠÑĢÐ°Ð· Ð½ÑĭÐ¼Ð¸
Ð³Ð¸ Ð¿
ĠÐ¸Ð½ ÑĦÐ¾ÑĢÐ¼Ð¸
ĠÐ»Ð¸ ÑģÑĤÑĮ
ĠÑģÑĤÐ° ÑĢÑĤ
ĠÐ¾Ñģ Ð¾Ð·Ð½Ð°
ĠÐ²Ðµ ÑĩÐµ
ĠÐ½Ð¾ ÑĩÑĮÑİ
ĠÐ¾Ð´ Ð½Ð¸
ĠÐ¿Ð° ÑĤÑĢÐ¸
ÑĢÐ°Ðº ÑĤÐ°
ĠÐºÐ°ÑĢ ÐºÐ°
ĠÑģÑĢÐµÐ´ Ñĥ
ĠÐ¾ÑģÐ½Ð¾Ð² Ð½ÑĭÐ¼
Ð»Ð¸ÑĩÐ¸ Ðµ
ĠÐ¸Ð½ÑĤÐµ Ð³ÑĢÐ°
ĠÐ¿Ð¾Ñĩ ÑĤÐµ
ĠÐ³Ð¾Ð» Ð¾Ð²Ð¾Ð¹
ro up
ĠÐ¾ÑģÑĤÐ° Ð»Ð¸ÑģÑĮ
ĠÑģÐ¾ÑģÑĤÐ¾Ñı Ð»Ð¾ÑģÑĮ
ĠÐ²Ð½Ð¸Ð¼Ð° ÑĤÐµÐ»ÑĮÐ½Ð¾
ĠÑģÐ¿ÐµÑĨÐ¸Ð°Ð»ÑĮ Ð½Ð¾Ð³Ð¾
ÑĩÐ°ÑĤ ÐºÐ¸
ĠÐ¸Ð³ÑĢÐ¾Ð² ÑĭÑħ
ĠÐºÑĢÐ¾Ð² Ð»Ð¸
ĠÐ´Ð²Ð¸Ð³Ð° ÑĤÐµÐ»ÑĮ
ĠÐ¡Ñĥ ÑīÐµÑģÑĤÐ²
ĠÐ¾ÑĤÐ»Ð¸Ñĩ Ð½ÑĭÐ¹
ĠÐ½Ð°Ð¿Ð¸ÑģÐ° Ð»
ĠÐ¿ÑĢÐµÐ¸Ð¼Ñĥ ÑīÐµÑģÑĤÐ²
ĠÑĢÐµÑĨÐµÐ¿ ÑĤ
ĠÐ¼Ð°Ð»Ñĭ ÑĪÐ°
Ð¾Ñī ÑĮ
ĠÐ¤ÑĢÐ°Ð½ ÑĨÐ¸Ð¸
ĠÑģÐ¿Ð¾ÐºÐ¾Ð¹ Ð½Ð¾
ĠÐ¿Ð¾Ð´ÑĪÐ¸Ð¿ Ð½Ð¸ÐºÐ¾Ð²
ĠÐĲÐ²ÑĤÐ¾Ð½Ð¾Ð¼ Ð½Ð¾Ð¹
Ġ ..
Ð¾ ÑģÑĤÐµ
Ð» Ñĳ
Ñĩ Ð½Ð¾Ð¼Ñĥ
ĠÑģ Ð½Ð¸Ð¼
ĠÐ´ Ð°Ð¹
ĠÐ¼ Ð¾ÑĢÐ°
Ð¾Ð³ ÑĢÐµÐ²Ð°
ĠÐ·Ð° ÑĤÐ¾
ÑģÑĤÐ° ÑĢ
ĠÐĴ ÑĢÐµÐ¼Ñı
ĠÑĦ Ð¾Ð½Ð°
ĠÐĿ ÑĮÑİ
Ð¼Ðµ Ð´
ĠÐĲ ÑĥÐ´Ð¸
Ð½Ñı ÑĤ
ĠÑģÐ¿ Ð¾ÑģÐ¾Ð±Ñĭ
ĠÐ¾Ñģ Ð»Ð°Ð±
ĠÐ½Ð¾ ÑĩÐ¸
ĠÐ¿ÐµÑĢÐµ Ð¿Ð¸
ĠÐĿÐ° ÑĩÐ°
ĠÐ¶Ð¸ Ð»ÑĮÑı
ĠÐ¿Ð¾ÑĤ ÑĢÐ°
Ð¸Ñģ ÑģÐ°
12 5
ĠÐ´ÐµÐ»Ð° ÐµÑĤÑģÑı
ÐµÐ½Ðµ ÑĨ
ĠÐĴÑģÐµ Ð³Ð¾
ĠÑĢÐ¸ ÑģÐºÐ°
ĠÐ¼Ð°Ð³Ð°Ð·Ð¸ Ð½Ð°Ñħ
ĠÐ¿Ð¾ÐºÐ°Ð·Ð° ÑĤÐµÐ»ÑĮ
ĠÑĪÐ° Ð³
ĠÑģÐ¿Ð° ÑģÐ°
ĠÐ¿ÑĢÐ¸Ð½Ñı ÑĤÐ¸Ñı
ĠÐĶÐ¸ Ð°
ĠÐ¿Ð¾Ð´Ð¾Ð± Ð½ÑĭÐµ
ĠÐ¿Ð¾Ð¶Ð° ÑĢÐ°
ĠÐĵÐ° ÑĢÐ°Ð½
ĠÐ¾Ð±ÑĬÐµÐ¼ Ðµ
ĠÐºÐ¾Ð¼Ð½Ð° ÑĤÑĥ
ĠÐ¿ÑĢÐ¸Ð³Ð¾ÑĤÐ¾Ð² Ð¸ÑĤÑĮ
ĠÐ¿ÑĢÐµÐ´Ð¾ÑģÑĤÐ°Ð²Ð»Ñı ÐµÑĤÑģÑı
ĠÑģÐ²Ð¾Ð¹ÑģÑĤÐ²Ð° Ð¼Ð¸
ĠÐ¼ÐµÑĤÐ¾Ð´ Ð¾Ð¼
ĠÑĥÑĩÐµÐ½ ÑĭÐµ
ĠÐ±ÐµÑģÐº Ð¾Ð½Ðµ
ĠÐŀÐ»ÑĮ Ð³Ð°
ĠÐºÐ¾Ð»Ð¾ Ð½Ð¸Ð¸
Ð¡Ð¿Ð° ÑģÐ¸Ð±Ð¾
ĠÐłÐ°Ð´Ð¸Ð° ÑĤÐ¾ÑĢ
o ot
Ð¾ ÑĩÐ°
Ðµ ÑģÑı
Ð´ ÑıÑĤ
ÑĢÐ° ÑĪÐ¸
Ñİ Ðº
ÑĤÐµ Ð°ÑĤ
ÑĪ Ð½Ñı
Ð»Ð¸ Ð·Ð°ÑĨÐ¸Ð¸
Ð¾ÑĤ Ð²Ð¾ÑĢ
ĠÑĢÐµ ÐºÐ¾ÑĢ
ĠÐ¸Ð· Ð»Ð¾Ð¶
ĠÐľ Ð¾Ð¹
Ð°Ð½ Ð´Ð°
ĠÑĢÐ°Ð· Ð±Ð¸ÑĢÐ°
ĠÐĲ Ð¹
ÐĿ ÐµÑĤ
ĠÐ»Ð¸ ÑģÑĤ
ĠÑģÐ¸ Ð»Ð°
ĠÐ²Ð° ÑĪÐ¸Ð¼
ĠÐ¿ÑĢÐµ Ð¿Ð°ÑĢÐ°ÑĤ
ĠÐ·Ð½Ð° Ð»
ĠÐ¿ÑĢÐ¾Ð² ÐµÐ»Ð¸
ĠÐ°ÑĢ Ð¼Ð°
ĠÐĸ ÐµÐ»Ð°
ĠÑįÐºÑģÐ¿ ÐµÑĢÑĤ
ĠÑĪÐ° Ñħ
ĠÑĥÑĩÐ¸ Ð»Ð¸
ÐĿÐĺ Ðķ
ĠÑģÐ¾Ð´ÐµÑĢÐ¶Ð° Ð½Ð¸Ñı
ĠÑĤÑĢÐ°Ð½ÑģÐ¿ Ð¾ÑĢÑĤÐ¸
ĠÐ¿ÑĢÐ¸Ð·Ð½Ð° ÐºÐ¸
ĠÐ¼ÐµÐ¶Ð´ÑĥÐ½Ð°ÑĢÐ¾Ð´ Ð½ÑĭÑħ
ĠÐŁÑĢ Ð¾Ð³ÑĢÐ°Ð¼
ĠÑĥÐ²ÐµÑĢ ÐµÐ½Ñĭ
ĠÐ¿Ð¾ÑĢÑĤÐ° Ð»Ðµ
ĠÐ¿Ð» Ð¾Ð´Ð¾Ð²
ĠÐ²Ð°ÐºÐ°Ð½ ÑģÐ¸Ð¹
ĠÑĢÑĥÐºÐ¾Ð²Ð¾Ð´ ÑģÑĤÐ²Ð¾
ĠÑĥÑģÐ¸ Ð»Ð¸Ñı
ĠÐ²ÑĭÑģÑĤÐ°Ð² ÐºÐ¸
ĠÐ²Ð¾Ð·Ð´ÑĥÑĪ Ð½Ð¾Ð³Ð¾
Ð²ÑģÐµ Ð³Ð´Ð°
ĠÐ°ÑĢÑħÐ¸ÑĤÐµ ÐºÑĤÑĥÑĢ
ĠÐºÐ°Ð´ ÑĢÐ¾Ð²
ĠÐºÐ¾Ð½ÑĦÐµÑĢÐµÐ½ ÑĨÐ¸Ð¸
ĠÐ¿Ð»Ð°Ð½ÐµÑĤ Ñĭ
ÐľÐ¾ÑģÐº Ð²Ð°
Ñģ ÐµÑĤ
ĠÐ² Ð²ÐµÑģÑĤÐ¸
ĠÐ² Ð²ÐµÑĢÑħ
ÑĢÐµ Ð»Ð°
ÑģÐº Ð¾ÑħÐ¾Ð·ÑıÐ¹
ĠÐ¿Ð¾ ÐµÐ·
Ð¾Ð± Ð±Ð¸
ĠÐ» ÑĳÐ³
ĠÐ¾Ð± ÑĥÑģÐ»Ð¾Ð²
ÑīÐ¸ ÐºÐ¾Ð¼
ĠÐ¿Ð¾Ð´ Ð¾Ð¹
ĠÐŀ ÑħÐ¾ÑĤ
ĠÐ¼Ð° ÑģÐºÐ¸
ĠÐĲ Ð·Ð¸Ð¸
ÑģÑĤÐ¾ ÑĩÐ½Ð¾Ð¹
ĠÐ´Ð° ÑģÑĤ
Ðĵ Ð°Ð·
ĠÐ¿Ð¸ ÑīÐ¸
Ð¾Ð»Ð¾Ð³Ð¸ ÑĩÐµÑģÐºÐ¸Ð¹
ĠÐĴÑĭ Ð±Ð¾ÑĢ
ĠÐļÐ° Ð½Ð°
Ð¾Ð±ÑħÐ¾Ð´Ð¸ Ð¼Ð¾
ĠÐ²ÑĭÑģ Ð¾ÑĤÐµ
ÐŃ ÑĤÐ°
ĠÑįÐºÐ¾Ð½Ð¾Ð¼Ð¸ ÑĩÐµÑģÐºÐ¾Ð¹
Ð»Ð¸Ð² ÑĭÐ¹
Ð·Ðµ Ð»ÐµÐ½
ĠÐ½ÐµÑĦ ÑĤÑĮ
ĠÐ±ÑĢÐ¸ ÑĤÐ°Ð½
ĠÐ²Ð¾Ð·Ð´ÐµÐ¹ ÑģÑĤÐ²Ð¸Ðµ
ĠÐŁÑĢÐ°Ð²Ð¸ Ð»Ð°
ĠÐ¿ÑĢÐµÐ¿Ð°ÑĢÐ° ÑĤÑĭ
ĠÑģÐ»ÐµÐ´ÑĥÑİ ÑīÐµÐ¼
ĠÐ´Ð¸Ð°Ð¼ÐµÑĤ ÑĢ
ĠÐ»Ð°Ð¼ Ð¿Ñĭ
ĠÑįÐºÑģÐ¿ÐµÑĢ ÑĤÐ¸
ĠÐ·Ð°ÑĤ ÑĢÑĥÐ´
ĠÐļÐ¸ÑĤÐ° Ñı
ĠÐ¸ÑģÐ¿Ð¾Ð»Ð½ ÐµÐ½Ð¸Ðµ
ĠÐºÐ¾Ð¼Ð¿ÐµÐ½ ÑģÐ°
m p
s c
Ñĥ ÐºÐ°
ĠÑģ Ð¾ÑĢÑĤÐ°
Ð· Ð¼Ñĭ
ĠÐ¼ Ð»Ð°Ð´
ĠÐ± Ð»Ñİ
ÑĤÐ¸ ÑĩÐµÑģÐºÐ¾Ð³Ð¾
Ð¾Ð± Ð¾Ð¹
ĠÐ¾ÑĤ Ð¾Ð¿Ð»ÐµÐ½Ð¸Ñı
Ð´Ðµ ÑĪÑĮ
ĠÐŁ Ðļ
ĠÐĴ ÑģÑı
ĠÐ²Ñĭ Ð¹
Ð¾Ð¿ Ð¾Ð»Ð¸
ĠÐ¿ÑĢ Ð¾ÑĤ
ĠÐ¸Ð· Ñĭ
ĠÑģÑĤ ÑĢÐ¸
ĠÑģÑĤ ÐµÑĢ
ĠÑĤÐµ ÑĩÐµÐ½Ð¸Ð¸
ĠÐĲ Ð¿ÑĢÐµ
Ð¾Ð´Ð¸ ÑĤÐµÐ»ÑĮ
Ð°Ð»ÑĮ Ð½Ð¾Ð¼
ĠÐ¾Ð¿ ÑĢÐ¾
ĠÐ¾Ð¿ ÑĥÑħ
ĠÐ²Ðµ ÑģÐ°
Ð±Ð° ÑĢÐ¸
ĠÐ¿Ð° ÑģÐ¿Ð¾ÑĢÑĤ
ÐºÐ»Ð° ÑģÑģ
ÑĪÐµÐ½ Ð½ÑĭÐ¹
ĠÐĺÐ½ ÑĦÐ¾ÑĢÐ¼Ð°
ĠÑİ Ð±Ð¸
Ð³Ð¾ÑĢ Ð¾Ð´Ðµ
ĠÑĢÐ°Ð·Ð¼Ðµ ÑīÐµÐ½Ð¸Ðµ
Ð»Ð¾Ð½ Ð´Ð¸Ð½
ĠÐ¾ÐºÐ°Ð·Ð° Ð½Ð¸Ðµ
ol d
Ð½Ð¾Ð²Ð¸ Ñĩ
ĠÑĤÐ¾ÑĢÐ³Ð¾Ð² ÑĭÑħ
ĠÑģÐ¾Ð¿ ÑĢÐ¾ÑĤÐ¸Ð²
ĠÑĤÑĢ ÑĳÑħ
ĠÐ¿Ð»Ð°ÑģÑĤÐ¸ Ðº
ĠÐŁÑĥ ÑĤÐ¸Ð½
ĠÐ½Ð¸ÐºÐ° ÐºÐ¾Ð¹
ĠÑĥÑĩÑĢÐµ Ð¶Ð´ÐµÐ½Ð¸Ðµ
ĠÐ¿Ð¾ÑĤÑĢÐµÐ± ÑĥÐµÑĤÑģÑı
ĠÐ¿Ð¾ÑģÐµÑĤÐ¸ ÑĤÑĮ
ĠÑħÐ¾ ÑĤÐµÐ»Ð¸
ĠÑĥÐ²ÐµÐ»Ð¸Ñĩ ÐµÐ½Ð¸Ñı
ĠÑĢÐµÐºÐ»Ð°Ð¼ Ð½ÑĭÑħ
ÑģÑĤ ÑıÐ¼Ð¸
ÐµÐ½ Ð½Ð¾ÑģÑĤÑĮ
Ð· Ð¾ÑĢÑĭ
Ð½Ð¸ ÑĤÐµÐ»ÑĮ
Ð½Ð¸ ÑĤÑģÑı
Ð»Ð¸ Ð·Ð°
ÑĤÐ¸ ÑĢÐ¾Ð²Ð°Ð½Ð¸Ñı
ĠÐ³ Ð¸ÑĤÐ°
ĠÑį Ð»Ð°ÑģÑĤÐ¸
ÑģÑĤÐ¸ ÑĤÐµ
ĠÐļ Ð¾Ð´
ĠÑĢÐµ Ð³Ð»Ð°
ĠÐľ Ð¾Ð´ÐµÐ»ÑĮ
ĠÐ¿Ð¾Ð´ ÑĢÐ°Ð·ÑĥÐ¼Ðµ
ÑĢÑĭ Ð·
ĠÐŀ ÑĦÐ¸ÑĨÐ¸Ð°Ð»ÑĮ
ÐºÐ¾Ð² Ð¾Ðµ
ÑĢÐ°Ð² Ð½Ð¸
ÑĨÐµ Ð²Ð°
ĠÐĵ Ð¾Ð²
ÑħÐ¾Ð´ Ñĭ
ĠÐĹÐ° ÐºÐ°Ð¶Ð¸ÑĤÐµ
ÐĹ Ð´ÐµÑģÑĮ
ĠÑģÐ°Ð¹ ÑĤÑĭ
ĠÐºÑĢÐ° Ðµ
ĠM ic
ĠÐºÐ¾Ð» Ð»ÐµÐ´
ĠI II
ĠÐ²ÑĭÑģÐ¾Ðº Ð¸Ñħ
it h
el ine
ĠÐ¾ÑĤÐ´Ðµ Ð»ÑĮÐ½ÑĭÐµ
ĠÑĤÑĥ Ð°Ð»
ĠÐºÑĥÑĢ ÑĮÐµÑĢ
ĠÐ¢Ð° ÐºÐ°Ñı
ĠÐ°Ð½ ÑĤÐµÐ½
ÑĳÐ½ Ð½ÑĭÑħ
Ð³Ð¾ÑĢÐ¸ ÑĤ
ĠÐ±ÐµÑĢÐµ Ð³Ñĥ
ĠÐºÑĢÐ°ÑģÐ¸ Ð²ÑĭÐµ
ĠÑģÐ»ÐµÐ´ÑĥÑİÑīÐ¸ Ð¼
ĠÐºÐ¾Ð»Ðµ ÑģÐ°
ĠÐľÐ°Ðº ÐµÑĤÐ°
ĠÐ½ÐµÐ´Ðµ Ð»Ðµ
ĠÐ¿Ð¾ÑģÑĤÐ°Ð² ÐºÐ¸
ĠÐºÑĢÐµÐ¿ Ð»ÐµÐ½Ð¸Ñı
ĠÐ°Ð´ÑĢÐµ ÑģÐ°
ĠÑĥÑĤ ÑĢÐ¾Ð¼
ĠÐ¡Ð¿Ðµ ÑĨÐ¸Ð°Ð»Ð¸
ĠÐºÐ²Ð°Ð»Ð¸ ÑĦÐ¸ÐºÐ°ÑĨÐ¸Ð¸
ĠÐºÐ°Ð±Ð¸Ð½ ÐµÑĤ
ĠÑħÐ¾Ð´Ð¸ ÑĤÑĮ
ĠÐ¯Ð¿Ð¾ Ð½Ð¸Ð¸
ĠÐ°Ñģ ÑĦÐ°Ð»ÑĮ
5 000
e ar
i er
m an
Ð½ ÑĮÑİ
ĠÐ² ÑĢÑıÐ´
ÑĢÐ° ÑģÑĤ
ÑĨ ÐµÑĢ
Ð»Ð° ÑĤÑĮ
ĠÐ·Ð° Ð¼ÐµÐ½Ð°
Ð½Ðµ Ð·
Ð¾Ð¿ Ð¸Ñģ
ĠÐŀ Ð±Ð¾ÑĢ
ĠÐ±Ñĭ ÑģÑĤÑĢ
ĠÐ²Ð¸ ÑĢÑĥ
ĠÐ¿ÑĢÐµ ÑģÑĤÑĥÐ¿Ð»ÐµÐ½Ð¸Ñı
Ðĳ Ð¸
ĠÐ¿ÐµÑĢ ÐµÐ½Ð¾Ñģ
ÑģÐ¾Ð² ÑĭÐµ
ĠÐ¿Ð¾ÑĢ Ð¾Ð´
ÑĨÐ¸Ð¾Ð½ Ð½ÑĥÑİ
Ð³ÑĢÐ° Ð¼
ĠÐºÐ¾ÑĢ Ð¼
ĠÐ±Ðµ Ð»Ð¾Ð³Ð¾
ĠÐ¿Ð¾Ð»ÑĥÑĩÐ¸ Ð»Ð¾ÑģÑĮ
ic al
ĠÑİ Ð²ÐµÐ»Ð¸
ÑıÐ²Ð¸ ÑĤÑĮ
ĠÑĥÑĩÐ¸ ÑĤÐµÐ»Ñı
ÐºÑĥÑĢ Ñģ
ÑĩÐ°ÑģÑĤ ÐµÐ¹
ĠÐºÑĢÑĥÐ¿ Ð½ÐµÐ¹
ĠÐ±ÑĥÐ´Ñĥ ÑīÐµÐµ
ĠÐµÐ¶Ðµ Ð´Ð½ÐµÐ²
ĠÐŃÐ»ÐµÐºÑĤ ÑĢÐ¾
ĠÐ¿Ð¾ÑĤÐ¾Ð» Ð¾Ðº
ĠÐ¾ÑĪÐ¸Ð± ÐºÐ¸
ĠÐĶÑĢÑĥ Ð³Ð¸Ðµ
ĠÐĿÐ¸Ð¶ Ð½Ð¸Ð¹
ĠÑĤÑĢÐµÐ½Ð¸ ÑĢÐ¾Ð²
ĠÐ½ÐµÐ·Ð°Ð²Ð¸ÑģÐ¸ Ð¼Ð¾
ĠÐºÐ°ÑĤÐ°Ð»Ð¾Ð³ Ðµ
ĠÐ³Ð°ÑĢÐ¼Ð¾ Ð½Ð¸
Ð´ ÑĢÐ¾
ÐµÐ½ ÑģÐº
Ð· Ð¾Ð²Ð°
Ð± ÑĢÐµ
ÑģÐº Ð°Ð½
ĠÐ± ÐµÑĤ
ĠÑĥ ÑģÐº
ÐµÐ¼ ÑĮ
ĠÐ·Ð° ÑĢÐ°Ð±Ð¾ÑĤÐ°ÑĤÑĮ
Ñį Ð»
Ñį Ð´
ĠÑĤ Ð¾ÐºÐ°
ÑģÑĤÐ² Ð¾Ð²Ð°Ð½Ð¸Ñı
ĠÑį ÑģÑĤÐµÑĤÐ¸
ĠÐŁ Ð¾Ð»ÑĮ
ĠÐ¡ ÐµÐºÑģ
ÑĩÐ¸ Ð½Ñĭ
Ð·Ð° ÑĤÑĮ
ĠÐ²Ñĭ ÑıÐ²
ĠÐļ Ðĳ
ĠÐ¿ÑĢÐ¾ ÑģÑĤÐ°
ĠÑĢÐµ Ð¼
ĠÐľ ÑĥÑĢ
ĠÑģÐ¾ ÑİÐ·
ĠÐ´Ð¾ ÑħÐ¾Ð´Ð°
ĠÑģÑĤÐ° Ð½ÑĥÑĤ
ĠÐ¿Ð¾Ð¼ Ð¸Ð¼Ð¾
Ð¿ÑĢÐ°Ð² Ð»ÐµÐ½Ð¸Ðµ
ĠÐ»Ðµ ÑĩÐµÐ½Ð¸Ð¸
ĠS T
ĠS k
ĠÑģÐ° Ð´Ð°
ĠA pple
Ð½Ð¾ÑģÑĤ ÑıÐ¼
ĠÐ¿ÑĢÐ¸Ð¼ÐµÐ½ ÐµÐ½Ð¸ÐµÐ¼
ĠÐ¢Ð° ÐºÐ¾Ðµ
ĠÐ¼Ð°ÑĪÐ¸ Ð½Ðµ
ĠÑģÐ¾Ð²ÑĢÐµÐ¼ÐµÐ½ Ð½Ð¾Ð¼
ĠÑģÐ»ÑĥÐ¶ Ð±Ð°
ĠÐ¿Ð¾Ð½Ñı ÑĤÐ¸Ðµ
Ð¾Ð»Ð½ ÑĨÐ°
ÑĨÐµÐ½ÑĤ ÑĢ
ĠÐ¿ÑĢÐ°Ð·Ð´ Ð½Ð¸ÐºÐ°
ĠÐ³ÐµÑĢ Ð¼ÐµÑĤÐ¸
ĠÐ¦ÐµÐ½ÑĤ ÑĢ
ĠÐ´Ð¸Ð·Ð°Ð¹Ð½ ÐµÑĢ
ĠÐĶÐ°Ð½ Ð½ÑĭÐ¹
ĠÐ·ÑĥÐ± Ð¾Ð²
ĠÑĦÐ¸Ð»Ð¾Ñģ Ð¾ÑĦ
ĠÐ°Ð²Ð° ÑĢÐ¸Ð¹
ĠÐ¿ÑĥÐ±Ð»Ð¸Ñĩ Ð½Ð¾Ð¹
ĠÐ¼Ð¾Ð½Ð° ÑģÑĤÑĭ
ĠÐ½Ð°ÑģÐ»Ð° Ð¶Ð´Ð°
? Â»
D F
R U
Ð² Ð¾Ð´Ðµ
ÑĢÐ° Ð½Ð¾Ð²
ĠÐ½Ðµ Ð¾Ð±
ĠÐ·Ð° Ð´Ð°Ð½
Ð¾Ð¶ Ð°Ð¹
ÑĥÑİ ÑīÐµÐ³Ð¾
ĠÐŀ Ð»Ð¸Ð¼Ð¿Ð¸
ĠÐĺ ÑģÑĤÐ¾ÑĢÐ¸Ñı
ĠÑħ Ð¾Ð´Ð°
ĠÐ¸Ð½ Ð´Ð¸ÐºÐ°
ÐµÐ½ÑĮ Ñı
ĠÐ¿ÐµÑĢÐµ Ð¹ÑĤÐ¸
ĠÐ´Ð° ÑĤÐ°
ĠÐĿÐ° Ð´Ð¾
ĠÐ¿ÐµÑĢ Ð²Ð¸
ÐĹ Ðĺ
Ð¿ÑĢÐ°Ð² Ð»ÐµÐ½Ð¸Ñı
ĠÐ¿Ð¾ÑĤ Ð¾Ðº
ĠÐ³Ð¾Ð´Ð° Ñħ
ĠÐºÐ¾ÑĢ ÑĢÑĥÐ¿
ĠÐ¿Ñĥ ÑģÑĤÑĭ
ĠÐ¿Ð°ÑĢ Ðº
ĠÐ¾ÑģÑĤÐ° Ð»Ð¾ÑģÑĮ
Ð²Ð¾ÑĢ Ð¾ÑĤ
ĠÑģÐ²Ñı ÑīÐµÐ½
ĠÑĢÐ°ÑģÑģ Ð»ÐµÐ´
ĠÑģÐ¾ÑģÑĤÐ¾Ñı Ð»Ð°ÑģÑĮ
Ð¾Ð¶Ð° Ð»ÑĥÐ¹ÑģÑĤÐ°
ĠÐ¿ÑĢÐ¾Ð¸Ñģ ÑħÐ¾Ð¶Ð´ÐµÐ½Ð¸Ñı
ĠÑģÐ¾Ð¿ ÐµÑĢ
ĠÐ¿Ð¾Ð´Ð³Ð¾ÑĤÐ¾Ð² ÐºÐµ
ĠÐ´ÐµÐ½Ðµ Ð¶Ð½ÑĭÑħ
ĠÑĦÐ¸Ð½Ð°Ð½ÑģÐ¾Ð² Ð¾Ð³Ð¾
ĠÐ¿ÑĢÐ¸Ð¼ÐµÐ½Ñı ÑİÑĤÑģÑı
Ð¾ÑģÐ¿ Ð¾ÑģÐ¾Ð±
ĠÐ¡Ð¿ Ð¾ÑĢ
ĠÐ²Ð¾ÑģÑģÑĤÐ°Ð½Ð¾Ð² Ð»ÐµÐ½Ð¸Ñı
II I
ĠÐ¿ÑĢÐ¸Ð±Ñĭ Ð»Ð¸
âĢ¢ âĢ¢
ĠÐ¿ÑĢÐµÐ´ÑģÑĤÐ°Ð² Ð»ÐµÐ½Ð¸Ðµ
ĠÑĢÐµÑģÐ¿ÑĥÐ±Ð»Ð¸ ÐºÐ¸
ĠÑįÐºÑĢÐ° Ð½Ð°
ĠÑħÑĥ Ð¶Ðµ
ĠÐ·Ð°Ð¼ÐµÑģÑĤÐ¸ ÑĤÐµÐ»ÑĮ
ĠÐ´ÐµÐ¼Ð¾Ð½ ÑģÑĤÑĢÐ¸
ĠÐ½ÐµÐ¼Ð° Ð»Ð¾
ĠÑĤÐ°Ð»Ð°Ð½ ÑĤ
ĠÐ¸ÑģÑĩÐµ Ð·
ĠÐĺÐ·ÑĢÐ° Ð¸
ÑĢ Ð½Ð¾Ð³Ð¾
Ñĥ ÑģÐ¸Ð»Ð¸
Ñı ÐµÑĤÑģÑı
Ð¼ ÑĥÑĤ
ĠÑģ Ð¼ÐµÐ½
ĠÐº ÑĢÐµÑģ
Ð³ Ð¾Ð¹
Ð³ Î¿
Ð¾Ð» Ð¾Ñģ
ĠÐ¼ Ð¾Ð´Ñĭ
ĠÐ½Ð° Ð²Ð¸Ð³Ð°
Ð»Ð° ÑĢ
ÑĦ Ð°Ð½
ĠÐ½Ðµ ÑĢÐµ
ÐµÐ¼ ÑĭÐ¼
ĠÑĤ ÐµÑĤÑĢÐ°
ĠÐ¾ÑĤ Ð²Ð°
ÑĩÐ¸ Ð²Ð°ÐµÑĤ
ĠÐ¿ÑĢÐ¾ ÑıÐ²Ð»ÐµÐ½Ð¸Ñı
Ð¼ÐµÐ½ ÐµÐ½Ð¸Ðµ
ÑĪÐµ ÑģÑĤÐ²Ð¸Ñı
ĠÐ¿ÑĢÐµÐ´ Ð¼ÐµÑĤÐ°
ÑģÑĤÐ²ÐµÐ½ Ð½Ð¾ÑģÑĤÐ¸
ĠÑģÐ¿ ÐµÐºÑĤÐ°Ðº
Ð¶Ð´ ÐµÐ½Ð¸ÐµÐ¼
ĠÐ´Ð¾Ð» Ð³Ð¾Ð²Ðµ
ÑģÐ¾Ð² Ð¾Ð¹
ĠÐ¶Ð¸ Ð´
ĠÐ¼Ð¾ Ñİ
ĠÐ¸Ð½ÑĦÐ¾ÑĢÐ¼Ð° ÑĨÐ¸Ð¾Ð½Ð½ÑĭÑħ
ra d
ĠÐ¸ÑģÐ¿Ð¾Ð»ÑĮÐ· ÑĥÐµÑĤ
ĠÐĲÑĢ ÑħÐ°Ð½Ð³ÐµÐ»ÑĮ
ĠÐ¿Ð¾Ð»ÑĮÐ·Ð¾Ð²Ð° Ð½Ð¸Ñı
ĠÑĩÐ°ÑģÑĤ Ð½ÑĭÑħ
ĠÐ³Ð°Ð· ÐµÑĤÑĭ
ĠÑĢÐ°ÑģÑĤ ÐµÑĤ
ĠÐ¿Ð¾Ð¿ÑĥÐ»ÑıÑĢ Ð½ÑĭÐµ
ĠÐ¼ÐµÑĢÐ¾Ð¿ÑĢÐ¸Ñı ÑĤÐ¸Ðµ
ĠÐ¿ÑĢÐ¾ÑĦÐµÑģÑģÐ¸Ð¾Ð½Ð°Ð»ÑĮ Ð½ÑĭÑħ
ĠÑģÑĤÑĢÐ°Ð½ Ñĥ
ĠÐ¿Ð¾Ð´Ð´ÐµÑĢÐ¶ ÐºÐµ
ĠÐ¾Ð±Ñģ ÑĥÐ¶
ĠÐºÐ»ÐµÑĤ Ð¾Ðº
ĠÐ¿ÑĢÐ¸Ð±Ð»Ð¸ Ð·Ð¸
Ð²ÑĪÐµÐ¹ ÑģÑı
ĠÑģÐ¾Ð¾ÑĢÑĥÐ¶ ÐµÐ½Ð¸Ð¹
ĠÑĥÐ´Ð¸ Ð²
ĠÑĥÐ¿ÑĢÐ°Ð¶ Ð½ÐµÐ½Ð¸Ñı
1 30
8 1
Ð² Ð½ÑĭÑħ
ĠÐ¿ Ð¾Ð±Ñĭ
ĠÐ¸ ÑģÑĤ
ĠÐ¾ ÑģÑĤÐ°Ð²Ð¸
Ð³ Ð¾Ð²Ð°ÑĢÐ¸
ÑĢÐ¸ Ð·Ð¼
ÐºÐ° Ð»
ĠÐ» Ð¾ÐºÐ°
ĠÐ¾Ð± ÐµÐ´
ĠÐ¾ÑĤ ÐºÐ°Ð·
ĠÐĴ Ð£ÐĹ
Ð¾Ñģ ÑģÐµ
Ð¾Ñģ Ð»ÐµÐ´
ÑĥÑİ ÑīÐµÐ¹
ĠÐľ Ð°Ð½
ĠÐ¿Ð¾Ð´ Ð»ÐµÐ¶Ð°
Ð¶Ðµ Ð»Ð°
ĠÐ¢ Ð£
Ð½Ñı Ð¹ÑĤÐµ
ÐºÐ¾Ð² ÑģÐºÐ¸Ð¹
ĠÐĵ Ð¾ÑģÐ¿
ÑĤÐ¾ÑĢ Ñĥ
ĠÐ£ Ð·
ĠÐķ Ð´Ð¸Ð½
ĠÐŃ Ð½
Ð²Ð¾ ÑģÑĤÐ¸
ÑħÐ° ÑĢÐ°
ÑħÐ° ÑĤÑĮ
Ð¿Ñĥ ÑģÐº
ÑĢÐµÐ± Ð¾Ð²Ð°Ð½Ð¸Ñı
ĠC o
ĠÐ¼ÐµÑĤ Ð¾Ð´Ð¾Ð²
ĠÐºÐ°Ð¶Ð´ ÑĥÑİ
ĠÑĨÐ¸ ÐºÐ»Ð°
ĠÐ´Ð¾ÑĢ Ð¾Ð³Ñĥ
ĠÐ¾Ð±ÑīÐµ ÑģÑĤÐ²ÐµÐ½Ð½Ð¾Ð³Ð¾
ĠÐ¼ÐµÑģÑĤ Ð½ÑĭÑħ
ÐĿÐŀ Ðķ
ĠÐ²Ð½ÑĥÑĤÑĢÐµÐ½ Ð½ÐµÐ³Ð¾
ĠÑģÐ»Ð¸ Ð·Ð¸
ĠÑĦÐ¸Ð½Ð°Ð½ÑģÐ¾Ð² ÑĭÑħ
ĠÐ¿ÑĢÐ¸Ð¼ÐµÐ½Ñı ÑİÑĤ
ĠÐ¿ÑĢÐ¾ÑģÑĤÑĢÐ°Ð½ ÑģÑĤÐ²Ðµ
ĠÐ¼Ð°ÑĤ ÑĩÐµ
ĠÐ¾ÑĤÐ·Ñĭ Ð²
ĠÐ¼Ð½Ð¾Ð³ Ð¾Ðº
ĠÐ¾ÑīÑĥ ÑīÐµÐ½Ð¸Ðµ
ĠÐ±Ð¾Ð»ÑĮÑĪÐ¸Ð½ ÑģÑĤÐ²Ð°
ĠÑģÐ¸Ð³ Ð½Ð°Ð»
ĠÐ¿ÑĢÐµÐ´Ð²Ð°ÑĢÐ¸ ÑĤÐµÐ»ÑĮÐ½Ð¾
ĠÐ¿Ð¾Ð²ÑĢÐµ Ð¶Ð´ÐµÐ½Ð¸Ñı
ĠÐºÐ¾Ð½ÑĤÑĢÐ¾Ð» Ð»ÐµÑĢ
ĠÑģÐ¼Ð°ÑĢÑĤ ÑĦÐ¾Ð½
ĠÐļÐ°Ð·Ð°Ñħ ÑģÑĤÐ°Ð½
ĠÐ½ÐµÐ´Ð¾ÑĢ Ð¾Ð³Ð¾
ĠÐºÑĢÑİ ÑĩÐºÐ¾Ð¼
ĠÑģÐ¿ÐµÐºÑĤ ÑĢ
ĠÑĥÐ»ÑĮ ÑĤÑĢÐ°
Ð²ÑĤÐ¾ÑĢ ÑĭÑħ
ams ung
Ð¸ ÑĤÐµ
ĠÐ² Ð»Ð¾Ð¶
ĠÑģ Ð»Ð¾ÑĤÑĭ
ĠÐ¾ Ð´Ð¸Ð½Ð¾
ĠÐ´ ÑĥÐ±
ÐºÐ° ÐµÑĤ
ĠÑĥ ÑĢÐ¾Ðº
ĠÐ½Ðµ ÑģÑĥ
ÑģÑĤÐ° Ð²Ð°
ĠÐ» Ñĭ
ĠÐ¾Ð± Ð¾ÑģÐ½Ð¾Ð²Ð°
ĠÐ²Ñĭ ÑģÐºÐ°
ĠÑĢÐµ ÑĪÐ°ÑĤÑĮ
ĠÐ¢ ÐĲ
Ð¢ Ñĭ
ĠÐĹ Ð´Ð¾ÑĢÐ¾Ð²
Ð¶Ð´ ÐµÐ½Ð¸Ð¸
Ð¼Ñĭ Ð²Ð°
ĠÐ¿Ð° Ð¿
ÑħÐ° Ð»Ð¸Ð½
ĠÑĦÐ¸ Ð½Ð°
ĠÑģÐ¾Ð± ÑĢÐ°Ð½
Ð¾Ð»Ð¾Ð³Ð¸ ÑĩÐµÑģÐºÐ¾Ð¹
ĠÐ¼Ð½ ÐµÐ½Ð¸Ñı
ĠÐ¾Ð±ÑĢÐ° Ð·Ð°
ĠÐ¾Ð±ÑĢÐ° ÑīÐ°ÑĤÑĮÑģÑı
Ð¾Ð³Ð° Ð¼Ð¸
ĠÑĢÐ°Ð·Ð²Ð¸ ÑĤÐ¸Ð¸
Ð¾Ð¶Ð° Ñı
ĠÐļÐ¾Ð½ ÑĤÐ°
am e
ĠÑıÐ·Ñĭ ÐºÑĥ
ĠÑĤÐµÑħÐ½Ð¾Ð»Ð¾Ð³Ð¸ Ñı
ĠÐ¡ÑĤ ÑĢÐ¾Ð¿Ñĭ
ĠÐ¿Ð¾Ñħ Ð¾Ð¶Ðµ
ĠÐ½ÐµÐ´Ð¾ ÑģÑĤÐ°ÑĤÐ¾
ĠÐºÐ¾Ð¶ ÐµÐ¹
ĠÐ¾ÑīÑĥ ÑīÐµÐ½Ð¸Ñı
ĠÑĢÑĥÐºÐ¾Ð²Ð¾Ð´Ð¸ ÑĤÐµÐ»Ñı
ĠÐ²ÐµÑĢÑħ Ð½ÐµÐ¹
ĠÑģÐ¸Ð½ ÑĤÐµ
ĠÐ±ÑĢÐµÐ½ Ð´Ð°
ĠÐ¾ÑĤÐºÐ°Ð·Ð° ÑĤÑĮÑģÑı
ĠÐ¶ÐµÐ»ÐµÐ· Ð½Ð¾Ð´Ð¾ÑĢÐ¾Ð¶
ĠÐ·Ð°ÑģÐµÐ´Ð° Ð½Ð¸Ðµ
ÐķÐĿÐĺ Ð¯
ĠÐ¾ÑĢÑĥÐ¶Ð¸ Ðµ
ÐŁÐµ ÑĢÐµÐ´
ĠÐºÐ°Ð¿ ÑģÑĥ
ĠÐ¿Ð¾Ð¶ÐµÐ»Ð° Ð½Ð¸Ñı
ĠÐľÐ¸ÑħÐ° Ð¸Ð»
ĠÐ»ÑİÐ±Ñĭ Ð¼
ĠÐ£Ð·Ð½Ð° ÑĤÑĮ
" )
Ġ ~
ĠÐ¿ Ð¾Ð³Ð¾Ð²
ĠÐ² Ð¾Ð»ÑĮ
ĠÑģ Ð»Ð°Ð²
ÐµÐ½ ÑĩÐ°ÑĤÑĭÐ¹
Ð± ÑĢ
ĠÐº Ð¾Ð¶Ðµ
Ð³ Ð¾Ñģ
ĠÑĥ Ð²Ð»Ðµ
ĠÐ¾ÑĤ Ñĭ
ĠÐºÐ° Ð¼ÐµÐ½ÑĮ
ĠÐ¿ÑĢÐ¸ ÑģÑĤÐ°Ð²
ÑģÐ¸ ÐºÐ¸
ĠÐ²Ñĭ Ð¿Ð°
ÑĤÐµÐ»ÑĮ ÑģÐºÐ¾Ð¹
Ð³Ð° ÑİÑĤ
ÐºÐ¾ ÑģÑĤÑĮÑİ
ĠÐĶ ÐĽÐ¯
Ð¶Ðµ Ð±
ĠÐºÐ¾ÑĤ ÑĤÐµ
Ð½Ð¾Ð² ÑĭÑħ
ĠÐ»Ð¸ Ð½Ð¸Ð¹
Ðĳ Ðĺ
ĠÐ·Ð½Ð° ÐµÐ¼
ĠÑģÐ»Ñĥ Ð¶Ð°
ĠÑģÑĤÑĢÐ° Ð½Ð°
ĠÑĥÑĩÐ° ÑīÐ¸ÑħÑģÑı
ĠÐ½Ð°ÑĪ ÐµÐ¼Ñĥ
ĠÑĤÐ¾ÑĢ Ð³
ĠÐ¿ÑĢÐ¸Ð¼ÐµÐ½ ÐµÐ½Ð¸Ñİ
ĠÐ¿ÑĢÐµÐ´Ð¾ ÑħÑĢÐ°Ð½Ð¸
Ġc rack
ĠÐ¾Ð±ÑīÐµ ÑģÑĤÐ²ÐµÐ½Ð½ÑĭÑħ
ĠÑĥÐ¿ Ð¾Ð¼Ð¸Ð½Ð°
ĠÐ¶ÐµÐ»Ð° ÑĤÐµÐ»ÑĮÐ½Ð¾
ĠÑĤÐ¾ÑĢÐ³Ð¾Ð² Ð¾Ð¹
ĠÑĢÐµÐºÐ¾Ð¼ÐµÐ½ Ð´Ð°
ĠÐĽÑİ Ð±Ð¸
ĠÐ¿ÑĢÐµÐ´ÑģÑĤÐ°Ð²Ð»ÐµÐ½ Ð°
ĠÐ¼Ð°ÐºÑģÐ¸ Ð¼ÑĥÐ¼
ĠÐ³ÐµÑĢ Ð¾
ĠÐ·Ð°Ð¿ ÑĢÐ¾Ñģ
199 9
ĠÐ¿ÑĥÐ±Ð»Ð¸ ÐºÐ°
ĠÑĦÑĥÑĤ Ð±Ð¾Ð»ÑĮ
ĠÐ¿ÑĢÐ¾ÑģÐ¼Ð¾ÑĤ ÑĢ
ĠÐ¼Ð°Ð³ Ð½Ð¸
ĠÑģÐ»ÑĥÑĩÐ°Ð¹ Ð½Ð¾
ĠÐ¿Ð¾Ð´ÐºÐ»Ñİ ÑĩÐµÐ½Ð¸Ñı
ĠÐ¿ÑĢÐ¾Ð²Ð¾Ð´ ÑıÑĤ
ĠÐ¾ÑģÐ²Ðµ ÑīÐµÐ½Ð¸Ñı
ĠÑĦÑĢÑĥ ÐºÑĤÐ¾Ð²
ĠÐĺÐ³Ð¾ÑĢ ÑĮ
A D
A L
m in
Ð½ Ð¾Ð»ÐµÑĤ
Ð¾Ð´ Ð½Ð¾Ð¹
ĠÐ³ Ð»Ð¸
Ð¼Ð° Ðº
ĠÐļ Ð¾Ð»Ð¸ÑĩÐµÑģÑĤÐ²Ð¾
ĠÐ¿Ð¾Ð´ Ð·ÐµÐ¼
ĠÑĢÐ°Ð· Ð±Ð¸
ĠÐł Ð¾Ð·
ÐºÐ¾Ð² Ð¾Ð»ÑĮ
ÐºÐ¾Ð¼ Ð¼Ñĥ
19 90
ĠÐ¾ÑĢÐ³Ð° Ð½
ĠÐ¯ ÑĢÐ¾ÑģÐ»Ð°Ð²
ĠÐ»ÐµÑĤ Ð½Ð¸Ðµ
ĠÑįÐ»ÐµÐºÑĤ ÑĢÐ¾Ñģ
al k
ĠÐ¼Ñĥ Ð·ÐµÐ¹
ĠÐ¿Ð¾Ðº ÐµÑĢ
ĠÐ¿ÑĢÐ¾Ð± Ðµ
ĠÐ¾ÑĤÐ´Ðµ Ð»
ĠÐ²Ð¾Ð¿ÑĢÐ¾ ÑģÐ°
Ð²ÑĢÐ¾Ð¿ Ð¾Ð»ÑĮ
ÐļÐ° Ð¶Ð´ÑĭÐ¹
ĠÐ¾Ð±ÐµÑģÐ¿ÐµÑĩÐ¸ Ð²Ð°ÑİÑĤ
ĠÐ·Ð½Ð°ÐºÐ¾Ð¼ ÑģÑĤÐ²
ĠÐĶÐ¾ ÑģÐºÐ°
ĠÐ±Ð»Ð°Ð³ Ð¾Ð¿ÑĢÐ¸ÑıÑĤ
ĠÑĢÐ¾Ð»Ð¸ ÐºÐ¸
ĠÐ»Ð¸ÑĤÐµÑĢÐ° ÑĤÑĥÑĢÑĭ
ÑĢÐµÐ·Ð° ÑĤÑĮ
ĠÐ¾Ð¿Ð¸ ÑģÑĭ
ĠÑģÐ¾Ð±Ð° ÐºÐ°
ĠÐ¿ÑĢÐµÐ´ÑģÐµÐ´Ð° ÑĤÐµÐ»ÑĮ
ĠÐ½Ð°ÑģÑĤÑĢÐ¾Ð¹ ÐºÐ¸
ĠÐ½Ð°Ð¿Ð¾Ð¼Ð¸Ð½Ð° ÐµÑĤ
ĠÐ¡ÑĤÑĢÐ¾Ð¸ ÑĤÐµÐ»ÑĮÑģÑĤÐ²Ð¾
ÑīÐ°Ð¹ ÑĤÐµÑģÑĮ
ĠÐ¢Ð°ÑĤÑĮÑı Ð½Ð°
Ð´ Ð½ÑĭÑħ
Ð¶ ÐµÑĢ
ĠÐ± Ð¾Ð¼
Ð²Ð° Ð½Ð°
Ð²Ð° ÑİÑīÐ¸Ð¼
ĠÐ³ Ð»ÑıÐ½
ĠÑĢÐ° Ð´Ñĭ
Ð´Ðµ ÑģÑı
ÑĩÐ¸ ÑģÐ»Ð¸
ÑģÐµ Ð²
ĠÐĿ Ð°Ð¼
ĠÐ¼Ð° Ð»Ð¾Ð³Ð¾
ĠÐĶ Ð²ÐµÑĢÑĮ
ÐĿ Ðł
ĠÐ´Ðµ Ð»Ð¾Ð¼
ĠÐ²Ð¾Ð· Ð³Ð»Ð°
ĠÐĹ Ð¸
ÑģÑĤÐ²Ð¸ Ñİ
ĠÑģÑĥ ÑģÑĤÐ°Ð²
ÑĤÐ¾Ð² Ð¾Ð³Ð¾
ĠÐ¿Ð¾ÐºÐ° Ð·ÑĭÐ²Ð°
ĠÐ¸Ð½ÑĦÐ¾ÑĢÐ¼Ð° ÑĨÐ¸ÐµÐ¹
ĠÐ±Ðµ ÑģÐµ
ĠÑĥÑģÑĤÐ°Ð½Ð¾Ð² ÐºÐµ
ĠÑĥÑģÐ»Ñĥ Ð³Ñĥ
ic s
ĠÐ³Ð¾Ð²Ð¾ÑĢÐ¸ Ð»Ð¸
ĠÐ¾Ñħ Ð²Ð°
ĠÑĪÐºÐ¾Ð» Ñĥ
ĠÐ¿ÐµÑģ ÐµÐ½
ĠÐºÐ¾Ð»Ð»ÐµÐº ÑĨÐ¸Ð¸
ĠÑįÐ»ÐµÐºÑĤÑĢÐ¸ ÑĩÐµÑģÐºÐ¾Ð³Ð¾
ĠÐ¤Ð¸ Ð½Ð°Ð½
ĠÐĵÐ»Ð°Ð² Ð½Ð°Ñı
ĠÑģÑģÑĭÐ» ÐºÐµ
ĠÑĥÑģÑĤÐ°Ð½Ð°Ð²Ð»Ð¸ Ð²Ð°ÐµÑĤÑģÑı
ÐĲÐ² ÑĤÐ¾
ĠÐĶÐ¸Ð½ ÑģÐºÐ¾Ð³Ð¾
ĠÑģÐ¾ÑĢÐµÐ² Ð½Ð¾Ð²Ð°
ĠÐ²Ð¾ÑģÑĤ Ð¾ÑĢ
ĠÐĵÐ¾Ñģ Ð¿Ð¾Ð´
ĠÑģÐ´Ðµ Ð»ÐºÐ¸
ĠÑĢÐ°ÑģÑĤÐ² Ð¾ÑĢ
ĠÐŁÑĢÐ¾Ð´ Ð°Ð¼
ĠÐŁÑĢÐ¾Ð´Ð° Ð¶Ð°
ĠÐ¡ÐµÑĢÐ³Ðµ Ñı
ĠÐ³Ð¸Ð¼ Ð½Ð°
Ð³ ÑĥÑĤ
ĠÐ½Ðµ Ð²Ðµ
ĠÐ³ Ð¾ÑģÐ¿
ÑĢÑĥ Ð½
ĠÐ¾ÑĤ Ð¼Ðµ
ĠÐºÐ° ÑĤ
ĠÐ¡ ÐµÐº
ĠÐ¿ÑĢÐ¾ ÑħÐ¾Ð¶Ð´ÐµÐ½Ð¸Ñı
ĠÐľ Ðķ
ĠÐĶ Ð°ÑĢ
ÐºÐ¾Ð² ÑģÐºÐ°Ñı
ĠÐ¿ÑĢÐµÐ´ ÑģÐºÐ°Ð·Ð°
ÐĿ Ðļ
Ðķ Ð²
ĠÐ´Ð¸ ÑģÐºÐ¾Ð²
ĠÐ´Ð¸ ÑģÐºÑĥ
Ðĳ ÐĶÐĶ
ĠÐ±Ð¾Ð»ÑĮ Ð½ÑĭÑħ
Ð¾ÑĢÐ¾ ÑĤÑĮÑģÑı
ĠÐ½Ð¾Ð² Ð¾Ð³Ð¾Ð´
ĠÐ»Ðµ Ð¶Ð¸ÑĤ
Ð»Ð¸Ñĩ Ð½ÑĭÐ¹
ĠÑģÐ¾Ð·Ð´Ð° Ð½Ð¸Ñİ
ĠÐ¨ ÑĤÐ°
ĠÑģÐº Ð²Ð¾Ð·
ĠÐ²ÑĭÑģÐ¾Ðº Ð¸Ðµ
ĠÑİ Ð½Ð¾
Ð°Ð² Ð»Ð¾Ð²
ĠÐ¿Ð¾ÐºÐ°Ð·Ð° ÑĤÐµÐ»ÐµÐ¹
ĠÐ¸ÑģÐºÑĥÑģ ÑģÑĤÐ²Ð¾
ĠÐĶÐµ ÐºÐ°Ð±
ĠÑĦÐ¸Ð½Ð°Ð½ÑģÐ¾Ð² Ð¾Ð¹
ĠÐ¾Ð±Ñĥ Ð²Ð¸
ĠÐ¼ÐµÐ´ Ð»ÐµÐ½Ð½Ð¾
ĠÑįÐ»ÐµÐºÑĤÑĢÐ¾ ÑįÐ½ÐµÑĢ
ĠÐ´Ð¾ÐºÑĥÐ¼ÐµÐ½ÑĤÐ° ÑĨÐ¸Ð¸
ĠÐ²Ð¾Ð´Ð¸ ÑĤÐµÐ»ÑĮ
ĠÐ²Ð¾ÑģÐ¿ Ð¾Ð¼Ð¸Ð½Ð°
ĠÐ¢ÑĥÑĢ ÑĨÐ¸Ð¸
ĠÐ»Ð¸ÑĨÐµÐ½ Ð·Ð¸Ð¸
ĠÐľÐ°ÐºÑģÐ¸ Ð¼Ð°
ĠÐ¿Ð¾Ð½ÐµÐ´ÐµÐ»ÑĮ Ð½Ð¸Ðº
ĠÑģÑĤÐµÐºÐ»Ð¾Ð¿ Ð¾Ð´ÑĬÐµÐ¼
. "
Ðµ ÑīÐ°
Ðº ÑĨÐ¸Ñİ
ĠÐ² Ð¾ÑĢÐ¾ÑĤ
Ñħ Ð¾Ð´Ñĥ
Ð¿ Ð¾ÑĢ
Ð± ÑĢÑı
Ð½Ð¾ Ñİ
ĠÑĥ Ð²Ð»Ð°Ð¶
ĠÐ½Ðµ Ð¾Ð´
ĠÐ·Ð° Ð´ÐµÑĢÐ¶Ð°
ĠÑĤ Ð²ÐµÑĢ
ĠÐ¾ÑĤ ÐºÑĥÐ´Ð°
ĠÐĴ Ðļ
ĠÐ¡ Ð½Ð°ÑĩÐ°Ð»Ð°
ĠÑĢÐ°Ð· Ð´Ð°
ĠÐĶ Ð¾Ð½
ĠÐĲ ÑģÑĤÑĢÐ°
ĠÐ¢ ÑĢÐ°
ĠÐ¸Ð½ Ð³
ĠÐĵ Ð¾ÑĤÐ¾Ð²
ÑĪÐ° Ð»Ð¸
ÐĶ Ð¾Ð½Ñĥ
Ð±Ðµ ÑĢÐ¸
ĠÐķ Ð¼Ñĥ
ĠÐ¤ Ð¾ÑĢÐ¼Ð°
ĠÐ·Ð½Ð° Ðº
ĠÑģÐ¾Ð² Ð¿Ð°
ÑģÐ¾Ð² Ñĭ
ĠÑĥÑģ Ð»Ð¾Ð²
ĠÐ½ÑĥÐ¶ Ð´Ð°
ĠÐĿÐµ ÑģÐ¼Ð¾ÑĤÑĢÑı
Ð½ÑĥÑĤ ÑģÑı
ĠÑħÐ¾ÑĢÐ¾ ÑĪÐ¸Ð¼
ĠÐŁÑĢÐ¾ Ð¸Ð·Ð²Ð¾Ð´ÑģÑĤÐ²Ð¾
ĠÑĤÑĢÐ° Ñħ
ĠÐ¾Ð±ÑıÐ·Ð° ÑĤÐµÐ»ÑĮÑģÑĤÐ²
ĠÑįÑĦÑĦ ÐµÐºÑĤÐ°
ĠÐ½Ð°ÑģÑĤÐ¾Ñı ÑīÐ¸Ñħ
ĠÐ¿Ð¾Ð»ÑĥÑĩ ÐµÐ½Ð¸Ð¸
ĠÐ³Ð°Ð· ÐµÑĤÐ°
ĠÑįÐ»ÐµÐºÑĤÑĢÐ¾Ð½ Ð½ÑĭÑħ
ĠÐºÐ¾Ð½ÐºÑĥÑĢ ÑģÐµ
ĠÑģÐ²Ð¾Ð± Ð¾Ð´Ñĥ
ĠÐ·Ð²Ñĥ ÑĩÐ°
ĠÐ¼ÐµÐ¶Ð´ÑĥÐ½Ð°ÑĢÐ¾Ð´ Ð½Ð¾Ð³Ð¾
ĠÐ¾Ð±ÑĢÐ°Ð·Ð¾Ð²Ð° ÑĤÐµÐ»ÑĮÐ½ÑĭÑħ
ĠÑģÐ¸Ð³ Ð½Ð°Ð»Ð¸
ĠÐ¿Ð¾ÑĢÑĤÐ° Ð»Ð°
ĠÐ¿ÑĢÐ¸Ð»Ð¾Ð¶ ÐµÐ½Ð¸Ðµ
ĠÐ½ÐµÐ¼Ðµ Ð´
ĠÐ¼ÐµÐ½ÐµÐ´Ð¶ ÐµÑĢ
ĠÑĦÐ°Ðº ÑĤÐ¸ÑĩÐµÑģÐºÐ¸
ĠÐ³Ð¸Ð¿ Ð¾ÑĤÐµ
ĠÑĢÐµÐ³Ð¸ÑģÑĤÑĢÐ° ÑĨÐ¸Ñİ
ĠÑįÐºÑģÐº Ð»ÑİÐ·Ð¸
ĠÐ¼Ð¾ÑĤÐ¸ Ð²Ð°
ĠÐĲÐ´Ð¼Ð¸Ð½Ð¸ÑģÑĤÑĢÐ° ÑĨÐ¸Ñı
ĠÐ±Ð¸Ð¾ÐºÐ° Ð¼Ð¸Ð½
! "
ÑĤ Ð½ÑĭÐ¼Ð¸
ĠÐ¿ Ð°Ð½
Ð¿ Ð»Ð¾
ĠÐ´ Ð²Ð¾ÑĢÐµ
ĠÐ¼ Ð¾ÑĤÐ¾
ÑĪ ÐµÑĢ
ĠÑĥ Ð¿Ð¾Ð»Ð½Ð¾Ð¼Ð¾Ñĩ
ÑĦ ÐµÑĤ
ÐµÐ¼ Ð¾Ð½
ĠÐ° ÐºÑĥ
ĠÐ» ÐµÐ½ÑĤÑĭ
ÑģÑĤÐ¸ Ð»Ð¸
ĠÐĴ Ð·
ĠÐ¿ÑĢÐ¾ ÑĩÐ¸ÑĤÐ°
ĠÐ¿ÑĢÐ¾ ÑĩÐ¸Ðµ
ĠÑĢÐµ ÑĩÐ¸
ĠÑģÑĤ Ñı
Ġ- ----------------
ĠÐł Ð°Ð¹
ĠÐł Ð¾Ð¼Ð°Ð½
ĠÑħ ÑĢÐ°Ð½
Ð¾Ð´Ð° Ñı
ÑĥÐ´ Ð¾Ð±
ÐĿ ÐĶ
Ð·Ñĭ Ð²Ñĭ
ÐĶ Ñĥ
ĠÐ²Ðµ Ð´ÑĥÑĤ
Ðķ Ðļ
ĠÐĿÐ° Ñģ
ĠÐ¶Ð¸ Ð²ÐµÑĤ
ĠÐ¶Ð¸ Ð²Ñĥ
an ce
ĠÑģÐ¾Ð·Ð´Ð° ÐµÑĤ
ĠÐ´ÐµÐ¹ ÑģÑĤÐ²Ð¾Ð²Ð°ÑĤÑĮ
âĢ¦ ]
ĠÑħÐ¾ÑĢÐ¾ ÑĪÐµÐ³Ð¾
ÑģÑĤÑĢÐ¾Ð¹ ÑģÑĤÐ²Ð¾
ÑģÑģÐ»ÐµÐ´ Ð¾Ð²Ð°
ĠÐĶÐ¸ Ð·Ð°Ð¹Ð½
ĠÑĤÐµÑħÐ½Ð¸ ÐºÑĥ
ĠÐŁÐ° ÑĢÐ¸
ĠÐ¾Ð³ÑĢÐ°Ð½Ð¸ ÑĩÐµÐ½Ð¸Ð¹
ĠÐ´ÐµÑĢ Ð¶Ð°ÑĤÑĮ
ĠÐ·Ð°Ð¿ ÑĩÐ°ÑģÑĤÐ¸
ĠÑĢÐ°Ð·ÑĢÐ°Ð±Ð¾ÑĤ ÐºÐµ
ĠÐºÐ°ÑĤÐ° ÑģÑĤÑĢÐ¾
ĠÐ½Ð°ÑĢÐ¾Ð´ Ð½Ð¾Ð³Ð¾
ĠÐ¿ÑĢÐµÐ´Ð½Ð°Ð·Ð½Ð° ÑĩÐµÐ½Ð°
ĠÐ¿Ð¾Ð¶ Ð°Ð»
ĠÐ´Ð¾Ð¼Ð°ÑĪ Ð½ÐµÐ³Ð¾
ĠÑĢÐµÐ³ÑĥÐ»Ð¸ ÑĢÐ¾Ð²Ð°Ð½Ð¸Ñı
ĠÑģÐ»Ð¾ Ñı
ĠÑĦÐ°Ð¹ Ð»Ñĭ
ĠÐ´ÐµÑģÑı ÑĤÐ¸
ĠÐ¾ÑĤÐ¿ÑĢÐ°Ð²Ð¸ ÑĤÑĮ
ĠÐ²Ð¸Ð· Ð¸ÑĤ
Ð»Ð¾ÑīÐ° Ð´ÑĮ
ĠÐ¾ÑĦ ÐµÑĢÑĤÐ¾Ð¹
ĠÑĪÐ°Ð¼ Ð¿Ñĥ
ĠÐ²ÑģÐ»ÐµÐ´ ÑģÑĤÐ²Ð¸Ðµ
I n
n o
u al
â Ħĸ
Ð¸ Ð¼ÐµÐ½
Ñģ Ð½Ð¾Ðµ
Ðº ÑģÐµ
ÑģÑĤ Ð½Ð°Ñı
ĠÑģ ÑĩÑĳÑĤ
Ð»Ð¸ Ð½Ð³
ĠÐ½Ð° Ð¶Ð°
ÐµÐ½Ð¸ Ð½Ð°
ĠÐ³ Ð¾ÑĢÐ°
Ð¾Ð½ Ð½ÑĭÐ¹
ĠÐ¾Ð± ÑīÐµÐµ
ĠÐŁ Ð¾Ð´Ñĥ
Ð¼Ð° Ð¼
Ðŀ Ð»Ðµ
ÐŁ ÑĢÐ°Ð²Ð¸
ĠÐĺ Ð»ÑĮ
ĠÐĵ Ð£
ĠÐ¾Ñģ ÑĨÐ¸
Ð²ÐµÑĢ Ð½Ð¾Ðµ
ĠÐķ Ð´Ð¸
ĠÐ¿ÑĢÐ¾Ð¸Ð· Ð¾ÑĪÐµÐ»
ĠÐ¿ÑĢÐ°Ð² Ð¾Ð¹
Ð¶ÐµÐ½ Ð½ÑĭÐ¹
ĠÑĤÑĢÑĥ Ð±Ñĭ
ĠN OW
Ġ[ âĢ¦]
ĠÐ¶Ð¸Ð² ÑĥÑĤ
ĠÑĥÐ¿ Ð¾Ð¼Ñı
ĠÐ²Ð°Ð¶ Ð½ÑĭÑħ
ĠÐ¾ÐºÐ°Ð·Ð° Ð»Ð¸ÑģÑĮ
ĠÑĤÐµÑħÐ½Ð¸ ÑĩÐµÑģÐºÐ¸Ðµ
ĠÐ¸Ð·Ð³Ð¾ÑĤÐ¾Ð² Ð»ÐµÐ½Ð¸Ðµ
ĠÐĶÐ¶ ÐµÐ¹
ĠÐ¿ÑĢÐ¸Ð¾Ð±ÑĢÐµ ÑĤÐ°
ĠÐ¿Ð»Ð¾ÑīÐ°Ð´ ÐºÐµ
Ð²Ð¸Ð³Ð° ÑĤÐµÐ»ÑĮ
ĠÐµÐ¶Ðµ Ð³Ð¾Ð´Ð½Ð¾
Ð±Ð°Ð½ ÐºÐ°
ĠÐ±ÑĢÐµÐ½ Ð´
ĠÑģÐ¾ÑĤÑĢÑĥÐ´Ð½Ð¸ ÑĩÐµÑģÑĤÐ²Ð°
eb ook
ĠÐ¿Ð¾Ð´Ð´ÐµÑĢÐ¶Ð¸ Ð²Ð°ÐµÑĤ
ĠÐ¼Ð¾Ð½ÑĤÐ° Ð¶Ð°
Ð¡Ð¸ ÑģÑĤÐµÐ¼
ĠÑĪÐºÐ° ÑĦ
ĠÑĤÑĢÐ°Ð´Ð¸ ÑĨÐ¸Ð¸
e y
l o
Ð¸ Ð»Ð¸ÑģÑĮ
Ðº ÐµÐ¹
Ð² ÑĪÐµÐµ
Ñħ Ð¾Ð¶Ð´ÐµÐ½Ð¸Ðµ
ÑĢÐµ ÐºÐ¾Ð¼ÐµÐ½
Ð³ Ð¾Ð»Ð¾Ð²
ĠÐ½Ð° ÑģÑĤÑĥÐ¿Ð¸
Ð»Ðµ Ð²Ð¾
ÑĢÑĥ ÑİÑīÐ¸Ñħ
ÑĩÐ¸ Ð»Ð°
Ð·Ð° Ð»
ĠÐ²Ñĭ ÑĪÐ»Ð°
Ð°Ð½ ÑĤÑĭ
ĠÑĤÐ° ÐºÐ¸
ĠÐŀ ÐĲÐŀ
Ð»Ð¾ ÑģÑĤÑĮ
ÐĴ ÑģÐµÐ¼
ÑĥÑĤ Ð±Ð¾Ð»
ĠÑı ÑģÐ½Ð¾
ĠÐ¼Ðµ Ñģ
ĠÐĵ Ð»Ð°
ĠÐĵ ÐµÐ½ÐµÑĢÐ°
Ðľ Ð°Ð½
Ð¾Ð½Ð° Ð¼Ð¸
ĠÐ¾Ñģ Ð»Ð¾Ð¶
ÐĶ ÐµÐ½ÑĮ
ĠÐ¸ÑģÐ¿ ÑĢÐ°Ð²
ÐµÐ´ Ð¶Ðµ
ĠÐ¿Ð»Ð° Ð²
on s
ĠÐºÐ¾ÑĢ ÐµÐ½Ð½ÑĭÑħ
ĠÐĴÑĭ ÑģÐ¾ÑĤÐ°
ĠÐ¿Ñĥ Ð·Ñĭ
ÐĿÐ° ÑĪ
ĠÐ²Ð¾Ñģ ÑģÑĤÐ°Ð½Ð°Ð²Ð»Ð¸
ÑĤÐ¾ÑĢÐ° Ð¼
ĠÐĺÐ½ ÑĦÐ¾ÑĢÐ¼Ð°ÑĨÐ¸Ñı
ĠÑĤÐµÑĢ Ð¼Ð¾
ĠÑĢÐ°ÑģÑģ Ð»Ð°Ð±
Ð²Ð°ÐµÐ¼ Ð¾Ð¹
ĠÐ¸Ð½ÑĤÐµÑĢÐµÑģ Ð½ÑĭÑħ
ĠÐ²Ð½Ð¸Ð¼Ð° Ð½Ð¸Ñİ
ĠÐ²Ð¾Ð´ Ñı
ĠÐ¿ÑĢÐ°ÐºÑĤÐ¸ ÐºÐ¸
ÐĿÐĺ Ð¯
ĠÐ§Ðµ Ð»Ð¾Ð²ÐµÐº
ĠÐ°Ð± Ð¾Ð½
ow n
ĠÐ¿ÑĢÐµÐ´Ð¿ÑĢÐ¸Ñı ÑĤÐ¸Ðµ
ĠÐŁÐ¾Ð» Ñĥ
ĠÐ§Ð° ÑģÑĤÐ¾
ĠÐķÐ²ÑĢÐ¾Ð¿ ÐµÐ¹
ĠÐ±Ð¾Ð»ÐµÐ· Ð½ÐµÐ¹
ĠÐ²Ð¾ÑģÑģÑĤÐ°Ð½Ð¾Ð² Ð»ÐµÐ½Ð¸Ðµ
ĠÐ¿ÑĢÐµÐ¿Ð°ÑĢÐ° ÑĤÐ¾Ð²
ĠÐ¿ÑıÑĤ Ð½Ð¸ÑĨÑĥ
ĠÑĦÐ°Ð¹ Ð»
ĠÐ¾Ð±ÑĬÑıÐ² Ð»ÐµÐ½Ð¸Ðµ
ĠÐºÐ°Ð·Ð° Ð»Ð¾ÑģÑĮ
ĠÐ²ÐµÑĢÐ¾ÑıÑĤ Ð½Ð¾ÑģÑĤÑĮ
ĠÐ·Ð°ÑĢÐ°Ð±Ð¾ÑĤ Ð½Ð¾Ð¹
ĠÑģÑħÐµÐ¼ Ñĭ
ĠÐ»Ð¾Ñħ Ð¾ÑĤ
ĠÑĤÐµÑĢÐ°Ð¿Ð¸ Ð¸
ĠÐĸÐµ Ð»ÐµÐ·
ĠÐŀÑĤÐµÑĩÐµ ÑģÑĤÐ²ÐµÐ½Ð½Ð¾Ð¹
M S
m l
t e
Ð¼ Ð¾Ðµ
ÑģÑĤ ÑĢÐ¸Ð¸
ÐµÐ½ ÑĤÐµ
ĠÐ½ ÑĳÐ¼
ĠÐ¾ ÑģÐ¸
Ð²Ð° Ð½ÑĮ
ĠÐºÐ° Ð¼ÐµÑĢÐ°
ĠÐ¡ Ðļ
ĠÐľ Ð¾Ð¸
Â» ).
ĠÑĢÐ°Ð· Ñĥ
ĠÐł ÐĺÐĲ
ĠÐĵ ÑĢÑĥÐ¿
Ð¢ Ð«
ĠÐ¿ÐµÑĢÐµ Ð¿
ĠÐ¿ÑĢÐµ Ð¾Ð±ÑĢÐ°Ð·
ĠÑĩÐ° Ñı
ĠÑģÑĥ Ð²ÐµÐ½Ð¸
ĠÐ²Ð¾ ÐµÐ½Ð½ÑĭÑħ
ĠÐ¿Ð»Ð° Ð½Ñĭ
ĠÐ¿Ð¾Ð² ÐµÐ´ÐµÐ½Ð¸Ðµ
ĠÐ¿Ð¾Ð· Ð´ÑĢÐ°Ð²
ĠÐ¼Ð¾ ÑĪÐµÐ½
ÑĪÐµÐ½ Ð½ÑĭÑħ
at or
ĠÑĢÐµÐ·ÑĥÐ»ÑĮÑĤÐ° ÑĤÐ°
ĠÐ²Ð»Ð° Ð³Ð¸
ĠÐ¾Ð±ÑıÐ·Ð° ÑĤÐµÐ»ÑĮÐ½Ð°
is s
Ð¾Ð·Ð° ÑīÐ¸
ĠÑģÐ¾Ð´ÐµÑĢÐ¶Ð° ÑĤÑĮ
ÐĺÐ½ ÑĦÐ¾ÑĢÐ¼Ð°ÑĨÐ¸Ñı
ĠÐºÑĢÑĥÐ¿ Ð½ÑĭÐµ
ĠO n
ĠÑģÐ½Ð¸ Ð¶ÐµÐ½Ð¸Ðµ
ĠÐ¿ÑĢÐ¸Ð½Ð¸Ð¼Ð° ÑİÑĤ
ĠÐ¿ÑĢÐ¾ÑĦÐµÑģÑģÐ¸Ð¾Ð½Ð°Ð»ÑĮ Ð½Ð¾Ð¹
ĠÐ¿Ð»Ð°ÑģÑĤÐ¸ ÐºÐ°
ÐºÐ»Ð°Ð´Ñĭ ÑĪÐ¸
ĠÐ½Ð°ÑĪÐ¸ Ð¼Ð¸
ĠÐŁÑĢ Ð¾Ð´Ñĥ
ĠÑĢÐ°ÑģÑĪÐ¸ ÑĢÑı
ĠÑĢÐ°ÑģÑģÐºÐ°Ð·Ð° ÑĤÑĮ
ĠÑĦÐ¾Ð½ Ð´
ĠÑĢÐ°Ð·ÑĢÐ°Ð±Ð¾ÑĤÐ° Ð½
ĠÐ²Ð¾Ð·Ð½Ð¸ÐºÐ° ÑİÑĤ
Ð¢Ð° ÐºÐ¸Ð¼
ĠÐ²Ð¿ÐµÑĩÐ°ÑĤ Ð»ÐµÐ½Ð¸Ñı
ĠÐ£Ð¿ÑĢÐ°Ð² Ð»ÐµÐ½Ð¸Ñı
ast er
ĠÐ¿ÑĢÐµÐ´ÑģÐµÐ´Ð° ÑĤÐµÐ»Ñı
ĠÑĦÐµÑģÑĤÐ¸Ð²Ð° Ð»Ñı
ĠÑģÑĩÐ°ÑģÑĤ Ð»Ð¸
ĠÐ·Ð°ÑĢ Ð¿Ð»Ð°
ĠÑĥÐ»Ñĭ Ð±
ĠÐ¸Ð½Ð³ ÑĢÐµÐ´Ð¸
Ñģ Ð¾Ð½Ð°
ÑĢ ÑĤÐ°
Ð» ÐµÑĤÐµ
ĠÐ¿ Ð¾Ð³Ð°
ĠÑģ Ð¾Ð´ÐµÐ¹
ĠÐ´ ÑĢÐ°Ð¹
ĠÐ¼ ÑĥÑĩ
ĠÐ¿Ð¾ ÑıÐ²Ð»ÐµÐ½Ð¸Ðµ
ĠÐ» ÐµÐ²Ð¾Ð¹
ĠÐĴ ÐµÐ½
ĠÐ¡ Ð±ÐµÑĢ
ĠÐŀ ÑĢÐµÐ½
ĠÐĶ ÐµÐ»Ð°
ĠÐł Ðŀ
ĠÐĲ Ñħ
ÐµÑĢÐµ Ð²
Ñĳ ÑĢÑĤ
Ð»Ð¾Ð² Ð¾Ð³Ð¾
ĠÐ´Ðµ Ð¿ÑĢÐµ
ĠÐºÐ¾Ð½ Ð´ÐµÐ½ÑģÐ°
Ð¶Ð° Ñħ
Ð½Ñĥ Ð½Ðµ
ÑĤÐ¸Ð² Ð½ÑĭÐ¼Ð¸
ĠÑģÑĥ Ð¼Ðµ
Ðĵ ÐŃ
ÑĥÐ± ÐµÑĢÐ½Ð°
ÐµÐºÑĤ Ñĭ
ĠÐ¦ Ðĳ
Ð³Ð¾ÑĤÐ¾Ð² ÐºÐ°
Ð¾ÑģÑĤ Ð¾Ð¹
ĠÑģÐ¾Ð¾Ð± ÑīÐµÐ½Ð¸Ð¹
ĠÐ´Ð¾Ð± ÑĢÐ¾
ÑĤÐ¾ÑĢÐ¸ Ñı
ĠÐ³ÑĢÐ° Ð½Ð¸ÑĨÑĭ
ĠÐ¾ÑĤÐ²ÐµÑĤ Ð°
ĠÑģÐºÐ°Ð·Ð° Ð»Ð¸
ĠÐłÐ°Ð· Ð½Ð¾Ðµ
ĠÐ¾Ð±ÑīÐµ Ð¾Ð±ÑĢÐ°Ð·Ð¾Ð²Ð°
ĠÐ½Ð°ÑģÑĤÐ¾Ñı ÑīÐ¸Ð¼
ac e
ĠÐ¤ÐµÐ´Ðµ ÑĢÐ°Ð»ÑĮÐ½Ð¾Ð¹
ĠÑĢÐµÐºÐ»Ð° Ð¼Ñĥ
un t
ĠÐ¿ÑĢÐ¾Ð¿ Ð¾ÑĢ
ĠÐ·Ð°ÐºÐ°Ð· Ð¾Ð²
ĠÑģÐ¸ÑģÑĤÐµÐ¼Ð° Ñħ
ĠÐ½Ð°Ð¿Ð¸ÑģÐ° Ð½Ð¾
ĠÐ¿Ð»Ð¾ÑīÐ°Ð´ ÑĮÑİ
ĠÑģÑĤÐµÐ¿ ÐµÐ½ÑĮ
ĠÐ¿ÑĢÐµÐ²Ñĭ ÑĪÐ°ÐµÑĤ
ĠÐ¿Ð¾Ð»Ð½Ð¾Ð¼ Ð¾ÑĩÐ¸
ĠÐ°Ð³ÑĢÐµ ÑģÑģÐ¸Ð²
ĠÑĢÐµÐ° Ð³Ð¸
ĠÐ¼ÑĭÑģ Ð»ÑĮ
ÑĥÑģÐ»Ð¾Ð² Ð½Ð¾
ĠÐ°Ð»ÑİÐ¼Ð¸ Ð½Ð¸Ðµ
ĠÑģÐ²ÐµÐ´ ÐµÐ½Ð¸Ð¹
v e
ã ģ
Ð¾ Ð¾ÑĤ
ÑĤ Ð¾Ð²Ð°Ñı
ĠÐ¿ ÑģÐ¾ÑĢÐ¸
ÑĢÐµ ÑģÑĤÐ¸
ĠÐ½Ðµ Ð¿Ð¾Ð»
ĠÐ½Ðµ ÑģÐ¾Ð²ÐµÑĢÑĪÐµÐ½
ĠÐ·Ð° ÑĢÑı
ĠÑį Ð¼
ĠÐºÐ° ÑģÑģ
ĠÐ¸Ð· Ð½Ð°ÑĩÐ°
ĠÐĲ ÐºÐ°Ð´ÐµÐ¼Ð¸
ÐŁ Ð¾Ð¼
Ð»ÐµÐ½ Ð½ÑĭÐ¼Ð¸
ĠÐ´Ð° Ð»Ð¸
er y
ĠÐ½Ð¾Ð² ÐµÐ¹
ĠÐ½Ð¾Ð² ÑĭÐ¼Ð¸
ĠÐ½Ð¾Ð² Ð¸Ñĩ
in k
Ð²Ñĥ Ñħ
ĠÐ¸Ð¼ Ð¿ÑĥÐ»ÑĮ
ĠÑħÐ¾ÑĢÐ¾ ÑĪÐ°Ñı
ĠÐ¾Ð¿ÑĢÐµÐ´Ðµ Ð»ÐµÐ½Ð½ÑĭÐµ
Î¿ Ð²
ĠÐ¿Ð¾ÑģÐ»ÐµÐ´ ÑģÑĤÐ²Ð¸Ñı
ÑģÑĤÑĭ Ð¼Ð¸
Ð¾ÑĤÐµ ÑĢÐ°Ð¿Ð¸
ĠÐ¡Ð¾ Ð¾ÑĤÐ²ÐµÑĤ
ĠÐłÐ° Ð±Ð¾
il d
ĠÑģÐ¿ÐµÑĨÐ¸Ð°Ð»ÑĮ Ð½ÑĭÐ¹
ĠÑĥÐºÐ°Ð·Ð° Ð½Ð¸ÐµÐ¼
ĠÐ¸ÑģÑģÐ»ÐµÐ´ Ð¾Ð²Ð°Ð½Ð¸Ðµ
ĠÐºÑĢÑĥÐ¿ Ð½ÐµÐ¹ÑĪÐ¸Ñħ
ĠÐ¾Ð¿Ð»Ð° ÑĤÑĥ
ĠÐ´Ð¾Ð±Ð° Ð²Ð¸
ĠÑĢÐ°Ð¹Ð¾Ð½Ð° Ñħ
ĠÐ³Ð»Ð°Ð·Ð° Ñħ
Ð¢Ðµ Ñħ
ĠÑĥÐ½Ð¸ÐºÐ° Ð»ÑĮÐ½ÑĭÐ¹
ĠÐºÐ¾Ð½ÑģÑĥÐ»ÑĮ ÑĤÐ°ÑĨÐ¸Ð¸
ĠÐ¿Ð¾Ð½ÑĢÐ°Ð²Ð¸ Ð»Ð¾ÑģÑĮ
ĠÐ°ÑĢÐµÐ½ Ð´Ñĥ
ĠÐ°ÑĢÐµÐ½ Ð´Ñĭ
ĠÑģÐµÐ»ÑĮ ÑģÐºÐ¾ÑħÐ¾Ð·ÑıÐ¹
ĠÑģÑĤÑĢÐ°ÑĤÐµ Ð³Ð¸
ĠÐ¾ÑĤÑģ Ð»Ðµ
Ð±Ð¾Ðº ÑģÐ°
ĠÑģÑĤÑĢÐ°Ð½Ð¸ÑĨÐ° Ñħ
ĠÐŁÑĢÐ¾Ð´ Ð¾Ð»
ĠÑģÐºÐ»Ð° Ð´Ðµ
ĠÐ¶ÐµÐ»ÑĥÐ´ ÐºÐ°
ĠÐ´Ð¾Ð¿ÑĥÑģÐºÐ° ÐµÑĤÑģÑı
ĠÐ²ÐµÐ»Ð¾ÑģÐ¸Ð¿ ÐµÐ´
9 1
C O
ÑĤ ÑĢÑĥ
ÑĤ ÑĢÐ¸Ñı
Ñĩ Ð½Ð¸Ðº
ÑĢÐ° ÑīÐ¸
ĠÐ½Ð° Ð¿Ð°
ÑģÐº Ð¾Ð¿Ð¸
ĠÐ³ ÑĢÐµÐ±
ĠÐ·Ð° ÑģÐ»ÑĥÐ¶Ð¸
ĠÐ¾Ð± ÑīÐ°Ñı
ĠÐĴ Ð¾Ð´
Ð¾Ð¿ Ñĥ
ĠÐ¿ÑĢ Ð¾Ð±Ð¸
ÐŁ ÑĢÐ°Ð²
Ð±Ð¾ Ð¸
ĠÐ½Ð¾ ÑĤÐ°ÑĢÐ¸
ÑħÐ¾Ð´Ð¸ Ð»Ð¸
ĠÑĪ Ð¾ÑģÑģÐµ
Ðĳ ÑĥÐ´
ÐµÐ² ÑģÐºÐ°Ñı
ĠÐ¿Ð»Ð° Ð½Ð°
ĠÐ¶Ð¸ Ð»ÑĭÑħ
ĠÐ¥ Ð°ÑĢ
ĠÐ¿Ð¾Ð¿ ÑĢÐ°Ð²
ÑĢÐ¾Ð²Ð°Ð½ Ð½ÑĭÐ¼
ÐĿÐ° ÑĪÐ°
ĠÐ¦ Ðµ
ĠÐĴÐ° ÑĪÐµÐ¹
ĠÐ³Ð¾Ð» Ð¾Ð²Ð°
ĠÑĢÐµÐ·ÑĥÐ»ÑĮÑĤÐ° ÑĤÐ°Ñħ
ĠÐ½Ð°Ð¿ÑĢÐ°Ð² Ð»ÐµÐ½Ð¸Ð¹
ĠÐ½ÐµÐ¿ Ð¾Ð²
is m
ĠÑĦÐ¸Ð»ÑĮ Ð¼Ðµ
ĠÐ¾Ð±Ñĭ ÑĩÐ½ÑĭÐ¹
ĠÐ°ÐºÑĤÐ¸Ð² Ð½Ð¾ÑģÑĤÑĮ
ĠÑģÐ¾Ð²ÑĢÐµÐ¼ÐµÐ½ Ð½ÑĭÐ¹
ĠÐ²ÑĢÐ° ÑĩÐ¸
ÐŀÐŀ Ðŀ
ĠÐ¿Ð¾Ð´Ð´ÐµÑĢÐ¶ ÐºÐ°
ĠÐ²ÑĭÑħÐ¾Ð´ Ð½ÑĭÐµ
ĠÑĦÐ°Ð¹ Ð»Ð¾Ð²
ĠÑĢÐµÐ´Ð° ÐºÑĨÐ¸Ð¸
ĠÑĩÐµÑĤÐ²ÐµÑĢ Ð³
ĠÐ½ÐµÑĢ Ð¶Ð°Ð²Ðµ
ĠÑĦÐµÐ´Ðµ ÑĢÐ°Ð»ÑĮÐ½Ð¾Ð³Ð¾
ÐŀÑģ Ð¾Ð±
ĠÐ°ÐºÑĤÑĥ Ð°Ð»ÑĮ
ct ion
ĠÐºÐ¾Ð¼Ð¿Ð¾Ð½ ÐµÐ½ÑĤÑĭ
ĠÐ¿ÑĢÐ¾ÐµÐº ÑĤÐµ
Ð¾Ð»Ñİ Ð±Ð¸
ĠÐ¿Ð»Ð°ÑĤ ÑĦÐ¾ÑĢ
ĠÐ°Ð·Ð°ÑĢÑĤ Ð½ÑĭÐµ
ĠÑĥÐ½Ð¸ÑĩÑĤ Ð¾Ð¶
Ð¾Ð±Ð»Ð° Ð´Ð°
ĠÑģÐµÑĢÐµÐ´Ð¸ Ð½Ðµ
ÑĢ ÐºÐ°
ĠÑģ Ð±
Ð¾Ð² ÐµÑĤ
ÑĢÑĥ Ñı
ĠÑĤ ÑĢÐµÐ²
ĠÐ» Ð°Ð·
ĠÐ¿ÑĢÐ¾ ÑħÐ¾Ð´Ð¸ÑĤÑĮ
ĠÐľ Ð½Ð¾Ð³Ð¾
ĠÐĿ Ð¾ÑĢ
ĠÐ¼Ð° ÑĢÐ¸
Ð¡ Ð°Ð½
ĠÐĶ Ð¾ÑĢ
ĠÐĶ ÐµÑĤÐ¸
ÐµÑĢÐµ Ð´Ð¸
ÐĴ Ð«
ĠÐ¢ ÑĥÐ»ÑĮ
ÑĢÐ¾Ð² Ð¾ÑĩÐ½ÑĭÐµ
ÐĲ Ð»
ĠÐ²ÑģÐµ Ð²Ð¾Ð·Ð¼Ð¾Ð¶
Ðł Ð¾ÑģÑģÐ¸Ð¹
ÑĪÐ° ÑĤ
ÐĶ Ð¾Ð¼
ĠÐ²Ð¸ Ð¶Ñĥ
Ð¼Ð¾ ÑĢÐ°
ĠÑĢÑĥ ÐºÐµ
ĠÐŃ ÐºÐ¾Ð½Ð¾Ð¼Ð¸
ĠÐ³Ð¾ÑĢ Ð¾Ð´Ñĥ
Ð¿ÑĢÐ°Ð² Ð»Ñı
ĠÑĦÐ¸ ÐºÑģÐ°
ĠS amsung
ÑģÑĤÑĢ Ñİ
ĠÐ¾ÑĢÐ³Ð° Ð½Ð°Ð¼Ð¸
ĠÑģÐ»ÑĥÑĩÐ° Ð¸
ÑĢÐ¾Ð¿ ÐµÑĤÑĢÐ¾Ð²
ĠB r
ĠÐ°ÑĢ ÑĤÐµÑĢÐ¸
ĠÑĤÐµÑĢ ÑĢ
ĠÐ¾ÑģÑĤÐ° Ð»ÑģÑı
ĠÐ¸ÑģÐº ÑĢÐµÐ½
ĠÐ¾ÑĤÐ´Ðµ Ð»ÐµÐ½Ð¸Ðµ
ĠÑģÐ¿Ð¸ ÑģÐºÐµ
ÑģÑĤÐ¾Ñĩ Ð½Ð¸Ðº
ĠÑĥÐºÐ°Ð·Ð° ÑĤÑĮ
ĠÐ¾Ð±Ñĭ ÑĩÐ½ÑĭÑħ
ac ebook
ÑģÐ¾Ðº Ð°ÑĢ
ĠÑĤÐµÑħÐ½Ð¸ ÑĩÐµÑģÐºÐ¾Ð³Ð¾
ĠÐ°Ð²ÑĤ Ð¾Ð±ÑĥÑģ
ĠÐ´ÑĥÐ¼Ð° ÑĤÑĮ
ĠÐ³Ð°ÑĢÐ°Ð½ ÑĤÐ¸ÑĢÑĥ
ĠÐ¶Ð¸Ð²Ð¾ÑĤ Ð½Ð¾Ð³Ð¾
ĠÐ¿Ð¾Ñħ ÑĥÐ´
ĠÑģÐ¾Ð±Ñĭ ÑĤÐ¸Ðµ
ĠÐ¼Ð°Ð»ÐµÐ½ÑĮ ÐºÐ¸Ð¹
ĠÑģÐ°Ð¼Ð¸ Ð¼
Ð¼Ð°Ð³Ð°Ð·Ð¸ Ð½Ð°
ĠÑĥÐ»ÑĥÑĩ ÑĪÐµÐ½Ð¸Ñı
ĠÐ¼Ð¸ÑĢÐ¾Ð² ÑĭÑħ
ĠÐ¡ÑĤÑĢÐ° Ð½Ð°
ĠÐºÐ¸Ñģ Ð»Ð¾ÑĤ
Ð²ÑĪÐµÐ³Ð¾ ÑģÑı
ĠÐ²ÑĭÐ³Ð»Ñı Ð´ÐµÑĤÑĮ
ĠÐºÐ¾Ð¼Ð¿Ð¾Ð½ ÐµÐ½ÑĤÐ¾Ð²
ĠÐ·Ð°ÐºÐ°Ð½ ÑĩÐ¸
ĠÐ½Ð¾Ð²Ð¾ÑģÑĤ ÐµÐ¹
ĠÐ¿ÑĢÐ¾ÑĦÐµÑģÑģ Ð¾ÑĢ
( (
b y
Ð¾ ÑģÑĤÐ°
Ð¾ Ð°Ð½
ÑĤ ÑĥÑİ
ÑĢ ÐºÐ¸
ĠÐ¿ ÑĥÑĤ
ÑģÑĤ Ð½Ð¾Ðµ
ÑĢÐµ Ð¿Ð¸ÑĤÑĮ
Ð½Ð° Ð³ÑĢÐ°
ĠÐ± ÑĥÐ»ÑĮ
ÐµÐ¼ Ð¾Ðµ
ĠÐ° ÑĤÐ¾Ð¼
ÑģÑĤÐ¸ ÑĩÐµÑģÐºÐ¸Ðµ
Ð¼Ð° Ð¹
ĠÐ²Ñĭ Ð±ÐµÑĢÐ¸ÑĤÐµ
ĠÑĦ ÐµÐ½
ĠÑģÑĤ Ð¾Ð¿
ĠÐ¼Ð° ÑģÑģÐ¸
ĠÐł Ð°Ð¼
ĠÂ °
ĠÑģÐ¾ ÑģÑĤÐ°Ð²Ð»ÐµÐ½
ÐŁ Ð¾Ð¿
ĠÐĺ Ð´Ðµ
Ñĳ Ð²
ĠÐ´Ðµ Ð²Ð¸
Ð±Ð¸ Ð¹
ĠÐ¿ÐµÑĢÐµ ÑħÐ¾Ð´Ð°
ĠÐ¤ Ðµ
ÐµÐ² ÐºÐ°
ÐĹ Ð°Ðº
Ð´ÐµÑĢ Ñĭ
ĠÐºÐ°ÑĩÐµ ÑģÑĤÐ²ÐµÐ½Ð½ÑĭÐµ
ÑĢÐµÑģ ÑģÐ°
ĠM in
ĠÐ±Ð° ÑĩÐ¾Ðº
ÑĪÑĮ ÑģÑı
ĠÑģÐ¾Ð·Ð´Ð° Ð½Ð°
ĠÐŀÐ± ÑĬÐµÐ¼
ĠÐ¾Ð¿ÑĢÐµÐ´Ðµ Ð»ÐµÐ½Ð¸Ðµ
ĠD e
ĠG roup
ĠF or
ĠÑģÐ¾Ð³Ð»Ð° ÑĪÐµÐ½Ð¸Ðµ
Ð°Ð½Ð´ ÑĪÐ°
ÑģÑĤÐ°Ð½ Ð´Ð°ÑĢ
ĠÐ¡Ð¾Ð² ÑĢÐµÐ¼ÐµÐ½
ĠÐ½Ð¸Ð· ÐºÐ¾Ð²Ð¾Ð»ÑĮ
ĠÑĩÐµÑĤ ÐºÐ¾
ĠÐ¿Ð¾Ð»ÐµÐ· Ð½ÑĭÑħ
ĠÐ¿ÑĭÑĤÐ° ÐµÑĤÑģÑı
ĠÐ¾ÑĤÐº ÑĢÐ¾
ĠÐ¾ÑĤÐº Ð»Ð¾Ð½
ĠÐºÐ¾Ð½ÑģÑĥÐ»ÑĮ ÑĤÐ°Ð½
ĠÑģÐ¼ÑĭÑģ Ð»Ð°
ĠÐ²Ð¿ÐµÑĩÐ°ÑĤ Ð»ÐµÐ½Ð¸Ðµ
ĠÐ²ÑĭÐ¿Ð»Ð° ÑĤÑĭ
ĠÑįÐ¼Ð¾ ÑĨÐ¸Ð¾Ð½Ð°Ð»ÑĮ
ĠÐºÐ¾Ð½ÑĨ ÐµÑĢÑĤ
ĠÐ¿ÑĢÐ¸Ð½Ð°Ð´Ð»Ðµ Ð¶Ð¸ÑĤ
Ð¿Ð°ÑĢÑĤÐ° Ð¼ÐµÐ½ÑĤÐ°
ĠÐ¿Ð¾Ð»Ð¾ÑĤ ÐµÐ½
ĠÐ¿Ð¾ÑĤÑĢÑı ÑģÐ°
ĠÑĤÐ¾Ð»ÑīÐ¸ Ð½Ð¾Ð¹
âĨ ĳ
Ñĥ Ð´Ð°
ĠÐ² Ð·Ñĭ
Ð¾Ð² ÑĥÑİ
ÐµÐ½Ð¸ Ñģ
ĠÑĥ ÐºÐ»Ð°Ð´
Ð´Ð° Ð»ÑĮ
ÑģÑĤÐ° Ð¸
ĠÐ» ÐµÐ¹
ĠÐĴ ÐĲ
ĠÐĴ Ð¸ÑĤÐ°
ĠÐ¿ÑĢÐ¸ Ð±Ð°
ĠÐ²Ñĭ Ð´ÐµÑĢ
Ð¾Ð¿ Ð°ÑĤ
ĠÑĦ Ð»Ð°
ĠÐľ Ð°Ð»
ĠÐĿ ÑĥÐ¶Ð½Ð¾
ĠÑģÐ² ÐµÑĤÐµ
ĠÑģÐ¾ ÑģÑĤÐ°Ð²Ð¸ÑĤÑĮ
ÐĴ ÐµÑĢ
ĠÐ¢ Ð²ÐµÑĢ
ĠÐ¢ ÑĢÐ°Ð¼
Ð»ÐµÐ½ Ð½Ð¾ÑģÑĤÑĮ
ĠÑģÑĤÐ° ÑĢÑĭÐµ
ÑĢÐ¾Ð²Ð° Ð»Ð°
ÐµÐ½ÑĮ ÐºÐ¾
ĠÐĵ Ð¸Ð´
Ðľ ÐŁ
ÐĶ Ð¾Ð»
ĠÑĪ ÑĥÑĤ
ĠÐ´Ð¸ ÑĦÑĦ
ĠÐ¸Ð¼Ðµ ÑİÑīÐ¸Ñħ
ÑĩÐµÐ½ Ð½Ð¾Ð¹
ĠÐºÐ¾Ð» Ð¾Ð´
ÑĤÑĢ Ð¾Ð»ÑĮ
ĠÑĥÑĢÐ¾Ð² Ð½ÐµÐ¼
Ð¾Ð²Ð°Ð½ Ð½Ð¾Ðµ
ĠÑĥÐ´Ð° Ð»Ð¸ÑĤÑĮ
ĠÐĲÑĢ Ð¼
ĠÐ¾ÑĦÐ¸ ÑģÐ°
ĠÐ½Ð°ÑģÑĤÐ¾Ñı ÑīÐµÐ¹
ĠÐĲÐ½ Ð½Ð°
ÑĦÐ¸ÐºÐ° ÑĨÐ¸Ñı
ĠÑĢÐµÐ±ÐµÐ½ ÐºÐ¾Ð¼
ĠÑģÐ²ÑıÐ·Ð° Ð½Ñĭ
ĠÐĶÐµ Ð»Ð¾
ĠÐ¾ÑĦÐ¸ÑĨÐ¸Ð°Ð»ÑĮ Ð½Ð¾Ð¼
ĠÑĥÐ»Ð¸ ÑĨÑĭ
ĠÐºÑĢÐ°Ð¹ Ð½ÐµÐ¹
ĠÐ·Ð²Ñĥ Ðº
ĠÐ½Ð°Ð¹ Ð´ÐµÐ½
ĠÐ¼Ð°ÑĤ Ñĩ
ĠÐ°ÑģÑģ Ð¾ÑĨÐ¸Ð°
ĠÐ°ÑĥÐ´Ð¸ Ð¾
ĠÐ¿Ð°ÑĢÐ°Ð¼ÐµÑĤ ÑĢÐ¾Ð²
ĠÑģÐ¾Ð¾ÑĤÐ²ÐµÑĤÑģÑĤÐ²ÑĥÑİ ÑīÐµÐ³Ð¾
ĠÐ¿ÑĢÐµÐ´Ð¿Ð¾Ð»Ð°Ð³Ð° ÐµÑĤ
ĠÐļÐ»Ð° ÑģÑģÐ¸
ĠÐ½ÐµÐ·Ð½Ð° ÑĩÐ¸
ĠÑħÐ¸ÑĢÑĥÑĢ Ð³Ð¸
ĠÐ¦ÐµÑĢ ÐºÐ²Ð¸
ĠÐĴÐ¼Ðµ ÑģÑĤÐµ
ĠÐºÐ¾Ð½ÑĦÐ¸Ð´ÐµÐ½ÑĨÐ¸Ð°Ð»ÑĮ Ð½Ð¾ÑģÑĤÐ¸
ĠÑģÑĥÐ±Ð±Ð¾ÑĤ Ñĥ
ĠÐºÐ°Ð»Ð¾ÑĢÐ¸ Ð¹
? !
T I
ÑĢÐ° ÑģÐ¿
ĠÐ½Ð° ÑĩÐ¸Ñģ
Ð½Ð° Ð²Ð»Ð¸
ĠÑĥ Ð´ÐµÑĢÐ¶Ð¸
ĠÑĥ Ð³Ð¾Ð´Ð½Ð¾
Ñį Ð»ÑĮ
ĠÑį Ð»Ðµ
ĠÐ¾Ð± Ð¼Ð°
Ð²Ð¸ Ð¸
ĠÐ²Ñĭ ÑĤÑı
ÑĤÐµÐ»ÑĮ Ð½Ð¾Ð¼Ñĥ
ĠÑĢÐµ Ðµ
ĠÐĿ Ðŀ
ĠÑħ Ð¸ÑĤ
ĠÐ»Ð¸ ÑģÑĤÐ°
Ðĺ ÑĤÐ°Ðº
ĠÑģÑĤÐ° ÑĨÐ¸Ð¾Ð½Ð°
Ð¸Ð½ ÑģÐºÐ¸Ð¹
ÑĢÐ°Ð½ Ð´Ð°
ÐĶ Ð¾Ð¿
ĠÐĽ ÐµÐ½
Ð¾Ñĩ Ð½Ð¸Ðº
Ð±Ð° ÑĢÐ¸ÑĤ
ĠÐ¿Ðµ ÑĩÐ°ÑĤ
ĠÐ¿Ðµ ÑĩÐµÐ½Ð¸
ÐµÐ² ÑĢÐ°Ð»ÑĮ
ÑĤÐµÐ»Ñı Ñħ
Ð¾ÑĤÐ¸ Ð¼
Ð¤ Ðŀ
ĠÐ¿Ð¾Ð¿ ÐµÑĢÐµ
15 00
ĠA m
ĠÐ»ÐµÑĤ Ð¾
ĠÐ¨ Ðµ
ĠÑĢÐ°Ð±Ð¾ÑĤÐ° Ð»
ĠÐ¾ÑģÐ½Ð¾Ð² Ñĥ
Ð¥ Ðŀ
Ð¾ÑĤÐµ Ð»
ĠÐ²ÑĭÑģÐ¾Ðº Ð¾Ð¼
ĠÑİ Ð³Ð¾
ĠÐ³Ð¾ÑģÑĥÐ´Ð°ÑĢ ÑģÑĤÐ²Ð¾
Ð½Ð¾Ð»Ð¾Ð³Ð¸ Ð¸
Ġt h
ĠÑģÐ½Ð¸ Ð¶ÐµÐ½Ð¸Ñı
ĠÐ·Ð°Ð±Ð¾Ð»Ðµ Ð²Ð°Ð½Ð¸Ðµ
ĠU SB
Ġd e
ĠÐ¿ÑĥÐ½ ÐºÑĤÐ°
ĠÐļÑĢÑĭ Ð¼Ð°
ĠÐŁÑĢ Ð¾Ð³ÑĢÐ°Ð¼Ð¼Ð°
ĠÐ¼Ð¾Ð±Ð¸ Ð»ÑĮÐ½Ð¾Ð³Ð¾
ÐĿÐ¾Ð² ÑĭÐ¹
ÐĿÐ¾Ð² Ð¾ÑģÑĤÐ¸
ĠÐ²ÑģÐ¿ Ð¾Ð¼Ð¸Ð½Ð°
ĠÑģÑĤÐ¾Ð»Ð¸ ÑĨÑĭ
ĠÐ¼Ð³ Ð½Ð¾Ð²
ĠÐ´Ð¾ÑħÐ¾Ð´ Ð¾Ð²
ĠÐ³Ð¾Ñģ Ð¿Ð¸ÑĤÐ°
ĠÐ±Ð»Ð¸Ð¶Ð°Ð¹ ÑĪÐµÐµ
ĠÐľÐµÑĤ Ð°Ð»
ÑĤÐ¸ÐºÑĥ Ð»
ĠÐ´ÑĢÐµÐ²Ðµ ÑģÐ¸Ð½Ñĭ
ĠÐ²ÑģÐº Ð¾ÑĢÐµ
ĠÑģÐ¾Ð²Ð¼Ðµ ÑģÑĤÐ¸
Ġ }
Ð´ Ð½Ð¾Ð¹
ĠÑģ Ð¼Ñĭ
Ð· ÐµÐ½
ÑĪ ÐºÐ¾Ð²
ÑĪ ÐºÐ¾Ð»ÑĮ
ĠÐ½Ð° Ð²ÑģÐµÐ³Ð´Ð°
ÑĢÑĥ ÑİÑīÐ¸Ðµ
ĠÐ·Ð° Ð»Ð¾Ð³
ĠÐ» ÐµÐ½ÑĤÐ°
ĠÐ¾Ð± ÑīÐµÐ½Ð¸Ðµ
ĠÐŁ ÐĴ
ÑĩÐ° ÑİÑĤÑģÑı
ĠÐ²Ñĭ Ð¶Ð¸
ĠÐ²Ñĭ ÑĪÐ¸Ð²
ĠÑĢÐµ ÑĪÐµÑĤ
ĠÑĢÐµ ÑĪÐµÐ½Ð¸Ñİ
ĠÑĦ ÑĢÐ¸
ĠÑĢÐ°Ð· Ð²Ð»ÐµÐºÐ°
ĠÐĲ ÑĢÐ°Ð²Ð¸
ĠÐĺ Ðļ
ĠÑı Ðº
ĠÐĳ Ð¾Ð³Ñĥ
Ð»Ñİ Ñģ
Ð¢ ÐµÐ¼
ĠÑĤÐ¾ ÑĩÐºÑĥ
ĠÐ²Ð¸ Ð´Ð¸ÑĤ
ĠÐ¿ÐµÑĢÐµ Ð³Ð¾ÑĢÐ¾Ð´
Ð¾Ñĩ Ð½ÑĭÐ¼
ĠÑģÐ°Ð¼ ÑĭÐ¼Ð¸
ĠÑģÐ»Ñĥ Ð¶Ð¸
Ðĵ Ð°
ĠÐ¿ÑĢÐ¾Ð² ÐµÐ»
ĠÐºÑĢÐ° Ñİ
ĠÐºÑĢÐ° ÑģÐºÐ¸
Ð¤ ÑĢÐ°Ð½
ĠA s
en s
ĠÐ¸Ð½ÑĤÐµÑĢ Ð½ÐµÑĤÐ°
Ð¨ Ð¸
ĠÐ°ÑĢ Ð³Ñĥ
ro l
ĠÐ¾ÑģÑĤÐ° Ð½Ð°Ð²Ð»Ð¸
ĠÑĦÐ° ÑģÐ°
ĠÐ±Ð¸ Ð»ÐµÑĤÑĭ
ĠÐ·Ð°ÐºÐ¾Ð½ Ð¾Ð¿ÑĢÐ¾
ĠÐĺÑģÐ¿ Ð¾Ð»ÑĮÐ·Ð¾Ð²Ð°Ð½Ð¸Ðµ
ĠÐ¿ÑĢÐ°ÐºÑĤÐ¸ ÐºÐ°
ĠÐ´Ð¾Ð² ÐµÑĢÐ¸
ĠÑĩÐ°ÑģÑĤ Ð¾ÑĤÑĭ
ĠÐºÑĢÐ¾Ð² ÑĮ
ĠÐ¸ÑĤ Ð¾Ð³Ð¸
ĠÑģÐ¼Ð¾ÑĤ ÑĢÐ¸
ĠÑģÐ»Ð° Ð±Ð¾
ÐŁÐ¾Ñģ Ð»ÐµÐ´
ĠÐ½Ð°ÑĥÑĩ Ð½ÑĭÑħ
ĠÑĦÐ¾ÑĤÐ¾Ð³ÑĢÐ°ÑĦÐ¸ Ð¹
ĠÑĢÑĭÐ± Ð°Ð»
ĠÐ²ÑĭÐ· Ð²Ð°ÑĤÑĮ
ĠÑģÐ¾ÑģÑĤÐ°Ð²Ð¸ Ð»
ĠÐ·Ð°ÑģÐµÐ´Ð° Ð½Ð¸Ñı
ĠÑģÐ¾Ð¾ÑĤÐ²ÐµÑĤÑģÑĤÐ²ÑĥÑİÑīÐ¸ Ðµ
ÑģÑĤÐ²Ð¾Ð²Ð° Ð»Ð°
ĠÐ¿ÑĢÐ¾ÑĨ ÐµÐ½ÑĤÐ°
ĠÐ°ÑįÑĢÐ¾Ð¿ Ð¾ÑĢÑĤÐ°
ĠÐĲÐ²ÑĤÐ¾Ð¼ Ð¾Ð±Ð¸
ĠÐĶÐ¾ÐºÑĥ Ð¼ÐµÐ½ÑĤÑĭ
ĠÐ²ÐµÑī ÑĮ
ĠÐĲÐ¿ÑĢÐµ Ð»ÑĮ
F i
Ġ ;
ÑĢ Ð½Ð°Ñı
Ðº Ð¾Ñģ
ÑģÑĤ ÐµÐ½
ĠÐ¾ ÑĢÐµ
ĠÐº ÐµÑĢÐ°Ð¼Ð¸
Ð³ ÑĢÑĥÐ¿
Ð¾ÑĢ Ð¾Ð»Ð¸
ĠÐ½Ð° Ð½Ð¾
ĠÐ± Ð»ÑİÐ´
ÐºÐ° ÑĤÑĮ
ĠÐ½Ðµ Ð¾ÑĤ
ĠÐ½Ðµ ÑĢÐµÐ´ÐºÐ¾
ĠÐ¿ÑĢÐ¸ Ð´ÐµÑĢÐ¶Ð¸
ĠÐ¡ ÐĲ
ĠÐ²Ñĭ ÐµÐ·Ð´
Ð¡ Ðº
ĠÐ¢ ÑĢÐ¾Ð¸
Ð½Ñı Ñħ
Ð´Ñĥ Ð¼
ÑĨÐµ ÑģÑģ
ĠÑģÐ¸ Ð»Ð¾Ð¹
ÑĦÐ¸ Ðº
ĠÑģÑĥ Ñī
ĠÐ¾Ð´ Ð¾Ð±
ÑģÑĤÐ¾Ñı Ð½Ð¸Ðµ
ÐºÐ¾Ð½ ÑĩÐ°
ĠÐ¶Ð¸ Ð»ÑĮÐµ
ĠÐĴÑĭ Ð¿Ð¾Ð»
ĠÐ½ÐµÐ¾Ð±ÑħÐ¾Ð´Ð¸ Ð¼Ð°
ĠÑĤÐµÐ¼ Ð½Ð¾
ĠÐ¿ÑĢÐ°Ð²Ð¸ ÑĤÐµÐ»ÑĮÑģÑĤÐ²Ð¾
ĠÑĤÐµÑĢ Ð¼
ĠÐ¾ÑģÐ¾Ð± Ð¾Ð³Ð¾
ĠÑĢÐ°Ð¹ Ð¾Ð½Ð¾Ð²
ĠÐ²ÑĭÐ¿Ð¾Ð» Ð½ÑıÐµÑĤÑģÑı
ĠÑģÐ¾Ð³Ð»Ð° ÑĪÐµÐ½Ð¸Ñı
ĠÑģÐ¾Ð±ÑģÑĤÐ²ÐµÐ½ Ð½ÑĭÑħ
ĠÐ²Ð¾Ð¿ÑĢÐ¾ ÑģÑĥ
ĠÐ¿Ð¾Ð± ÐµÑĢÐµ
ĠÐ¾ÐºÐ°Ð·Ð° Ð»Ð°ÑģÑĮ
ĠÐ°ÐºÑĤÐ¸Ð² Ð½Ð¾Ð¹
ĠÐ½ÐµÐºÐ¾ÑĤÐ¾ÑĢ Ð¾Ðµ
ĠÐ´ÐµÐ²Ñĥ ÑĪÐºÑĥ
ĠÐľÐµ Ð±ÐµÐ»ÑĮ
ĠÐ½Ð°Ð»Ð¸ÑĩÐ¸ Ñı
ĠÐ³Ð¾Ð»Ð¾Ð² Ðµ
ĠÐºÐ»Ð°ÑģÑģ Ð¾Ð²
ĠÐ¼ÐµÐ´Ð¸ÑĨÐ¸Ð½ ÑģÐºÐ¾Ð³Ð¾
ĠÐ±ÑĢÐ° ÑĥÐ·
ĠÑĢÐ°ÑģÐ¿ÑĢÐ¾ÑģÑĤÑĢÐ°Ð½ ÐµÐ½Ð¸Ðµ
ĠÐ¿ÑĢÐµÐ´Ð¾ÑģÑĤÐ°Ð² Ð»ÐµÐ½Ð¸Ð¸
ĠÐ½Ð°Ðº Ð¾Ð¿Ð¸
ĠÐ¿ÑĢÐµÐ´Ð¿ÑĢÐ¸Ð½Ð¸Ð¼Ð° ÑĤÐµÐ»ÐµÐ¹
ĠÑĤÐµÐ¾ÑĢÐ¸ Ñı
ĠÑģÐ¾Ð¾ÑĤÐ²ÐµÑĤÑģÑĤÐ²ÑĥÑİÑīÐ¸ Ñħ
ĠÐ½Ð°Ð²ÐµÑĢ Ð½ÑıÐºÐ°
ĠÐ°Ð»ÐºÐ¾Ð³ Ð¾Ð»
ĠÐºÐ²Ð°Ð»Ð¸ ÑĦÐ¸ÑĨÐ¸ÑĢÐ¾Ð²Ð°Ð½
th er
Ð¡Ð¾Ð² ÑĢÐµÐ¼ÐµÐ½
Ð²ÐµÑĢÐ´ Ð»Ð¾Ð²
ĠÐ¿ÑĢÐ¸ÑĩÐ¸Ð½Ð° Ð¼
ĠÐ¿ÑĢÐ¸Ð½Ð°Ð´Ð»ÐµÐ¶Ð° ÑĤ
R E
] ,
c l
ĠÑģ ÑħÐ¾Ð´
Ð¾Ð² ÑĭÐ¼Ð¸
ÑĢÐµ ÐºÑĤÐ¾ÑĢ
ĠÑĥ Ð¼Ð°
ĠÐ¿Ð¾ ÑĪÐ»Ð¸
Ñį ÑĦÑĦÐµÐºÑĤÐ¸Ð²
ĠÑį Ð»Ð¸ÑĤ
ĠÐĴ ÐºÐ»Ð°Ð´ÑĭÑĪÐ¸
ÑĩÐ¸ ÐºÐ°Ð¼Ð¸
ĠÑĢÐ°Ð· Ð²ÐµÑĢ
ĠÐ¢ Ð¾Ð²Ð°ÑĢÑĭ
ĠÐºÐ¾Ð½ Ð²ÐµÑĢ
ÑĢÑı Ñģ
Ð¢ ÐķÐł
Ðľ Ð½Ð¾Ð³Ð¸Ðµ
ĠÐ²Ð° Ðº
ĠÑģÐ°Ð¼ ÑĥÑİ
ĠÐºÑĥ Ñģ
ĠÐĴÑĭ Ñģ
Ð½Ð³ Ðµ
ĠÐ±Ðµ Ð»ÑĮÐµ
ĠÑĢÐµÐ³Ð¸ Ð¾Ð½
ĠÑĨÐµÐ½ÑĤ ÑĢÑĭ
ĠÑģÑĤÐ°ÑĤÑĮ Ñİ
ĠÐ¿ÑĢÐ¾ÑĦÐµÑģÑģÐ¸ Ð¸
ĠÑĥÑĩÐ¸ ÑĤÐµÐ»ÑĮ
ĠÑģÐ»ÑĥÐ¶ Ð±Ñĥ
Ð¾ÑĢÑĤÐ¸ Ð·Ð°ÑĤÐ¾ÑĢ
ĠÑĦÐ¸Ð·Ð¸ ÑĩÐµÑģÐºÐ¾Ð¹
ĠÑĢÐ¾ÑģÑģÐ¸Ð¹ ÑģÐºÐ¸Ð¹
ĠX IX
ĠÐĽÐµ Ð³
ĠÐ¡Ñĥ Ð¿ÐµÑĢ
ĠÐ³Ð°ÑĢÐ°Ð½ ÑĤÐ¸Ð¹
ĠÑģÑĦ ÐµÑĢÑĭ
ĠÑĢÐ°ÑģÑĪÐ¸ ÑĢÐ¸
ĠÐ·Ð°Ð¿ÑĢÐµ ÑīÐµÐ½Ð¾
ĠÐ´ÐµÐ² Ð¾ÑĩÐºÐ¸
ĠÐ¼ÑĥÐ½Ð¸ÑĨÐ¸Ð¿Ð° Ð»ÑĮÐ½ÑĭÑħ
ĠÐ´Ð¾Ðº ÑĤÐ¾ÑĢ
ĠÐ¾Ð±Ñģ ÑĥÐ¶Ð´Ð°
ĠÐ¿ÑĢÐ¾Ð²Ð¾Ð´ ÑıÑĤÑģÑı
ĠÐ¿Ð¾Ð³Ð¸ Ð±Ð»Ð¸
ĠÐºÐ¾Ð»ÑĮ ÑĨÐ¾
ĠÐ²ÑĭÐ¿Ð¾Ð»Ð½ ÐµÐ½Ñĭ
ĠÑģÑĥÐ±ÑĬ ÐµÐºÑĤÐ¾Ð²
ĠÐ¾Ð²Ð¾ ÑīÐµÐ¹
ĠÑĢÐµÐ° Ð±Ð¸Ð»Ð¸
ĠÐºÐ¾ÑģÑĤÑİ Ð¼
ĠÑģÐ¸Ð»ÑĮ Ð½ÐµÐµ
Ð¡ÐºÐ° ÑĩÐ°ÑĤÑĮ
ĠÐĴÑĤÐ¾ÑĢ Ð¾Ð¹
ĠÐĿÐ°ÑĤÐ° Ð»ÑĮÑı
ĠÑĢÐ°ÑģÐ¿Ð¸ ÑģÐ°
ĠÐ½Ñİ Ð°Ð½
3 50
ĠÐ¿ Ð»ÐµÐ¼
ĠÐ¿ Ð¾Ð¹ÑĤÐ¸
Ð²Ð° ÑģÑĤ
ĠÐ³ Ð¾ÑĤÐ¾Ð²Ð°
ĠÐºÐ° Ð½Ð°Ð»Ð¸
ĠÐ²Ñĭ ÐºÐ»ÑİÑĩÐ°
ĠÐļ ÑĢÐµÐ¼
ĠÐ¿ÑĢÐ¾ ÑģÐ¿ÐµÐºÑĤ
ĠÐ¿ÑĢ Î¿
ĠÐĿ Ðĺ
ĠÑĢÐ°Ð· Ð»Ð¸ÑĩÐ¸
ĠÐĶ Ðķ
ĠÐ¿Ð¾Ð» Ð¾ÑģÑĤÐ¸
Ð½Ñı Ð»
Ðł Ð«
ÑĢÐ°Ð½ Ð¶Ðµ
ĠÐ§ Ð°Ð¹
ĠÐ³Ð¾ÑĢ Ñĭ
ĠÑģÐ¾Ð² Ð¾ÐºÑĥÐ¿
ĠÐ¸Ð¼Ðµ Ð»
ĠÐ°ÑĢ ÑĤÐ¸Ð»
Ð¾ÑĤÐµ Ñħ
ĠÐ¾ÑģÑĤÐ° Ð½ÐµÑĤÑģÑı
ĠÐ±ÐµÑģÐ¿Ð»Ð°ÑĤ Ð½ÑĭÐ¹
ĠÐºÐ¾ Ð¾ÑĢÐ´Ð¸Ð½Ð°
ĠÑĤÑĥ ÑĢÐ°
ĠÐĿÐ¸ Ð¶Ðµ
ĠÐĴÐ¸ ÐºÑĤÐ¾ÑĢ
ĠÐ¾ÑģÑĥÑīÐµÑģÑĤÐ² Ð»ÑıÑĤÑĮ
ĠÐ²ÑĢÐ° ÑĩÑĥ
ĠÑģÐ¿Ð° Ð»ÑĮ
ĠÑģÐµÐ³Ð¾Ð´Ð½Ñı ÑĪ
ĠÐ¿ÑĢÐ¾Ð¼ ÑĭÑĪ
ĠÑįÐ»ÐµÐºÑĤÑĢÐ¾Ð½ Ð½ÑĭÐ¹
ĠÐ´ÑĥÐ¼Ð° Ð»
ĠÐ³Ð°ÑĢÐ°Ð½ ÑĤÐ¸
ÐļÐ¾Ð¼ Ð¿Ð»ÐµÐºÑĤ
ĠÐŁÑĢÐµ Ð·Ð¸Ð´ÐµÐ½ÑĤÐ°
ĠÐ±Ð°Ð· Ñĥ
ĠÐ²ÐºÐ»Ñİ ÑĩÐµÐ½Ð¸Ñı
ĠÑģÑĤÑĥÐ´ ÐµÐ½ÑĤÑĭ
ĠÐļÑĢÑĭ Ð¼Ñĥ
ĠÐ¿ÑĢÐ¸Ð½ÑĨÐ¸ Ð¿
ĠÐ·Ð°Ð²ÐµÑĢ ÑĪÐ¸
ĠÐĴÐ»Ð°Ð´Ð¸Ð¼Ð¸ ÑĢÐ°
ĠÐ¿ÑĢÐ¾Ñģ Ð¼Ð°ÑĤÑĢÐ¸
ĠÐ¸Ð³ÑĢÐ¾Ðº Ð¸
Ð°Ð¼ÐµÑĤ ÑĢ
ĠÐ²ÑģÑĤÑĢÐµÑĩÐ° ÑİÑĤÑģÑı
ĠÐľÐ°Ð¹ Ð½
ĠIn ter
ÐĲÐ² ÑĤÐ¾Ð¼
ĠÐ·Ð¸Ð¼ Ð¾Ð¹
ĠÐ¸Ð¼Ñĥ ÑīÐµÑģÑĤÐ²Ð¾
ĠÐ½Ð¸Ð¶ Ð½ÐµÐ¹
ĠÐ½Ð¾ÑĢ Ð¼Ñĭ
ĠÐ¸Ð´ ÑĳÑĤ
ĠÐ¿Ð¾Ð»Ð¾Ð²Ð¸ Ð½Ðµ
ĠÐ·Ð²ÐµÐ· Ð´Ñĭ
ĠÐ¾Ð±Ð¾Ð¸ Ñħ
ĠÑĢÐµÐ¹ÑĤÐ¸ Ð½
Ð»Ð¾ÑĢ ÑĥÑģ
ĠÐ¼ÐµÐ´Ð¸ÑĨÐ¸ Ð½Ñĭ
ĠÑıÐ¹ ÑĨÐ°
o us
t o
u c
ĠÑģ ÑįÐºÐ¾Ð½Ð¾Ð¼Ð¸
ĠÐ½ ÐµÐ½
Ð¿ ÑĥÑĢ
Ð¶ ÐµÐ½Ð°
ĠÐ± Ð¾ÑĢÐ¾ÑĤÑĮÑģÑı
ĠÐ· Ð¾Ð²
ĠÐ½Ðµ ÑĢÐ°Ð·
ĠÐ·Ð° ÐµÐ¼
Ð´Ð° Ð»Ð°
ĠÐ¾Ð± ÑĢÑĥ
ÑĩÐµ ÑĢÐµÐ´
ĠÐ²Ñĭ ÑģÐºÐ°Ð·Ð°
ĠÐĶ Ð²Ð°
Ðŀ Ð¿
ĠÐĳ ÑĢÑİ
ĠÐºÐ¾Ð½ ÑĨÐ¾Ð²
ĠÐ£ Ñĩ
Ð¶Ð´ ÐµÐ½
ĠÐĽ Ð¸Ð½
ĠÐºÑĥ Ð»Ð¸Ð½Ð°
ÐĹ Ð°Ð¼
ĠÐ¼Ñĭ ÑĪÐµ
Ð¿ÑĢÐ°Ð² ÐºÐ°
ĠÑĢÐ°Ð±Ð¾ÑĤ Ð½Ð¸ÐºÐ°
10 2
ĠÐ¯ ÑĢ
Ð³Ð¾Ð² ÑĭÑħ
Ð°Ñģ ÑģÐ°
ĠÐ²ÑĭÑģ Ð¾ÐºÐ°Ñı
ĠÐ´ÐµÑĤ ÑģÑĤÐ²Ð°
Ð§ Ðĺ
ĠÐ½Ð°ÑĩÐ° Ð»ÑĮ
ĠÐľÐ° ÑģÑĤÐµÑĢ
ĠÑĥÑģÑĤÐ°Ð½Ð¾Ð² Ð»ÐµÐ½Ñĭ
ĠÑĦÐ° ÐºÑĤÑĭ
ĠÐ¾ÑĤÐ²ÐµÑĤ Ð¸Ð»
ĠÑģÐ²Ð¾Ð¹ ÑģÑĤÐ²
ĠÑģÐ¾Ð´ÐµÑĢ Ð¶Ð¸ÑĤÑģÑı
ĠÐ´Ð¾ÑĢ Ð¾Ð¶Ðµ
ĠW X
ĠÑģÐ¿Ð¸ ÑģÐºÐ°
ĠÐ½Ð°Ð¿ÑĢÐ°Ð² Ð»Ñı
Ð¡Ð¢ Ðŀ
Ð¡Ð¢ ÐĲ
ĠÑĢÐ°ÑģÑģÐºÐ° Ð·ÑĭÐ²Ð°ÐµÑĤ
ĠÐ¿Ð¾Ð²Ñĭ ÑģÐ¸ÑĤÑĮ
ac h
ĠÐ´Ð¾ÑģÑĤÑĥÐ¿ Ð½Ð°
ĠÐ¾Ð¿Ð»Ð° ÑĤÐµ
ĠÐºÐ¾Ð¼Ð°Ð½ Ð´Ñĥ
ĠÐ°Ð» Ð³Ð¾ÑĢÐ¸ÑĤ
ĠÑģÑĤÐ°ÑĢ ÑĪÐµ
ri pt
ĠÑģÐ¿Ð¾ÑĢ ÑĤÐ¸Ð²Ð½ÑĭÐµ
ĠÐ·Ð°Ð² Ð¾Ð´Ðµ
ĠÐ¿ÑĢÐ¸Ñģ Ð²Ð¾
ĠÐ¾ÑĩÐ¸ ÑģÑĤÐºÐ¸
ĠÑģÐ¾ÑģÑĤÐ°Ð²Ð»Ñı ÑİÑĤ
ÐºÑĥÐ»ÑĮ Ð¿
ĠÐ²ÑĭÐ³Ð¾Ð´ Ð½Ð¾
ĠÑİÑĢÐ¸Ð´Ð¸ ÑĩÐµÑģÐºÐ¸Ñħ
ĠÐ¼Ð¾Ð´Ñĥ Ð»Ð¸
ĠÐ¿Ð¾Ð¼ÐµÑīÐµÐ½Ð¸Ñı Ñħ
ĠÐ±ÐµÐ½ Ð·
ĠÐ¿Ð°ÑģÑģÐ°Ð¶Ð¸ ÑĢ
Ð³Ð¾Ð²Ðµ ÑīÐµÐ½
ĠÑĥÐ³Ð»Ðµ Ð²Ð¾Ð´
ĠÐºÐ°Ð´Ð° ÑģÑĤÑĢÐ¾Ð²
ĠÐ½ÐµÐ¸ÑģÐ¿ ÑĢÐ°Ð²
ĠÐ·Ð°Ð¶Ð¸Ð³Ð° Ð½Ð¸Ñı
ĠÐ¾ÑģÑĨÐ¸ Ð»Ð»Ñı
Ð² Ð¾Ð´Ñĥ
ĠÐ¿ ÑĢÑĥ
Ñĩ ÐºÐ¾
ĠÑģ ÐºÐ¾Ð²
ĠÐ´ Ð¾Ð·
ÐµÐ¼ Ð¸
ÑĢÐ¾ Ð½Ð°
ĠÑĩ ÑĳÑĢ
ĠÐ·Ð° Ð´ÑĥÐ¼Ñĭ
ĠÐ» Ð¾Ð±
ĠÐ¡ Ð¾Ð³Ð»Ð°
ĠÐ¡ Ð¾ÑĤÑĢÑĥÐ´
ĠÑĢÐ°Ð· Ð³Ð¾Ð²Ð¾ÑĢ
ÐºÐ¾ ÑĤÐ°
Ð¡ ÑĤÑĢÐ°
ĠÐĲ Ð¡
ÐŁ Ð»Ð°
Ð¿Ð¸ ÑĨÐ°
ÑĢÐ¾Ð² ÐºÐ¾Ð¹
ĠÐĳ ÑĢÐ¸
Ð¶Ð¸ Ð¼Ð¾ÑģÑĤÑĮ
ĠÐ»Ð¸ ÑĩÐ½Ð¾Ð³Ð¾
ĠÐ²Ð¾Ð· Ð½Ð°Ð³ÑĢÐ°
ĠÐ²Ð¸ Ð½Ð°
ÑīÐ° Ð»
Ð¾Ð¸ ÑģÐºÐ°
ĠÐ¿ÐµÑĢÐµ Ð´Ð°ÑĤÑĮ
ÑĥÑĩ Ñĥ
ĠÑĩÐµ ÑģÑĤÐ½Ð¾
ĠÑģÐ¾Ð² ÐµÑīÐ°
Ð¿Ñĥ ÑģÐºÐ°
ĠS c
ÑģÑĤÐ°Ð½Ð¾Ð² Ð»ÐµÐ½Ð¸Ðµ
ĠÐŁÑĢÐ¸ Ð½
ĠÐ´Ð¾Ð»Ð¶ Ð½Ð¾ÑģÑĤÐ¸
ÑĩÐµÐ½ Ð½Ð¾Ð³Ð¾
ĠÐ²ÐµÑĢ Ð½ÑĥÑĤÑĮÑģÑı
ÑĢÐ¾Ð²Ð°Ð½ Ð½Ð¾Ðµ
ĠÐ²Ð¾Ð¿ Ð»Ð¾
ĠÐ¦ ÐµÐ½Ñĭ
ĠÐ´ÐµÐ¹ ÑģÑĤÐ²ÑĥÑİÑīÐ¸
Ð¼ÐµÑĤ ÑĢÐ¾Ð²
ĠÑģÐ¿Ð¾ÑģÐ¾Ð± Ð½Ð°
ĠÑĢÐ°Ð·Ð²Ð¸ Ð²Ð°ÐµÑĤÑģÑı
ĠI S
Ð¾Ð²Ð°Ð½ Ð½ÑĭÐ¼
ĠÐ¿ÑĢÐ¾Ð¸Ð·Ð²Ð¾Ð´Ð¸ ÑĤÐµÐ»Ð¸
ĠÐłÐ° ÑģÑģ
ÑĩÑĥ Ð²
ĠÐ²Ð½ÑĥÑĤ ÑĢÑĮ
ĠÐ°Ð¿ Ð¿ÐµÑĤÐ¸
ĠÑģÐ¿Ð° ÑģÑĤÐ¸
ĠÐ¿Ð¾Ð¿ÑĥÐ»ÑıÑĢ Ð½Ð¾ÑģÑĤÑĮ
ĠÐ´Ð¾Ð³Ð¾Ð² Ð¾ÑĢÐ¸
ĠÑģÐ²Ð¾Ð± Ð¾Ð´Ñĭ
ĠÐ¾ÑĤÑģÑĥÑĤ ÑģÑĤÐ²ÑĥÐµÑĤ
ĠÐ¡Ð°Ð¼ ÑĭÐµ
ĠÐ¿Ð»Ð°Ð½Ð¸ ÑĢÑĥÐµÑĤÑģÑı
ĠÐ¼Ð½Ð¾Ð³ Ð¾Ð»ÐµÑĤ
ĠÐµÐ´Ð¸Ð½ ÑģÑĤÐ²ÐµÐ½Ð½ÑĭÐ¹
ĠÐ±Ð¾Ðµ Ð²ÑĭÑħ
ĠÐºÐ¾Ð´ ÐµÐºÑģÐ°
ĠÐ¿Ð¾Ð·Ð´ Ð½ÐµÐµ
ĠÐ²ÑĭÑģÑĤÑĥÐ¿Ð° ÐµÑĤ
ĠÐ¿Ð¸ÑģÑĮÐ¼ÐµÐ½ Ð½Ð¾Ð³Ð¾
ĠÐŁÐ¾Ð± ÐµÐ´Ñĭ
ĠÐķÐºÐ°ÑĤÐµÑĢÐ¸Ð½ Ð±ÑĥÑĢÐ³
ĠÐ°Ð²Ð¸ Ð°ÐºÐ¾Ð¼
ĠÐ´Ð¾Ð±ÑĢÐ¾Ð² Ð¾Ð»ÑĮ
? "
Ð² Ð·
Ð² Ð¾Ð½
Ð² ÐºÐ°Ð·
ÐµÐ½ Ð¾Ð²
Ð¿ ÐºÐ°
Ð½Ð¸ Ð»Ð¾ÑģÑĮ
ĠÐ³ ÑĥÐ¼Ð°
ĠÐ¿Ð¾ ÑĤÐµÑĢÐ¸
Ð¾Ð± Ð½Ð¾Ð²
ĠÐ° Ð´ÐµÐºÐ²Ð°
ĠÐĴ Ð«
Ð³Ð¾ Ð½Ð°
ĠÐ¸Ð· Ð»Ñĥ
ĠÐĿ Ð°Ð¹
Ñĳ ÑĤÐµ
Ð¾ÑĢÐ¸ ÑĤÐµÑĤ
ĠÐ¿ÐµÑĢÐµ Ð²Ð¾Ð´Ð°
ĠÐŃ ÑĢ
ÑģÑģÐ¸ Ð¹
ĠÐºÑĥ Ð¿Ð°
Ðĵ Ð¾ÑĢ
ÑĨÐ¸Ð¾Ð½ Ð½Ð¾Ð¼
ĠÐ¥ Ð¾ÑĢÐ¾
Ð·ÑĭÐ²Ð° ÐµÑĤÑģÑı
ĠÑĥÑĩÐ° ÑģÑĤÐ²Ð¾Ð²Ð°ÑĤÑĮ
ĠÑģÐ° Ð»Ð°
ĠÐ½Ð°ÑĩÐ° Ð»Ð¾Ð¼
ĠÐ½Ð°ÑĩÐ° Ð»ÑĮÐ½Ð¸Ðº
ĠÐ¼Ñĥ Ð¶Ð¸
ĠÑĩÐµÐ»Ð¾Ð²Ðµ ÑĩÐµÑģÑĤÐ²Ð°
ĠÑģÐ¾Ð±ÑģÑĤÐ²ÐµÐ½ Ð½ÑĭÐµ
ĠÑģÐ»Ð¾Ð¶ Ð½ÑĭÑħ
ÐĺÐ½ ÑĦÐ¾ÑĢÐ¼Ð°
ÑĤÐµÐ³Ð¾ÑĢÐ¸ Ñı
ÑİÑīÐµÐ³Ð¾ ÑģÑı
ĠÐ´ÐµÐ¼ Ð¾Ðº
ĠSt on
ĠÑģÐµÑĢÑĮ ÑĳÐ·
ĠÑĦÐ¸ÑĢ Ð¼Ð°
ĠÐºÑĥÑħ Ð½Ðµ
ĠÐ³Ð°ÑĢ Ð´ÐµÑĢ
ĠÐºÐ¾Ð½ÑĤÐ° ÐºÑĤÑĭ
ĠÑĢÑĥÐºÐ¾Ð²Ð¾Ð´ ÑģÑĤÐ²Ð¾Ð¼
ĠÐ¸Ð½ÑĤÐµÑĢÐµ ÑģÐ¾Ð²
ĠÐ¾Ð±ÑģÑĥ Ð¶Ð´ÐµÐ½Ð¸Ñı
ĠÑĪÑĤÑĥ ÐºÐ°
Ð¾ÑĩÐ¸ ÑģÑĤÐ¸
ĠÐ²Ð¸Ð´Ð¸ Ð¼Ð¾
ĠÐ½Ð°Ð²Ñĭ ÐºÐ¸
ĠÐ¡ÐµÐ½ÑĤ ÑıÐ±ÑĢÑĮ
! )
8 3
Ð½ ÐµÐ½Ð½ÑĭÑħ
Ð» Ð»
ÑģÑĤ ÑĭÐ¼
Ð¿ Ð¾Ð¹
Ð± Ñİ
Ð¾ÑĢ ÑĤÑĭ
ĠÐ½Ð° Ð¼Ðµ
Ð¶ Ð½ÐµÐ¼Ñĥ
ĠÐ± ÑĢÐ¾Ð½Ð¸
ĠÐ½Ðµ Ð´Ð¾Ð²
Ð»Ñı ÑĨÐ¸Ñı
ĠÐ¿Ð¾ ÑģÑĤÐ°Ð²Ð»Ñı
ĠÐŁ ÐłÐĺ
Ð¾Ð¿ Ð»ÐµÐ½Ð¸Ðµ
ĠÑĦ Ð°Ð·
ĠÐľ ÐĴÐĶ
ĠÑģÑĤ ÐµÐ½Ð°
ÐºÑĥ ÑĤ
Ð¿Ð¸ Ð»
ĠÐ¸Ð½ Ð²ÐµÑģÑĤ
ĠÐ»Ð¸ ÑĩÐ½ÑĭÐ¹
Ðľ Ð¾Ð¶Ð½Ð¾
Ðł Ð°Ñģ
ĠÐ¼Ð¸ Ð¼Ð¾
ĠÑģÑĥ ÑĤÑĮ
ĠÐ¿Ð¾Ð¼ Ð½Ð¸ÑĤÑĮ
ĠÐ¥ Ð¸
ÑıÐ·Ð° ÑĤÐµÐ»ÑĮÐ½Ð¾
Ð³Ð¾Ð² Ð¸
ĠÐļÐ° Ð·Ð¸Ð½Ð¾
ĠÐ¸Ð¼ Ð¿Ðµ
ĠÑģÐ´ÐµÐ»Ð° ÐµÑĤ
ĠÑĤÐµÑĢ Ð¿
ĠÑĤÐ¸ Ð¿Ð¸
ĠÑģÐ²Ñı ÑĤÑĭÑħ
ĠÑĤÑĥ ÑĢÐµÑĨ
ĠÑģÐ²Ð¾Ðµ Ð¾Ð±ÑĢÐ°Ð·
ĠÐ¢Ð° ÑĤÐ°ÑĢ
ÐµÐ´Ð¸ Ñı
Ð¿Ñĭ ÑĤ
ĠÐłÐµ Ð³Ð¸
ĠÑģÑĩÐ¸ÑĤÐ° Ñİ
ĠÐĲÐ² Ð³ÑĥÑģÑĤ
ĠÐ²ÑģÑĤÑĢÐµ ÑĩÐµ
ĠÐ¿Ð¾Ð²Ñĭ ÑĪÐ°ÐµÑĤ
ĠÑĤÐµÐº ÑģÑĤÑĥ
ĠÐ¾Ð¿Ð»Ð° ÑĤÐ°
ĠÐ¿ÑĢÐ¾Ð¿ ÑĥÑģÐºÐ°
ĠÐ½ÐµÐ±Ð¾Ð»ÑĮ ÑĪÐ¸Ñħ
ĠÐ»Ð¸ÑĨÐ° Ð¼Ð¸
ÐļÐ¾Ð¼ Ð¿
ĠÑģÐ±Ð¾ÑĢ Ð½Ð¾Ð¹
ĠÐ²Ð»Ð¸Ñı Ð½Ð¸Ñı
ĠÐ¿ÑĢÐ¸Ð½ÑĨÐ¸ Ð¿Ð¸
ĠÐ¿Ð¾Ð»ÑĮÐ· ÑĥÐµÑĤÑģÑı
ĠÐĲÐ» ÑĤÐ°Ð¹
ĠÐ½Ð°Ð»Ð¾Ð³Ð¾Ð² Ð¾Ð¹
ĠÑħÐ¾ÑĤÐµ Ð»Ð°
ĠÑģÐµÐ»ÑĮ ÑģÐºÐ¾Ð³Ð¾
ĠÐ´ÐµÑĪÐµ Ð²Ð¾
ĠÐ¨Ð¸ Ð½Ñĭ
ĠÐ¿Ð¾Ð´Ñģ Ð²ÐµÑĤ
ĠÐ¿Ð°ÑģÑģÐ°Ð¶Ð¸ ÑĢÐ¾Ð²
ÐļÑĥÑĢ Ñģ
ĠÑģÐ¸Ð¼Ð² Ð¾Ð»Ð¸
ĠÐļÐ¾Ð½ÑģÑĤÐ°Ð½ ÑĤÐ¸Ð½
ĠÐ°ÑĤÐ¼Ð¾ÑģÑĦÐµÑĢ Ñĥ
ĠÐ·Ð°Ð³Ð° Ð´
ĠÐĲÐ½Ð°ÑĤ Ð¾Ð»Ð¸
p ort
Ð¸ ÑģÐºÐ°
Ðº Ð¼
Ð´ Ð½Ð°Ñı
ĠÐ¾ Ð²
ĠÐ± Ð¾Ð³Ð¾
ÐµÑĢ ÐµÐ½
ÑĦ Ð¸Ð½
ÐµÐ¼ Ð¾ÑģÑĤÐ¸
ĠÑį ÐºÐ¸
ĠÐĴ ÐµÐ½Ðµ
Ð¼Ð° Ð·
ÐµÐ½Ð¸Ñı Ñħ
ĠÐ¿ÑĢÐ¾ ÑĩÐ½Ð¾ÑģÑĤÑĮ
ĠÑĤÐµ Ð¿Ð»Ð°
Ð¿Ð° Ð¼Ð¸
ÐµÑĢÐµ Ð¼Ð¾
ĠÑħ Ð¾Ðº
Ðļ ÑĢÐ°
ĠÑı Ñħ
ĠÐ¼Ðµ Ð³Ð°
ĠÐºÐ¾Ð½ ÑĨÑĥ
Ð¾Ð½Ð° Ð±
ĠÐĹ ÐµÐ»ÐµÐ½
ĠÐ£ ÑĩÐ°ÑģÑĤ
ĠÐ¿ÐµÑĢÐµ ÐºÑĢÑĭ
Ð±Ð° Ð»Ð°Ð½
Ð£ Ðĳ
ĠÑģÐ»Ñĥ Ð¶Ð¸ÑĤ
ĠÑģÐ¾Ð± Ð»ÑİÐ´
Ð¿Ñĥ Ð½
ÐºÐ»Ñİ ÑĩÐµÐ½Ð¸Ðµ
ĠÐ¸Ð¼Ðµ ÑİÑīÐ¸Ðµ
ĠÐ²Ð¾Ð·Ð¼Ð¾Ð¶ Ð½ÑĭÐµ
ĠÐºÐ°ÑĢ Ð¼Ð°Ð½
ĠÐºÐ°ÑĩÐµ ÑģÑĤÐ²ÐµÐ½Ð½ÑĭÐ¹
ĠÐ¼Ð¾ ÑĩÐµ
15 2
ĠT h
ĠÑģÐ´ÐµÐ»Ð° Ð½
ĠÐ¼Ð¸Ð½ ÐµÑĤ
ĠH R
ĠÐ¼Ð¾Ð¼ ÐµÐ½ÑĤÑĭ
ĠÐĴÐ¸ Ð´Ðµ
ĠÐ½ÐµÐ·Ð° Ð±Ñĭ
ĠÐ½Ð°Ñĥ ÑĩÐ¸ÑĤÑĮÑģÑı
ĠÐ¾ÑĢÐ³Ð°Ð½Ð¸Ð·Ð° ÑĨÐ¸Ñİ
ĠÑĢÐ°Ð·ÑĢÐ°Ð±Ð¾ÑĤ ÐºÐ°
ĠÐ¾Ð¿Ð¸ÑģÐ° Ð½Ð¸Ñı
ĠÐ¡Ð°Ð¹ ÑĤÐ°
ĠÐ°ÐºÐºÑĥ ÑĢÐ°ÑĤÐ½Ð¾
qu o
ĠÐ¡ÑĤÐ¾ Ð¸ÑĤ
Ð±Ð¸ÑĤ ÑĢÐ°Ð¶
ĠÐ²ÑĭÑĢÐ° ÑīÐ¸
. -
V D
Â ·
ÑĤ Ð½ÑĥÑİ
Ñģ Ð»Ð¾Ð²
ÑĮ ÑİÑĤ
ĠÐ¾ Ð·ÐµÑĢ
ÑģÐº Ð¾ÑĪ
ÑĦ Ð¾
ĠÐĴ ÑĢÐ°
ÑĩÐ° Ð¼Ð¸
ĠÐ²Ñĭ ÐºÐ»Ð°Ð´Ñĭ
ĠÑĦ ÑĢÐ°Ðº
ĠÑĤÐ° Ð±Ð°
ĠÐ¼Ð° Ð³Ð¸
Ð¸Ð· Ð½ÑĮ
Ð¶Ð° Ñı
ÑĤÐ¸Ð² Ñĭ
ÐµÑĤÐ° Ñħ
ÑħÐ° Ð¼Ð¸
ĠÐļÐ° ÑĢÐµ
ĠÐºÐ°ÑĩÐµ ÑģÑĤÐ²Ñĥ
ĠÐ²Ð· ÑıÑĤ
ĠÐ³Ð° Ð»Ðµ
ĠÐ¾Ð±ÐµÑģÐ¿Ðµ ÑĩÐµÐ½Ð¸Ñİ
ĠÐ¾ÑĤÐ²ÐµÑĤ Ð¸ÑĤÑĮ
ĠÐ¾ÑĦÐ¸ ÑģÐµ
ĠÐ¡ÑĤÐ° Ð½
ĠÐ¿Ð¾ÐºÐ°Ð·Ð° Ð»
ĠÑģÐ¾Ð±ÑģÑĤÐ²ÐµÐ½ Ð½ÑĭÐ¹
ĠÑģÐ¿ÐµÑĨÐ¸Ð°Ð»Ð¸ ÑģÑĤÐ°
ĠÐĲÐ½ ÑĤÐ¸
ÑģÐ¾ Ð¾Ð±ÑĢÐ°Ð·
ĠÐ²Ð¾Ð¹ Ð½Ðµ
ĠÐ±Ð»Ð¸ Ð¶Ðµ
ĠÐ¿Ð¾ÑģÑĤÐ¾ÑıÐ½ Ð½Ð¾Ð³Ð¾
Îº Ð°
ĠÐ¡Ð¾Ð²ÐµÑĤ ÑģÐºÐ¾Ð³Ð¾
ĠÐ±Ð¾Ð»ÐµÐ· Ð½ÑĮ
ĠÐ¾ÑĤÐº ÑĢÐ¾Ð²
ĠÐ¿ÑĢÐµÐ´Ð¾ÑģÑĤÐ°Ð² Ð»ÐµÐ½Ð¸Ðµ
ĠÐ½Ð°Ð±Ð¾ÑĢ Ñĭ
ĠÐ¾Ð¿Ð°Ñģ Ð½Ð¾ÑģÑĤÐ¸
ĠÐ¸Ð·Ð´ÐµÐ»Ð¸ Ðµ
ĠÐ¼ÑĭÑĪ ÑĨÑĭ
ĠÑıÐ² Ð»ÐµÐ½Ð¸Ñı
ĠÑĢÐµÐ³Ð¸Ð¾Ð½Ð°Ð»ÑĮ Ð½Ð¾Ð³Ð¾
ĠÐ¡Ð¿Ðµ ÑĨÐ¸Ð°Ð»ÑĮ
ĠÐ´ÑĢÑĥÐ·ÑĮÑı Ð¼Ð¸
ĠÐ¥ÑĢÐ¸ ÑģÑĤÐ°
ĠÑĢÐ°ÑģÑģÑĤÐ¾Ñı Ð½Ð¸Ðµ
ĠÐ¾ÑĤÐ²ÐµÑĢÑģÑĤÐ¸ Ñı
ĠÐ¼ÑıÑģ Ð¾
ÐĲÐ´ Ð¼Ð¸Ð½Ð¸ÑģÑĤÑĢÐ°
A T
Ð° ÐºÐ°
Ð¸ Ð»ÑģÑı
Ð» Ð»Ð°
ÑģÑĤ Ð½Ð¾Ð³Ð¾
Ð¿ Ð»Ñı
Ð½Ð¸ Ð»ÑģÑı
ÑĦ ÑĥÐ½ÐºÑĨÐ¸Ð¾Ð½Ð°Ð»ÑĮ
ÑĢÐ¾ ÑģÑĤÑĮ
Ð»Ðµ Ð´Ñĥ
ĠÐ·Ð° Ð²ÐµÐ´ÐµÐ½Ð¸Ñı
Ð¾Ð¿ Ð¾Ð´
ĠÐ¿ÑĢ Ð¾Ð´Ðµ
ĠÐ¸Ð· Ð²Ð¸
ĠÐ¢ Ð¾Ð¿
ĠÑħ Ð²Ð¾
ĠÐĳ ÐµÐ½
ÑĤÑĥ Ð´Ð°
Ð±Ð¸ ÑĤÑĮÑģÑı
ĠÐŃ Ð»ÑĮ
Ðĳ Ðµ
ĠÐ´Ð¾Ð» Ð³Ð¾Ðµ
ĠÑĩÐµ Ð»
ĠÐ¿Ð¸ ÑĤÐ¾Ð¼
ĠÐ¥ Ð¾ÑĢÐ¾ÑĪÐ¾
ÑĩÐµÑĤ Ñĭ
Ð½ÑĥÑĤ ÑĢÐµÐ½
ĠÐ¿Ð¾ÑģÐ»ÐµÐ´ Ð½ÐµÐ¹
ĠD D
ĠÐ¶ÐµÐ½ ÑģÐºÐ¸Ðµ
ĠÑĥÑģÐ»Ð¾Ð²Ð¸ ÑıÐ¼
ĠÐ·Ð°Ð½Ð¸Ð¼Ð° ÑİÑĤÑģÑı
ur l
ĠU S
ÑİÑīÐµÐ¹ ÑģÑı
ĠÐ¸ÑģÐºÑĥÑģ ÑģÑĤÐ²
ĠÐ³Ð°ÑĢÐ°Ð½ ÑĤÐ¸Ñı
ĠÐ¾ÑĦÐ¸ÑĨÐ¸Ð°Ð»ÑĮ Ð½Ð¾
ĠÐ¿ÑĢÐ¾Ð³ ÑĢÐµ
ĠÐ´ÑĢ Ð¾Ð±Ð¸
ĠÐ¾ÐºÐ¾Ð½ÑĩÐ° Ð½Ð¸Ð¸
ation al
ĠÐ²Ð¾Ð´Ð¸ ÑĤÐµÐ»Ñı
ĠÐ·Ð¸Ð¼ Ð½Ð¸Ðµ
ĠÐ¸Ð½ÑĤÐµÑĢÐµ ÑģÑĭ
ĠÐºÐ¾ÑĢÑĢÐµ ÑģÐ¿
ĠÐ¼Ð°Ð»ÑĮ ÑĩÐ¸Ðº
ĠÐºÐ°Ð¼ÐµÑĢ Ñĥ
ĠÑĥÐ´Ð¾Ð²Ð»ÐµÑĤ Ð²Ð¾ÑĢÐ¸
ĠÐ¸Ð¼Ð¼Ñĥ Ð½Ð¸ÑĤ
ĠÐĺÑİ Ð»ÑĮ
ĠÐĺÑİ Ð½ÑĮ
ĠÐ½ÐµÐ± Ð»Ð°Ð³
ĠÐĶÐµÐºÐ°Ð± ÑĢÑĮ
I A
R u
Ġ rus
Ð¼ Ð¾Ð½Ð°Ð»ÑĮ
ĠÐ¿ ÐµÐ¹
Ñĩ Ð½Ñĭ
Ð³ Ð¾Ð»ÑĮ
ĠÐ´ ÑİÐ¹
ĠÐ½Ð° ÑĢÑı
ÐºÐ° Ð»ÑĮ
ĠÐ½Ðµ ÑĥÐ´Ð¾Ð±
ĠÑĢÐ° ÐºÐµÑĤ
Ð´Ð° Ð²
Ð¾Ð½ ÐµÑĢ
ĠÐ¾ÑĤ ÐºÐ°
Ð·Ð° ÑĨÐ¸ÐµÐ¹
ĠÐ¿ÑĢÐ¾ ÑģÐ»Ñĥ
ĠÐ¿ÑĢ Ð¾Ð»
ĠÐ¸Ð· Ð¼ÐµÐ»ÑĮ
ĠÐĿ Ðļ
ĠÑģÑĤ ÐµÐ½Ðµ
ĠÑĤÐµ ÑģÑĤÐ¾
ĠÐł ÑĥÐ±
ÑĢÐ¾Ð² ÐµÑĢ
ÑģÑĤÐ¾ ÑĢÐ°Ð½
Ðļ Ð¾Ð½ÐµÑĩÐ½Ð¾
ĠÐĳ Ðķ
ĠÐ´Ð¾ ÑĩÑĮ
Ð¢ Ñĥ
Ðľ Ð£
ÑĦÐ¸ Ð½Ð°
ÑĪÐ° ÑİÑĤÑģÑı
ĠÐ½Ð¸ ÐºÐ¾Ð¼Ñĥ
Ð±Ðµ ÐºÐ¸
ĠÐ¿Ð¾Ð² Ð¾ÑĢÐ¾ÑĤ
Ð»Ð¾Ñģ ÑĥÑĤÐ¾
ĠÐ¼ÐµÐ½ ÐµÐ´Ð¶Ðµ
ĠÐ¼ÐµÐ½Ñı ÐµÑĤÑģÑı
ĠÑĤÐµÐ»Ðµ ÑĦÐ¾Ð½Ñĭ
ĠÐĿÐ¸ ÐºÐ°
ĠÐĿÐ¸ ÐºÐ¸
ĠÐĶÐ° ÑĤÐ°
ĠW eb
ĠÐ½Ð°Ð´ Ð¿Ð¸ÑģÑĮ
ĠÐ½ÐµÐ¿ Ð¾Ð´
ĠÐ·Ð°Ð´Ð° ÑĩÐµÐ¹
ĠÐ¼ÐµÑģÑĤ Ð½ÑĭÐµ
Ð»ÐµÑĢ Ð¾Ð²
ÐĺÐ½ ÑĤÐµÑĢÐµÑģ
ĠÑĢÐµÐ°Ð»ÑĮ Ð½Ð¾ÑģÑĤÐ¸
ĠÑģÐ»Ð¾Ð² Ð¾Ð¼
ĠÐ³ÐµÑĢ Ð¾ÐµÐ²
ĠÑĥÐ»ÑĥÑĩ ÑĪÐ¸ÑĤÑĮ
ĠÐ³Ð¾Ð»Ð¾Ñģ Ð°
ĠÐ±Ð»Ð¸Ð· ÐºÐ¸Ñħ
ĠÐ¿Ð¾ÑģÑĤÑĢÐ¾ Ð¸ÑĤÑĮ
Ð¶ÐµÐ¼ ÐµÑģÑı
ĠÑģÐ¾Ð±Ð¸ÑĢÐ° ÐµÑĤÑģÑı
ĠÐ¿ÑĢÐ¸ÑģÑĥÑĤ ÑģÑĤÐ²ÑĥÐµÑĤ
Ð±Ð¾Ð² ÑĮ
ĠÑĤÑĥÑĢÐ½Ð¸ ÑĢÐ°
ĠÐłÐµÐº Ð»Ð°Ð¼Ð°
ĠÑģÐ¾Ð¼ Ð½Ðµ
ĠÑģÐ¾Ð¿ÑĢÐ¾Ð² Ð¾Ð¶
ĠÐ¿ÐµÑĢÐµÐ²Ð¾Ð· ÐºÐ¸
Ð³Ð¸ÑģÑĤÑĢÐ° ÑĨÐ¸Ñı
ĠÐºÐ¾Ð¼Ð¸ÑĤ ÐµÑĤÐ°
ĠÐ¿Ð¾Ð´Ð¾Ð· ÑĢÐµ
ĠÐĽÐµÐ½Ð¸Ð½Ð³ÑĢÐ°Ð´ ÑģÐºÐ¾Ð¹
ĠÐ¿ÑĢÐµÐ²Ð¾Ñģ ÑħÐ¾Ð´
ĠÐľÐ°Ð¹Ð½ ÐºÑĢÐ°ÑĦÑĤ
a f
l ot
ð Ł
Ð» Ð¾Ð³Ð¸
ĠÐ² ÑĤÐ¾ÑĢÐ°Ñı
Ð¾Ð´ Ð½Ð°Ñı
ĠÐ¼ Ñį
ĠÐ¼ ÐµÑĢÑĤ
ĠÐ½Ð° Ð»Ð¾Ð³Ð¾
ĠÑĥ ÑĢÐ¾ÐºÐ°
ĠÐ·Ð° ÐºÐ¾
ĠÐ¾Ð± ÑĪÐ¸
ĠÐŁ Ñĭ
ĠÐŁ Ð¾Ð´Ð°
ĠÐ¿ÑĢÐ¸ Ð²Ð¸
Ð²Ð¸ Ðµ
Ð¼Ð° ÑĤÑĭ
Ð´Ð¸ ÑĤÑĮÑģÑı
Ġ( "
ĠÑģÑĤ Ð¾Ð»Ðµ
Ð°Ð½ Ð¾Ð²
Ð¿Ð° ÑĤÑĮ
ĠÐĲ Ð»Ð¸
ÐŁ Ð£
ĠÐĳ Ð¸ÑĤ
ĠÐĵ Ð°Ð¹
ÑģÑĤÐ°Ð² ÑĮÑĤÐµ
Ðł ÑĥÐ±
ĠÑģÐ¸ ÑģÑĮ
ĠÐ²Ðµ ÑģÐ¾Ð¼
ĠÑģÐµ Ð»Ð°
ĠÑģÐµ Ð»ÐµÐº
ÑħÐ¾Ð´Ð¸ ÑĤÐµ
ĠÑĢÑĥ ÑĩÐºÐ¸
ĠÐĿÐ° Ð·
ÑĥÐ¶ Ð¾Ð¹
ÐµÑĢÐ° Ð¼
Ð¼Ð¾Ð¶ Ð½Ð¾
ĠÐ¸Ð¼Ðµ Ð»Ð¸
ĠÐļÐ° Ð»Ñĥ
ĠÑģÐ° ÑħÐ°ÑĢÐ°
Ð§ Ð¸ÑĤÐ°
ĠÐ²Ð¾Ñģ ÑħÐ¸
ĠÐľÐ° ÑĢÐ¸Ñı
ÐŃ Ðļ
ĠÐ²Ð· Ð½Ð¾
ĠÑĢÐ¾ ÑģÐºÐ¾ÑĪ
ĠÐ¿Ð¾Ð»Ð¸ ÐºÐ»Ð¸
ĠÑĥÑĩÐ°ÑģÑĤ Ð½Ð¸ÐºÐ°Ð¼Ð¸
ĠÐ³Ð¸ Ð³Ð¸
ÑĢÐ°ÑĤ Ð½Ð°Ñı
ĠF l
Ð¶ÐµÐ½ Ð½Ð¾Ð¹
ĠÐ³Ð¾ÑģÑĥÐ´Ð°ÑĢ ÑģÑĤÐ²
ĠÑĢÐ¸ ÑĤ
ĠÐ´Ð¾ÑĢ Ð¾Ð³Ð°
Ð²Ð°ÐµÐ¼ Ð¾Ð³Ð¾
ĠÐ¿Ð¾ÐºÐ°Ð·Ð° Ð»Ð¸
ĠÐ¡Ðµ Ð²Ð°ÑģÑĤ
ĠÐ¸Ð·Ð²ÐµÑģÑĤ Ð½ÑĭÐ¹
ĠÐ½Ð°Ð¸ Ð±Ð¾Ð»ÑĮ
)) ))
ĠÐ¿ÑĢÐ°Ð²Ð° Ñħ
ÑİÑīÐ¸Ð¼ ÑģÑı
ĠÑĦÑĥÐ½Ðº ÑĨÐ¸Ñİ
ĠÐ½Ð°ÑĢÐ¾Ð´ Ð¾Ð²
ĠÐ¾ÑĤÑģÑĥÑĤ ÑģÑĤÐ²Ð¸Ñı
ĠÑĥÐ²ÐµÐ»Ð¸ÑĩÐ¸ Ð²Ð°ÐµÑĤÑģÑı
ĠÐ³Ð»ÑĥÐ± Ð¾ÐºÐ¾
ĠÐĲÐ´ Ð¼Ð¸Ð½Ð¸ÑģÑĤÑĢÐ°ÑĨÐ¸Ð¸
ĠÐ¿ÑĭÑĤÐ° ÑİÑĤÑģÑı
ĠÑĤÑıÐ¶Ðµ Ð»Ð¾
Ð¡Ðµ Ð²ÐµÑĢ
ĠÐ¿Ð¾ÑĤÐ¾Ð» ÐºÐ°
ĠÐ³Ð°ÑĢ Ð½Ð¸
ĠÐ¿Ð°ÑĨÐ¸ ÐµÐ½ÑĤÐ°
ĠÐ³Ð¾Ð²Ð¾ÑĢ Ñİ
ĠÑĢÐ°Ð´Ð¸Ð° ÑĤÐ¾ÑĢ
ĠÑĥÑĩÐµÐ½ ÑĭÑħ
ÑįÐ½ÐµÑĢ Ð³Ð¾
Ð½Ð°ÑĩÐ° Ð»Ðµ
ĠÐºÐ¾Ð½ÑĦÐ¸ Ð³Ñĥ
ĠÐ¿ÑĢÐ¾Ð¸ Ð³ÑĢÑĭ
ĠÐŁÑĢÐ¾ÑĦÐµÑģÑģÐ¸Ð¾Ð½Ð°Ð»ÑĮ Ð½ÑĭÐ¹
ĠÐ¸Ð´ÐµÐ½ ÑĤÐ¸
ĠÐ±ÑĥÑħÐ³Ð°Ð» ÑĤÐµÑĢ
g o
p o
ÑĤ Ð¾Ð²Ð°
Ð½ Ð¾Ð´Ñĥ
Ñģ Ð¾ÑģÑĥÐ´Ð¸
ÑģÑĤ ÑĥÑİ
ĠÑĥ ÑħÐ°
Ð¾Ð²Ð° Ð½Ð¾
ÑĩÐµ ÑģÑĤÐ²Ñĥ
ĠÐºÐ° ÑģÑĤÑĢÑİ
Ð¾Ñģ Ð½Ð¾Ð²
ĠÐ²Ñĭ Ð²Ðµ
Ð°Ð½ Ñı
ĠÑı Ð·
ĠÐ»Ð¸ Ð¼Ð¾Ð½
Ðł Ð¢
ĠÐ¤ ÑĢÐ¸
ÐµÐ² ÑģÐºÐ¸Ð¹
ĠÐ²Ð¾ ÑĪÐ»Ð¸
er t
Ð½Ð¸Ðº Ð¾Ð²Ð°
ÑħÐ° Ñı
ĠÑģÐ¾Ð± Ð»ÑİÐ´Ð°ÑĤÑĮ
ĠÐ¼Ð¾ ÐµÐ¼Ñĥ
ĠÐ½Ð°ÑĩÐ° Ð»ÑĮÐ½Ð¸ÐºÐ°
ĠÑģÐ¿Ð¾ÑģÐ¾Ð± Ð°
ĠÑĥÑģÐ»Ð¾Ð²Ð¸ ÑıÐ¼Ð¸
ĠÐ´ÐµÐ¹ÑģÑĤÐ²Ð¸ ÐµÐ¼
ĠÐ³ÑĢÐ° Ð¼
ĠÐ¼Ð¸Ð½ ÑĥÑģ
ĠÑĢÐ°Ð·Ð¼Ðµ ÑģÑĤÐ¸ÑĤÑĮ
ĠÑĨÐµÐ½ÑĤ ÑĢÐ°Ð»ÑĮÐ½Ð¾Ð¹
ÑģÐ¾Ð¼ Ð¾Ð»ÑĮ
ĠÑģÐ¾Ð´ÐµÑĢÐ¶Ð° ÑĤ
ĠÐ¿Ð¾Ð¿ÑĥÐ»ÑıÑĢ Ð½Ð¾ÑģÑĤÑĮÑİ
ĠÐ¿ÑĢÐ°Ð·Ð´ Ð½Ð¸ÐºÐ¸
ĠÐ±Ð»Ð¾Ðº Ð¾Ð²
ĠÐ¼Ð°Ð»ÐµÐ½ÑĮ ÐºÐ¸Ðµ
ĠÐ¾ÑĤÐ»Ð¸ÑĩÐ° ÑĤÑĮÑģÑı
ĠÐ¿ÑĢÐ¾ÑģÑĤ ÑĭÑħ
ĠSt ar
ĠÑĢÑĥÐºÐ¾Ð²Ð¾Ð´Ð¸ ÑĤÐµÐ»ÐµÐ¹
ĠÐ³ÑĥÐ± ÐµÑĢ
ĠÑģÑĤÑĢÑĥÐºÑĤÑĥ ÑĢÑĥ
ĠÑĢÐµÐ³Ð¸ÑģÑĤÑĢÐ° ÑĨÐ¸Ñı
ĠÐ²Ð»Ð°Ð´ÐµÐ»ÑĮ ÑĨÐµÐ²
ĠÑĢÐ°Ð·Ð½Ð¾Ð¾Ð±ÑĢÐ°Ð· Ð½ÑĭÑħ
ud io
ĠÐļÐ¸ÑĤÐ° Ðµ
ĠÑģÑħÐµÐ¼ Ðµ
ĠÑįÐºÑģÐ¿Ðµ Ð´Ð¸
ĠÐ³Ð¸Ð¿ÐµÑĢ ÑģÑģÑĭ
ĠÐ´Ð¸Ð°Ð¿Ð°Ð· Ð¾Ð½Ðµ
ĠÐºÐ¾Ð»ÐµÐ±Ð° Ð½Ð¸Ð¹
ĠÐ³ÐµÐ¼ Ð¾ÑĢ
ĠÐĴÐµÐ»Ð¸ÐºÐ¾Ð±ÑĢÐ¸ÑĤÐ° Ð½Ð¸Ð¸
ĠSton eline
ĠÐ½Ð°Ð»Ð¾Ð³Ð¾ Ð¾Ð±
3 000
Ġ o
ĠÐ² Ð¾ÑĢÐ¾ÑĤÐ°
Ñħ ÐµÐ¼Ð°
Ð³ Ð½Ð¸
Ð½Ð¾ Ð½Ð¸Ð¼
ÑĪ Ð½Ð¾Ð¹
ÑĤÐ¸ Ð»Ð°
ĠÑĩ ÑĳÐ¼
ĠÐ·Ð° Ð´ÑĥÐ¼Ð°
Ð¾Ð½ ÑģÑĥÐ»ÑĮ
ĠÐ¾ÑĤ Ð¼ÐµÐ½
ĠÐ²Ñĭ ÑģÑĤÑĥÐ¿
ĠÐļ Ð¾Ð²
ĠÑĢÐµ ÑĪÐµÐ½Ð¸ÐµÐ¼
ĠÐ¿ÑĢ Ð¾ÐºÑĥÑĢÐ°
Ð³Ð° Ð·
ĠÐ¸Ð½ Ð´Ðµ
ÑĤÑĭ Ð²Ð°ÐµÑĤ
ÐºÐ¾Ð² ÑģÐºÐ¾Ð³Ð¾
ÐµÐº ÑģÐ¸
Ð¶Ð° ÐµÑĤÑģÑı
Ð¾ÑĢÐ¸ Ð¸
Ð¶Ð´ ÐµÐ½Ð¾
ĠÐ¤ Ð¾Ð½
ĠÐŁÑĢÐ¸ Ð¼Ð¾ÑĢ
ĠÐ¿Ð¾Ð¿ Ð°Ð»
ĠÐ²Ð¾Ð·Ð¼Ð¾Ð¶ Ð½ÑĭÑħ
ĠÐ¸Ð½ÑĦÐ¾ÑĢÐ¼Ð° ÑĨÐ¸Ð¾Ð½Ð½ÑĭÐ¹
ĠÐ¦ ÐµÐ»ÑĮ
ĠÐ±Ðµ Ð»Ð¾ÑĢÑĥÑģ
ĠÐĴÐ° ÑĪÐµÐ¼Ñĥ
ĠÐĿÐ¾Ð² ÑĭÐµ
Ð¿ÑĢÐµ Ð¶Ð½ÐµÐ¼Ñĥ
ĠÐĸ Ñĥ
ĠÐľÐ¾ÑģÐº Ð²Ñĥ
ĠÐ±Ð°Ð½ ÐºÐµ
ĠÐŀÑĤ Ð´Ðµ
ĠÐ¿Ð»Ð¾ ÑģÐº
ĠÐ¾Ð±ÑıÐ·Ð° ÑĤÐµÐ»ÑĮÑģÑĤÐ²Ð°
ĠÐ¢Ð° Ð¸
ĠW i
ĠÐ½ÐµÐ¿ Ð¾Ð½ÑıÑĤ
ĠÑģÐ»Ðµ Ð´Ð¸ÑĤÑĮ
ĠÐļÐ¸ ÐµÐ²Ð°
ĠÐ´Ð²Ð° Ð¶Ð´Ñĭ
ĠÐ¿ÑĢÐ¾ÑĤÐ¸Ð² Ð½Ð¸ÐºÐ°
ĠÐļÑĥ Ñħ
ĠÐĳÐ° ÑĩÐ¾Ðº
ĠÑģÐ½Ð¸ Ð·Ð¸
ĠÐºÐ¾Ð¼Ð°Ð½ Ð´Ðµ
ĠÑĥÑĤÐ²ÐµÑĢ Ð¶Ð´ÐµÐ½Ð¸Ñı
ĠÐľÐ°ÑĢ ÑĤ
ĠÐ¿ÑĢÐ¾Ð²ÐµÑĢ ÐºÑĥ
ĠÑģÐ¾Ñģ ÑĢÐµÐ´
ĠÐ¾Ð´Ð½Ð° Ð¶Ð´Ñĭ
ĠÐ¼Ð°ÐºÑģÐ¸Ð¼Ð° Ð»ÑĮÐ½Ð¾Ð¹
ĠÑģÑĤÑĢÐµ Ð»
ÐŁÐ¾Ð´ ÑĢÐ¾Ð±
ĠÑįÐºÑģÐ¿Ð»ÑĥÐ° ÑĤÐ°ÑĨÐ¸Ñİ
ĠÑģÐ¾Ð¾Ð±ÑīÐ¸ Ð»Ð°
ĠÑĦÐ¸ÑĢ Ð¼ÐµÐ½
ĠÐ²ÐµÑģ Ð½Ð¾Ð¹
ĠÐ¼Ð½Ð¾Ð³ Ð¾Ð¼
ĠÐ°Ð²Ð³Ñĥ ÑģÑĤÐµ
ĠÐ»ÐµÑģ Ð½Ð¾Ð³Ð¾
ĠÑģÐ¾Ð³Ð»Ð°Ñģ Ð¾Ð²Ð°Ð½Ð¸Ñı
ÑĢÐ¾ÑģÐ¸ Ð»Ð°
ĠÑģÐ¾ÑĤÑĢÑĥÐ´Ð½Ð¸ ÑĩÐµÑģÑĤÐ²Ð¾
ÐľÐµ Ð¶Ð´Ñĥ
ĠÐ·ÐµÐ¼Ðµ Ð»ÑĮÐ½ÑĭÑħ
ĠÐ¿Ð¾Ð´ÑĤÐ²ÐµÑĢÐ¶Ð´Ð° ÑİÑīÐ¸Ðµ
ĠÑĢÐ°Ð·Ð½Ð¾Ð¾Ð±ÑĢÐ°Ð· Ð½ÑĭÐµ
ĠÐ¿Ð¾Ð»Ð¾Ð²Ð¸ Ð½Ñĭ
ĠÑĢÐµÐ°Ðº ÑĨÐ¸Ð¸
ĠÑĢÐ°Ð´Ð¾ ÑģÑĤÑĮ
ĠÐ¿Ñĭ Ð»Ð¸
ĠÐ´Ð¾ÑģÑĤÐ¸Ð³Ð° ÐµÑĤ
ĠÐ½Ñĭ Ð½Ðµ
ĠÑģÐ¸Ð¼Ð¿ÑĤÐ¾Ð¼ Ñĭ
ĠÑĥÑħ ÑĥÐ´
ĠÐ²ÑĭÐ¿ Ð»Ð°ÑĤ
ĠÑĩÑĢÐµÐ·Ð²ÑĭÑĩÐ°Ð¹ Ð½Ð¾
ĠÐ°ÐºÑģÐµÑģÑģÑĥÐ° ÑĢÐ¾Ð²
ĠÐ¢ÑĥÐ»ÑĮ ÑģÐºÐ¾Ð¹
T V
Ġ z
Ð¾ ÑħÑĢÐ°Ð½Ð¸
Ðµ ÑĩÐ°
Ñģ Ð²ÐµÑĤ
ĠÐ¿ Ð¾ÑĢÐ¾
ĠÐ½Ð° Ð²
ĠÐ½Ð° Ð±Ð¸ÑĢÐ°
ÑĢÐ¸ Ð»Ð¸
ĠÐ¿ÑĢÐ¸ Ð·Ñĭ
ĠÐ¿ÑĢÐ¸ Ð¼ÐµÐ½Ð¸
Ð¼Ð° Ð½Ð¸Ñı
ĠÐŀ Ð¿ÑĤÐ¸
ĠÐŀ ÐŀÐĿ
ĠÐĶ ÐŃ
ÐŁ ÐłÐŀ
ÐĿ ÐµÐºÐ¾ÑĤÐ¾ÑĢÑĭÐµ
ÑĦÐ¸ Ñı
ĠÐ²Ð¸ Ð±ÑĢÐ°
Ð°Ð» Ð¾Ð³Ð¾Ð²
ĠÐ´Ð¸ Ð²Ð¸Ð·Ð¸
ĠÐ¿Ð¾Ð¼ Ð¸
ĠÐ±ÐµÐ· Ð´Ðµ
Ð³ÑĢÐ° Ð»Ð°
ĠÐ´Ð¾Ð»Ð¶ Ð½Ð¾ÑģÑĤ
ĠA ir
ÑĢÐµÐ´Ð¸ ÑĤÑĮ
ÑĢÐ¾Ð¿ Ð°Ð²Ð»Ð¾Ð²
ĠÐ¼Ñĥ Ð¼Ð¸
ĠP h
ĠÐºÐ»Ð° ÑģÑģÐµ
ĠÑģÐ¾Ð¾ÑĤÐ²ÐµÑĤ ÑģÑĤÐ²ÑĥÑİÑĤ
ĠÐ¿ÐµÑĢÐµÐ´ Ð²Ð¸
ĠÐ® ÑĢÐ¸Ð¹
ht ml
Ðĸ ÐĶ
ĠÐ¿Ð¾Ð± ÐµÐ´Ñĭ
ĠÐ»ÑİÐ±Ð¸ ÑĤÐµÐ»ÑĮ
ĠÐ¶ÐµÐ»Ð° Ð½Ð¸Ñİ
ĠÑĩÐ°ÑģÑĤÐ¸ ÑĩÐ½Ð¾
ĠÐ¼ÐµÐ´Ð¸ ÐºÐ°
ot e
ÐĿÐµ ÑģÐ¼Ð¾ÑĤÑĢÑı
ĠÐºÑĢÐ¸ ÑĤÐ¸
ĠÐ¿Ð¾Ð»ÑĥÑĩÐ° ÐµÑĤÐµ
ĠÑĤÐ¾ÑĢÐ³Ð¾Ð² Ð»Ñı
ĠÐ¿Ð¾Ð´Ð¾Ð± Ð½Ð¾Ðµ
ĠÑįÐ½ÐµÑĢ Ð³Ð¸
ĠÐ¾Ð¿Ð»Ð° ÑĤÐ¸ÑĤÑĮ
ĠÑĢÐ°Ð·Ð¼ÐµÑĢ Ð¾Ð¼
ĠÑĢÐ¾ÑģÑģÐ¸Ð¹ ÑģÐºÐ¸Ðµ
ĠÐ´Ð»Ð¸ Ð½Ð¾Ð¹
ĠÐ¾ÑĦÐ¾ÑĢÐ¼ Ð»ÐµÐ½Ð¸Ð¸
Ġb y
ĠÐ¿Ð¾Ð»ÐµÐ· Ð½ÑĭÐµ
ĠÑģÑĤÐ°Ð² Ð¾Ðº
199 8
ĠÐ´ÐµÑĢÐµÐ² ÑĮÐµÐ²
ĠÑĢÐµÑģÑĥÑĢ ÑģÑĭ
ĠÑģÑĤÐ°Ð½Ð´Ð°ÑĢ ÑĤÐ°Ð¼
ĠÐ¼Ð¸ÑĢÐ¾Ð² Ð¾Ð³Ð¾
ĠÐļÐ¾Ð» Ð»ÐµÐº
ĠÐ²Ð¾ÑģÑģÑĤÐ°Ð½Ð¾Ð² Ð¸ÑĤÑĮ
ĠÐ¾ÑĤÐ²Ðµ ÑĩÐ°
ĠÑģÐµÑĢÐ¸ Ð°Ð»
ĠÑĤÐµÐºÑĥ ÑīÐµÐ³Ð¾
ĠÐ·Ð²Ð¾Ð½ Ð¾Ðº
ĠÑĥÐºÐ°Ð·ÑĭÐ²Ð° ÐµÑĤ
ĠÐ¿Ð¾Ð²ÑĭÑĪÐµÐ½ Ð½Ð¾Ð¹
Ð¸Ð·Ð¾Ð»Ñı ÑĨÐ¸Ñı
ĠÑĥÐ´Ð¸ Ð²Ð»Ñı
ĠÐ±Ð°Ð¼ Ð¿ÐµÑĢ
ĠPl ay
ĠÐĳÐ¾Ð³Ð¾ÑĢÐ¾Ð´Ð¸ ÑĨÐºÐµ
ĠÐ¿ÑĢÐµÐ¼ ÑĮÐµÑĢ
ĠÐ¸Ð½ÑģÑĤÐ¸ÑĤÑĥ ÑĤÐ°
ĠÐ²Ð¾ÑģÐºÑĢÐµÑģ ÐµÐ½ÑĮÐµ
ĠÐĺÑģÐ¿Ð° Ð½Ð¸Ð¸
ĠÐ²ÐµÑĩÐµ ÑĢÐ¸Ð½
n er
ĠÑģ Ð½Ð¾
ĠÐ¾ Ð¶
ĠÐ´ Ð²Ð¾Ðµ
ĠÐ´ Ð¾Ð»ÑĮÑĪÐµ
ÑĨ Ð°ÑĢ
ÑĢÐ¸ ÐºÐµ
Ð½Ð° Ð¹
Ð½Ð° ÑĤÐ°
Ð²Ð° Ð½Ñĭ
ĠÐ¿Ð¾ ÑĪÐµÐ»
Ð´Ð° Ð²Ð½Ð¾
ĠÐ° Ð²Ð°Ð½
ĠÐ» Ð°Ðº
ĠÐºÐ° Ð»Ð¸
ĠÐĴ Ð¿ÑĢÐ¾ÑĩÐµÐ¼
ĠÐ¸Ð· Ð±Ñĭ
ĠÑĢÐ°Ð· Ð´Ð²Ð¸
Ð¡ ÑĢÐµÐ´
Ð¡ ÑĥÐ´
Ðŀ Ð½Ð¸
ÑīÐµ ÑģÑĤÐ²ÐµÐ½Ð½Ð¾
ĠÐ´Ð¾ ÑģÐºÐ°
ĠÐ´Ð¾ ÑĪÐºÐ¾Ð»ÑĮ
Ð¢ Ð¾Ð»ÑĮÐºÐ¾
ĠÐ£ Ð´Ð¾Ð±
ĠÐ£ Ð»ÑĮÑıÐ½Ð¾Ð²
ĠÐķ Ð³Ð¾ÑĢ
ĠÐ¤ Ð¾Ð½Ð°
ÑģÑĭ Ð»Ð°
er c
ĠÐ¶Ð¸ Ð»
ĠÐ¿Ð¾ÑĢ ÑĥÑĩ
ĠÑģÑĤÑĢÐ° Ð´Ð°
ĠÐ¥ ÐµÑĢ
ĠÐºÐ¾ÑĢ ÑĢÐ¾Ð·Ð¸
ÑĢÐ°Ð¶ Ð´Ð°Ð½
ĠÑģÑĢÐµÐ´ ÑģÑĤÐ²Ð¾Ð¼
ĠÐ²ÑĭÑģ Ð¾ÑĤÐ°
or y
Ð§ ÐĲ
ĠÐ´Ñĥ ÑĪ
ĠÐ»ÑĥÑĩ ÑĪÐµÐ¹
ĠÐ¿Ð¾Ð»Ð¸ ÑĨÐµÐ¹
ÑĤÑĢ Ð¾Ð¹
ĠÑģÐ¼ Ñģ
ĠÑĥÑģÐ»Ñĥ Ð³Ð°Ð¼Ð¸
ĠÐ¾ÑģÐ¾Ð± Ð¾Ðµ
ĠÐ²ÑĭÐ¿Ð¾Ð» Ð½ÑıÐµÑĤ
Ð¶ÐµÐ½ Ð½Ð¾ÑģÑĤÐ¸
ĠÐ½Ð°Ð¿ ÑĢÐ¾ÑĤÐ¸Ð²
ĠE l
ĠW ar
Ð±ÑĥÑĢ Ð³Ðµ
ĠÐ¼Ð½Ð¾Ð³Ð¸ Ð¼
Ðĸ ÐµÐ½
Ð´Ð¶ ÐµÑĤ
ĠÐ¶ÐµÐ»Ð° ÑİÑīÐ¸Ñħ
ÐĿÐŀ ÐĻ
ĠÐºÑĢÐ°ÑģÐ¸ Ð²ÑĭÐ¹
ĠÑĥÑĤÐ²ÐµÑĢ Ð¶Ð´ÐµÐ½Ð¸Ðµ
ĠÐºÐ°ÑĤÐµÐ³Ð¾ÑĢÐ¸ Ð¹
ĠÐ·Ð°ÐºÐ°Ð· Ðµ
ĠÐ¸ÑĤ Ð¾Ð³Ð¾Ð²
ĠÐ¿Ð¾Ð¶Ð° Ð»ÑĥÐ¹
ĠÐ¿Ð¾ÑĤÑĢÐµÐ± Ð½Ð¾ÑģÑĤÐ¸
ĠÑĢÐ°ÑģÐº ÑĢÑĥ
ĠÑĢÐ°ÑģÑĪÐ¸ ÑĢ
ĠÐ¼Ð¸Ð»Ð»Ð¸ Ð¾Ð½Ð°
ĠÑģÐ²Ðµ Ð¶Ðµ
ĠÐ°Ð¿Ð¿Ð°ÑĢÐ° ÑĤÐ¾Ð²
ĠÐ¾ÑĨÐµÐ½ ÐºÐ°
ĠÐ·Ð¾Ð» Ð¾ÑĤÐ¾
ĠÐ½Ð°Ð¿Ð¸ ÑģÐ°Ð½
ĠÐ¼Ð¾Ð½ ÐµÑĤ
ĠÑĢÐµÐ´Ð° ÐºÑĤÐ¸
Ð¾ÑĤÐ½Ð¾ ÑĪÐµÐ½Ð¸Ñı
ÑĢÐ°ÑĤÐ¸ ÑĤÐµ
ĠÐ¿ÑĢÐ¸Ð±Ð¾ÑĢ Ñĭ
ĠÑĤÑĢÐ°Ð½Ñģ ÑĦÐ¾ÑĢÐ¼Ð°
ĠÐ°Ð½Ð³Ð»Ð¸Ð¹ ÑģÐºÐ¾Ð³Ð¾
ĠÑģÐ¾Ñħ ÑĢÐ°Ð½ÐµÐ½Ð¸Ñı
ĠÐ¸Ð·ÑĥÑĩ ÐµÐ½Ð¸Ñı
ĠÐ²ÐµÐ´ ÐµÐ½Ð¸Ñı
ĠÐ²ÐµÐº Ðµ
ĠÐĺÑĤÐ° Ð»Ð¸Ñı
ĠÐ¾Ð±ÑīÐµÑģÑĤÐ² Ðµ
b l
Ð½ Ð¶
ĠÑģ Ð¾ÑĤÐ¾Ð²
ĠÑģ ÐºÑĥÐ»ÑĮÐ¿
Ð· Ð¾Ð¼
ĠÐ´ Ð¾ÐºÐ°
Ð»Ð¸ ÑģÑĤ
ĠÐ½Ðµ ÑģÐ¾
ÑĢÑĥ Ð¹ÑĤÐµ
Ð²Ð¸ Ð´Ñĥ
ÐĲ Ð»ÑĮ
ĠÐ¿ÑĢÐµÐ´ ÑĪÐµ
ĠÐĳ Ð¾Ð¶Ðµ
Ð¶Ð° ÐµÑĤ
Ð¢ Ð¾ÑĢ
ĠÑģÐ¸ Ð»Ð¸
ĠÐ¿ÑĢÐµ Ð¼Ð¸Ð¸
ĠÐĿÐ° Ð´
ĠÐĿÐ° Ð¿ÑĢ
ĠÐ±Ð¾Ð»ÑĮ ÑĪÐ¸Ð¼Ð¸
ÑĥÑģ Ð»Ñĥ
ĠÑįÐº ÑģÑĤÑĢÐµ
ĠÑģÐµÑĢ ÑĤÐ¸
ĠÐ¨ Ñĥ
ĠÐ¼ÐµÑĤ Ð¾Ð´Ð°
ÑģÑĤÐ²Ñĥ Ñı
ĠÐ¿Ð°ÑĢ ÐºÐ¾Ð²
ÑĮÑı Ð½
ĠI T
ÑĤÑĢ Ð¾Ð»
ĠÐ¾Ðº Ð½Ð¾
ĠÐŁÐ¾Ð´ Ð¾Ð±
ĠÑĪÐ° Ð±
ĠÐ¸Ð½ÑģÑĤÑĢÑĥ ÐºÑĨÐ¸Ð¸
ol l
ĠÐ²Ð¾Ð¿ÑĢÐ¾Ñģ Ð¾Ð¼
ĠÑĤÐµÑħÐ½Ð¸ ÐºÐµ
ĠÐ¾ÑĢÐ³Ð°Ð½Ð¸Ð· Ð¾Ð²Ð°ÑĤÑĮ
Ð²Ð°Ñİ ÑīÐµÐµ
ĠÐ²ÑĭÐ±Ð¾ÑĢ Ð¾Ð¼
ĠÐ´Ð²Ð¸Ð³Ð° ÑĤÑĮÑģÑı
ĠÐ¿Ð¾Ð´Ð³Ð¾ÑĤÐ¾Ð² ÐºÐ°
ĠÑĢÐ°ÑģÐ¿Ð¾Ð»Ð¾Ð¶ ÐµÐ½Ð¸Ðµ
Ð³Ð¾ÑĢÐ¾Ð´ ÑģÐºÐ¾Ð¹
ĠÐ²Ð½ÐµÑĪ Ð½ÐµÐ¹
ĠÑĢÐ°Ð² Ð½Ð¾Ð¼ÐµÑĢ
ĠÑĥÐº ÑģÑĥ
ĠÐ±Ð»Ð°Ð³ Ð¾Ð¿Ð¾Ð»
ĠÐµÐ¶Ðµ Ð³Ð¾Ð´
ĠÑģÑĤÑĢÐ°ÑħÐ¾Ð² Ð¾Ð¹
ĠÐ±ÑĢÐµÐ½ Ð´Ð¾Ð²
ĠÐ³Ð¸Ð¿ ÑģÐ¾ÐºÐ°ÑĢ
ĠÐĿÐ¾Ð²Ð¾ÑģÐ¸Ð±Ð¸ÑĢ ÑģÐº
ĠÐ¾ÑĤÐ¼ÐµÑĩÐ° ÐµÑĤÑģÑı
ĠÐºÐ°Ð±Ðµ Ð»Ñı
ĠÐ¸ÑģÐ¿Ð¾Ð»Ð½Ð¸ÑĤÐµÐ»ÑĮ Ð½Ð¾Ð¹
ĠÐ²ÐµÑĤÐµ ÑĢÐ¸Ð½Ð°
ĠÐ¼ÑĥÐ·Ðµ Ñı
2 30
A C
Ñģ Ð½Ñı
Ðº Ð¾Ð¿
ĠÐ¾ Ð»Ð¸Ð²
ĠÐ¾ Ð»Ð¸Ð¼Ð¿Ð¸
Ñİ ÑīÐµÐ¼Ñĥ
ĠÐ¼ Ð¾Ðº
Ð»Ð¸ Ð¿
Ð»Ð° Ð´ÐµÐ»ÑĮ
Ð¾ÑĤ ÐºÐ¸
ÑĤÐ¸ Ð½Ð¾Ð²
ĠÐ¿ÑĢÐ¸ Ð´
ĠÐ¿ÑĢÐ¸ Ð²Ðµ
ĠÐ¡ ÑĢÐ¾Ðº
Ð²Ð¸ Ð¶Ð¸Ð¼Ð¾ÑģÑĤÑĮ
ÑģÐ¸ ÑĤÐµ
ĠÐļ Ðµ
ĠÐ¸Ð· Ð»Ð¸
ĠÐ¿Ð¾Ð´ ÑĬÐµÐ¼
ĠÐĶ Ð¶Ð°
ĠÐĲ Ð½Ð°Ð»Ð¸
Ð¿Ð¸ ÑģÑĭ
ĠÐ¼Ðµ Ð»ÑĮ
ĠÑģÑĤÐ° ÑĢÐ¸Ð½
Ð¢ Ð¾
Ð²ÐµÑĢ ÑħÑĥ
ĠÑģÑĥ Ð¿Ð¿
Ðĳ Ð»Ð°Ð³Ð¾Ð´Ð°ÑĢÑı
ĠÐ½Ð¾Ð² Ð¸Ð½
ÑģÑĥ ÐµÑĤ
ĠÐ¿Ð¾ÑĢ Ð¾Ð´Ñĭ
ĠÑģÑĤÑĢÐ° Ð½Ð¸ÑĨ
Ð±Ð¾ÑĢ ÐºÐ°
ĠÐºÐ¾Ð¼Ð¿ ÐµÑĤ
ĠÐ²Ð¾Ð·Ð¼Ð¾Ð¶ Ð½Ð°
or k
ĠÑģÐ¾Ð·Ð´Ð° Ð½Ñĭ
Ð½ÑĥÑĤ ÑĭÐ¹
ĠP DF
ĠÐºÐ»Ð° Ð´
ĠÐ»ÑĥÑĩ ÑĪÐµÐ³Ð¾
ĠÐĿÐ¾Ð² Ð¾
ĠÑĥÑģÑĤÐ°Ð½Ð¾Ð² ÐºÑĥ
Ð»Ð°Ð½ Ð´Ð¸Ñı
ĠÐºÐ¸ Ð»
ĠÑģÐµÐº ÑģÐ¾Ð¼
Ð¦ ÐµÐ½Ð°
Ð°Ð² ÑĤÐ¾Ð¼
ĠÐ³Ð»Ð°Ð² Ð½Ð°Ñı
ĠÐ»Ð° Ð³ÐµÑĢ
ĠÐ·Ð°Ð± ÑĥÐ´
ĠÐ²ÑĤÐ¾ÑĢ ÑĥÑİ
Ġc h
ĠÐ³Ð¾ÑĤÐ¾Ð² ÑıÑĤ
ĠÐĶÐ¸ Ð°Ð¼ÐµÑĤÑĢ
ĠÐ¼Ð¸Ð½ÑĥÑĤ Ñĥ
ĠÑĢÐ°Ð´Ð¸ ÐºÐ°
ĠÐ¾Ñħ ÑĢÐ°Ð½
ĠÐ²Ð½ÐµÑĪ Ð½Ð¸Ñħ
ĠÑĢÐ°Ð·ÑĢÐµ ÑĪÐµÐ½Ð¸Ðµ
ĠÐ¶Ð¸Ð²Ð¾ÑĤ Ð½ÑĭÐµ
ĠÑĢÐ°Ð±Ð¾ÑĩÐ¸ Ðµ
ĠÐŁÐµÑĤ ÑĢÐ°
ĠÐ½Ð°Ð» Ð¾Ð³Ð°
ĠÐ¿ÑĢÐ¾Ð³ Ð½
ĠÐ²ÑĭÐ¸ Ð³ÑĢÐ°ÑĤÑĮ
ĠÑģÑĤÑĢÐ¾ Ñı
ĠÑģÐ¾ÑĩÐµÑĤÐ° Ð½Ð¸Ð¸
ĠÐ½ÐµÑĥ Ð´Ð°
ĠÑĢÐµÐ³Ð¸Ð¾Ð½Ð° Ñħ
ĠÐ¨Ð¸ ÑĢÐ¸Ð½Ð°
ĠÑģÐ½Ð¸Ð¼Ð° ÑĤÑĮ
ĠÐºÐ¾Ð½ÑĤÑĢÐ° ÐºÑĤ
ĠÐĹÐ½Ð° ÐºÐ¾Ð¼
ĠÐºÐ¾ÑĢÐ¾Ð± ÐºÐ¸
ĠÐ§ÐµÐ¼ Ð¿Ð¸Ð¾Ð½Ð°
ĠÐ¡ÐŁ Ð±
ĠÐ¸ÑģÐ¿Ð¾Ð»Ð½ ÐµÐ½Ð¸Ð¸
ĠÐ·Ð°ÐºÐ°Ð·ÑĩÐ¸ ÐºÐ°
ĠÐ¿ÑĢÐ¸Ð½Ð°Ð´Ð»Ðµ Ð¶Ð½Ð¾ÑģÑĤÐ¸
Ð½Ð°Ð´ÑĨÐ° ÑĤÑĮ
ÑĨÐ¸Ðº Ð»Ð¾Ð¿
ĠÐľÐ¾Ð»Ð´Ð¾Ð² Ñĭ
ĠÐºÐ¾ÑĢÐ·Ð¸ Ð½Ñĥ
ĠÐ½ÐµÑģÐ¾Ð²ÐµÑĢÑĪÐµÐ½ Ð½Ð¾Ð»ÐµÑĤ
E T
i um
ÑĤ ÐµÑĤÐ¸
Ðº Ð³
Ð² ÑĳÑĢ
Ð´ Ð¾Ð²Ð°ÑĤÑĮ
Ð¾ÑĢ Ð¾Ð¶Ð´
ÑĪ Ð½ÑĭÑħ
ĠÑĥ ÐºÐ»Ð°Ð´Ñĭ
Ð²Ð° ÐºÑĥ
ĠÐºÐ° Ð±
ĠÐŁ ÑĢÐ°ÐºÑĤÐ¸
ĠÐŁ Ð¾ÐºÑĥÐ¿Ð°
ĠÐ²Ñĭ Ð¿Ðµ
Ð¾Ð¿ Ð¾
ĠÐ¿ÑĢÐ¾ ÑıÐ²
ĠÑĦ Ð¾Ð»ÑĮ
Ð°Ð½ Ð³
ĠÐ¼Ð° Ð½Ð¸
Ð¡ Ðĺ
Ð¡ Ð²ÐµÑĤ
ĠÐł Ð¾Ð¶Ð´Ðµ
Ð½Ð¸Ñı Ð¼Ð¸
ÐĴ Ð½Ð¸Ð¼Ð°Ð½Ð¸Ðµ
ĠÐ¢ ÐµÐ¼Ð°
Ð»ÐµÐ½ Ð½Ð¾Ð¼
ĠÑģÑĤÐ° Ð²Ð¸ÑĤÑĮ
ĠÐ¼Ð¾Ð¶ ÐµÑĪÑĮ
Ð±Ð¾ ÑĢÐ°Ñħ
Ð±Ð¸ Ð¾ÑĤÐ¸
ĠÑĢÑĥ Ð»ÐµÑĤ
ĠÐ¤ ÐµÐ²ÑĢÐ°Ð»ÑĮ
ĠÐ·Ð½Ð° Ð½Ð¸Ðµ
ĠÐ¶Ð¸ ÑĤÐµÐ»ÑĮÑģÑĤÐ²Ð°
ĠÑĢÐ°Ñģ ÑģÐµ
ĠÑģÐ° Ð¶ÐµÐ½
or r
ĠÑĨÐµ Ð¿Ð¸
ĠÐ¿ÑĢÐ°Ð² Ð¾Ð¼
ĠÐ¿Ð¾Ð»ÑĥÑĩÐ¸ ÑĤ
ĠÑģÐµÐ¼ Ð¸
ĠÐ³ÑĢÐ° Ð¼Ð¼
ĠL e
Ð¿Ð¾ ÑģÑĤÑĮ
ĠÑģÐºÐ° ÑĩÐ¸
ĠÑģÑĤÐ¸ Ð»Ñı
ĠÐ¿Ð¾Ð»ÑĮÐ·Ð¾Ð²Ð° ÑĤÐµÐ»ÑıÐ¼
ĠÑģÐ¿ÐµÑĨÐ¸Ð°Ð»ÑĮ Ð½Ð¾ÑģÑĤÐ¸
ĠÑģÐ¿ÐµÑĨÐ¸Ð°Ð»Ð¸ ÑģÑĤÐ°Ð¼Ð¸
ĠÐ²ÑĢÐ° ÑĩÐµÐ¹
ĠÐ¿ÑĢÐ¾ÐµÐºÑĤ Ñĥ
ĠÐ´ÐµÐ½Ðµ Ð¶Ð½ÑĭÐµ
ĠÐľÐ°ÑĢ ÑģÐ¸
ĠÑĥÑĩÐµÐ± Ð½Ð¾
ĠÐ·Ð°Ð¿ ÑĩÐ°ÑģÑĤÐµÐ¹
ĠÐ³Ð°ÑĢÐ°Ð½ ÑĤÐ¸Ð¸
Ġa b
ĠÐ¿Ð»Ð°Ð½Ð¸ ÑĢÑĥÐµÑĤ
ĠÐ´ÐµÑģÑı ÑĤÐºÐ¸
ĠÐ¾ÑĪÐ¸Ð± Ð¾Ðº
ĠÐ»Ð¸ÑĤÐµÑĢÐ° ÑĤÑĥÑĢÐ°
ĠÐ°ÑĢÐµÐ½ Ð´Ð°
ĠÑĥÑģÐ¸Ð»Ð¸ Ð¹
ĠÐłÑĥÑģ ÑģÐºÐ¸Ð¹
ĠÐ¿ÑĥÑĤÐµÑĪÐµ ÑģÑĤÐ²Ð¸Ñı
ĠÐ¿Ð¾Ð·Ð´ Ð½Ð¾
ĠÑģÐ¾Ð¿ÑĢÐ¾Ð² Ð¾Ð¶Ð´Ð°
ĠÐ±Ð°ÑĤÐ°ÑĢÐµÐ¹ Ð½ÑĭÑħ
ĠÐ¿ÑĤÐ¸ ÑĨÑĭ
ĠÐ¿ÑĢÐ¸Ð¾Ð±ÑĢÐµÑĤ ÐµÐ½Ð¸Ñı
ĠÐ²Ð½ÐµÑģ ÐµÐ½Ð¸Ð¸
ĠÐ·Ð°Ð¼ÐµÑĤÐ¸ ÑĤÑĮ
ĠÑĦÐ¸Ð³Ñĥ ÑĢÑĭ
ĠÐ¸Ð¼Ð¿ Ð¾ÑĢÑĤ
ÐŃÐº ÑģÐ¿
ĠÐ£Ð½Ð¸Ð²ÐµÑĢ ÑģÐ¸ÑĤ
n a
v i
ĠÐ² Ð½Ð¾
Ñĩ ÑĮÐµ
Ð¾Ð² ÑģÐºÐ¸Ð¹
Ð¾Ð» ÐµÐ½
Ð¾Ð´ Ð½Ð¾Ð³Ð¾
ĠÐ¼ Ð¾Ð»Ð¸
ÑĦ ÑİÐ¼Ðµ
Ð»Ñı ÑĤ
ĠÐŁ Ð»Ð°Ð½
ĠÐ¿ÑĢÐ¾ ÑģÑĤÐ°ÑĤÐ¸
ĠÐŀ ÐŁ
ĠÐŀ Ð»ÐµÐ³
ĠÑĢÐ°Ð· Ð¾ÑĩÐ°
Ð³Ð¸ Ð±Ð°
ĠÐ¿Ð¾Ð» Ð½Ð°Ñı
ĠÐĳ Ð¾Ð±
ĠÐ´Ðµ Ñı
ĠÑģÐ¿ Ð»Ð¾
ĠÐĹ Ð¸Ð¼
ĠÐ´Ð° Ð²Ð°ÑĤÑĮ
ĠÐĽ ÐµÑĤ
ĠÐ¿Ð° Ñĥ
ÑģÑģÐ¸ Ñİ
ĠÑģÐ»Ñĥ Ð¶Ð¸ÑĤÑĮ
ĠÐ¿Ð¾Ð² Ð»Ð¸Ñı
ĠÐ°Ðº Ð²Ð°
ÑĢÐ°Ð¶ ÐµÐ½Ð¸Ðµ
ÑĢÐ°Ð»ÑĮ Ð½Ð¾Ð¼
ĠÐ´Ñĥ ÑĪÑĥ
ĠÐ°Ð´ Ð²Ð¾ÐºÐ°
ĠH y
ĠÐ°Ð²ÑĤÐ¾Ð¼Ð¾Ð±Ð¸ Ð»ÑĮÐ½ÑĭÑħ
ĠÐ²Ð½Ðµ Ð·Ð°Ð¿
ĠÐ²Ð¾Ð´ Ð¾ÑģÐ½Ð°Ð±
ĠÐ»Ð° ÑĢÐ¸
Ð¡Ð¢ Ð¬
ĠÑĥÑĩÐ¸ ÑĤÐµÐ»ÐµÐ¹
ĠÐ½Ð°ÑĢÑĥ ÑĪÐµÐ½Ð¸Ð¹
ĠÐ¡Ð¸ Ð±Ð¸
ĠÐ½Ð°ÑĩÐ¸Ð½Ð° ÑİÑīÐ¸Ñħ
ĠÐ²ÑĭÐ±Ð¾ÑĢ Ñĭ
ĠÐ¼Ð¸Ð½Ð¸ ÑģÑĤÑĢÐ°
ĠO p
ĠÐºÑĢÐ°Ñģ Ð½ÑĭÐ¹
ÑģÐµÑĢ Ð²Ð¸
ĠÑĤÑı Ð¶
ĠÐºÑĢÐµ Ð°
ĠÑĤÑĢÑĥÐ´ Ð½Ð¾ÑģÑĤÐ¸
ĠÐ³Ðµ Ð¾Ð¼ÐµÑĤÑĢÐ¸
ĠÐ¿Ð¾Ð»Ð¾Ð¶Ð¸ ÑĤÑĮ
ov er
ĠÑĦÐ¾ÑĢÐ¼Ð¸ ÑĢÐ¾Ð²Ð°Ð½Ð¸Ðµ
ĠÑģÐ½Ðµ Ð³
ĠÑģÐµÑĢÑĮÐµÐ· Ð½Ð¾
ĠÐºÐ¾Ð¼Ð¼ÐµÐ½ÑĤÐ° ÑĢÐ¸Ð¹
ĠÐ¼ÑĭÑĪ ÑĨ
ĠÑĥÑĩÑĢÐµÐ¶Ð´ÐµÐ½Ð¸Ñı Ñħ
ĠÑĥÐ¿Ð°ÐºÐ¾Ð² ÐºÐ¸
ĠÐ²Ð¾Ð² ÑĢÐµÐ¼Ñı
ĠÐ¿Ð¾Ð±Ðµ Ð´Ñĥ
ĠÐ¾Ð²Ð¾ ÑīÐ¸
ĠÐĲÐ½Ð³ Ð»Ð¸Ð¹ÑģÐºÐ¸Ð¹
ĠÑĤÑĢÐµÐ½ ÐµÑĢ
ĠÑģÐµÑĢÐ´Ðµ ÑĩÐ½Ð¾
ĠÐ¿Ð¾Ð´ÐµÐ»Ð¸ ÑĤÑĮÑģÑı
ĠÐŀÑĢÐ³Ð°Ð½Ð¸ Ð·Ð°ÑĨÐ¸Ñı
ĠÐ»Ð¸ÐºÐ²Ð¸ Ð´Ð°ÑĨÐ¸Ð¸
ĠÐºÐ¾ÑįÑĦÑĦÐ¸ÑĨÐ¸ ÐµÐ½ÑĤ
Ġ ad
ÑĤ ÑĢÑĭ
Ñģ Ð»Ð¾Ð¹
Ñı ÑīÐ¸Ñħ
ÑĪ ÐºÐ¾
Ð»Ð¸ Ñİ
ÐµÐ¼ ÐµÐ½ÑĤ
ÑĨÐ¸ Ð´
ĠÐ·Ð° ÑıÐ²Ð»Ñı
ĠÐ° Ð½Ð¸Ð¼Ð°
ĠÐ» ÑĥÐº
ĠÐ¡ Ð¸Ð½
Ð·Ð° Ñħ
ĠÑĢÐµ Ð»ÑĮÐµ
ÑĥÑİ ÑīÐ°Ñı
ĠÑĦ Ð¸Ð·
Ð¼ÐµÐ½ ÑĤÐ¸ÑĢÐ¾Ð²Ð°
Ð¡ Ð»ÐµÐ´
Ð¾Ð´Ð¸ ÑĤÑĮ
ĠÐ¿Ð¾Ð» Ð¸ÑĤ
ĠÐ¸Ð½ Ð¾Ð¼
ĠÐ»Ð¸ ÑĩÐ½Ð¾ÑģÑĤÑĮ
ĠÐĵ Ð¾Ð½
ĠÐ»Ñİ Ð±Ð°Ñı
ĠÑĪ ÑĤÐ¾ÑĢ
ĠÐ¸ÑģÐ¿ Ð°Ð½
ĠÐ»Ðµ ÑģÐ°
Ð»Ð¸Ñĩ Ð½ÑĭÐµ
ĠÑģÐ° Ð¿
ĠÑģÐ»ÑĥÑĩÐ° Ñı
ÑħÐ¸ Ñħ
ĠÑģÐ¾Ð·Ð´Ð° ÑİÑĤ
Ð¨ Ðĺ
ĠÐ¾ÑĤÐºÑĢÑĭ Ð»
ĠÐ¾ÑģÐ¾Ð± ÑĭÑħ
ĠÑģÐµÐ¼ ÑĮÑİ
ĠÐ´Ð¾Ð± ÑĢ
ĠÑĥÐ¿ÑĢÐ°Ð² Ð»ÐµÐ½Ð¸ÐµÐ¼
ĠÐ¿ÑĢÐ¾Ð±Ð»ÐµÐ¼ Ð¾Ð¹
ĠÐ²ÑĤÐ¾ÑĢ Ð¾Ðµ
ĠÑĥÐºÐ°Ð·Ð° Ð½Ð°
ĠÐ¾ÐºÐ°Ð·Ð° ÑĤÑĮÑģÑı
ĠÐ¾Ð¿ÐµÑĢÐ° ÑĤÐ¸Ð²Ð½Ð¾
ĠÐ½Ð°ÑĩÐ¸Ð½Ð° ÑĤÑĮ
ĠÑĢÐ¾Ð´Ð¸ Ð»ÑģÑı
ĠÑģÑĥÐ´ Ð¾Ð²
ĠÐºÑĥÐ»ÑĮ ÑĤÑĥÑĢÐ°
ĠÐ¿Ð¾Ð½Ð¸Ð¼Ð° Ð½Ð¸Ðµ
ĠÐºÑĢÑĭ Ð»Ð¾
ĠÐ²Ð½ÐµÑĪ Ð½ÐµÐ³Ð¾
ÐµÑĪÑĮ ÑģÑı
ĠÐĽÐµ Ð¾Ð½Ð¸
ĠÐ¼Ð¾Ð»Ð¾Ð´ ÑĭÐµ
ĠÐŁÑĥ ÑģÑĤÑĮ
ĠÑģÐ°Ð¼Ð¸ Ñħ
ĠÐ¾ÐºÐ°Ð·ÑĭÐ²Ð° ÑİÑĤ
ĠÐ¾Ð±ÑĬÑıÑģ Ð½Ð¸ÑĤÑĮ
ĠÐ¿ÑĢÐ¾ÑĨÐµÐ´Ñĥ ÑĢ
ĠÐ»Ð¾Ð¶ ÐºÐ¸
ÐŁÐµÑĢ Ð²ÑĭÐ¹
ĠÐºÐ¸Ð½Ð¾ ÑĤÐµÐ°ÑĤ
ĠÐ¿Ð¾Ð´Ð´ÐµÑĢÐ¶Ð¸ Ð²Ð°ÑĤÑĮ
ĠÐĴÐµÑĢ ÑħÐ¾Ð²
ĠÑģÐµÑĢÐ¸ Ð°Ð»Ñĭ
ĠÐŁÐ¾Ð»Ð¸ ÑĤÐ¸ÐºÐ°
ĠBl ack
ĠÐ±ÑĢÐ¾ ÑģÐ°
ĠÐ·Ð°Ð¼ÐµÑĤ Ð½Ð¾
ĠÐ·Ð°ÐºÐ° Ð·Ñĭ
ĠÐ¼Ð¾Ð»Ð¾Ð´Ðµ Ð¶Ð¸
ĠÐ¿Ð¾Ð¿ÑĭÑĤ ÐºÐ¸
ĠÐ½ÐµÐ½Ð° Ð²Ð¸
ĠÐľÐ°Ñģ ÑģÐ°
ĠÐ±Ð°Ð»Ð°Ð½ Ñģ
ĠÐ¿Ð¾ÑĤÐµÐ½ÑĨÐ¸ Ð°Ð»
ĠÐ³Ð°Ð¹ Ð¼
ĠÑıÐº Ð¾Ð±Ñĭ
B O
Ð» Ð¾ÐºÐ°
Ðº ÑĤÐ¾
Ð² ÑĪÐµÐ¼
ÑģÑĤ ÑģÑı
ĠÑģ Ð²Ð°ÑĢ
ÑĢÐ° Ð²Ð°
ĠÐº Ðµ
Ñİ ÑĢÐ¸
ÑĤÐ° Ð»ÐºÐ¸
ĠÐ± Ð»Ð¾Ð½Ð´Ð¸Ð½
ĠÑĥ ÑĤÐ¸Ð»Ð¸
ÑĤÐ¸ ÑĩÐµÑģÐºÐ°Ñı
ĠÐ·Ð° Ð»Ð¾Ð¶
ĠÑĢÐ° Ð½Ð¾
Ð¾Ð½ Ð½ÑĭÑħ
Ð¾Ðº Ñģ
ĠÐ¿ÑĢÐ¸ Ð¾ÑĢÐ¸ÑĤÐµÑĤ
ĠÐµ Ð´Ñĭ
ĠÐļ Ð¾ÑĤ
ĠÐļ Ð²Ð°ÑĢÑĤÐ¸
Ð³Ð¾ ÑĢÐµ
ĠÑĤÐµ ÑĢÐ°Ð¿ÐµÐ²
ĠÐŀ ÑĢÐ¸
ĠÐ¼Ð° ÑģÐºÐ°
ÐºÑĥ Ð¿Ð°
ÐĴ ÐķÐł
ÑĥÑĤ ÑģÑı
ĠÑħ ÑĢÐ°Ð¼
ĠÐ´Ð¾ ÑģÑĤÐ°Ð²Ð»Ñı
Ð´Ñĥ ÑīÐ¸Ð¹
ÑĪÐ° Ð»Ð°
ĠÑĤÐ¾ ÑĩÐµÐº
ĠÐ¿Ð¾Ñģ Ð¾Ð²ÐµÑĤ
ĠÑĪ Ð¾ÐºÐ¾Ð»Ð°
ĠÐ¿Ð¾Ð¼ Ð½Ñİ
ĠÐ§ ÐµÑĢÐµ
Ðĵ Ðł
ÑģÑĤÐµ ÑģÑĤÐ²ÐµÐ½Ð½Ð¾
ĠÐ½ÑĥÐ¶ Ð½ÑĥÑİ
ĠÐ¼Ñĥ Ð¶Ð°
ĠÐ¿ÑĢÐ°Ð²Ð¸ Ð»ÑĮÐ½ÑĭÐ¹
Ð¼ÐµÑĤ ÑĢÐ¸
ĠÑĢÐµÐ³Ð¸ ÑģÑĤÑĢÐ¸
ĠÐ¿Ð°ÑĢ Ð½Ñı
at ch
ĠÐºÐ»Ð¸ ÐµÐ½ÑĤÑĭ
ĠÑģÐ¾Ð¾ÑĤÐ²ÐµÑĤ ÑģÑĤÐ²Ð¸Ðµ
ĠÐ´ÑĢÑĥÐ³ Ð¾Ð¼Ñĥ
ĠÑģÐµÐ¼ ÐµÐ½Ð°
ĠÑĥÐ¿ÑĢÐ°Ð² Ð»ÑıÑĤÑĮ
17 0
ĠÐ·Ð°ÑīÐ¸ ÑīÐ°ÐµÑĤ
Ð±Ð»Ð¸ Ð·Ð¸
ĠÐ²ÑĤÐ¾ÑĢ Ð½Ð¸Ðº
ĠÑģÑĩÐ¸ÑĤÐ° ÑİÑĤÑģÑı
Ð½ÐµÐ½ Ð½ÑĭÐµ
ot a
ĠÐĳÐ° Ð»Ð°
ĠÐ·Ð°Ð½Ñı ÑĤÐ¸Ðµ
ĠÑĤÐµÑħÐ½Ð¸ ÑĩÐµÑģÐºÐ¾Ð¹
ĠÑĢÐµÐ³Ñĥ Ð»Ñı
ĠÐ¼Ð¸Ð½Ð¸ ÑģÑĤÑĢ
ĠÐ´Ð¾Ð¿Ð¾Ð»Ð½Ð¸ÑĤÐµÐ»ÑĮ Ð½ÑĭÐ¹
ĠÐ½Ð¸Ð· ÐºÐ¸Ð¼
ĠÐ²ÐºÑĥ ÑģÐ¾Ð¼
ĠÐºÑĢÑĥ ÑĤÑı
ĠÐ¸Ð³ÑĢÐ° ÑİÑĤ
ĠU n
ĠÐ¸Ð½Ð´Ð¸Ð²Ð¸Ð´ÑĥÐ°Ð»ÑĮ Ð½Ð¾Ð³Ð¾
ĠÐ¿Ð¾Ð¿Ð° Ð´Ð°
ĠÐ¿ÑĢÐ¾Ð´Ð¾Ð»Ð¶Ð° ÐµÑĤÑģÑı
ĠÐºÐ¾Ð¼ÑĦÐ¾ÑĢ ÑĤÐ°
ĠÐ½Ð¾Ñģ Ð¸ÑĤÑĮ
ĠÐ¼ÐµÐ» ÐºÐ¸Ñħ
Ð¾Ð¿ÑĢÐ¸ Ð¼ÐµÑĩÐ°
ĠÐļÑĥÑĢ Ñģ
ĠÑĤÑĥÑĢÐ¸ ÑģÑĤÐ¾Ð²
ĠÑĤÑĢÐµÐ½Ð¸ ÑĢÐ¾Ð²ÐºÐ¸
ĠÐ·Ð°Ð¿ÑĢÐ¾ ÑģÑĥ
Ð¾Ð²Ñĭ Ð²Ð¾Ð·
ĠÑģÐ´Ðµ Ð»Ð¾Ðº
ĠÐ¿Ð»Ð¸ ÑĤÐºÐ¸
ĠÐ¿Ð¾ÑĢÐ°Ð¶ ÐµÐ½Ð¸Ñı
ĠÑģÐ»ÐµÐ´Ð¾Ð²Ð° ÑĤÐµÐ»ÑĮÐ½Ð¾
ĠÐľÐµÐ´ Ð²Ðµ
ĠÐºÐ¸Ð»Ð¾Ð¼ ÐµÑĤÑĢÐ¾Ð²
ĠÐŀÐ±Ð¾ÑĢ ÑĥÐ´Ð¾Ð²Ð°Ð½Ð¸Ðµ
ĠÐ¸Ð·Ð½Ð°ÑĩÐ° Ð»ÑĮÐ½Ð¾
y a
Ð° Ð»Ðµ
Ð° Ð´Ð°
ÑĢ Ð¾Ð¶
ĠÐ¿ Ð¾Ð¹Ð´ÐµÑĤ
ÑģÑĤ Ð¾ÑĢ
ĠÑģ Î¿
ĠÑģ Ð´Ð²Ð¸
ÑĢÐµ Ð·Ñĭ
Ñİ Ð¼
ÑĪ ÑĳÐ»
ĠÐ½Ð° ÑĪÐµÐ»
ÑĢÐ¸ ÐºÑģ
ĠÑĥ Ð±ÑĢÐ°ÑĤÑĮ
ÑĢÐ¾ ÑĩÐ½ÑĭÐµ
ĠÐ·Ð° Ð¿ÑĢÐ°Ð²
ĠÐ·Ð° ÐºÐ°Ð·ÑĭÐ²Ð°
Ð¾Ð½ Ð³
Ð¾Ð½ Ð¾Ð¼
ĠÐ¾Ð± Ð¾Ð±
ĠÐĴ Ð¾ÑĢ
Ð´Ð¸ Ðº
ÑīÐ¸ ÑĤÐµ
ĠÐ¿Ð¾Ð´ Ðµ
ĠÐ¼Ð° Ð³Ð¸ÑģÑĤÑĢÐ°
Ðŀ Ð½Ð°
ÐĴ ÐµÐ»Ð¸
ĠÑħ Ð¾ÑĤÐ¸Ð¼
ĠÑģÑĤÐ° Ð²Ð¸
ĠÐ¾Ð¿ Ð¾ÑĢ
ĠÐ½Ð¸ ÐºÐ¾Ð³Ð¾
ÑħÐ¾Ð´Ð¸ Ð»
Ð¾Ñĩ ÐºÐµ
ĠÐĿÐ° Ð±Ð¾ÑĢÑĭ
ĠÑģÐ»Ñĥ Ð¶ÐµÐ±
ĠÐ¿Ð¸ Ð³
Ð²Ð¾ Ð½Ð¸ÑĤÐµ
ĠÐ¥ Ð¾
ĠÐ´Ð°Ð½ Ð½Ð°Ñı
ĠÐ´ÐµÑĤ ÑģÐºÐ°Ñı
en g
ĠÑģÐ¾Ð¾Ð± ÑīÐ°ÐµÑĤÑģÑı
ĠÐ³ÑĢÐ° Ð½Ð¸ÑĨ
ĠÑĤÑĢÐ°Ð½ Ð·Ð¸
ĠÐ½Ð°Ð´ Ñĳ
ĠÐ°Ð²ÑĤÐ¾Ð¼Ð° ÑĤÐ¾Ð²
ĠÐłÐµ ÑĨÐµÐ¿
ĠÐ³Ð¾ÑĤÐ¾Ð² Ð¸ÑĤÑĮ
ĠÐ¶Ð¸Ð² Ð¾Ð¿Ð¸
ĠÐ²Ð°Ð¶ Ð½Ð¾Ðµ
ĠÑĥÐ´Ð¾Ð± Ð½Ð¾Ðµ
ĠÑģÐ°Ð¹ÑĤÐ° Ñħ
ĠÐ¸ÑģÐºÐ»Ñİ ÑĩÐµÐ½Ð¸Ñı
ĠÐºÑĢÐ°ÑģÐ¸ Ð²Ð°Ñı
ĠÐºÑĢÐ°ÑģÐ¸ Ð²Ð¾Ð¹
ĠÐ´Ð¾Ð¿Ð¾Ð»Ð½Ð¸ÑĤÐµÐ»ÑĮ Ð½Ð¾Ð¹
ĠÐ´Ð²Ð¸Ð³Ð° ÑĤÐµÐ»ÐµÐ¹
ĠÐ¿Ð¾Ð´Ð° ÑĤÑĮ
ĠÑģÐ¸ÑĤÑĥÐ° ÑĨÐ¸Ð¹
ĠÐ½Ð°Ñĥ ÑĩÐ¸
ĠÐ¼Ð¾Ñī Ð½Ð¾ÑģÑĤÑĮÑİ
ĠÑģÐµÑĢÐ²Ð¸ ÑģÑĭ
ĠÑĥÐ²Ð¸ Ð´Ð¸ÑĤÐµ
ĠÐ·Ð°Ð¿ Ð¾Ð¼
ÐĿÐĲ Ð¡
ĠÑģÑĤÑĥÐ´ ÐµÐ½ÑĤ
ÐºÐ²Ð¸ Ð·Ð¸
ĠÑĤÑĢÐ°Ð½ÑģÐ¿Ð¾ÑĢÑĤ Ð½ÑĭÑħ
ĠÐºÐ½Ð¾Ð¿ ÐºÐ¸
ĠÐ¿ÑıÑĤ Ð½Ð°
ĠÐ¿Ð¾Ð´Ð¿Ð¸ ÑģÑĮ
ĠÐ±Ð°Ð½ÐºÐ¾Ð² ÑģÐºÐ¾Ð¹
ÐĿÐ« Ð¥
ĠÐ¡ÐµÐ²ÐµÑĢ Ð¾
ĠÐ´Ð¸Ð°Ð³Ð½Ð¾ÑģÑĤÐ¸ ÐºÐ¸
ĠÐ¿ÑĢÐµÐ²ÑĢÐ° ÑĤÐ¸
ĠÐ²ÐµÑĢÐ¾ÑıÑĤ Ð½Ð¾
ĠÑĢÐ°Ð´Ð¾ ÑģÑĤÑĮÑİ
ĠÐ¢Ð¾ÑĢ Ð³Ð¾Ð²
Ð½Ð¾ÑģÐ¸ ÑĤÑģÑı
EN T
ĠÐ¿ÐµÑĢÐ¸Ð¾Ð´Ð¸ ÑĩÐµÑģÐºÐ¸
ĠÐºÐ°Ð»ÐµÐ½Ð´Ð°ÑĢ ÑĮ
ĠÐ¤Ð¸Ð½ Ð»ÑıÐ½
= "
e a
y r
Ð¾ Ð½Ð¾
ĠÐ¾ Ð¼ÑĭÐ²Ð°
Ð¾ÑĢ Ð¾Ñģ
Ð»Ð° Ð·
ÑĤÐ° Ð»Ð¸
ĠÐ± Ð¾Ð´
Ñī ÐµÑĤ
ĠÐ· Ð»
ĠÐ½Ðµ Ð¶ÐµÐ»Ð°
ĠÐ·Ð° ÑĢÐ°Ð±Ð¾ÑĤÐ°
ĠÐ° ÑĦ
ĠÐ» Ð¾Ð¼
ĠÐ¾Ð± ÑīÐ¸Ðµ
ĠÐ¿ÑĢÐ¸ ÐºÐ°Ð·Ð°
ĠÐ¡ ÑĤÑĥ
ĠÐ¡ Ð¢
ĠÑĢÐ°Ð· Ð¼
ÑģÐ° ÑģÑĭ
Ðļ ÑĤÐ¾
ĠÐ»Ð¸ Ð½Ð¸Ñİ
ÑĢÐ¾Ð²Ð° Ð½Ð¸ÐµÐ¼
ĠÐ²Ðµ ÑĩÐµÑĢÐ°
ÑĢÐ°Ð· Ð²Ð¸
ĠÐ¿Ð¾Ñģ Ð»Ð°
ĠÐ¿Ð° ÑģÐ¿Ð¾ÑĢÑĤÐ°
ĠÐ¿Ð¸ ÑĪÑĥÑĤ
on g
ĠÐ´Ð°Ð½ Ð½ÑĥÑİ
ÑģÑĤÑĢÐ¾ Ð½Ð¾Ð¼
ĠÑĢÐ°ÑģÐ¿ Ð¾Ð»
ĠÐŀÐ± ÑĢÐ°
ĠÐ²Ð¾Ñģ ÐµÐ¼ÑĮ
ÐµÐ½Ðµ ÑĢÐ¸
ĠÑģÐ¿Ð¾ÑģÐ¾Ð± Ð°Ð¼Ð¸
ĠÐºÐ»Ð¸ Ð½Ð¸ÐºÐ¸
ra v
ĠÐ³Ð¾ÑĢÐ¾Ð´ ÑģÐºÐ¸Ñħ
ÐĹÐ° Ð¿Ð°Ð´
ĠÐ¿Ð¾Ð± ÐµÐ´
ĠÐ½Ð°ÑģÑĤÐ¾Ñı ÑīÐ¸Ðµ
Ð½Ð°Ð´ Ð·Ð¾ÑĢ
ĠÐ¿ÑĢÐµÐ´Ð»Ð°Ð³Ð° ÐµÑĤÑģÑı
ÑĦÐ¾ÑĢÐ¼ Ð»ÐµÐ½Ð¸Ðµ
ĠÑģÑĥÑīÐµÑģÑĤÐ² Ð¾Ð²Ð°Ð½Ð¸Ñı
ĠÐ¼ÑĥÐ·Ñĭ ÐºÐ°Ð½
ÑģÐµÑĢ Ð²Ð¸Ñģ
ĠÐłÐµÑģÐ¿ÑĥÐ±Ð»Ð¸ ÐºÐµ
ĠÐ¼ÐµÐ½ÑĮ ÑĪÐµÐ¹
ĠÐĴÐ»Ð°Ð´Ð¸ Ð²Ð¾ÑģÑĤÐ¾Ðº
ĠÑĢÐµÑģÑĥÑĢ ÑģÐ°
ĠÐ¾ÑĤÐ»Ð¸Ñĩ Ð½ÑĭÐ¼
ĠÑħÑĢÐ° Ð¼Ð°
ĠÑħÐ¾ ÑĩÐµÑĪÑĮ
ĠÐ¿Ð»Ð¾ÑīÐ°Ð´ ÐºÐ°
ĠÐ½Ð°ÑģÑĤ Ð¾Ð»ÑĮ
ĠÐºÐ¾Ð¼Ð¿Ð»ÐµÐºÑĤ ÑĥÑİÑīÐ¸Ðµ
ĠÐºÐ¾Ð¼Ð¼Ñĥ Ð½Ð°
ab le
ĠÐĶÐ°Ð½ Ð½Ð°Ñı
ĠÐºÐ°Ð½Ð° Ð»Ð¾Ð²
ĠÐ½Ð°Ð³ ÑĢÐµÐ²Ð°
ĠÐ´ÐµÐº Ð»Ð°
ĠÐ£ÑģÐ»Ð¾Ð²Ð¸ Ñı
ĠÐºÐ¾Ð¼Ð±Ð¸ Ð½Ð¸
ĠÐ¿Ð¾Ð½Ð°Ð´Ð¾Ð±Ð¸ ÑĤÑģÑı
E O
Ð¾ ÑĩÐµÐº
Ð´ ÐµÐ½Ð°
ĠÑģ Ð»
ĠÑģ ÑĢÐµÐ´Ðµ
ĠÐ½Ð° Ð³Ð»Ñı
Ð½Ð° ÑĢ
Ð¾ÑĤ Ð¾Ð¼
ĠÐ½Ðµ Ð±Ð¾
ÑĢÐ¾ Ð½Ñĭ
ÑĢÐ¾ ÑĩÐºÑĥ
ÑĤÐ¸ Ð²Ðµ
ĠÐ·Ð° Ð³Ð¾ÑĢÐ¾Ð´
Ð´Ð° Ð¹
ĠÐ» ÐµÐ½
ĠÐ¾ÑĤ Ð´Ð¾Ñħ
ĠÐŁ Ð¾Ð½
ĠÐ¡ Ð¾Ðº
Ð²Ð¸ Ð»ÑĮ
Ð¼Ð° ÑĤÐµÑĢÐ¸
ĠÑĦ Ð»Ðµ
ĠÐŀ Ð¢
ĠÐŀ Ð¿ÐµÑĢÐ°
ĠÑĢÐ°Ð· Ð½Ð¸ÑĨÐ°
Ð»Ð¾ ÑĩÐºÐ¸
ĠÐ±Ñĭ ÑĤÐ¾Ð²Ð¾Ð¹
ĠÐ¿Ð¾Ð» ÐºÐ°
Ð¢ ÑĢÐ¸
ĠÑģÐµ ÑģÑģÐ¸Ð¸
ĠÐ¿ÑĢÐµ ÑģÑĤÐ¸
Ð¾Ñĩ Ð½ÑĥÑİ
ÑĢÐµÐ¼ ÑĮÐµÑĢ
ĠÐ¿Ðµ ÑĩÐ°ÑĤÑĮ
in fo
ĠÐ¶Ð¸ Ð²Ð¾
Ð¾ÐºÑĥ Ð·Ð½ÐµÑĨ
ĠÐºÑĢÐ° ÑģÐ°
an c
ar a
ĠÐºÐ°ÑĩÐµ ÑģÑĤÐ²ÐµÐ½Ð½ÑĭÑħ
ĠÐ½ÑĥÐ¶ Ð½ÑĭÐ¹
12 3
ĠÐ½Ð°Ñģ ÑĩÐ¸ÑĤÑĭ
ĠÐ½Ð°ÑĩÐ° Ð»Ð¾ÑģÑĮ
ĠÑįÐ»ÐµÐºÑĤ ÑĢÐ¾Ð´Ð°
ĠÐ¿ÑĢÐ°Ð²Ð¸ ÑĤÐµÐ»ÑĮ
ÑīÐµÐ½ Ð½Ð¾Ð³Ð¾
ĠÐ¾ÑĤÐ´Ðµ Ð»ÐµÐ½Ð¸Ð¸
ĠÐ¿ÑĢÐ¾Ð´Ð° Ð¶Ñĥ
ĠÑĨÐ¸ Ðº
om e
Ð¾Ð²Ð°Ð½ Ð½Ð¾Ð¹
ĠÑĥÐ´Ð° Ð»ÐµÐ½Ð¸Ñı
ĠÑįÑĤÐ° Ð¶Ðµ
Ð½Ð¾Ð»Ð¾Ð³Ð¸ Ñı
ĠÐ´Ð²Ð° Ð´ÑĨÐ°ÑĤÑĮ
ĠÐ°ÐºÑĤÐ¸Ð² Ð½ÑĭÑħ
ĠÑģÐ¼Ðµ Ð»Ð¾
ĠÐ¿Ð¾Ð½Ð¸Ð¼Ð° ÑİÑĤ
ĠÑĤÐ¾Ð» ÑīÐ¸Ð½Ð°
ĠÐ°Ð²ÑĤ Ð¾Ðº
os h
ĠÐŁÐ¸ ÑģÐ°
Ġw ith
ĠÐ¿ÑĥÐ±Ð»Ð¸ ÐºÑĥ
ĠÐºÐ¾Ð¼Ð¼Ñĥ Ð½Ð¸
ĠÐ¿Ð¾ÑĤÑĢÐµÐ±Ð¸ ÑĤÐµÐ»ÑĮ
ĠÐ¼ÐµÑĩ ÑĤÑĭ
ĠÐºÐ¾ÑĢÐ¾ÑĤ ÐºÐ¸Ðµ
ĠÑĢÐ°ÑģÑħÐ¾Ð´ Ð¾Ð²
ĠÐ¾Ð±Ð½Ð¾Ð² Ð»ÐµÐ½Ð¸Ñı
ĠÑĥÐ¿Ð°ÐºÐ¾Ð² ÐºÐµ
ĠÑįÐºÑģÐ¿ÐµÑĢ ÑĤÐ¾Ð²
ĠÑĤÐµÐ°ÑĤ ÑĢÐ°
ĠÐ±Ð°ÑĤÐ°ÑĢÐµÐ¹ Ð½Ð¾Ð³Ð¾
ĠÑĨÐµÑĢ ÐºÐ¾Ð²ÑĮ
ĠÐ·ÐµÐ»ÐµÐ½ ÑĭÐ¹
ĠÐĽÑĥÑĩ ÑĪÐ¸Ðµ
ĠÑģÑĩÐ°ÑģÑĤ Ð»Ð¸Ð²
ĠÐ¡Ð¸Ð¼ ÑĦÐµÑĢ
ĠÐºÐ¾Ð½ÑĤÑĢÐ¾Ð»Ð¸ ÑĢÐ¾Ð²Ð°ÑĤÑĮ
ĠÐļÑĢÐ° ÑģÐ¸
ĠÑģÐ¾ÑĢÐµÐ²Ð½Ð¾Ð²Ð°Ð½Ð¸Ñı Ñħ
ĠÐºÑĢÐ¾Ð²Ð° ÑĤÐ¸
ĠÑģÐ¿ÑĥÑĤ Ð½Ð¸ÐºÐ¾Ð²
ĠÐ±ÑĭÑģÑĤ ÑĢÑĭÐ¹
ĠÑģÐ°Ð¼Ð¾Ñĥ Ð¿ÑĢÐ°Ð²Ð»ÐµÐ½Ð¸Ñı
ĠÑĢÐµÐ±ÑĳÐ½ ÐºÐ°
ĠÐŁÐ¾Ð³ Ð¾Ð´Ð°
ĠÑģ ÑĦÐµÑĢ
Ð³ ÑĢÐ°Ð²
Ð³ Ð½Ð¾ÑģÑĤÐ¸
Ð»Ð¸ ÑĤÐ°
ĠÐ± ÑĢÐ¾Ðº
ĠÐ½Ðµ ÑĩÑĤÐ¾
ĠÐ³ Ð»Ñİ
ÑĢÑĥ ÑĪÐºÐ¸
ĠÐ·Ð° ÑģÑĤÐ°Ð²Ð»Ñı
Ð¼Ð¸ ÑĢÐ°Ð»
ĠÐ» Ð°Ð½Ð´ÑĪÐ°
ĠÐºÐ° Ð·
ĠÐŁ Ð¾Ð¶Ð°ÑĢ
ĠÐĴ Ð¾Ð¿ÑĢÐ¾ÑģÑĭ
ĠÐµ Ð¶ÐµÐ¼ÐµÑģÑı
ĠÐŀ Ð¿Ð¸ÑģÐ°Ð½Ð¸Ðµ
Ð¿Ð° Ð»Ð¸
ĠÐĲ Ð»Ð°
Ð¿Ð¸ ÑģÐ¸
Ðľ Ðļ
Ð±Ð¸ Ñı
Ð¾Ð³Ð¸ Ñħ
ĠÐ²Ð¸ Ð½Ð¾Ð²
Ðķ Ð´Ð¸
Ð¾ÑĢÐ¸ Ð¼
ĠÐ´Ð¸ Ð²Ð¸
ĠÑĢ Ð¾Ðº
Ð£ Ð²Ð°Ð¶Ð°ÐµÐ¼ÑĭÐµ
ÑĤÐ¾Ð² ÑĭÐ¼
ĠÐ¿Ð¸ ÑīÑĥ
ĠÑģÐ¾Ð± Ðµ
Ð¤ Ðĺ
Ð³ÑĢÐ° Ð»Ð¸
ĠÐ²ÑĭÑģ ÑĪÐµÐ³Ð¾
ĠÐ¶Ð¸Ð· Ð½Ðµ
Ð»ÐµÑĤ Ð½ÐµÐ³Ð¾
ĠP ower
ĠÑģÐº ÑĢÐ¾Ð¼
ĠÑģÐ´ÐµÐ»Ð° Ð½Ð¾
ĠÑģÐ´ÐµÐ»Ð° Ð»Ð°
ĠÐ¾ÑĤÐºÑĢÑĭ ÑĤÐ¸Ðµ
ĠÐ³Ð¾Ð´ Ð¾Ð¼
ĠÑĤÑĢÐ° ÑĤÐ¸ÑĤÑĮ
ĠÐºÐ¾Ð»Ð¸ÑĩÐµ ÑģÑĤÐ²Ñĥ
ĠÐ¡ÑĤÐ° Ð²ÑĢÐ¾Ð¿Ð¾Ð»ÑĮ
ĠÐ¡Ðµ ÑĢÐ¸Ñı
ĠÑĥÑģÐ¿Ðµ Ð»
ĠÑĥÑģÐ¿Ðµ Ñħ
ĠÐ½Ð°ÑħÐ¾Ð´Ð¸ ÑĤÑĮÑģÑı
ĠÑĢÐ°ÑģÑĤ ÐµÐ½Ð¸Ðµ
ĠÐ½Ð°ÑģÐµ Ð»ÐµÐ½Ð½ÑĭÑħ
ĠÑģÐ¼Ð¾ÑĤ ÑĢÐ¸ÑĤÐµ
ĠÐ²Ð·Ð° Ð¸Ð¼Ð¾
ĠÐ§Ð° ÑīÐµ
ĠÐ³ÑĢÐ¸ Ð±
ĠÐ¾Ð¿ÑĢÐµÐ´ÐµÐ»ÐµÐ½ Ð½ÑĭÐ¹
ÐµÑħÐ° Ð»Ð°
ĠÑĩÑĤ ÐµÐ½Ð¸Ñı
ĠÐ¿ÑĢÐµÐ´Ð²Ð°ÑĢÐ¸ ÑĤÐµÐ»ÑĮÐ½Ð¾Ð³Ð¾
ĠÐ´ÐµÐ¿ÑĥÑĤÐ° ÑĤ
ĠÐ´Ð¾ÑĢÐ¾Ð¶ Ð½Ð¾Ð³Ð¾
ĠÐ¯Ð½ Ð²Ð°ÑĢÑĮ
ĠÐ½Ð°Ð±Ð»ÑİÐ´Ð° ÐµÑĤÑģÑı
ĠÐ¿ÑĢÐ¸Ð²Ð»Ðµ ÑĩÐµÐ½Ð¸Ñı
ÐĳÐŀ Ð£
ĠÐ¿Ð¾Ð´Ð²ÐµÑĢ Ð³Ð°
ĠÐ¿Ð¾Ð·Ð²Ð¾Ð»Ð¸ ÑĤÑĮ
ĠÐĲÑĢÑħÐ¸ Ð²
ĠÐ¼Ð°ÑĢÐºÐµÑĤ Ð¸Ð½
ĠÐĿÐ°Ð¸ Ð±Ð¾Ð»ÐµÐµ
ĠÐ¿ÑĢÐ¸Ð¼Ðµ ÑĢÐµ
ĠÐ±Ð¾Ð½Ñĥ ÑģÑĭ
ĠÑĢÑĭÑĩÐ° Ð³
ĠÑģÐ¿ÑĢÐ°Ð²ÐµÐ´ Ð»Ð¸Ð²Ð¾
ĠÑģÑĤÐµÐºÐ»Ð¾Ð¿Ð¾Ð´ÑĬÐµÐ¼ Ð½ÑĭÐ¹
ÐµÐ¼Ð¾Ð½ ÑģÑĤÑĢÐ¸
3 80
4 50
u k
Ñģ Ð¾ÑĤ
Ñĩ Ð¾Ð½
ÐµÐ½ ÐºÐ°
Ð± Ð°Ðº
ĠÐº Ð¾Ðµ
Ð¶ Ð±Ð°
ĠÐ± Ð¾Ñģ
ĠÐ· Ð¾
ĠÐ·Ð° Ð³Ð¾ÑĤÐ¾Ð²
ÑģÑĤÐ° Ð»ÑĮ
ĠÐ¾Ð± Ð¾Ð¹ÑĤÐ¸
ĠÐ¾ÑĤ Ð·ÑĭÐ²Ð°
ĠÐ¿ÑĢÐ¸ Ñħ
ĠÐ¿ÑĢÐ¸ Ð±Ðµ
ĠÐ¡ Ð»Ð¾Ð²Ð°
ĠÐ¡ Ð¼Ð¾ÑĤÑĢÐ¸ÑĤÐµ
Ð¾Ð»ÑĮ ÑıÑĤ
ĠÐµ Ð´Ð²Ð°
Ð³Ð¾ ÑĨÐµÐ½
ĠÑĦ Ð°Ñģ
ĠÑĦ ÑĢÐ°Ð³
ĠÑĤÐµ ÑģÑĤÐ¾Ð²
Ðŀ Ð´Ð¸Ð½
ĠÐĲ Ð²Ð°
Ð¸Ð½ ÑģÐºÐ°Ñı
ĠÑģÐ¸ Ð´Ñı
ÐĶ ÑĢÑĥ
ĠÑĢÑĥ Ð»ÑĮ
ĠÐ¼Ð¸ Ð»Ð¸
ĠÑĪ ÑĤÐ°Ð¼
Ð¤ Ð°
ÑĥÑģ Ð¾Ð¼
an k
ĠÑįÐº Ñģ
ĠÐ¾Ð±ÑĢÐ°Ð· ÐµÑĨ
ĠÐºÐ°ÑĢ ÑĤÐ¸Ð½Ð°
ĠÐļÐ° ÐºÐ¸Ðµ
ÑħÐ¸ Ð¼
ĠÐ¾Ð±ÑĢÐ° ÑīÐµÐ½Ð¸Ðµ
ĠÐ½Ð°ÑĪ Ð»Ð°
ĠÐ¶Ð¸Ð· Ð½ÑĮÑİ
ĠÑģÐº Ð²Ð°
ĠÐºÐ»Ð° Ð¿Ð°Ð½
Ð¶ÐµÐ½ Ð½ÑĭÐµ
ĠÑĨÐµÐ½ÑĤ ÑĢÐ¾Ð²
ĠÑģÐ¾Ð´ÐµÑĢ Ð¶Ð¸Ð¼
ĠÐ¿ÑĢÐ¾Ð¸Ð·Ð²Ð¾Ð´ ÑģÑĤÐ²Ñĥ
ĠÐļÐ¾Ð½ ÑģÑĥÐ»ÑĮ
ĠÐ²Ð°Ð¶ Ð½ÑĭÐ¼
ĠÑĢÐ°ÑģÑģÐºÐ° Ð·
ÐŁÐ¾ ÑįÑĤÐ¾Ð¼Ñĥ
ĠÐ¿ÑĢÐ¾Ð¸Ñģ ÑħÐ¾Ð´Ñı
ĠÑįÐºÐ¾Ð½Ð¾Ð¼Ð¸ ÑĩÐµÑģÐºÐ¾Ð³Ð¾
ĠÑĢÐµÐºÐ»Ð° Ð¼Ðµ
ĠÑģÐ¾ÑĨÐ¸Ð°Ð»ÑĮ Ð½ÑĭÐµ
ĠÐ¼Ñı ÑģÐ°
ĠÐ¿Ð¾ÑıÐ²Ð¸ Ð»Ð¾ÑģÑĮ
ĠÐ±Ð°ÑĤÐ° Ð»ÑĮ
ĠÐ¡Ð¾Ð²ÐµÑĤ Ð¾Ð²
ĠÐºÐ¾Ð¼Ð½Ð° ÑĤÐ°
ĠÐ¿Ð»Ð°Ð½ ÑĪÐµÑĤ
ĠÑĤÑĢÐµÑĤÑĮ Ð¸Ñħ
ĠÐĳÐ¸ Ð±Ð»Ð¸
ĠÐ¿ÑĢÐ¾ÑĨÐµÐ´Ñĥ ÑĢÑĥ
ĠÐ´Ð¸Ð°Ð³ Ð½Ð¾Ð·
ĠÐ¾ÑģÑĤÐ°Ð½Ð¾Ð² ÐºÐ¸
ĠÑĥÐºÐ°Ð·Ð°Ð½ Ð½ÑĭÐ¹
ĠÐŁÐ¾Ð»ÑĮÐ·Ð¾Ð²Ð° ÑĤÐµÐ»Ñı
ĠÐ½Ð¾ÑĢ Ð¼
ĠÐ¿ÑĤÐ¸ ÑĨ
ĠÐ¸ÑģÐ¿ÑĭÑĤÐ° Ð½Ð¸Ñı
ĠÐĽÑĥÑĩ ÑĪÐµ
ĠÑĦÐµÑģÑĤÐ¸Ð²Ð° Ð»ÑĮ
ĠÐ²Ð¾ÑģÐ¿Ð° Ð»Ð¸
ĠÐ¼Ð¾Ð½Ð¸ÑĤÐ¾ÑĢ Ð¸Ð½Ð³Ð°
ÐŀÑĢ Ð³Ð°Ð½Ð¸
ĠÐ¿Ð¾Ð´Ð¾Ð¹ Ð´ÑĥÑĤ
, âĢ¦
R T
l ob
Ð¾Ð ļ
Ðº ÑĢ
Ñĥ ÑĢÐ¾Ð²
Ð² ÑĪÐµÐ¼Ñĥ
Ð´ ÑĢÑĥÐ³
ĠÐ² Ð¾Ð¸
Ñĩ Ð¾
ÑĨ ÐµÐ½Ð°
ĠÑĥ ÑĢÐ¾ÐºÐ¸
ĠÑĥ ÑģÐºÐ¾ÑĢ
ÑĤÐ¾ ÑĩÐ½ÑĭÐµ
Ð¼Ð¸ Ð½Ñĭ
ĠÑĤ Ð²Ð¾Ð¹
ĠÐ¾Ð± ÑıÐ·
ĠÐºÐ° Ð¿Ñĥ
ĠÐŁ ÑĢÐ°Ð·Ð´
ĠÐĴ ÑĤ
ĠÐ¡ Ð¾Ð¸ÑģÐºÐ°
ĠÐ²Ñĭ Ð½ÐµÑģ
ĠÑĢÐµ Ð¿ÑĥÑĤÐ°
Ð»Ð¾ ÑĩÐ½ÑĭÐµ
ĠÐĶ ÑĥÐ±
ÐĴ ÑĤÐ¾ÑĢ
Ð½Ñı Ðº
ÐĲ Ð»ÐµÐºÑģÐ°Ð½Ð´
ĠÐ´Ð¾ ÑģÑĤ
Ð¢ ÐµÑĢ
ĠÑģÐ¸ Ð½Ð¸Ð¹
ĠÐĹ Ð²ÐµÐ·
ĠÐ¾Ð¿ Ð¿Ð¾Ð½
ĠÐ£ ÑĢÐ°
ĠÑĨ ÐµÑĢÐµÐ¼Ð¾
ĠÐ¼Ð¸ Ð½ÐµÑĢÐ°
ĠÐ±ÐµÐ· Ð½Ð°
ÐµÐ² ÑģÐºÐ¾Ð³Ð¾
10 8
ĠÑĦÐ¸ ÑĤ
ĠÐ¸Ð¼Ðµ Ñı
ĠM ed
ĠÐ²Ð¸Ð´Ðµ Ð»Ð¸
ĠÐŀÐ± Ð»Ð°
Ð»ÐµÑĤ ÑĢÑıÑģ
ĠÐĴÐ° ÑĪÐ¸Ñħ
ĠÐĴÐ° ÐºÐ°Ð½
ĠÑĥÑģÑĤÐ°Ð½Ð¾Ð² Ð¸Ð»
ĠÐ¾ÑģÑĤÐ° Ð²Ð°ÑĤÑĮÑģÑı
ĠÐ¿ÑĢÐ¾Ð³ÑĢÐ°Ð¼ Ð¼Ð¸
ĠF acebook
ĠÐ½Ð°Ð¿ Ð¾Ð¼
ĠÐ¿ÑĢÐ¸Ð¼ÐµÐ½ ÐµÐ½Ð¸Ð¸
ĠE N
ĠÑģÑĤÑĢÐ¾Ð¸ ÑĤÑĮ
ĠÐļÐ¸ ÑĢ
ĠÐ¾Ð±ÑīÐµ ÑģÑĤÐ²ÐµÐ½Ð½Ð¾Ð¹
ĠÐ¼ÐµÑģÑĤ Ð½Ð¾ÑģÑĤÐ¸
ĠÑĤÐµÑĢÑĢÐ¸ÑĤÐ¾ÑĢÐ¸ Ñİ
ĠÐ½ÐµÐ¾Ð±ÑħÐ¾Ð´Ð¸Ð¼ ÑĭÐ¹
ĠÑįÐ½ÐµÑĢ Ð³Ð¸Ñİ
ĠÐ§Ðµ Ð±Ð¾ÐºÑģÐ°
ĠÐ°Ð½ÑĤÐ¸ Ð±Ð¸Ð¾ÑĤÐ¸
ĠÐ¿ÑĢÐ¾ÑĦÐ¸ Ð»ÑĮ
Ð¿Ð»Ð¸ ÐºÐ°
ĠÑģÐ¿Ð¾ÑĢ ÑĤÐ¸Ð²Ð½ÑĭÑħ
ĠÑıÑĢ ÐºÐ¸Ðµ
ĠÐ¼ÐµÑħÐ°Ð½Ð¸ Ð·Ð¼Ð°
ĠÑĢÐ°ÑģÑģÐºÐ°Ð·Ð° Ð»Ð°
ĠÐ·Ð°Ð¼ Ð¾Ðº
one y
ĠÐ±Ð¾Ðº Ð¾Ð²Ð°Ñı
ĠÐ¿ÑĢÐ¸ÑħÐ¾Ð´Ð¸ Ð»Ð¾ÑģÑĮ
ĠÑģÐ¼Ð° Ð·
ĠÐ¼Ð°ÑģÑģ Ð¾Ð²Ð¾Ð¹
ĠÐ¼Ð¾Ð· Ð³
ĠÐ°Ð²Ð¸Ð° Ð±Ð¸
ĠÑĪÐºÐ¾Ð»ÑĮ Ð½Ð¸ÐºÐ¾Ð²
ÑģÐ»ÑĥÐ¶ Ð±Ðµ
ĠÐ³ÑĢÐ°Ð¶Ð´Ð° Ð½Ð¸Ð½Ð°
ĠÑĢÐ°ÑģÐ¿Ð¾Ð»Ð°Ð³Ð° ÐµÑĤÑģÑı
ĠÐºÐ°Ð½Ð´Ð¸Ð´Ð° ÑĤÐ¾Ð²
ĠÑįÐ¼Ð¾ ÑĨÐ¸Ð¸
Ð¾ÐºÑģÐ¸ Ð´Ð°Ð½
ĠÐ¿Ð¾Ð´ÑĢÐ°Ð·Ð´Ðµ Ð»ÐµÐ½Ð¸Ñı
ĠÐ·Ð°ÑĢÑĥÐ±Ðµ Ð¶Ð½ÑĭÑħ
ĠÐ½ÐµÐ¿Ð»Ð¾ ÑħÐ¾
ĠÐĹÐ°Ð¿ Ð¾ÑĢÐ¾Ð¶
ĠÑģÑĢÐ¾ ÑĩÐ½Ð¾
Ð¡Ð¿Ðµ ÑĨÐ¸Ð°Ð»Ð¸
ĠÐ¡Ð²ÑıÑĤ Ð¾Ð³Ð¾
ĠÑĢÑĥÐ±Ðµ Ð¶Ð¾Ð¼
ĠÐ·Ð°ÑĢÐ°Ð±Ð°ÑĤÑĭ Ð²Ð°ÑĤÑĮ
ĠÐ»Ð¸ÑģÑĤÑĮ ÐµÐ²
ĠÐ½ÐµÐ¼ÐµÐ´ Ð»ÐµÐ½Ð½Ð¾
ĠÐ¿ÑĢÐ¾Ð¼ÑĭÑĪ Ð»ÐµÐ½Ð½ÑĭÑħ
U R
e am
o z
Â ¦
Ð¼ Ñģ
ĠÑģ Ð²Ð¸Ð´ÐµÑĤÐµ
Ð½Ð¸ Ñģ
Ð¾Ð» Ñĥ
ÑĤÐµ ÑģÑĤÐ°
ÑĪ ÑĤ
ÑĢÐ¸ ÑģÐ°
Ð½Ð° ÑģÑĤÐ¾Ñı
Ð»Ð° Ð´ÐºÐ¸
Ð²Ð° ÑĤÐµÐ»ÑĮ
ÑĦ ÑĤÐ°
ÑĢÐ¾ Ðµ
Ð»Ñı Ñı
ĠÐ¿Ð¾ ÑĢÐ°Ð¶Ð°
Ð¾Ð± ÑĬ
ĠÐ¾ÑĤ Ð½ÐµÑģÑĤÐ¸
ĠÐ¿ÑĢÐ¸ Ð²ÐµÐ·
ÐµÐ¹ ÑĤ
ĠÑĢÐ°Ð· Ð³Ð¾Ð²Ð°ÑĢÐ¸
ĠÐ¼Ð° ÑĤÑĢÐ¸
ĠÐĶ Ð»Ð¸Ð½Ð°
ÐŁ Ð¡
ĠÐĺ Ðµ
ĠÐ¢ ÑĢÐ°Ð½ÑģÐ¿Ð¾ÑĢÑĤ
ĠÐ¿ÑĢÐµÐ´ ÑĥÐ¿
ĠÐĳ ÐµÐ»ÑĮ
ÑĤÑĥ Ð¸
ĠÐ²Ð¸ Ð´Ð¸ÑĤÐµ
ĠÐ¿ÐµÑĢÐµ Ñĩ
ĠÐĽ Ð¾Ð½Ð´
ĠÑģÑĥ ÑħÐ¾Ð¹
ĠÐ¿Ð° Ð·Ñĥ
ĠÐ°Ðº ÑĤÐ¸Ð²Ð°
ĠÑģÐ° Ð½Ð¸ÑĤÐ°ÑĢ
ĠÑģÑĢÐµÐ´ Ð½Ð¸Ñħ
ĠÐ²ÑĭÑģ Ð¾ÑĤÑĭ
Ð¼ÐµÐ½ÑĤÐ° ÑĢÐ¸Ð¸
it s
ĠÐ¾ÑģÐ¾Ð± Ð¾Ð¹
ĠÑĪÐ¸ ÑĢÐ¸Ð½Ð°
ĠÐ¿ÑĢÐ¾Ð´Ð° ÑĤÑĮ
ĠÐ°Ð½ ÐºÐµÑĤÑĭ
ĠÐ´Ð¾ÑĢ Ð¾Ð³Ð¸Ðµ
ĠÑĢÐ°Ð·Ð»Ð¸Ñĩ Ð½Ð¾Ð³Ð¾
ĠÐ¸Ð·Ð²ÐµÑģÑĤ Ð½ÑĭÐµ
ĠÑĢÐ¾ÑģÑģÐ¸ ÑıÐ½
ĠÐ½Ð°Ð¸ Ð»ÑĥÑĩ
un ter
ĠÐ·Ð°Ð½Ñı ÑĤÑĮÑģÑı
ĠÐºÑĢÐ¾Ð² Ð¾
ĠÐ¸ÑģÑĤÐ¾Ñĩ Ð½Ð¸ÐºÐ¸
ÐłÐŀ ÐĴ
ĠÑģÑĤÐ¾Ð» Ð¾Ð¼
ĠÐºÑĢÑĭ ÑĪÐºÐ°
ĠÑģÑħ ÐµÐ¼Ñĥ
ĠÐ¿ÑĢÐ¾ÑģÑĤ Ð¾ÑĢ
ĠÐºÐ¾Ð»Ð»ÐµÐº ÑĨÐ¸Ñı
ĠÐĳÐ¾Ð»ÑĮ ÑĪÐ°Ñı
ĠJ ava
Ð±ÐµÑĢ Ð³
77 7
ĠÐ²ÑģÑĤÑĢÐµÑĩÐ° ÐµÑĤÑģÑı
ĠÑĤÑĢÐ°Ð² Ñĭ
ĠÑģÐ½Ðµ Ð³Ð°
ĠÐĳÑĭ Ð»Ð¾
ĠÐ¾ÑĤÐ½Ð¾ÑĪÐµÐ½Ð¸Ñı Ñħ
ĠÐ·ÑĥÐ± Ñĭ
ÑĤÐµÑħ Ð½Ð¸ÐºÐ¸
ĠÐ¼Ð°Ð¼ Ñĭ
ÑīÐ¸Ð¼Ð¸ ÑģÑı
ĠÑĢÐ¸ÑģÑĥ Ð½Ð¾Ðº
ĠÑģÐ¾Ð±Ð° ÐºÐ¸
ĠÐ·Ð²ÐµÐ· Ð´
ĠÐ¿ÑĢÐµÐ´ÐµÐ»Ð° Ð¼Ð¸
ĠÐ¿Ð¾Ð·Ð²Ð¾ Ð½Ð¾
ĠÑĤÐ¾Ñĩ Ð½ÐµÐµ
ĠÐ¾Ð´Ð½ Ð¾Ð·Ð½Ð°
ĠÐļÐ¾ÑģÑĤ ÑĢÐ¾Ð¼
ĠÐĲÐ»ÐµÐºÑģÐ°Ð½Ð´ÑĢÐ¾Ð² Ð¸Ñĩ
ĠÑĦÐ°ÐºÑĥÐ»ÑĮ ÑĤÐµÑĤ
ĠÐľÐµÐ´Ð¸ ÑĨÐ¸Ð½
ĠÐ»ÐµÐ³ÐµÐ½ Ð´Ð°ÑĢ
ĠÑĢÐ°Ð·ÑĬ ÑıÑģ
ĠÐŁÐĴ Ð¥
ÑĤ ÐºÑĥ
Ñģ ÐµÑĢÑĤ
ÑĢ Ð½Ð¾Ðµ
Ð´ Ð¾Ð½Ðµ
ĠÐ² ÑĤÐ¾ÑĢÐ¸
ĠÑģ ÐºÑĢÐ°
ĠÐ¾ ÑĤÐµÐ»ÑĮ
Ð¾ÑĢ ÑĤÑĥ
Ð»Ð¸ Ð²ÑĭÐµ
ĠÐ½Ð° Ð»Ð¾Ð¶
ĠÐ· ÑĢÑı
ĠÑĥ Ð²Ð°Ð¶Ð°
ĠÐ³ ÑĢÐ°Ð²Ð¸
ĠÐ¿Ð¾ ÑĩÐ¸ÑĤÐ°
ĠÐ° ÑģÐ¿ÐµÐºÑĤ
ĠÐ° Ð·Ð¸Ð°ÑĤ
ĠÐºÐ° Ð¼Ðµ
ĠÐĴ Ð¾Ð¹
ĠÐ¡ Ð²ÐµÑĢÐ´Ð»Ð¾Ð²
Ð¼Ð° Ñģ
Ð¾Ñģ Ð²Ñı
ĠÐ²Ñĭ ÑģÑĤÑĥÐ¿Ð»ÐµÐ½Ð¸Ñı
ĠÑĤÐµ ÑģÑĤÐ°
Â» ),
ĠÐ¿Ð¾Ð´ Ðº
ĠÐł Ð¾Ð´
ÑĪÐµ ÑģÑĤÐ²Ð¸Ðµ
ĠÐĺ ÑĢ
ĠÐĺ Ð¢
ĠÐĺ ÑĢÐ¸Ð½Ð°
ÐµÐº ÑĤÐµ
ĠÐ»Ð¸ ÑĨÑĥ
Ðľ Ð¾Ð¹
ĠÐ£ ÑĦÐ°
Ð¼Ñĥ Ð¶
ĠÑĢÑĥ ÑĩÐ½Ð¾Ð¹
ĠÐĽ Ð¸ÑĤ
ĠÐ°Ð² ÑĤÐ¾ÑĢÑĭ
ÐºÐ°Ð·Ð° ÑĤÑĮ
Ð¾ÑĢÐ¾ ÑĩÐµ
10 9
ĠÐ°Ðº ÑĨÐ¸Ñı
ĠÐ´ÐµÐ»Ð° Ð»
ĠÑĢÑĭ Ð½Ð¾
ĠÐ¿Ð¾ÑģÐ»ÐµÐ´ Ð½Ð¸Ð¼
ĠÐ¼Ð°ÑĤÐµÑĢÐ¸Ð° Ð»Ð°Ð¼Ð¸
ĠÐ·Ð°Ð´Ð° Ð½Ð¸Ð¹
ĠÐ¡ÑĤÐ° ÑĤÑĮÑı
ĠÐ¡Ðµ ÑĢÐ¸
ĠÑĥÐ¿ ÑĢÑĥ
ĠÐ²Ð°Ð¶ Ð½ÑĭÐ¹
ĠÑģÐ»Ð¾Ð¶ Ð½ÑĭÐµ
ĠÑıÐ·Ñĭ ÐºÐ¾Ð¼
ĠÐ¸Ð·Ð²ÐµÑģÑĤ Ð½Ð¾Ð³Ð¾
ĠÑĩÐµÑĢ ÑĤÐµ
ÐĴÑĭ ÑģÐ¾ÑĤÐ°
ĠÐ¿Ð¾Ð´Ð¾Ð± Ð½Ð¾Ð³Ð¾
Ð½Ð¾Ðº Ð¸Ñģ
ĠÐºÐ¾Ñģ Ð¼ÐµÑĤ
ĠÐ¿Ð¾Ð·Ð¸ ÑĨÐ¸Ñİ
ĠÑģÑĤÐ°Ð² ÐºÑĥ
ÑİÑīÐ°Ñı ÑģÑı
ÐµÐ´Ð¶ ÐµÑĢ
ĠÐ±ÑĥÐº Ð¼Ðµ
ĠÑģÐµÐ½ÑĤ ÑıÐ±ÑĢÐµ
Ð´Ð°Ð³ Ð¾Ð³Ð¸
ĠÐ¿Ð»Ð°ÑĤÐµ Ð¶ÐµÐ¹
49 5
ĠÑĥÐ´Ð¾Ð²Ð¾Ð»ÑĮ ÑģÑĤÐ²Ð¸Ñı
ĠÐ¼Ð°Ð»ÑĮ ÑĩÐ¸ÐºÐ°
ĠÐĹÐµÐ¼ Ð»Ðµ
ĠÐ²ÑĢÐµÐ´ Ð½ÑĭÑħ
ĠÐ¾Ð· ÐµÑĢÐ°
ĠÑģÐºÐ¸Ð´ ÐºÑĥ
ĠÐ¿ÑĢÐ¸Ð²Ð»Ðµ ÑĩÑĮ
Ð¦Ðĺ Ð¯
ĠÐ¿Ð¾Ð»Ð¾Ð² Ð¸Ð½Ñĥ
ĠÐ²ÐµÐ´Ð¾Ð¼ ÑģÑĤÐ²Ð°
ĠÐĵÐµ Ð¾ÑĢ
ĠÐ½ÐµÐ¾Ð¶Ð¸Ð´Ð°Ð½ Ð½Ð¾
ĠÐ¾Ð±ÑĥÑĩÐ° ÑİÑīÐ¸ÑħÑģÑı
ĠÐ°Ð»Ð»ÐµÑĢ Ð³Ð¸
ĠÑĤÐµÐ»ÐµÐ²Ð¸ Ð·Ð¾ÑĢ
ĠÐ¼Ð¸Ð½Ð¸ÑģÑĤÐµÑĢ ÑģÑĤÐ²Ð°
ĠÑģÐ¾Ð»Ð´Ð° ÑĤ
ĠÐŁÑĢÐ¾Ð²ÐµÑĢ ÐµÐ½Ð¾
ĠÐĵÐĺ ÐĳÐĶÐĶ
ÑİÐº Ð·Ð°
ĠÐ¡ÑĤÐ°Ð½ Ð´Ð°ÑĢ
ĠÐ¤Ð¾Ð½Ð° ÑĢÑĮ
ĠÐ¾Ð¼ÑĭÐ²Ð° ÑĤÐµÐ»Ñı
u ra
Ðµ ÐµÐº
Ñĥ Ð½Ð°
ĠÐ¸ Ð½Ð¾Ð³Ð¾
Ð»Ð¸ ÑĨÐ°
Ñį Ð»ÐµÐ¼
ĠÐĴ Ñı
ĠÐ¿ÑĢÐ¸ Ð²
ĠÐ¿ÑĢÐ¸ ÑĢÐ¾Ð´Ð°
ĠÐ¡ Ð²Ð¾Ð±
ÑĤÐµÐ»ÑĮ Ð½Ð¾ÑģÑĤÑĮÑİ
ÑīÐ¸ ÐºÐ°Ð¼Ð¸
ĠÐ¶ ÐµÐ½Ð¸
ĠÐ¿Ð¾Ð´ Ð»Ð¸Ð½
ĠÐŀ Ðº
Ð¡ ÐµÐ¼
Ð¡ Ð£
Ð¿Ð° Ñħ
ÑĤÐ¾Ð¼ Ð¸
ĠÐ´Ðµ Ð¿Ð¾Ð·Ð¸ÑĤ
ĠÐºÐ¾Ð½ Ð´Ð¸
ĠÐĵ ÑĢÐ°Ð¶Ð´Ð°Ð½
ĠÑģÐ¿ ÑĢÐ¾ÑģÐ¸Ð»
ĠÐ¾Ñģ ÐµÐ½
ĠÐ¾Ñģ ÐµÐ½ÑĮÑİ
ÐĶ ÐµÐ²
ÑĦÐ¾ÑĢ Ð´
ÑĥÑĩ Ð½Ð¾
ĠÐ¿ÐµÑĢ ÐµÐ½
ĠÐºÑĥ Ð·Ð¾Ð²Ð°
ĠÐ´Ð¾Ð» Ð³Ð¸
ĠÐ½Ð¾Ð² Ð¾ÑģÑĤÑĮ
ÑģÑĥ Ð¶Ð´ÐµÐ½Ð¸Ðµ
ĠÐ¿ÑĢÐ¾Ð¸Ð· Ð²ÐµÑģÑĤÐ¸
Ð¤ Ð¸Ð»ÑĮ
ÑģÑĤÐ°Ð²Ð¸ ÑĤ
ĠÐ²ÐµÑĢ Ð½Ð¾
ĠÐ±Ð° Ð½Ð°
ĠÐ¨ ÐºÐ¾Ð»Ð°
ĠÐ´Ñĥ Ñħ
Ð¨ Ð°
ĠÐºÐ»Ð¸ ÐµÐ½ÑĤÑĥ
ĠÑĤÑĢÐµÐ± Ð¾Ð²Ð°
ĠÑģÐ¾ÑģÑĤÐ¾Ñı Ð½Ð¸Ñİ
ĠÑĦÐ¸Ð»ÑĮ ÑĤÑĢ
as ino
ĠÐ°ÐºÑĤÐ¸Ð² Ð½ÑĭÐµ
ĠÐ´Ð¾ÑģÑĤÐ¸ ÑĩÑĮ
ĠÐ¿ÑĢÐ¸Ð·Ð½Ð° ÐºÐ¾Ð²
ĠÐ²ÑĭÐ±Ð¾ÑĢ Ñĥ
ĠÐ¸ÑģÑĤÐ¾Ñĩ Ð½Ð¸ÐºÐ¾Ð¼
ĠÑģÐºÐ¾ÑĢÐ¾ ÑģÑĤÑĮÑİ
ĠÐ¿ÑĢÐ¾ÑĦÐ¸ Ð»Ñı
ĠÐ¸Ð½Ð´Ð¸Ð²Ð¸Ð´ÑĥÐ°Ð»ÑĮ Ð½Ð¾
ĠÐ¾Ð¶Ð¸ Ð´Ð°Ð½Ð¸Ñı
ĠÐºÐ¾Ð¼Ð¸ ÑģÑģÐ¸Ñı
ĠÐ¸Ð·Ð¾Ð±ÑĢÐ°Ð¶ ÐµÐ½Ð¸Ð¹
ĠÑħÐ°ÑĢÐ°ÐºÑĤÐµÑĢÐ¸ÑģÑĤÐ¸ Ðº
ĠÐ¿ÑĢÑıÐ¼Ð¾ ÑĥÐ³Ð¾Ð»ÑĮ
ĠÐ¥Ð° ÐºÐ°
ĠÑħÑĢÐ° Ð½Ð¸Ð»Ð¸
ĠÐ·Ð°Ð±Ñĭ ÑĤÑĮ
ĠÑģÐ»ÐµÐ´ÑĥÑİ ÑīÐµÐ³Ð¾
ĠÑģÑĤÑĢÑĥÐºÑĤÑĥ ÑĢÐ°
ĠÐ¿ÑĢÐ¾Ð³ÑĢÐ°Ð¼Ð¼ Ð½Ð¾Ð³Ð¾
ĠÐ·Ð°ÑĢÐµÐ³Ð¸ÑģÑĤÑĢÐ¸ ÑĢÐ¾Ð²Ð°ÑĤÑĮÑģÑı
ĠÐĿÐĲ Ð¢Ðŀ
ĠÐºÐ»ÐµÑĤ ÐºÐ¸
ĠÐ°Ð»ÐºÐ¾Ð³ Ð¾Ð»Ñı
ĠÑģÑĥÐ±ÑĬ ÐµÐºÑĤÐ°
ĠÐµÐ²ÑĢÐ¾Ð¿ÐµÐ¹ ÑģÐºÐ¸Ñħ
ĠÐŀÐ´Ðµ Ð¶Ð´Ð°
ĠÑĪÑĤÑĥ Ðº
ĠÐ°Ð·Ð°ÑĢÑĤ Ð½ÑĭÑħ
ĠÐ´Ð¾ÑģÑĤÐ¸Ð³Ð° ÐµÑĤÑģÑı
ĠÐ¾ÑĤÐ¿Ñĥ ÑģÐº
ĠÐ¾ÑĤÐ¿Ñĥ ÑģÐºÐ°
ĠÐ¿ÑĢÐ¾Ð´Ð²Ð¸ Ð¶ÐµÐ½Ð¸Ñı
ĠÑģÐºÐ»Ð° Ð´Ð°
ĠÐ¸Ð½ÑĤÐµÑĢÑĦÐµÐ¹ Ñģ
ros oft
ĠÐ¿ÑĢÐ¾Ð¿Ð° Ð³Ð°Ð½
ĠÐ¸Ð´ÐµÐ½ ÑĤÐ¸ÑĦÐ¸ÐºÐ°
ĠÐķÐ²Ð³ ÐµÐ½Ð¸Ð¹
ĠÐľÐ¸ÑħÐ°Ð¹ Ð»Ð¾Ð²
ĠÐºÐ¾Ð¼Ð¼ÐµÐ½ÑĤÐ°ÑĢÐ¸ ÐµÐ²
ÐĵÐµÑĢ Ð¼Ð°Ð½Ð¸Ñı
ĠÑĥÑīÐµÑĢ Ð±
ĠÐ¾ÑģÑĥÑīÐµÑģÑĤÐ²Ð¸ ÑĤÑĮ
ĠÐ¿Ð¾ÐµÐ· Ð´ÐºÐ¸
ĠÐ±Ð»Ñİ Ð´Ð¾
Ð±Ð°ÑĢÐ¸ ÑĤÑĭ
ĠÐļÐĳ Ðľ
ĠÐļÐ¾Ð½ÑĤÐ° ÐºÑĤÑĭ
Ð´ÐµÑģÑı ÑĤÐ¸
ĠÐ²Ð·Ñĭ ÑģÐºÐ°
C h
I C
o od
ÑĤ ÐºÐµ
ÑĢ Î¿
ĠÐ² ÐºÐ»Ð°Ð´Ñĭ
ĠÐ¸ Ð¼ÐµÐ½Ð°
Ð¾Ð¼ Ðµ
Ð»Ð¸ Ð²Ð°Ð½Ð¸Ñı
ÑĢÐ¸ Ð»Ð°
ĠÐ± Ð»Ð°Ð½
ĠÐ½Ðµ ÐºÐ¾Ð¼
ĠÐ·Ð° Ð¿Ðµ
ÑģÑĤÐ¸ ÑĩÐµÑģÐºÐ°Ñı
ĠÐŁ Ð°Ð½
ĠÐŁ Ð»ÑİÑģ
ĠÐ¿ÑĢÐ¸ ÑĨÐµ
ĠÐ¿ÑĢÐ¸ Ð»Ð°Ð³Ð°
Ð½Ðµ Ð»ÑĮ
Ð½Ðµ ÑģÐ»Ð¸
Ð·Ð° ÑĤÐ¾ÑĢÑĭ
ĠÑĢÐµ Ð¶Ðµ
ĠÑĦ ÑĥÑĢ
Â» ;
ĠÐŀ Ð±Ðµ
ĠÐĶ Ð¶Ð¸
ĠÐĲ ÑĢÐµÐ½Ð´Ð°
ÐŁ ÐµÑĤ
ĠÑħ Ð»Ðµ
ÑĢÐ¾Ð² Ð¾Ð³Ð¾
Ð½Ð¾Ð² Ðµ
ĠÑı Ð´ÐµÑĢ
ĠÑı ÑĩÐµÐ¹
ĠÐĳ ÑĢÐ°
ĠÐĳ Ðŀ
ĠÐ»Ð¸ ÑĩÐ½ÑĭÑħ
ĠÐ´Ðµ Ð²Ñı
Ðł ÐŁ
ĠÑĤÐ¾ Ð½Ð°
ĠÐ´Ð¸ ÑģÑĤÑĢÐ¸
ĠÑĢÐ°Ð±Ð¾ÑĤ Ð¾ÑģÐ¿Ð¾ÑģÐ¾Ð±
ĠÐ¿Ð¾ÑĢ Ñĭ
ĠÐ¿Ð¾ÑĤ Ð¾ÐºÐ°
ĠÐºÐ°ÑĢ ÑĮÐµÑĢ
ĠÐ½ÐµÐ¾Ð±ÑħÐ¾Ð´Ð¸ Ð¼Ñĭ
ĠC S
ĠÐ²Ð¸Ð´Ðµ Ð¾Ð½Ð°Ð±
ĠÐ¨ Ð°ÑĢ
en ce
Ð¯ ÐľÐĹ
Ð¼ÐµÑĤ Ð¾Ð´Ð¸
ĠÐľÐ° ÐºÐ°
ĠÐ¿Ð°ÑĢ Ð¾Ð»ÑĮ
ÑģÑĤÑĢÐµ Ð±Ð¸
ĠB M
ĠÐ²Ð»Ð° Ð´
ĠÑĪÐ¸ ÐºÐ°ÑĢ
ĠÐ³Ð»Ð° Ð²Ðµ
Ð¶ÐµÐ½ Ð½ÑĭÑħ
ĠÐ¡Ð¾ Ð¾Ð±
ĠÐ½Ð°Ð¿ÑĢÐ°Ð² Ð»ÐµÐ½Ð¸Ñİ
ĠÐ½ÐµÐ¿ ÑĢÐµÐ´
Ġc ook
ĠÐ²ÑģÑĤÑĢÐµ ÑĤÐ¸ÑĤÑĮ
as e
Ð´Ð¶ Ð°Ð½
ÐĻ Ð¾ÑĢ
ĠÐºÑĢÐ¸ Ð¿ÑĤ
ĠÐ¼Ð¾ÑĢ ÑģÐºÐ¾Ð¹
ĠÐ½Ð°Ð´Ðµ Ð¶Ð½Ð¾
ĠÑģÐ¾Ð¿ ÑĥÑĤ
ĠÑĤÑĢ Ð¾Ð¹
ĠÐ¿ÑĢÐ¾ÑĦÐµÑģÑģÐ¸Ð¾Ð½Ð°Ð»ÑĮ Ð½ÑĭÐµ
ĠÐ¿Ð¾ÐºÑĥÐ¿ Ð¾Ðº
ĠÐ¾ÑĦÐ¸ÑĨÐ¸Ð°Ð»ÑĮ Ð½Ð¾Ð³Ð¾
ĠÑĥÐ»Ð¸ ÑĨÐ°
ĠÐŁÐµÑĤ ÑĢÐ¾Ð¿Ð°Ð²Ð»Ð¾Ð²
ĠÐ¡Ð°Ð¼ ÑĭÐ¹
ĠÐ¾Ð¿ÑĢÐµÐ´ÐµÐ»ÐµÐ½ Ð½Ð¾Ð¹
Ð·ÐµÑĢ Ð±Ð°Ð¹
ĠÐ²Ð¾Ð·Ð²ÑĢÐ° ÑīÐ°ÐµÑĤÑģÑı
ĠÐ¿ÑĢÐ¾ÑĨÐµÐ´Ñĥ ÑĢÐ°
ĠÐ½ÐµÐ´Ð° Ð»ÐµÐºÐ¾
ĠÑįÐºÑģÐ¿ÐµÑĢ ÑĤÑĭ
ĠÑģÐ¾ÑĢ ÑĤÐ¾Ð²
ĠÑĩÐµÐ¼Ð¿Ð¸Ð¾Ð½Ð° ÑĤ
ĠÐ¾Ð±Ð½Ð°ÑĢÑĥÐ¶Ð¸ Ð»Ð¸
ĠÐ·Ð°ÑĢÐ°Ð±Ð¾ÑĤ ÐºÐ°
ĠÐ¾Ð±ÑģÑĤÐ¾Ñı ÑĤÐµÐ»ÑĮÑģÑĤÐ²
ĠÐºÐ¾Ð¼Ð¼ÑĥÐ½Ð¸ÐºÐ° ÑĨÐ¸Ð¹
ĠÐ·Ð°ÑħÐ²Ð° ÑĤÑĭ
ĠÐ¿Ð¾Ð´ÑĩÐµÑĢ ÐºÐ¸
ĠÐ¼Ð½Ð¾Ð³Ð¾ÑĩÐ¸Ñģ Ð»ÐµÐ½Ð½ÑĭÐµ
ĠÐ¾ÑĩÐµÐ²Ð¸Ð´ Ð½Ð¾
ĠÑģÐ»ÑĥÑĩÐ¸ Ð»Ð¾ÑģÑĮ
ĠÐĲÑĤ Ð»Ð°Ð½
ĠÐĶÐ½ÐµÐ¿ ÑĢÐ¾Ð¿ÐµÑĤÑĢÐ¾Ð²
o h
t on
Ð½ o
Ð½ Ð½ÑĭÐ¼
Ñĭ Ñģ
Ð² ÑĪÑĥÑİ
ĠÐ¿ Ð½ÐµÐ²
ÐµÐ½ Ð½Ð¾Ð¼Ñĥ
ĠÐ¾ ÑģÐ°Ð´
Ð± ÑĥÑĤ
ĠÐº Ð¾Ð´Ð°
ÑĢÐµ Ð³ÑĥÐ»Ð¸
Ð³ Ð¾ÑģÑĥÐ´Ð°ÑĢ
ĠÐ´ ÑĭÐ¼
ĠÐ´ Ð¾Ð¶Ð´
Ñİ ÑĢÐµ
Ð»Ð¸ ÑĩÐ½Ð¾
Ð¾Ð³ Ð¾Ð¹
ÑģÐº Ð¾ÑĢÐµ
ĠÐ³ Ð»Ñı
Ð»Ðµ Ð¶Ð¸ÑĤ
ĠÐºÐ° Ð¿ÐµÐ»ÑĮ
ĠÐ¿ÑĢÐ¸ Ð³Ð¾Ð´
ĠÐ¿ÑĢÐ¸ Ð±Ð¾ÑĢÐ°
ĠÐ¡ Ð°Ð»
Ð¾Ð»ÑĮ ÑĦ
Ð·Ð° Ð´Ð¸
ÐµÐ¹ ÐºÐ¸
ÑģÑĤÑĮ ÑıÐ½
ĠÐŀ Ñħ
ĠÐŀ Ð¡ÐĲ
ĠÐ¼Ð° ÐºÐ¸Ñı
ÐºÑĥ Ð»ÑıÑĢ
ĠÑģÐ¾ ÑĩÐ¸Ð½
ĠÐĺ Ð³ÑĢÐ°ÑĤÑĮ
ĠÑħ ÑĢÐµÐ±
ĠÐĳ ÑĥÑĢ
ĠÑģÑĤÐ° ÑĢÑĭÐ¹
ĠÐ´Ð¸ ÑģÐºÐ°
ÐĹ Ð¾Ð»
ĠÐ½Ð¾Ð² Ð¾
ĠÐ¿Ð¾Ð² ÐµÐ·
ĠÑĢÐ°Ð±Ð¾ ÑĩÐ°Ñı
ĠÐ´Ð°Ð½ Ð½Ð¾Ð¼Ñĥ
ĠÐ¿Ñĥ ÑĤÐµÐ¹
ÑĢÐ¾Ñģ Ð»Ð°
ĠÐ¼Ð°ÑĤÐµÑĢÐ¸ Ð½
ÐĿÐ° Ð¿Ð¾Ð¼Ð½Ð¸Ð¼
ĠÐ¾Ð±ÑĢÐ° ÑĤÐ½Ð¾Ð¹
ĠÐĿÐµ ÑĦÑĤÐµ
ĠÑģÐº Ð¾Ð»ÑĮ
ĠÐĸ ÑĥÑĢ
ĠÐºÐ»Ð¸ Ð¼Ð°ÑĤÐ¸
ĠÐ¿Ð¾Ð·Ð² Ð¾Ð»
ĠÑĥÑģÐ»Ñĥ Ð³Ð°
ĠÐ³Ð° ÑĢÐ°Ð¶
ĠÐºÐ¾ Ð¾Ð¿ÐµÑĢÐ°
Ð¶ÐµÐ½ Ð½Ð¾ÑģÑĤÑĮ
ĠÐ¾Ð±ÑıÐ·Ð° Ð½Ñĭ
ÐµÐ» Ñĳ
ĠÐ·Ð°Ð´Ð° ÑĩÑĥ
ÑīÐ¸Ð¹ ÑģÑı
ĠÐ²ÑģÑĤÑĢÐµ ÑĩÑĥ
ĠÐ²Ð°Ð¶ Ð½ÑĭÐµ
ĠÑģÐ¿Ð° ÑĤÑĮ
ĠÑĤÐµÐº ÑģÑĤÑĭ
ĠÑģÐ½Ð¸ Ð·Ð¸ÑĤÑĮ
ĠÐ³ÑĢÑĥ Ð·Ð°
ĠÐºÑĢÑĭ ÑĪÐ¸
ĠÐ½Ð°Ñĥ ÐºÐ°
Ð²Ð¾Ðµ Ð³Ð¾
ĠÐ°Ð²ÑĤ Ð¾ÑĤ
ĠÐŁÑĢÐµ Ð·Ð¸Ð´ÐµÐ½ÑĤ
ĠÐ§ÐµÑĢ Ð½ÑĭÐ¹
ĠÐ¿ÑĢÐ¾ÑģÑĤ ÑĭÐµ
ĠÐĳÐ¾Ð»ÑĮ ÑĪÐµ
ĠÑģÐ¾Ð¾Ð±ÑīÐ¸ ÑĤÑĮ
ĠÑĢÐ°ÑģÑĪÐ¸ ÑĢÐµÐ½
ĠÐ¿ÑĢÐ¸ÐµÐ¼ Ð»ÐµÐ¼
ĠÑĩÐ»ÐµÐ½ Ð¾Ð¼
ĠÐ±Ð»Ð°Ð³ Ð¾ÑģÐ»Ð¾Ð²
ĠÐ±Ð»Ð°Ð³ Ð¾ÑĤÐ²Ð¾ÑĢÐ¸
ĠÐ¾ÑĨÐµÐ½ ÐºÑĥ
ĠÐ²Ð¿ Ð¾ÑģÐ»ÐµÐ´
ĠÑĦÐ¾Ð½ Ð´Ð¾Ð²
ĠÐ¾Ð±Ðµ Ð¸Ñħ
ĠÐ¿ÑĢÐ¾Ðº Ð¾Ð½ÑģÑĥÐ»ÑĮ
ĠÑįÑĦÑĦÐµÐºÑĤ Ð¾Ð¼
ĠÐ¼Ð¾Ð´Ñĥ Ð»ÑĮ
ĠÐ³ÐµÐ½ÐµÑĢÐ° ÑĤÐ¾ÑĢ
ÑĨÐ²ÐµÑĤ Ð°
ĠÐ¾ÑħÑĢÐ° Ð½Ðµ
ĠÐ¼Ð°Ð»ÑĮ ÑĩÐ¸
ĠÐ¾ÑĢÐ³Ð°Ð½Ð¸Ð·Ð°ÑĨÐ¸Ñı Ð¼Ð¸
ĠÐ·Ð°ÑĤÑĢÐ° ÑĤÑĭ
ĠÐ¿Ð°ÑĢÑĤÐ½ÐµÑĢ Ð¾Ð²
ĠÑĤÐµÐ°ÑĤ ÑĢ
ĠÐĿÐ¸ÐºÐ¾Ð»Ð° Ñı
ĠÐ¾Ð· Ð´Ð¾ÑĢÐ¾Ð²
ĠÐ´Ð¾Ð»Ð³ Ð¾ÑģÑĢÐ¾
ĠÐĶÐ¸Ð½ ÑģÐºÐ¾Ð¹
ĠÐ»Ð¸ÑĨÐµÐ½ Ð·Ð¸
Ð¡Ñĥ ÑīÐµÑģÑĤÐ²
ĠÐ¿ÑĢÐµÐ´ÑĥÐ¿ÑĢÐµ Ð¶Ð´Ð°
ĠÑģÑĩÐ° ÑģÑĤÑĮÐµ
ĠÐ½ÐµÐ²ÐµÑĢÐ¾ÑıÑĤ Ð½Ð¾
ĠÐ¤Ð¸Ð»ÑĮ Ð¼Ñĭ
ĠÑģÐ¿ÑĢÐ°Ð²Ð¸ ÑĤÑĮÑģÑı
ĠÑĨÐ¸Ð²Ð¸Ð»Ð¸ Ð·Ð°ÑĨÐ¸Ð¸
ĠÐļÐµÐ¼ÐµÑĢÐ¾Ð² Ð¾
ĠÐ±ÑĭÑģÑĤÑĢ Ð¾Ð³Ð¾
ĠÐ²ÑĭÑģÐºÐ° Ð·ÑĭÐ²Ð°
ĠÐĵÐ¾ÑģÐ¿Ð¾Ð´ ÑĮ
ĠÑģÐºÐ²Ð¾Ð· ÑĮ
ĠÐĶÐŃ ÐĿÐĲÐ¡
I G
S T
t el
Ġ is
Ð° ÑĤÑĭ
Ð¾Ð ¡
Ñĥ ÑĩÐ°
ÑģÑĤ Ð¾Ð»
ĠÐ¸ Ð½Ð¾Ðµ
Ð¿ ÑıÑĤÐ¸
ĠÐ¾ ÑģÐºÐ¾ÑĢ
ĠÐ´ Ð¾Ð³Ð°
ĠÐ´ Ð¶Ð¸Ð½
ĠÑĢÐ° ÑĨÐ¸Ð¾Ð½Ð°Ð»ÑĮ
ĠÐ» Ð°Ð²
ĠÐ¾Ð± ÑīÐ°ÑĤÑĮÑģÑı
ĠÐ¿ÑĢÐ¸ ÑģÑĥ
Ð·Ð° Ð²Ð¸ÑģÐ¸
ĠÐ²Ñĭ ÑĢÑĥ
ĠÐ²Ñĭ Ð´ÐµÑĢÐ¶Ð¸
ĠÐļ Ð°Ð»
ĠÐļ ÑĢÑĥÐ¿
Ð³Ð° Ð¹
ĠÐ¶ ÐµÐ¼
ĠÐ¼Ð° ÑģÑģÐ¸Ð²
ĠÐĶ ÑĢÐ°
ĠÐĶ Ð²Ð¸Ð³Ð°ÑĤÐµÐ»ÑĮ
ĠÐ±Ñĭ Ð²ÑĪÐµÐ³Ð¾
ĠÐ¿Ð¾Ð» ÐºÐ¾Ð²
ĠÑģÑĤÐ° ÑĢÑĭÑħ
ĠÐ²Ð¾Ð· Ð±
ĠÐ£ Ð´
ĠÐ²Ð¸ ÑĢÑĥÑģ
ÑīÐ° Ð»Ð¸ÑģÑĮ
ĠÐ´Ð° ÑĳÑĤ
ĠÐĽ Ð°ÑĤ
ĠÐ·Ð½Ð° Ð»Ð¸
ĠÐ´Ð°Ð½ Ð½Ð¾Ðµ
ĠÐŁÑĢÐ¸ ÑıÑĤ
ĠÐ²ÐµÑĢ Ð½ÑĥÐ»ÑģÑı
ĠÐŁÐ¾ ÑģÐºÐ¾Ð»ÑĮÐºÑĥ
ĠÐ½Ð°ÑĩÐ° Ð»Ð°ÑģÑĮ
Ð½ÑĥÑĤ ÑĭÐµ
ĠÐ´ÐµÐ»Ð° Ð¼
ĠÐ¸Ð½ÑĤÐµÑĢ Ð¿ÑĢÐµ
ĠÐ¿Ð¾Ðº ÑĢÐ°
ĠÑĢÐ°Ð·Ð²Ð¸ ÑĤÐ¸ÐµÐ¼
ĠÐ¿Ð¾Ð»Ð¸ Ð¼ÐµÑĢ
ĠÑģÐ¼ ÐµÐ½Ð¸
ĠR uss
ĠÐ¾ÑĤÐºÑĢÑĭ Ð²Ð°ÐµÑĤ
ĠÑĥÑĩÐ°ÑģÑĤ ÐºÐ°Ñħ
ic t
ĠÑĢÐ°Ð¹ Ð¾Ð½Ñĥ
ĠÐ±Ð¸ Ð»ÐµÑĤ
ĠÑĩÐµÐ»Ð¾Ð²Ðµ ÑĩÐµÑģÐºÐ¾Ð³Ð¾
ĠÑģÐµÐº ÑĢÐµ
ĠÑģÐºÐ° Ð¶Ñĥ
ÑĨÐµÐ½ ÐºÐ°
ĠÑįÑĤÐ° Ð¶Ð°
ĠÐ·ÐµÐ¼ Ð»ÐµÑĤÑĢÑıÑģ
le x
ĠÐ¸Ð·Ð²ÐµÑģÑĤ Ð½Ñĭ
ĠÑģÑĢÐ¾Ðº Ð¾Ð²
ĠÐ½ÐµÐ¾Ð±ÑħÐ¾Ð´Ð¸Ð¼ ÑĥÑİ
ĠÐºÑĢÐ°ÑģÐ¸ Ð²ÑĭÑħ
ĠÑĢÐ°Ð·Ð´Ðµ Ð»Ñĭ
ĠÐ¿ÑĢÐ°Ð·Ð´ Ð½Ð¸ÐºÐ¾Ð²
ĠÐŁÑĢÐµÐ´ Ð¾
ĠÐ½Ð°Ð·Ð½Ð° ÑĩÐµÐ½Ð¸Ðµ
ĠÐ½ÐµÐ´Ð¾ ÑģÑĤÐ°ÑĤÐ¾ÑĩÐ½Ð¾
199 1
ĠÐ¸Ð½Ð´Ð¸Ð²Ð¸Ð´ÑĥÐ°Ð»ÑĮ Ð½ÑĭÑħ
ĠÐ¼ÐµÐ¶Ð´ÑĥÐ½Ð°ÑĢÐ¾Ð´ Ð½Ð¾Ð¹
ĠÐ¼Ð½Ð¾Ð¶Ðµ ÑģÑĤÐ²Ð°
ĠÐºÐ¾ÑĢÐ¿Ñĥ ÑģÐµ
ĠÐ¿Ð»Ð°Ð½ ÑĪ
ĠÑĢÐ°ÑģÑģÐºÐ°Ð·Ð° Ð»Ð¸
ĠÐ±Ð°Ð» Ð»Ð¾Ð²
ĠÐ´ÐµÐ»Ðµ Ð³Ð°
ĠÐºÐ°Ð¼ Ð½Ð¸
ĠÑģÑİ Ð¶
ĠÐĲÐ½Ð´ ÑĢÐ¾Ð¸Ð´
ĠÑıÐ½Ð²Ð° ÑĢÐµ
ĠÐ³Ð¾ÑĢÑı ÑĩÐµÐ¹
ĠÐ¿Ð¾Ð½ÑĢÐ°Ð²Ð¸ ÑĤÑģÑı
ĠÐ´ÑĢÐµÐ² Ð½Ð¸Ñħ
ĠÐ¼Ð°Ð»Ñĭ ÑĪ
ĠÑģÐ°Ð½ ÑĤÐ¸
ĠÐ´Ð¸Ð°Ð³Ð½Ð¾ÑģÑĤÐ¸ ÐºÐ°
ĠÐļÐ½Ð¸ Ð³Ð°
ĠÐ¿Ð¾Ð²ÑĢÐµ Ð¶Ð´
ĠÐ´Ð² ÐµÐ½Ð°
ĠÑĥÑĤÐ¾Ñĩ Ð½ÑıÐ¹ÑĤÐµ
ĠÑģÐ¾Ð¼ Ð½ÐµÐ½Ð¸Ñı
ĠÐŁÐ¾Ð¼ Ð¾ÑīÑĮ
ĠÐºÐ¾Ð¿ ÐµÐµÐº
ĠÑĥÑĤÐµ Ð¿Ð»Ð¸
ĠÑģÐ¾Ð¾ÑĢÑĥÐ¶ ÐµÐ½Ð¸Ñı
ÐĺÑģÐ¿ Ð¾Ð»ÑĮÐ·Ð¾Ð²Ð°Ð½Ð¸Ðµ
ĠÐ´Ð¾ÑģÑĤÐ¾Ð¸Ð½ ÑģÑĤÐ²Ð°
ĠÑįÐºÑģÐºÑĥÑĢ ÑģÐ¸Ð¸
ĠÐ¾ÑģÑĥÐ¶Ð´ ÐµÐ½Ð½ÑĭÑħ
ĠÑĢÐ°Ð·Ð²Ð»Ðµ ÑĩÐµÐ½Ð¸Ñı
ÐŁÐ¾Ñĩ ÐµÐ¼Ñĥ
ĠÐ¿ÐµÑĢÐµÐºÐ»ÑİÑĩÐ° ÑĤÐµÐ»ÑĮ
ĠÐĽÑĮ Ð²Ð¾Ð²
Ð±Ð°Ð»Ð°Ð½ ÑģÐ¸
ĠÐ´Ð¾ÑģÑĤ Ð¾Ð¿ÑĢÐ¸Ð¼ÐµÑĩÐ°
ĠÐ²Ð¿Ð¾ÑģÐ»ÐµÐ´ ÑģÑĤÐ²Ð¸Ð¸
o und
Ġ ãĥ
Ñı ÑīÐµÐ¹
Ð² Ð¾Ðº
ÑĮ ÐµÐ·
Ð¿ ÑĢÐ¾Ð²
ĠÐ¾ ÑģÑĤÐ°Ð²Ð»ÑıÐµÑĤ
Ð± Ð»Ð°
ĠÐº Ð»ÐµÐ¹
Ð¾Ð» Ð°Ð·
Ð»Ð¸ Ð·Ð¼Ð°
ĠÐ¿Ð¾ ÑģÐ°
ĠÐ·Ð° Ð±Ð¸
ÑģÑĤÐ° Ð»Ð»Ð¸
ĠÐ° Ð½Ð¾Ð½
ĠÐºÐ° Ð±ÐµÐ»ÑĮ
ĠÐŁ ÑģÐºÐ¾Ð²
ĠÐŁ ÑĢÐ¾Ð±Ð»ÐµÐ¼
ĠÐĴ Ð°Ð½
ĠÐĴ ÑĭÑħ
Ð¼Ð° ÑĢÐ°
ÑģÐ¸ ÑģÑĤÐµÐ¼
ĠÐ²Ñĭ Ð´ÐµÐ»Ð¸
ĠÐ¿ÑĢÐ¾ Ð½Ð¸ÐºÐ°
ĠÐľ Ð¾Ð³Ð¸
ĠÑĤÐµ ÑģÑĤ
ĠÑĤÐµ Ð·Ð¸
ĠÑĤÐ° Ð¸Ð½
Ð¡ Ð¾Ð·
ĠÐĶ Ð¾Ðº
ĠÑģÐ¾ Ð¸ÑģÐºÐ°
ÑĥÐ´ ÑĢÑı
ĠÑı Ð²Ð¸
ĠÐĵ Ð°Ð»Ð¸
ĠÑģÐ¿ ÑĢÑı
ĠÑģÐ¸ Ð³Ð°
ĠÐ²Ðµ ÑĢÐ¸ÑĤÑĮ
ĠÐ²Ð¸ Ð±
Ð¼Ñĥ ÑĢÐ°
ĠÑĪ Ð¿Ð¸
ĠÑĢ ÐµÐ½ÑĤ
ĠÐ¿Ð° ÑĢÐµ
ĠÐ¿Ð° Ð¿Ð°
Ð¿ÑĢÐ¸ Ð·
Ð¤ Ð¾ÑĤÐ¾
ĠÐĴÑĭ Ð±Ð¸ÑĢÐ°
ĠÐ»ÑİÐ± Ð¾Ð¼Ñĥ
an y
ĠÑģÐ° Ð´Ñĥ
ĠÐ²ÑĭÑģ Ð¾
ĠÐ²ÑĭÑģ Ð¾ÑĤÑĥ
ÑħÐ¸ Ð¸
ÑĩÐµÐ½ Ð½ÑĭÐ¼
ÐĿÐ° ÑĪÐ¸
at h
ĠÐºÐ»Ð¸ Ð¼Ð°
ĠÐºÐ¸ ÑĪÐºÐ¸
ĠÐ¿ÑĢÐ¾Ð´ ÐµÐ¼Ð¾Ð½ÑģÑĤÑĢÐ¸
ĠÐºÐ¾ ÑĪÐµÐ»ÑĮ
ĠÑĥÐ´Ð° ÑģÑĤÑģÑı
ĠÐĺÑģÐ¿ Ð¾Ð»ÑĮÐ·Ñĥ
ĠÐ¶Ð¸Ð² ÑĭÑħ
ĠÑħÐ¾ÑĢÐ¾ÑĪ ÑĥÑİ
ĠĠ Ġ
ol og
ĠÐ½Ð°ÑĢÑĥ Ð¶Ð½Ð¾Ð¹
ĠÑįÐºÐ¾Ð½Ð¾Ð¼Ð¸ ÐºÐµ
ĠÐ±ÐµÑĢÐµ ÑĤ
ĠÐ¾Ð¿Ð»Ð° ÑĩÐ¸
ĠÑįÐ»ÐµÐºÑĤÑĢÐ¾Ð½ Ð½ÑĭÐµ
ĠÑģÐ¸Ð¼ Ð¿Ð°ÑĤÐ¸
ĠÑıÑĢ ÐºÐ¾
ec raft
ĠÑģÑĤÑĢÐµ Ð»ÑĮ
ĠÐ·Ð°ÐºÑĢÑĭ ÑĤÑĮ
ĠÐ½Ð°ÑĥÑĩ Ð½Ð¾Ð¹
ĠÐľÐ¾Ð» Ð¾Ð´
ĠÐ·Ð°Ð¼Ðµ Ð´
ĠÐ¸ÑģÐ¿Ð¾Ð»ÑĮÐ·Ñĥ ÐµÐ¼
ĠÐºÑĢÑĥÐ³ Ð»Ð¾ÑģÑĥÑĤÐ¾
ĠÐ±Ð¾Ðµ Ð²Ð¸
Ð½Ð´ Ð¾Ðº
ĠÐ¼ÑĭÑĪ Ð»ÐµÐ½Ð¸Ñı
ĠÐĽÑĥ Ð³Ð°Ð½
ĠÐ½Ð°Ð¿ÑĢÐ°Ð²Ð»ÐµÐ½Ð¸Ñı Ñħ
ĠÑģÐ¾Ð¾ÑĤÐ²ÐµÑĤÑģÑĤÐ²ÑĥÑİ ÑīÐµÐ¹
ĠÐ²ÑĭÑģÑĤÐ°Ð² ÐºÐµ
ĠÐ±Ð»Ð¸Ð¶Ð°Ð¹ ÑĪÐ¸Ðµ
ĠÑģÐ²Ð¸Ð´ÐµÑĤÐµÐ»ÑĮ ÑģÑĤÐ²Ð°
ĠÐ·Ð°Ð¼ÐµÐ½ Ñĭ
ĠÐ²ÑĭÐ¿Ð¾Ð»Ð½ ÐµÐ½Ð°
ĠÐ»ÐµÐºÐ°ÑĢ ÑģÑĤÐ²Ð°
ĠÐ¾Ð±Ð»Ð°ÑģÑĤ Ð½Ð¾Ð¹
ĠÐ½ÐµÐ´Ð¾ÑģÑĤÐ° ÑĤÐ¾Ðº
ĠÐ·Ð°Ð¼ÐµÑĤÐ¸ Ð»
ĠÐ¢ÐµÐ»Ðµ ÑĦÐ¾Ð½
ĠÐ·ÑĢÐ¸ ÑĤÐµÐ»ÐµÐ¹
ĠÐ±Ð»Ð°Ð³Ð¾ ÑĥÑģÑĤÑĢÐ¾Ð¹
ĠÑĦÑĢÐ¾Ð½ ÑĤÐ°
ĠÑģÐ½Ð¸Ð¶Ð° ÐµÑĤ
ĠÐŁÑĢÐ¾ÑĦÐµÑģÑģÐ¸Ð¾Ð½Ð°Ð»ÑĮ Ð½ÑĭÐµ
ĠÐŁÐµÑĤÐµÑĢÐ±ÑĥÑĢ Ð³
ĠÐºÐ¾Ð½ÑĨÐµÐ¿ ÑĨÐ¸Ð¸
ĠÑĥÑĩÐµ ÑģÑĤÑĮ
ĠÐ½Ð°ÐºÐ°Ð·Ð° Ð½Ð¸Ðµ
ĠÑģÐ²ÐµÐ¶Ð¸ Ðµ
ĠÑģÑĤÑĥÐ´Ð¸ Ð¸
ĠÑģÐ²ÑıÑĤ Ð¾Ð³Ð¾
ÐľÐ°ÑĤÐµÑĢÐ¸ Ð°Ð»
ĠÐĳÐ»Ð° Ð³Ð¾Ð²ÐµÑīÐµÐ½
ĠÐŀÑĢÐµÐ½ Ð±ÑĥÑĢÐ³
3 60
u ro
» ¿
ï »¿
Ðµ Ð»ÑĮÐ½ÑĭÐµ
Ð½ Ð½Ð¾Ðµ
Ð» Ð»ÐµÑĢ
Ð¾Ð² Ð¾Ð¼
Ñİ ÑĢÐ°
ÑĢÐ¸ Ð·
ÐºÐ° Ð½Ð¸Ñı
ĠÑĥ Ð·Ð¾ÑĢ
Ð»Ñı ÑĤÑģÑı
ĠÑĤ Ð¾ÐºÑģÐ¸
ĠÐ¿ÑĢÐ¸ ÑħÐ¾Ð´ÑıÑĤ
Ð²Ð¸ ÑĨÐ°
Ð·Ð° Ð¼
ĠÐ²Ñĭ Ð´ÐµÐ»Ð¸ÑĤÑĮ
Ð´Ð¸ Ð½Ñĭ
ĠÑĢÐµ ÑĪÐ°ÐµÑĤ
ĠÐľ Ð°Ð»ÑĮ
ÐŁ Ð¾Ð·
ĠÐ¢ ÑĢÐµÑĤÑĮ
ĠÐ¢ ÑĢÐ°Ð½Ñģ
ĠÑħ Ð»ÐµÐ±
ĠÐĳ ÑĢÐ°Ð·Ð¸
ĠÐ¼Ðµ Ð»Ð¾
Ð¶Ð¸ Ðµ
Ð»Ñİ ÑĩÐµÐ½Ð¸Ðµ
ĠÐĵ ÐĲ
Ð¾Ð½Ð° ÑĢ
ĠÐ¿ÑĢÐµ Ð¿Ð¾Ð´
ĠÐ±ÑĥÐ´ ÑĮ
ĠÐķ Ð³Ð¸Ð¿
ÑĥÑĩ ÐºÐ°
ĠÐ¿Ðµ ÑĩÐºÐ¾Ð¹
ĠÐ²Ð¾ ÐµÐ½Ð½Ð¾Ð¹
ÐĽ Ð£
ÑģÐ¾Ð² ÑĭÑħ
ĠÐ¼Ð¾Ð³ Ð»Ð¾
ar i
ĠÐ²Ð¸Ð´Ðµ Ð¾ÐºÐ°Ð¼
Ð½ÑĥÑĤ Ñĭ
ĠÑĢÑĭ Ð±Ñĥ
ĠÐ»ÑĥÑĩ ÑĪÐ¸Ð¼
ĠÐ²Ð»Ð° Ð³Ð°Ð»Ð¸
ĠÑĦÐ° Ð½Ð°
ĠÑĦÐ° ÐºÑĤÑĥ
ĠÑĥÑĢÐ¾Ð² Ð½Ñİ
ĠW orld
ĠÑģÐ¾Ð²ÑĢÐµÐ¼ÐµÐ½ Ð½ÑĭÐ¼
ĠÐ¿ÑĢÐµÐ´ÑģÑĤÐ°Ð²Ð¸ ÑĤÐµÐ»Ñı
ĠÐ¸Ð´Ðµ Ñİ
ĠÐ¿Ð¾ÑģÑĤÐ¾ÑıÐ½ Ð½Ð¾Ð¹
ĠÐŁÐ° ÑĢÐ°
Ð½Ð¸ÑĨ ÐºÐ¸Ð¹
ĠÑĩÑĥÐ² ÑģÑĤÐ²Ð¾Ð²Ð°ÑĤÑĮ
ĠÑĦÐ¾ÑĢÐ¼Ð° ÑĤ
ĠÐ·Ð°Ð¿Ð° Ñħ
ĠÐ¿ÑĢÐ¾ÑĦÐµÑģÑģÐ¸Ð¾Ð½Ð°Ð»ÑĮ Ð½ÑĭÐ¹
ĠÑįÐ»ÐµÐºÑĤÑĢÐ¸ ÑĩÐµÑģÐºÐ¸Ðµ
ÑĤÐ°Ðº ÑĤÐµ
ĠÐ³ÑĢ Ð¾Ð·
ĠÑĤÑĢÐµÑĤÑĮ ÐµÐ³Ð¾
ĠÑģÑİ ÑĢ
ĠÑĢÐµÐ´Ð° ÐºÑĤÐ¾ÑĢ
ĠÐ½Ð°Ðº Ð»Ð¾Ð½
ĠÑģÐ¾ÑĩÐµÑĤÐ° Ð½Ð¸Ðµ
ĠÑĨÐ¸ÑĦ ÑĢÑĭ
ĠÐ¸Ð½Ð²ÐµÑģÑĤÐ¸ ÑĨÐ¸Ð¹
ĠÐ¿ÑĥÑĤÐµÑĪÐµ ÑģÑĤÐ²Ð¸Ðµ
ĠÐ²Ð»Ð°Ð´ÐµÐ»ÑĮ ÑĨÐ°
ĠÑģÑĥÐ´ÐµÐ± Ð½ÑĭÑħ
ĠÐ½ÐµÐ´Ð¾ÑģÑĤÐ° ÑĤÐºÐ¸
ĠÑĢÐµÐ°Ð»Ð¸Ð· Ð¾Ð²Ð°ÑĤÑĮ
ĠÐ¿ÑĢÐ¾ÑĦÐµÑģÑģÐ¸Ð¾Ð½Ð° Ð»Ð¾Ð²
ĠÐ³ÑĢÑĥÐ´ ÑĮ
ĠÐ²ÐµÑĤÐµ ÑĢÐ°Ð½Ð¾Ð²
ĠÐĵÑĢÑĥ Ð·Ð¸Ð¸
Ġon line
ĠÑĢÐ°ÑģÑģÐ¼Ð¾ÑĤ ÑĢÐµÐ½Ð¸Ñı
ĠÐ±Ð»Ð°Ð³Ð¾Ð´Ð°ÑĢ Ð½Ð¾ÑģÑĤÑĮ
ĠÐ²Ð´Ð¾Ñħ Ð½Ð¾Ð²
ĠÐ¿Ð¾Ð´ÑĢÐ¾ÑģÑĤ ÐºÐ¾Ð²
ĠÐŁÑĥÐ±Ð»Ð¸ ÐºÐ°ÑĨÐ¸Ð¸
ĠÐŀÑĦÐ¸ÑĨÐ¸Ð°Ð»ÑĮ Ð½ÑĭÐ¹
ĠÑģÑĥÐ¿Ð¿ Ð¾ÑĢÑĤ
ÑĦÑİÐ¼Ðµ ÑĢÐ¸Ñı
ĠÑģÐ¾Ð±Ðµ ÑģÐµÐ´
ĠÐŀÐ¡ÐĲ ÐĵÐŀ
S c
b ox
Ġ \
Ñģ Ð¾Ñģ
Ð» Ð¾Ð´
ÑĮ ÐµÑĢÐµ
ÑĮ ÐµÑĢÑĭ
ĠÐ½Ð° Ð½ÐµÑģÑĤÐ¸
ĠÐ· Ð¸Ð¼Ñĥ
ĠÑĥ ÐºÑĢÑĭ
ĠÐ½Ðµ Ð»Ð¸
Ð»Ðµ Ð¿
Ð»Ðµ Ð²Ð¸Ð´
ĠÐ·Ð° Ð»Ð°
ĠÐ·Ð° Ð³Ð»Ñı
ĠÐ·Ð° ÐºÐ¾Ð½Ñĭ
ĠÐ» ÐµÐ·
ĠÐ» Ð¾Ð¿Ð°
ĠÐ¾ÑĤ Ð±Ð¾ÑĢ
ÑĩÐµ Ð²Ð¸Ð´
ĠÐĴ Ð½Ðµ
ĠÐĴ ÑħÐ¾Ð´
ĠÐ¿ÑĢÐ¸ ÐµÐ·Ð¶Ð°
Ð¼Ð° Ð½Ð¸
ĠÐ²Ñĭ Ð²ÐµÑģÑĤÐ¸
ÑĤÐµÐ»ÑĮ Ð½Ð¸ÑĨÐ°
ĠÐ¿ÑĢÐ¾ ÑħÐ¾Ð´
ĠÑĢÐµ Ð»Ðµ
ĠÐ¸Ð· Ñı
ĠÐ¸Ð· ÑĬ
ĠÐ¸Ð· Ð²Ð»Ðµ
ĠÐľ Ð¾Ñı
ĠÑĤÐµ Ð¼Ð¸
ĠÐŀ Ð¿Ð»Ð°ÑĤÐ°
ĠÑĢÐ°Ð· Ð½Ð¾Ð¹
Ð¡ Ð¿Ð¸
ĠÐĶ ÐµÐ¼
ĠÐł Ð¸Ð¼
ĠÂ Ĺ
ÑĢÐ¾Ð² ÑĭÐ¹
ÐĲ Ð½Ð´
ÐĿ Ð¾Ð²Ð°Ñı
ĠÐĳ Ð»Ð°Ð³Ð¾Ð´Ð°
ĠÑģÐ¸ Ð»Ð°Ð¼Ð¸
ĠÐ£ ÑĩÐ¸
ĠÐ£ Ðļ
ĠÐ¿ÑĢÐµ Ð´Ð°
ĠÑĪ Ð²ÐµÐ´
Ðĳ Ðł
ĠÐ½Ð¾Ð² Ð¾Ð¼Ñĥ
ĠÐŁÑĢÐ¸ Ð°Ð¼
ĠÐ²Ð¾Ð·Ð¼Ð¾Ð¶ Ð½Ð¾ÑģÑĤÑıÐ¼Ð¸
ĠÐŀÐ± ÑĢÐ°ÑĤÐ½Ð°Ñı
ĠÑĢÐ°Ð±Ð¾ÑĤÐ° ÐµÐ¼
ĠÐ¼Ñĥ ÐºÐ¸
ĠÐ¿ÑĢÐ°Ð²Ð¸ Ð»Ð°Ð¼
ÐŃ ÑĤÐ¸
ĠB ro
ĠÐ°ÑĢ ÑĤ
Ð¾ÑĤÐµ Ð»Ð¾ÑģÑĮ
ĠÐ²Ð»Ð° Ð¶Ð½Ð¾ÑģÑĤÐ¸
Ð¾ÑĤÐ¾ÑĢ ÑĭÐ¹
ĠÑģÐµÐº ÑĢÐµÑĤÐ°
ĠÐ³ÑĢÐ° Ð½Ð¸
ĠÑĨÐµÐ½ÑĤ ÑĢÐ¾Ð¼
ĠE d
ĠÑĨÐ¸ ÑĤÐ°
ĠÐ°Ð²ÑĤÐ¾Ð¼Ð¾Ð±Ð¸ Ð»Ðµ
ĠÐ¸Ð½ÑĤÐµÑĢÐµÑģ Ð½Ð¾Ðµ
ĠÐ¿ÑĢÐ¾Ð²ÐµÐ´ ÐµÐ½Ð¸Ñİ
Ð¾Ð¿Ð°Ñģ Ð½Ð¾ÑģÑĤÑĮ
ĠÐĲÐ² ÑģÑĤÑĢÐ°
ĠÐ¿Ð¾Ð»ÑĥÑĩ ÐµÐ½Ð½ÑĭÑħ
ĠÐ¾Ð±Ñĭ ÑĩÐ½Ð¾Ð¹
ĠÐŀÐ´ Ð½Ð¸Ð¼
Ð½ÐµÐ½ Ð½ÑĭÐ¹
Ð½Ð°Ð´ Ð·Ð¾ÑĢÐ°
ĠÐ²Ð°ÑĢÐ¸Ð°Ð½ ÑĤÐ°
ĠÐ´Ð¾ÑģÑĤÑĥÐ¿ ÐµÐ½
ĠÑĩÐµÑĢ Ð½Ð¾Ð³Ð¾
ĠÑģÐ¾Ð´ÐµÑĢÐ¶Ð° Ð½Ð¸ÐµÐ¼
ĠÑĩÐ¸ ÑģÑĤÐ¾Ð¹
ĠÐ½Ð°Ð´Ðµ Ð¶Ð½Ð¾ÑģÑĤÑĮ
ĠÑģÑĥÐ¼ ÐºÐ¸
ad e
ĠÑĤÐµÐ¿ Ð»Ð¾Ð¹
ĠÐ¼Ð¸Ð½Ð¸ Ð¼Ñĥ
ĠÐ¿ÑĢÐ¸Ð¼ÐµÑĢ Ñĭ
ĠÐ¸Ð·Ð³Ð¾ÑĤÐ¾Ð² Ð»ÐµÐ½Ð°
ĠÐ¿ÑĢÐ¾Ð²ÐµÑĢ Ñı
ĠÐ¿ÑĢÐ¾Ð²ÐµÑĢ ÐºÐ°
ĠÑĥÑĩÐµÐ± Ð½ÑĭÑħ
ĠÐ¼Ñı Ñĩ
ĠÐ¼Ð¸Ðº ÑĢÐ¾Ðº
Ð¡Ð¡ Ðĺ
ĠÐ¿Ð¾Ð·Ð¸ ÑĨÐ¸Ð¹
ĠÐļÐ°ÑĢ ÑĤÐ°
ĠÐ¿Ð¾Ð´Ð°ÑĢ ÐºÐ¾Ð²
ĠÐ´ÐµÑĢÐµÐ² ÑĮÑı
ĠÐĳÐ¾Ð»ÑĮ ÑĪÐ¸Ð½ÑģÑĤÐ²Ð¾
ĠÐľÐ°Ðº ÑģÐ¸Ð¼
ĠÐ¼ÐµÐ¶Ð´ÑĥÐ½Ð°ÑĢÐ¾Ð´ Ð½ÑĭÐ¹
ĠÑĥÐ»ÑĥÑĩ ÑĪÐ°ÐµÑĤ
ĠÑĢÐ°Ð·Ð½Ð¾ Ð¾Ð±ÑĢÐ°Ð·Ð¸Ðµ
ĠÑħÑĢÐ° Ð½Ð¸ÑĤÑĮ
Ð·ÐµÑĢ Ð¶Ð¸Ð½
ĠÐ°ÑĥÐ´Ð¸ ÑĤÐ¾ÑĢÐ¸Ð¸
ĠÑĤÐµÐ½ Ð³Ðµ
ĠÑģÐ¸Ð½ ÑĤÐµÑĤÐ¸
ĠÐ·Ð°Ð±Ð¾Ð»ÐµÐ²Ð°Ð½Ð¸Ñı Ñħ
ĠÐ¼Ð°ÑģÑģÐ° Ð¶Ð°
ĠÑĤÑĥÑĢÐ½Ð¸ ÑĢ
ĠÐ¿ÑĢÐ¾ÑĤÐ¸Ð²Ð¾Ð¿ Ð¾ÐºÐ°Ð·Ð°
ĠÑįÐ¼Ð¾ ÑĨÐ¸Ð¹
ĠÑģÑĤÐµÐºÐ»Ð¾ Ð¾ÑĩÐ¸ÑģÑĤÐ¸
ĠÐ´ÑĭÑħÐ° Ð½Ð¸Ñı
ĠÑģÐºÐ°Ð· ÐºÐ¸
ĠÑĥÑĢ Ð¾Ð¶Ð°Ð¹
ĠÐ§ÐµÐ»ÑıÐ±Ð¸Ð½ ÑģÐº
ĠÑĢÐ¾Ð² Ð½Ð¾
ĠÐ¡Ð¾Ð» Ð½Ðµ
ÐŁÑĢÐ¾Ð´ Ð°Ð¼
ĠÐ²Ð¾ÑģÐ¿ÑĢÐ¾ Ð¸Ð·
ĠÐ¿ÑĢÐµÐ¾Ð´ Ð¾Ð»
ĠÑĤÑĢÑĥÐ´Ð¾ ÑĥÑģÑĤÑĢÐ¾Ð¹
ÑĢÐ°ÐºÑĤÐµÑĢÐ¸ ÑģÑĤÐ¸ÐºÐ¸
ĠÐĹÐ´Ð¾ÑĢÐ¾Ð² ÑĮÐµ
ĠÐ±ÐµÐ·Ð´Ðµ Ð¿Ð¾Ð·Ð¸ÑĤ
orr ent
I L
e ed
j a
Ð´ Ð¾Ð¿
Ð´ Ð¶Ðµ
Ð¾Ð² ÐµÐ´
Ð³ Ð»Ð¸
Ð¾Ð» ÐºÐ°
ÑĤÐµ Ð»ÐµÐ½
ĠÐ· Ð²ÐµÑĢ
Ð»Ñı Ñİ
ÑĢÑĥ ÑİÑīÐ¸Ð¹
ĠÑĤ Ñĳ
ĠÐ° Ð¹
ĠÐ¾ÑĤ ÑĤÑĥÐ´Ð°
Ð´Ðµ ÑģÑıÑĤ
ĠÐĴ ÐµÐ½ÑĤÐ¸Ð»Ñı
ĠÐ¿ÑĢÐ¸ Ð¾
ĠÐ²Ñĭ ÑĪÐ»Ð¸
ĠÐµ ÑħÐ°ÑĤÑĮ
ĠÐ¿ÑĢÐ¾ ÑĩÐµÐµ
ĠÐ¶ ÐµÐ½Ñĭ
Ð°Ð¼ ÑıÑĤ
.. ...
ÐĴ Ð»Ð°Ð´Ð¸
ĠÐ»Ð¸ ÑģÑĤÑĮÑı
Ðľ Ð¸Ð½
ĠÐ²Ð¾Ð· ÑĮ
ÑħÐ¾Ð´Ð¸ Ð»Ð¾
ĠÐĽ Ð¾Ð¼
ĠÐ¤ Ð°ÑĢ
ĠÐ¤ Ð¾ÑĢÐµÐºÑģ
ĠÐ¿Ð° ÑģÐ¿Ð¾ÑĢ
Ð£ Ð¿ÑĢÐ°Ð²Ð»ÐµÐ½Ð¸Ðµ
ĠÐ§ ÐµÐ»
ĠÐ¿Ð»Ð° Ð½Ð¾Ð²
ÐĽ Ð®
ĠÑģÐ¾Ð± ÑģÑĤÐ²ÐµÐ½Ð½Ð¾
Ð¿Ñĥ Ð±Ð»Ð¸
ÑģÐ¾Ð² ÐµÑĤ
on y
ĠÐºÐ¾ÑĢ Ð¾Ð»ÐµÐ²
ĠÐ¼Ð¾ ÑģÑĤ
Ð´Ð¾Ð² Ð¸
ÑĩÐµÐ½ ÑĭÐµ
ÑĦÐµ ÑĢÐ¸
ĠÐ½Ð°Ñģ Ð»Ð°Ð´Ð¸
ĠÐ¼ÐµÑĤ ÑĢÐ°
ĠÐĿÐµ Ð¾Ð±ÑħÐ¾Ð´Ð¸Ð¼Ð¾
Ð½ÑĥÑĤ ÑĭÑħ
ĠÐºÐ°Ð¶Ð´ Ð¾Ðµ
Ð¥ ÐĲ
ĠÑģÐ¾Ð¾Ð± ÑīÐ°
ĠÑĤÐ¸ ÑĤÑĥ
ĠÐ¾ÑĤÐ´Ðµ Ð»ÐºÐ¸
ĠÐºÐ¾ ÑĪÐµÐº
ÑĢÐ°Ð±Ð¾ÑĤ ÐºÑĥ
ĠÑģÐ²Ð¾Ðµ Ð²ÑĢÐµÐ¼ÐµÐ½
ĠÑĢÐ°Ð·Ð»Ð¸Ñĩ Ð½Ð¾Ð¹
ĠÐ·Ð°Ð± Ð»Ñĥ
ĠÐ¼ÑĥÐ¶ ÑģÐºÐ¸Ðµ
ĠÐ´Ð¾Ð² Ðµ
ĠÐ¿ÑĢÐ¾Ð´Ð¾Ð» Ð¶Ð°ÑĤÑĮ
ĠÑĢÐµÐ°Ð»ÑĮ Ð½Ð¾Ð³Ð¾
ĠÑįÐ½ÐµÑĢ Ð³Ð¾
ĠÐ¿Ð¾Ð´Ð³Ð¾ÑĤÐ¾Ð² Ð¸ÑĤÑĮ
ĠÐ§Ðµ ÑħÐ»Ñĭ
ĠÐ¿Ð¾Ð½Ð¸Ð¼Ð° ÐµÑĤ
ĠÐ½Ð°ÑģÐµ ÐºÐ¾Ð¼
ĠÐ¸Ð½Ð´Ð¸Ð²Ð¸Ð´ÑĥÐ°Ð»ÑĮ Ð½ÑĭÐ¹
ĠÑįÐ»ÐµÐºÑĤÑĢÐ¸ ÑĩÐµÑģÐºÐ¸Ð¹
ĠÐ°Ð²ÑĤÐ¾ÑĢ Ð¸ÑĤ
ĠÐ¾ÑģÐ¾Ð±ÐµÐ½ Ð½Ð¾ÑģÑĤÐµÐ¹
ĠÐ°Ð²ÑĤÐ¾Ð¼Ð°ÑĤÐ¸ Ð·Ð¸ÑĢÐ¾Ð²Ð°Ð½
ĠÑĢÐ°ÑģÐ¿ÑĢÐ¾ÑģÑĤÑĢÐ°Ð½ ÐµÐ½Ð¸Ñı
ĠÐ½Ð°Ð¿Ð¸ ÑĤÐ¾Ðº
Ð¼Ð°ÑĢ ÐºÐµÑĤ
ĠÐ´ÐµÐ² Ð¾ÑĩÐºÐ°
ĠÐ¼ÐµÐ» ÐºÐ¸Ðµ
Ð²ÐµÐ¹ ÑĨÐ°
ĠÑĥÑģÑĤÐ°Ð½Ð°Ð²Ð»Ð¸ Ð²Ð°ÑĤÑĮ
ĠÐ³ÐµÐ½ÐµÑĢÐ° Ð»
Ð¸ÑģÐ¿ Ð¾Ð»Ð½Ð¸ÑĤÐµÐ»ÑĮ
ĠÑģÐ¾Ð¾ÑĤÐ²ÐµÑĤÑģÑĤÐ²ÑĥÑİÑīÐ¸ Ð¹
ÐľÐ¸ Ð½Ð¸
Ð¿Ð¾Ð· Ð¸ÑĤÐ°
ĠÑįÐºÑĢÐ° Ð½Ðµ
ĠÐ¾Ð±ÑĬÐµÐ´Ð¸Ð½ ÐµÐ½Ð¸Ñı
ĠÐºÐ¾Ð¼Ð¼ÑĥÐ½Ð¸ÐºÐ° ÑĨÐ¸Ð¸
ĠÐ²ÑģÐ¿Ð¾Ð¼ Ð½Ð¸ÑĤÑĮ
ĠÐ½Ð°Ð½ÐµÑģ ÐµÐ½Ð¸Ñı
ĠÑģÐ²Ð°Ð´ÑĮ Ð±Ñĥ
ĠÐĳÐ¾ÑĢÐ¸ Ñģ
ĠÑĦÐ°ÐºÑĥÐ»ÑĮ ÑĤÐµÑĤÐ°
ĠÐ½Ð°Ð¿ÑĢÐ°Ð²Ð¸ ÑĤÑĮ
ĠÑģÑĭÑĢ ÑĮÑı
ĠÐ´Ð¾Ð²Ð¾Ð»ÑĮ Ð½Ñĭ
ĠÐ¸Ñī ÐµÑĤ
ĠÐŁÐµÑĢÐ¼ ÑĮ
ĠÑĢÐ¾Ð·Ñĭ Ð³ÑĢÑĭ
ĠÐ½Ð°Ð´Ð·Ð¾ÑĢ Ñĥ
ĠÐ°ÑĥÐº ÑĨÐ¸Ð¾Ð½Ð°
ĠÐ¸Ð·Ñĭ ÑģÐºÐ°Ð½
ĠÐ£Ð· Ð±ÐµÐºÐ¸
ĠÑįÐ»ÐµÐºÑĤÑĢÐ¾ÑįÐ½ÐµÑĢ Ð³Ð¸Ð¸
' s
ÑĤ Ð½Ð¾Ð¼
Ñĥ ÑģÑĤÐ°Ð½Ð¾Ð²
ĠÑģ Ð¶Ð°
ĠÑģ Ð¼ÐµÑĤ
Ð¿ ÑĮ
Ð¿ ÑĢÐ°ÐºÑĤÐ¸
ĠÐ´ Ð½Ð¾
ĠÐ½Ð° ÑĢÐ°ÑīÐ¸
Ð¶ ÐºÐµ
ĠÑĢÐ° ÐºÐ°
Ð¼Ð¸ ÑĤÑĮ
ĠÐ¾Ð± Ð»Ð¾Ð¶
ĠÐºÐ° ÑĢÐ°Ð½Ð´Ð°
ĠÐŁ Ðľ
ĠÐĴ Ð¾Ð¿ÑĢÐ¾Ñģ
Ð½Ðµ Ð²Ð¾
ĠÐ²Ñĭ Ð²Ð¾Ð´Ð°
ĠÐļ ÐµÑĢ
ĠÐļ Ð¸Ð¼
ĠÑĢÐµ ÑģÑĤÐ¾ÑĢÐ°Ð½
ĠÑĦ Ð°Ð½
ĠÐ¿Ð¾Ð» Ð¾Ð¼
ĠÐ´Ðµ Ð´Ñĥ
ĠÐ´Ðµ ÑĦÐ¸ÑĨÐ¸
ĠÐ´Ðµ Ð¿Ð¾Ð·Ð¸ÑĤÐ°
ÑĦÐ¸ ÑĢ
ĠÐ²Ð¸ Ð½Ð¾
ĠÐ¿Ð¾Ñģ ÑĥÐ´Ñĭ
ĠÑĢÑĥ Ð»Ñı
ĠÐ¤ Ðĺ
ĠÐĿÐ° ÑĤÑĥÑĢÐ°Ð»ÑĮ
ĠÑĩÐµ Ñģ
ĠÐ³Ð¾ÑĢ Ð¼Ð¾Ð½Ð°Ð»ÑĮ
Ð¼Ð¾ÑĤ ÑĢÐ¸Ð¼
Ð½ÐµÐ¹ ÑĪÐ¸Ð¹
ĠÑģÐ¾Ð± Ð¸
ĠÐ¶Ð¸ Ð»Ð¾Ð³Ð¾
ĠÐłÐ¾ÑģÑģÐ¸ ÐµÐ¹
ĠÐ¿Ð¾Ð»Ñĥ Ð¾ÑģÑĤ
ĠÑģÑĤÑĢÐ° Ð½Ð¸
Ð¤ Ð¾ÑĢÐ¼Ð°
Ð³Ð¾Ð² Ñĭ
ĠÑĨÐµ Ð»Ð¾
ĠÑĢÐµÐ· ÑĮ
ĠÐŀÐ± ÑīÐ¸Ð¹
ĠÐ¾ÑģÐ½Ð¾Ð² Ð½Ð°Ñı
ÑīÐµÐ½ Ð½Ð°Ñı
ÑĪÐºÐ¸ Ð½Ð°
ro m
ĠG S
ĠÐ¶ÐµÐ½ ÑģÐºÐ¸Ð¹
ÑıÐ½ ÐºÐ°
ÑıÐ½ ÐºÐ¸
ĠÐ»ÐµÐ³ ÐºÐ¸Ñħ
ĠÐĶÐ° Ð²Ð°Ð¹ÑĤÐµ
ĠÐ¡Ð° ÑĥÐ´Ð¾Ð²
ĠÐ¡ÑĤÐ° ÑĢ
ĠÐļÐ¾Ð½ ÑģÑĤÐ¸ÑĤÑĥ
ĠÐ¾Ð±Ð¾ÑĢÑĥÐ´ Ð¾Ð²Ð°Ð½Ð¸ÐµÐ¼
ĠÐ¾Ð±Ñĭ ÐºÐ½Ð¾Ð²
ĠÐ°ÐºÑĤÐ¸Ð² Ð½Ð¾Ð³Ð¾
ĠÐ¼ÐµÑģÑĤ Ð¾Ð¼
ĠÐ²Ð¾Ð¹ ÑģÐºÐ°
ĠÐ´Ð¾ÑģÑĤÑĥÐ¿ Ð½Ð¾
ÑĤÐ¸ÑĢÑĥ ÑİÑĤ
Ð½Ð¾Ðº ÑĢÐ°ÑĤÐ½Ð¾
Ð¾Ð±ÑĢÐ°Ð¶ ÐµÐ½Ð¸Ðµ
ĠÐĴÐµ ÑģÑĮ
ĠÑıÑĢ ÐºÐ¸Ñħ
ĠÑıÑĢ ÐºÐ¸Ð¹
ĠÐ¿Ð¾Ð³ ÑĢÑĥÐ·
ĠÐ·Ð²Ñĥ ÐºÐ¸
ĠÐ²ÐºÐ»Ñİ ÑĩÐ°ÑĤÑĮ
ĠÐ¾ÑģÐ¾Ð±ÐµÐ½ Ð½Ð¾ÑģÑĤÑĮ
ĠÑĥÐ· Ð»Ð¾Ð²
ĠÐ±Ð°Ð» ÐºÐ¾Ð½
ĠÐľÐ¾ÑģÐºÐ¾Ð² ÑģÐºÐ¾Ð³Ð¾
ĠÐ½Ð°Ð¿Ð¸ ÑĤÐºÐ¸
ĠÐ°Ð¼ÐµÑĢÐ¸ÐºÐ°Ð½ ÑģÐºÐ¾Ð¹
ĠÐ·Ð°Ð±Ñĭ Ð²Ð°ÑĤÑĮ
ĠÐ²Ð¸Ð´Ð° Ð¼Ð¸
ĠÐ¿ÐµÑĢÑģÐ¾Ð½Ð° Ð»
ĠÐ½ÐµÑģÐºÐ¾Ð»ÑĮ ÐºÐ¸Ð¼Ð¸
ĠÐ¼ÑıÐ³ ÐºÐ¾Ð¹
ĠÐ²Ð¾Ð´Ð¸ ÑĤÐµÐ»ÐµÐ¹
ĠÐºÐ¾Ð½ÑģÑĥÐ»ÑĮ ÑĤÐ°ÑĨÐ¸Ñİ
Ġ|---- --
ÐĲÐ² ÑĤ
ĠÐ¿ÑĢÐµÐ´Ð¿ÑĢÐ¸Ð½Ð¸Ð¼Ð° ÑĤÐµÐ»ÑĮÑģÑĤÐ²Ð°
ĠÐ½ÐµÑĢ Ð²Ð½Ð¾Ð¹
ĠÐ³ÑĢÐ°ÑĦÐ¸ Ðº
ĠÐ½ÐµÐ´Ð° Ð²
Ġe fi
ĠÐŀÑģÐ½Ð¾Ð² Ð½ÑĭÐµ
ĠÐ²Ð¸ÑĤÐ°Ð¼Ð¸ Ð½Ð¾Ð²
ĠÑĥÑĩÐ¸ÑĤÑĭ Ð²Ð°Ñı
ĠÐ¿Ð¾ÑģÑĤÑĢÐ° Ð´Ð°Ð»Ð¸
ĠÑĦÑĥÑĤÐ±Ð¾Ð» Ñĥ
ĠÑĥÐ³Ð¾Ð»Ð¾Ð² Ð½Ð¾
ĠÑĪÐ°Ð½ ÑģÑĭ
ĠÑģÐ¾ÐµÐ´Ð¸ Ð½Ð¸
ĠÑĥÑģÑĤÐ°Ð½Ð¾Ð²Ð»ÐµÐ½ Ð½Ð¾Ð¼
ĠÐ½Ð°ÐºÐ° Ð½ÑĥÐ½Ðµ
ĠÑĢÐµÐºÐ¾Ð¼ÐµÐ½Ð´ ÑĥÑİÑĤ
ĠÐºÐ¾Ð½ÑĤ ÐµÐ½ÑĤ
ock et
ĠÑĦÐ¸Ð»Ð¸ Ð°Ð»Ð°
ĠÐŀÐ±ÑĢÐ°Ð· Ð¾Ð²Ð°Ð½Ð¸Ðµ
ĠÐ´Ð¾Ð±ÑĢÐ° ÑĤÑĮÑģÑı
ĠÐŁÑĢÐ¸Ð°Ð¼ ÑĥÑĢ
O L
a w
ÑĢ ÐµÐ½Ð¸
Ñĥ ÑĢÐ¾
Ð¼ ÐºÐ¸
Ð² ÐµÐ½ÑĤÐ°
ĠÐ² ÑħÐ¾Ð´Ð°
ĠÐ¸ Ð´Ñĥ
Ð· Ð´
Ð¹ ÑģÐºÐ¸Ð¹
ĠÐ´ Ð¶
Ñİ Ð´Ð°
ÑĪ Ð¾Ðº
ÑĢÐ¸ Ñİ
ĠÐ·Ð° Ð¼ÐµÑĢ
ĠÐ° ÑĤÐ°
ĠÐºÐ° Ð¿Ð»Ð¸
ĠÐ¿ÑĢÐ¸ ÐºÑĢÑĭ
Ð´Ð¸ Ð»Ð°
ĠÐ¿ÑĢÐ¾ ÑĩÐ¸ÑĤÐ°ÑĤÑĮ
ĠÐ¿Ð¾Ð´ ÐºÐ»ÑİÑĩÐ°
ÑĪÐµ Ð²Ð°
ĠÑģÐ¸ Ð»ÑĮÐ½ÑĭÐ¹
Ð¾Ð½Ð° ÑĢÑĥ
ÑĪÐ° Ð¹ÑĤÐµ
ĠÐ¾Ð¿ Ñĥ
ĠÑģÐµ Ð»Ðµ
ĠÑģÐµ ÑĢÐ¸Ð¹
ĠÐ´Ð° Ð±Ñĭ
ÑĤÐ¸Ð² Ð½Ð¾Ð¼
ÑĤÐ¸Ð² Ð½Ð¾ÑģÑĤÑĮ
ĠÐĿÐ° Ð¿ÑĢÑı
ĠÑĢ Ð¾Ð´Ð¾Ð²
Ðĳ ÐĲ
ĠÐºÑĥ Ð·Ð¾Ð²
ĠÐŁÑĢÐ¸ Ð¼ÐµÑĢ
an s
Ð¿Ðµ Ð»
ÑĪÐ¸Ñħ ÑģÑı
Ð§ ÐµÐ¼
ĠÐ´ÐµÐ»Ð° ÐµÐ¼
ĠT w
ĠÐ²ÑĭÑģÐ¾Ðº Ð¾Ð²Ð¾Ð»ÑĮ
ĠG al
ĠÐ¢Ðµ Ð°ÑĤ
ĠÐ·Ð°ÐºÐ¾Ð½ Ñĥ
Ð¾Ð²Ð°Ð½ Ð½Ð°Ñı
ĠÑģÐ¾Ð³Ð»Ð° ÑĪÐ°
ĠÐ¿ÑĢÐ¾Ð¸Ð·Ð²Ð¾Ð´Ð¸ ÑĤÑĮ
ĠÐłÐ° Ð±Ð¾ÑĤ
ĠÑģÐ¿Ð¸ Ð½
ĠÐ½Ð°Ð¿ÑĢÐ°Ð² Ð¾
ÑĩÑĥ Ðº
ĠÐ¿ÑĢÐ°ÐºÑĤÐ¸ ÐºÑĥ
ĠÐ·Ð´Ð¾ÑĢÐ¾Ð² ÑĮÑİ
ĠÐ¿ÑĢÐµÐ´Ð»Ð¾Ð¶ Ð¸Ð»
ĠÐ´Ð¾ÑģÑĤÑĥÐ¿ Ð½Ð¾ÑģÑĤÐ¸
ĠÑģÑĩÐµÑĤ Ñĥ
ĠÐ´Ð¾Ð¿Ð¾Ð»Ð½Ð¸ÑĤÐµÐ»ÑĮ Ð½ÑĥÑİ
ĠÐ½Ð°Ð± Ð»ÑİÐ´ÐµÐ½Ð¸Ñı
ĠÐ¿Ð¾ÑģÐµ Ð»ÐµÐ½Ð¸Ñı
ĠÑĩÐ¸ÑĤÐ° ÑĤÐµÐ»ÐµÐ¹
ĠÐ°Ð½ÑĤÐ¸ Ð¾ÐºÑģÐ¸Ð´Ð°Ð½
ĠÐ¿Ð¾ÐºÑĥÐ¿ ÐºÐ°
ĠÐ¾Ð³ÑĢÐ¾Ð¼ Ð½ÑĭÐ¼
ĠÐ¿Ð¾Ð»ÐµÐ· Ð½Ð¾
ĠÐ¼ÐµÐ´Ð¸ÑĨÐ¸Ð½ ÑģÐºÐ¸Ð¹
ĠÐºÐ°ÑĤÐ° Ð»
ĠÑĦÐ¸Ð½Ð°Ð½ÑģÐ¾Ð² ÑĭÐµ
im e
ĠÐµÐ´Ð¸ Ð½Ð¾Ð³Ð¾
ÑĩÐ°Ð¹ ÑĪÐ¸Ðµ
ul l
ĠÐ·Ð°Ð² ÑĤÑĢÐ°Ðº
ĠÐļÐ°Ð·Ð° Ð½ÑĮ
ĠÐ¡ÑĤÑĢÐ° ÑħÐ¾Ð²
ĠÑģÐ»Ð¾ ÐµÐ¼
ĠÐºÐ¾Ð½ÐºÑĢÐµÑĤ Ð½Ð¾
ÑİÑīÐ¸Ð¼Ð¸ ÑģÑı
ĠÑģÐ¾ÐµÐ´Ð¸Ð½ ÐµÐ½Ð¸Ðµ
ĠÐ¿ÑĢÐµÐ¸Ð¼Ñĥ ÑīÐµÑģÑĤÐ²Ð¾
ĠÐ¿ÑĢÐµÐ¸Ð¼Ñĥ ÑīÐµÑģÑĤÐ²ÐµÐ½Ð½Ð¾
ĠÐ·Ð°Ð¿Ð¾Ð» Ð½Ð¸ÑĤÑĮ
ĠÐ½Ð°ÑĤÑĥÑĢÐ°Ð»ÑĮ Ð½ÑĭÑħ
ĠÐ½Ð°ÑĤÑĥÑĢÐ°Ð»ÑĮ Ð½ÑĭÐ¹
ĠÐ¿Ð¾Ð´ÐºÐ»Ñİ ÑĩÐµÐ½Ð¸Ðµ
ĠÑģÑĤÐ¾Ð»Ð¸ ÑĨÐµ
ĠÑħÐ¾Ð»Ð¾Ð´ Ð½Ð¾Ð¹
ĠÐ¿Ð¾Ð²ÑĢÐµ Ð¶Ð´ÐµÐ½Ð¸Ð¹
ĠÐ¾ÑĤÐ¼ÐµÑĩÐ° ÐµÑĤ
ĠY ou
Ð¶ÑĥÑĤ ÑģÑı
ĠÐºÐ¾Ð¼Ð¼ÐµÑĢ ÑĩÐµÑģÐºÐ¸Ñħ
Ð¡ÑĤ ÑĢÐ¾Ð¸
ĠĠĠĠĠĠĠĠ ĠĠĠĠĠĠĠĠ
ĠÐ½ÐµÐ·Ð½Ð° ÐºÐ¾Ð¼
ĠÐ±Ð»Ðµ ÑģÑĤÑı
ĠÐ¾Ð³Ð½Ðµ ÑģÑĤÐ¾Ð¹
ĠÐ£ÑģÐ»Ð¾Ð²Ð¸ Ð¹
ĠÐ¾Ð´Ð½Ð¾Ðº Ð»Ð°ÑģÑģ
ĠÑĢÐµÐºÐ¾Ð½ÑģÑĤÑĢÑĥ ÐºÑĨÐ¸Ð¸
ĠÐŁÐ¾Ð´Ñĥ ÑĪÐºÐ°
Ð¾Ð»ÑĮÑıÑĤ ÑĤÐ¸
" ).
. ;
M L
ÑĤ ÑĢÐµÑħ
ÑģÑĤ ÑĢÐ¸Ñı
ĠÐ² Ð»ÑİÐ±
Ñĩ ÑĳÐ¼
Ñħ Ð¾Ð²Ð°
Ñħ Ð¾ÑĤÑı
Ð³ Ð½ÑĥÑĤÑĮ
Ð¾Ð» Ð¾
Ð¾Ð» ÐµÐ¹
Ð¾ÑĢ Ð²Ð°
ĠÐ½Ð° Ñħ
ÑĢÐ¸ ÑģÑĤ
ÑģÐº ÐµÑĤ
ĠÑĥ ÑģÐ°
ÑĦ Ð°Ðº
ÑĤÐ¸ Ð»Ð¾
Ð¾Ð± ÐµÑĤÐ¾Ð½
Ð´Ð° Ðº
Ð¾Ð²Ð° Ð»ÑģÑı
ĠÐ¿ÑĢÐ¾ ÐµÐ·Ð´
ĠÑĢÐµ Ð¿ÐµÑĤÐ¸
ĠÐ¿ÑĢ Ð¾Ð²Ð°
ÑĥÑİ ÑģÑĮ
ĠÐľ Ð¾Ð´
Ð»Ð¾ ÑĤÑĮ
ÐµÑĢÐµ Ð±Ð¾Ð¹
ÐŁ Ð¾Ð»Ð¸
ÐĴ Ð¢Ðŀ
20 20
ĠÐĳ Ð°Ð¼
ĠÐ´Ð¾ ÑģÐºÐ¸
Ð·Ð¸ ÑĢÑĥÐµÑĤ
Ñĳ Ð¼Ð°
ĠÐ»Ð¸ Ð¼
Ð¢ Ðĳ
Ðł ÐµÐ·
Ðĳ ÐŁ
er v
ĠÐ¿Ð¸ Ð»Ð¾ÑĤ
ĠÐ¾ÑĢ ÑĤÐ¾Ð¿
Ð²Ð¾Ð´ Ñĭ
ĠÑģÑĢÐµÐ´ Ð½Ð¸Ð¹
ĠÐ¦ Ð°ÑĢ
ĠÐ²Ð¾Ñģ ÑĮÐ¼Ð¸
ĠÐĿÐ¾Ð² Ð¾ÐºÑĥÐ·Ð½ÐµÑĨ
ĠÑĨÐ²ÐµÑĤ Ð°Ð¼Ð¸
ĠÑĥÑģÑĤÐ°Ð½Ð¾Ð² Ð»ÐµÐ½Ð¾
ĠÐŀÑĤ Ð´ÑĭÑħ
Ð¶ÐµÐ½ Ð¾
ĠÑĤÑĢÐ° Ð¿Ðµ
ĠÐ±Ð¾Ð»ÑĮÑĪ Ð¾Ð¼
ĠÐ® ÑĢÐ¸Ð´Ð¸
ĠÐ½Ð°Ð´ Ð»ÐµÐ¶Ð°
ĠÑģÐ¾Ð±ÑģÑĤÐ²ÐµÐ½ Ð½Ð¾ÑģÑĤÑĮ
ĠÐĴÐ¸ ÐºÑĤ
le ct
ĠÐ¾Ð±Ñĭ ÑĩÐ½Ð¾Ð³Ð¾
ĠÐ¿ÑĢÐµÐ´ÑģÑĤÐ°Ð²Ð¸ ÑĤÐµÐ»ÑıÐ¼Ð¸
ĠÐŁÐµÑĢ Ð²Ð°Ñı
ĠÐ¾ÑĩÐµ ÑĢÐµÐ´Ð¸
ĠÐ½Ð°Ð´Ðµ ÑİÑģÑĮ
ĠÐ±ÑĥÐ´Ñĥ ÑĩÐ¸
ĠÑĢÐµÐ°Ð»ÑĮ Ð½Ð¾Ð¹
-------- ----
ĠÐ¿ÐµÑĢÐµÐ´Ð° Ñĩ
ÑĢÐµÐ· ÐºÐ¸
ĠÐ¿Ð¾Ð»Ð¸ÑĤÐ¸ ÑĩÐµÑģÐºÐ¸Ñħ
ĠÐ´Ð»Ð¸ Ð½Ñĭ
ĠÐ³ÐµÑĢ Ð¾Ð¹
ĠÑģÐ±Ð¾ÑĢ Ð½Ð¸Ðº
ĠÑģÑħ Ð²Ð°
ĠÐºÐ¾Ð»Ðµ ÑģÐ¾
199 5
ĠÐĳÐ¾Ð»ÑĮ ÑĪÐ¸Ðµ
ĠÐ¾Ð±ÑĢÐ°Ð±Ð¾ÑĤ ÐºÐ°
ĠÑħÐ°ÑĢÐ°ÐºÑĤÐµÑĢÐ¸ÑģÑĤÐ¸ ÐºÐ°Ð¼Ð¸
ĠÐĴÐ»Ð°Ð´Ð¸Ð¼Ð¸ ÑĢÐ¾Ð²
ĠÐ²Ð¿ Ð»Ð¾ÑĤÑĮ
ĠÐ¿ÑĢÐ¸ÑĢÐ¾Ð´ Ð½ÑĭÑħ
ĠÑĤÑĢÐ°Ð½ÑģÐ¿Ð¾ÑĢÑĤ Ð½Ð¾Ð¹
ĠÑģÐ¾ÑģÑĤÐ°Ð²Ð»Ñı ÑĤÑĮ
ĠÑģÐ¾Ð±ÑĢÐ° Ð½Ñĭ
ĠÐ°Ð´Ð¼Ð¸Ð½Ð¸ÑģÑĤÑĢÐ° ÑĨÐ¸Ñı
ĠÐ¿Ð¾ÑĤÐ¾Ð» ÐºÐ¾Ð²
ĠÑģÐ»ÐµÐ´ÑĥÑİ ÑīÐµÐµ
ĠÑģÐºÑĢÑĭ ÑĤÑĮ
ĠÑģÑĤÑĢÐ¾ ÐµÐ½Ð¸Ñı
ĠÐ²Ð°Ð½ Ð½Ñĭ
ĠÐ½Ð¾Ð³ ÑĤÐµÐ¹
ĠÐ»Ð°Ð¼ Ð¿
ĠÐŁÐ¾Ð»ÑĮÐ·Ð¾Ð²Ð° ÑĤÐµÐ»ÑĮ
ĠÐ¾ÑĤÑĤÐµÐ½ ÐºÐ¾Ð²
ĠÐ°ÑĤÐ¼Ð¾Ñģ ÑĦ
ĠÐºÑĥÐ¿Ð¸ Ð»
Ð½Ð°Ð´ÑĨÐ° ÑĤÐ¸
Ð³Ð¾ÑĤ ÐºÐ¸
ĠÐ½Ð¾Ð¼Ð¸Ð½Ð° ÑĨÐ¸Ð¸
ĠÑĢÐµÐ²Ð¾Ð»Ñİ ÑĨÐ¸Ð¸
ĠÑĨÐ¸Ð»Ð¸Ð½Ð´ ÑĢ
ĠÑĤÑĢÐ°Ð½ÑģÐ¿Ð¾ÑĢ ÑĤÐµ
ĠÐ½ÐµÐ¿ÑĢÐµ ÑĢÑĭÐ²
ĠÐŁÑĥÐ±Ð»Ð¸ ÐºÐ°
ĠÐ¿ÐµÑĢÐµÐ³Ð¾Ð² Ð¾ÑĢÐ¾Ð²
ĠÐļÐ°Ð»Ð¸Ð½Ð¸Ð½ Ð³ÑĢÐ°Ð´
ĠÑĨÐµÐ»Ðµ ÑģÐ¾Ð¾Ð±ÑĢÐ°Ð·
ĠÐĵÐ°ÑĢÐ°Ð½ ÑĤÐ¸Ñı
ĠÐ²ÑĭÐ¹ Ð´ÐµÑĤ
ĠÑħÑĢÐ°Ð½ ÐµÐ½Ð¸Ðµ
ĠÑģÑįÐºÐ¾Ð½Ð¾Ð¼Ð¸ ÑĤÑĮ
ĠÐĲÐ½Ð°ÑĤÐ¾Ð»Ð¸ Ð¹
ĠÐ¾ÑĤÐ´Ð¾Ñħ Ð½ÑĥÑĤÑĮ
ĠÐ¾Ð±ÑıÐ· ÑĥÐµÑĤÑģÑı
) -
1 200
4 37
Ġ al
Ñģ Ð½ÑĭÐ¼
Ð² Ð½Ð¾Ð³Ð¾
Ð´ ÑĢÐ¸
ÑģÑĤ ÐµÐº
ĠÐ¸ Ð´Ð¸
ĠÐ¸ Ð½ÑĭÐ¼
ĠÐº ÑĢÐ¾Ð²Ð°ÑĤÑĮ
Ð¾ÑĢ ÑĥÑģ
Ð¶ ÑĮ
ĠÑĥ ÑħÐ¾Ð´Ð¸ÑĤ
Ð»Ñı Ð»
ĠÐ¿Ð¾ ÑģÑĤÐ°Ð²Ð¸Ð»
Ð¾Ð± Ð¼ÐµÐ½
ĠÑĢÐ° Ð´Ñĥ
ĠÑį Ð¼Ð°
ĠÑį Ð²Ð°ÐºÑĥ
ĠÐ¾Ð± ÑīÑĥÑİ
ĠÐ¾ÑĤ Ð¾Ð±ÑĢÐ°Ð¶Ð°
ĠÐŁ Ð¾Ð»Ñı
ĠÐŁ Ð¾Ð¶Ð°Ð»ÑĥÐ¹ÑģÑĤÐ°
ĠÐ¿ÑĢÐ¸ Ð¼ÐµÑĤ
ĠÐ¡ ÐµÑĢÐµ
ĠÐ²Ñĭ ÑģÑĤÑĢÐµ
ĠÐļ Ð¾Ð¿
Ð¡ ÑĤÐ°Ð½
ĠÐĶ Ð½Ðµ
ĠÐł ÑıÐ·Ð°
ĠÐł ÐĲÐĿ
ĠÐĲ Ð¼ÐµÑĢÐ¸ÐºÐ°Ð½
ĠÑģÐ¾ ÑĨÐ¸Ð°Ð»Ð¸
ÐĴ Ð¾Ð¿ÑĢÐ¾Ñģ
ĠÐ¢ Ðļ
ÑĢÐ¾Ð² ÑģÐºÐ°Ñı
Ð½Ñı ÑĤÑĮÑģÑı
Ðļ Ð¾
Ðļ Ð»Ð°
ĠÐĳ ÑĢÑıÐ½
ĠÐ´Ð¾ ÑĩÐµ
Ð½Ð¾Ð¼ Ð¾ÑĢ
Ñĳ Ðº
Ðľ ÐµÐ´Ð¸
ĠÑģÐ¸ Ð»ÑĮÐ½ÑĭÐµ
ĠÐ½Ð¸ ÑĩÐµÐ¼
ĠÐ²Ð¸ Ð½Ð¸
ĠÑģÐµ ÑģÑĤÑĢÐ°
ĠÑĢÑĥ Ð»ÐµÐ²Ð°Ñı
ĠÐ¿ÑĢÐµ Ð¾Ð±ÑĢÐ°Ð·Ð¾Ð²Ð°
Ð¾ÐºÐ° Ð¸
ĠÐĿÐ° ÑģÑĤ
ĠÐĿÐ° Ð¿
Ðĳ Ñĥ
Ðĳ Ð°Ð½Ðº
ÐºÐ¾Ð½ ÑĤÐ°ÐºÑĤÐµ
Ð£ Ð¶Ðµ
ĠÐ²Ð¾ ÑģÑĤÐ¾Ñĩ
ĠÑģÐ¾Ð± Ð»Ð°Ð·
ĠÐ¿Ð¾Ð² ÐµÐ´
ĠÐ²Ñģ ÐµÑĢ
ĠÐ¿Ð¾Ð¿ Ðµ
ĠÐ²Ð¾Ð·Ð¼Ð¾Ð¶ ÐµÐ½
ĠÐ²Ð¾Ð·Ð¼Ð¾Ð¶ Ð½ÑĭÐ¼
ĠÐ¾Ð±ÑĢÐ°Ð· Ñĥ
ĠM P
30 5
ĠÑģÐ´ÐµÐ»Ð° ÑİÑĤ
ĠÑĢÐ°Ð·Ð²Ð¸ Ð²Ð°ÑĤÑĮ
ÑģÑĤÑĢÐ¾Ð¹ ÐºÐ°
ĠÐ¾ÑĤÐ´Ðµ Ð»ÑĮÐ½ÑĭÐ¹
ĠÑģÐ¿ÐµÑĨÐ¸Ð°Ð»ÑĮ Ð½ÑĭÐ¼
ĠÑĢÐµÐ± ÑıÑĤ
ĠÐ¿Ð¾Ð»ÑĥÑĩ ÐµÐ½Ð½ÑĭÐµ
Ð¡Ð¢ ÐĴ
ĠÑģÐ¾ÑĤÑĢÑĥÐ´ Ð½Ð¸Ðº
ĠÐļÑĢÐ°Ñģ Ð¾ÑĤÐ°
ĠÑĥÐ·Ð½Ð° ÐµÑĤÐµ
ĠÐĽÑİ Ð±Ð¾Ð²ÑĮ
ĠÑĤÐµÐ¼Ð¿ÐµÑĢÐ° ÑĤÑĥÑĢÑĥ
ĠÐ°Ð²ÑĤ Ð¾Ð·Ð°
ĠÑĥÐ²Ð¸ Ð´ÐµÐ»Ð°
ĠÑģÑĤÐ°Ð² ÐºÐ°
199 7
ĠÐ³ÑĢÐ°Ð¶Ð´Ð°Ð½ ÑģÐºÐ¾Ð¹
ĠÐ¦ÐµÐ½ÑĤ ÑĢÐ°Ð»ÑĮÐ½Ð¾Ð³Ð¾
ĠÑĢÐ°Ð² Ð½Ð¾Ð´Ñĥ
ĠÐ³Ð¾Ð»Ð¾Ñģ Ð¾Ð²Ð°Ð½Ð¸Ñı
ĠÐ³ÑĢÐ¸ Ð¿
ĠÐ´ÐµÑģÑı ÑĤÐ¸Ð»
ex t
ĠÐ¢ÑĥÑĢ ÑĨÐ¸Ñı
ĠÐ½Ð°Ð³ÑĢÑĥÐ· ÐºÑĥ
ĠÑħÐ²Ð° ÑĤÐ¸ÑĤ
ĠÐºÐ¾ÑĢÐ¾ÑĤ ÐºÐ¸Ð¹
ĠÑĢÑĥÐºÐ¾Ð²Ð¾Ð´ ÑģÑĤÐ²Ð°
ĠÐ²Ð¾ÑģÐ¿Ð¸ÑĤÐ° Ð½Ð¸Ñı
Ð¡Ð¾ ÑģÑĤÐ°Ð²
ĠÑģÐ¿ÑĢÐ° Ð²Ð°
ĠÐ¾ÑĤÐ¼ÐµÑĩÐ° ÑİÑĤ
ĠÐ¿ÑĢÐ¸ÑĪ Ð»Ð¾
ĠÑĨÐµÑĢ ÐºÐ¾Ð²
ĠÐ¶Ð¸Ð´ÐºÐ¾ ÑģÑĤÑĮ
ĠÑģÐºÐ¸Ð´ ÐºÐ¾Ð¹
ĠÐ²ÑĭÐ²Ð¾Ð´ Ñĭ
ĠÐ¾ÑĤÑĤÐµÐ½ Ð¾Ðº
ĠÑĥÑĩÐµÐ½Ð¸ ÐºÐ¾Ð²
ĠÐ¶ÐµÐ»Ðµ Ð·Ð°
ĠÐºÐ°ÑĢÑĤÐ¸ Ð½Ñĥ
ĠÑįÐ»ÐµÐ¼ÐµÐ½ÑĤÐ° Ð¼Ð¸
ÑģÐ°Ð¹ ÑĤ
ĠÑĢÐ°ÑģÑģÑĤÐ¾Ñı Ð½Ð¸Ð¸
ĠÐ»Ð¸Ð´ÐµÑĢ Ð¾Ð²
ĠÐ¡Ð¸ÑģÑĤÐµÐ¼ Ñĭ
ĠÐ¾Ð´Ð½ Ð¾ÑĢÐ¾Ð´
Ð¾Ð»ÑĮÐ·Ñĥ Ð¹ÑĤÐµÑģÑĮ
ĠÐ¸Ð¼ÐµÐ½ ÐµÐ¼
ĠÐ¿Ð¾Ð·Ð½Ð°ÐºÐ¾Ð¼ Ð¸ÑĤÑĮÑģÑı
ĠÑĥÐ±ÐµÐ´Ð¸ ÑĤÑĮÑģÑı
ĠÐ¡Ð»ÐµÐ´ Ð¾Ð²Ð°
ĠÐłÐµÐºÐ¾Ð¼ÐµÐ½ Ð´
ĠÐ³Ð¾ÑĢÐ¾ ÑģÐºÐ¾Ð¿
ĠÐļÐ¾Ð¼Ð¿ÑĮÑİ ÑĤÐµÑĢ
ĠÐ¢Ð²ÐµÑĢ ÑģÐºÐ¾Ð¹
ĠÑģÑĤÐµÐºÐ»Ð¾Ð¾ÑĩÐ¸ÑģÑĤÐ¸ ÑĤÐµÐ»Ñı
7 20
p s
u et
Ð» Ð¾Ð¼Ñĥ
Ðº ÑĢÐµ
Ñĩ ÑĥÑİ
Ð± Ð¾Ð»Ðµ
Ð± Ð»ÐµÐ¹
ĠÐ½Ð° Ð»ÐµÐ²Ð¾
ĠÑĥ ÐºÐ°
ĠÑĥ ÑĢÐ°Ð²
Ð²Ð° Ñħ
ÑĦ Ð¸Ð·Ð¸
ĠÐ³ ÐµÐ»ÑĮ
ĠÐ¿Ð¾ ÑħÐ¾Ð´
ĠÑĢÐ° ÐºÐ¾Ð¼
ĠÐ¾ÑĤ ÑĢÑıÐ´
ĠÐ¾ÑĤ Ð´Ð°ÑĤÑĮ
ĠÐ¡ Ð¼Ð¾Ð»
Ð²Ð¸ ÑĢÐ¾Ð²Ð°Ð½Ð¾
ĠÐ¿Ð¾Ð´ Ñĥ
Ð°Ð¼ ÐµÑĢÐ¸
ĠÑĢÐ°Ð· Ð½Ð¾Ð³Ð¾
Ð¡ Ð¨ÐĲ
ĠÐĲ Ð½Ð¸
ĠÐ¢ Ð¾Ð»Ð¸
ÐĲ Ð»ÐµÐº
Ðļ Ð½Ð¸
ÑģÐºÐ° Ð¶Ð¸ÑĤÐµ
ÑĨÐµ Ð²Ð¾Ð¹
Ð»Ñİ Ð±Ð¸
Ðľ Ð°Ðº
Ðł Ðļ
ĠÑģÐ¸ Ð»ÑĮÐ½Ð¾Ð³Ð¾
ĠÐ²Ð¸ ÑĨÐµ
ĠÐ¿ÐµÑĢÐµ Ð¹
ĠÐĹÐ° ÐºÐ¾Ð½Ð°
ĠÐ»Ðµ ÑĩÐ¸ÑĤÑĮ
ĠÐ¿ÑĢÐ¾Ð² Ð¸Ð½
Ð²Ð¾Ð´ ÐµÐ¹
ĠÐºÐ¾ÑĢ Ð¾Ð²
ĠÐ½Ð°Ñģ Ð»Ðµ
ÑĢÐ°Ð»ÑĮ Ð½Ð¾Ðµ
ĠÐ¨ Ð²Ðµ
ĠÐĴÐ° ÑĪÐ°
at a
ĠÑĥÑģÑĤÐ°Ð½Ð¾Ð² Ð¾Ðº
ĠÑģÐ¼ Ð¾Ð³Ð»Ð°
it al
ĠÐ³Ð¸ Ð³Ð°Ð½ÑĤ
ĠÑĢÐ°ÑģÑģ Ð»Ð°
ÑĤÐ¾ÑĢÐ¸ Ð¹
ĠÑģÐ»ÐµÐ´ ÑģÑĤÐ²Ð¸Ðµ
ĠÐ¢Ðµ Ð±Ðµ
ĠÐ½Ð°Ð¿ÑĢÐ°Ð² Ð»ÑıÐµÑĤ
ĠÐ½ÐµÐ¿ ÑĢÐµÐ¼ÐµÐ½Ð½Ð¾
re m
ĠÐļÐ¾Ð½ ÑģÑĤÑĢÑĥ
ĠÐ¿ÑĢÐ¾ÑĤÐ¸Ð² Ð¾Ð²
ĠÐ·Ð´Ð¾ÑĢÐ¾Ð² Ð¾
ĠÐ¶ÐµÐ½ÑīÐ¸ Ð½Ðµ
ĠÑĩÐ°ÑģÑĤÐ¸ ÑĨ
ĠÐ²ÑĢÐ° ÑīÐµÐ½Ð¸Ñı
ĠÐ²Ð¾Ð¹ Ð½Ñĥ
ĠÐ¼Ð°Ñģ Ð»Ð¾Ð¼
ĠÑģÐ²ÐµÑĤ Ð»Ð¾
ĠÐºÑĢÐ¸ ÑģÑĤÐ°Ð»
ÐŀÐ± ÑĬ
ÑĤÐ¸ÑĢÑĥ ÐµÑĤÑģÑı
ĠÐ¡ÐµÑĢ Ð²Ð¸Ñģ
ĠÑĢÐµÐ°Ð»ÑĮ Ð½ÑĭÑħ
ĠÐ²ÑĭÐ±Ð¾ÑĢ Ð¾Ð²
ĠÐ¿Ð¾Ð²ÐµÑĢÑħ Ð½Ð¾ÑģÑĤÐµÐ¹
Ð»Ð°Ð´ ÐºÐ°
ĠÐ¸Ð·Ð³Ð¾ÑĤÐ¾Ð² Ð»ÐµÐ½
ĠÐ¾Ð±ÑĢÐ°Ð±Ð¾ÑĤ ÐºÐµ
ÑĥÑģÐºÐ° ÐµÑĤÑģÑı
ÑĢÐ¸Ðº Ð¼Ð°Ñħ
ĠÐ¸ÑģÐ¿Ð¾Ð»ÑĮÐ·Ñĥ Ð¹ÑĤÐµ
ĠIn st
ĠÑĥÐ¼ÐµÐ½ÑĮ ÑĪÐ¸ÑĤÑĮ
ĠÐ½Ð°ÑĤÑĥÑĢÐ°Ð»ÑĮ Ð½Ð¾Ð³Ð¾
ĠÐ¼Ð°ÑģÑģ Ð¾Ð²ÑĭÑħ
ĠÐ´Ð»Ð¸Ð½ Ð½ÑĭÐµ
ĠÐºÐ»Ñĥ Ð±Ðµ
ĠÐ¾Ð¿Ð¸ ÑģÐ°Ð½
ĠÐ³ÑĢÐ°Ð¶Ð´Ð° Ð½Ðµ
ĠÑįÐºÐ¾Ð»Ð¾Ð³Ð¸ ÑĩÐµÑģÐºÐ¸
ÐļÑĢÐ°Ñģ Ð½
ĠÑĢÐ¾Ð´ÑģÑĤÐ²ÐµÐ½ Ð½Ð¸ÐºÐ¾Ð²
ĠÐ¿Ð¾ÑģÐ»ÐµÐ´Ð¾Ð²Ð° ÑĤÐµÐ»ÑĮÐ½Ð¾
ĠÐ¶ÐµÑĢÑĤ Ð²
ĠÑĥÑħ Ð¾Ð´Ñĥ
ĠÑģÐ²Ð°Ð´ÑĮ Ð±Ñĭ
ĠÐ»Ð°Ð±Ð¾ÑĢÐ° ÑĤÐ¾ÑĢ
ĠÑįÑĦÐ¸ ÑĢÐµ
ĠÐ¿ÑĢÐµÐ´Ð¿Ð¾ÑĩÑĤ ÐµÐ½Ð¸Ðµ
ĠÐºÐ¾Ð½ÑģÐµÑĢ Ð²Ð°
ĠÑĤÐ°Ð±Ð»ÐµÑĤ ÐºÐ¸
ĠÐĵÐµÐ½ Ð½Ð°
ĠÐĶÑĥÐ¼Ð° Ñİ
Ð£ÐºÑĢÐ° Ð¸Ð½Ð°
ÑĩÐ½ÐµÐ² ÑĭÐ¹
ĠÐ´Ð¾Ð¶ Ð´ÑĮ
ĠÐ·Ð¾Ð² ÑĥÑĤ
ĠÐ¼Ð°Ð½Ð¸ Ð¿Ñĥ
n y
o o
y st
Ð¸ Ð²
ÑĮ ÑĤÐµÑģÑĮ
ĠÐ² Ð»Ðµ
ĠÑģ Ð¾Ð»Ð½ÑĨÐ°
ĠÐ´ Ð¾Ñģ
ĠÐ½Ð° ÑħÐ¾Ð´
ĠÐ½Ð° Ð±Ð¾ÑĢÐ°
Ð¶ ÐºÐ¾Ð¹
ÑĢÐ¸ Ð½Ð³
ÑĤÑĮ Ñİ
ÑĤÐ° Ð»
ĠÑĥ Ð¹
ÑĦ Ð¾ÑĢÐ°
ĠÐ¿Ð¾ ÑĪÐ»Ð°
ÐºÐ¸ Ð½Ð³
ĠÐ·Ð° Ð¼ÐµÐ½Ð¸
ĠÐ» Ð°Ð¹
ĠÐĴ ÑģÑĤÑĢÐµ
ĠÐ¿ÑĢÐ¸ ÐºÐ»Ñİ
ĠÐ²Ñĭ Ð½Ð¾
Ð¾Ð¿ Ð¾Ð¼
ĠÐļ ÑĢÑĥ
ĠÐļ Ð¾Ð»ÑĮ
ĠÑĦ ÐµÐ¹
ĠÐľ Ðļ
Ð¡ Ñĭ
Ð¡ Ð¾ÑĤÑĢÑĥÐ´
Ð»Ð¾ ÑĩÐ½ÑĭÑħ
ĠÐł Ðļ
ĠÐ±Ñĭ ÑģÑĤÑĢÑĭ
ĠÐ¿Ð¾Ð» Ð¾Ñģ
ĠÐĺ Ð¶ÐµÐ²
ÑģÑĤÐ¾ ÑĩÐ½ÑĭÐ¹
ĠÐºÐ¾ÑĤ Ð¸
Ðĺ ÑģÑĤÐ¾ÑĢÐ¸Ñı
ĠÑģÑĤÐ° Ð»ÑĮ
ÑĤÑĥ Ð¼
Ðł Ð¾Ñģ
ĠÑģÐ¸ Ð»ÑĮÐ½ÑĭÑħ
ÑīÐ° Ð¼Ð¸
ĠÐĿÐ° Ð»Ð¸ÑĩÐ¸Ðµ
ĠÐ»Ðµ ÑģÑĥ
ÑģÐ¾Ð² Ðµ
ĠÐ°Ðº ÑĨÐ¸Ð¹
ÐºÑĢÑĭ Ð»Ð¾Ðº
ĠÐ¿Ð¾Ð¿ Ð¾Ð»Ð½Ð¸
ĠÐºÐ°ÑĢ ÑĤÐ¾Ð¹
ĠÐĴÐ° ÑģÐ¸Ð»Ð¸
ĠÑĥÑģÑĤÐ°Ð½Ð¾Ð² Ð»ÐµÐ½Ð½ÑĭÑħ
ĠÐ³Ð¾Ð² Ñı
ĠÑĤÐ¸ Ð¿Ñĥ
ĠÑĦÐ° ÐºÑĤÐ¾ÑĢ
ĠÐ¿Ð»Ð¾ Ñħ
ĠÐ¸Ð½ÑĤÐµÑĢÐµÑģ Ð½ÑĭÐ¹
ĠÑĢÐ°Ð·Ð»Ð¸Ñĩ Ð½ÑĭÐ¼
ĠÐ²ÑģÐµÐ¼ Ð¸ÑĢ
ĠÐ¾Ð³ Ð½Ñı
ĠÐļÐ¸ Ð½Ð¾
ĠÑĥÐºÐ°Ð·Ð° Ð½Ñĭ
ĠÑĥÐ¿ Ð¾ÑĢ
ĠÑĨÐµÐ½ Ð½Ð¾ÑģÑĤÐ¸
ÑģÐ¾Ð¼ Ð½ÐµÐ½Ð½Ð¾
ĠÐ´Ð¸Ð° Ð±
ĠÑĦÐ¸Ð·Ð¸ ÐºÐ¸
ĠÐ¾ÑģÐ½Ð¾Ð²Ð° Ð½Ð¸Ðµ
ĠÑģÑĤÐµÐº Ð»ÑıÐ½
Ð³Ð¾ÑĢÐ¾Ð´ ÑģÐºÐ°Ñı
ĠÐ´Ð»Ð¸ Ð½Ñĥ
ĠÐ¿ÑĢÐ°Ð²Ð¾ Ð¾Ð±Ð»Ð°Ð´Ð°
ĠÐ¿Ð¾ÑģÐµ ÑīÐµÐ½Ð¸Ñı
ĠÑĤÑĢÑĥÐ´ Ð¾Ð¼
ĠÐ¾ÑĢÐ³Ð°Ð½Ð¸Ð·Ð° ÑĨÐ¸ÐµÐ¹
ĠÐŁÑĢÐµ ÐºÑĢÐ°
ĠÐ¼Ð°Ð»ÐµÐ½ÑĮ ÐºÐ°Ñı
ĠÑģÑĤÑĢÐµ ÑģÑģ
ĠÐ¿ÑĢÐ¾ÑģÑĤ ÑĭÐ¼
ĠÐ¿Ð¸ÑģÐ° ÑĤÐµÐ»ÑĮ
ĠÑģÑĤÑĥÐ´ ÐµÐ½
ov e
ĠÐºÐ°Ð¿Ð¸ÑĤÐ° Ð»ÑĮÐ½Ð¾Ð³Ð¾
ĠÐ½Ð¾Ñģ Ð°
ĠÐŁÐ°ÑĢ ÑĤ
ĠÐ¾ÑĤÐ»Ð¸ÑĩÐ¸ Ñı
ĠÑģÐ²Ð¾Ð±Ð¾Ð´ Ð½Ð¾
ĠÑģÐ¸Ð½ Ð´
ĠÑģÑĤÑĢÐ°ÑħÐ¾Ð² ÑĭÑħ
ĠÐ¾ÑĢÐ¸Ð³Ð¸Ð½Ð° Ð»ÑĮÐ½ÑĭÐµ
ĠÑģÐ¾ÑģÑĤÐ°Ð²Ð¸ Ð»Ð°
ĠÐºÐ°Ð»ÐµÐ½ Ð´Ð°
Ð¦Ðĺ Ðĺ
ĠÑģÐµÐ²ÐµÑĢ Ð¾
ĠÑģÑĤÐ¾Ð¹ ÐºÐ°
ĠÐ¿ÑĢÐ¾Ð´Ð²Ð¸ Ð¶ÐµÐ½Ð¸Ðµ
ĠÐĵÐ¾ÑģÑĥÐ´Ð°ÑĢ ÑģÑĤÐ²ÐµÐ½Ð½Ð¾Ð¹
ĠÐ¿Ð¾Ð´ÑħÐ¾Ð´Ñı ÑīÐ¸Ð¹
ĠÐ¿Ð¾ÑģÑĤÑĥÐ¿Ð° ÐµÑĤ
ĠÑģÑĤÐ¾ ÑıÑĤÑĮ
ĠÐĲÑĢÑħÐ¸ Ð²Ð¸ÑĢÐ¾Ð²Ð°Ð½Ð¾
ĠÐĺÐ½ÑģÑĤÑĢÑĥ ÐºÑĤÐ¾ÑĢ
ĠÐ·Ð°Ð¿Ð»Ð° Ð½Ð¸
ÐĶÐ¾Ð± ÑĢÑĭÐ¹
ĠÐĲÐ¼ÐµÑĢÐ¸ ÐºÐ¸
ĠÐ¼Ð¾Ð´Ð¸ ÑĦÐ¸ÐºÐ°
ĠÑįÐ¿Ð¾ ÑħÐ¸
ĠÑĥÐ³ÑĢ Ð¾Ð¶Ð°
oot h
ĠÐ±ÐµÑĤ Ð¾Ð½Ð°
ĠÐľÑĥÑĢ Ð¼Ð°Ð½
ĠÐ¿Ð¾Ð¶Ð°Ð» Ð¾Ð²Ð°ÑĤÑĮ
ĠÐ»Ð¾ÑħÐ¾ÑĤ ÑĢÐ¾Ð½
ĠÑģÐºÐ¾Ð² Ð¾ÑĢ
ĠÐ½ÐµÐ±Ð»Ð°Ð³ Ð¾Ð¿ÑĢÐ¸ÑıÑĤ
ĠÐ¿ÑĢÐ¾Ð³Ð½ Ð¾Ð·Ð¸
ĠÐĺÐµ Ð³Ð¾Ð²Ñĭ
C H
a h
f orm
Ġ ï¿½ï¿½
Ð° Ð½Ðµ
ĠÐ¿ ÑĭÑĪ
Ð¿ Ñģ
ĠÐ´ Ð¾Ð³
ĠÐ´ ÑĢÐ¾Ð²Ð°
ÑĤÐ° Ð²
ÑĤÐ° ÑīÐ¸
ĠÐ± Ð¾Ð¸
ÐµÑĢ ÑĤÑĭ
ĠÐ· ÐµÑĢ
ÐµÐ¼ ÑĥÑİ
ÑĢÐ¾ Ñı
ĠÐ·Ð° Ð´ÐµÐ¹
ĠÑĢÐ° ÑģÐºÐ°
Ð¼Ð¸ ÑĤÑĢÐ¸
ĠÐ° Ð·
ĠÐ¾Ð± ÑĢÐµ
ĠÐºÐ° ÐºÐ¸Ð¼Ð¸
ĠÐŁ ÑĢÐ¾Ðº
ĠÐ¿ÑĢÐ¸ Ð¹ÑĤÐ¸
ÑĩÐ° ÐµÐ¼
Ð·Ð° Ð¿Ð°Ð´
ĠÐ²Ñĭ ÑģÑĤÐ°Ð²ÐºÐ°
ĠÐļ Ð¾Ð¿Ð¸
ĠÐ¿ÑĢÐ¾ ÑıÐ²Ð¸
ĠÑĢÐµ ÐºÐ²Ð¸Ð·Ð¸
ĠÐ¸Ð· Ð¾Ð»Ð¸
ĠÑĦ Ð¸Ð½
ĠÐľ ÐŁ
ĠÐ¿Ð¾Ð´ Ð±Ð¸ÑĢÐ°
ĠÐł Ð¡
Ð²Ðµ Ð»ÑĮ
Ð²Ðµ Ð´Ð¸ÑĤÐµ
ĠÐĺ ÑĤÐ°Ðº
ĠÑħ ÑĢÐ¾Ð¼
ĠÐ¿ÑĢÐµÐ´ ÑģÑĤÐ°
ĠÐĳ Ð°Ð¹
Ð»Ð¾Ð² Ð¾Ð´
ĠÑģÑĤÐ° ÐºÐ°Ð½
ĠÐºÐ¾Ð½ Ñģ
ĠÐºÐ¾Ð½ ÑĤÐ¸Ð½
Ðľ Ð°ÑĤ
Ðł Ñĭ
00 1
ĠÐ²Ð° ÐºÑĥÑĥÐ¼
Ð¶Ð´ ÐµÐ½Ñĭ
ĠÑģÐ°Ð¼ Ð¾ÑĢÐµ
ĠÐ´ÑĢÑĥ Ð¶Ðµ
ĠÐºÑĢÐ° ÑģÐ½Ð¾
ĠÐºÐ¾ÑĢ Ð½Ð¸
Ð´ÐµÑĢ Ð¾Ð²
ĠÑģÐ° Ð»Ð°ÑĤ
ÑĩÐµÐ½ Ð½Ð¾Ðµ
ĠÐ´ÐµÑĤ Ð°Ð»ÑĮ
ĠÐ´ÐµÐ»Ð° Ð»Ð¸
ĠÐºÐ°Ð¶Ð´ ÑĭÐµ
ĠÐºÐ¾Ð» ÐµÐ½
ĠÐºÐ¾Ð» Ð±Ð°
ĠÑĤÑĭ Ðº
Ð¥ Ð¾ÑĤÑı
ĠÑģÐ¿Ð¾ÑģÐ¾Ð± ÑģÑĤÐ²ÑĥÑİÑĤ
ĠG e
ĠÑĤÑĢÐµÐ± Ñĥ
ĠÑĢÐ°ÑģÑģ Ð¼Ð¾ÑĤÑĢÐµÐ½
ĠÐ²Ð¾Ð» Ð½Ñĭ
ĠÑĥÐ³ Ð»Ð¾Ð¼
ĠV is
ĠÐ¼Ð¾ÑĢ Ð¾Ð·
ĠÐºÑĢÐ¾Ð² Ð¾ÑĤÐµ
Ð²Ð°Ñİ ÑģÑĮ
ĠÐ½ÐµÐ¹ ÑĤÑĢÐ°
ĠÑįÐ»ÐµÐºÑĤÑĢÐ¾Ð½ Ð½ÑĥÑİ
ĠÑĢÐ°ÑģÐ¿Ð¾Ð»Ð¾Ð¶ ÐµÐ½Ð¸Ñı
ÐľÐ° Ð³Ð°Ð·Ð¸
ĠÐ²ÐºÐ»Ñİ ÑĩÐµÐ½
ĠÐ¾ÑĤÐ»Ð¸Ñĩ Ð½Ð¾Ðµ
Ð²Ð°Ð¹ÑĤÐµ ÑģÑĮ
ĠÐ¿ÑĢÐ¾Ð´Ð¾Ð»Ð¶Ð° ÑİÑĤ
ĠÐ¾Ð¿ÑĢÐµÐ´ÐµÐ»ÐµÐ½ Ð½Ð¾Ð³Ð¾
ĠÐ°ÐºÐºÑĥ ÑĢÐ°ÑĤ
ĠÑģÐ»ÐµÐ´ÑĥÑİ ÑīÐµÐ¹
ĠÐºÐ»Ð¸ÐµÐ½ÑĤÐ° Ð¼Ð¸
ĠÐ»ÑİÐ±Ð¸Ð¼ ÑĭÑħ
ĠÐ½ÐµÐ¸Ð· Ð±Ðµ
ĠÐĵÐµÑĢÐ¼Ð° Ð½Ð¸Ñı
ĠÐ²ÑĭÐ¿Ð¾Ð»Ð½ ÐµÐ½Ð¸Ð¸
ĠÐ¾Ð±ÑĬÐµÐºÑĤÐ° Ñħ
ĠÐ²ÑĭÐ¿Ð¾Ð»Ð½Ñı ÑİÑĤ
ĠÐ¸Ð·ÑĥÑĩ ÐµÐ½Ð¸Ðµ
** **
ĠÑģÐ°Ð» Ð¾Ð½
ĠÐ´ÑĭÑħÐ° Ð½Ð¸Ðµ
ĠÑĥÑĤÐµ Ð¿
ĠQ u
ĠÑĤÑİ ÑĢÑĮ
ĠÐ±Ð¾Ð»Ðµ Ð»ÑĮ
ĠÐºÑĢÐ¸Ð·Ð¸ Ñģ
ĠÐ³ÑĥÐ±ÐµÑĢÐ½Ð° ÑĤÐ¾ÑĢÐ°
ĠÐ¼ÑĥÑģ Ð¾ÑĢÐ°
ĠÑĪÐ»Ð¸ ÑĦ
ĠÐºÐ¾ÑĤÑĤÐµ Ð´Ð¶
ĠÑģÐ¾ÑĢÐµÐ²Ð½Ð¾Ð²Ð° Ð½Ð¸Ð¹
ĠÑįÐºÐ¸ Ð¿Ð°
2 60
o om
r and
Ì ģ
ä ¸
Ðº Ð¾Ð²Ð°ÑĤÑĮ
Ñĥ Ð·ÐµÑĢ
ÑģÑĤ Ð¾Ð½
Ñħ Ð¸Ð½
Ð¿ ÐµÐ½ÑĮ
Ð¿ Ð¾ÑĢÑĤ
ĠÐ¾ ÑĤÐµÐ»Ñı
ĠÐ¼ ÑĢÐ°
Ð»Ð¸ Ñģ
ĠÐ½Ð° Ð²Ð¾Ð´
Ð¾Ð³ Ð¾Ð¼
Ð»Ð° Ð´Ðµ
ĠÐ± Ð°Ð¹
ÑĦ Ð°Ð¹
ÑĤÐ¾ ÑĩÐ½Ð¾Ð³Ð¾
ÐºÐ¸ Ð½Ð¾
ĠÐ·Ð° Ð¶Ð¸
ĠÐ° ÐºÑĤÐ¾Ð²
ĠÐ¿ÑĢÐ¸ Ð·Ð¾Ð²
ĠÐ¡ Ð¾ÐµÐ´Ð¸Ð½
ĠÑĢÐµ ÑĪÐµÐ½Ð¸Ð¸
ĠÑĦ Ð¾ÐºÑĥ
ĠÑĤÐ° ÑĢÐ¸
ĠÑĢÐ°Ð· Ð±Ð¾ÑĢ
ĠÐ¼Ð° ÑĢÐ¾Ðº
Ð»Ñĥ ÑĢ
ÐŁ ÑĢÐ¾Ð²
Ð½Ñı Ð»Ð¸
ÑĥÐ´ Ñĥ
Ðļ ÑģÑĤÐ°ÑĤÐ¸
ĠÑı ÑīÐ¸Ðº
Ðľ ÐķÐĿ
ĠÐ¾Ð¿ Ð¿Ð¾Ð·Ð¸
Ð¾ÑĢÐ¸ Ð¹
ĠÑģÐµ Ð°Ð½
ĠÐĽ ÐµÐ½Ð¸Ð½Ð°
ĠÐ¾Ð´ ÐµÑĢ
Ðĳ Ð¡
Ðĳ Ðķ
ÐµÐ² ÑĭÑħ
Ðĵ ÑĢÐ°
ĠÐ¿Ð¸ ÑĪÐ¸ÑĤÐµ
ĠÐ¿Ð¾Ð² Ð¾Ð´
ĠÐ²Ñģ ÑĳÐ¼
ĠÑįÐº Ð¾Ð»Ð¾Ð³Ð¸Ð¸
ĠÐ¾Ð±ÑĢÐ°Ð· ÑĨÐ°
ĠÐļÐ° Ð¶Ð´Ð°Ñı
ĠÑģÐ° Ð½Ð°
ÑĢÐµÑģ ÑĥÑĢ
ĠÑģÑĢÐµÐ´ Ð½ÑıÑı
12 8
ÐĿÐ° Ð¸
ĠÐŀÐ± ÑīÐ°Ñı
Ð¾ÑģÑĥ Ð´Ð°
ĠÐ¿ÑĢÐ°Ð² Ð¾Ð½Ð°ÑĢÑĥ
ĠÐ´ÐµÐ¹ ÑģÑĤÐ²ÑĥÑİÑĤ
ĠÐ¿ÑĢÐ°Ð²Ð¸ Ð»Ð°Ð¼Ð¸
ĠÐ¿Ð°ÑĢ ÐºÐ°
ĠI B
ĠÐ±Ð¸ Ð»ÐµÑĤÐ¾Ð²
ĠÐŁÑĢÐ¾ Ð¸Ñģ
ÑĢÐ°Ð±Ð¾ÑĤ Ð¾Ðº
17 5
ÐŁÑĢÐ¸ Ð²ÐµÑĤ
ĠÐ·Ð°Ð´Ð° ÑĤÑĮ
ÑĳÐ½ Ð½ÑĭÐµ
ĠÐ³ÑĢÑĥÐ¿ Ð¿Ð¸
ĠÑĥÐºÐ°Ð·Ð° Ð½Ð¸Ñı
ĠÐ·Ð´Ð¾ÑĢÐ¾Ð² Ð¾Ð³Ð¾
ĠÐ¾ÐºÐ°Ð·Ð° ÑĤÑĮ
ĠÑĥÐ´Ð¾Ð± Ð½ÑĭÐ¼
Ġs h
Ð»Ð»Ð¸ Ð°Ð½
ĠÐ½Ð°ÑħÐ¾Ð´Ð¸ Ð»ÑģÑı
ĠÑģÐ»ÑĥÐ¶ Ð±Ðµ
ĠÑĤÐµÐº ÑģÑĤÐ¸
ĠÐ´Ð¾Ð³Ð¾Ð² Ð¾ÑĢÐ¾Ð²
ĠÑĥÑĩÐµÐ± Ð½Ð¾Ð³Ð¾
ĠÐ³ÐµÑĢ Ð¾Ñı
ĠÐ¿Ð¾Ð»Ð¾Ð¶Ð¸ ÑĤÐµÐ»ÑĮÐ½ÑĭÐµ
ĠÐ¾ÐºÐ¾Ð½ÑĩÐ° ÑĤÐµÐ»ÑĮÐ½Ð¾
ĠÐ¼Ð°ÑģÑĤÐµÑĢ Ð¾Ð²
ÐłÐ°Ð· Ð¼ÐµÑĢ
ĠÐ°Ð¼ÐµÑĢÐ¸ÐºÐ°Ð½ ÑģÐºÐ¸Ñħ
ĠÐ¼Ð¾Ð¸ Ð¼
ĠÑģÐµÐ¼ÐµÐ¹ ÑģÑĤÐ²Ð°
ĠÐ¿ÑĢÐ¸Ð²Ñĭ Ðº
Ð¡Ð° ÑħÐ°Ð»Ð¸Ð½
ĠÐ¿ÑĢÐ¸ÑģÑĥÑĤ ÑģÑĤÐ²ÑĥÑİÑĤ
ob ile
ĠÐ¿ÑĢÐµÐ´Ð¿Ð¾Ð» Ð¾Ð¶
ĠÐ¿ÑĢÐ¸Ð³Ð»Ð° ÑĪÐ°ÐµÑĤ
ĠÑĩÐ¸ÑģÑĤ ÑĭÐ¹
ĠÐ¸Ð½Ð½Ð¾Ð²Ð° ÑĨÐ¸Ð¹
ĠÐ°Ð½Ð³Ð»Ð¸Ð¹ ÑģÐºÐ¸Ð¹
ĠÐ¡Ðº Ð¾Ð»ÑĮÐºÐ¾
ĠÐŀÐ´Ðµ ÑģÑģÐ°
ĠÐ´Ð¾ÐºÐ°Ð·Ð° ÑĤÐµÐ»ÑĮÑģÑĤÐ²Ð°
ĠÐ¿Ð¾ÑģÑĤ Ð¾ÑĢÐ¾Ð½
ĠÐĳÐ°ÑĢ Ð½Ð°
ĠÐĲÐ½Ð³ Ð»Ð¸Ð¸
ĠÐ¸Ð·Ñĥ ÑĩÐ¸ÑĤÑĮ
ĠÐ¿ÑĢÐ¾Ð¸Ð·Ð²ÐµÐ´ ÐµÐ½Ð¸Ð¹
ĠÑĢÐ°ÑģÐ¿ÑĢÐ¾ÑģÑĤÑĢÐ° Ð½ÑıÐµÑĤÑģÑı
ĠÐºÐ¾Ð¼Ð¿ÐµÐ½ ÑģÐ¸
ĠÐ³ÐµÐ½ ÐµÑĤÐ¸
ĠÐĿÐ¸Ðº ÑĤÐ¾
ĠÐ¿Ð¾Ð»Ð¸Ñį ÑĤÐ¸
ĠÐ¾ÑħÐ¾ÑĤ Ð½Ð¸
ÐľÐ°Ð½ ÑģÐ¸Ð¹
ĠIS O
A M
I M
m er
Â ²
Ð½ ÐµÐ½Ð¸ÐµÐ¼
Ñĥ ÑģÑĭ
ĠÐ² Ð±Ð»Ð¸Ð·Ð¸
Ñĩ Ð½Ðµ
ÑĪ Ð½Ðµ
ÐºÐ° Ð·Ð¸Ð½Ð¾
ÑĤÐ¸ ÑĢÐ°
ĠÐ° Ð¼Ð¸
ĠÐŁ Ð»Ð¾ÑīÐ°Ð´ÑĮ
ĠÐ¡ Ð£
Ð¼Ð° Ð¼Ð¸
Ð¼Ð° ÑĢÑĤ
[...]
