{"[UNK]":0,"!":1,"\"":2,"#":3,"$":4,"%":5,"&":6,"'":7,"(":8,")":9,"*":10,"+":11,",":12,"-":13,".":14,"/":15,"0":16,"1":17,"2":18,"3":19,"4":20,"5":21,"6":22,"7":23,"8":24,"9":25,":":26,";":27,"<":28,"=":29,">":30,"?":31,"@":32,"A":33,"B":34,"C":35,"D":36,"E":37,"F":38,"G":39,"H":40,"I":41,"J":42,"K":43,"L":44,"M":45,"N":46,"O":47,"P":48,"Q":49,"R":50,"S":51,"T":52,"U":53,"V":54,"W":55,"X":56,"Y":57,"Z":58,"[":59,"\\":60,"]":61,"^":62,"_":63,"`":64,"a":65,"b":66,"c":67,"d":68,"e":69,"f":70,"g":71,"h":72,"i":73,"j":74,"k":75,"l":76,"m":77,"n":78,"o":79,"p":80,"q":81,"r":82,"s":83,"t":84,"u":85,"v":86,"w":87,"x":88,"y":89,"z":90,"{":91,"|":92,"}":93,"~":94,"¡":95,"¢":96,"£":97,"¤":98,"¥":99,"¦":100,"§":101,"¨":102,"©":103,"ª":104,"«":105,"¬":106,"®":107,"¯":108,"°":109,"±":110,"²":111,"³":112,"´":113,"µ":114,"¶":115,"·":116,"¸":117,"¹":118,"º":119,"»":120,"¼":121,"½":122,"¾":123,"¿":124,"Â":125,"Ã":126,"Ä":127,"Å":128,"Æ":129,"È":130,"É":131,"Ê":132,"Ë":133,"Ì":134,"Í":135,"Î":136,"Ï":137,"Ð":138,"Ñ":139,"Ò":140,"Ó":141,"Ô":142,"Õ":143,"Ö":144,"×":145,"Ø":146,"Ù":147,"Ú":148,"Û":149,"à":150,"á":151,"â":152,"ã":153,"ä":154,"å":155,"æ":156,"ç":157,"è":158,"é":159,"ê":160,"ì":161,"í":162,"ï":163,"ð":164,"ā":165,"ă":166,"ą":167,"ć":168,"ĉ":169,"Ċ":170,"Č":171,"Ē":172,"Ĕ":173,"Ğ":174,"Ġ":175,"Ģ":176,"ģ":177,"Ĥ":178,"ĥ":179,"Ħ":180,"ħ":181,"Ĩ":182,"ĩ":183,"Ī":184,"ī":185,"Ĭ":186,"ĭ":187,"Į":188,"į":189,"İ":190,"ı":191,"Ĳ":192,"ĳ":193,"Ĵ":194,"ĵ":195,"Ķ":196,"ķ":197,"ĸ":198,"Ĺ":199,"ĺ":200,"Ļ":201,"ļ":202,"Ľ":203,"ľ":204,"Ŀ":205,"ŀ":206,"Ł":207,"ł":208,"Ń":209,"ĠÐ":210,"Ð¾":211,"Ðµ":212,"Ð°":213,"Ð¸":214,"ÑĤ":215,"Ð½":216,"Ñģ":217,"ÑĢ":218,"Ð¾Ð":219,"Ð»":220,"Ðº":221,"Ñĥ":222,"Ñĭ":223,"Ñı":224,"Ð¼":225,"Ð²":226,"ĠÐ¿":227,"ÑĮ":228,"Ð´":229,"ÑģÑĤ":230,"ĠÐ²":231,"Ñĩ":232,"ĠÑģ":233,"ÐµÐ½":234,"ÑĢÐ°":235,"ĠÐ½":236,"Ð¾Ð²":237,"ĠÐ¸":238,"Ð·":239,"Ñħ":240,"Ð¿":241,"ĠÐ¾":242,"Ð¹":243,"Ð±":244,"ĠÐº":245,"ÑĢÐµ":246,"Ð³":247,"ÐµÑĤ":248,"ĠÐ´":249,"Ð½Ð¸":250,"Ð¾Ð»":251,"Ð½Ñĭ":252,"Ñİ":253,"Ð¾Ð¼":254,"Ð¾ÑĢ":255,"ÑĤÐµ":256,"Ð¾Ð´":257,"ĠÐ¼":258,"Ð½Ð¾":259,"ÑĪ":260,"Ð»Ð¸":261,"ĠÐ½Ð°":262,"ÑĨ":263,"Ð¶":264,"Ð¾Ð³":265,"ÑĢÐ¸":266,"Ð»ÑĮ":267,"Ð½Ð°":268,"ÑģÐº":269,"Ð»Ð°":270,"Ð¾Ð¹":271,"ÑĤÑĮ":272,"ÐµÐ½Ð¸":273,"ÑĤÐ°":274,"ĠÐ±":275,"ÐµÑĢ":276,"ÐºÐ°":277,"Ð¾ÑĤ":278,"Ñī":279,"ĠÐ·":280,"ĠÑĥ":281,"Ð²Ð°":282,"ÑĦ":283,"ÑģÑı":284,"ĠÐ½Ðµ":285,"ÑĤÐ¾":286,"ÐµÐ¼":287,"ÑĢÐ¾":288,"ÑĤÐ¸":289,"Ð»Ñı":290,"Ð¾Ð³Ð¾":291,"ĠÐ³":292,"ĠÑĩ":293,"ÑĨÐ¸":294,"ĠÐ¿Ð¾":295,"ÐºÐ¸":296,"Ð¾Ð±":297,"Ð»Ðµ":298,"ÑĢÑĥ":299,"ĠÐ·Ð°":300,"ĠÑĢÐ°":301,"Ñį":302,"Ð¼Ð¸":303,"Ð´Ð°":304,"Ð¾Ð½":305,"ĠÑĤ":306,"ÑģÑĤÐ°":307,"Ð¾Ð²Ð°":308,"ÑģÑĤÐ²":309,"ĠÐ°":310,"Ð¾Ðº":311,"Ð¾Ð¶":312,"ĠÑį":313,"ĠÐ»":314,"ĠÐ¾Ð±":315,"ÑģÑĤÐ¸":316,"ĠÐ¾ÑĤ":317,"ÑĩÐµ":318,"Ð´Ðµ":319,"ĠÐºÐ°":320,"ĠÐŁ":321,"ĠÐĴ":322,"ĠÐ¿ÑĢÐ¸":323,"ĠÐ¡":324,"Ð¾Ð»ÑĮ":325,"ÑĩÐ¸":326,"Ð²Ð¸":327,"Ð¼Ð°":328,"Ð¾Ñģ":329,"ÐµÐ½Ð¸Ñı":330,"Ð½Ðµ":331,"ÑĩÐ°":332,"Ð·Ð°":333,"Ð½ÑĭÑħ":334,"Ð¾Ð·":335,"ÑģÐ¸":336,"Ð½ÑĭÐµ":337,"ĠÐ²Ñĭ":338,"Ð´Ð¸":339,"Ð½Ð¾Ð¹":340,"Ð¾Ð¿":341,"ĠÐµ":342,"ĠÐļ":343,"ÑĤÐµÐ»ÑĮ":344,"ÑģÐ¿":345,"ÑģÐºÐ¸":346,"ĠÐ¿ÑĢÐ¾":347,"ÑģÐµ":348,"Ð½ÑĭÐ¹":349,"Ð½Ð¾Ð³Ð¾":350,"ĠÑĢÐµ":351,"âĢ":352,"Ġ(":353,"ĠÐ¿ÑĢ":354,"Ð³Ð¾":355,"ÐµÐ¹":356,"ÑĢÐµÐ´":357,"ÑģÑĤÑĮ":358,"ĠÐ¸Ð·":359,"ÑĪÐ¸":360,"ÑĥÑİ":361,"ĠÑĦ":362,"ÑīÐ¸":363,"Ð³Ð°":364,"ĠÐľ":365,"ĠÐĿ":366,"ĠÑģÑĤ":367,"ÐµÐ½Ð¸Ðµ":368,"ĠÐ¶":369,"ĠÑĤÐµ":370,"ĠÐ´Ð»Ñı":371,"Â»":372,"Ð°Ð½":373,"ĠÑĤÐ°":374,"ÑİÑĤ":375,"ĠÐ¿Ð¾Ð´":376,"Ġ-":377,"Ð°Ð¼":378,"ĠÑĩÑĤÐ¾":379,"ÑĢÑĭ":380,"ĠÐŀ":381,"ĠÑĢÐ°Ð·":382,"ÐºÐ¾":383,"ÐµÑĤÑģÑı":384,"ĠâĢ":385,"ĠÐ¼Ð°":386,"Ð¼ÐµÐ½":387,"ÐºÑĥ":388,"Ð¡":389,"Ð¿Ð°":390,"Ð»Ð¾":391,"ĠÐĶ":392,"Ð¼Ðµ":393,"ĠÐł":394,"ÐºÑĤ":395,"ĠÂ":396,"ĠÐ±Ñĭ":397,"ĠÑģÐ²":398,"Ðŀ":399,"ĠÐĲ":400,"..":401,"ĠÑģÐ¾":402,"Ð»Ñĥ":403,"ÐµÑĢÐµ":404,"Ð½Ð¸Ñı":405,"Ð¾Ð´Ð¸":406,"ÐŁ":407,"Ð³Ð¸":408,"Ð¶Ðµ":409,"ÑģÐ°":410,"ÑģÑĮ":411,"ÑīÐµ":412,"Ð²Ðµ":413,"ĠÐ¿Ð¾Ð»":414,"ÑĪÐµ":415,"ĠÂ«":416,"ÑĭÐµ":417,"ÐĴ":418,"ĠÐĺ":419,"ÑĥÑĤ":420,"ĠÐ¢":421,"Ð½Ð°Ñı":422,"ĠÑħ":423,"Ð¾Ð´Ð°":424,"Ð¿Ð¸":425,"ÑĨÐ¸Ð¸":426,"ÑĢÐ¾Ð²":427,"ÑģÑĤÐ¾":428,"Ð½Ñı":429,"ĠÐ¸Ð½":430,"ĠÐºÐ¾ÑĤ":431,"Ð¸Ð·":432,"Ð½Ð¾Ð²":433,"ÐĲ":434,"ÑĤÑĭ":435,"ÐºÐ¾Ð²":436,"20":437,"ÑĥÐ´":438,"Ðļ":439,"ĠÐ¿ÑĢÐµÐ´":440,"ĠÑı":441,"Ð½Ð¾Ðµ":442,"ÐĿ":443,"ĠÐĳ":444,"Ð»ÐµÐ½":445,"Ð½Ð¸Ðµ":446,"ÑģÐºÐ°":447,"ĠÐ²ÑģÐµ":448,"ĠÐ´Ð¾":449,"ÑĤÐ¾Ð¼":450,"ĠÐ¼Ðµ":451,"Ð·Ð¸":452,"ĠÐºÐ°Ðº":453,"Ð¶Ð¸":454,"ĠÐºÐ¾ÑĤÐ¾ÑĢ":455,"ÑĭÑħ":456,"Ð½Ð¾Ð¼":457,"ÑĢÐ°Ð²":458,"Ñĳ":459,"Ð°ÑĢ":460,"Ð¾Ðµ":461,"ĠÑĤÐ°Ðº":462,"ĠÐºÐ¾Ð¼":463,"ÐµÐº":464,"Ð»Ð¾Ð²":465,"Ð½ÑĭÐ¼":466,"ÐµÐ·":467,"ĠÐ»Ð¸":468,"ÑĭÐ¹":469,"Ð´Ñĥ":470,"Ðĺ":471,"Ð°Ð»ÑĮ":472,"ĠÐ´Ðµ":473,"ĠÑģÑĤÐ°":474,"ÑĤÑĥ":475,"ÑĨÐµ":476,"ĠÐ¼Ð¾Ð¶":477,"Ð»Ñİ":478,"Ð±Ð¾":479,"ÑģÑĤÐ²ÐµÐ½":480,"ÑĢÐ¾Ð²Ð°":481,"Ð½Ð¾ÑģÑĤÑĮ":482,"ÐµÐ½ÑĮ":483,"Ð½Ð¾ÑģÑĤÐ¸":484,"ĠÐºÐ¾Ð½":485,"ÑĢÑı":486,"ÑĩÐµÑģÐºÐ¸":487,"Ð¸Ð½":488,"ĠÐĵ":489,"ĠÑģÐ¿":490,"ÑģÑĤÐ°Ð²":491,"ÑģÑģ":492,"ÑĤÐ¾ÑĢ":493,"ÑĤÑĮÑģÑı":494,"Ð¶Ð°":495,"ÑģÑĤÐ²Ð°":496,"Ð¢":497,"Ðľ":498,"Ðł":499,"ĠÑģÐ¸":500,"ÐºÐµ":501,"ĠÐ¸Ð»Ð¸":502,"Ð¾Ð½Ð°":503,"ÑģÐºÐ¾Ð¹":504,"ÐµÐ½ÑĤ":505,"ĠâĢĵ":506,"ÑĢÐ°Ð½":507,"ÑĥÑĢ":508,"Ð±Ð¸":509,"ĠÐ¾Ñģ":510,"ÑĦÐ¸":511,"Ð·Ñĭ":512,"ÑĪÐ°":513,"ĠÐ²Ð¾Ð·":514,"ĠÐĹ":515,"00":516,"Ð¾Ð³Ð¸":517,"Ð²ÐµÑĢ":518,"ĠÑįÑĤÐ¾":519,"ĠÐ²Ð°":520,"Ð°Ð¹":521,"Ġ\"":522,"ÐĶ":523,"ĠÐ¾Ð¿":524,"Ð°Ðº":525,"ĠÐ£":526,"Ð²ÐµÑĤ":527,"ĠÑĤÐ¾":528,"ĠÐ½Ð¸":529,"ĠÐ²Ðµ":530,"ĠÐ²Ð¸":531,"ÑĢÐ°Ð·":532,"ĠÐ¿Ð¾Ñģ":533,"Ðķ":534,"Ð¾Ð»ÑĮÐºÐ¾":535,"ĠÐ½Ð¾":536,"ÑĤÑģÑı":537,"ÑģÐ»Ð¸":538,"Ð¼Ð¾":539,"ÑģÑĤÐ²Ð¾":540,"201":541,"ÑīÐ°":542,"Ð¾ÑĢÐ¸":543,"ĠÑģÐµ":544,"Ð¶Ð´":545,"ĠÐ¶Ðµ":546,"ĠÑĨ":547,"Ð¾Ð¸":548,"ĠÐ¿ÐµÑĢÐµ":549,"Ð¼Ñĥ":550,"ÑħÐ¾Ð´Ð¸":551,"Ð¾Ð»Ðµ":552,"Ð±Ð¾ÑĤ":553,"ĠÐ»Ñİ":554,"ĠÐ´Ð°":555,"ĠÑĢÑĥ":556,"ÐºÐ¾Ð¼":557,"ĠÐ¿ÑĢÐµ":558,"ÑĨÐ¸Ñı":559,"ÑģÐºÐ¾Ð³Ð¾":560,"Ð»ÐµÐ½Ð¸Ñı":561,"Ð½ÑĥÑİ":562,"ÐµÑĤÐµ":563,"Ð°Ð»":564,"Ð¾Ð»ÑĮÐ·":565,"...":566,"ĠÐĽ":567,"Ð»ÐµÐ¹":568,"Ð¾Ñĩ":569,"Ð½Ñĥ":570,"ĠâĢĶ":571,"ĠÐ±ÑĥÐ´":572,"--":573,"Ð±Ðµ":574,"ÑĤÐ¸Ð²":575,"Ð¾ÐºÐ°":576,"Ð¾Ð»Ð¸":577,"ÑĨÐ°":578,"ÑıÑĤ":579,"ĠÐķ":580,"ĠÑģÐ°Ð¼":581,"ÑĢÐµÐ¼":582,"Ð¾Ð´Ñĥ":583,"ĠÐ¤":584,"ĠÐ¼Ð¸":585,"ĠÐĿÐ°":586,"Ð»ÐµÐ´":587,"ÑĬ":588,"ÑĦÐ¾ÑĢ":589,"ĠÐ´ÑĢÑĥ":590,"ĠÑĪ":591,"ĠÐµÐ³Ð¾":592,"ÑĥÑĩ":593,"ÑģÑĤÐ²Ð¸":594,"ĠÑĩÐ°":595,"Ð½Ð¸Ð¼Ð°":596,"ÑİÑīÐ¸":597,"ĠÐ¸ÑģÐ¿":598,"ĠÑģÑĥ":599,"ĠÐ°Ð²":600,"Ð¼ÐµÑĢ":601,"ĠÐ¾Ð½":602,"Ð¼Ñĭ":603,"Ð¾Ð±Ñĭ":604,"ĠÐŃ":605,"ÑİÑĤÑģÑı":606,"ĠÐ´Ð¸":607,"ÐµÐ½Ð¸Ð¸":608,"Ð½Ð¸Ð¸":609,"ÑģÐºÐ°Ñı":610,"ĠÐ¾Ð´":611,"Ð½ÑĭÐ¼Ð¸":612,"ÑħÐ¾Ð´":613,"ÑĤÐµÑĢ":614,"ĠÑĢ":615,"Ð±Ð°":616,"ÐµÐ´":617,"ÑģÑĭ":618,"ĠÐ¿Ð¾Ð¼":619,"ĠÑįÑĤ":620,"Ðĳ":621,"ÑģÑĤÐ¾Ñı":622,"ĠÐ±Ð¾Ð»ÑĮ":623,"ĠÐ¿Ð°":624,"ÐºÐ°Ð·Ð°":625,"ÑģÐºÐ¸Ð¹":626,"ÑĥÐ¶":627,"ĠÐ¿Ðµ":628,"ĠÐ·Ð½Ð°":629,"Ð¾ÑĢÐ¾":630,"ÐºÐ¾Ð½":631,"ĠÐ±ÐµÐ·":632,"Ð£":633,"ÑĤÐµÑĢÐ¸":634,"ÑģÑģÐ¸":635,"ĠÐ¿ÐµÑĢ":636,"ÐµÑĢÐ°":637,"ÐµÑģÐ¿":638,"ĠÐºÑĥ":639,"ÐµÑĤÐ°":640,"Ð¾Ð³Ð´Ð°":641,"Ð½Ð¸ÐºÐ°":642,"ÑģÑĤÑĥ":643,"Ð¼Ð¾Ð¶":644,"ĠÐ§":645,"ĠÐ¸Ð³":646,"ÑĤÐ¾Ð²":647,"ÐµÐ²":648,"ĠÐ²Ð¾":649,"ÑĢÐ°Ð²Ð¸":650,"ĠÑģÐ»Ñĥ":651,"Ðĵ":652,"ĠÐ²ÑĢÐµÐ¼":653,"ÐµÐ½Ð¸Ð¹":654,"ĠÐ´Ð¾Ð»":655,"ĠÑĩÐµ":656,"ĠÐ¿Ð»Ð°":657,"ĠÐ³Ð¾ÑĢ":658,"ÑĢÐ¾Ð¼":659,"er":660,"ĠÐĹÐ°":661,"ÐºÐ¾Ð¹":662,"ÐµÑĤÐ¸":663,"ÐĽ":664,"ÐĹ":665,"Ð¼Ð¾ÑĤ":666,"ÑģÑĤÑĢÐ°":667,"Ð¾ÑģÑģÐ¸":668,"ĠÑĤÐ¾Ð»ÑĮÐºÐ¾":669,"ĠÐ¼Ð¾Ð¶Ð½Ð¾":670,"Ð¾Ð»ÑĮÐ·Ð¾Ð²Ð°":671,"ĠÐ¿Ð¸":672,"Ð½Ð¸Ð¹":673,"Ð²Ð»Ñı":674,"ĠÐ½Ð¾Ð²":675,"ĠÐ¼Ñĭ":676,"Ð¿ÑĢÐ°Ð²":677,"Ð²Ñĭ":678,"Ð»ÐµÐ¼":679,"ĠÐ¸Ñħ":680,"ĠÑĢÐ°Ð±Ð¾ÑĤ":681,"Ð»ÐµÐ½Ð¸Ðµ":682,"ÑĩÐ½Ð¾":683,"10":684,"Ð²Ð¾":685,"ĠÑģÐ¾Ð²":686,"ÑĤÐµÐ»Ñı":687,"Ð½Ð¸Ðº":688,"Ð½ÐµÐ¹":689,"in":690,"ÑħÐ°":691,"Ð»ÑģÑı":692,"ĠÐ»Ðµ":693,"ĠÑĦÐ¸":694,"ĠÑģÐ¾Ð±":695,"ĠÐ¾Ð±Ð»Ð°":696,"ÑģÑĥ":697,"Ð»Ð¾Ð¶":698,"Ð¿Ñĥ":699,"ĠÐ¿Ð¾Ð²":700,"Ð¾Ð³ÑĢÐ°":701,"Ð»ÐµÐºÑĤ":702,"ÑĤÐµÐ»ÑĮÐ½Ð¾":703,"ĠÑĢÐ°Ð±Ð¾":704,"ĠÐ¾ÑĢ":705,"19":706,"ĠÐ¿ÑĢÐ¾Ð²":707,"ÑģÐ¾Ð²":708,"Ð²Ð°ÑĤÑĮ":709,"ÑĥÐ±":710,"Ð¾Ð´Ðµ":711,"Ð°Ð·":712,"ĠÐ¶Ð¸":713,"ĠÐłÐ¾ÑģÑģÐ¸":714,"Ð¾ÑĤÐ¸":715,").":716,"ÐµÐ½Ð°":717,"Ð·Ð½Ð°":718,"ĠÐ¿ÑĢÐ¾Ð¸Ð·":719,"Ð»Ð¾Ñģ":720,"Ð¾Ð¼Ñĥ":721,"ĠÑĥÑģ":722,"Ð²Ñĥ":723,"Ð³Ñĥ":724,"Ð»Ñĭ":725,"Ð¾ÑĤÐ¾Ð²":726,"ÐºÑĢÐ°":727,"Ð´Ð¾":728,"Ð¾Ð»ÐµÐµ":729,"ĠÐ¿Ð¾ÑĢ":730,"ĠÐ¿Ð¾Ð»Ñĥ":731,"Ð¾Ð»Ð¾Ð³Ð¸":732,"Ð²Ð¾Ð´":733,"ĠÐ¿Ð¾ÑĤ":734,"ÑĨÐ¸Ð¾Ð½":735,"ĠÑģÑĤÑĢÐ°":736,"Ð¿Ð¾Ð»":737,"ÑĤÐ¾Ð±Ñĭ":738,"Ð´Ð¸Ð½":739,"ĠÐ¼Ð¾Ð¶ÐµÑĤ":740,"Ð¿ÑĢÐ¸":741,"ĠÐ¿Ð¾Ð·":742,"Ð±Ð¾ÑĢ":743,"ĠÑģÐ°Ð¹":744,"Ð´Ñĭ":745,"),":746,"ĠS":747,"Ð±Ñĭ":748,"ĠÑĦÐ¾ÑĢ":749,"ÑģÑĤÑĢ":750,"ĠÐ¾ÑĢÐ³Ð°":751,"Ð¾ÐºÑĥ":752,"ÑĩÐµÐ½ÑĮ":753,"ĠÐºÑĢÐ°":754,"on":755,"Ð¾ÑĢÐ°":756,"Ð»ÐµÐº":757,"ÐµÐ½Ð¸Ñİ":758,"Ð¾Ð±Ð¸":759,"ĠÐ³Ð¾Ð´Ð°":760,"ĠÑįÑĤÐ¾Ð¼":761,"ÑĢÐµÐ½":762,"ÑģÑĤÐ°Ð½Ð¾Ð²":763,"ĠÐ¥":764,"ĠÑĤÐ°ÐºÐ¶Ðµ":765,"ĠÐ±ÑĥÐ´ÐµÑĤ":766,"ĠÐ²ÑĢÐµÐ¼Ñı":767,"ĠÐ¼ÐµÐ½":768,"Ð¤":769,"ÑĤÐµÐ»ÐµÐ¹":770,"Ð»Ð¸ÑģÑĮ":771,"ĠÐ¾Ð±ÑĬ":772,"Ð¸Ñģ":773,"Ð°Ð»Ð¸":774,"Ð³ÑĢÐ°":775,"ÑĢÐ°Ðº":776,"ÐºÐ»Ñİ":777,"ÐµÐ¼Ñĥ":778,"ĠÐ¯":779,"ĠÑĢÐ°Ñģ":780,"Ð¾Ð²Ð°Ð½Ð¸Ñı":781,"ÑĨÐ¸Ð°Ð»ÑĮ":782,"ÐµÐ½Ñĭ":783,"ĠÐºÐ¾ÑĤÐ¾ÑĢÑĭÐµ":784,"Ġ|":785,"ÑĤÐ¸Ñı":786,"Ð·ÑĭÐ²Ð°":787,"ĠÐ´Ð°Ð½":788,"ï¿":789,"ÑĢÐµÐ±":790,"ï¿½":791,"ĠÐŁÑĢÐ¸":792,"ĠÐºÐ¾ÑĢ":793,"ĠÐµÑģÐ»Ð¸":794,"ÑģÑĤÐµ":795,"ÑĥÑģ":796,"ÑĦÐ¾ÑĢÐ¼Ð°":797,"ĠÐ°Ðº":798,"ÑĮÑİ":799,"ÐºÑĢÑĭ":800,"ÐµÐºÑĤ":801,"ĠÑĥÑĩÐ°":802,"Ð»Ð°Ð²":803,"ĠÑĤÐµÑħ":804,"ÑĨÑĭ":805,"ĠÐ²Ñģ":806,"ĠÐĴÑĭ":807,"ĠÐ¸Ð¼Ðµ":808,"ĠÐ»ÑİÐ±":809,"ĠÑĩÑĤÐ¾Ð±Ñĭ":810,"Ð»Ð¾ÑģÑĮ":811,"ÑĢÐ¾Ðº":812,"Ð¾Ð¼Ð¸":813,"Ð´Ð°ÑĢ":814,"Ð´ÐµÑĢ":815,"ÑıÐ·Ð°":816,"Ð´ÐµÐ»Ð°":817,"Ð³Ð¾Ð²":818,"ÑģÑĤÐ°Ð²Ð»Ñı":819,"Ð»Ð¸Ñĩ":820,"ĠÐºÐ¾Ð¼Ð¿":821,"ÑĨÐ¸Ñİ":822,"ĠÐ¿Ð¾Ð¿":823,"ĠÑĥÐ¶Ðµ":824,"ÑĥÐ»ÑĮ":825,"Ð°Ñģ":826,"ÐµÐ½Ð¸ÐµÐ¼":827,"ÐºÐ»Ð°":828,"an":829,"ĠÑģÐ²Ð¾Ð¸":830,"ÐºÐ°Ð·":831,"ĠÐ²Ð¾Ð·Ð¼Ð¾Ð¶":832,"ĠÑıÐ²Ð»Ñı":833,"ĠÑģÐ²Ð¾":834,"Ð¿Ðµ":835,"ĠÑįÐº":836,"ĠÑĩÐµÐ»Ð¾Ð²":837,"ĠÐ¾Ð±ÑĢÐ°Ð·":838,"ĠÐµÑģÑĤÑĮ":839,"Ð¾Ð½Ð°Ð»ÑĮ":840,"ĠÐºÐ°ÑĢ":841,"ĠÐ¾ÑĩÐµÐ½ÑĮ":842,"ĠÐ¿Ñĥ":843,"ÑĢÐ°Ð¶":844,"ĠÐ±Ð¾Ð»ÐµÐµ":845,"ĠÐļÐ°":846,"ĠÐ±ÑĭÑĤÑĮ":847,"ÑģÑĤÐµÐ¼":848,"ĠÐ¼Ð¾Ð³":849,"ÑģÑĤÐ°Ð²Ð¸":850,"ĠÐ´Ð¾Ð»Ð¶":851,"ĠÐ´Ð¾Ð¼":852,"ÑĢÐ¾Ñģ":853,"Â».":854,"Ð¹Ð½":855,"Ð»Ð°ÑģÑĮ":856,"ar":857,"ĠÐ¸Ð¼":858,"ĠÐºÐ°ÑĩÐµ":859,"ĠÑģÐ°":860,"ĠÑģÐ¿Ðµ":861,"ÑĢÐµÑģ":862,"ÑĭÐ¼":863,"Ð½ÐµÑĤ":864,"ĠÑģÑĢÐµÐ´":865,"ĠÐºÐ¾Ð¼Ð¿Ð°":866,"ĠÑģÐ»ÑĥÑĩÐ°":867,"Ð½Ð¸ÐºÐ¸":868,"ĠÐ°Ð²ÑĤÐ¾Ð¼":869,"Ð¹ÑĤÐµ":870,"ĠÐ¼Ð°ÑĤÐµÑĢÐ¸":871,"ĠÐ¼Ð¾":872,"Ð¾Ð±ÑħÐ¾Ð´Ð¸":873,"ĠÐ²ÑĭÑģ":874,"ĠÑģÐ¾Ð·":875,"ĠM":876,"Ð´Ð¾Ð²":877,"ĠÐ´ÑĢÑĥÐ³Ð¸":878,"Ð°ÑĤ":879,"Â»,":880,"ÑģÑĤÑĢÐ¾":881,"ÑīÐµÑģÑĤÐ²":882,"ÑħÐ¸":883,"ÑģÑĤÑĢÑĥ":884,"ï¿½ï¿½":885,"ĠÐ±ÑĭÐ»Ð¾":886,"Ð½ÐµÐµ":887,"ÐºÐ¸Ðµ":888,"ĠÐ¼Ð½":889,"ĠÐ¿ÐµÑĢÐ²":890,"Ð½Ð¸ÐºÐ¾Ð²":891,"ÑĢÐ¾Ð´":892,"ĠÑĢÐ°ÑģÐ¿":893,"ÑĩÐµÐ½":894,"ÑıÐ²":895,"ĠÐ¾ÑĢÐ³Ð°Ð½Ð¸":896,"Ð¿ÐµÑĢ":897,"Ð²ÐµÐ´":898,"or":899,"Ð¾Ð»Ñı":900,"Ð¾Ð½Ðµ":901,"ĠÐ²ÐµÑĢ":902,"ĠÐ½ÐµÐ¾Ð±ÑħÐ¾Ð´Ð¸":903,"ĠÐ´ÐµÑĤ":904,"ÑģÐºÐ¸Ðµ":905,"ÑĢÐµÐ¼ÐµÐ½":906,"15":907,"ĠA":908,"ÑģÐºÐ¸Ñħ":909,"Ð³Ð¾Ð´":910,"ÐµÐ½ÑĤÐ°":911,"ÑĢÑĥÐ¿":912,"ĠÐ½ÑĥÐ¶":913,"Ð¾Ð»Ð½Ð¸":914,"ÑĢÐµÐ´Ðµ":915,"Ð¾Ð¶Ð¸":916,"Ð»Ð°ÑĤ":917,"ĠÑģÐµÑĢ":918,"ÑĪÐ¸Ñħ":919,"ÐºÐ¸Ñħ":920,"ÑĩÐµÐ½Ð¸Ðµ":921,"ĠÐ»ÐµÑĤ":922,"ĠÐ¾Ð½Ð¸":923,"ĠÐŁÐ¾":924,"ĠC":925,"ĠÐ²Ð¸Ð´Ðµ":926,"ĠÐ±Ð°":927,"ĠÐłÐ¾ÑģÑģÐ¸Ð¸":928,"ĠÑĨÐµ":929,"ĠÐ¿Ð¾ÐºÐ°":930,"ĠÐ´ÐµÐ½ÑĮ":931,"Ð²Ð°ÐµÑĤ":932,"ÑĪÑĮ":933,"ÑĤÐµÐ»Ð¸":934,"ÐºÐ¾Ð»":935,"ĠÑĤÐµÐ¼":936,"ĠÑĢÐµÐ·":937,"Ð¾ÑĢÐ¾Ð²":938,"ÑĤÑĢÐ°":939,"Ð¾Ð¶Ðµ":940,"ĠÑģÐ¸ÑģÑĤÐµÐ¼":941,"ĠÑĩÐµÐ¼":942,"ÑĦÐµ":943,"ÑĢÐ¾Ð²Ð°Ð½":944,"Ð¾ÑģÐ¾Ð±":945,"ĠÑįÑĤÐ¸":946,"ĠÐĿÐ¾":947,"Ð¸Ð¼":948,"ĠÐ¿Ð¾ÑģÐ»Ðµ":949,"ĠÐ¸ÑģÐ¿Ð¾Ð»ÑĮÐ·Ð¾Ð²Ð°":950,"12":951,"ÑĩÐµÑĤ":952,"ĠÐ½Ð°Ñģ":953,"ÑĢÐµÐ´Ð¸":954,"ĠÐ¸Ð½ÑĦÐ¾ÑĢÐ¼Ð°":955,"ÐĿÐ°":956,"Ð±Ñı":957,"ĠÐ¾Ð±ÑĢÐ°":958,"ÐºÐ°Ð¼Ð¸":959,"Ð¸ÑĤ":960,"ÑĢÐ°Ð»ÑĮ":961,"Ð§":962,"ĠÑģÐ¾Ð·Ð´Ð°":963,"ĠÑĤÐ¾Ð¼":964,"ĠÐ½Ð°ÑĪ":965,"ÑĢÐ¾Ð¿":966,"Ð²Ð¾Ð´Ð¸":967,"Ð½Ð¾Ð²Ð°":968,"ĠÐ¨":969,"ĠÐ½Ð°ÑĩÐ°":970,"ĠÑĤÐ¾Ð³Ð¾":971,"Ð¸ÑĤÐ°":972,"ĠÑįÐ»ÐµÐºÑĤ":973,"ĠÐŀÐ±":974,"ÑģÐºÐ¾Ð¼":975,"ÑĩÐµÑģÐºÐ¸Ñħ":976,"ĠÐ¶Ð¸Ð·":977,"Ð»Ð¾Ð¼":978,"en":979,"ÑıÑħ":980,"Ð¯":981,"ĠÑĢÐ°Ð±Ð¾ÑĤÐ°":982,"Ð½Ð³":983,"ĠÐ¼ÐµÑĤ":984,"ÑĩÐµÐ½Ð¸Ñı":985,"Ð»ÐµÑĤ":986,"Ð¾ÑģÑĥ":987,"ĠÐºÐ¾Ð³Ð´Ð°":988,"al":989,"ÂŃ":990,"Ð¾Ð³Ð°":991,"ÐºÐ°Ð½":992,"ĠÐĿÐµ":993,"ĠÐ²Ð¾Ð¿":994,"ĠÐ¦":995,"ĠÐ¼Ñĥ":996,"ĠÐºÐ¾ÑĤÐ¾ÑĢÑĭÐ¹":997,"Ð½ÑĥÑĤ":998,"ĠÑįÑĤÐ¾Ð³Ð¾":999,"ĠP":1000,"ÑĪÐµÐ½Ð¸Ñı":1001,"ĠÐ¿ÑĢÐ°Ð²":1002,"18":1003,"ĠÐ±Ðµ":1004,"ĠÐ´ÐµÐ»Ð°":1005,"ĠÐ²Ð¾Ñģ":1006,"ÑĥÐ½":1007,"Ð³Ð¾ÑĤÐ¾Ð²":1008,"ĠÑģÐº":1009,"ĠÐ±ÐµÑģÐ¿":1010,"ĠÐµÐµ":1011,"ÑĪÐµÐ½":1012,"ÑĢÑĥÐ´":1013,"Ð»ÑĮÐ½Ð¾":1014,"Ð½Ð¾Ð¼Ñĥ":1015,"ÑģÑĤÐ²Ðµ":1016,"ÑĥÑİÑīÐ¸":1017,"Ð¶Ð´Ñĥ":1018,"ĠÑĢÑĭ":1019,"ÑĩÐµÑģÐºÐ¸Ðµ":1020,"ÑģÑĤÐ²Ñĥ":1021,"ĠÐ´ÐµÐ¹":1022,"ĠÐºÐ°Ð¶Ð´":1023,"----":1024,"ĠÐµÑīÐµ":1025,"ĠÐ¿ÑĢÐ°Ð²Ð¸":1026,"ÐºÐ°Ñħ":1027,"ÑģÑĤÑĥÐ¿":1028,"Ð¼ÐµÑĤ":1029,"ÑģÐºÐ¾Ðµ":1030,"Ð¾ÑģÑĤ":1031,"ĠÐľÐ°":1032,"Ð¾ÑģÐº":1033,"ÐŃ":1034,"ĠÐ¸Ð½ÑĤÐµÑĢ":1035,"ĠÐ´Ñĥ":1036,"âĢ¦":1037,"Ð¾Ð³ÑĢÐ°Ð¼":1038,"ĠÐĴÐ°":1039,"ĠÐ¼ÐµÐ½Ñı":1040,"ÑĤÐ¾ÑĢÐ°":1041,"ĠÐ¾ÑģÐ½Ð¾Ð²":1042,"Ð´ÐµÐ¹":1043,"ĠÐ±ÑĭÐ»":1044,"ĠT":1045,"ÑĨÐ¸Ð¹":1046,"ÑĢÐ¸Ñı":1047,"Ð½ÑĮ":1048,"Ð»Ð¸ÑĩÐ¸":1049,"ĠÐºÐ¾Ð»":1050,"ĠÐ¾Ð½Ð°":1051,"ÑĩÐ¸ÑĤÐ°":1052,"ĠÐ¸Ð½ÑĤÐµ":1053,"ÑĪÐµÐ³Ð¾":1054,"ĠÑĢÐµÐ³Ð¸":1055,"ÑĩÐµÑģÐºÐ¾Ð¹":1056,"Ð½Ð¾ÑģÑĤÑĮÑİ":1057,"ĠÑĢÐ°Ð±Ð¾ÑĤÑĭ":1058,"Ð´ÐµÑĤ":1059,"ÑĢÐ°ÑĤÑĮ":1060,"ĠÑĤÑĭ":1061,"ĠÐ²Ð·":1062,"Ð¾Ð´Ñĭ":1063,"ÑīÐµÐ¹":1064,"200":1065,"Ð»Ð¾Ð²Ð¸":1066,"ÑıÐ±":1067,"ĠÐºÐ»Ð°":1068,"Ð¾Ð³Ð¾Ð²":1069,"ĠÑıÐ²Ð»ÑıÐµÑĤÑģÑı":1070,"ÐµÐ½Ðµ":1071,"ĠÐ¿Ð¾Ð»ÑĥÑĩÐ¸":1072,"30":1073,"ÑīÐµÐ³Ð¾":1074,"Ð²Ð°ÑĢ":1075,"ĠÐ¿Ð°ÑĢ":1076,"ĠÑģÐ´ÐµÐ»Ð°":1077,"es":1078,"Ð¥":1079,"ĠÑħÐ¾ÑĢÐ¾":1080,"Ġ/":1081,"Ð¾ÑĤÐ²ÐµÑĤ":1082,"ĠÐ¾Ð¿ÑĢÐµÐ´Ðµ":1083,"ĠÐĺÐ½":1084,"ÑģÑĤÑĢÐµ":1085,"Ð½Ð¸Ñİ":1086,"Ð»Ð°Ð³":1087,"Ð²Ð°Ñı":1088,"ĠÑĤÐ¾ÑĢ":1089,"Ð³Ð°Ð·Ð¸":1090,"ÑĩÐ°ÑĤÑĮ":1091,"ĠÑĤÐµÐ»Ðµ":1092,"ĠÐ»ÑĥÑĩ":1093,"ĠÐ¾ÑĤÐ½Ð¾":1094,"Ð¾Ð³Ð»Ð°":1095,"ĠÂ»":1096,"ĠÑĢÐ¾":1097,"ĠB":1098,"ĠÐ¾Ð±Ð»Ð°ÑģÑĤÐ¸":1099,"ĠÑģÐ¿Ð¾ÑģÐ¾Ð±":1100,"ÑĮÑı":1101,"ĠÐ´Ð°Ð¶Ðµ":1102,"ÑĥÐ¼":1103,"ĠÐ¿Ð¾Ñĩ":1104,"Ð¾ÑģÑĤÐ¸":1105,"ÐµÑĢÐµÐ·":1106,"ĠÐĿÐ¾Ð²":1107,"ĠÐ³Ð¾Ð»":1108,"ĠÐ¼Ð¾Ð»":1109,"at":1110,"ÑīÐµÐ½":1111,"ĠÑĨÐ²ÐµÑĤ":1112,"ĠÑĤÐ¾Ð²Ð°":1113,"ÑĥÐ»ÑĮÑĤÐ°":1114,"ÑĢÐµÑĤÑĮ":1115,"Ð¿ÑĢÐµ":1116,"ĠÐ²Ð°Ð¼":1117,"ĠÐ²ÑģÐµÑħ":1118,"Ġâ":1119,"Ð¨":1120,"ÑīÐµÐ½Ð¸Ñı":1121,"ĠÐ¿Ð¾Ð¼Ð¾":1122,"ĠÐķÑģÐ»Ð¸":1123,"ĠÐ°ÑĢ":1124,"ĠÐĸ":1125,"ĠÐ¿Ð¾Ðº":1126,"ÑĢÐ¾Ð¸":1127,"11":1128,"ĠÐ¿ÑĢÐ¾Ð±":1129,"Ð¾Ð²Ð°ÑĤÑĮ":1130,"ÑĪÐ¸Ðµ":1131,"ÑģÐ»Ñĥ":1132,"Ð±Ñĥ":1133,"ĠÐŃÑĤÐ¾":1134,"50":1135,"Î¿":1136,"Ð¾ÑĢÑĤ":1137,"ĠÐ¿ÑĢÐ¾Ð´Ñĥ":1138,"Ð¿Ð¸ÑĤÑĮ":1139,"ĠÑģÐ¾Ð¾Ð±":1140,"ĠÑĢÐ°Ð·Ð²Ð¸":1141,"ÑĪÐºÐ¸":1142,"Ð²Ð°Ð½Ð¸Ñı":1143,"ĠÐ¿ÑĢÐ¾ÑĨÐµ":1144,"Ð¼ÐµÐ½ÑĤÐ°":1145,"Ð²Ð°ÐµÑĤÑģÑı":1146,"Ð»Ð¾Ðº":1147,"ĠÐ¿Ð¾ÑģÐ»ÐµÐ´":1148,"ĠI":1149,"ÑĩÐµÑģÐºÐ¸Ð¹":1150,"ĠÐ¿Ð¾Ð»Ð¸":1151,"Ð»Ð¸Ñı":1152,"ĠÐ³Ð´Ðµ":1153,"ÑĥÐ±Ð»Ð¸":1154,"Ð·Ð°ÑĨÐ¸Ð¸":1155,"Ð¾ÑģÑĥÐ´Ð°ÑĢ":1156,"Ð½Ð¾ÑģÑĤ":1157,"ĠÑĥÑģÑĤÐ°Ð½Ð¾Ð²":1158,"Ð´ÑĮ":1159,"ÑģÑĤÐ¾Ð²":1160,"ĠÐ¿ÑĢÐ¾ÑģÑĤÐ¾":1161,"ÑĤÑĢ":1162,"ĠÑģÑĤÐ¾Ð¸":1163,"Ð»Ð°Ð¹Ð½":1164,"ĠÐºÐ»Ð¸":1165,"ĠÐ³Ð¾Ð²":1166,"Ð»Ð°Ð½":1167,"ÑģÑĤÑĭ":1168,"ĠÐ¿Ð¾Ð·Ð²":1169,"ÑģÑĤÑĢÐ¾Ð¹":1170,"Ð»ÑĮÐ½ÑĭÐµ":1171,"ĠÐ¼Ð¾Ð³ÑĥÑĤ":1172,"ĠD":1173,"Ð½ÐµÑģ":1174,"ÑİÑīÐ¸Ñħ":1175,"ÑĩÐµÑģÐºÐ¾Ð³Ð¾":1176,"ĠÑģÐ¾Ð¾ÑĤÐ²ÐµÑĤ":1177,"ĠÑģÐ¼":1178,"ĠÑĢÑĥÐ±":1179,"ĠÑĤÐµÑĢ":1180,"ro":1181,"Ð»ÑĮÐ½ÑĭÐ¹":1182,"ĠÐ´Ð¾Ð¿":1183,"ĠÐĶÐ»Ñı":1184,"Ð¾ÑĤÐµ":1185,"ÑĦÑĦ":1186,"ÑĢÐ¾Ð½":1187,"ĠÐ¾ÑģÑĤÐ°":1188,"Ð¿Ð¸ÑģÐ°":1189,"ĠÑĤÐ¸":1190,"ĠÑĥÑģÐ»Ñĥ":1191,"ĠÐ¸ÑģÐº":1192,"Ð¾Ð´ÐµÑĢ":1193,"ĠÐ²ÑĭÑģÐ¾Ðº":1194,"ĠÐ±ÐµÑģÐ¿Ð»Ð°ÑĤ":1195,"ĠÐ³Ð¾Ð´Ñĥ":1196,"Ð¸ÑĤÑĮ":1197,"Ð²Ð¾ÑĢ":1198,"ÑĪÐµÐ½Ð¸Ðµ":1199,"ÑħÐ¾Ð²":1200,"ÑĢÐ¾Ð±":1201,"ĠÑĦÐ¾ÑĤ":1202,"ru":1203,"Ð³Ðµ":1204,"ĠÐ½ÐµÑĤ":1205,"ÑĤÐ¾Ð¼Ñĥ":1206,"ÑħÐ¾Ð´Ð¸ÑĤ":1207,"ĠÑģÐµÐ±Ñı":1208,"100":1209,"Ð¾Ð²Ð°Ñı":1210,"ĠÐ¼Ð½Ð¾Ð³Ð¾":1211,"ĠÐ°Ð´":1212,"ĠÑĢÐµÐ·ÑĥÐ»ÑĮÑĤÐ°":1213,"14":1214,"ĠÐľÐ¾ÑģÐº":1215,"ĠÐ¼ÐµÐ¶Ð´Ñĥ":1216,"ĠÐ²ÑģÐµÐ³Ð¾":1217,"it":1218,"Ð½ÐµÑĢ":1219,"ĠÐ´ÑĢÑĥÐ³":1220,"ÐºÐ¸Ð¼":1221,"ĠÐ²Ð»Ð°":1222,"ĠÐ±Ð¾Ð»ÑĮÑĪÐµ":1223,"Ð²Ð°ÑİÑĤ":1224,"ĠR":1225,"ĠÐºÐ¸":1226,"ĠG":1227,"ĠÑĦÐ°":1228,"ĠÐ¿ÑĢÐ¾Ð³ÑĢÐ°Ð¼":1229,"ĠÐ¾ÑĤÐºÑĢÑĭ":1230,"ĠÑĥÑĩÐ°ÑģÑĤ":1231,"ĠÐ¾ÑģÐ¾Ð±":1232,"Ð¾Ð²Ð°Ð½Ð¸Ðµ":1233,"ÑįÑĤÐ¾Ð¼Ñĥ":1234,"ĠÐ½ÐµÑģÐº":1235,"ĠÑģÐµÐ¼":1236,"ĠÑģÐ²Ñı":1237,"ĠÑĩÐµÑĢÐµÐ·":1238,"ĠÐ½Ð¸Ñħ":1239,"ĠÐ´Ð¾Ð±":1240,"ÑĢÐ¾Ð²Ð°ÑĤÑĮ":1241,"ic":1242,"ÑıÐ¼":1243,"ĠÑĤÑĢÐµÐ±":1244,"ĠÐ±Ð°Ð½":1245,"Ð¾ÑĤÐ¾ÑĢ":1246,"ĠÑĢÐ°Ð¹":1247,"ÑıÑĤÑĮ":1248,"Ð½Ð¸ÐµÐ¼":1249,"ĠÑİ":1250,"el":1251,"ĠÐ³Ð¸":1252,"ĠÐ±Ð¸":1253,"ÑĪÐµÐ¹":1254,"ĠÐ¢Ð°Ðº":1255,"Ð²Ð¾Ð¹":1256,"st":1257,"ĠÐľÐ¸":1258,"Ð´Ð°Ð½":1259,"ĠÐ½ÑĥÐ¶Ð½Ð¾":1260,"ÑĩÐºÐ¸":1261,"ĠÐŁÑĢÐ¾":1262,"ĠÐ³Ð°":1263,"ĠÐĴÑģÐµ":1264,"ĠÐ¶ÐµÐ½":1265,"ĠÑĩÐµÐ»Ð¾Ð²Ðµ":1266,"ÑģÑĤÐµÑĢ":1267,"ÑİÑīÐ¸Ðµ":1268,"!!":1269,"ĠÑĪÐ¸":1270,"ÐºÐ°Ñı":1271,"Ð¾Ð¶Ð´":1272,"ĠÑĢÐ°ÑģÑģ":1273,"ĠÐ¿ÑĢÐ¾Ð´":1274,"Ħĸ":1275,"ÑĪÐ¸Ð¹":1276,"ĠÐ±Ñĥ":1277,"ÑĤÐ¾ÑĢÐ¸":1278,"ĠÑĥÑģÐ»Ð¾Ð²Ð¸":1279,"ĠÐ¾ÑĤÐ´Ðµ":1280,"ĠÑģÐ»ÑĥÑĩÐ°Ðµ":1281,"ĠÐ²ÑĭÐ¿Ð¾Ð»":1282,"Ð»ÑĮÐ½ÑĭÑħ":1283,"Ð¾Ð»Ð¸ÑĩÐµ":1284,"ĠÐŀÑĤ":1285,"16":1286,"ÐºÐ¸Ð¹":1287,"ĠÐºÐ¾":1288,"ĠÑģÐµÐº":1289,"ĠÐ´ÐµÐ¹ÑģÑĤÐ²Ð¸":1290,"ĠÐ¿ÑĢÐ¾ÑĤÐ¸":1291,"ĠÑĤÑĥ":1292,"ĠÐ±ÑĭÐ»Ð¸":1293,"ĠÐ³ÑĢÐ°":1294,"ĠÐ´Ð²Ð¸":1295,"ĠÐ³Ð¾Ð´":1296,"ĠÐ¼Ð¸Ð½":1297,"Ġ,":1298,"ĠÐ½ÐµÐ¾Ð±ÑħÐ¾Ð´Ð¸Ð¼Ð¾":1299,"ĠÐ³Ð»Ð°":1300,"2018":1301,"ÐºÑĨÐ¸Ð¸":1302,"ÐµÑģÐ¿Ðµ":1303,"\".":1304,"ÑģÑģÐ°":1305,"ĠÐ¾Ðº":1306,"ÑĤÑĢÐ¸":1307,"ÑĢÑĮ":1308,"ÑĨÐ¸Ð°Ð»Ð¸":1309,"ÑĢÐ°Ð±Ð¾ÑĤ":1310,"ĠÐ¾Ð´Ð¸Ð½":1311,"ÐµÐ½ÑĤÐ¾Ð²":1312,"ĠÐ¾Ð½Ð»Ð°Ð¹Ð½":1313,"ÐµÑĤÑĭ":1314,"Ð»Ð¸Ð½":1315,"ÑĩÐ¸Ð½Ð°":1316,"ÑĢÐ°ÑĤ":1317,"Ð¾Ð»Ð½Ð¸ÑĤÐµÐ»ÑĮ":1318,"ĠH":1319,"ĠÑĥÑĢÐ¾Ð²":1320,"ÑıÐ½":1321,"ĠÑģÐ»ÐµÐ´":1322,"ĠÑģÐ¾ÑģÑĤÐ¾Ñı":1323,"ĠÑĥÐ¿ÑĢÐ°Ð²":1324,"Ð²Ð»Ðµ":1325,"ÑģÐ¿Ðµ":1326,"ĠÐ¿Ð»Ð¾":1327,"ÑīÐ°Ñı":1328,"ĠÐĿÐ¸":1329,"ÑģÑĤÐ¾ÑĢÐ¸":1330,"Ð²Ð¾Ð·":1331,"ĠÐ¾Ð±ÐµÑģÐ¿Ðµ":1332,"Ð¶Ð´Ð°":1333,"Ð²ÐµÑģÑĤ":1334,"ĠâĦĸ":1335,"ĠL":1336,"ĠF":1337,"Ð¶ÐµÐ½":1338,"Ð¦":1339,"__":1340,"Ð½Ð¸Ð¼":1341,"Ð¶ÐµÐ½Ð¸Ñı":1342,"ĠÐ³Ð¾ÑģÑĥÐ´Ð°ÑĢ":1343,"Ð¿ÑĢÐ¾":1344,"ĠÐ¾ÑĤÐ²ÐµÑĤ":1345,"ĠÐ¼Ð½Ðµ":1346,"ĠÐºÑĥÑĢ":1347,"ĠÐ¿ÑĢÐ¾Ð´Ð°":1348,"Ð°Ð²":1349,"Ð³Ð¾ÑĢ":1350,"13":1351,"ÑĢÐ°Ñģ":1352,"Ð¾Ð¶Ð°":1353,"ĠÑģÐ²Ð¾Ðµ":1354,"ĠÐ¢Ðµ":1355,"ĠÐ½Ð°Ð¿":1356,"ĠÑĤÑĢÑĥ":1357,"ÐºÐ°Ð·ÑĩÐ¸":1358,"Ð³Ð¾Ð´Ð½Ñı":1359,"Ð±Ð¾ÑĤÐ°":1360,"17":1361,"ĠÐ¿ÑĢÐ¸Ð¼ÐµÐ½":1362,"ÑĤÐ²ÐµÑĢ":1363,"ÑıÐ²Ð¸":1364,"\",":1365,"ĠÑĢÐ°Ð·Ð¼Ðµ":1366,"ĠÑģÐ²Ð¾Ð¹":1367,"ĠÐ´Ð¾Ð¼Ð°":1368,"Ð³Ð´Ð°":1369,"ÑĥÑİÑĤ":1370,"ĠÑĨÐµÐ½ÑĤ":1371,"ÑĤÐ¸Ðµ":1372,"ĠÐ¿ÑĢÐ¾Ð±Ð»ÐµÐ¼":1373,"ĠÐ²Ð°Ñģ":1374,"ĠÐ·Ð°ÑīÐ¸":1375,"25":1376,"Ð½Ð¸Ñħ":1377,"ÐµÐ´Ðµ":1378,"ÑģÑĤÐ²Ð¾Ð¼":1379,"ĠÐ¿ÑĢÐµÐ´Ð¾":1380,"Ð»ÑıÑĢ":1381,"ĠÐ·Ð°ÐºÐ¾Ð½":1382,"ĠÑħÐ°":1383,"ĠÑĩÑĥ":1384,"ÑĢÑıÐ´":1385,"ĠE":1386,"ÑĨÑĥ":1387,"Ð¼ÐµÐ½Ð½Ð¾":1388,"ĠÑĤÑĢÐ°":1389,"ĠÐ¾Ð±ÑıÐ·Ð°":1390,"Ð¼Ð¾Ð½":1391,"Ð»ÐºÐ¸":1392,"ÑĢÑĥÐ³":1393,"Ð¹ÑĤÐ¸":1394,"ĠÑįÑĤÐ¾ÑĤ":1395,"ĠÐ±ÑĭÐ»Ð°":1396,"Ð´Ð¾ÑĢÐ¾Ð²":1397,"ĠÐºÑĤÐ¾":1398,"ĠÑĨÐ¸":1399,"Ð¿Ð¾":1400,"Ð»ÐµÐºÑģ":1401,"om":1402,"ĠÑģÐ°Ð¹ÑĤÐµ":1403,"Ð½Ð°Ð»Ð¸":1404,"Ð¾Ð²Ð°Ð½":1405,"Ð´ÐµÑģÑĮ":1406,"ĠÐºÐ¾Ð»Ð¸ÑĩÐµ":1407,"ÐºÐ¾Ðµ":1408,"ĠÑģÐ¾Ð³Ð»Ð°":1409,"ĠÐºÐ¾Ð¼Ð¿Ð°Ð½Ð¸Ð¸":1410,"ĠÑįÑĤÐ¾Ð¹":1411,"ĠÑģÐ¾Ð´ÐµÑĢ":1412,"ĠÑĥÑĩ":1413,"ĠÐ¼Ð¾Ð¼":1414,"ĠÐ¿ÑĢÐ¾Ð¸Ð·Ð²Ð¾Ð´Ð¸":1415,"ĠÑĢÐ¸":1416,"et":1417,"ĠÐ²Ð¾Ð»":1418,"ÐµÐ½Ð½Ð¾":1419,"ĠÐ¢Ð°":1420,"ĠÐ°Ð²ÑĤÐ¾Ð¼Ð¾Ð±Ð¸":1421,"ra":1422,"Ð»Ð¾ÑĤ":1423,"ÑģÑĤÐ¾Ð¹":1424,"Ð»Ð°Ð³Ð°":1425,"ÑĪÐºÐ°":1426,"ĠÑĤÑĢÐ°Ð½":1427,"ĠÐ¼Ð¾Ð¶ÐµÑĤÐµ":1428,"ÑĦÐµÑģÑģÐ¸":1429,"ĠÐ°Ð½":1430,"ĠÐ´Ð¾ÑĢ":1431,"ĠÐ±Ð¾Ð»ÑĮÑĪ":1432,"ĠÑģÐºÐ°":1433,"Ð»ÑĮÐ½Ð¾Ð³Ð¾":1434,"ĠN":1435,"ĠÑĥÐ³":1436,"ÑīÐµÐµ":1437,"ĠÐ¾Ð±Ð¾ÑĢ":1438,"ÐºÐ»ÑİÑĩÐ°":1439,"ĠÐļÐ°Ðº":1440,"ĠÐ»ÐµÐ³":1441,"ÐµÐ´Ð¸":1442,"ĠÑĩÐµÐ»Ð¾Ð²ÐµÐº":1443,"ĠÐ¿ÐµÑĢÐµÐ´":1444,"ÐŁÑĢÐ¸":1445,"ÑĩÐ½ÑĭÐµ":1446,"ĠÐŁÐ¾Ð´":1447,"ĠÐ¡Ð¾":1448,"ĠÐĶÐ°":1449,"ĠÐ´Ð²Ñĥ":1450,".,":1451,"ĠÑģÑĤÐ¸":1452,"Ð²Ð½Ð¾":1453,"ÑĢÐ°ÐºÑĤÐ¸":1454,"ÑĩÐ½ÑĭÐ¹":1455,"ÑģÑĤÐ°Ð²Ð»ÐµÐ½":1456,"ĠÐ¿ÑĢÐ¾Ð¸Ð·Ð²Ð¾Ð´":1457,"ÑĨÐµÐ½":1458,"ĠÐ¼Ð°ÑĤÐµÑĢÐ¸Ð°":1459,"ĠÐ¿Ð¾Ð¼Ð¾Ñī":1460,"ĠÑĥÐ´Ð°":1461,"Ġ[":1462,"ÑĨÐµÐ²":1463,"ÐµÐ»":1464,"ÑħÐ¾Ð´Ñı":1465,"ĠÐ³Ð¾ÑĢÐ¾Ð´":1466,"ÐµÐºÑĤÐ¸Ð²":1467,"Ð²Ð°Ð»Ð¸":1468,"ÑĪÐ¸Ð¼":1469,"ÑīÐµÐ½Ð¸Ðµ":1470,"ĠÑįÑĤÐ°":1471,"ĠÐłÐ°":1472,"Ð²Ð°Ð½Ð¸Ðµ":1473,"Ð¼ÐµÐ½Ð¸":1474,"Ð²Ð°ÐµÐ¼":1475,"ĠÐ¸Ð½ÑĤÐµÑĢÐµÑģ":1476,"Ð¿Ñĭ":1477,"ĠÐ¾ÑģÑĥ":1478,"ĠW":1479,"il":1480,"Ð½ÐµÐ³Ð¾":1481,"Ð»Ð¾Ð²Ð°":1482,"ĠÐĺÑģÐ¿":1483,"24":1484,"ÑĢÑĥÐ·":1485,"ÑĤÐ¸Ð½":1486,"ÑĮÐµ":1487,"ĠÐ®":1488,"ĠÑģÐ¿Ð¸":1489,"ĠÐ¶Ð¸Ð·Ð½Ð¸":1490,"ĠÐ½Ð°Ð´":1491,"Ð¾ÑĢÐ°Ñı":1492,"Ð°Ð½Ð´":1493,"ÑıÐ±ÑĢÑı":1494,"ĠÐ½Ð°Ð¿ÑĢÐ°Ð²":1495,"ĠÐºÐ¾ÑĤÐ¾ÑĢÑĭÑħ":1496,"Ð¾ÑĢÐµ":1497,"ÑıÑģ":1498,"Ð²Ð¸ÑģÐ¸":1499,"ĠÐ¼Ð°ÑĢ":1500,"Ð¿Ð»Ð°":1501,"ĠÐ·ÐµÐ¼":1502,"Ġ...":1503,"Ð¶Ð´ÐµÐ½Ð¸Ñı":1504,"ÑĤÐµÐ»ÑĮÑģÑĤÐ²Ð°":1505,"ĠÑģÐºÐ°Ð·Ð°":1506,"ÑĦÐ¾Ð½":1507,"ĠÐ¸ÑģÐ¿Ð¾Ð»ÑĮÐ·":1508,"ÑĤÐ¸Ð¹":1509,"ĠÐ²Ð½Ð¸Ð¼Ð°":1510,"ÑĢÐ¸Ð¸":1511,"ÑģÑĤÐ²ÐµÐ½Ð½Ð¾":1512,"ĠÐ²Ð½Ðµ":1513,"ÐºÐ¾Ð½Ð¾Ð¼Ð¸":1514,"ĠÐ´ÑĢÑĥÐ³Ð¸Ñħ":1515,"ÑĩÐ°Ñģ":1516,"Ġ.":1517,"ĠÑĩÐ¸Ñģ":1518,"ĠÐ´Ð¾ÐºÑĥ":1519,"Ð±ÑĥÑĢ":1520,"Ð½ÐµÐ½Ð¸Ñı":1521,"ĠÑģÐ¾ÑĤ":1522,"ĠÐºÐ¾ÑĤÐ¾ÑĢÐ°Ñı":1523,"ĠÐ½ÐµÐ¿":1524,"ÑĢÐµÐ¹":1525,"ÐµÐ½Ð½ÑĭÑħ":1526,"ÐºÑĤÐ¾ÑĢ":1527,"ÑīÐ¸Ñħ":1528,"ĠÐ·Ð°Ð´Ð°":1529,"ĠÐ¸Ð¼ÐµÐµÑĤ":1530,"ĠÐ¼Ð°Ð³Ð°Ð·Ð¸":1531,"ĠÐŀÐ½":1532,"ÑĩÐ½Ð¾Ð¹":1533,"ĠÑįÑĦÑĦ":1534,"ĠÐ¿Ð¾Ð·Ð²Ð¾Ð»Ñı":1535,"ÐµÑĢÑĭ":1536,"ÐµÑĢÑħ":1537,"ÑİÑīÐ¸Ð¹":1538,"ÐµÐºÑĤÐ°":1539,"Ð¾ÑĤÑı":1540,"ĠÐ½ÐµÑģÐºÐ¾Ð»ÑĮÐºÐ¾":1541,"Ð±Ð»Ð¸":1542,"ĠÑģÐ»Ðµ":1543,"ĠÐ¿Ð¾ÐºÑĥ":1544,"Ð½Ð¸ÑĤÑĮ":1545,"ĠÐ°Ð²ÑĤÐ¾Ð¼Ð°":1546,"Ð´Ð¾Ð±":1547,"ĠÑĢÐ°Ð·Ð»Ð¸Ñĩ":1548,"ĠÐ²ÑģÐµÐ¼":1549,"ĠÐ²ÑģÐµÐ³Ð´Ð°":1550,"ĠÐ¾Ð³":1551,"ÑĢÐµÑĤ":1552,"ÑģÑĤÐ°Ð½":1553,"Ð½Ð¾Ð»Ð¾Ð³Ð¸":1554,"ĠÑĦÑĥÐ½":1555,"Ð²ÑĭÐµ":1556,"Ð¼ÐµÑĤÐ¸":1557,"ĠÑģÑĤÑĢÐ¾Ð¸":1558,"ĠÐĹÐ°ÐºÐ°Ð·ÑĩÐ¸":1559,"ÑģÐºÐµ":1560,"ÑĩÑĥ":1561,"Ð¼Ð¾ÑĤÑĢÐµÑĤÑĮ":1562,"ĠÐ¸ÑģÑĤÐ¾ÑĢÐ¸":1563,"ĠÑħÐ°ÑĢÐ°Ðº":1564,"Ð´ÐµÐ½":1565,"ÐºÑĤÑĥ":1566,"ĠÐ²Ð¾Ð´":1567,"is":1568,"ĠÐ¡Ð°":1569,"ÑĳÐ½":1570,"ĠÑģÑĤÐ°ÑĤÑĮ":1571,"ÑħÑĢÐ°":1572,"ĠÐĲÑĢ":1573,"ÑıÐ¼Ð¸":1574,"ĠÐ³Ð»Ð°Ð²":1575,"re":1576,"ĠÐ³ÑĢÑĥÐ¿":1577,"ĠÐ¾ÑĦÐ¸":1578,"ĠÐ²Ð½ÑĥÑĤ":1579,"ÑĤÐµÐ¼":1580,"ÐµÐ¹ÑĩÐ°Ñģ":1581,"ĠÐ¿ÐµÑĢÐ¸":1582,"ĠÐ¡ÑĤÐ°":1583,"ĠÐ¿Ð¾ÐºÐ°Ð·Ð°":1584,"ĠÐ³Ð¾Ð²Ð¾ÑĢÐ¸":1585,"ÐºÑģÐ¸":1586,"ĠÑĦÐ¸Ð»ÑĮ":1587,"ÑĢÐµÐ²":1588,"ĠÐļÐ¸":1589,"us":1590,"ÑıÑĤÐµÐ»ÑĮ":1591,"Ð¼Ð¾ÑģÑĤÑĮ":1592,"Ð½Ð°Ð»":1593,"ht":1594,"ĠÐ²ÑĢÐµÐ¼ÐµÐ½Ð¸":1595,"Ġt":1596,"ĠÐ¿ÑĢÐ¾Ð²ÐµÐ´":1597,"Ð«":1598,"ĠÐ»Ð°":1599,"ĠÐ²Ð¸Ð´ÐµÐ¾":1600,"ĠÑįÐºÑģÐ¿":1601,"ÑĩÑĮ":1602,"ĠÐ±ÑĥÐ´ÑĥÑĤ":1603,"ĠÐ½Ð°Ð¼":1604,"ĠÐ¿ÑĢÐ°ÐºÑĤÐ¸":1605,"Ð¼Ð¾ÑģÑĤÐ¸":1606,"ĠÐ¿Ð¾Ð»ÑĮÐ·Ð¾Ð²Ð°":1607,"ĠÐ´Ð²Ð°":1608,"ĠÐ·Ð°Ð±":1609,"ÑĩÐµÑģÐºÐ°Ñı":1610,"ĠÐ¼Ð°ÑĪÐ¸":1611,"ĠÐ²ÑĤÐ¾ÑĢ":1612,"ĠÐłÐµ":1613,"Ð¾Ð¿Ð¸":1614,"ĠV":1615,"Ð¶ÐµÐ½Ð¸Ðµ":1616,"ĠÑģÐ¾Ð±ÑģÑĤÐ²ÐµÐ½":1617,"ĠÑģÐµÐ±Ðµ":1618,"Ð¾Ð¿Ð°Ñģ":1619,"Ġc":1620,"ĠÑģÐ¿ÐµÑĨÐ¸Ð°Ð»ÑĮ":1621,"ĠÐļÐ¾Ð½":1622,"Ð¾Ð³ÑĢÐ°ÑĦÐ¸":1623,"ĠÑģÑĩÐ¸ÑĤÐ°":1624,"Ð»ÑĮÐ½Ð¾Ð¹":1625,"Ð»Ð°Ð³Ð¾Ð´Ð°":1626,"ĠÐĴÐ¸":1627,"ĠÐ²Ð¾Ð¿ÑĢÐ¾":1628,"ĠÐ¿ÑĢÐ¾ÑĤÐ¸Ð²":1629,"ĠÐĲÐ²":1630,"ĠÐĺÐ·":1631,"ĠÑĢÐµÐ±":1632,"Ð¼Ð¸Ð½Ð¸":1633,"ÐĹÐ°":1634,"ÑģÑĤÐ¾Ñĩ":1635,"Ð½ÑıÑĤÑĮ":1636,"ÑīÐ¸Ð¹":1637,"ĠÑĢÑĭÐ½":1638,"Ð¾Ð»Ð¾Ð¶":1639,"ĠÐ¾Ð±Ð¾ÑĢÑĥÐ´":1640,"ĠÐ¼ÑĥÐ¶":1641,"ĠÑĥÐºÐ°Ð·Ð°":1642,"ĠÐłÐ°Ð·":1643,"ĠÐ²ÑģÑĤÑĢÐµ":1644,"ÑĤÐ°Ð¼Ð¸":1645,"ĠÐ³Ð¾ÑĤÐ¾Ð²":1646,"ÑģÑĤÑĢÐ°Ð½":1647,"ÐºÑģ":1648,"ÐµÐ¼Ð°":1649,"ĠÐ³Ð¾ÑĢÐ¾Ð´Ð°":1650,"Ð²Ð¸Ð´":1651,"Ð½Ð°Ð½":1652,"ĠÐ¼Ð¾Ð´Ðµ":1653,"Ð½Ð°ÐºÐ¾":1654,"ĠÐ¾Ð±ÑīÐµ":1655,"Ð½ÐµÐ¼":1656,"ĠÐŁÐ¾Ñģ":1657,"ÑģÑĤÐ°Ð²Ð»ÑıÐµÑĤ":1658,"le":1659,"Ð»ÐµÐ½Ð¸Ð¸":1660,"ÑĤÐµÐ»ÑĮÐ½ÑĭÑħ":1661,"ĠÐ¼Ð¼":1662,"ĠÐ¼Ð½Ð¾Ð³Ð¸":1663,"ÑıÐ´":1664,"ÑģÑĤÐ²Ð¸Ðµ":1665,"ĠÐ¡Ðµ":1666,"ĠÐļÑĥ":1667,"ĠÐºÑĥÐ¿Ð¸ÑĤÑĮ":1668,"ÑĢÐµÐ¿":1669,"23":1670,"ĠÐ½ÐµÐº":1671,"Ðĸ":1672,"ĠÐ¿Ð¾Ð±":1673,"ĠÐºÐ½Ð¸":1674,"ĠÐ¼ÐµÑģÑı":1675,"ÑģÐºÑĥÑİ":1676,"ĠÐ½Ð°ÑģÑĤÐ¾Ñı":1677,"ĠÐļÐ¾Ð¼":1678,"Ð¸Ð»Ð¸":1679,"Ð²ÑĢÐ°":1680,"ĠÐ¶Ð¸Ð²":1681,"ÑĨÐ¸Ð¾Ð½Ð°Ð»ÑĮ":1682,"Ð»ÑĥÐ±":1683,"ĠÑĥÐ¿":1684,"ĠÐ´Ð¾Ð²":1685,"ĠÐ£ÐºÑĢÐ°":1686,"ĠÑħÐ¾ÑĢÐ¾ÑĪ":1687,"ĠÐ¿Ð¾Ð´Ð´ÐµÑĢ":1688,"ĠÐ·Ð´Ð¾ÑĢÐ¾Ð²":1689,"Ð´Ð¸Ð²Ð¸":1690,"Ð¾Ð»Ð°":1691,"Ð½Ð¸ÑĨÐ°":1692,"Ð¾ÑĢÑĤÐ°":1693,"Ð¿ÑĢÐ¸Ð¼ÐµÑĢ":1694,"ÑĩÐ°ÑĤ":1695,"ĠÐ²Ð¾ÑĤ":1696,"ĠÐ±ÐµÑģÐ¿Ð»Ð°ÑĤÐ½Ð¾":1697,"ÑĤÑĥÑĢ":1698,"Ð·Ð¼":1699,"ĠÂ¦":1700,"ĠÐ»ÑİÐ±Ð¸":1701,"Ð»Ð¾Ð½":1702,"ÑĭÑĤ":1703,"ÐµÐ»Ð¸":1704,"ĠÑĨÐµÐ½":1705,"ĠÐ¿ÑĢÐµÐ´Ð»Ð¾Ð¶":1706,"ĠÐ¿Ð¾Ð»ÑĥÑĩ":1707,"ÑĢÐ¸Ð°Ð½":1708,"Ð¡Ð¢":1709,"ĠÐ»ÑİÐ´ÐµÐ¹":1710,"Ð¿ÐµÑĢÐ°":1711,"am":1712,"ĠÐ¶ÐµÐ½ÑīÐ¸":1713,"ĠÑĤÐ°Ð¼":1714,"ĠÐ¾Ð±Ñĭ":1715,"ĠÑĢÐµÐ¼Ð¾Ð½":1716,"ÑĩÐ½ÑĭÑħ":1717,"ÑĥÐµÑĤÑģÑı":1718,"ĠÐºÐ²Ð°ÑĢ":1719,"ĠÐ²Ð°Ð¶":1720,"ÑĩÐµÐ³Ð¾":1721,"ĠÐ¸Ð·Ð¼ÐµÐ½":1722,"ĠÐ¸Ð½ÑĤÐµÑĢÐ½ÐµÑĤ":1723,"Ð²Ñı":1724,"ÑĳÑĤ":1725,"ĠÑĩÐ°ÑģÑĤ":1726,"ĠÑģÐ¿ÐµÑĨÐ¸Ð°Ð»Ð¸":1727,"ĠÐ¿ÑĢÐ¾ÑĦÐµÑģÑģÐ¸":1728,"ÑģÑĤÑĢÐ°ÑĨÐ¸Ð¸":1729,"ĠÐ¾ÐºÐ°Ð·Ð°":1730,"ÑĤÐµÑĢÐ°":1731,"ĠÐ¿ÑĢÐµÐ´Ð¿ÑĢÐ¸":1732,"ĠÑĪÐ°":1733,"ÑĪÐ°Ñı":1734,"ÑģÑĥÑĤ":1735,"ĠÑĢÑĥÑģ":1736,"ĠÑģÐ²Ð¾Ñİ":1737,"ĠÑģÑĭ":1738,"ÑĢÐ¾Ð²Ð°Ð½Ð¸Ñı":1739,"as":1740,"ĠÐ´ÐµÑıÑĤÐµÐ»ÑĮ":1741,"ÑĩÐµÐ±":1742,"Ð¼ÐµÐ½ÑĤ":1743,"ĠÑģÐ²Ð¾ÐµÐ¹":1744,"Ð¾Ð±ÑĢÐ°Ð·":1745,"Ð±Ð¾Ð»ÑĮ":1746,"ĠÑģÐ»Ð¾Ð¶":1747,"ÑģÑĤÐ°ÑĤÐ¾":1748,"ĠÐ¸Ð½ÑģÑĤÑĢÑĥ":1749,"ÑģÑģÐ»ÐµÐ´":1750,"ĠÐ·Ð½Ð°ÑĩÐ¸":1751,"Ð»Ð¾Ð³":1752,"ï¿½ï¿½ï¿½ï¿½":1753,"ĠĠ":1754,"ĠÐ°Ð¿":1755,"ĠÐ¾Ð¿ÐµÑĢÐ°":1756,"ÑģÐ½Ð¾":1757,"ÑĤÐµÐ»ÑĮÐ½Ð¾Ð¹":1758,"ĉĊ":1759,"ÐµÑĢÑĤ":1760,"Ð´Ð¶":1761,"ĠÑĤÑĢÐ¸":1762,"Ð¸Ð·Ð¸":1763,"ĠÑĢÐ°ÑģÑģÐºÐ°":1764,"ÑĭÑĤÐ°":1765,"ÑĪÐµÐ»":1766,"ÑĩÐµÑĢ":1767,"ĠÐ¶ÐµÐ»Ð°":1768,"ĠÑĥÑĩÐ¸":1769,"ĠÐ½Ð°Ð·":1770,"ĠÑģÐ¾Ð²ÐµÑĢ":1771,"ÑĤÐµÐ»ÐµÐ¼":1772,"ĠÐ·Ð°Ð½Ð¸Ð¼Ð°":1773,"ĠÐ²Ð¾Ð·Ð¼Ð¾Ð¶Ð½Ð¾ÑģÑĤÑĮ":1774,"Â«":1775,"Ð²ÐµÑģÑĤÐ¸":1776,"ol":1777,"Ð´ÐµÐ»Ð¸":1778,"ĠÑĩÐ°ÑģÑĤÐ¸":1779,"ĠÐ½Ð°ÑĢÑĥ":1780,"Ð¿Ð°ÑĢÐ°":1781,"ĠÐĲÐ½":1782,"ĠÐľÑĭ":1783,"Ð¿Ð¸ÑĤÐ°":1784,"ĠÐ½ÐµÐ¼":1785,"Ð½ÐµÐ²":1786,"ÐºÑĥÑĢ":1787,"ĠÐ¾ÑģÑĥÑīÐµÑģÑĤÐ²":1788,"ÑĢÐ¾Ð¼Ðµ":1789,"ÑĤÐµÐ»ÑĮÐ½ÑĭÐµ":1790,"ĠÐ½ÐµÐ³Ð¾":1791,"ĠÐŀÐ´":1792,"ĠÐ¿Ð¸ÑĤÐ°":1793,"ĠÐ¸Ð¼ÐµÐ½Ð½Ð¾":1794,"ĠÑıÐ·Ñĭ":1795,"ĠÐ¾Ð±Ð»Ð°ÑģÑĤÑĮ":1796,"ĠÐĽÐ¸":1797,"Ð½ÐµÐ½":1798,"ÑĤÐ¸ÑĤÑĮ":1799,"Ð³Ð»Ð°":1800,"Ð°Ð»Ñĭ":1801,"ÐµÐ»ÑĮ":1802,"ÑĦÐ¸ÐºÐ°":1803,"ÑģÑĤÑĢÐ¸":1804,"ĠÐ³Ð¾ÑģÑĥÐ´Ð°ÑĢÑģÑĤÐ²ÐµÐ½":1805,"ÑĥÐ¼Ð°":1806,"60":1807,"ĠÐºÐ¾Ð½ÑĤÑĢ":1808,"ĠÐµÐ¼Ñĥ":1809,"ĠÐ°ÐºÑĤÐ¸Ð²":1810,"ĠÑĥÐ´Ð¾Ð±":1811,"ÐķÑģÐ»Ð¸":1812,"ÑĨÐ¸ÐµÐ¹":1813,"ÑĤÐµÐ½":1814,"Ð½Ñİ":1815,"ÑĭÐ¼Ð¸":1816,"Ð¿ÐµÑĢÑĮ":1817,"Ð½Ð°Ð¼Ð¸":1818,"Ð´Ð°ÑĤÑĮ":1819,"ĠÐ¼ÐµÐ´Ð¸":1820,"ĠÐ¸Ð·Ð²ÐµÑģÑĤ":1821,"40":1822,"ÑģÑĤÐ²Ð¸Ñı":1823,"Ð´Ð°ÐµÑĤ":1824,"ÑĳÐ¼":1825,"ĠÑģÐ´ÐµÐ»Ð°ÑĤÑĮ":1826,"ĠÑģÐ¾Ð²ÑĢÐµÐ¼ÐµÐ½":1827,"ĠÐ¿ÑĢÐµÐ´ÑģÑĤÐ°Ð²Ð¸":1828,"ÑģÑĤÐ¾ÑıÐ½":1829,"ĠÑĩÐµÐ»Ð¾Ð²ÐµÐºÐ°":1830,"ot":1831,"ÑģÑĤÑĥÐ¿Ð°":1832,"ÐŁÐ¾":1833,"Ð³Ð»Ñı":1834,"ĠÐ¼ÐµÑģÑĤ":1835,"ÐºÐ°Ð·ÑĭÐ²Ð°":1836,"ĠÐ²ÑĢÐ°":1837,"Ð³Ð¾ÑĢÐ¸":1838,"ĠÐ¿Ð¾Ð¼Ðµ":1839,"ÑĢÑĤ":1840,"Ð¾ÑĢÐ¼Ð°":1841,"ĠÐ¿Ð¾ÑįÑĤÐ¾Ð¼Ñĥ":1842,"ĠÑģÐ¸ÑģÑĤÐµÐ¼Ñĭ":1843,"2017":1844,"ĠÐ¿Ð¾Ð²Ñĭ":1845,"ĠÐ´Ð²ÑĥÑħ":1846,"ÑģÐµÐ¼":1847,"ÑīÐµÐ¼":1848,"Ð¾Ð·Ð°":1849,"Ð½Ð°Ð´":1850,"ÑĢÐ°Ð·Ñĥ":1851,"ÑģÐ¾":1852,"ĠÐ¡Ð¸":1853,"ac":1854,"ÑĤÑı":1855,"ĠÑģÐ¿Ð°":1856,"ĠÐ²Ð¸Ð´":1857,"ĠÑĢÐ¾ÑģÑģÐ¸":1858,"ĠÐ¤ÐµÐ´Ðµ":1859,"ĠÐ´ÐµÑĤÐµÐ¹":1860,"ĠÑģÐ°Ð¹ÑĤÐ°":1861,"ÑĦÐ°":1862,"ÑīÐ¸Ðµ":1863,"Ġp":1864,"Ð¹ÑģÐºÐ¾Ð¹":1865,"Ð¾Ð»Ð¾Ð²":1866,"ĠÑĤÐµÑħÐ½Ð¾Ð»Ð¾Ð³Ð¸":1867,"ion":1868,"ÑĩÐ½Ð¾Ð³Ð¾":1869,"ĠÐ²Ð°ÑĢÐ¸Ð°Ð½":1870,"ÐºÐ¾Ð³Ð¾":1871,"Ð²Ð°ÑİÑĤÑģÑı":1872,"ĠÐ¿Ð»Ð¾ÑīÐ°":1873,"ĠÐ²Ð¼Ðµ":1874,"ÑĩÐ¸ÑĤÑĮ":1875,"ĠÐ¿ÑĢÐµÐ´Ð»Ð°Ð³Ð°":1876,"ÑģÑĤÐ²Ð¸Ð¸":1877,"ĠÐ¿ÑĢÐ°":1878,"ĠÐ±ÐµÐ·Ð¾Ð¿Ð°Ñģ":1879,"ÑĩÐµÑģÐºÐ¾Ðµ":1880,"ÑĤÐµÐ»ÑĮÐ½ÑĭÐ¹":1881,"ÐµÑĤÑĮ":1882,"ĠÐ²Ð¾Ð¿ÑĢÐ¾Ñģ":1883,"ĠÐ¿ÑĢÐ¾ÑĪ":1884,"Ġs":1885,"Ð½Ð¸ÑĨÑĭ":1886,"Ð»Ð»Ð¸":1887,"ĠÐ²Ð¾Ð¹":1888,"ĠÑģÐ¾ÑĤÑĢÑĥÐ´":1889,"2016":1890,"ĠÑĤÐ°ÐºÐ¾Ð¹":1891,"Ð»ÐºÐ°":1892,"ĠÑĥÐ½Ð¸":1893,"he":1894,"ĠÐ¿ÑĢÐ¾ÐµÐºÑĤ":1895,"ĠÐ·Ð°Ð²Ð¸ÑģÐ¸":1896,"Ð±Ð¸ÑĢÐ°":1897,"ÑĢÐ¾Ð²Ð°Ð½Ð¸Ðµ":1898,"ÐĻ":1899,"ĠÐ·Ð´ÐµÑģÑĮ":1900,"ĠÐ¼Ð°Ñģ":1901,"ĠÐ£ÐºÑĢÐ°Ð¸":1902,"ÐµÑĤÐµÑĢ":1903,"ĠÑģÐ¼Ðµ":1904,"Ð·Ð¸Ð½Ð¾":1905,"ÑģÐºÐ¾Ð²":1906,"ÐĿÐµ":1907,"ĠÐ½ÐµÐºÐ¾ÑĤÐ¾ÑĢ":1908,"ÑĢÐ¸ÑĤÐ¾ÑĢÐ¸":1909,"ÑģÑĤÐ²ÑĥÐµÑĤ":1910,"Ð²ÑĢÐ¾Ð¿":1911,"ĠÑģÐµÐ³Ð¾Ð´Ð½Ñı":1912,"ĠÑĢÐµÐ±ÐµÐ½":1913,"ĠÐ¿ÑĢÐ¾Ð´Ð¾Ð»":1914,"ĠÑĤÐ¾Ð¶Ðµ":1915,"ĠÐ»ÑĥÑĩÑĪÐµ":1916,"ĠÐ¸Ð´Ðµ":1917,"ĠÐ´Ð¾ÑģÑĤÑĥÐ¿":1918,"ÑĩÐµÐ¼":1919,"ĠÐ¸Ð³ÑĢÑĭ":1920,"ĠÐ²ÑģÑĳ":1921,"Ð»ÑĮÐ½Ð°Ñı":1922,"ĠÐ»Ð¸ÑĨ":1923,"Ð»ÐµÑĢ":1924,"ĠÑģÑĤÐ°Ð½":1925,"ĠÑģÐ²Ð¾Ð¸Ñħ":1926,"ĠÑĥÑģÐ¿Ðµ":1927,"ĠÐ¿ÑĢÐ¾Ð¸Ñģ":1928,"Ð½ÑĥÑĤÑĮ":1929,"ÑģÐ¾Ð¼":1930,"ĠÐ½Ð°ÑĩÐ¸Ð½Ð°":1931,"Ð½Ð¾Ð²Ð¸":1932,"000":1933,"ig":1934,"ĠÐ¼ÐµÑģÑĤÐ¾":1935,"ÑĥÐµÑĤ":1936,"ĠÐ´Ð½ÐµÐ¹":1937,"ÐĿÐĺ":1938,"ĠÑĩÐµÑĢ":1939,"ĠÑģÐ²ÐµÑĤ":1940,"ĠÐ´ÑĢÑĥÐ³Ð¸Ðµ":1941,"ĠÑģÐ¾Ð´ÐµÑĢÐ¶Ð°":1942,"ĠÐºÑĢÐ¸":1943,"ĠÐ±Ð»Ð¸":1944,"ĠÐŁÐµÑĢ":1945,"ÐŀÐ±":1946,"ĠÐ¿ÑĢÐ¸Ð½Ñı":1947,"ĠÑįÐºÐ¾Ð½Ð¾Ð¼Ð¸":1948,"Ð·Ð°ÑĨÐ¸Ñı":1949,"ing":1950,"ĠÑĥÐ²Ðµ":1951,"ĠÑĥÑĩÐ°ÑģÑĤÐ¸":1952,"ĠÐ¡Ð¾Ð²":1953,"ÑģÐ¾Ðº":1954,"ĠÑĩÐ¸":1955,"Ð¾Ð½ÑĤÐ°":1956,"ĠÐ³Ð°Ð·":1957,"Ð´ÑĥÐµÑĤ":1958,"ĠÐ¿Ð¾Ð»ÑĥÑĩÐ°":1959,"ĠÐ±Ð¸Ð·":1960,"ÐºÐ°Ð¼":1961,"ÑĤÐ¸ÑĢÑĥ":1962,"ĠÐ²Ð¾Ð·Ð´Ñĥ":1963,"22":1964,"Ð¾Ð·Ñı":1965,"ĠÐ¾ÑĩÐµ":1966,"ĠÐ²ÑĭÐ±":1967,"ĠÐĶÐ¸":1968,"Ġm":1969,"ÑĤÑĥÑĢÑĭ":1970,"ÐµÐ½ÑĤÑĭ":1971,"ĠÑĢÐµÐºÐ»Ð°":1972,"ĠÑĦÐ¾ÑĤÐ¾":1973,"ĠÐ½Ð°ÑħÐ¾Ð´Ð¸":1974,"ĠÐ¡ÐµÑĢ":1975,"ĠÑģÐ²ÑıÐ·Ð°":1976,"ÐĴÑĭ":1977,"Ð¾Ñı":1978,"ĠÐ¿Ð¾ÑģÑĤÐ¾ÑıÐ½":1979,"Ð¾ÑĢÐ¾Ð½":1980,"ÐºÐ¾Ð¼ÐµÐ½":1981,"ĠÑģÑĤÐ¾Ð¸ÑĤ":1982,"Ð²Ð°Ð»":1983,"ÑĢÐ°Ð·Ð´":1984,"ĠÑĤÐµÑĢÑĢÐ¸ÑĤÐ¾ÑĢÐ¸":1985,"ĠÐºÐ¾ÑĤÐ¾ÑĢÐ¾Ð¹":1986,"ĠÐ¼ÐµÑĢ":1987,"ÑĢÐ°Ñħ":1988,"ĠÑĤÑĢÐ°Ð½ÑģÐ¿":1989,"ĠÐ»Ð¸Ð±Ð¾":1990,"ĠÐºÐ°ÑĩÐµÑģÑĤÐ²Ðµ":1991,"ĠÐ½Ð°Ð¸":1992,"ĠÑĤÑĢÐµ":1993,"Ð¼Ð°ÑĤÐ¸":1994,"ĠÐ´Ð¸Ð·Ð°":1995,"Ð»ÑıÐµÑĤÑģÑı":1996,"ÑĤÐ¾ÑĢÑĭ":1997,"Ð¾ÑĢÐ¾Ð½Ñĭ":1998,"Ð¼Ð°Ð½":1999,"un":2000,"ÐºÑĨÐ¸Ñı":2001,"ĠÐ¼Ð¾ÑĢ":2002,"ĠÑĤÐµÑĩÐµÐ½Ð¸Ðµ":2003,"Ġ+":2004,"ÑģÐ¼Ð¾ÑĤ":2005,"Ð¾Ð±ÑĢÐ°":2006,"ÑĥÐ»ÑıÑĢ":2007,"ĠÐĳÐ°":2008,"ÑĦÐ¾ÑĢÐ¼":2009,"ĠÑģÐ»Ð¾Ð²Ð°":2010,"Ð¾Ð½Ñĭ":2011,"ĠÐ¿Ð¾Ð¼Ð¾ÑīÑĮÑİ":2012,"ÑĤÐµÐ»ÑĮÐ½Ð¾Ð³Ð¾":2013,"Ð»Ð¸Ð²":2014,"ĠÐ¸Ð³ÑĢÐ¾Ð²":2015,"ĠÐ½Ð°Ð´Ðµ":2016,"ĠÐ½Ð°Ð´Ð¾":2017,"Ð¾Ð²Ð¾Ð¹":2018,"ĠÐ·Ð°Ð½Ñı":2019,"ĠÐ´Ð¾ÑģÑĤÐ°Ð²":2020,"ĠÑģÑĥÐ¼":2021,"ĠÐ¼Ð¸Ð½ÑĥÑĤ":2022,"ĠÑģÐµÐ¹ÑĩÐ°Ñģ":2023,"ĠÑĩÐ°ÑģÑĤÑĮ":2024,"ad":2025,"Ð¾ÑģÐ¸":2026,"ĠÑĢÐ°Ð´Ð¸":2027,"ÐµÐµ":2028,"ÑĢÐ°Ð±Ð¾ÑĤÐ°":2029,"ĠÐºÑĢÐ¾Ð²":2030,"ÐºÑĤÑĭ":2031,"ĠÐ¸ÑģÑģÐ»ÐµÐ´":2032,"ĠÑģÐ°Ð¹ÑĤ":2033,"Ð»Ð¾Ð¹":2034,"Ð½ÑıÑı":2035,"Ð´Ð²Ð¸":2036,"ÐļÐ°":2037,"Ð¬":2038,"ĠÐ¸Ñİ":2039,"ĠÑĤÐµÑħÐ½Ð¸":2040,"ĠÐ´ÐµÐ²Ñĥ":2041,"ĠÑįÐ»ÐµÐ¼":2042,"ÐµÐ½Ð½ÑĭÐµ":2043,"ĠÐ¿ÑĢÐ¾ÑĨÐµÑģÑģ":2044,"ĠÑģÑĢÐ¾Ðº":2045,"ÑĩÐµÐ¹":2046,"ĠÐľÐµ":2047,"Ð¼ÐµÑĢÐ¸":2048,"ĠÐĴÐ°Ð¼":2049,"ĠÑģÑĩÐµÑĤ":2050,"ĠÐ¿Ð¾ÑĢÐ½Ð¾":2051,"Ð´ÐºÐ¸":2052,"ĠÐ¿ÑĢÐ¸Ð¾Ð±":2053,"ĠÐºÐ¾Ð½Ðµ":2054,"ĠÐ´ÐµÑĢÐµ":2055,"21":2056,"ĠÑģÑĥÑīÐµÑģÑĤÐ²":2057,"Ð²Ð»Ð¸":2058,"ÑĪÐ¸Ð½":2059,"ÑĢÐ°Ð¼":2060,"ĠÑģÑģÑĭ":2061,"80":2062,"ĠÐ¿Ð¾Ð¸":2063,"ĠÑĢÐµÐ³Ñĥ":2064,"ĠÐłÐ¤":2065,"Ð¶Ð¸ÑĤ":2066,"ÑħÐ¾Ð´Ð°":2067,"ĠÐ´Ð¾ÑģÑĤÐ¸":2068,"ÑĦÐµÑĢ":2069,"ĠÐ¿ÑĢÐ¸Ð·Ð½Ð°":2070,"ÐµÑĤÐµÑĢÐ±ÑĥÑĢ":2071,"ĠÑĢÐ¾Ð´Ð¸":2072,"ĠÐ¾ÑĢÐ³Ð°Ð½Ð¸Ð·":2073,"ĠÑģÐ°Ð¼Ð¾":2074,"ĠÑģÑĥÐ´":2075,"ĠÐ´Ð²Ðµ":2076,"ÐĺÐ½":2077,"ÑĤÐµÐ³Ð¾ÑĢÐ¸":2078,"ÑĢÐ¾Ð´Ð°":2079,"Ð¶Ñĥ":2080,"Ð½Ð°ÑĢÐ¾Ð´":2081,"ÑĨÐ¸Ð½":2082,"Ð»ÐµÐ½Ð¸Ð¹":2083,"Ð»ÑĮÐ½Ð¾Ðµ":2084,"ÑīÑĳ":2085,"ĠÐ·Ð°ÑıÐ²":2086,"ĠÐ´Ð¸Ð°":2087,"Ð½Ð°Ñħ":2088,"Ð²Ð°Ð½":2089,"ÐºÑĤÐ¸":2090,"Ð²Ð°ÑĤÑĮÑģÑı":2091,"ÑĨÐµÐ¿":2092,"ÑĢÐ°ÑĨÐ¸Ð¸":2093,"ĠÐ³ÑĢÐ°Ð¶":2094,"ĠÐ¾ÑĤÐ»Ð¸":2095,"ĠÐ¿Ð°ÑĢÐ°":2096,"Ð¾Ð¼Ð¸Ð½Ð°":2097,"ĠÑĢÐµÐ¶Ð¸":2098,"ĠÐ»Ð¸ÑĪÑĮ":2099,"ĠÐºÑĥÐ»ÑĮ":2100,"ÑĩÐ°ÑģÑĤ":2101,"ĠÐ¿ÑĢÐ¾Ð¼":2102,"Ð»ÐµÐ½Ð°":2103,"ĠÑģÐ»ÑĥÐ¶":2104,"ĠÑģÐ¾Ð±Ð¾Ð¹":2105,"ĠÐ¾ÐºÑĢÑĥ":2106,"ÑģÑĤÐ°ÑĤÐ¾ÑĩÐ½Ð¾":2107,"ĠÐºÑĢÐµÐ´Ð¸":2108,"))":2109,"ĠÑĤÐ¾ÑĢÐ³Ð¾Ð²":2110,"ÑĤÑĥÐ°":2111,"2015":2112,"Ð¾ÑĤÑĭ":2113,"ĠÐºÑĢÑĥÐ¿":2114,"ÐºÑĤÐ¾Ð²":2115,"ĠÐ¸ÑģÐºÐ»Ñİ":2116,"Ð»Ð°Ð´Ð¸":2117,"Ð¼ÐµÑĩÐ°":2118,"ed":2119,"ĠÑĢÐµÑĪÐ¸":2120,"ĠÐ¾Ð±ÑĢÐ°Ð·Ð¾Ð¼":2121,"Ð²Ð°Ñİ":2122,"ĠÐ´Ð°Ð»ÑĮ":2123,"ÑĬÐµÐ¼":2124,"ĠÐ²Ð¾Ð·ÑĢÐ°":2125,"ÑĩÐ¸Ð½":2126,"ĠÐµÑĳ":2127,"ĠÐ¿Ð¾Ð´Ð¾Ð±":2128,"ĠÑģÐ²ÑıÐ·Ð¸":2129,"ĠÐ±ÐµÑĢÐµ":2130,"id":2131,"ĠÐºÐ¾Ð»Ð¸ÑĩÐµÑģÑĤÐ²Ð¾":2132,"ĠÑĤÐµÐ¿":2133,"ĠÐ½ÐµÐ¹":2134,"ĠÑĢÐµÐºÐ¾Ð¼ÐµÐ½":2135,"ĠÐ¿Ð¾Ð·Ð²Ð¾Ð»ÑıÐµÑĤ":2136,"ĠÐ±ÑĥÐ´Ñĥ":2137,"ĠÐ½ÐµÐ¾Ð±ÑħÐ¾Ð´Ð¸Ð¼":2138,"Ð¾Ð½Ð¾Ð²":2139,"Ð¨ÐĲ":2140,"ĠÑĢÐ°ÑģÑĤ":2141,"ĠÑĢÐµÐ°Ð»ÑĮ":2142,"ĠÑģÐ¾ÑĨÐ¸Ð°Ð»ÑĮ":2143,"ĠÐ´ÐµÐ½ÑĮÐ³Ð¸":2144,"ĠÐŁÐ°":2145,"ĠÐ²ÑĭÐ±Ð¾ÑĢ":2146,"ĠÑĢÑĥÐ±Ð»ÐµÐ¹":2147,"Ð¾Ð¶Ð´ÐµÐ½Ð¸Ñı":2148,"ĠÑĤÐµÐ»ÐµÑĦÐ¾Ð½":2149,"ÑĢÐ¸Ð¹":2150,"Ð·Ð¾Ð²":2151,"ĠÐ¸Ð½ÑĦÐ¾ÑĢÐ¼Ð°ÑĨÐ¸Ð¸":2152,"ĠÑħÐ¾Ñĩ":2153,"Ð»Ð¾Ð¿":2154,"ÑīÐ°ÐµÑĤ":2155,"ÑģÐ¸ÑĤ":2156,"ÑĤÐºÐ¸":2157,"Ð´ÐµÐ»ÑĮ":2158,"ĠÐ¼ÑĥÐ·Ñĭ":2159,"ĠÐ¼Ð¸Ð½Ð¸":2160,"ĠÐ¿ÐµÑĢÑģ":2161,"ĠÐ½Ð°Ð·ÑĭÐ²Ð°":2162,"ĠÑĤÐµÐº":2163,"Ð»ÐµÐ½Ð¸ÐµÐ¼":2164,"Ð¾Ð·Ð¸":2165,"Ð³ÑĢÐ°Ð½Ð¸":2166,"ÑģÐºÐ¸Ð¼":2167,"ur":2168,"ÑīÑĥ":2169,"ĠÑįÑĤÐ¸Ñħ":2170,"ĠÐ¿Ð¾Ð½Ñı":2171,"ĠÐ´Ð°Ð½Ð½ÑĭÑħ":2172,"ÑĢÑĥÐ¶Ð¸":2173,"ĠO":2174,"ÑĥÐ´Ð¸":2175,"ÑĤÐ¸Ð¸":2176,"ĠÐºÐ°Ð¶Ð´ÑĭÐ¹":2177,"ÐµÑĢÐ¾Ð²":2178,"ĠÐ¼ÐµÑģÑĤÐ°":2179,"ÑĩÐºÐ°":2180,"ĠÐ´Ð¾Ð»Ð¶Ð½Ñĭ":2181,"70":2182,"ĠÑģÐ½Ð¸":2183,"ĠÑģÐ¼Ð¾Ð¶":2184,"ÐĿÐŀ":2185,"Ð¾ÑĢÑĭ":2186,"ĠÐŀÑģ":2187,"ĠÐ¾Ð´Ð½Ð¾Ð¹":2188,"26":2189,"ÑĢÑİ":2190,"Ð¾Ð¼Ð°":2191,"ĠÐ¼Ð°ÑĤÐµÑĢÐ¸Ð°Ð»Ð¾Ð²":2192,"ĠÐ¸Ñģ":2193,"Ð¾ÑĢÑĤÐ¸":2194,"ĠÑĦÐ¸Ð½Ð°Ð½":2195,"ĠÐºÑĢÐ°ÑģÐ¸":2196,"ĠÑĢÐ°Ð·Ð´Ðµ":2197,"Ð»Ð°Ð³Ð¾Ð´Ð°ÑĢÑı":2198,"ĠÑįÐ½ÐµÑĢ":2199,"ÑģÑģÑĥ":2200,"Ð¶Ð°ÑĤÑĮ":2201,"od":2202,"ĠÐ¸ÑģÑĤÐ¾Ñĩ":2203,"ĠÑĥÑģÑĤÑĢÐ¾Ð¹":2204,"ÐĶÐ»Ñı":2205,"ĠÐ¿ÑĢÐ¾Ð²Ð¾Ð´Ð¸":2206,"ĠÐ´Ð½Ñı":2207,"ÑĨÐ¾Ð²":2208,"ĠÐ¿Ð¾ÑĢÑıÐ´":2209,"ĠÑħÐ¾ÑĢÐ¾ÑĪÐ¾":2210,"ĠÐ¾Ð¿Ð»Ð°":2211,"ĠÑĢÐ°Ð±Ð¾ÑĤÑĥ":2212,"ĠÐ´Ð¾Ð¿Ð¾Ð»Ð½Ð¸ÑĤÐµÐ»ÑĮ":2213,"ĠÑģÐ¾Ð¿":2214,"ĠÑįÑĦÑĦÐµÐºÑĤÐ¸Ð²":2215,"ĠÐ¿Ð¾Ð¿ÑĥÐ»ÑıÑĢ":2216,"ÑģÑĤÐ²ÑĥÑİÑīÐ¸":2217,"ĠÐ¿ÑĢÑı":2218,"ĠÐ¿Ð¾Ð²ÐµÑĢÑħ":2219,"ĠÐ²ÑĭÐ¿Ñĥ":2220,"ĠÑįÐ»ÐµÐºÑĤÑĢÐ¾Ð½":2221,"Ð»ÐµÐºÑģÐ°Ð½Ð´":2222,"âĢĶ":2223,"ÐłÐŀ":2224,"ĠÐºÑĢÐ°Ñģ":2225,"ĠÑģÐ²Ð¾ÐµÐ³Ð¾":2226,"ÑıÑĤÑģÑı":2227,"ÑĪÑĥ":2228,"ĠÑģÑĢÐ°Ð·Ñĥ":2229,"ÑĤÐµÐ»ÑĮÑģÑĤÐ²Ð¾":2230,"--------":2231,"ĠÐ´Ð²Ð¸Ð³Ð°":2232,"ĠÐ¿ÑĢÐ¸Ð½Ð¸Ð¼Ð°":2233,"ĠÑħÐ¾Ð»":2234,"ĠÂ»Â»":2235,"ĠÐļÑĢÐ°Ñģ":2236,"ÑĪÐ°ÑĤÑĮ":2237,"Ð·Ðµ":2238,"ĠÑĢÑĥÐºÐ¾Ð²":2239,"ĠÑĤÐ°ÐºÐ¸Ñħ":2240,"Ð»Ð¾Ð³Ð¾":2241,"Ð¾Ð»Ð½":2242,"ÑĢÐ¸Ð½":2243,"Ð¾Ñħ":2244,"ÑĨÐµÐ½ÑĤ":2245,"ÑĤÐ°Ñħ":2246,"ĠÑĢÐµÐ°Ð»Ð¸":2247,"ÑĤÐ°Ð¼":2248,"ÑĤÑĥÑĢÐ°":2249,"ĠÐ¿Ð¾ÑĤÐ¾Ð¼Ñĥ":2250,"ÐµÑģÑĤÐ¸":2251,"ÑĤÐ°ÑĨÐ¸Ð¸":2252,"ĠÐ¡ÑĤ":2253,"Ð¾Ð¿ÑĢÐ¸Ñı":2254,"ÑģÐ¸Ð¸":2255,"ÑģÐ¸Ð»Ð¸":2256,"ĠÐ¿Ð¾Ð´Ð³Ð¾ÑĤÐ¾Ð²":2257,"ĠÑĩÐ°ÑģÑĤÐ¾":2258,"ĠÐ¿Ð¾ÑĤÐ¾Ð¼":2259,"ĠÐ¼ÐµÑĤÐ°Ð»":2260,"ĠÐ¼Ð¾Ð¼ÐµÐ½ÑĤ":2261,"ĠÐ¿Ð¾Ð´Ð°":2262,"ÑģÐµÑĢ":2263,"ÑıÐ²Ð»Ñı":2264,"ÑĤÐµÑģÑĮ":2265,"ĠÑĢÐ°Ð·Ð¼ÐµÑĢ":2266,"ÑģÑĤÐ°Ð²Ð¸ÑĤÑĮ":2267,"==":2268,"Ð½Ð¸ÑĤ":2269,"ÑģÐºÐ¾Ð¼Ñĥ":2270,"ĠÐ²Ð½Ð¸Ð¼Ð°Ð½Ð¸Ðµ":2271,"ĠÐºÐ¾Ð½ÑģÑĤÑĢÑĥ":2272,"ĠÑĦÐ¸Ð·Ð¸":2273,"Ð½Ð¾ÑģÑĤÐµÐ¹":2274,"ĠÑĤÑĢ":2275,"ĠÐ°Ð³":2276,"ĠÑĢÐ°ÑģÐ¿Ð¾Ð»Ð¾Ð¶":2277,"ch":2278,"Ð¸Ð»":2279,"ĠÐºÐ¾Ð¼Ð°Ð½":2280,"ĠÐ§Ðµ":2281,"ĠÐ´ÐµÑıÑĤÐµÐ»ÑĮÐ½Ð¾ÑģÑĤÐ¸":2282,"ĠÐ¾Ñħ":2283,"ĠÐ½ÐµÐ·Ð°":2284,"ĠÐ¿ÑĢÐ¸Ð¼ÐµÑĢ":2285,"ĠÐºÐ¾ÑĤÐ¾ÑĢÐ¾Ð³Ð¾":2286,"90":2287,"ĠÐ¿ÑĢÐ°Ð²Ð°":2288,"ÐµÐ´Ð¸Ð½":2289,"ĠÑģÐ¸ÑĤÑĥÐ°":2290,"ĠÐ¾ÑģÐ½Ð¾Ð²Ð°":2291,"ent":2292,"Ð»Ð°Ð´":2293,"ĠÐ³ÑĢÑĥ":2294,"ÑģÑĤÐ²ÐµÐ½Ð½ÑĭÑħ":2295,"ĠÑĩÐµÐ³Ð¾":2296,"Ð´ÑĭÑħ":2297,"Ð»ÐµÐµ":2298,"ÑĩÐµÑĤÐ°":2299,"ĠÐ½Ð¸Ð·":2300,"ĠÑģÑĤÐµÐº":2301,"ĠÐ¿ÑĢÐµÐºÑĢÐ°":2302,"ĠÐ¿ÑĢÐ°Ð·Ð´":2303,"ĠÐ°Ð²ÑĤÐ¾":2304,"ĠK":2305,"Ð¾Ð½Ð¸":2306,"ĠÑĥÑģÐ»ÑĥÐ³Ð¸":2307,"Îº":2308,"ĠÐ½Ð°Ð»Ð¸ÑĩÐ¸":2309,"ĠÐ·Ð°Ð±Ð¾Ð»Ðµ":2310,"ÑģÑĤÐ°Ð½Ð°":2311,"Ð´ÐµÑĤÑĮ":2312,"Ð½Ð¸ÑĨ":2313,"ĠÐ½Ð°ÑĪÐµÐ¼":2314,"Ð³Ð¾ÑĢÐ¾Ð´":2315,"ÐµÐ½Ð¾":2316,"Ð¾Ð±ÑīÐµ":2317,"ĠÐ¾Ð±ÐµÑģÐ¿ÐµÑĩÐ¸":2318,"Ð±Ð¾ÑĢÐ°":2319,"Ð¶Ð´ÐµÐ½Ð¸Ðµ":2320,"Ð¼ÐµÐ½ÑĤÑĭ":2321,"ĠÐ´Ð¾Ð»Ð¶ÐµÐ½":2322,"Ð½Ð¾Ðº":2323,"ĠÐ²ÐºÑĥ":2324,"ĠÑģÑĤÐ¾Ð»":2325,"ĠÑĥÑĤÐ²ÐµÑĢ":2326,"ĠÑģÑĤÐ¾ÑĢÐ¾Ð½Ñĭ":2327,"ĠÐ¸ÑģÐ¿Ð¾Ð»ÑĮÐ·Ð¾Ð²Ð°ÑĤÑĮ":2328,"ĠÑĩÑĥÐ²":2329,"ĠÐ»ÑİÐ±Ð¾Ð¹":2330,"ĠÐ·Ð°ÐºÐ°Ð·Ð°":2331,"âĢĿ":2332,"ĠÑģÑĢÐµÐ´ÑģÑĤÐ²Ð°":2333,"Ð²Ð»ÐµÐºÐ°":2334,"ĠÐ¡Ð°Ð½":2335,"ĠÐ³Ð¾Ð»Ð¾Ð²":2336,"Ð´ÑĥÑĤ":2337,"28":2338,"ĠÐ¿ÑĢÐ¾Ð¿":2339,"and":2340,"ĠÐ¿Ð¾Ð»ÑĥÑĩÐ¸ÑĤÑĮ":2341,"ĠÑĤÐ°ÐºÐ¸Ðµ":2342,"ĠÐ±ÑĭÑģÑĤÑĢÐ¾":2343,"ÐºÐ¾Ð²Ð°":2344,"ĠÐ¿ÐµÑĢÐµÐ´Ð°":2345,"ÑĢÐµÐ·":2346,"ÑģÑĤÐ²ÐµÐ½Ð½Ð¾Ð¹":2347,"ĠÐºÐ¾Ð½ÐºÑĥÑĢ":2348,"ĠÑĪÐºÐ¾Ð»":2349,"ĠÑĪÐµ":2350,"ĠÐ½Ð¸Ðº":2351,"ĠÐºÐ°Ð·Ð¸Ð½Ð¾":2352,"ĠÑĥÐ¿ÑĢÐ°Ð²Ð»ÐµÐ½Ð¸Ñı":2353,"ĠÐ¡Ð¨ÐĲ":2354,"Ð¾Ð·Ð½Ð°":2355,"Ð³Ð°Ð½":2356,"ÑģÐµÐ´Ð°":2357,"ÑĭÑĪ":2358,"Ð¿Ð¾Ð²":2359,"ĠÐ¿Ð¾Ð½Ð¸Ð¼Ð°":2360,"ĠÐ²ÐºÐ»ÑİÑĩÐ°":2361,"ĠÑĢÐ¾ÑģÑģÐ¸Ð¹":2362,"ÐºÐ°ÑĢ":2363,"ÑħÐ°Ð½Ð¸":2364,"Ð´Ð¸Ð²Ð¸Ð´Ñĥ":2365,"Ð»ÑĭÑħ":2366,"ĠÑĥÐ·Ð½Ð°":2367,"ĠÐºÑĢÑĭ":2368,"ĠÐŀÐ½Ð¸":2369,"ĠÐĽÑİ":2370,"ÐµÑĢÐ¸":2371,"Ð»ÐµÐ½ÑĮ":2372,"ĠÐ¶Ð¸Ð·Ð½ÑĮ":2373,"ĠÐºÐ²Ð°ÑĢÑĤÐ¸":2374,"ĠÐ¾Ð´Ðµ":2375,"Ð¾Ð»ÐµÐ·":2376,"ÑģÐºÑĥ":2377,"âĢĵ":2378,"27":2379,"ĠÑĥÐºÑĢÐ°":2380,"ÑĤÑĭÐ¹":2381,"ut":2382,"Ð½Ð°ÑĤ":2383,"ÑĩÐµÑģÐºÐ¸Ð¼":2384,"ĠÐ»ÑİÐ´Ð¸":2385,"ÐµÐ»Ð°":2386,"ÑĦÐ¸ÑĨÐ¸":2387,"ĠÐ¿Ð¾Ð»Ð¸ÑĤÐ¸":2388,"of":2389,"ĠÐ½Ð°Ñĥ":2390,"ĠÐ²ÐµÑģÑĮ":2391,"ÑĤÐ°Ð½":2392,"Ð²Ð¾Ðµ":2393,"ĠÐ²Ð½ÐµÑĪ":2394,"ĠÐ¿ÑĢÐµÐ´ÑģÑĤÐ°Ð²Ð»ÐµÐ½":2395,"ĠÐ½Ð°Ð¹ÑĤÐ¸":2396,"ĠÐ°Ð±":2397,"ÐļÐ°Ðº":2398,"ÑĩÐµÐº":2399,"ĠÐµÑīÑĳ":2400,"ĠÐ²Ð½ÑĥÑĤÑĢÐµÐ½":2401,"Ð±Ð¸Ð½":2402,"ĠÐ°Ð»":2403,"ĠÐ¿ÑĢÐ¸Ð½":2404,"ĠÐºÑĢÑĥ":2405,"ĠÑĤÑı":2406,"ĠÐ´Ð»Ð¸":2407,"ĠÐ¼Ð°ÐºÑģÐ¸":2408,"ÐľÐ°":2409,"Ð¾ÑĪ":2410,"ĠÑĩÐ¸ÑģÐ»Ðµ":2411,"Ð»ÐµÐ½Ð½ÑĭÑħ":2412,"ĠÐ½Ð¾ÑĢÐ¼Ð°":2413,"ĠÑģÐ°Ð¼ÑĭÑħ":2414,"ĠÑĥÑģÐ»ÑĥÐ³":2415,"ĠÐ·Ð½Ð°ÐºÐ¾Ð¼":2416,"ĠÐ½Ð¾Ð¼":2417,"ĠÐ´Ð¾Ð³Ð¾Ð²":2418,"ĠÑĦÐ¾ÑĢÐ¼Ð°":2419,"ÐºÐ¾Ð»Ð¾":2420,"Ġ:":2421,"Ð»ÑĭÐ¹":2422,"ĠÐ²ÑĭÑĪÐµ":2423,"ĠÐ½Ð°ÑģÐµ":2424,"ĠX":2425,"ÑĢÐ°Ð¼Ð¸":2426,"ÐłÐĲ":2427,"ÑģÑĥÐ»ÑĮ":2428,"Ð±Ð¾Ð»ÐµÐµ":2429,"Ð»ÐµÐ½Ñĭ":2430,"ĠÐºÐ°ÑĤÐµÐ³Ð¾ÑĢÐ¸":2431,"ÐµÑĪÑĮ":2432,"ĠÐ¸Ð·Ð³Ð¾ÑĤÐ¾Ð²":2433,"ÑģÐ»ÑĥÐ¶Ð¸":2434,"ÐµÐ½Ð½ÑĭÐ¹":2435,"ĠÑĤÑĭÑģÑı":2436,"ÐŀÑĤ":2437,"ĠÐ½Ð°ÑĪÐµÐ¹":2438,"Ð¾Ð·ÑıÐ¹":2439,"ow":2440,"ĠÑģÑĢÐµÐ´Ð¸":2441,"ÑĪÐµÐ¼":2442,"ww":2443,"Ð¾Ð²Ð¸":2444,"ĠÐ¼ÐµÑĢÐ¾Ð¿ÑĢÐ¸Ñı":2445,"ĠÐ´ÐµÐ½Ðµ":2446,"ĠÐ²ÐµÐ´ÑĮ":2447,"ĠÐĲÐ»ÐµÐºÑģÐ°Ð½Ð´":2448,"ÐµÐ½ÑĤÐ¸":2449,"Ð´Ð¾Ð¼":2450,"ĠÐ½ÐµÐ±Ð¾Ð»ÑĮ":2451,"ĠÑĢÐµÐ³Ð¸ÑģÑĤÑĢÐ°ÑĨÐ¸Ð¸":2452,"Ð¿Ð¾Ð´":2453,"ĠÑĤÐµÐ¼Ð¿ÐµÑĢÐ°":2454,"____":2455,"ĠÐľÐ°ÑĢ":2456,"ĠÑģÐ¸Ð¼":2457,"ÑģÑĤÑĮÑİ":2458,"ÑģÑĤÐ²ÐµÐ½Ð½Ð¾Ð³Ð¾":2459,"ĠÐ¿ÑĢÐµÐ´Ð¿ÑĢÐ¸Ñı":2460,"ÑĩÐ½Ð°Ñı":2461,"ĠÑĢÐ°Ð·Ð²Ð¸ÑĤÐ¸Ñı":2462,"ÑĤÐµÐ»ÑĮÐ½Ð¾Ðµ":2463,"ĠÐºÐ¾ÑĤÐ¾ÑĢÐ¾Ðµ":2464,"ÑģÑĤÐ²ÐµÐ½Ð½ÑĭÐ¹":2465,"ĠÐ·Ð°ÐºÐ°Ð·":2466,"ĠÐ´ÐµÐ»Ð°ÑĤÑĮ":2467,"ĠÑģÐºÐ¾ÑĢÐ¾":2468,"ÑģÐ¸ÑĤÑĮ":2469,"ĠÐ´Ð¾ÑģÑĤÐ°ÑĤÐ¾ÑĩÐ½Ð¾":2470,"ĠÑĪÐ¸ÑĢÐ¾Ðº":2471,"ĠÐ¾ÑĩÐµÑĢÐµÐ´":2472,"Ð¾Ð³Ñĥ":2473,"ĠÐ¿ÑĢÐ°Ð²Ð¾":2474,"ĠÐ¿Ð¾ÐºÑĢÑĭ":2475,"ĠÑĤÐ¾Ð»":2476,"ĠÐ½Ð°Ð±":2477,"ĠÐ¿ÐµÑĢÐ¸Ð¾Ð´":2478,"ĠÐ¿ÑĢÐ¾Ð²ÐµÑĢ":2479,"ĠÐ½Ð°Ð¿ÑĢÑı":2480,"Ð³ÑĢÑĭ":2481,"ĠÑıÐ²Ð»ÑıÑİÑĤÑģÑı":2482,"ĠÐ¾ÑĦÐ¾ÑĢÐ¼":2483,"Ð»ÑĮÑı":2484,"ĠÐºÑĢÐµ":2485,"Ð²ÑĭÑħ":2486,"ĠÑĥÑĩÐµÐ±":2487,"ĠÐĽÐµ":2488,"ĠÐ¼ÐµÐ½ÐµÐµ":2489,"Ð³Ð¸Ð¸":2490,"ĠÑģÑĤÐ°ÑĢ":2491,"ĠÐ¼Ð¾Ð»Ð¾Ð´":2492,"Ð¼Ð¸Ð½Ð¸ÑģÑĤÑĢÐ°":2493,"ĠÐ°Ð½Ð°Ð»Ð¸":2494,"ÐŀÐŀ":2495,"ĠÑģÐ»ÐµÐ´ÑĥÐµÑĤ":2496,"ÐºÐµÑĤ":2497,"ĠÐºÐ»Ð°ÑģÑģ":2498,"ĠÐ¾ÐºÐ¾Ð½":2499,"2014":2500,"ĠÐ¸Ð³ÑĢÐ°":2501,"ĠÐ¾Ð´Ð½Ð¾":2502,"ĠÑģÐ»Ð¾Ð²":2503,"ĠÐ¾Ð³ÑĢÐ°Ð½Ð¸":2504,"ĠÐ¿Ð¾ÑģÐµ":2505,"ĠÐĴÐ¾":2506,"ÑĢÐ¸Ð½Ð°":2507,"Ð»ÑıÑĤÑĮ":2508,"ĠÑĤÐ²Ð¾ÑĢ":2509,"ĠÐ¼Ñı":2510,"ĠÐŁÑĢÐµÐ´":2511,"ÑģÑĤÑĥÐ¿Ð¸":2512,"ÑĢÐ¸ÑĤÐµ":2513,"ĠÐ²ÑĢÐµÐ¼ÐµÐ½":2514,"Ð»ÑĮÐ½ÑĭÐ¼":2515,"ĠÐºÐ¾Ð¼Ð¿Ð°Ð½Ð¸Ñı":2516,"Ð¼ÐµÐ½ÑĮ":2517,"ĠÐ°Ð²ÑĤ":2518,"ĠÑģÐ½Ð°":2519,"ÑĤÐµÐ»ÑıÐ¼":2520,"Ð¾Ð±ÑĢÐ°Ð¶":2521,"ÑĢÑĥÐµÑĤ":2522,"ÑīÐµÑģÑĤÐ²Ð°":2523,"ĠÐłÐ¾ÑģÑģÐ¸Ð¹ÑģÐºÐ¾Ð¹":2524,"ĠÐ´ÐµÑĢ":2525,"Ð¾ÑĢÐ¾Ð¶":2526,"Ð¾ÑĤÐ¾":2527,"ĠÑĢÐ°Ð·ÑĢÐµ":2528,"Ð¾Ð»ÐµÑĤ":2529,"ĠÐ·Ð°Ð¿Ð°":2530,"ĠÐºÐ¾Ñģ":2531,"ÑģÐ¸Ñı":2532,"Ð·Ð¸Ð¸":2533,"ĠÑĤÑĥÑĤ":2534,"ÐĴÑģÐµ":2535,"ÑĪÐµÐµ":2536,"ĠÐ¼Ð¸ÑĢÐ°":2537,"Ð®":2538,"ĠÐ¿ÑĢÐ¾ÑĦÐµÑģÑģÐ¸Ð¾Ð½Ð°Ð»ÑĮ":2539,"ĠÐ¿Ð¸ÑĤÐ°Ð½Ð¸Ñı":2540,"ÑħÐ¾Ð´ÑıÑĤ":2541,"ĠU":2542,"Ð»ÐµÐ½Ð¸Ñİ":2543,"Ð¾Ð´Ð¾Ð²":2544,"Ð¼Ð¸Ð½":2545,"Ð¡Ðļ":2546,"ĠÐ¾Ð´Ð½Ð¾Ð³Ð¾":2547,"Ð»ÑĥÑĩ":2548,"ÑİÑīÐµÐ¹":2549,"ĠÐ¼Ð»":2550,"Ġd":2551,"ĠÑģÐ¸ÑģÑĤÐµÐ¼Ð°":2552,"ÑĤÐ¾Ð¹":2553,"ĠÑĩÐ¸ÑĤÐ°":2554,"ÑĩÐ¸Ðº":2555,"ĠÐ¼Ð¾Ñī":2556,"ÑİÑīÐ¸Ð¼":2557,"ĠÐ´ÑĥÐ¼Ð°":2558,"ĠÐ½Ð¸ÑĩÐµÐ³Ð¾":2559,"ri":2560,"29":2561,"ĠÐ±Ð»Ð¾Ðº":2562,"ĠÐ¾ÑĢÐ³Ð°Ð½Ð¸Ð·Ð°ÑĨÐ¸Ð¸":2563,"Ð¶Ð½ÑĭÐµ":2564,"ÑīÑĥÑİ":2565,"ĠâĢľ":2566,"ĠÐ¿Ð¾Ð»Ð½Ð¾ÑģÑĤÑĮÑİ":2567,"ĠÐ»Ð¸ÑĨÐ°":2568,"ĠÐ°Ð½ÑĤÐ¸":2569,"ĠÑģÑĢÐ°Ð²":2570,"ÑĤÐ¾ÑĢÐ¾Ð²":2571,"ÑĮÑĤÐµ":2572,"ĠÐ¿Ð»Ð°ÑģÑĤÐ¸":2573,"ĠÑĢÑıÐ´":2574,"Ð·Ð¾ÑĢ":2575,"Ð¾ÑĢÑı":2576,"ĠÑģÑĤÐµ":2577,"ĠÐ¸ÑģÐºÑĥÑģ":2578,"ĠÑģÐµÑĢÐ²Ð¸":2579,"ĠÐ´Ð¾Ð±Ð°":2580,"ÑĪÐµÐ½Ð¸Ð¸":2581,"ĠÐŁÑĥ":2582,"ĠÐ²Ð¾Ð¿ÑĢÐ¾ÑģÑĭ":2583,"Ð¸ÑĢ":2584,"Ð¾ÑĤÐ°":2585,"ĠÐ¿ÑĢÐ¾ÑĦÐ¸":2586,"ĠÐ¿Ð¾Ð´ÑĤÐ²ÐµÑĢ":2587,"Ð½Ð¾Ð¿":2588,"ĠÐ¡Ñĥ":2589,"ÑĩÐ¸Ñģ":2590,"ĠÑģÐ¾ÑģÑĤÐ°Ð²":2591,"ĠÐ³ÐµÑĢ":2592,"35":2593,"Ð½Ð¸ÑĨÐ¸":2594,"ÑıÑĤÐ¸":2595,"ĠÑĥÐ²Ð¸":2596,"ĠÑĢÐ°Ð±Ð¾ÑĤÐµ":2597,"Ð³ÑĢÑĥÐ·":2598,"ĠÐ¸Ð½Ð´Ð¸Ð²Ð¸Ð´Ñĥ":2599,"ĠÐºÐ°ÐºÐ¾Ð¹":2600,"ĠÐŁÐ¾ÑģÐ»Ðµ":2601,"ĠÑģÐ¾Ð²ÐµÑĢÑĪÐµÐ½":2602,"ÑģÑģÐµ":2603,"Ð²Ð°ÑĢÐ¸":2604,"ĠÐ·Ð°Ð¿":2605,"ĠÑģÑĤÑĢÑĥ":2606,"ĠÐ¾ÐºÐ¾Ð»Ð¾":2607,"Ð¾ÑıÑĤ":2608,"ĠÑģÐ²Ð¾Ð¸Ð¼":2609,"ĠÐ¿Ð¾ÐºÑĥÐ¿":2610,"Ð¼Ð¾Ð²":2611,"ĠÐ²Ð¾Ð´Ñĭ":2612,"ĠÐ½Ð¸ÐºÐ°":2613,"ĠÐ³Ð°ÑĢÐ°Ð½":2614,"ÐµÑģÐ¿ÑĥÐ±Ð»Ð¸":2615,"Ġf":2616,"ĠÑĤÐ¾ÑĤ":2617,"ĠÐĶÐ¾":2618,"Ð½Ð°Ð·Ð½Ð°":2619,"ĠÑĤÑĢÑĥÐ´":2620,"ÐŁÐµÑĤÐµÑĢÐ±ÑĥÑĢ":2621,"ĠÑĥÑĩÑĢÐµ":2622,"ĠÐ¶Ð¸Ð²Ð¾ÑĤ":2623,"ĠÐ¾ÑĢÐ¸":2624,"ÑĪÐ°ÐµÑĤ":2625,"ĠÑĢÐ°Ð¹Ð¾Ð½Ð°":2626,"45":2627,"ĠÑģÐ¾Ñģ":2628,"ĠÑģÑĤÐ°Ð»Ð¸":2629,"ĠÑģÐ»Ð¸":2630,"ĠÐ¿Ð¾ÑıÐ²Ð¸":2631,"Ð¿Ð»Ð¸":2632,"ÑĤÑĭÑħ":2633,"ĠÐ¼Ð¸Ðº":2634,"Ð´ÑĢÐ°Ð²":2635,"ĠÐ¸Ð½ÑĦÐ¾ÑĢÐ¼Ð°ÑĨÐ¸Ñİ":2636,"ÐļÐ¾Ð¼":2637,"tp":2638,"ĠÐĴÐ°Ñģ":2639,"ÑĢÐ¾ÑĤÐ¸":2640,"Ð´Ð¸ÑĨÐ¸Ð¾Ð½":2641,"ĠÑģÐºÐ°ÑĩÐ°ÑĤÑĮ":2642,"ĠÑĥÐ½Ð¸Ð²ÐµÑĢ":2643,"ĠÑĤÐ¾Ð³Ð´Ð°":2644,"ĠÑģÐ²Ð¾Ð±":2645,"ĠÑģÐ±Ð¾ÑĢ":2646,"ÑģÑĤÐ²Ð¾Ð²Ð°ÑĤÑĮ":2647,"ĠÑģÑħ":2648,"Ð¾Ð¶ÐµÑĤ":2649,"ĠÑĢÐ°Ð±Ð¾ÑĩÐ¸":2650,"ÐºÐ»Ð°Ð´":2651,"Ð»ÑıÐµÑĤ":2652,"Ð»ÐµÐ½Ð½ÑĭÐµ":2653,"ĠÑĤÐµÑĢÑĢÐ¸ÑĤÐ¾ÑĢÐ¸Ð¸":2654,"ĠÐ¿Ð¾Ð»Ð¾Ð¶":2655,"ĠÑĦÑĥÐ½Ðº":2656,"ĠÐ±Ð¾ÑĢ":2657,"ĠÐ¿ÐµÑģ":2658,"ÑĮÐµÑĢ":2659,"ĠÐ¸ÑĤ":2660,"Ð±ÐµÐ»ÑĮ":2661,"ĠÑĢÐ¾Ð·":2662,"ĠÐŁÐ¾Ð»":2663,"ĠÑģÐ¿Ð¾ÑĢ":2664,"ĠÑĢÐ°Ð¼":2665,"Ð¼ÐµÐ½ÑĤÐ¾Ð²":2666,"ÑĦÐ¾ÑĢÐ¼Ð¸":2667,"ÑĥÑİÑĤÑģÑı":2668,"Ð»ÑĭÐµ":2669,"ĠÐ½Ð°Ð¿ÑĢÐ¸Ð¼ÐµÑĢ":2670,"Ð¡Ð¡":2671,"ĠÐĶÐµ":2672,"ĠÐ¾Ð³ÑĢÐ¾Ð¼":2673,"ĠÐłÐµÑģÐ¿ÑĥÐ±Ð»Ð¸":2674,"ĠÑĢÐ°ÑģÐ¿ÑĢÐ¾":2675,"ĠÑĩÐµÑĤ":2676,"ĠÐ¿Ð¾Ñħ":2677,"ĠÑħÐ¸":2678,"Ð»ÐµÐ·":2679,"ĠÑģÐ»ÐµÐ´ÑĥÑİÑīÐ¸":2680,"ÑĢÐ¾Ð¹":2681,"Ð¾Ð²Ð°Ð»":2682,"ĠÑĢÐµÑģ":2683,"ÑĩÐ°ÐµÑĤ":2684,"Ġb":2685,"ĠÑĢÐ°Ð·Ð»Ð¸ÑĩÐ½ÑĭÑħ":2686,"ĠÐ¤ÐµÐ´ÐµÑĢÐ°ÑĨÐ¸Ð¸":2687,"ĠÐ²ÑģÑı":2688,"2013":2689,"ĠÐ»ÐµÐ³ÐºÐ¾":2690,"ĠÐ´ÑĢÑĥÐ³Ð¾Ð¹":2691,"Ð¼Ð°ÑĤÑĢÐ¸":2692,"ĠÐ±Ð°ÑĤÐ°":2693,"ĠÐ¼ÐµÐ½ÑĮ":2694,"ay":2695,"ĠÑĥÐ¼":2696,"Ð´Ð°Ð½Ð¸Ñı":2697,"ĠÑĤÐµÐ¿ÐµÑĢÑĮ":2698,"Ð°Ð½Ðº":2699,"ĠÐ¸Ð¼ÐµÑİÑĤ":2700,"ĠÐºÐ°ÑĩÐµÑģÑĤÐ²Ð°":2701,"ĠÑģÐ¾Ð¾ÑĤÐ²ÐµÑĤÑģÑĤÐ²Ð¸Ð¸":2702,"ĠÐĴÐµ":2703,"ĠÐ¾ÑĢÐ³Ð°Ð½Ð¸Ð·Ð°":2704,"ĠÑĢÐµÐ¼Ð¾Ð½ÑĤ":2705,"ĠÐ¾ÑģÑĤ":2706,"ĠÐ½ÐµÑĦ":2707,"ĠÐŀÐ´Ð½Ð°ÐºÐ¾":2708,"ĠÑĤÑĥÑĢ":2709,"ĠÑģÑĤÑĢÐ°Ð½":2710,"ĠÐºÐ¾Ð¼Ð¿Ð»ÐµÐº":2711,"http":2712,"ĠÐ½Ð°Ð·Ð½Ð°":2713,"ÐºÐ»Ð°Ð´Ñĭ":2714,"ĠÐ¿Ð¾ÑĩÑĤÐ¸":2715,"ĠÐĴÐ»Ð°Ð´Ð¸":2716,"ĠÐ²Ð¾Ð»Ð¾Ñģ":2717,"ĠÐ¿Ð¾Ð»ÐµÐ·":2718,"ĠÐ¾ÑĤÐ½Ð¾ÑģÐ¸":2719,"ĠÐ±ÐµÐ·Ð¾Ð¿Ð°ÑģÐ½Ð¾ÑģÑĤÐ¸":2720,"ĠÑĥÑĩÐ°ÑģÑĤÐ¸Ðµ":2721,"ĠÐĴÐ¾Ð»":2722,"ĠÑģÐ¾Ð±Ñĭ":2723,"Ð¾Ð»ÑĮÐ½Ð¾":2724,"ĠÑıÑĢ":2725,"ÑĤÐµÐ»ÑıÐ¼Ð¸":2726,"ĠÐºÐ¾Ð¼Ð¿ÑĮÑİ":2727,"Ð¶Ð½ÑĭÑħ":2728,"ĠÐ²ÑĭÐ´Ð°":2729,"ĠÑĥÑģÐ»Ð¾Ð²Ð¸ÑıÑħ":2730,"ÐµÐ½Ð½Ð¾Ð³Ð¾":2731,"ÐµÐ¼ÑĭÐµ":2732,"Ð±Ð°ÑĤÑĭ":2733,"ec":2734,"ĠÐŁÐ¾ÑįÑĤÐ¾Ð¼Ñĥ":2735,"ag":2736,"ÑİÑīÐµÐ³Ð¾":2737,"Ð¾Ð»Ð¾Ð³Ð¸Ð¸":2738,"ĠÐ¿Ð¾ÐºÑĥÐ¿Ð°":2739,"op":2740,"ĠÐ¿Ð¾Ð³":2741,"Ð´ÐµÐ±":2742,"ÑģÑĤÐ²ÐµÐ½Ð½ÑĭÐµ":2743,"ĠÐ¾ÑĦÐ¸ÑĨÐ¸Ð°Ð»ÑĮ":2744,"ĠÐ¼ÐµÑħÐ°Ð½Ð¸":2745,"ĠÐºÐ¾Ð»Ðµ":2746,"ĠÐ±Ñİ":2747,"Ð¢Ðŀ":2748,"ĠÐ¾Ð¿ÑĭÑĤ":2749,"Ð¶Ð´Ñĭ":2750,"ĠÐ¿Ð¾Ð·Ð¸":2751,"Ð¾ÐºÐ°Ð·Ð°":2752,"ĠÐ¾Ð±ÑĬÐµÐºÑĤ":2753,"ĠÐ¿Ð¾Ð¶Ð°":2754,"ĠÐŀÐ½Ð°":2755,"ĠÑĢÐ°Ð·ÑĢÐ°Ð±Ð¾ÑĤ":2756,"Ð·Ñĥ":2757,"ÑģÑıÑĤ":2758,"ĠÑħÐ°ÑĢÐ°ÐºÑĤÐµÑĢÐ¸":2759,"ĠÐ¿Ð¾Ð´Ð´ÐµÑĢÐ¶":2760,"ÐºÐ¾ÑĢ":2761,"ĠÑģÐ¼Ð¾ÑĤ":2762,"ĠÐ½ÐµÐ´Ð¾":2763,"ĠÐŁÑĢÐµ":2764,"ĠÐ±Ð¾Ð»ÑĮÑĪÐ¾Ð¹":2765,"Ð½Ð°Ð»Ð°":2766,"ĠÑģÑĤÐ°Ð²":2767,"Ð¾Ð»Ð¸ÑĤ":2768,"ÐŁÑĢÐ¾":2769,"ĠÐ¾Ð±ÑĢÐ°Ð·Ð¾Ð²Ð°Ð½Ð¸Ñı":2770,"ÑĤÐµÐ»ÑĮÐ½Ð°Ñı":2771,"ĠÐ²Ð·Ð°":2772,"ĠÐ½Ð¸Ð¼":2773,"ĠÐ¼ÐµÐ´Ð¸ÑĨÐ¸Ð½":2774,"ĠÑĥÐ´Ð¾Ð²":2775,"ÐºÐ¸Ð¼Ð¸":2776,"ÑĪÐµÐ½Ð¸Ð¹":2777,"Ð¾Ð²ÑĭÑħ":2778,"ĠÐ·Ð°Ð´":2779,"ĠÐļÐ°ÑĢ":2780,"ĠÐ²Ð¾Ð¾Ð±ÑīÐµ":2781,"ĠÐ¿Ð¾ÑĤÑĢÐµÐ±":2782,"Ð²Ð¾Ð»":2783,"ĠÑĥÐ»Ð¸":2784,"ĠÐºÑĢÐ°Ð¹":2785,"ÐºÐ¾Ð»ÑĮ":2786,"ÑģÑĤÐ²ÑĥÑİ":2787,"Ð²ÐµÐ·":2788,"ĠÑģÑĤÐ°Ð»":2789,"ĠÑĤÐ¸Ð¿Ð°":2790,"ĠÐºÐ°ÑĤÐ°":2791,"ĠÐĶÐ¶":2792,"ĠÐ´ÐµÐ»Ð¾":2793,"ĠÐ¡Ð°Ð½ÐºÑĤ":2794,"ÑĩÐ½Ð¾Ðµ":2795,"ÑĢÐ°Ð¶Ð°":2796,"ĠÐ¾ÑĤÐ´ÑĭÑħ":2797,"199":2798,"ĠÑĢÐ¾Ð´":2799,"ĠÐºÐ¾ÑĤÐ¾ÑĢÐ¾Ð¼":2800,"ĠÐ²Ð¼ÐµÑģÑĤÐµ":2801,"//":2802,"ÑĤÐµÐ»Ñİ":2803,"Ð»ÑĥÐ°":2804,"ĠÑģÑĢÐµÐ´ÑģÑĤÐ²":2805,"ĠÑĦÐ¸Ð½Ð°Ð½ÑģÐ¾Ð²":2806,"ia":2807,"ÑĪÐµÐº":2808,"Ð·Ñı":2809,"Ð²Ð¸ÑĤÑĮ":2810,"ĠÑģÐ»Ð°":2811,"ĠÐ¼Ð°ÑĤÐµÑĢÐ¸Ð°Ð»Ñĭ":2812,"ĠÐ¾Ð·Ð½Ð°":2813,"ÑħÐ¾":2814,"ÑĤÐµÐ¹":2815,"ĠÐ²Ð¾Ð·Ð¼Ð¾Ð¶Ð½Ð¾":2816,"ĠÐĺÐ½ÑĤÐµÑĢ":2817,"Ð½Ð½ÑĭÐµ":2818,"Ð¿ÑĢ":2819,"ĠÐ·Ð°Ð¿Ð¸":2820,"ĠÑħÐ¾ÑĤÑı":2821,"ĠÐ´Ð¾Ð»Ð»Ð°":2822,"ĠÐľÐ¾ÑģÐºÐ²Ðµ":2823,"ĠÐ¾Ð´Ð½Ð°":2824,"ok":2825,"ÑĪÐ»Ð¸":2826,"ĠÐ·Ð²Ñĥ":2827,"ĠÐ½ÐµÑģ":2828,"ĠÐ½Ð¾Ð²ÑĭÐµ":2829,"ÑĤÐµÐ»ÑĮÐ½ÑĭÐ¼":2830,"ĠÐ¼Ð°ÐºÑģÐ¸Ð¼Ð°":2831,"Ð¼Ð¾Ð¹":2832,"ĠÐĶÑĥ":2833,"ĠÐłÑĥ":2834,"ĠÐ³ÑĢÐ°Ð¶Ð´Ð°Ð½":2835,"Ð²ÑĭÐ¹":2836,"2012":2837,"ĠÐ³Ð»Ð°Ð·Ð°":2838,"ĠÐ¿ÑĢÐ¸Ð¾Ð±ÑĢÐµ":2839,"ĠÐ½Ð°ÑĪÐ¸":2840,"ĠÑĨÐµÐ½Ð°":2841,"ĠÐ¸Ð½Ð´Ð¸Ð²Ð¸Ð´ÑĥÐ°Ð»ÑĮ":2842,"ÑģÑĤÐ¸ÑĤ":2843,"ĠÐ¼Ð°Ð»ÐµÐ½ÑĮ":2844,"ĠÑĤÐ¾Ð½":2845,"ĠÐ§ÐµÑĢ":2846,"Ġ|--":2847,"ĠÐ½Ð°Ð¹":2848,"ĠÐ²ÐµÐ»Ð¸":2849,"ÑıÐ²Ð»ÐµÐ½Ð¸Ñı":2850,"ÑħÐ½Ð¸":2851,"em":2852,"Ð°Ð¼Ð¸":2853,"ĠÐ½Ð¾ÑıÐ±ÑĢÑı":2854,"ĠÐ¶ÑĥÑĢ":2855,"ĠÐ¿ÑģÐ¸":2856,"ÑİÑīÐ°Ñı":2857,"ĠÐĴÐ¾Ð·":2858,"ĠÐ½Ð°ÑĢÐ¾Ð´":2859,"ĠÐ³Ðµ":2860,"ĠÑģÑĤÑĢÐµ":2861,"ĠÑģÐµÐ·":2862,"ĠÐ¦ÐµÐ½ÑĤ":2863,"ĠÑĢÐµÐ·ÑĥÐ»ÑĮÑĤÐ°ÑĤÐµ":2864,"ĠÐ§Ð°":2865,"://":2866,"ÐµÐ½Ð½Ð¾Ð¹":2867,"ÐµÐ½ÐµÑĢÐ°":2868,"Ð¾Ð½Ñĥ":2869,"ÐĿÐĲ":2870,"ĠÐ¼Ð¸ÑĢ":2871,"ĠÐ¾ÑĤÐ»Ð¸ÑĩÐ°":2872,"ĠÐºÐ¾Ð½ÐµÑĩÐ½Ð¾":2873,"ĠÐ¿ÑĥÐ½":2874,"ĠÐ½Ð°ÑħÐ¾Ð´Ð¸ÑĤÑģÑı":2875,"Ð¾ÑĢÐ¾Ð´":2876,"ĠÑįÑĤÑĥ":2877,"ĠÐ¢Ð¸":2878,"Ð·Ð¸Ð´":2879,"ĠÐ±Ð¸Ð·Ð½ÐµÑģ":2880,"ÑĢÐ¸ÑĤ":2881,"ÑĤÐ¸ÐºÐ°":2882,"ĠÐ¿ÑĢÐ¾ÐµÐºÑĤÐ°":2883,"ĠÐ¿Ð¾Ð´Ð°ÑĢ":2884,"ĠÐ¿Ð°Ð¼":2885,"ÐµÐ¼ÑĭÑħ":2886,"ĠÐ¿ÑĢÐµÐ´Ð½Ð°Ð·Ð½Ð°":2887,"ĠÐ´ÐµÑĢÐµÐ²":2888,"ĠÑģÐ¾ÑħÑĢÐ°":2889,"ĠÐ´Ð¸Ð·Ð°Ð¹Ð½":2890,"ÑĢÐµÐ½Ð¸Ñı":2891,"ĠÐ¿ÑĢÐ¾ÑģÑĤ":2892,"Ð²ÑĭÐ¼":2893,"ÑģÐ¾Ð»":2894,"ĠÐºÐ¾Ð»Ð»ÐµÐº":2895,"ĠÐĳÐ¾Ð»ÑĮ":2896,"ĠÐ¿ÐµÑĢÐ²ÑĭÐ¹":2897,"Ð½Ð¸ÑĨÑĥ":2898,"ĠÐ¾ÑĤÑģÑĥÑĤ":2899,"ĠÐ±Ð°Ð·":2900,"ĠÐŁÐµÑĤ":2901,"Ð»Ð¸ÑĤÑĮ":2902,"ĠÑģÑĤÐ¾ÑĢÐ¾Ð½":2903,"ĠÐ§ÑĤÐ¾":2904,"ÑĢÐ¾ÐºÐ°":2905,"Ð´Ð¸ÑĤÑĮ":2906,"ÑģÐµÐ¹":2907,"Ġa":2908,"ĠÑģÐ¾Ð²ÐµÑĤ":2909,"ĠÑĤÐ¾Ð¿":2910,"ĠÑĤÐ°ÐºÐ¾Ðµ":2911,"ÑĩÐºÑĥ":2912,"Ð¾ÑĩÐºÐ¸":2913,"ĠJ":2914,"Ð½ÐµÐ½Ð¸Ðµ":2915,"ĠÑģÐ°Ð¼Ð¸":2916,"im":2917,"ĠÐ´ÐµÐ¼":2918,"Ð³Ð¸Ð½Ð°":2919,"ĠÐ°Ð²ÑĤÐ¾Ð¼Ð°ÑĤÑĭ":2920,"ĠÐ¼Ð½Ð¾Ð³Ð¸Ðµ":2921,"Ð¼Ð°Ñı":2922,"ĠÐľÐ°Ðº":2923,"ÐĵÐŀ":2924,"Ð¶ÐµÐ½Ð¸Ð¸":2925,"ĠÐ²ÑĭÑħÐ¾Ð´":2926,"ÐŁÐ¾Ð´":2927,"ĠÑģÑĤÑĢÐ°Ð½Ñĭ":2928,"pl":2929,"Ð½Ð¸ÐºÐ¾Ð¼":2930,"Ð»Ð°Ð¼Ð¸":2931,"ĠÐ½Ð°Ð¸Ð±Ð¾Ð»ÐµÐµ":2932,"ÑģÑĤÐ°Ð½Ð°Ð²Ð»Ð¸":2933,"ĠÐ¡ÐºÐ°":2934,"ĠÐµÐ´Ð¸":2935,"ÐľÑĭ":2936,"ĠÐ¿Ð¾Ð¼Ð¾ÑīÐ¸":2937,"Ð¼ÐµÑĢÐ¸ÐºÐ°Ð½":2938,"ÑĤÐ¾Ðº":2939,"ÑıÑģÑĮ":2940,"ĠÐ²ÐºÐ»Ñİ":2941,"ĠÑģÑĦ":2942,"ĠÑįÐ»ÐµÐºÑĤÑĢÐ¸":2943,"ĠÐ¾ÑģÐ½Ð¾Ð²Ðµ":2944,"ĠÐ¼ÐµÐ¶Ð´ÑĥÐ½Ð°ÑĢÐ¾Ð´":2945,"ĠÑįÐºÑģÐ¿Ð»ÑĥÐ°":2946,"ÑİÑģÑĮ":2947,"ĠÐ¾Ð¶Ð¸":2948,"ĠÐĵÐ°":2949,"ĠÐ¤Ð¸":2950,"ĠÐ¿Ð¸ÑģÐ°":2951,"ĠÑģÐ¾Ð¾Ð±ÑīÐ¸":2952,"Ð¼ÑĥÐ»Ñı":2953,"ĠÑĤÐ°ÐºÐ¾Ð³Ð¾":2954,"ĠÐ½Ð¾Ð²ÑĭÐ¹":2955,"ĠÐ¿ÑĢÐ¸Ð¼ÐµÐ½Ñı":2956,"ĠÐ½Ð°Ð»":2957,"Ð½Ð°Ð¼":2958,"Ð»ÑİÐ´":2959,"ĠÐ¿Ð¸ÑģÑĮ":2960,"ĠÐ²Ð»Ð¸Ñı":2961,"ĠÐ·Ð°ÐºÑĢÑĭ":2962,"ÑģÑģÐ¸Ð¸":2963,"Ð¾Ð²ÑĭÐµ":2964,"ĠÐ¡Ð°Ð¼":2965,"ĠÐļÐ¾ÑĢ":2966,"ĠÑģÑĤÑĥÐ´":2967,"ÑģÑģÑĭ":2968,"ĠÐ¾Ð±ÑĢÐ°Ð·Ð¾Ð²Ð°":2969,"ĠÑģÑĤÐ¾Ð¸Ð¼Ð¾ÑģÑĤÑĮ":2970,"ĠÑĢÐµÐ±ÐµÐ½ÐºÐ°":2971,"Ð½Ð¸ÑĤÐµ":2972,"Ð¼Ð°Ð³Ð°Ð·Ð¸":2973,"ĠÑģÑĤÐµÐ½":2974,"ĠÐ¼Ð¾Ð´ÐµÐ»Ð¸":2975,"Ð½Ð¸Ð½":2976,"ĠÑģÐ¾Ð²ÑģÐµÐ¼":2977,"Ð±ÐµÑĢ":2978,"ĠÐ¿ÑĢÐ¸ÑĩÐ¸":2979,"ĠÐļÑĢÑĭ":2980,"ĠÐ´Ð°Ð²":2981,"ĠÐ°Ð²ÑĤÐ¾ÑĢ":2982,"com":2983,"Ð´ÐµÐ¼":2984,"ÑģÑĤÐ²ÑĥÑİÑĤ":2985,"ĠÐ¿Ð¾Ð´ÑĢÐ¾Ð±":2986,"ĠÐ´Ð°Ð½Ð½ÑĭÐµ":2987,"Ð´Ð°ÑİÑĤ":2988,"ÑģÑĤÐ¸ÑĤÑĮ":2989,"ĠÐľÑĥ":2990,"Ð¸Ð¹":2991,"ĠÐŁÐµ":2992,"Ð»Ð¸ÑĤ":2993,"ĠÐ·Ð°ÐºÐ»Ñİ":2994,"37":2995,"ĠÑģÐ¾Ð»":2996,"Ð¼ÑĭÑģ":2997,"ĠÐ¾ÑģÐ¾Ð±ÐµÐ½":2998,"ĠÐ²Ð°ÑĪ":2999,"ÑĩÐ½ÑĭÐ¼":3000,"ĠÑĢÐ°Ð·Ð½ÑĭÑħ":3001,"ĠÐ´Ð¾Ð»Ð¶Ð½Ð°":3002,"ĠÑĢÐµÑģÑĥÑĢ":3003,"ÑĥÐ»":3004,"ĠÑĢÐ°Ð²":3005,"ĠÐ¾Ð±Ð½Ð°":3006,"ĠÑģÑĥÐ±":3007,"ĠÑĢÐ°ÑģÐº":3008,"ĠÐ¾Ð±ÑĬÐµÐ¼":3009,"ĠÑģÐ¼Ð¾ÑĤÑĢÐµÑĤÑĮ":3010,"Ð´Ð¸Ð½Ð°":3011,"ÑĩÐ°Ð¹":3012,"ÐļÐĲ":3013,"Ð¶Ð½Ð¾Ð¹":3014,"ĠÐ¾ÑĤÐ»Ð¸Ñĩ":3015,"ĠÐ¿Ð¾ÑģÐµÑĤÐ¸":3016,"!!!":3017,"ĠÐºÑĢÐµÐ´Ð¸ÑĤ":3018,"ĠÐ¼ÐµÑģÑĤÐµ":3019,"ĠÐ¿Ð»Ð°Ð½Ð¸":3020,"ĠÐ²Ð¾Ð·Ð¼Ð¾Ð¶Ð½Ð¾ÑģÑĤÐ¸":3021,"ĠÑįÑĤÐ¸Ð¼":3022,"ÑĩÐµÐ½Ð¸Ð¸":3023,"ĠÐ¿ÑĢÐ¾Ð´ÑĥÐºÑĨÐ¸Ð¸":3024,"ter":3025,"ul":3026,"Ð²ÑĪÐ¸Ð¹":3027,"Ð·Ð°Ð´":3028,"ĠÐķÐ²ÑĢÐ¾Ð¿":3029,"ĠÐ½Ð°ÑĩÐ°Ð»Ð°":3030,"ÑĤÐ°ÑĢ":3031,"Ð²Ð°Ð¹ÑĤÐµ":3032,"ĠÐ¾Ð±ÑĢÐ°Ð±Ð¾ÑĤ":3033,"ĠÐ°Ð²ÑĤÐ¾Ð¼Ð°ÑĤÐ¸":3034,"ÐķÐł":3035,"ĠÐ¸Ð³ÑĢÑĥ":3036,"ĠÐĺÑģÐ¿Ð¾Ð»Ð½Ð¸":3037,"ĠÐ¡Ð¾Ð²ÐµÑĤ":3038,"ÐºÐ°Ð±":3039,"ĠÐ¿Ð¾Ð»Ð¾Ð¶Ð¸":3040,"Ð¸Ð¼Ñĥ":3041,"Ð»ÑıÑħ":3042,"Ð¾Ð±Ð°":3043,"ĠÑĨÐµÐ½Ñĭ":3044,"ĠÑİÑĢÐ¸":3045,"os":3046,"ĠÑģÐµÑĤÐ¸":3047,"ĠÐ·Ð°Ð²":3048,"ĠÐ°Ð»ÑĮ":3049,"Ð¿Ð°Ð½Ð¸Ñı":3050,"ÐłÐ°":3051,"ĠÐ¿ÑĢÐ¾Ð¸Ð·Ð²Ð¾Ð´ÑģÑĤÐ²Ð°":3052,"ÑıÐ±ÑĢÑĮ":3053,"ĠÑĤÐ¾Ð²Ð°ÑĢÐ°":3054,"ĠÑģÑĤÐ°Ð½Ð´Ð°ÑĢ":3055,"ÑĩÐµÑģÐºÑĥÑİ":3056,"ÑĤÑĮÑı":3057,"ÐŁÐ¾Ñģ":3058,"Ð½Ð½ÑĭÑħ":3059,"ĠÐºÐ°ÐºÐ¸Ðµ":3060,"ĠÐŁÑĢ":3061,"ĠÑħÐ¾Ð·ÑıÐ¹":3062,"ĠÐ·Ð°ÑĤÐµÐ¼":3063,"Ð¾Ð¿Ð°":3064,"Ð¿Ð°Ñģ":3065,"ĠÐ¸Ð³ÑĢÐ°ÑĤÑĮ":3066,"oc":3067,"ov":3068,"ĠÐ½Ð°Ð¿Ð¸ÑģÐ°":3069,"Ð¢Ðµ":3070,"ĠÑĢÐ°ÑģÑĪÐ¸":3071,"Ð¸ÑĢÐ°":3072,"Ð´ÑĨÐ°":3073,"ĠÐ¿ÑĢÐ¸ÐµÐ¼":3074,"ĠSt":3075,"Ð¸Ð½Ð°":3076,"ÑĩÐ½Ð¾ÑģÑĤÑĮ":3077,"ÐºÐ²Ð¸":3078,"ĠÐ¸Ð³ÑĢÐ¾Ð²ÑĭÐµ":3079,"500":3080,"Ð»Ð¸Ð¹":3081,"ĠÐ¾Ð±Ñĥ":3082,"ĠÐ¾Ð±ÑģÐ»ÑĥÐ¶Ð¸":3083,"Ð±Ð¸ÑĢ":3084,"ine":3085,"ĠÑĥÐ»ÑĥÑĩ":3086,"ÑīÐ¸Ð¼":3087,"ÐµÑĨ":3088,"Ð´Ð¸ÑĤÐµ":3089,"Ð³Ð¾Ðµ":3090,"ĠÐ¾ÐºÑĤ":3091,"ĠÐºÐ»Ñİ":3092,"ĠÐ¾Ð±ÑĥÑĩ":3093,"ĠÑĢÐµÑĪÐµÐ½Ð¸Ðµ":3094,"ĠÑĨÐµÐ»ÑĮ":3095,"ĠÑģÐ¼Ð¾Ð¶ÐµÑĤÐµ":3096,"ĠÐ½Ð°ÑĥÑĩ":3097,"Ð¸Ñĩ":3098,"ĠÐ¿ÑĢÐ¾ÑģÑĤÑĢÐ°Ð½":3099,"ĠÐ¼Ð¸Ð»Ð»Ð¸":3100,"Ð¶Ð½Ð¾":3101,"ĠÐ¼Ð½Ð¾Ð¶Ðµ":3102,"ĠÑģÐºÐ°Ð·Ð°ÑĤÑĮ":3103,"ĠÐ¿ÑĢÐ°ÐºÑĤÐ¸ÑĩÐµÑģÐºÐ¸":3104,"ĠÐ¿Ð¾Ð»ÑĥÑĩÐµÐ½Ð¸Ñı":3105,"Ð¿ÑĥÑĤÐ°":3106,"Ð¼Ñı":3107,"ĠÐ½Ð°ÑĪÐ¸Ñħ":3108,"31":3109,"Ð½Ð¸ÑĨÐµ":3110,"Ð¼ÐµÐ½Ð°":3111,"ĠÑģÐ¾Ðº":3112,"ÑĢÐµÐ³Ð¸":3113,"ÑģÐ¸Ð±Ð¾":3114,"ĠÐµÐ¹":3115,"Ð¢Ð°Ðº":3116,"ĠÐ³Ð¾ÑĢÐ¾Ð´Ðµ":3117,"ĠÐºÐ¾ÑĢÐ¿Ñĥ":3118,"ĠÐ¼Ð¾Ð±Ð¸":3119,"ĠÐ½Ð°ÑĪÐµÐ³Ð¾":3120,"Ð´Ð°Ð½Ð¸Ðµ":3121,"ĠÑĢÐ°Ð·Ð½Ð¾":3122,"ĠÐ¿Ð¾Ð¼Ð¾Ð³Ð°":3123,"Ð²Ð¾Ð·Ð¼Ð¾Ð¶":3124,"ÑĤÐ°Ðº":3125,"Ð½ÑĥÐ»":3126,"ÑĥÐº":3127,"ĠÐ±Ð¾Ð»ÐµÐ·":3128,"ĠÐ¾ÑĤÐ¼ÐµÑĤÐ¸":3129,"ĠÐ¿ÑĢÐ¾Ð³":3130,"ĠÑĤÐ°ÐºÐ¸Ð¼":3131,"ĠÐ¼ÐµÐ´":3132,"ĠÐĵÐ»Ð°Ð²":3133,"ÑĤÐ¾ÑĤ":3134,"ĠÑĤÐ¾Ð¼Ñĥ":3135,"ĠÑĩÐ°ÑģÐ¾Ð²":3136,"ĠÐ³Ð¾Ð»Ð¾Ñģ":3137,"ĠÑģÑĤÐ°Ð½Ð¾Ð²Ð¸":3138,"ĠÐ¸ÑģÐ¿Ð¾Ð»ÑĮÐ·Ð¾Ð²Ð°Ð½Ð¸Ñı":3139,"Ð¾Ð´ÐµÐ¹":3140,"Ð»Ð¸Ð½Ð°":3141,"ĠÑĥÐ²ÐµÑĢ":3142,"ĠÐ²ÑģÐµÐ¹":3143,"ĠÑĥÑĢÐ¾Ð²Ð½Ñı":3144,"ĠÐ³ÑĢ":3145,"ÑĢÑĥÐµÑĤÑģÑı":3146,"ĠÑģÐ°Ð¼ÑĭÐµ":3147,"Ð±Ð¾Ð»":3148,"ĠÐ´ÑĢ":3149,"ÑĤÐµÐ»ÑĮÐ½Ð¾ÑģÑĤÑĮ":3150,"ĠÐŀÑĢ":3151,"ÐĺÐ·":3152,"Ð±ÑĢÐ°":3153,"ĠÐŁÐ¸":3154,"ĠÐ²Ð¾Ð·Ð½Ð¸Ðº":3155,"ĠÐ²Ð°Ð»":3156,"ĠÐ¿ÑĢÐ¸Ð½ÑĨÐ¸":3157,"ĠÐºÐ¾Ð¼Ð¸":3158,"ĠÐ±ÑĢÐ°":3159,"ĠÑģÐµÑĢÑĮ":3160,"ĠÐ¾ÐºÐ¾Ð½ÑĩÐ°":3161,"ĠÐ¿ÑĢÐ¸ÑıÑĤ":3162,"ĠÐĵÐµÑĢ":3163,"ÑĩÐµÑģÑĤÐ²Ð¾":3164,"ÐµÐ·Ð´":3165,"ĠÐ¼Ð¸ÑĢÐµ":3166,"ĠÐ°ÑĢÑħÐ¸":3167,"ĠÐ¢Ð°ÐºÐ¶Ðµ":3168,"Ġhttp":3169,"ĠÐ¾Ð¿Ð¸ÑģÐ°":3170,"ÐµÑĢÐºÐ°":3171,"Ð¼ÐµÑģÑĤ":3172,"Ð²ÐµÐ´ÐµÐ½Ð¸Ñı":3173,"ĠÐ·Ð°ÐºÐ¾Ð½Ð¾Ð´Ð°":3174,"ÐĴÐĲ":3175,"ĠÑıÐ½":3176,"ĠÐ¿Ð¾Ð¿Ð°":3177,"ĠÑĥÐ²ÐµÐ»Ð¸ÑĩÐ¸":3178,"ÑģÑĤÐ¸ÑĤÑĥÑĤ":3179,"ÑĤÐ¾Ð½":3180,"ÐłÐµ":3181,"ĠÐ¾ÐºÐ°Ð·ÑĭÐ²Ð°":3182,"ĠÐ½Ð°Ð·Ð°Ð´":3183,"ĠÐ½ÐµÐ´Ðµ":3184,"ĠÐ¸Ð·Ð¾Ð±ÑĢÐ°Ð¶":3185,"ĠÐ½Ð¾Ð²ÑĭÑħ":3186,"Ġw":3187,"ÑĥÑģÐºÐ°":3188,"....":3189,"ĠÑģÐ²Ð¾Ð¸Ð¼Ð¸":3190,"um":3191,"ĠÑĦÐ¾ÑĤÐ¾Ð³ÑĢÐ°ÑĦÐ¸":3192,"ĠÐ¼Ð½Ð¾Ð³Ð¸Ñħ":3193,"Ð²ÑĪÐ¸Ñħ":3194,"ĠÑĢÐµÑĪÐµÐ½Ð¸Ñı":3195,"ĠÑĢÐ°Ð¼ÐºÐ°Ñħ":3196,"ĠÐ¿Ð¾Ð¶":3197,"ĠâĢ¢":3198,"ĠÑģÐ°Ð¼Ð¾ÑģÑĤÐ¾Ñı":3199,"ĠÐŁÐ¾ÑĢ":3200,"ĠÑģÐºÐ°Ð·Ð°Ð»":3201,"ĠÐ²ÑĤÐ¾ÑĢÐ¾Ð¹":3202,"ĠÐ¸Ð½ÑĦ":3203,"ÑħÑĥ":3204,"Ð´ÐµÐ»":3205,"ĠÑģÐ²Ðµ":3206,"ÑĳÑĢ":3207,"ÑĤÐ¸Ð²Ð½ÑĭÐµ":3208,"ĠÑĤÐ¾Ð²Ð°ÑĢ":3209,"ĠÐľÐ¸Ð½":3210,"ĠÐºÐ¾Ð¼Ð½Ð°":3211,"ĠÐ¼Ð¾Ð¼ÐµÐ½ÑĤÐ°":3212,"ĠÐ¾ÑĤÐ²ÐµÑĤÑģÑĤÐ²ÐµÐ½":3213,"ĠÑħÐ°ÑĢÐ°ÐºÑĤÐµÑĢÐ¸ÑģÑĤÐ¸":3214,"ĠÑĩÐ»ÐµÐ½":3215,"ĠÐ¿ÑĢÐ¾Ð³ÑĢÐ°Ð¼Ð¼Ñĭ":3216,"ĠÐ´Ð¾Ð¼Ð°ÑĪ":3217,"ĠÐ½ÐµÐ¼Ð½Ð¾Ð³Ð¾":3218,"ĠÐ¾ÑĪÐ¸":3219,"Ð»ÑİÐ´Ð°":3220,"ĠÑĦÐ¸ÑĢ":3221,"ĠÐ¿ÑĢÐ¾Ð¸ÑģÑħÐ¾Ð´Ð¸ÑĤ":3222,"ĠÐ¿Ð¾ÑģÑĤÐ°Ð²":3223,"Ð¾Ð»Ð¾Ð³Ð¸Ñı":3224,"ĠÐ·Ð°Ð²ÐµÑĢ":3225,"ĠÑģÐµÐºÑģ":3226,"ir":3227,"ĠÑĩÐµÑĤÑĭ":3228,"ĠÐ¾Ð¿ÑĤÐ¸":3229,"ÐµÐ´Ð¶":3230,"ĠÐ¿Ð»Ð°Ð½":3231,"ĠÐ¿ÑĢÑıÐ¼Ð¾":3232,"ĠÐ²Ð·Ð°Ð¸Ð¼":3233,"Ð¿Ð¾Ð½":3234,"ÑīÐ°ÐµÑĤÑģÑı":3235,"ĠÐ¥Ð°":3236,"Ð¾Ð¹ÑĤÐ¸":3237,"ĠÐºÐ°Ð¿Ð¸ÑĤÐ°":3238,"ÑįÐ½":3239,"Ð¾Ð»ÑĮÐºÑĥ":3240,"iv":3241,"ĠÑħÑĢÐ°":3242,"ĠÐ¿ÑĢÐµÐ´Ð¼ÐµÑĤ":3243,"Ð·ÑĭÐ²Ð°ÐµÑĤ":3244,"Ð²Ð¸Ð´ÐµÑĤÐµ":3245,"ĠÑģÐºÐ¸":3246,"ĠÑĥÐº":3247,"ĠÐ³ÑĢÐ¸":3248,"ÑĢÐ°Ð½ÐµÐ½Ð¸Ñı":3249,"ĠÐķÐ³Ð¾":3250,"ĠÐĹÐ°ÐºÐ°Ð·ÑĩÐ¸ÐºÐ°":3251,"ĠĠĠĠ":3252,"ĠÐ£ÐºÑĢÐ°Ð¸Ð½Ñĭ":3253,".)":3254,"ĠÑĥÐ½Ð¸ÐºÐ°":3255,"ĠÐºÐ°ÑĩÐµÑģÑĤÐ²Ð¾":3256,"Ð¾Ð³Ðµ":3257,"ĠÐ³Ð»ÑĥÐ±":3258,"ÑĩÐµÑģÑĤÐ²Ð°":3259,"Ð³Ð°Ð½Ð¸":3260,"ĠÑģÐ°Ð¼Ð¾Ð¼":3261,"Ð½Ð¸ÐºÐ°Ð¼Ð¸":3262,"ÑĢÐ°Ð¹":3263,"ĠÐ±ÑĢÐ¸":3264,"ĠÐ¿ÑĢÐ¾Ð±Ð»ÐµÐ¼Ñĭ":3265,"Ð¸Ñħ":3266,"ĠÐĲÐ´":3267,"ÑĨÐ¸Ð¾Ð½Ð½ÑĭÑħ":3268,"Ð»Ð¸Ð¸":3269,"ÑĪÐ¸ÑģÑĮ":3270,"ÐĶÐ°":3271,"ĠÐºÐ»Ð°ÑģÑģÐ¸":3272,"ĠÐ¿ÑĢÐ¾Ð²ÐµÐ´ÐµÐ½Ð¸Ñı":3273,"ĠÐ½Ð°ÑħÐ¾Ð´Ñı":3274,"Ð»Ð¸Ð±Ð¾":3275,"ĠÑĥÐ¿Ð°":3276,"ĠÐ¼Ð°ÑĤ":3277,"ÐĺÐĿ":3278,"ÑĥÑĩÐ¸":3279,"Ð±ÑĥÐ´":3280,"ÑĪÐµÑĤ":3281,"ĠÑħÐ¾":3282,"33":3283,"ĠÐ¼Ð¸ÑĢÐ¾Ð²":3284,"Ġof":3285,"ÐĿÐ¾Ð²":3286,"ĠÑĤÑĢÐµÐ±Ð¾Ð²Ð°Ð½Ð¸Ñı":3287,"ĠÐ°Ð¿Ð¿Ð°ÑĢÐ°":3288,"ĠÐ¿ÑĢÐ¾Ð´Ð¾Ð»Ð¶Ð°":3289,"ĠÑģÐµÑĤ":3290,"ĠÐºÐ¾Ð¼Ð¿Ð»ÐµÐºÑģ":3291,"ĠÑģÐ»ÑĥÐ¶Ð±Ñĭ":3292,"og":3293,"ĠÐ¾Ð±Ð¾ÑĢÑĥÐ´Ð¾Ð²Ð°Ð½Ð¸Ñı":3294,"ĠÐ¸Ð½ÑĦÐ¾ÑĢÐ¼Ð°ÑĨÐ¸Ñı":3295,"ÑĢÐ¸ÑģÑĤÐ¸":3296,"Ð¾Ð²Ð°Ð»Ð¸":3297,"ĠÐĴÐ¾ÑĤ":3298,"ĠÑĦÐ¾ÑĢÐ¼Ð¸":3299,"ÑģÐ°Ð½":3300,"ĠÐ±Ð»Ð°Ð³":3301,"Ð´Ð¸Ñı":3302,"Ð¾Ð¿ÑĢÐ¾":3303,"ĠÑįÐ»ÐµÐºÑĤÑĢÐ¾":3304,"ĠÐ±ÑİÐ´Ð¶":3305,"ĠÐļÑĢÐ¾Ð¼Ðµ":3306,"ĠÑĢÐ°Ð±Ð¾ÑĤÐ°ÐµÑĤ":3307,"ÑĭÑĪÐ»ÐµÐ½":3308,"Ð¶Ð½ÑĭÐ¹":3309,"ĠÐ¾Ð¿ÑĢÐµÐ´ÐµÐ»ÐµÐ½":3310,"ÑģÑĤÐ²ÐµÐ½Ð½Ð¾Ðµ":3311,"ĠÐĴÐ»Ð°Ð´Ð¸Ð¼Ð¸":3312,"Ð±Ð¾Ð¹":3313,"ÑĨÐµÐ½Ð¸":3314,"Ð¿ÑĢÐ°Ð²Ð¸":3315,"ĠÐ¾ÑĨÐµÐ½":3316,"ĠÐ²ÐµÑģ":3317,"ĠÑħÐ°ÑĢÐ°ÐºÑĤÐµÑĢ":3318,"ĠÑĤÑĭÑģÑıÑĩ":3319,"ÐľÐĺ":3320,"Ð½Ð¾Ð²Ð°Ð½Ð¸Ñı":3321,"ĠÐ¼Ð°ÑģÑĤÐµÑĢ":3322,"Ð¾ÑĩÐ½ÑĭÐµ":3323,"ĠÐ±ÑĥÐº":3324,"ub":3325,"ĠÐºÐ¾Ð¶":3326,"ÑģÑĤÐ°ÑĤÐ¸":3327,"ĠÐ°ÑĤ":3328,"ĠÐ¾ÑĤÐ·Ñĭ":3329,"ĠÐ²Ð¾Ð·Ð´ÐµÐ¹":3330,"ĠÑĢÐ°Ð±Ð¾ÑĤÐ°ÑĤÑĮ":3331,"Ð´ÐºÐ¾":3332,"Ð¾ÑĢÐ¾ÑĤ":3333,"ĠÐ¾ÑĤÐ¿ÑĢÐ°Ð²":3334,"ĠÐ¿ÑĥÐ±Ð»Ð¸":3335,"ĠÐ²ÑģÐ¿":3336,"ĠÐ¼Ð½Ð¾Ð³":3337,"ĠÐ½Ñĥ":3338,"Ð¶Ð´Ðµ":3339,"Ð¾ÑģÐ¿":3340,"ĠÑĦÑĥÑĤ":3341,"ĠÑĢÐ°ÑģÑģÐºÐ°Ð·Ð°":3342,"ÐµÐ²Ð°":3343,"ĠÐ¾Ð±ÑĢÐ°ÑĤÐ¸":3344,"ĠÑĤÑĢÐµÑĤÑĮ":3345,"ĠÐ¡Ð°Ð¹":3346,"ĠÐºÐ¾ÑĤÐ¾ÑĢÑĥÑİ":3347,"Ð±ÑĢÐ¸":3348,"ĠÐ²Ð»Ð°ÑģÑĤÐ¸":3349,"ĠÐ±Ð»Ð¸Ð·":3350,"ĠÐ¿ÑĭÑĤÐ°":3351,"Ð·ÑĮ":3352,"ĠÐ±Ð»Ð°Ð³Ð¾Ð´Ð°ÑĢÑı":3353,"ÑģÐµÑģÑģÑĥ":3354,"Ð»ÑĥÐ¹":3355,"ĠÐ´Ð¾ÐºÑĥÐ¼ÐµÐ½ÑĤÐ°":3356,"ĠÐ¿Ð¾ÑģÑĤÐ¾ÑıÐ½Ð½Ð¾":3357,"ĠÑĤÐºÐ°":3358,"ĠÐ¾Ð±ÑıÐ·Ð°ÑĤÐµÐ»ÑĮÐ½Ð¾":3359,"ĠÐ¾Ð±Ð¾ÑĢÑĥÐ´Ð¾Ð²Ð°Ð½Ð¸Ðµ":3360,"Ð¸ÑĤÐ°Ð¹":3361,"ĠÐ¿Ð°ÑĢÑĤ":3362,"ĠÐ·Ð°Ð²Ð¸ÑģÐ¸Ð¼Ð¾ÑģÑĤÐ¸":3363,"ĠÐ²ÑĭÐ±ÑĢÐ°ÑĤÑĮ":3364,"Ġ=":3365,"ĠÑĥÐ·":3366,"ĠÐ·Ð°ÑıÐ²Ð¸":3367,"Ð´Ð¸Ð¸":3368,"ĠÑģÐ¾ÑģÑĤÐ°Ð²Ð»ÑıÐµÑĤ":3369,"ĠÐĽÐ°":3370,"ÐºÐ¾Ð»Ð°":3371,"ĠÐ¿ÑĢÐ¾Ð´ÑĥÐº":3372,"ÐļÑĥ":3373,"av":3374,"ĠÐ¿Ð¾Ð»ÑĮÐ·":3375,"Ð´Ð¾ÑĢ":3376,"ĠÐ¾ÑīÑĥ":3377,"ĠÐ¡Ð¿":3378,"ÑģÐ¾Ð»ÑİÑĤ":3379,"Ġi":3380,"ĠÐ½Ð¸Ð¶Ðµ":3381,"ÐķÐĿ":3382,"Ð·Ð¼Ð°":3383,"ĠÐ¾ÑģÐ¾Ð±ÐµÐ½Ð½Ð¾":3384,"ĠÐ±Ð°Ð»":3385,"ÑĪÐ¸ÑĤÑĮ":3386,"ĠÐ¿ÑĢÐµÐ´ÑĥÑģ":3387,"ĠÐ²Ð¿":3388,"Ð¾Ð³Ð¸Ðµ":3389,"ĠÐ´ÐµÐ¹ÑģÑĤÐ²Ð¸ÑĤÐµÐ»ÑĮÐ½Ð¾":3390,"ĠÐ¼Ð°ÑĤÐµÑĢÐ¸Ð°Ð»Ð°":3391,"Ð½ÑıÐµÑĤÑģÑı":3392,"ĠÐľÐ¾ÑģÐºÐ¾Ð²":3393,"Ð·ÐµÑĢ":3394,"ĠÑģÐ¾ÑģÑĤÐ¾":3395,"ĠÐĳÐ¸":3396,"ĠÐ°Ð²Ð³Ñĥ":3397,"36":3398,"ĠÑģÐµÐ½ÑĤ":3399,"ĠÐľÐ¾Ð»":3400,"ĠÐ±Ð¾Ð»ÑĮÑĪÐ¸Ð½":3401,"ĠÐ¾Ð±ÑĬÑıÑģ":3402,"ÑĢÐ°Ð±Ð°ÑĤÑĭ":3403,"ÑĪÐºÐ¾Ð¼":3404,"ĠÐ°ÑģÑģ":3405,"Ð½Ð¸ÑĨÐ¸Ð¿Ð°":3406,"ÑĩÐ½Ð¾ÑģÑĤÐ¸":3407,"ĠÐ·Ð°Ð¼":3408,"ĠÐºÐ¾Ð¼ÑĦÐ¾ÑĢ":3409,"ĠÑģÐ¸Ð³":3410,"77":3411,"ÑĤÐ½ÑĭÐµ":3412,"ÑħÐ²Ð°":3413,"ÑĪÐ»Ð°":3414,"ÑĳÐ»":3415,"ÑĤÐ½Ð¾":3416,"Ð´Ð¸ÑĤ":3417,"ĠÐ¾Ð½Ð¾":3418,"ĠÐ¿ÑĢÐ¾ÑģÐ¼Ð¾ÑĤ":3419,"ÑĢÐ¾Ð²ÐºÐ¸":3420,"ĠÐ´Ð¾Ð»Ð¶Ð½Ð¾":3421,"ĠÐ¸Ð·Ð¼ÐµÐ½ÐµÐ½Ð¸Ñı":3422,"Ð¾Ñĥ":3423,"ĠÐ¿ÑĢÐµÐ¿":3424,"ĠÐ¿Ð¾ÑĢÑĤÐ°":3425,"ÑĢÐµÐ¼ÐµÐ½Ð½Ð¾":3426,"ĠÐ´Ð¾Ð²Ð¾Ð»ÑĮÐ½Ð¾":3427,"34":3428,"Ð¼Ð¼":3429,"ÑĤÐ¾Ñĩ":3430,"ĠÐ¼Ð°Ð³":3431,"ĠÑĤÐ¾Ð²Ð°ÑĢÐ¾Ð²":3432,"Ġ#":3433,"ĠÐ¿ÑĢÐ¸ÑĢÐ¾Ð´":3434,"ĠÐ¿Ð¾ÑģÑĤÑĢÐ¾":3435,"ĠÑĦÐ¾Ð½":3436,"ĠÐ¿Ð¾ÑĩÐµÐ¼Ñĥ":3437,"Ð²Ð°Ð»Ð°":3438,"ĠÐļÐ°Ð·Ð°":3439,"ĠÐ¾ÑĤÐµ":3440,"Ð¶ÐµÐ¼":3441,"ĠÑģÐ¼Ð¾Ð³":3442,"ĠÑĢÑĥÐºÐ¾Ð²Ð¾Ð´Ð¸":3443,"ĠÑģÐ²Ð°":3444,"ĠÑħÑĥÐ´":3445,"ĠÐ´ÐµÐ»Ðµ":3446,"ĠÐ¿Ð»Ð¾ÑīÐ°Ð´":3447,"ight":3448,"Ð°Ð³Ð°":3449,"ĠÐ·Ð°Ð¿Ñĥ":3450,"ÑĤÑĥÑĢÐ°Ð»ÑĮ":3451,"ĠÑĢÐ°ÑģÐ¿ÑĢÐ¾ÑģÑĤÑĢÐ°Ð½":3452,"ĠÐ²Ð¾Ðº":3453,"ĠÐ·Ð°Ð¿ÑĢÐµ":3454,"ĠÑĨÐµÐ½Ðµ":3455,"ĠÐłÐ¾ÑģÑģÐ¸Ñı":3456,"ĠÐºÐ°Ð¶Ð´Ð¾Ð³Ð¾":3457,"ĠÑĥÑĢÐ¾Ð²ÐµÐ½ÑĮ":3458,"ĠÐ·Ð¾Ð»":3459,"Ð²Ð¸Ð°":3460,"ĠÐµÐ´Ð¸Ð½":3461,"Ð°Ð»ÑĮÐ½Ð¾":3462,"Ð¶ÐµÑĤ":3463,"ÑĩÐµÑģÐºÐ¾Ð¼":3464,"ĠÐ¿ÑĢÐ¸Ð³Ð¾ÑĤÐ¾Ð²":3465,"ĠÐŀÐŀÐŀ":3466,"ÐłÐ°Ð·":3467,"ĠÐ½ÐµÐµ":3468,"ĠÐ¾Ð±Ðµ":3469,"ĠÐ¿ÑĢÐ¾Ñģ":3470,"ĠÐ¼ÑĥÐ·ÑĭÐºÐ°":3471,"ĠÐ½Ð°ÑģÑĤ":3472,"ÑĩÐ°Ð»Ð°":3473,"300":3474,"ÑĪÐµÐ½Ð¸Ñİ":3475,"ĠÐ³ÑĢÑĥÐ·":3476,"Ð¾Ð¶Ð½Ð¾":3477,"ĠÐ²ÑģÑİ":3478,"ĠÐ½Ð°Ð¿Ð¸":3479,"ÑģÐºÐ¾":3480,"Ð½ÑıÐµÑĤ":3481,"Ð¿ÐµÑĩÐ°ÑĤ":3482,"ĠÑĨÐ²ÐµÑĤÐ°":3483,"ÑĤÐ¸Ð»":3484,"ĠÐ³Ð¾Ð´Ñĭ":3485,"ĠÐ·Ð°Ð³":3486,"ĠÐ£ÑģÐ»Ñĥ":3487,"ĠÐ»ÐµÑģ":3488,"ĠÐ³Ð¾Ð²Ð¾ÑĢÐ¸ÑĤ":3489,");":3490,"01":3491,"ÑĤÐµÑĢÐµÑģ":3492,"Ð»ÑĮÐ·Ñı":3493,"ÑĦÑĤ":3494,"ÑĢÑĭÐ¹":3495,"Ġthe":3496,"Ð¾Ð²Ð°Ð½Ð¸Ð¹":3497,"ĠÐĲÐ»":3498,"ÑĢÐ¾Ð´Ðµ":3499,"ĠÑĢÑĭÐ½ÐºÐµ":3500,"ĠÐ²Ð°ÑĢÐ¸Ð°Ð½ÑĤ":3501,"ĠÑģÑĤÐµÐ¿":3502,"ÑīÐµÐ½Ð¸Ð¸":3503,"ĠÑģÐ°Ð¼ÑĭÐ¹":3504,"ĠÐ¸ÑģÑĤÐ¾ÑĢÐ¸Ð¸":3505,"ĠÑĤÑıÐ¶Ðµ":3506,"ĠÐºÐ°Ð¼":3507,"ĠÐ¿ÑĢÐ¸Ñģ":3508,"ÑĩÐ¸ÑĤÑĭ":3509,"ÑģÐ°Ð¼Ð¸":3510,"one":3511,"ÐµÐ»ÐµÐ½":3512,"Ð¼Ð°ÑĢ":3513,"ĠÐļÐ¾Ð»":3514,"ĠÐ¸Ð³ÑĢÐ¾Ðº":3515,"ĠÑĤÑĢÐ°Ð½ÑģÐ¿Ð¾ÑĢÑĤ":3516,"ĠÐ²Ð°Ð»ÑİÑĤ":3517,"ÑģÑĤÐ¾Ð¼":3518,"Ð¾ÑĢÑĥÐ¶":3519,"ÑĢÐ¸ÑĤÑĮ":3520,"Ð°Ð¼ÐµÑĤ":3521,"Ð¿Ð°ÑĢ":3522,"ĠÐºÐ¾Ð¼Ð¿Ð»ÐµÐºÑĤ":3523,"ĠÑĤÑĢÐµÑħ":3524,"07":3525,"ÑĢÐµÐ±Ð¸":3526,"ÑĢÐ¸Ðº":3527,"ĠÐ°Ð½Ð³":3528,"ĠÐ¾ÑĤÐº":3529,"ĠÐĴÐµÐ»Ð¸":3530,"ĠÐ²Ð¾Ð·Ð²ÑĢÐ°":3531,"ĠÐ³ÑĢÑĥÐ¿Ð¿Ñĭ":3532,"Ð¶ÐµÑĤÑģÑı":3533,"Ð¾Ð¹Ð´ÐµÑĤ":3534,"ĠÐ·Ð°Ð¼Ðµ":3535,"ĠÐ½Ð¾Ð¼ÐµÑĢ":3536,"Ð²ÑĪÐ¸Ðµ":3537,"ĠÐºÐ¾Ð¶Ð¸":3538,"ÑģÐºÐ¾Ð»ÑĮÐºÑĥ":3539,"ĠÑģÐ°Ð¼Ð¾Ðµ":3540,"ÐµÑħÐ°":3541,"ĠÐ½Ð¾Ñģ":3542,"Ð¾Ð»Ð¾Ð³":3543,"2011":3544,"ĠÐ¾ÑĩÐ¸":3545,"ĠÐ°Ð¼ÐµÑĢÐ¸ÐºÐ°Ð½":3546,"Ð¡Ðµ":3547,"Ð·Ð¸ÑĢÐ¾Ð²Ð°Ð½":3548,"ÑĤÐ¸Ð²Ð½ÑĭÑħ":3549,"Ð¾Ð³Ð¾ÑĢ":3550,"Ð¾ÑĤÑĢÐµÐ±":3551,"ĠÐŁÐ»Ð°":3552,"ĠÐ´ÑĢÑĥÐ·":3553,"44":3554,"ĠÐ·Ð°Ð±Ñĭ":3555,"ĠÑĤÐ°Ð½":3556,"ĠÑįÑĤÐ¾Ð¼Ñĥ":3557,"65":3558,"ĠÑģÑİ":3559,"Ð»ÑĮÐ½ÑĥÑİ":3560,"ĠÐ¿ÑĢÑıÐ¼":3561,"ĠÐ¼Ð¾Ð½":3562,"ÑĦÐ¾Ð½Ð°":3563,"ÐļÐŀ":3564,"Ð¶Ð¸ÑĤÐµ":3565,"ÑĩÐµÑģÐºÐ¸Ð¼Ð¸":3566,"ÐĽÐ¬":3567,"ĠÐ¼Ð°ÑĤÐµÑĢÐ¸Ð°Ð»":3568,"ÑĮÐ¸":3569,"ÐŁÑĢÐµÐ´":3570,"ĠÑĦÐ¾ÑĢÐ¼Ñĥ":3571,"ĠÐ¿ÑĢÐ°Ð²Ð¸Ð»Ð¾":3572,"ap":3573,"Ð¸Ð´":3574,"ĠÐ¿Ð»":3575,"ĠÐļÐ¾Ð³Ð´Ð°":3576,"ĠÑģÐ¾Ð±Ð¸ÑĢÐ°":3577,"ĠÑĢÐµÐ³ÑĥÐ»Ð¸":3578,"Ð²Ð¸Ð³Ð°":3579,"ĠÐ²Ð¸Ð´Ð°":3580,"Ð»ÐµÐ³":3581,"ĠÐŁÐ°ÑĢ":3582,"ĠÑĤÐµÐ±Ðµ":3583,"Ð±Ð¸Ð»Ð¸":3584,"ĠÐ²Ð½ÑĥÑĤÑĢÐ¸":3585,"ĠÐŁÐµÑĢÐµ":3586,"ÑģÐ°Ð´":3587,"ĠÑĤÑĢÑĥÐ´Ð°":3588,"ÑĢÐµÐ³Ð¸ÑģÑĤÑĢÐ¸":3589,"Ð¸Ð½Ñĥ":3590,"Ð¾ÑĤÐ¸ÑĤÐµ":3591,"ÑĩÐ½ÑĥÑİ":3592,"ĠÐºÐ½Ð¾Ð¿":3593,"ĠÐ¡ÑĤÑĢÐ°":3594,"ĠÐµÐ²":3595,"ĠÑģÐ¾ÑģÑĤÐ°Ð²Ð»Ñı":3596,"Ð»ÐµÐ½Ð¾":3597,"32":3598,"ĠÐºÑĢÐµÐ¿":3599,"ĠÐ°Ð½Ð°Ð»":3600,"ĠÐŁÑĢÐ°Ð²Ð¸":3601,"ĠÐ²Ð¾ÑģÑģÑĤÐ°Ð½Ð¾Ð²":3602,"ÐĴÐŀ":3603,"ĠÐ¶ÐµÑģÑĤ":3604,"ĠÐ¾Ð´Ð½Ð°ÐºÐ¾":3605,"ĠÐ¸ÑģÐ¿Ð¾Ð»ÑĮÐ·Ñĥ":3606,"ĠÐ·Ð½Ð°ÑĩÐ¸ÑĤ":3607,"Ð¿Ð°Ð´":3608,"ÑģÑĤÐ²ÐµÐ½Ð½Ð°Ñı":3609,"ĠÐ±ÑĥÐ¼Ð°":3610,"ĠÐ¸ÑİÐ»Ñı":3611,"ÑĪÐ½Ð¾":3612,"ĠÑĢÐ°Ð·Ð°":3613,"ĠÐ¿Ð°ÑĤ":3614,"ÐµÐ½Ð¸Ð½":3615,"ĠÐ½ÐµÐ´Ð²Ð¸":3616,"Ð¹ÑĤÐµÑģÑĮ":3617,"ĠÐ²ÐºÑĥÑģ":3618,"Ð¸ÑĤÑĮÑģÑı":3619,"ÑĩÐ½Ð¾Ð¼":3620,"ĠÑģÐ¾Ð³Ð»Ð°Ñģ":3621,"ĠÐ°Ð´ÑĢÐµÑģ":3622,"Ð´ÐµÑĤÑģÑı":3623,"ĠÐ¿ÑĢÐµÐ´ÑģÑĤÐ°Ð²Ð»Ñı":3624,"ĠÐ¾Ð´Ð½Ð¸Ð¼":3625,"ĠÐ²ÑģÑĤÑĢÐµÑĩÐ°":3626,"ÑĪÐºÑĥ":3627,"ĠÐ¿ÑĢÐ¾Ðº":3628,"Ð³Ð¸Ñı":3629,"ÑģÐ°Ñħ":3630,"ĠÐ´ÐµÐ²":3631,"ĠÑĥÑģÐ»Ð¾Ð²Ð¸Ñı":3632,"Ð¶ÐºÐ¸":3633,"ĠÐ¼ÐµÐ»":3634,"ĠÑĢÐ°Ð¹Ð¾Ð½":3635,"ÐºÑĢÐµÑĤ":3636,"ĠÐºÐ³":3637,"ĠÐ¾ÑĤÐ»Ð¸ÑĩÐ¸":3638,"ĠÐµÐ¶Ðµ":3639,"ĠÑĤÐµÐ±Ñı":3640,"ĠÐ´ÐµÐ½ÐµÐ³":3641,"ĠÐ½ÐµÐ´Ð²Ð¸Ð¶Ð¸":3642,"ÐµÐ½Ð½ÑĭÐ¼":3643,"ĠÐ¼Ð¾Ð¸":3644,"ĠÐĿÑĥ":3645,"Ð¾ÐºÐ¾Ð¹":3646,"ÐºÑĥÐ»ÑĮ":3647,"ĠÐ¿ÑĢÐµÐ¿Ð°ÑĢÐ°":3648,"ĠÑģÐ²Ð¾Ð±Ð¾Ð´":3649,"ĠÑģÑĤÐ°Ð½Ð¾Ð²Ð¸ÑĤÑģÑı":3650,"ÑĢÐ°Ð·Ð¸":3651,"ÑĢÐ¾ÑģÐ¸":3652,"Ð»ÐµÐ¶Ð°":3653,"ĠÐ´ÐµÐºÐ°Ð±":3654,"ĠÐ¿ÐµÑĢÑģÐ¾Ð½Ð°":3655,"Ġh":3656,"ĠÑĤÑĢÐ°Ð²":3657,"Ġ--":3658,"ĠÐ´Ð¸ÑĢÐµ":3659,"ÑģÐµÑģÑģÑĥÐ°":3660,"ÑĪÑĥÑİ":3661,"ÐµÐ¼Ð¾Ð¹":3662,"ĠÐ¿ÑĢÐ¾ÑĨÐµÐ´Ñĥ":3663,"ĠÐ·Ð°Ð²Ð¸ÑģÐ¸ÑĤ":3664,"ĠÐºÐ¸Ñģ":3665,"ÑĤÐ°Ñı":3666,"ĠÐ±Ð¾Ðº":3667,"75":3668,"ĠÐ·Ð²":3669,"ĠÐ³Ð¾":3670,"ĠÐ¾ÑĤÐ²Ðµ":3671,"ĠÐ°ÐºÐºÑĥ":3672,"ĠÐ¼Ð¾Ð³Ñĥ":3673,"ĠÐĺÑģÐ¿Ð¾Ð»Ð½Ð¸ÑĤÐµÐ»ÑĮ":3674,"ĠÐ¿ÑģÐ¸Ñħ":3675,"ĠÑģÐ¼ÐµÑĢ":3676,"ĠÐ¿Ð¾Ð½":3677,"ĠÐľÐ°Ð¹":3678,"ĠÐŃÐ»ÐµÐºÑĤ":3679,"ĠÑĢÐ¾Ð»Ð¸":3680,"ĠÑģÐ¾Ð±ÑĢÐ°":3681,"ĠÐ¸Ð¼ÐµÑĤÑĮ":3682,"ÑĥÐ¿":3683,"Ð»Ð°ÐºÑĤÐ¸":3684,"ĠÐŁÐŀ":3685,"ĠÐ½ÐµÑģÐºÐ¾Ð»ÑĮ":3686,"ĠÐ¿ÑıÑĤ":3687,"ĠÑģÐ½Ðµ":3688,"ĠÐºÐ¾Ð¼Ð¼Ñĥ":3689,"ĠÐ´Ð¸Ð°Ð³":3690,"ĠÐ°Ð±ÑģÐ¾Ð»ÑİÑĤ":3691,"ab":3692,"ĠÑĢÑı":3693,"ĠÐĳÑĭ":3694,"ĠÑįÑĦÑĦÐµÐºÑĤ":3695,"ĠÐ¾ÑĩÐµÑĢÐµÐ´ÑĮ":3696,"ĠÑģÐ»Ð¾":3697,"Ð´ÐµÐ»Ð¸Ñı":3698,"ĠÐ¿ÑĢÐ¸Ð»Ð¾Ð¶":3699,"ĠÑĦÐ¾ÑĢÐ¼Ñĭ":3700,"ĠIn":3701,"ĠÐ´ÐµÐ¹ÑģÑĤÐ²Ð¸Ñı":3702,"Ð´Ð°Ð³":3703,"ĠÐ°Ð´ÑĢÐµ":3704,"ĠÐºÐ°ÑģÐ°":3705,"ation":3706,"ÑĩÐ¸ÐºÐ¾Ð²":3707,"ÑĢÐ¾Ð¼Ð°":3708,"ĠÐ¿ÑĢÐµÐ´Ð¾ÑģÑĤÐ°Ð²Ð»Ñı":3709,"ĠÐ¿Ð¾Ð¼Ð¾Ð³":3710,"ĠÐºÐ°ÑĢÑĤÐ¸Ð½":3711,"ĠÐĲÐ½Ð´":3712,"ĠÐ²Ð´":3713,"ĠÐ²ÑĭÐ¸":3714,"ÐºÑģÐ°":3715,"ĠÐ¿ÑĢÐ¸ÑħÐ¾Ð´Ð¸":3716,"ĠÑģÑĤÐ°ÑĢÐ°":3717,"ĠÑĩÐµÑĤÑĭÑĢÐµ":3718,"ail":3719,"ÑĦÑĭ":3720,"ĠÐºÐ¾ÑĤÐ¾ÑĢÑĭÐ¼":3721,"ĠÑģÐµÐ¼ÐµÐ¹":3722,"ĠÐ¼ÑıÐ³":3723,"ĠÐ¼ÐµÐ½ÑĮÑĪÐµ":3724,"ĠÐ²Ð¾Ð´Ð¸":3725,"ÑĪÑĤÐ°":3726,"ĠÐŁÐ¾ÑĤ":3727,"ÐĽÐĲ":3728,"ĠÐ½Ð¸ÐºÐ¾Ð³Ð´Ð°":3729,"ĠÐ¾ÐºÑĤÑıÐ±ÑĢÑı":3730,"06":3731,"38":3732,"ÑĩÐµÐ½Ñĭ":3733,"ĠÑĦÐ¾ÑĢÑĥÐ¼":3734,"ĠÑĥÐ¼ÐµÐ½ÑĮ":3735,"ĠÑĦÐ°Ð¹":3736,"ĠÐ´ÐµÑģÑı":3737,"Ð·ÑĭÐ²Ð°ÑĤÑĮ":3738,"ĠÑĢÑĥÐºÐ¸":3739,"ĠÑģÑĥÑĤ":3740,"ĠÐ¼Ð¾Ð¹":3741,"Ð¶ÐµÐ¹":3742,"Ð¿Ð¸Ð¾Ð½Ð°":3743,"ĠÐ¿ÑĢÐµÐ´Ð¾ÑģÑĤÐ°Ð²":3744,"ĠÑĩÑĤ":3745,"ĠÐ¿ÑĢÐ¾Ð³ÑĢÐ°Ð¼Ð¼Ð°":3746,"II":3747,"ĠÐ¿ÑĢÐ¸Ð±Ñĭ":3748,"ĠÐ²ÑĭÐ³Ð¾Ð´":3749,"ĠÑģÑģÑĭÐ»":3750,"ĠÐ¡ÐºÐ°ÑĩÐ°ÑĤÑĮ":3751,"ex":3752,"ĠÐ°ÑĥÐ´Ð¸":3753,"ĠÐºÐ¾Ð½ÑģÑĥÐ»ÑĮ":3754,"ĠÐ²ÐµÑĢÑħ":3755,"ĠÐ²Ð¾ÑģÐ¿":3756,"ãĥ":3757,"Ð·ÐµÐ¼":3758,"ĠÐ²ÑĭÐ´Ðµ":3759,"ĠÑģÑĤÐ°Ð»Ð¾":3760,"ĠÐ½Ð°ÑģÐµÐ»ÐµÐ½Ð¸Ñı":3761,"ÑĤÑĭÐµ":3762,"ĠÐ½ÐµÐ»ÑĮÐ·Ñı":3763,"ĠÐĿÐ¾Ð²Ð¾ÑģÑĤÐ¸":3764,"ĠÐ¾ÑģÑĤÐ°Ð½Ð¾Ð²":3765,"ĠÐ¿ÑĢÐ¸Ð²Ñĭ":3766,"ĠÑĢÐµÐ´Ð°":3767,"Ð¡Ð°":3768,"ÑĨÐ¸Ð¾Ð½Ð½ÑĭÐµ":3769,"ĠÐ²Ð·Ð³Ð»Ñı":3770,"ĠÐ±Ð°Ð½Ðº":3771,"ĠÐ»Ð¾Ð¶":3772,"Ð¼Ð¾Ñģ":3773,"ĠÑģÐ¼ÑĭÑģ":3774,"Ð»ÑĮÐ½Ð¾Ð¼":3775,"ÑīÐµÐ½Ð¸Ð¹":3776,"Ð·Ð¸Ñı":3777,"2010":3778,"ĠÐ¿ÐµÑĢÑģÐ¾Ð½Ð°Ð»ÑĮ":3779,"55":3780,"ĠÐºÐ¾ÑģÑĤ":3781,"ÐºÐ¸Ð½":3782,"Ð¿Ð°ÑĢÐ°ÑĤ":3783,"ĠÐ°Ð´Ð¼Ð¸Ð½Ð¸ÑģÑĤÑĢÐ°":3784,"ĠÑģÐ¾ÑģÑĤÐ°":3785,"ÑĤÐ¸Ð²Ð½Ð¾Ð¹":3786,"ĠÑĦÐ°ÐºÑĤ":3787,"ĠÑĥÐ²ÐµÐ»Ð¸Ñĩ":3788,"ĠÐłÐµÑģÐ¿ÑĥÐ±Ð»Ð¸ÐºÐ¸":3789,"ĠÑĤÐµÐ½":3790,"ÑĩÐ¸ÐºÐ¸":3791,"ĠÐĺÐ²Ð°":3792,"Ð°Ð»ÑĮÐ½ÑĭÐµ":3793,"ĠÐ¿ÐµÑĢÐ²Ð¾Ð³Ð¾":3794,"ĠÑĥÐºÐ°Ð·Ð°Ð½":3795,"ĠÐ½Ð°Ð±Ð¾ÑĢ":3796,"ĠÑĥÐ±Ðµ":3797,"Ð¾ÑģÑĢÐµÐ´":3798,"ĠÐ¾Ð´Ð½Ð¾Ð¼":3799,"ĠÐ´Ð°Ð½Ð½ÑĭÐ¹":3800,"ÐŃÑĤÐ¾":3801,"Ð³ÐµÐ¹":3802,"ĠÐ¿ÑĥÑĤÐµ":3803,"ĠÑģÐ¾Ð·Ð´Ð°Ð½Ð¸Ñı":3804,"ĠÑĥÐ½Ð¸Ð²ÐµÑĢÑģÐ¸ÑĤ":3805,"Ð²ÐµÐ¹":3806,"ĠÑĢÐ°Ð·ÑĢÐ°Ð±Ð¾ÑĤÐ°":3807,"ÐµÐ´ÑĮ":3808,"ĠÑĦÐ¾ÑĢÐ¼Ðµ":3809,"Ġ|----":3810,"Ð¾Ð²Ð¾Ð³Ð¾":3811,"Ð»ÑĮÐµ":3812,"Ð¾ÑĤÐ½Ð¾":3813,"ĠÐºÐ¾Ð½ÐºÑĢÐµÑĤ":3814,"ĠÑģÐ°Ð¼ÑĭÐ¼":3815,"ĠÐ¿Ð¾ÑĤÐ¾Ð»":3816,"ĠÐ¼ÐµÑģÑıÑĨÐµÐ²":3817,"ĠÐ´Ð°Ð»ÑĮÐ½ÐµÐ¹":3818,"ĠÐ½Ð°Ð»Ð¾Ð³Ð¾Ð²":3819,"ĠÐ¾Ð¿Ð°Ñģ":3820,"Ð±Ð°Ð½":3821,"ÑĪÐ¾Ð¹":3822,"ĠÐ¿ÑĢÐ¸ÑģÑĥÑĤ":3823,"Ð²Ð¸Ð½":3824,"ÑİÑīÐ¸Ð¼Ð¸":3825,"ÑĨÐ¸Ð¾Ð½Ð½Ð¾Ð³Ð¾":3826,"ĠÑģÐ¾Ð¾Ð±ÑīÐ°ÐµÑĤ":3827,"ĠÐ°Ð²ÑĤÐ¾Ð¼Ð¾Ð±Ð¸Ð»Ñı":3828,"ĠÐºÐ°ÑĤÐµÐ³Ð¾ÑĢÐ¸Ð¸":3829,"ĠÐ¾ÑĪÐ¸Ð±":3830,"09":3831,"ÑĢÐ¾Ð½Ð¸":3832,"ĠÐ¿ÑĢÐ¸Ð½Ð°Ð´":3833,"ĠÐ´ÑĢÑĥÐ³Ð°":3834,"48":3835,"Ð¾ÑĤÑĥ":3836,"ĠÑĥÑģÑĤÐ°Ð½Ð°Ð²Ð»Ð¸":3837,"ÑĤÐ¸Ñİ":3838,"ÑĤÐ¸ÑĦÐ¸ÐºÐ°":3839,"ÑĨÐ¸Ð¾Ð½Ð½ÑĭÐ¹":3840,"ĠÑģÐ¸Ð½":3841,"ĠÐ½Ð°Ðº":3842,"ÐĲÐ²":3843,"ĠÑģÐ»ÐµÐ´ÑĥÑİ":3844,"ÑĢÐ¾Ð·":3845,"ĠÐĳÑĥ":3846,"ÐĵÐ»Ð°Ð²":3847,"ĠÐ»ÑİÐ±Ð¾Ð²":3848,"ĠÐ¼ÑĥÐ½Ð¸ÑĨÐ¸Ð¿Ð°":3849,"ĠÐ¾ÑĤÐ½Ð¾ÑĪÐµÐ½Ð¸Ñı":3850,"ĠÐºÑĥÑĢÑģ":3851,"ĠÑģÐ¸Ð»Ñĥ":3852,"ĠÐ²Ð·ÑĢÐ¾Ñģ":3853,"03":3854,"ÑĤÐ¾Ð³Ð¾":3855,"ĠÐ¿Ð¾Ð¼Ð¾Ð¶ÐµÑĤ":3856,"ĠÑģÐ»ÑĥÑĩÐ°Ð¹":3857,"ĠÐ¿ÑĢÐ°Ð²Ð¸Ð»ÑĮÐ½Ð¾":3858,"ÑģÑĤÑĥÐ¿Ð»ÐµÐ½Ð¸Ñı":3859,"ĠÐ·Ð´Ð¾ÑĢÐ¾Ð²ÑĮÑı":3860,"ÑİÑīÐµÐµ":3861,"Ð»ÑıÐ½":3862,"ÑĢÑĥÑģ":3863,"Ð´ÐµÑĢÐ¶Ð¸":3864,"ĠÑĢÑĭÐ±":3865,"ĠÑıÐ½Ð²Ð°":3866,"Ð²ÐµÐ½":3867,"ÑĩÐµÐ½Ð¸ÐµÐ¼":3868,"ĠÐ´ÐµÑĤÐ°":3869,"ĠÐºÐ»Ð°ÑģÑģÐ°":3870,"Ð²Ð¾Ð±":3871,"Ð¾ÐºÐ¾":3872,"ÑĢÐ¾Ð²ÐºÐ°":3873,"ÐľÐĲ":3874,"ce":3875,"ĠÑģÐ¾ÐµÐ´Ð¸Ð½":3876,"ĠÑħÐ¾ÑĤÐµ":3877,"ĠÐ¿ÑĢÐµÐ¸Ð¼Ñĥ":3878,"ĠÑģÐµÑĢÑĮÐµÐ·":3879,"Ð²ÑĪÐµÐ³Ð¾":3880,"ĠÑĥÑĩÐµÑĤ":3881,"ĠÐ½ÐµÐ¼Ðµ":3882,"ĠÐ¸Ð·Ð¼ÐµÐ½Ð¸":3883,"ÑĪÐ¸Ð¼Ð¸":3884,"ĠÐ¼Ð°Ð»Ð¾":3885,"ĠÐ¿ÐµÑĢÐ²Ð¾Ð¹":3886,"ĠÐ²ÐµÑĤ":3887,"ĠÑģÐ¼Ð°":3888,"ĠÑģÐºÑĢÑĭ":3889,"ĠÐºÑĢÑĥÐ³":3890,"ĠÐ½ÐµÐ¿ÑĢÐ¸":3891,"Ð¼Ð¸Ð¸":3892,"ĠÐ¿Ð¾Ð¼Ð¾ÑīÑĮ":3893,"Ð¼Ð¾ÑĢ":3894,"ĠÐ¢Ñĥ":3895,"ik":3896,"Ġv":3897,"ĠÐ³ÑĥÐ±":3898,"ĠÐ»Ð¸ÑĤÐµÑĢÐ°":3899,"ĠÐºÐ¾Ð½ÑĨÐµ":3900,"ĠÐ»ÐµÑĩÐµÐ½Ð¸Ñı":3901,"ĠÑİÑĢÐ¸Ð´Ð¸":3902,"ĠÐ¿Ð¾ÑģÐ¾Ð±Ð¸":3903,"ÑģÑĤÐµÐ¹":3904,"ĠÐºÐ¼":3905,"ÑĢÐµÐ²Ð°":3906,"ĠÐ¿Ð¾Ð´Ð¿Ð¸":3907,"ĠÐºÑĥÑħ":3908,"ĠÐ¿Ð»Ð°ÑĤÐµ":3909,"ĠÑģÑĤÑĢÑĥÐºÑĤÑĥ":3910,"Ð±ÑĥÐ´ÑĮ":3911,"ÑĨÐ¸Ð¾Ð½Ð°":3912,"ĠÐ²Ð¾Ð·Ð½Ð¸ÐºÐ°":3913,"ĠÐ´ÑĥÑħÐ¾Ð²":3914,"ĠÐ±Ð°Ð½ÐºÐ¾Ð²":3915,"ĠÐ±Ð¸Ð·Ð½Ðµ":3916,"ob":3917,"Ð¾ÑĢÐ¾Ð½Ðµ":3918,"ĠÐ¼Ð¾Ð´Ñĥ":3919,"Ð¾Ð½ÑĤ":3920,"ĠÑģÑĤÑĢÐ¾":3921,"ĠÐ´Ð°Ð²Ð½Ð¾":3922,"Ð³ÑĢÐ°Ð´":3923,"ĠÑĢÑĭÐ½ÐºÐ°":3924,"ĠÐ¾Ð±ÑĭÑĩÐ½Ð¾":3925,"ĠÐ½ÐµÐºÐ¾ÑĤÐ¾ÑĢÑĭÐµ":3926,"49":3927,"Ð²Ð¾Ð²":3928,"ÐĿÐ¾":3929,"ĠÐ½Ð¾Ð²Ð¾Ð³Ð¾":3930,"ĠÑģÑĤÑĢÐ°ÑħÐ¾Ð²":3931,"ĠÐ¿ÑĢÐµÐ´Ð»Ð°Ð³Ð°ÐµÑĤ":3932,"ĠÐ¼Ð¾Ð´":3933,"ĠÐ¿ÑĢÐµÐ´Ð¿Ð¾Ð»":3934,"ÑģÐºÐ°ÑĤÑĮ":3935,"ĠÐĺÐ½ÑĤÐµÑĢÐ½ÐµÑĤ":3936,"ew":3937,"ÑĥÐ¼Ðµ":3938,"ĠÑĥÐ±Ð¸":3939,"Ð¸Ð½Ð³":3940,"ĠÐ¿Ð¾ÑģÐ²Ñı":3941,"ĠÑĩÐµÑĤÐ²ÐµÑĢ":3942,"ÐºÐ¾Ð³":3943,"Ð½Ð¸ÐºÑĥ":3944,"Ð»Ð°Ð¼":3945,"ÑĤÐ¸Ð¼":3946,"ĠÐ»Ð¾Ð³Ð¸":3947,"Ð°Ð»ÑĮÐ½Ð¾Ð¹":3948,"ĠÐ²Ð°ÐºÐ°Ð½":3949,"ĠÐķÐ²":3950,"ĠÐ³Ð¾ÑĢÑı":3951,"ÑİÑīÐ¸ÑħÑģÑı":3952,"ĠÐ·Ð°ÑīÐ¸ÑĤÑĭ":3953,"ÐºÐ¾Ð»Ðµ":3954,"ĠÐ¢ÑĥÑĢ":3955,"ĠÑģÐ¿ÑĢÐ°Ð²":3956,"ĠÐ²Ð°ÑĪÐµÐ³Ð¾":3957,"ĠÐ¿Ð¾ÑĤÑĢÐµÐ±Ð¸":3958,"Ġl":3959,"ÐºÐ»":3960,"ĠÐ½ÐµÐ²Ð¾Ð·Ð¼Ð¾Ð¶":3961,"ĠÐ¿ÑĢÐ¸Ð³Ð»Ð°":3962,"ĠÐ¾Ð±ÑĬÑıÐ²":3963,"ĠÐ¿ÑĢÐ¾Ð³ÑĢÐ°Ð¼Ð¼":3964,"ĠÐ¾ÑĢÐ¸Ð³Ð¸Ð½Ð°":3965,"Ġn":3966,"ÑĢÐµÐ·Ð°":3967,"ÑĢÑĥÑİÑĤ":3968,"ĠÑģÐºÐ¾Ð»ÑĮÐºÐ¾":3969,"ĠÐ±ÑĢÐµÐ½":3970,"Ð´Ð°Ð»Ð¸":3971,"ess":3972,"ĠÑĤÑĢÑĥÐ±":3973,"ÑĤÐ½ÑĭÐ¹":3974,"Ð¿Ð¾Ñĩ":3975,"ĠÐ¼ÐµÑĩ":3976,"ÑħÐ¾Ð´Ð¸ÑĤÑĮ":3977,"ĠÐ¿ÑĢÐµÐ´Ð¿ÑĢÐ¸Ð½Ð¸Ð¼Ð°":3978,"Ð²Ð¾ÑĢÐ¸":3979,"ĠÑģÑĤÑĢ":3980,"Ð¿Ð¾Ð»Ð½Ðµ":3981,"05":3982,"ĠÐ²ÑĭÐ³Ð»Ñı":3983,"ĠÑģÑĤÐ°Ð½ÐµÑĤ":3984,"ĠÑĢÐ°Ð¹Ð¾Ð½Ðµ":3985,"ĠÐ¿ÐµÐ½":3986,"ĠÑĥÐ»":3987,"ĠÐ·Ð°Ðº":3988,"ĠÐ·Ð°Ð¿Ð¾Ð»":3989,"ÐŁÐµÑĢ":3990,"ÑīÐµÑģÑĤÐ²Ð¾":3991,"ĠÐ½Ð°Ð³ÑĢÑĥÐ·":3992,"ĠÐ¾ÑĤÐºÐ°Ð·Ð°":3993,"ĠÐµÑģÑĤÐµ":3994,"ĠÐ·Ð°Ð±Ð¾Ð»ÐµÐ²Ð°Ð½Ð¸Ñı":3995,"ĠÐ±Ð¾ÑĢÑĮ":3996,"Ð»Ð°Ñı":3997,"ÑĨÐ¸Ð¾Ð½Ð½Ð¾Ð¹":3998,"Ġ>":3999,"Ð½Ð¸Ð»":4000,"ĠÐºÐ°Ð½":4001,"ĠÐĲÐº":4002,"ĠÐ½Ð¾Ð²Ð¾ÑģÑĤÐ¸":4003,"ĠÐ¸ÑģÐºÐ»ÑİÑĩÐ¸":4004,"ĠÐ·Ð¸Ð¼":4005,"ĠÐ³Ð¾ÑģÑĤÐ¸":4006,"ÑģÑĤÐ¸Ð½":4007,"Ð¶Ð¸Ð½":4008,"ĠÐ¸ÑģÐ¿Ð¾Ð»":4009,"ĠÂ»Â»Â»":4010,"Ð²ÑĪÐ¸ÑģÑĮ":4011,"ĠÐ¸Ð¼Ñĥ":4012,"ÑĢÐµÐµ":4013,"ĠÐºÐ¾Ð¼Ð¼ÐµÐ½ÑĤÐ°":4014,"ĠÐĹÐ´ÐµÑģÑĮ":4015,"Ð¶Ð´ÐµÐ½Ð¸Ð¹":4016,"ĠÐ¿ÑĢÐµÑģÑģ":4017,"ĠÐ¾Ð´Ð½Ñĥ":4018,"):":4019,"ĠÐ½Ð°ÑĤÑĥÑĢÐ°Ð»ÑĮ":4020,"ĠÐ¿Ð¾ÑģÐºÐ¾Ð»ÑĮÐºÑĥ":4021,"ÑģÐºÐ¸Ð¼Ð¸":4022,"ÐľÐĹ":4023,"ĠÐļÐ¾Ð¼Ð¿":4024,"ĠÐ¿Ð¾Ð½ÑĢÐ°Ð²Ð¸":4025,"Ġï¿½ï¿½ï¿½ï¿½":4026,"ÐµÐ¼ÑĭÐ¹":4027,"ĠÐ³ÐµÐ½ÐµÑĢÐ°":4028,"Ð´Ð¸Ð¼":4029,"Ð¾Ð¿ÑĢÐ¸":4030,"ĠâĢ¦":4031,"ĠÐĳÐµÐ»":4032,"ĠÐ¿Ð¾Ð²ÐµÑĢÑħÐ½Ð¾ÑģÑĤÐ¸":4033,"ĠÑĢÑıÐ´Ð¾Ð¼":4034,"ĠÐ½Ð°ÑĨÐ¸Ð¾Ð½Ð°Ð»ÑĮ":4035,"ÑīÐµÐ¼Ñĥ":4036,"ĠÐ¿Ð¾ÑıÐ²Ð»Ñı":4037,"ĠÐļÑĥÑĢ":4038,"ĠÐ¼Ð°ÑģÑģÐ°":4039,"ĠÐ¿ÑĢÐµÐ´ÑģÑĤÐ°Ð²Ð»ÑıÐµÑĤ":4040,"ĠÐ½ÐµÑĢ":4041,"Ð¿Ð¾Ð¼":4042,"ÐµÐ´ÐµÐ½Ð¸Ñı":4043,"ĠÐ´Ð¸Ð·Ð°Ð¹":4044,"Ð¾ÑģÐ¸Ð±Ð¸ÑĢ":4045,"ĠÐºÐ¾Ð³Ð¾":4046,"ĠÐ°ÑĢÐµÐ½":4047,"ĠÐ²ÑĭÐ·":4048,"ĠÐ¸Ð·Ð´ÐµÐ»Ð¸Ñı":4049,"ĠÑĦÐµÐ´Ðµ":4050,"Ð¢Ð°":4051,"ĠÑģÐ²Ð¾Ð¹ÑģÑĤÐ²Ð°":4052,"ÐµÐ½ÑĤÐ¸Ð»Ñı":4053,"ĠÐ¼Ð¸ÐºÑĢÐ¾":4054,"Ð»ÐµÐ²":4055,"ÑīÐ°ÑĤÑĮ":4056,"ĠÐ³Ð¸Ð´":4057,"ĠÑģÐ¾Ð²ÐµÑĢÑĪÐµÐ½Ð½Ð¾":4058,"ÑĩÐ¾Ðº":4059,"ĠÐ¿Ð¾Ð´ÐºÐ»Ñİ":4060,"ÐºÐ¾Ð½Ð°":4061,"ĠÑĤÐ¾ÑĩÐ½Ð¾":4062,"ĠÑĪÑĤÐ°":4063,"ÑģÑĤÑĢÐ°Ð¸":4064,"ĠÑģÐ²Ð¾ÐµÐ¼":4065,"ĠÐºÐ¸Ð½Ð¾":4066,"ĠÐ½ÐµÐ¿Ð¾ÑģÑĢÐµÐ´":4067,"ÐµÐ¼ÑģÑı":4068,"Ð»ÑıÑİÑĤ":4069,"ĠÐ¾Ð±ÑıÐ·Ð°Ð½":4070,"ĠÑģÐ¾ÑĤÑĢÑĥÐ´Ð½Ð¸":4071,"ÑģÐ¼Ð¾ÑĤÑĢÑı":4072,"Ð²Ð¾Ð¸":4073,"Ð»Ð¸Ð·":4074,"Ð½ÑİÑİ":4075,"ÑħÐµ":4076,"Ð²Ð¸Ñĩ":4077,"ÐŀÑģ":4078,"ĠÑħÐ²Ð°":4079,"Ð·Ð¸Ð½":4080,"Ð²Ð¾Ð´Ð°":4081,"âĢ¢":4082,"ÐĿÐ«":4083,"ĠÑģÑĤÐ°Ð»Ð°":4084,"ĠÐ²ÐµÑĩÐµÑĢ":4085,"Ð½Ð¾Ð·":4086,"ĠÐ³Ð»Ñĥ":4087,"ĠÐ³Ð°ÑĢ":4088,"ÑģÑĤÐ°Ð²ÐºÐ°":4089,"ĠÑģÐ°Ð¼Ð¾Ð³Ð¾":4090,"ĠÐºÑĥÐ´Ð°":4091,"ĠÐ³ÑĢÐ°ÑĦÐ¸":4092,"ĠÐ¾ÑĤÐ´ÑĭÑħÐ°":4093,"ÑĢÐµÐ»":4094,"Ð¢ÐĲ":4095,"Ð½Ð¸ÐºÐ°Ð¼":4096,"ĠÐºÐ¾Ð¿Ð¸":4097,"ĠÐ¼Ð°ÑģÑģ":4098,"ĠÐ§ÑĤÐ¾Ð±Ñĭ":4099,"ĠÐľÐ¸Ð½Ð¸":4100,"ĠÐºÐ½Ð¸Ð³Ð¸":4101,"ĠÐ´Ð²ÐµÑĢÐ¸":4102,"ĠÑģÑĦÐµÑĢÐµ":4103,"Ð±Ð¾Ð²":4104,"ÑĤÐ¸Ð²Ð°":4105,"ÑĤÐ¸ÐµÐ¼":4106,"ĠÐ·Ð°ÑĢÐµÐ³Ð¸ÑģÑĤÑĢÐ¸":4107,"ĠÑĤÐ°ÐºÐ°Ñı":4108,"www":4109,"ĠÑĥÐ´Ð¾Ð²Ð¾Ð»ÑĮ":4110,"art":4111,"ĠÐ´Ð²Ð¸Ð¶ÐµÐ½Ð¸Ñı":4112,"ĠÐ¿ÑĢÐ¾Ð¶Ð¸":4113,"Ð°Ð»ÑĮÐ½ÑĭÐ¹":4114,"ĠÐºÐ¾Ð½ÑĤÐ°":4115,"ĠÑģÐµÐ»ÑĮ":4116,"ĠÑĤÐµÑħÐ½Ð¾Ð»Ð¾Ð³Ð¸Ð¸":4117,"eb":4118,"ĠÐ¿Ð¾ÑĤÐµ":4119,"ĠÑĢÐµÑĨÐµÐ¿":4120,"ĠÑĢÐµÐºÐ»Ð°Ð¼":4121,"ÑĥÐ³":4122,"ÑĥÑģÑĤÐ¸":4123,"ÑĪÐ½Ð¸Ð¹":4124,"ĠÑĤÐµÐ»Ð°":4125,"ÑģÑĤÐ¾Ð¹ÑĩÐ¸":4126,"ĠÐ¶ÐµÐ½ÑīÐ¸Ð½":4127,"ĠÑģÐ½Ð¾Ð²Ð°":4128,"ÑħÐ°Ð½":4129,"Ð¶ÐºÐ°":4130,"ÑīÐ¸Ðº":4131,"ĠÐºÐ¾ÑĢÐ¾ÑĤ":4132,"all":4133,"ĠÐ´Ð¾Ð±Ð°Ð²":4134,"ĠÑĪÐºÐ¾Ð»Ñĭ":4135,"ĠÐ±Ð¾Ðµ":4136,"ĠÐ¶ÐµÐ»ÐµÐ·":4137,"ĠÐ²Ð°Ð¶Ð½Ð¾":4138,"ĠÐ´Ð¾Ðº":4139,"ÐµÐ½Ð½Ð°Ñı":4140,"ĠÑĥÑĤ":4141,"Ð¼ÑĥÐ¼":4142,"ĠÐ²Ð·Ñı":4143,"ĠÐ¸ÑģÑģÐ»ÐµÐ´Ð¾Ð²Ð°Ð½Ð¸Ñı":4144,"ĠÑĢÐµÐºÐ¾Ð¼ÐµÐ½Ð´Ñĥ":4145,"Ð¸Ð»ÑĮ":4146,"Ð´Ð½ÐµÐ²":4147,"ĠÐ½ÐµÐ´Ð°":4148,"ĠÐ²ÐµÐ´Ñĥ":4149,"ĠÐ´Ð°Ð½Ð½Ð¾Ð¹":4150,"ĠÑĩÐ¸ÑģÑĤ":4151,"ĠÐ¿ÑĢÐµÐºÑĢÐ°Ñģ":4152,"ÑĤÐ½Ð¾Ð¹":4153,"ÑģÑĤÐµÐ¼Ñĥ":4154,"ÑĤÐ¸Ð½Ð°":4155,"ÑĤÐµÐ»ÑĮÐ½Ð¾ÑģÑĤÐ¸":4156,"Ð¼Ð¾ÑĤÑĢÐµÐ½":4157,"Ð¿ÐµÑĢÐ²ÑĭÐµ":4158,"ĠÐ¼ÐµÑģÑıÑĨ":4159,"ĠÐ²Ð¾Ð¹Ð½Ñĭ":4160,"ÐºÐ»Ð¸":4161,"ÑĥÑİÑīÐ¸Ðµ":4162,"ĠÐ¼Ð°Ð³Ð°Ð·Ð¸Ð½":4163,"ĠÐ½Ð°ÑģÑĤÑĢÐ¾":4164,"ĠÑģÐ¾ÑģÑĤÐ°Ð²Ð¸":4165,"Ð¢Ðķ":4166,"ĠÐ½Ð¸Ð¼Ð¸":4167,"ĠÐ¤Ð¾ÑĢ":4168,"ĠÐ¸Ð¼ÐµÐ½Ð¸":4169,"ĠÐ²Ð°Ð½":4170,"ĠÐŁÐ¾Ñĩ":4171,"ĠÐ´ÐµÑĪÐµ":4172,"ĠÑģÐ¸Ð»ÑĮÐ½Ð¾":4173,"Ð½Ð¾ÑģÑĤÑĢÐ°Ð½":4174,"ĠÐ¿Ð¾ÑĢÑıÐ´ÐºÐµ":4175,"ĠÐ²Ð¿Ð¾Ð»Ð½Ðµ":4176,"ĠÐĲÐ»ÐµÐº":4177,"ĠÑģÐ¾ÑĩÐµÑĤÐ°":4178,"ÑĤÐ¾ÑĢÐ¾Ð¼":4179,"ĠÑģÐµÑĢÐ¸Ð¸":4180,"ĠÑĨÐ¸ÑĦ":4181,"ĠÐ½ÐµÐºÐ¾ÑĤÐ¾ÑĢÑĭÑħ":4182,"ĠÐ°Ð³ÐµÐ½ÑĤ":4183,"ĠÐ¼Ð½Ð¾Ð¶ÐµÑģÑĤÐ²Ð¾":4184,"ĠÐ°Ð²Ð³ÑĥÑģÑĤÐ°":4185,"400":4186,"up":4187,"ĠÐ¿Ð¾Ð´Ð´ÐµÑĢÐ¶Ð¸":4188,"ĠÐ¿Ð°ÑĢÐ°Ð¼ÐµÑĤ":4189,"Ð²Ð¸Ð´ÐµÑĤÐµÐ»ÑĮ":4190,"ĠÐ²Ð¾ÐºÑĢÑĥÐ³":4191,"ÑĨÐ²ÐµÑĤ":4192,"ĠÐ¾Ð±Ñģ":4193,"ĠÐĳÐµ":4194,"ĠÑģÐ»ÑĥÑĩÐ°ÑıÑħ":4195,"ĠÐºÐ»Ð¸ÐµÐ½ÑĤÐ¾Ð²":4196,"Ð½Ð¸ÐºÐµ":4197,"ĠÐ¼Ð¾Ð½ÑĤÐ°":4198,"ÐºÐ¾Ð²ÑĭÐµ":4199,"Ð¶Ð°Ð¹":4200,"ÑĨÐ°Ð¼Ð¸":4201,"ĠÑĢÐ¾Ð¶Ð´ÐµÐ½Ð¸Ñı":4202,"ĠÐ¿ÑĢÐ¾Ð²Ð¾Ð´":4203,"ĠÐ´Ð°ÐµÑĤ":4204,"ĠÐ´Ð¾ÐºÑĥÐ¼ÐµÐ½ÑĤÐ¾Ð²":4205,"ĠÐ¿ÑĢÐ¸Ð²Ð»ÐµÐºÐ°":4206,"ĠÐ¿ÑĢÐ¾Ð¼ÑĭÑĪÐ»ÐµÐ½":4207,"ĠÐ±ÐµÑĢÐµÐ¼ÐµÐ½":4208,"ÑĢÐµÑģÑģ":4209,"ĠÐ¿Ð°ÑĨÐ¸":4210,"Ð¼Ð¾ÑĤÑĢ":4211,"ĠÑĢÐ°ÑģÑħÐ¾Ð´":4212,"ĠÐ¼Ð¾Ð´ÐµÐ»ÑĮ":4213,"ĠÑĢÑĥÐºÐ¾Ð²Ð¾Ð´":4214,"ÑīÐµÐ½Ñĭ":4215,"ĠÑĢÐµÑģÐ¿":4216,"ÐĴÐ¾":4217,"Ð¼Ð¸Ð½Ð¸ÑģÑĤÑĢÐ°ÑĨÐ¸Ð¸":4218,"ĠÑĥÑģÑĤÑĢÐ¾Ð¹ÑģÑĤÐ²Ð°":4219,"ĠÐ¾ÑħÑĢÐ°":4220,"ĠÑĥÑģÐ¸Ð»Ð¸":4221,"ĠÐ²Ð¸Ð´Ð¾Ð²":4222,"ĠÐ¸Ð½ÑĤÐµÑĢÐµ":4223,"ĠÐºÐ»Ð¸ÐµÐ½ÑĤÐ°":4224,"ĠÐ±Ð¾Ð»ÑĮÑĪÐ¾Ðµ":4225,"ĠÐ½Ð°Ð»Ð¸ÑĩÐ¸Ð¸":4226,"Ð½Ð´":4227,"ÑĩÐµÐ½Ð¸Ð¹":4228,"ĠÑģÑĤÑĢÐ°Ð½Ðµ":4229,"ĠÐ¿ÑĢÐ¸Ð¼ÐµÐ½ÐµÐ½Ð¸Ñı":4230,"ĠÑĢÐ°Ð±Ð¾ÑĩÐ¸Ñħ":4231,"04":4232,"ĠÐ¾ÑĤÐ¿ÑĢÐ°Ð²Ð¸":4233,"ĠÑĥÑĢÐ¾Ð²Ð½Ðµ":4234,"ĠÑĨÐµÐ»ÑĮÑİ":4235,"ĠÐ·Ð°ÑģÐµÐ´Ð°":4236,"ĠÐ¢ÐµÐ¼":4237,"ĠÐ´ÐµÐ»Ð°ÐµÑĤ":4238,"ĠÐĲÐ²ÑĤÐ¾":4239,"ĠÐ´ÑĢÐµÐ²":4240,"ÑģÑĤÐ¸ÑĤÑĥ":4241,"ÐŀÐ´":4242,"ĠÑĩÐ°ÑīÐµ":4243,"ĠÐ¼ÐµÐ½ÐµÐ´Ð¶":4244,"ĠÐºÐ¾ÑĢÑĢÐµ":4245,"ĠÐĸÐ¸":4246,"Ġin":4247,"ĠÐ¾Ð±Ð½Ð¾Ð²":4248,"ĠÐ¿ÑĢÐµÐ´Ð»Ð¾Ð¶ÐµÐ½Ð¸Ñı":4249,"ĠÐ°Ð¿ÑĢÐµ":4250,"Ð»ÐµÐ½Ð½ÑĭÐ¹":4251,"ĠÐ¸ÑģÐ¿Ð¾Ð»ÑĮÐ·Ð¾Ð²Ð°Ð½Ð¸Ðµ":4252,"ĠÐ»ÑİÐ±Ð¸Ð¼":4253,"ĠÑģÐµÐ½ÑĤÑıÐ±ÑĢÑı":4254,"Ð¶Ð½Ð¾Ð³Ð¾":4255,"Ð±ÐµÐ»Ð¸":4256,"ĠÐºÑĥÐ»ÑĮÑĤÑĥÑĢÑĭ":4257,"ĠÐ²Ð¾Ð·ÑĢÐ°ÑģÑĤÐ°":4258,"46":4259,"ĠÑģÑĤÐ¾Ð»Ð¸":4260,"ĠÐ¼Ð°Ñı":4261,"ÑģÑĤÑı":4262,"Ð³Ð¾Ð½":4263,"Ð¶Ð½Ð°Ñı":4264,"ĠÐ½ÐµÑĥ":4265,"ĠÐ¸Ð·Ð´ÐµÐ»Ð¸":4266,"ĠÐ¼ÑĭÑĪ":4267,"ÑĢÐ°Ð»ÑĮÐ½Ð¾Ð³Ð¾":4268,"ĠÐ³Ð»Ð°Ð·":4269,"ĠÑĤÑĥÑĢÐ½Ð¸":4270,"ĠÑģÐµÐ·Ð¾Ð½":4271,"08":4272,"39":4273,"ÑĤÐ°Ð»ÑĮ":4274,"ĠÑĦÐ°Ðº":4275,"ĠÐĿÐĲ":4276,"ĠÑģÐ¾ÑģÑĤÐ¾ÑıÐ½Ð¸Ð¸":4277,"ĠÑģÐ»Ð¸ÑĪÐºÐ¾Ð¼":4278,"Ð¾ÑĦ":4279,"ĠÐ²ÑħÐ¾Ð´":4280,"ĠÐ¾ÑĨÐµÐ½Ð¸":4281,"ĠÐºÑĢÐ¾Ð¼Ðµ":4282,"ĠÐ¿ÑĢÐµÐ´Ð²Ð°ÑĢÐ¸":4283,"ĠÑĢÐµÐ³Ð¸Ð¾Ð½Ð°":4284,"ÑĪÐµÐ´":4285,"ĠÐĵÐ¾ÑĢ":4286,"est":4287,"ĠÐ³Ð¾Ð²Ð¾ÑĢ":4288,"Ð½ÐµÐ½Ð¸Ñİ":4289,"Ð»Ð¾Ð±":4290,"ĠÐ²Ð¸Ð·":4291,"ĠÐ´Ð»Ð¸Ð½":4292,"Ð½Ð¸Ð±ÑĥÐ´ÑĮ":4293,"ĠÐ¼ÑĥÐ»ÑĮ":4294,"ĠÐĴÐµÑĢ":4295,"ĠÐ¿ÑĢÐ¾ÑĤÑı":4296,"Ð°Ð½ÑĤÐ°":4297,"ÐŀÐł":4298,"ÐĽÐĺ":4299,"ÐµÐ¼Ð¾Ð³Ð¾":4300,"ĠÑģÑĤÐ°ÑĤÑĥ":4301,"ĠÑģÐ¸ÑģÑĤÐµÐ¼Ñĥ":4302,"ĠÑħÐ¾Ð»Ð¾Ð´":4303,"ÑĢÐ°ÑĤÐ¸":4304,"Ð±Ð¾Ð¼":4305,"ĠÑģÐ¾Ð´ÐµÑĢÐ¶Ð¸ÑĤ":4306,"ÑĦÐµÑĢÐµÐ½":4307,"Ð¾Ð²ÑĭÐ¹":4308,"Ð»Ð¸Ð¼":4309,"Ð¾Ð¶Ð´ÐµÐ½Ð¸Ðµ":4310,"ĠÐ¿Ð»Ð¾ÑĤ":4311,"ÑĢÐ¸ÑĨÐ°":4312,"Ð±Ð¸Ð½Ð°":4313,"ĠÑģÑĤÑĢÐ¾Ð¸ÑĤÐµÐ»ÑĮÑģÑĤÐ²Ð°":4314,"ĠÐ¾Ð±ÑģÑĥ":4315,"ĠÐ¼Ð°Ð»Ñĭ":4316,"ĠÑģÐµÑĢÐ¸":4317,"ĠÐĽÑĥ":4318,"ĠÐ¨Ð¸":4319,"ĠÑģÑĤÐ°ÑĤÑĮÐ¸":4320,"ĠÐ¾ÐºÑĢÑĥÐ¶Ð°":4321,"02":4322,"ÑĤÐºÐ°":4323,"ÑģÐ¿Ð¾ÑĢÑĤ":4324,"ĠÐ¸Ð½Ð²ÐµÑģÑĤÐ¸":4325,"ĠÑģÐ¾Ð²Ð¼ÐµÑģÑĤ":4326,"ÑģÐ¼":4327,"ÑħÐ¾Ð¼":4328,"ÑĩÐ¸ÐºÐ°":4329,"ĠÐ¼Ð°Ð»ÑĮ":4330,"ÑĪÐ°ÐµÑĤÑģÑı":4331,"ÐµÑĤÐµÑģÑĮ":4332,"ĠÐŃÐº":4333,"ĠÑĢÐ¾Ð»ÑĮ":4334,"ĠÐ»ÑİÐ±Ð¾Ð³Ð¾":4335,"ĠÐ¿ÑĢÐµÐ´Ð¿ÑĢÐ¸ÑıÑĤÐ¸Ñı":4336,"].":4337,"ÑĢÐ´":4338,"ÑĩÑĤÐ¾":4339,"ĠÐ¸Ð´ÐµÑĤ":4340,"Ð¾Ð¼Ð°Ð½":4341,"ĠÐĶÐ°Ð½":4342,"150":4343,"ÐºÑĥÑİ":4344,"ers":4345,"ĠÑĥÐ¶":4346,"ĠÐ°Ñį":4347,"ĠÑĤÐµÐ¾ÑĢÐ¸":4348,"ĠÐ¿ÑĢÐµÐ´ÑģÑĤÐ°Ð²":4349,"ĠÐ´Ð°Ð»ÐµÐµ":4350,"Ð¾ÑĩÐ½ÑĭÐ¹":4351,"ĠÐ¡ÐµÐ²ÐµÑĢ":4352,"ĠÐºÐ°Ð¼ÐµÑĢ":4353,"Ð¡Ð¸":4354,"Ð²ÐµÐ»Ð¸":4355,"ĠÐĳÐµÐ·":4356,"Ð°ÑĢÑĮ":4357,"ĠÐ´ÐµÐ¿ÑĥÑĤÐ°":4358,"Ð¾ÑģÑģÐ¸Ð¹":4359,"ĠÐºÐ°ÑĢÑĤÑĭ":4360,"ĠÐºÐ°Ð¶Ð´Ð¾Ð¹":4361,"ĠÐºÐ¾Ð¼Ð¿ÑĮÑİÑĤÐµÑĢ":4362,"Ð»ÑĥÐ¹ÑģÑĤÐ°":4363,"ÐĴÐ°":4364,"ĠÐ¾Ð´Ð½Ð¾Ð²":4365,"Ð³ÑĢÐ°ÑĤÑĮ":4366,"ĠÐ¼ÐµÑĢÐ¾Ð¿ÑĢÐ¸ÑıÑĤÐ¸Ñı":4367,"Ð¸ÑģÐ¿":4368,"ĠÐ´Ñĭ":4369,"ĠÐĹÐµÐ¼":4370,"ĠÐ½Ð°ÑĩÐ°Ð»Ðµ":4371,"ĠÐ³Ð¸Ð¿":4372,"ĠÑĨÐµÐ½ÑĤÑĢ":4373,"ĠÑįÐºÑģÐ¿Ð»ÑĥÐ°ÑĤÐ°ÑĨÐ¸Ð¸":4374,"ĠÐ²Ð·Ð°Ð¸Ð¼Ð¾Ð´ÐµÐ¹":4375,"ÑĥÐ²":4376,"ĠÐ¿ÑĢÐ¾ÑĤÐµ":4377,"ÑĤÐ¸Ð²Ð½Ð¾":4378,"198":4379,"ĠÐ¦Ð²ÐµÑĤ":4380,"ĠÐ²Ð¾ÑģÐ¿Ð¸ÑĤÐ°":4381,"ÑģÐµÐ½":4382,"ĠÐ½ÐµÐ¸Ð·":4383,"Ð¾Ð½Ð´":4384,"ĠÑĦÐµÐ²":4385,"Ð²Ð¾ÑĢÐµ":4386,"Ð´ÐµÐ¼Ð¸":4387,"ĠÐ³ÑĢÐ½":4388,"Ġe":4389,"ĠÐ·ÑĥÐ±":4390,"ĠÐ·Ð°Ð¼ÐµÑĩÐ°":4391,"ÑĦÐ¸Ð»ÑĮ":4392,"ĠÐ²ÐµÐºÐ°":4393,"ÑĢÐµÐ¼Ñı":4394,"ĠÐ¿Ð°Ð½Ðµ":4395,"Ð½Ð¸Ð»Ð¸":4396,"ÑĤÐ¸ÑĢÐ¾Ð²Ð°":4397,"ĠÐ´Ð²Ð¸Ð³Ð°ÑĤÐµÐ»Ñı":4398,"Ð¿Ð¾ÑĢÐ°":4399,"ĠÑħÐ¾ÑĤÐ¸ÑĤÐµ":4400,"ÑĤÑĭÐ¼":4401,"ĠÑģÐ¿Ð¾ÑĢÑĤ":4402,"ĠÐ½Ð¾Ð²Ð¾Ð¹":4403,"Ð¾Ð³ÑĢÐ°Ð´":4404,"ĠÑĤÐ¾Ð²Ð°ÑĢÑĭ":4405,"ĠÐ²ÐµÑģÑĮÐ¼Ð°":4406,"ĠÐ½Ð¾Ð³":4407,"ĠÐ°ÐºÑĤÑĥ":4408,"ĠÐ¿Ð¾ÑģÐ¼Ð¾ÑĤÑĢÐµÑĤÑĮ":4409,"Ð¾ÑĩÐ½ÑĭÑħ":4410,"ĠÐ´Ð¸Ð°Ð¼ÐµÑĤ":4411,"ĠÐ´Ð°Ð½Ð½ÑĭÐ¼":4412,"ÑĢÐ°Ð»ÑĮÐ½Ð¾Ð¹":4413,"ĠÐ½ÐµÐ´ÐµÐ»Ñİ":4414,"ĠÑģÐ°Ð¼Ð¾ÑģÑĤÐ¾ÑıÑĤÐµÐ»ÑĮÐ½Ð¾":4415,"Ð¸Ð¿":4416,"ĠÑģÐ°Ð½":4417,"Ð³ÐµÑĤÐ¸":4418,"ÑģÑĤÐ¸ÐºÐ°":4419,"Ð¾ÑĩÑĮ":4420,"ĠÐ·Ð½Ð°Ñİ":4421,"ĠÑĥÑĩÐ°ÑģÑĤÐ½Ð¸ÐºÐ¾Ð²":4422,"ĠÐ¼Ð°ÑĪÐ¸Ð½":4423,"ÑĪÐµÐ½Ð¸ÐµÐ¼":4424,"ĠÑģÐ°Ð¼Ð¾Ð¹":4425,"ĠÑĤÑĭÑģ":4426,"ĠÐ¾ÑģÑĥÑīÐµÑģÑĤÐ²Ð»ÑıÐµÑĤÑģÑı":4427,"ĠÑĥÐ·Ð½Ð°ÑĤÑĮ":4428,"Ð°ÑĤÐ¸":4429,"Ð»ÐµÐºÐ¾":4430,"ĠÐŁÐ¾Ð»Ð¸":4431,"Ð½ÐµÑĨ":4432,"Ð°Ð»ÑĮÐ½ÑĭÑħ":4433,"ĠÐŃÑĤÐ¾ÑĤ":4434,"ĠÐ¼Ð°ÑĪÐ¸Ð½Ñĭ":4435,"ÑĤÐ½ÑĭÑħ":4436,"Ð½Ð¾Ñģ":4437,"ÐºÑĤÑĥÑĢ":4438,"ĠÐ¢Ð¾Ð»ÑĮÐºÐ¾":4439,"ĠÐ¾ÑĢÐ³Ð°Ð½Ð¾Ð²":4440,"ĠÐ¿ÑĥÑĤÐ¸":4441,"ĠÑĥÑĩÑĢÐµÐ¶Ð´ÐµÐ½Ð¸Ñı":4442,"ĠÐµÐ²ÑĢÐ¾":4443,"ĠÐºÐ»Ñĥ":4444,"ĠÐ»Ñĥ":4445,"ĠÐłÑĥÑģ":4446,"ĠÐ¸Ð½Ð¾ÑģÑĤÑĢÐ°Ð½":4447,"ĠÐ¼Ð³":4448,"ĠÐ¡Ð¿Ð°":4449,"ĠÐ¿ÐµÐ´Ð°Ð³":4450,"ĠÐ¿Ð¾Ð²ÑĤÐ¾ÑĢ":4451,"Ð¾Ð½ÐµÑĩÐ½Ð¾":4452,"Ð´Ñı":4453,"ĠÑģÐ¾Ð¾ÑĤÐ²ÐµÑĤÑģÑĤÐ²ÑĥÑİÑīÐ¸":4454,"ĠÑıÐ²":4455,"ĠÐ¾Ð¿ÑĥÐ±Ð»Ð¸":4456,"ĠÑĢÐµÐ³ÑĥÐ»ÑıÑĢ":4457,"ĠÐ¾ÑĢÐ³Ð°Ð½Ð¸Ð·Ð¼Ð°":4458,"ÐµÐ½Ð½Ð¾Ðµ":4459,"Ð»Ð°Ð²Ð°":4460,"ÐĲÐĹ":4461,"Ð²ÐµÑĢÑĮ":4462,"1000":4463,"ÑĦÐ¸ÑĨÐ¸ÑĢÐ¾Ð²Ð°Ð½":4464,"Ð»Ð¸Ð²Ð¾":4465,"ĠÐļÐ°Ð¼":4466,"Ð´Ð¾Ñħ":4467,"ĠÐ¿ÑĢÐ¾ÑĨÐµÑģÑģÐµ":4468,"ĠÐºÐ¾Ð½ÑģÑĤÑĢÑĥÐº":4469,"ĠÑģÐ¸ÑĤÑĥÐ°ÑĨÐ¸Ð¸":4470,"ĠÐ½ÐµÑģÐºÐ¾Ð»ÑĮÐºÐ¸Ñħ":4471,"Ġg":4472,"Ð¾ÑģÑĤÑĮ":4473,"ÑģÑĤÐ¾Ðº":4474,"ĠÐ²Ð¸Ð½":4475,"Ð²Ð°Ð½Ð¸ÐµÐ¼":4476,"ĠÐ´Ð¾ÑħÐ¾Ð´":4477,"Ð°Ð»ÑĮÐ½Ð¾Ð³Ð¾":4478,"ĠÐ¿ÑĢÐ¾Ð¸Ð·Ð¾ÑĪ":4479,"ĠÐºÐ¾Ð¼Ð¿Ð°Ð½Ð¸Ð¹":4480,"ÑģÑĤÐ¾Ð²ÐµÑĢ":4481,"ĠÐ°Ð²ÑĤÐ¾Ð¼Ð¾Ð±Ð¸Ð»ÐµÐ¹":4482,"ĠÐ¾Ð±ÐµÑģÐ¿ÐµÑĩÐ¸Ð²Ð°ÐµÑĤ":4483,"ĠÐºÐ¾Ð´":4484,"ĠÐ³ÑĢÐµ":4485,"ĠÐ¡Ð²ÐµÑĤ":4486,"ĠÐ¸Ð½Ð¾Ð³Ð´Ð°":4487,"Ð»ÐµÐ½Ð½Ð¾Ð¹":4488,"ĠÑĨÐµÐ½ÑĤÑĢÐ°":4489,"ĠÐºÐ¾Ð½ÑĤÑĢÐ¾Ð»ÑĮ":4490,"Ð°Ñħ":4491,"ĠÐĴÐµÐ´ÑĮ":4492,"ÐŁÐĺ":4493,"ĠÐ¢Ð°Ð¼":4494,"ĠÐľÐ¾ÑģÐºÐ²Ð°":4495,"ĠÐŀÑģÐ½Ð¾Ð²":4496,"ĠÑıÐ½Ð²Ð°ÑĢÑı":4497,"ĠÐºÐ»ÑĥÐ±":4498,"ÑĤÐµÑĢÑĭ":4499,"ĠÐ¼Ð¾Ð·":4500,"Ð»ÑĮÐ½Ð¸Ðº":4501,"ĠÐ´Ð¾Ð»Ð³Ð¾":4502,"ĠÐ½Ð°Ð¿ÑĢÐ°Ð²Ð»ÐµÐ½Ð¸Ñı":4503,"ĠÐ£ÐºÑĢÐ°Ð¸Ð½Ðµ":4504,"ĠÐ¿Ð¾Ð¶Ð°ÑĢ":4505,"ĠÐ´ÐµÐºÐ°Ð±ÑĢÑı":4506,"ĠÐ´Ð¸Ð°Ð³Ð½Ð¾ÑģÑĤÐ¸":4507,"Ð¾ÑĢÑĥ":4508,"ĠÐ±Ð»Ð°":4509,"ĠÑĤÐ°Ð¹":4510,"ĠÐĶÑĢÑĥ":4511,"68":4512,"qu":4513,"ĠÐ¿Ð°Ðº":4514,"ĠÐºÐ»ÐµÑĤ":4515,"Ð»Ð°Ñħ":4516,"ÑĩÐ°ÑģÑĤÐ¸":4517,"ĠÑģÐµÑĢÐ¸Ñı":4518,"ĠÐ¾ÑĢÐ³Ð°Ð½Ð¸Ð·Ð°ÑĨÐ¸Ñı":4519,"ÐŁÐ¾ÑģÐ»Ðµ":4520,"ĠÑģÐµÑĢÐµ":4521,"ÑĨÐ¸Ð¾Ð½Ð¸":4522,"ÑĤÐµÐ»ÑĮÐ½ÑĥÑİ":4523,"ÑĨÐ¸ÑıÑħ":4524,"ĠÐ´ÑĢÑĥÐ³Ð¸Ð¼Ð¸":4525,"ct":4526,"ĠÐĺÐ¼ÐµÐ½Ð½Ð¾":4527,"ĠÐºÐ¾Ð½ÑĨÐ°":4528,"Ð»ÑĭÐ¼":4529,"ĠÑĢÐµÐ°Ð»Ð¸Ð·Ð°ÑĨÐ¸Ð¸":4530,"ÑĤÐµÐº":4531,"Ð´ÐµÐ¾":4532,"ĠÐ¿Ð¾ÑģÑĢÐµÐ´":4533,"ind":4534,"ort":4535,"ĠÐ¼ÐµÑģÑıÑĨÐ°":4536,"plus":4537,"ÑĮÐµÐ²":4538,"Ð´Ð°Ð»":4539,"ÑĩÐ¸Ðµ":4540,"ĠÐĶÐµÑĤ":4541,"ĠÑģÐ²ÐµÑĤÐ°":4542,"ÑīÐ°ÑĤÑĮÑģÑı":4543,"ĠÐ¿Ð¾Ð·Ð½Ð°":4544,"ĠÐ°Ð±ÑģÐ¾Ð»ÑİÑĤÐ½Ð¾":4545,"ĠÐ´ÐµÑĤÐ¸":4546,"Ð´Ð°ÐµÑĤÑģÑı":4547,"ĠÐ»Ð°Ð¼":4548,"Ð¾ÑģÐ°":4549,"Ð¡Ð¾":4550,"ĠÐºÐ¾Ð¼Ð¿Ð¾Ð½":4551,"ĠÐ¼Ð¾ÑĢÐµ":4552,"ĠÐ¸ÑİÐ½Ñı":4553,"ook":4554,"ĠÐļÐ½Ð¸":4555,"ÐºÐ¾ÑĢÐ°":4556,"ÐĲÐŀ":4557,"ÑĤÑĥÑĢÐµ":4558,"ĠÐ½Ð¸Ð¶":4559,"ÑģÑĤÐ²Ð¸ÐµÐ¼":4560,"ĠÐľÐ¾ÑģÐºÐ²Ñĭ":4561,"ĠÐŁÐ¾Ð»ÑĮÐ·Ð¾Ð²Ð°":4562,"ĠÐ¿ÑĢÐ¸Ð±Ð¾ÑĢ":4563,"Ð¾Ð´Ð°ÑĢ":4564,"ÐłÐķ":4565,"ĠÐ¾ÑģÐ²Ðµ":4566,"ĠÐ¿ÑĥÑĤÐµÐ¼":4567,"ĠÑģÐ¾ÑģÑĤÐ¾ÑıÐ½Ð¸Ðµ":4568,"ĠÐ¿ÑĢÐ¾ÑĦÐ¸Ð»Ð°ÐºÑĤÐ¸":4569,"ĠÐ±ÑİÐ´Ð¶ÐµÑĤ":4570,"ĠÐ¿Ð¾ÑģÐ¾Ð±Ð¸Ðµ":4571,"ĠÐ½Ð°Ð²ÐµÑĢ":4572,"ÑĤÑĮÐµ":4573,"ĠÐ³Ð¾ÑģÑĤ":4574,"ÑĢÑĭÐ²":4575,"Ð»ÐµÑĤÑĭ":4576,"ĠÑģÑĥÑīÐµÑģÑĤÐ²ÑĥÐµÑĤ":4577,"ĠÑĥÐ¿Ð°ÐºÐ¾Ð²":4578,"ĠÐ¿ÑĥÑĤÐµÑĪÐµ":4579,"ĠÑĢÐ°Ð²Ð½Ð¾":4580,"ÑģÑĤÐ²Ð¾Ð²Ð°":4581,"ÐĽÐŀ":4582,"ĠÑģÑĤÑĢÐ°Ñħ":4583,"ĠÐ´Ð°Ð½Ð½Ð¾Ð³Ð¾":4584,"ĠÐ¿ÐµÑĢÐ²ÑĥÑİ":4585,"ĠÐ½ÐµÐ¾Ð±ÑħÐ¾Ð´Ð¸Ð¼Ð¾ÑģÑĤÐ¸":4586,"238":4587,"Ð¡Ð¡Ðł":4588,"ĠÐ²ÑĢÐµÐ´":4589,"ĠÐ½Ð°Ð¼Ð¸":4590,"ĠÐłÐµÐº":4591,"ÑģÑĤÐ²ÐµÐ½Ð½ÑĭÐ¼":4592,"Ð¢Ðĺ":4593,"ĠÐ»ÑİÐ±Ð¾Ð¼":4594,"ĠÐ´Ð¾Ð¼Ðµ":4595,"ĠÐ¿Ð¾Ð¼ÐµÑīÐµÐ½Ð¸Ñı":4596,"ĠÐ°ÑģÑģÐ¾ÑĢÑĤÐ¸":4597,"Ð²Ð¾Ð³Ð¾":4598,"ĠÐ¿ÑĢÐµÐ²Ñĭ":4599,"ĠÐ¿Ð¾ÑĤÐµÐ½":4600,"Ð¾Ñī":4601,"ÑģÐ¾Ð½":4602,"ĠÑģÐ½Ð¸Ð¼Ð°":4603,"Ð¿ÐµÑĢÐµ":4604,"ÑĭÑħÐ°":4605,"ĠÐ¿ÑĢÐµÐ²ÑĢÐ°":4606,"ĠÐ¿ÑĢÐ¾Ð¸Ð·Ð²Ð¾Ð´Ð¸ÑĤÐµÐ»ÐµÐ¹":4607,"ĠÐ¸ÑģÐ¿Ð¾Ð»ÑĮÐ·ÑĥÐµÑĤÑģÑı":4608,"ĠÐ·Ð°ÑĤÑĢÐ°":4609,"ĠÐ¶Ð°":4610,"ĠÐĺÐ³":4611,"ĠÐĿÐ°Ð¿ÑĢÐ¸Ð¼ÐµÑĢ":4612,"ĠÑģÑĤÑĢÐ°ÑĤÐµ":4613,"ĠÐ¿Ð¾Ð·Ð´":4614,"ĠÑģÐ¾Ð¾ÑĤÐ²ÐµÑĤÑģÑĤÐ²ÑĥÑİ":4615,"ÑģÐµÑģÑģÑĥÐ°ÑĢÑĭ":4616,"ĠÑģÐºÐ¾":4617,"ÑĢÐ¸Ð¼":4618,"ÑĢÑĭÐµ":4619,"ÑĤÐ¸Ð²Ð½ÑĭÐ¹":4620,"ĠÐ¼Ð°Ð³Ð°Ð·Ð¸Ð½Ðµ":4621,"Ð±Ð»Ð¸Ð¾ÑĤÐµ":4622,"ĠÐĹÐ°ÐºÐ°Ð·ÑĩÐ¸ÐºÐ¾Ð¼":4623,"ĠÐ¾Ð¿Ð¸":4624,"Ð¾ÑĤÐ¾Ð¹":4625,"ĠÑģÐ¾Ð·Ð´Ð°ÑĤÑĮ":4626,"ĠÐ¿Ð¾ÑģÐ»ÐµÐ´Ð½Ð¸Ðµ":4627,"ĠÐ´Ð°Ð»ÑĮÑĪÐµ":4628,"ÑĢÐ¾ÑĤÐ¸Ð²":4629,"ĠÐ¾Ð±ÑĬÐµÐºÑĤÐ¾Ð²":4630,"ĠÐ¿Ð°ÑĢÑĤÐ½ÐµÑĢ":4631,"ĠÑīÐµ":4632,"ÑĩÑĤ":4633,"ÑģÐºÐ¾Ð»ÑĮÐºÐ¾":4634,"ĠÐŁÑĢÐ°Ð²":4635,"ĠÑħÐ¾Ð´Ðµ":4636,"ĠÐ¸Ð½Ð½Ð¾Ð²Ð°":4637,"ĠÑģÐ¿ÑĢÐ°":4638,"ĠÑģÐ¸Ð»Ñĭ":4639,"________":4640,"ĠÐ¿ÑĢÐµÐ´Ð½Ð°Ð·Ð½Ð°ÑĩÐµÐ½":4641,"Ð½ÐµÑĤÐµ":4642,"Ð³Ð°Ð¼Ð¸":4643,"ĠÐ¶ÐµÐ½ÑīÐ¸Ð½Ñĭ":4644,"ĠÐľÐµÐ¶Ð´Ñĥ":4645,"ĠÐ¿Ð°Ð»ÑĮ":4646,"ĠÐ½ÑĢÐ°Ð²Ð¸":4647,"ĠÐ±Ð°ÑĢ":4648,"ĠÐ²ÑĭÑĢÐ°Ð¶":4649,"ÐłÐĺ":4650,"ĠÐ²Ð¸ÑĤÐ°Ð¼Ð¸":4651,"ĠÑģÑĥÑīÐµ":4652,"ĠÐ¾ÑĤÐ½Ð¾ÑĪÐµÐ½Ð¸Ð¸":4653,"ĠÐ½Ð¸ÐºÑĤÐ¾":4654,"99":4655,"ÑĢÐ°Ð¿Ð¸":4656,"Ð¿ÑĤÐ¸":4657,"ÐµÑĢÐ½Ð°":4658,"ĠÐ½ÐµÐ¾Ð±Ñĭ":4659,"ĠÐ¿ÑĢÐ¸Ð´ÐµÑĤÑģÑı":4660,"Ð¶Ð´ÑĭÐ¹":4661,"ĠÐ¾Ð±Ð»Ð°Ð´Ð°ÐµÑĤ":4662,"ĠÐ¿Ð¾Ð²ÑĢÐµ":4663,"ĠÐ¾Ð·Ð½Ð°ÐºÐ¾Ð¼":4664,"ÑĪÐµÐ¼Ñĥ":4665,"Ð»Ð¸Ð²Ð°":4666,"ĠÐ¿Ð¾ÑģÑĤÐµ":4667,"ÐļÐ¾Ð½":4668,"ÐĿÐ¸":4669,"ĠTplus":4670,"ĠÐĿÐ¾Ð²Ð¾ÑģÐ¸Ð±Ð¸ÑĢ":4671,"ĠÐ¼Ð»Ð½":4672,"ÐŁÐµÑĤÐµÑĢÐ±ÑĥÑĢÐ³":4673,"ist":4674,"ĠÐľÐ¾Ð¶Ð½Ð¾":4675,"ÑģÑģÐ¸Ð²":4676,"ĠÑĦÐ¾ÑĢÑĥÐ¼Ð°":4677,"ĠÑĢÐ°ÑģÑĩÐµÑĤ":4678,"ĠÐ´Ð¾ÐºÑĥÐ¼ÐµÐ½ÑĤÑĭ":4679,"ĠÑĥÑģÐ¸":4680,"ĠÐ¾ÐºÑĢÑĥÐ³Ð°":4681,"ĠÐ±Ð¸Ð·Ð½ÐµÑģÐ°":4682,"ĠÑĢÐ°Ð·Ð²Ð¸ÑĤÐ¸Ðµ":4683,"ĠÑĢÐ°Ð·Ð»Ð¸ÑĩÐ½ÑĭÐµ":4684,"ĠÑįÐºÑģÐ¿ÐµÑĢ":4685,"ĠÐ½Ð¾ÑĢ":4686,"ĠÐ´Ð²":4687,"Ð½ÑĮÑĪÐµ":4688,"ĠÐ¿Ð¾Ð³Ð¸":4689,"ĠÐ¸Ð´":4690,"ÑĤÐµÑħ":4691,"ÑĢÐ¸ÑĦ":4692,"ÑĤÐ°ÑĨÐ¸Ñı":4693,"ĠÐ·ÐµÑĢÐºÐ°":4694,"ĠÐ°Ð¼":4695,"ĠÐ¿ÑĢÐ¾ÐµÐº":4696,"ĠÐ¸Ð³ÑĢ":4697,"ĠÑģÐ¸ÑģÑĤÐµÐ¼Ðµ":4698,"ĠÑħÐ¾ÑĩÐµÑĤ":4699,"ĠÐ°Ð»ÐºÐ¾Ð³":4700,"ĠÐ¼Ð°Ð½":4701,"ĠÐ´ÑĢÑĥÐ³Ð¾Ðµ":4702,"ĠÐ¼ÑĥÐ¶ÑĩÐ¸":4703,"Ð²ÑĢÐ¾Ð¿ÐµÐ¹":4704,"ÑħÐ¾ÑĤ":4705,"ĠÐ¼Ð°Ð¼":4706,"ĠÐ°Ð²Ð¸Ð°":4707,"ÑĩÐ¸Ð»":4708,"ÑīÐ¸ÐºÐ¾Ð²":4709,"ÐºÐ¾ÑģÑĤÑĮ":4710,"Ð¾ÑĩÐ½Ð¾Ð¹":4711,"ĠÑĤÐµÐ»ÐµÑĦÐ¾Ð½Ð°":4712,"ĠÐ¿Ð¾ÐºÐ¾Ð»":4713,"Ð¾Ð»Ð°Ð³Ð°":4714,"78":4715,"ĠÑĥÐ´Ð¸Ð²Ð¸":4716,"ĠÐŀÑĩÐµÐ½ÑĮ":4717,"ÐľÐµ":4718,"ĠÑĪÐºÐ¾Ð»ÑĮ":4719,"ĠÐ¼ÐµÑĤÐ¾Ð´":4720,"ĠÐľÐ°ÑĤÐµÑĢÐ¸":4721,"ĠÐ¿ÑĢÐ¾Ð´ÑĥÐºÑĤÐ¾Ð²":4722,"ĠÑĢÐ°ÑģÑģÐ¼Ð°ÑĤÑĢÐ¸":4723,"ÑĦÐµÐ¹":4724,"ĠÐ¸Ð·Ð±Ð°":4725,"ÑīÐ¸Ð¼Ð¸":4726,"ĠÑĥÑĩÐ¸ÑĤÑĭ":4727,"ĠÑģÑĨ":4728,"ÑģÐ¿ÐµÐºÑĤ":4729,"ÐºÐ¾ÑģÑĤÐ¸":4730,"Ð±ÐµÑĢÐ¸ÑĤÐµ":4731,"Ð²ÐµÐ´Ð¾Ð¼":4732,"ĠÑĥÐ¿ÑĢÐ°Ð²Ð»ÐµÐ½Ð¸Ðµ":4733,"ĠÐ³Ð»Ð°Ð²Ð½Ð¾Ðµ":4734,"ĠÐ¿Ð¾Ð±ÐµÐ´Ð¸":4735,"ĠÑĤÐµÐ¿Ð»Ð¾":4736,"ĠÐ½Ð°Ð¹Ð´":4737,"ĠÐºÐ¾Ð»ÑĮ":4738,"ĠÑĥÑĤÐ¾Ñĩ":4739,"ĠÐºÐ°Ð·Ð°":4740,"ĠÑĢÐµÐ¹":4741,"ĠÑĤÑĢÐ°Ð´Ð¸ÑĨÐ¸Ð¾Ð½":4742,"ĠÐ¾ÑĤÐ·ÑĭÐ²Ñĭ":4743,"ak":4744,"ĠÑĢÐ°Ð½":4745,"ÑģÐ¸Ð¾Ð½":4746,"ĠÐ¢Ð¾":4747,"ĠÐ¶ÐµÐ»":4748,"ĠÐ³Ð¾ÑģÑĥÐ´Ð°ÑĢÑģÑĤÐ²ÐµÐ½Ð½Ð¾Ð¹":4749,"ĠÐ²Ð¾Ð·Ð´ÑĥÑħÐ°":4750,"ĠÑĤÐµÐ»ÐµÑĦÐ¾Ð½Ñĥ":4751,"%.":4752,"ÑĢÐµÐ½ÑĤ":4753,"ÑĢÐ°Ð»":4754,"Ð³ÐµÐ½":4755,"ĠÐłÐ¸":4756,"ÑīÐ°ÑİÑĤ":4757,"ĠÐ·Ð½Ð°Ð½Ð¸Ñı":4758,"ĠÑĢÐµÐ³Ð¸ÑģÑĤÑĢÐ°":4759,"ĠÑģÑĤÐ¾Ð¸Ð¼Ð¾ÑģÑĤÐ¸":4760,"ĠÑĢÐµÐ·ÑĥÐ»ÑĮÑĤÐ°ÑĤ":4761,"ĠÑĤÑĥÑĢÐ¸":4762,"ĠÐ·ÐµÐ¼Ðµ":4763,"ĠÐ²ÑĭÐ¿ÑĥÑģÐºÐ°":4764,"Ð·Ð¸Ð´ÐµÐ½ÑĤ":4765,"ĠÑģÐ²Ð¸":4766,"Ð´ÐµÐºÑģ":4767,"Ð»ÑĥÐ´":4768,"ĠÐ¿Ð°ÑĢÑĥ":4769,"ĠÐ´Ð°Ð½Ð½Ð¾Ð¼":4770,"ĠÑģÐ¿Ð¸ÑģÐ¾Ðº":4771,"ĠÐ·Ð´Ð¾ÑĢÐ¾Ð²ÑĮÐµ":4772,"ĠÐ¿ÐµÑģÐ½Ð¸":4773,"ĠÐ¾ÑĤÐ¼ÐµÑĩÐ°":4774,"ÑĩÐ°Ñı":4775,"2000":4776,"ĠÐķÑģÑĤÑĮ":4777,"ĠÐ´Ð¾ÑĢÐ¾Ð¶":4778,"ack":4779,"ĠÐ¸ÑģÐºÐ»ÑİÑĩÐ¸ÑĤÐµÐ»ÑĮÐ½Ð¾":4780,"ĠÑģÐ½Ñı":4781,"ĠÐ³Ñĥ":4782,"ĠÑĢÐµÐ»Ð¸":4783,"ĠÐ¸Ð¼Ñı":4784,"ĠÐ²Ð»Ð°Ð´ÐµÐ»ÑĮ":4785,"ĠÐ¼ÐµÑĢÐµ":4786,"ĠÐ³Ð¾Ñģ":4787,"Ð²Ð¸Ñģ":4788,"ĠÐĶÐµÐ½ÑĮ":4789,"ĠÐ¢Ñĭ":4790,"ÐķÐĿÐĺ":4791,"ĠÐ³Ð¾ÑĢÐ¾Ð´ÑģÐºÐ¾Ð³Ð¾":4792,"ĠÐ¿ÑıÑĤÑĮ":4793,"ĠÐ¿ÑĢÐ¸ÑĪ":4794,"Ð¾Ð¿ÑĢÐ¾Ð²":4795,"ĠÐºÐ°ÑĢÑĤÐ¾":4796,"ĠÐ¶Ð¸Ð²Ð¾ÑĤÐ½ÑĭÑħ":4797,"ip":4798,"Ð¼Ð¾Ð·":4799,"ĠÑģÐ¾Ð¼":4800,"ĠÑĤÐ°Ð±":4801,"ĠÐºÐ¾Ð½ÑĤÑĢÐ°":4802,"ĠÐ²Ð°Ð¼Ð¸":4803,"ĠÑĢÐµÐ³Ð¸Ð¾Ð½Ð°Ð»ÑĮ":4804,"ĠÑĨÐµÐ½ÑĤÑĢÐµ":4805,"ĠÑģÐ¾Ð¿ÑĢÐ¾Ð²":4806,"ĠÐ¾Ð±Ð¼ÐµÐ½":4807,"ĠÐ¾ÑĤÑĩÐµÑĤ":4808,"ĠÑĤÐµÐ°ÑĤ":4809,"ÐºÐ¾Ð²Ð¾Ð¹":4810,"ĠÐĹÐ½Ð°":4811,"ÑİÑīÐ¸ÐµÑģÑı":4812,"ĠÐĿÐ¸ÐºÐ¾Ð»Ð°":4813,"ĠÑĦÐµÐ²ÑĢÐ°":4814,"ÑĤÐ½Ð¾Ð³Ð¾":4815,"ÐºÐµÑĢ":4816,"ÑģÑĤÑĢÐ¾Ð²":4817,"ÑĪÑĢÑĥ":4818,"Ð»ÑĮÐ½ÑĭÐ¼Ð¸":4819,"ĠÐ°Ð·Ð°":4820,"ĠÑĢÐ°Ð·Ð½ÑĭÐµ":4821,"ĠÑĤÐ°ÐºÐ¾Ð¼":4822,"ÐµÑģÑĤÐ¸Ð²Ð°":4823,"ÑĢÐµÐ¸":4824,"ÑĤÐµÐ¼Ð°ÑĤÐ¸":4825,"ĠÑģÑĤÐ¾Ñı":4826,"ÑĥÑĤÐ±Ñĥ":4827,"ĠÑĥÑĤÐ²ÐµÑĢÐ¶Ð´":4828,"41":4829,"ÑĤÐ°Ð¹":4830,"ĠÑĢÐ°Ð½ÑĮÑĪÐµ":4831,"ĠÐºÐ°ÐºÐ¸Ñħ":4832,"Ð³Ð°Ð»":4833,"ĠÑģÐ¸Ð»":4834,"ĠÑĤÐ¾ÑĩÐºÐ¸":4835,"Ð½ÑĥÐ»ÑģÑı":4836,"ĠÐ·Ð½Ð°ÑĩÐµÐ½Ð¸Ðµ":4837,"ÑĥÐ·":4838,"ÑĤÐ°ÐºÐ¸":4839,"ĠÑĢÑĥÐº":4840,"ĠÑĨÐµÐ½Ð°Ð¼":4841,"ĠÑģÐ¾Ð±ÑĭÑĤÐ¸Ñı":4842,"ĠÐ¿ÑĢÐµÐ¿Ð¾Ð´Ð°":4843,"ÐĵÐ»Ð°Ð²Ð½Ð°Ñı":4844,"Ð¸ÑĤÑģÑı":4845,"ÐºÐ°ÑĤÐµÑĢÐ¸":4846,"ĠÐĲÐ»ÑĮ":4847,"ĠÐĿÐ¸Ð¶":4848,"ĠÑĢÐ¸ÑģÑĥ":4849,"ĠÐ½Ð°ÑģÑĤÐ¾ÑıÑīÐµÐµ":4850,"ĠÑģÐ¾ÑģÑĤÐ¾Ð¸ÑĤ":4851,"ÐµÐ½Ñı":4852,"ĠÐ´ÑĢÐ°":4853,"Ð²Ð°Ð½Ð¸Ð¹":4854,"ĠÐ¿ÑĢÐ¾Ð·":4855,"ĠÐľÐ½Ðµ":4856,"Ð½Ð¾Ð²ÐµÐ½Ð¸Ñı":4857,"ĠÐŃÑĤÐ¸":4858,"ĠÑĤÑĢÐµÐ½Ð¸":4859,"ĠÐ±Ð°ÑĤÐ°ÑĢÐµÐ¹":4860,"ÑİÐ¼Ðµ":4861,"ĠÐ¡Ð¡Ð¡Ðł":4862,"ÑģÐ¸Ð¹":4863,"Ð¾Ð¿Ð»Ð°":4864,"ĠÑĤÐµÐºÑĥ":4865,"ĠAn":4866,"ĠÐ·Ð½Ð°ÑĩÐ¸ÑĤÐµÐ»ÑĮÐ½Ð¾":4867,"ĠÑıÐ·ÑĭÐº":4868,"ÑģÑĤÐ½Ð¾":4869,"ĠÐ±Ð»":4870,"ĠÑĨÐµÑĢ":4871,"ĠÑįÐ»ÐµÐºÑĤÑĢÐ¾Ð½Ð½Ð¾Ð¹":4872,"Ġand":4873,"ĠÐ²Ð¿ÐµÑĩÐ°ÑĤ":4874,"ÑħÐ°ÑĢ":4875,"ĠÐ¡Ð¿Ðµ":4876,"ÑĤÐµÐ»ÑĮÐ½Ð¾Ð¼":4877,"Ð»ÐµÐ½Ð½Ð¾":4878,"Ð¶Ð¸Ð¼":4879,"ÐĽÐ¸":4880,"ĠÑģÐ¾Ð±Ð°":4881,"ĠÑģÐ²Ð¾ÐµÐ¼Ñĥ":4882,"ÑģÐ»ÑĥÐ¶":4883,"ĠÐ½Ð°Ð·Ð²Ð°Ð½Ð¸Ðµ":4884,"ĠÐ¿ÑĢÐ¸Ð¼ÐµÑĢÐ½Ð¾":4885,"ĠÐ¾Ð´Ð½Ð¾Ð²ÑĢÐµÐ¼ÐµÐ½Ð½Ð¾":4886,"ĠÐ´Ð½Ð¸":4887,"Ð»ÑıÑİÑĤÑģÑı":4888,"ĠÐ²ÑĭÑģÑĤÐ°Ð²":4889,"ĠÐ»ÑİÐ´":4890,"ĠÐ¤ÑĢÐ°Ð½":4891,"ĠÑĤÑĢÐµÐ±ÑĥÐµÑĤÑģÑı":4892,"ĠÐ¢ÐµÐ¿ÐµÑĢÑĮ":4893,"ĠÐ²Ð¾Ð·Ð´ÑĥÑĪ":4894,"Ð½Ð½ÑĭÐ¹":4895,"ĠÐ²Ð¾Ð²":4896,"ÑĤÐµÐ»ÑĮÑģÑĤÐ²Ð¾Ð¼":4897,"ĠÑĤÐµÐ¼Ñĥ":4898,"ÐĴÐµ":4899,"ĠÐĵÐŀ":4900,"ĠÐ¼Ð¸Ð½Ð¸Ð¼Ð°":4901,"ĠÐ±Ð»Ð¸Ð¶Ð°Ð¹":4902,"Ð´Ð°ÑĨÐ¸Ð¸":4903,"ĠÐ¾ÑĤÐ²ÐµÑĢ":4904,"ĠÐŁÐ¾Ð¼":4905,"ĠÑģÐ²ÐµÑĢÑħ":4906,"Ð¶Ð¸ÑĤÑĮ":4907,"ĠÑĪÐºÐ°":4908,"ĠÑģÐ¾Ð³Ð»Ð°ÑģÐ½Ð¾":4909,"ĠÐ¼Ð°ÑĢÑĤÐ°":4910,"ĠÐ¡ÐµÑĢÐ³ÐµÐ¹":4911,"ĠÐ³ÑĢÐ°Ð¶Ð´Ð°":4912,"ĠÐ·Ð²Ð¾Ð½":4913,"Ð½Ð¾Ð³Ð¸Ðµ":4914,"ĠÑģÐ¾ÑĢ":4915,"ĠÐ·Ð°ÐºÑĥ":4916,"ĠÐ²Ð°ÑĪÐµÐ¹":4917,"Ð¼ÑĭÐ¼":4918,"Ð²ÐµÐ´ÐµÐ½Ð¸Ðµ":4919,"ĠÑĩÐµÐ¼Ð¿Ð¸Ð¾Ð½Ð°":4920,"Ð»Ð¾ÑĤÑĭ":4921,"ĠÑĢÐµÐ¶Ð¸Ð¼Ðµ":4922,"ĠÐ¿Ð»Ðµ":4923,"ÑģÐ¸Ð¼":4924,"Ð´Ð¸Ð´Ð°":4925,"ÐļÐĺ":4926,"ÐĶÐ¸":4927,"ĠÑįÐ»ÐµÐ¼ÐµÐ½ÑĤÐ¾Ð²":4928,"ĠÐ¿Ð¾Ð´ÑĤÐ²ÐµÑĢÐ¶Ð´Ð°":4929,"Ġ$":4930,"ĠÐ¿ÑĤÐ¸":4931,"ÑĩÐµÑĢÐ°":4932,"ĠÐ¯Ð½":4933,"ĠÐ´ÑĢÑĥÐ³Ð¸Ð¼":4934,"ĠÐĴÐ¾Ð·Ð¼Ð¾Ð¶":4935,"Ð´ÑĥÐ¼Ð°":4936,"ĠÐ¯ÐľÐĹ":4937,"ÑıÐ²Ð»ÐµÐ½Ð¸Ðµ":4938,"Ð²Ð¾Ð´Ð¸ÑĤ":4939,"ĠÐ»Ð¸ÑĨÐ¾":4940,"ĠÐĲÐ»ÐµÐºÑģÐ°Ð½Ð´ÑĢ":4941,"ÑĢÐºÑĥ":4942,"Ð»ÑĳÐ½":4943,"ÑĮÐ¼Ð¸":4944,"ĠÐ¸Ð¼Ð¸":4945,"Ð¾Ð»Ñİ":4946,"ÑĳÑĤÑģÑı":4947,"ÑĤÐ¸Ð²Ð½Ð¾Ð³Ð¾":4948,"ĠÐ»ÐµÑĩÐµÐ½Ð¸Ðµ":4949,"ĠÑĤÐµÑħÐ½Ð¸ÐºÐ¸":4950,"ĠÐ¿Ð¾Ð¿ÑĢÐ¾Ð±":4951,"ĠÑħÐ¾ÑĤÑĮ":4952,"if":4953,"ÑĤÐµÑĤ":4954,"ÑħÐ¾Ð¶Ð´ÐµÐ½Ð¸Ñı":4955,"Ð¾Ð¼ÐµÐ½":4956,"ÑĩÐ¸ÑĤ":4957,"ĠÐ¸ÑģÐ¿ÑĭÑĤÐ°":4958,"ĠÐ¿Ð¾Ð·Ð²Ð¾Ð»Ð¸ÑĤ":4959,"ĠÑĥÐºÑĢÐ°Ð¸Ð½":4960,"ĠÑģÐµÑĢÐ²Ð¸Ñģ":4961,"ĠÐ¾Ð±Ð½Ð°ÑĢÑĥÐ¶Ð¸":4962,"ĠÐ½ÐµÐ¼ÐµÑĨ":4963,"66":4964,"ÑĩÐµÐ½Ð°":4965,"ÑĨÐµÐ¼":4966,"ÑīÐ¸ÐºÐ°":4967,"ĠÐĶÐ¼Ð¸":4968,"ĠÐ¿Ð¾Ð»Ðµ":4969,"ĠÐ¿ÐµÑĢÐµÐ²Ð¾Ð·":4970,"ÐµÐ´Ñĭ":4971,"Ð¿Ð¸ÑģÐ°Ð½Ð¸Ðµ":4972,"Ð±ÑĥÑĢÐ³":4973,"ĠÑģÑĩÐ¸ÑĤÐ°ÐµÑĤÑģÑı":4974,"ĠÐ¼Ð°ÑģÐ»Ð¾":4975,"ĠÐ¿ÑĢÐ¸Ð¾Ð±ÑĢÐµÑĤ":4976,"ĠÐ¾ÐºÑĢÐ°":4977,"ĠÐ·Ð°ÐºÐ»ÑİÑĩÐ°":4978,"ĠÐ²ÑĭÑģÑĤÑĥÐ¿Ð°":4979,"ÑĪÐ¸Ð²":4980,"ĠÑĤÑĢÐ°Ð½Ñģ":4981,"ĠÐ¿Ð¾Ð»ÑĮÐ·Ð¾Ð²Ð°ÑĤÐµÐ»ÐµÐ¹":4982,"ĠÑħÐ¾ÑĩÑĥ":4983,"ĠÑĢÐ°Ð·Ð½Ð¾Ð¾Ð±ÑĢÐ°Ð·":4984,"ĠÐĴÐ»Ð°Ð´Ð¸Ð¼Ð¸ÑĢ":4985,"42":4986,"ÑĭÐ´Ñĥ":4987,"ÑĢÐµÑĤÐ°":4988,"Ð¡ÐŁ":4989,"ĠÐ¿Ð¾Ð»Ð½Ð¾Ð¼":4990,"ard":4991,"ĠÐļÐ¸ÐµÐ²":4992,"ĠÐ½Ð°Ð±Ð»ÑİÐ´Ð°":4993,"ĠÐ¿ÑĢÐ¸Ð¾Ð±ÑĢÐµÑģÑĤÐ¸":4994,"ĠÐĵÐµÑĢÐ¼Ð°":4995,"Ð°Ð»Ð°":4996,"ĠÐ²ÐµÐ½ÑĤÐ¸Ð»Ñı":4997,"ÑİÑĢ":4998,"Ð¶Ð¸Ð³Ð°":4999,"ĠÐ£Ð¿ÑĢÐ°Ð²":5000,"ĠÐ²ÐºÐ»ÑİÑĩÐ°Ñı":5001,"ĠÐ²Ð¿ÐµÑĢÐ²ÑĭÐµ":5002,"Ð²Ð°Ð»Ð¸ÑģÑĮ":5003,"ÐľÐ¸":5004,"ĠÑįÐºÑģÐº":5005,"ĠÐ²ÐµÑĢÐ¾ÑıÑĤ":5006,"ÑĢÐ°Ð»ÑĮÐ½ÑĭÐ¹":5007,"ĠÑĥÑģÑĤÐ°Ð½Ð¾Ð²ÐºÐ¸":5008,"ĠÑĩÑĥÑĤÑĮ":5009,"ĠÐłÐ°Ð±Ð¾ÑĤÐ°":5010,"ĠÐ¼Ð°ÑĢÐºÐ¸":5011,"ĠÐ¿Ð¾Ð±Ðµ":5012,"ĠÑģÐ²Ð¸Ð´ÐµÑĤÐµÐ»ÑĮ":5013,"ĠÐºÐ²Ð°":5014,"ĠÐ·Ð°ÑĢÐ°Ð±Ð¾ÑĤ":5015,"ÑģÐ¿ÐµÐº":5016,"ĠÐ¿Ð¾Ð»Ð¾Ð²Ð¸":5017,"ĠÐ·Ð°ÐºÐ°Ð·Ð°ÑĤÑĮ":5018,"ĠÐºÐ²Ð°ÑĢÑĤÐ¸ÑĢÑĭ":5019,"ĠÐ´Ð¾Ð±Ð°Ð²Ð»Ñı":5020,"Ð½ÐµÐ¼Ñĥ":5021,"Ð¿Ð¾Ð·":5022,"Ð½Ð°Ð±":5023,"ĠÑĩÐ°Ð¹":5024,"ÑįÐº":5025,"ÐºÐ¾Ð²ÑĭÑħ":5026,"ĠÐĳÐµÐ»Ð°":5027,"ÑģÑģÐ¸Ñı":5028,"ÐµÐ²Ð¾Ð¹":5029,"ĠÐ¡ÐµÐ³Ð¾Ð´Ð½Ñı":5030,"Ð¾Ð±ÑĢÐ°Ð·Ð¸":5031,"ĠÐ½ÐµÐ·Ð°Ð²Ð¸ÑģÐ¸":5032,"ĠY":5033,"ĠÐ¿Ð»Ñİ":5034,"ĠÐ¿Ð¾Ð´Ð²Ðµ":5035,"Ð»Ð¾Ðµ":5036,"Ð¸Ð·Ð²Ð¾Ð´":5037,"ĠÐ»Ð¸Ð½Ð¸Ð¸":5038,"ĠÑĨÐ²ÐµÑĤÐ¾Ð²":5039,"ĠÐ¾Ð·":5040,"ĠÐ·Ð°Ð²Ð¾Ð´":5041,"ÑģÑĤÐ°Ð»":5042,"ĠÐ¿ÑĢÐ¾ÑĨ":5043,"ĠÑĥÐ¿Ð¾ÑĤÑĢÐµÐ±":5044,"ĠÑĢÐ°Ð´Ð¸Ð°":5045,"ÐºÑĤÐ¾ÑĢÐ°":5046,"ĠÑĥÐ¼Ðµ":5047,"ĠÐ¾ÑĤÑģ":5048,"ĠÑĩÐ°ÑģÐ°":5049,"Ð¾ÑĤÐ¾ÑĢÑĭÐµ":5050,"ĠÐŁÐ¾ÑĢÐ½Ð¾":5051,"47":5052,"ud":5053,"Ð¶Ð½Ð¾ÑģÑĤÐ¸":5054,"ÑįÐ¹":5055,"ĠÑĢÐµÐ°Ðº":5056,"ÐŁÐ°":5057,"ĠÐ¼ÐµÐ¶":5058,"ĠÑģÐ¿Ð¾ÐºÐ¾Ð¹":5059,"ĠÐ¿ÐµÑĢÐµÐ¼Ðµ":5060,"ÑīÐ¸ÑħÑģÑı":5061,"ĠÑģÑĤÐµÐ¿ÐµÐ½Ð¸":5062,"ie":5063,"ĠÐ½Ð°Ñĩ":5064,"Ð´Ð°Ð¼":5065,"ĠÐ»ÑĮ":5066,"Ð¡ÑĤÐ°":5067,"ÑĢÐ¾Ð²ÑĭÐµ":5068,"ĠÑĢÑĥÐºÐ°Ð¼Ð¸":5069,"ĠÐ¿Ð¸ÑīÐµ":5070,"ĠÐ°Ð½Ð³Ð»Ð¸Ð¹":5071,"ĠÑĢÐµÑģÐ¿ÑĥÐ±Ð»Ð¸":5072,"ĠÐ°Ð¿ÑĢÐµÐ»Ñı":5073,"ĠÐĻ":5074,"Ð¿Ð°Ð½":5075,"ĠÐ½Ð°ÑĢ":5076,"ĠÐ½Ð°Ð¿Ð¾Ð»":5077,"ĠÐ·Ð²ÐµÐ·":5078,"ÑĢÐ¾ÑģÑĤ":5079,"ĠÐ·Ð°Ð¼ÐµÐ½":5080,"ĠÐľÐµÑĤ":5081,"ĠÐĿÐµÑĤ":5082,"ĠÐŃÑĤÐ°":5083,"ĠÐ·Ð½Ð°ÑĤÑĮ":5084,"ĠÐ´Ð¾Ð»Ð³":5085,"ĠÐ¶Ð¸Ð´ÐºÐ¾":5086,"ĠÐ²ÑĭÐ¿Ð¾Ð»Ð½":5087,"ĠÐ´Ð¾ÑģÑĤÐ°Ð²ÐºÐ¾Ð¹":5088,"Ð¿ÑĤÐ¾Ð¼":5089,"ÑĨÐ°Ð¼":5090,"Ð²Ð°Ð½Ð¸Ñİ":5091,"Ð¾Ð½ÑĥÑģ":5092,"ĠÐºÐ°Ð½Ð°":5093,"ĠÐ¿ÑĢÐ¸Ð·":5094,"ÐŀÐĿ":5095,"ĠÐ¾Ð±ÑĬÐµÐºÑĤÐ°":5096,"Ð§ÑĤÐ¾":5097,"ĠÐ¾ÑģÐ½Ð¾Ð²Ð½Ð¾Ð¼":5098,"ĠÐºÐ¾Ð»Ð¸ÑĩÐµÑģÑĤÐ²Ð°":5099,"ĠÐ¾ÑĢÐ³Ð°Ð½Ð¸Ð·Ð°ÑĨÐ¸Ð¹":5100,"ÐµÑĢÐ¾Ð¼":5101,"ĠÐ½ÐµÐ´ÐµÐ»Ð¸":5102,"ĠÑĢÐ°Ð´Ð¾":5103,"ĠÐ¡Ðº":5104,"ĠÐĶÐ¸Ð½":5105,"ÐĲÑĢ":5106,"ĠÑģÑĥÐ¿ÐµÑĢ":5107,"ĠÐ¼Ð¾Ð³Ð»Ð¸":5108,"ell":5109,"ĠÑģÑĤÐ¾ÑĢÐ¾Ð½Ñĥ":5110,"ox":5111,"ĠÑģÐ¾Ñħ":5112,"Ð»ÐµÐ½Ð½Ð¾Ð³Ð¾":5113,"ĠÑħÐ¸Ð¼Ð¸":5114,"ĠÑģÐºÐ¸Ð´":5115,"ÑģÐ½ÑĭÐµ":5116,"ÑĥÐ¿ÑĢÐµ":5117,"ĠÐºÐ²Ð°Ð»Ð¸":5118,"ĠÐ±ÐµÐ½":5119,"ÐºÐ°Ð´ÐµÐ¼Ð¸":5120,"ÑįÑĢ":5121,"Ð³Ð°ÑĢ":5122,"ĠÑģÑĥÐ±ÑĬ":5123,"AN":5124,"Ð¾ÑĨÐ¸":5125,"ĠÑģÐ»Ñĭ":5126,"ÑĢÐµÑģÑĤ":5127,"ĠÐ½Ð°Ð³":5128,"ĠÐ¡ÑĤÐ¾":5129,"ÑĩÐ°ÑİÑĤ":5130,"ÑĤÐµÐ»ÑĮÐ½ÑĭÐ¼Ð¸":5131,"ĠÐĳÐ»Ð°Ð³Ð¾Ð´Ð°ÑĢÑı":5132,"ĠÐºÐ¾Ð¼Ð°Ð½Ð´":5133,"ĠÐ¼ÑĭÑģÐ»Ð¸":5134,"ĠÐ»ÐµÐºÐ°ÑĢ":5135,"ĠÐ´ÐµÐ²ÑĥÑĪÐºÐ°":5136,"120":5137,"ĠÐ¶Ð°Ð»":5138,"ÐŁÐµÑĢÐµ":5139,"ĠÑģÑĤÐ°ÑĤÐ¸":5140,"ĠÐ´Ð¸ÑģÐº":5141,"ĠÐºÐ¾ÑĢÐ¾Ð±":5142,"2009":5143,"ĠÑĦÑĥÐ½ÐºÑĨÐ¸Ð¸":5144,"ĠÐ´ÐµÐ²ÑĥÑĪÐºÐ¸":5145,"ĠÐļÑĢÑĭÐ¼":5146,"ĠÑģÐ¾ÑģÑĤÐ°Ð²Ðµ":5147,"ck":5148,"Ð¼ÑĥÑĢ":5149,"Ð²Ð°Ð¹":5150,"Ð´Ð°Ð¼Ð¸":5151,"ĠÐ²ÑĭÐ¿Ð»Ð°":5152,"ĠÐµÐ²ÑĢÐ¾Ð¿ÐµÐ¹":5153,"ĠÑģÑĥÐ´ÐµÐ±":5154,"ĠÑģÐµÐºÑģÑĥ":5155,"ĠÑĥÐ´Ð°Ð»Ð¾ÑģÑĮ":5156,"600":5157,"ast":5158,"ĠÐ·ÑĢÐµÐ½Ð¸Ñı":5159,"ĠÐŁÑĢÐ¾Ð²":5160,"Ð½ÐµÑĢÐ°":5161,"ĠÐ¿ÑĢÐµÐ´ÐµÐ»Ð°":5162,"ĠÐ´ÐµÑıÑĤÐµÐ»ÑĮÐ½Ð¾ÑģÑĤÑĮ":5163,"ĠÐ·ÐµÐ»ÐµÐ½":5164,"ĠÐ·Ð°Ð¿ÑĢÐ¾":5165,"ĠÑĤÐ¾Ð¹":5166,"ĠÐ²ÑĭÐ²Ð¾Ð´":5167,"ĠÐĺÑħ":5168,"Ð¸Ð·Ð²Ð¾Ð´Ð¸":5169,"ĠÐ¼ÐµÐ±ÐµÐ»ÑĮ":5170,"ĠÐ¿ÑĢÐµÐ¶Ð´Ðµ":5171,"Ð¾ÑĩÐºÐ°":5172,"ĠÐ¾Ð±ÐµÑģÐ¿ÐµÑĩÐµÐ½Ð¸Ñı":5173,"ÑĦÐµÑģÑģÐ¸Ð¾Ð½Ð°Ð»ÑĮ":5174,"ĠÐ²ÑģÐµÐ¼Ð¸":5175,"ĠÐ°Ð³ÑĢÐµ":5176,"ĠÐ¾Ð±ÑĥÑĩÐµÐ½Ð¸Ñı":5177,"ĠÐ¿Ð¾ÑĤÐµÑĢÑı":5178,"ĠÐ¿ÑĢÐ¸Ð²Ð»Ðµ":5179,"ĠÐ¸ÑģÑĤÐ¾ÑĢÐ¸Ñı":5180,"ĠÐ´ÑĢÑĥÐ·ÑĮÑı":5181,"Ð½ÐºÐ¸":5182,"ĠÐ¾Ð²Ð¾":5183,"ÑĢÐ¸ÐºÐ°":5184,"ĠÑĢÐ°Ð½ÐµÐµ":5185,"ĠÑħÑĢÐ°Ð½ÐµÐ½Ð¸Ñı":5186,"ĠÐ²ÐµÑīÐ¸":5187,"Ð¾Ð½ÐµÑĨ":5188,"ĠÑĨÐµÐ»Ð¾Ð¼":5189,"ĠÐ¿ÑĢÐ°Ð²Ð¸Ð»Ð°":5190,"2008":5191,"ĠÐ²ÑĭÐ¿Ð¾Ð»Ð½Ñı":5192,"ĠÑħÐ¾ÑĩÐµÑĤÑģÑı":5193,"43":5194,"Ð¿Ð¿":5195,"ĠÑģÐ¾ÑĢÐµÐ²":5196,"ĠÐ¿ÑĢÐµÐ´ÑģÐµÐ´Ð°":5197,"Ð½ÑĥÑĤÑĮÑģÑı":5198,"ĠÑģÐµÑĢÐ´":5199,"ĠÐ¿ÑĢÐ¾ÑĤÐ¸Ð²Ð¾Ð¿":5200,"Ð²ÑģÐµ":5201,"ÑĩÐ½ÑĭÐ¼Ð¸":5202,"Ð¿Ð»Ð¾Ð¼":5203,"ĠÐ²ÑĭÐ±Ð¸ÑĢÐ°":5204,"ĠÐŀÐ´Ðµ":5205,"ÐĴÐ¸":5206,"ĠÐ²Ð¾ÑģÑĤ":5207,"ĠÐ¼Ð°ÑģÐ»Ð°":5208,"ĠÑģÑĥÐ¼Ð¼Ñĥ":5209,"ĠÑĤÐµÐºÑģÑĤ":5210,"ĠÐ¿ÑĢÐµÐ´ÑĥÑģÐ¼Ð¾ÑĤÑĢÐµÐ½":5211,"Ð¡ÐµÐ³Ð¾Ð´Ð½Ñı":5212,"ÑģÑĳ":5213,"ĠÐ¼Ð¾Ðµ":5214,"ĠÑĢÐµÐ°":5215,"ĠÐĹÐ°Ðº":5216,"ĠÐ²Ð¾ÑģÐ¿ÑĢÐ¸":5217,"ĠÐºÑĢÐ¾Ð²Ð¸":5218,"ĠÐ°Ð½Ð°Ð»Ð¾Ð³Ð¸":5219,"eg":5220,"ĠÐ´Ð¾ÐºÐ°Ð·Ð°":5221,"Ð¾ÑĢÐ¾Ð¼":5222,"ÐĲÐĿ":5223,"ĠÐ·Ð½Ð°Ð¼ÐµÐ½Ð¸":5224,"ĠÐ§ÐµÐ¼":5225,"ĠÐ»ÑĥÑĩÑĪÐ¸Ðµ":5226,"ĠÑģÑĢÐ¾ÐºÐ¸":5227,"ĠÐ¼ÐµÑĤÐ¾Ð´Ð¸":5228,"ĠÑĤÐ¾ÑĢÑĢÐµÐ½ÑĤ":5229,"ĠÐ¿ÑĢÐ¾ÑĨÐµÑģÑģÐ°":5230,"ĠÑĦÐ¸Ð»ÑĮÐ¼":5231,"ĠÐ½Ð°Ð»Ð¸ÑĩÐ¸Ðµ":5232,"ÐºÑĤÐ°":5233,"ĠÐ²Ð½ÐµÑģ":5234,"ĠÐºÑĢÐµÐ¼":5235,"ÑĤÐ¸Ð²Ð¸":5236,"Ð¼Ð¸Ð½Ð°":5237,"ĠÐ¡Ñĭ":5238,"Ð²Ð¸Ð»Ð¸":5239,"ĠÐ¿Ð¾Ð´ÑħÐ¾Ð´Ð¸ÑĤ":5240,"Ð°Ð»ÑĮÐ½Ð°Ñı":5241,"ĠÐ²ÑĭÑģÐ¾ÐºÐ¾Ð¹":5242,"ĠÐ²Ð¾Ð´Ð¾Ð¹":5243,"ĠÑģÐ¿ÐµÑĨÐ¸Ð°Ð»Ð¸ÑģÑĤÑĭ":5244,"ÑĦÐ¸ÐºÐ°ÑĨÐ¸Ð¸":5245,"ĠÐļÑĢÐ°ÑģÐ½":5246,"ĠÐ±Ð°Ð·Ðµ":5247,"ĠÐ°Ð´ÑĢÐµÑģÑĥ":5248,"ĠÐ¿Ñĭ":5249,"Ð¾Ð²Ñĭ":5250,"ĠÐ´ÑĢÐµ":5251,"ÑĨÐµÐ¹":5252,"Ð¿Ð°Ð·":5253,"ĠÂ·":5254,"ĠÐ¿Ð¾Ð¼Ð¾ÑĩÑĮ":5255,"ĠÐ·Ð½Ð°ÐµÑĤ":5256,"ĠPro":5257,"ĠÐ¾ÑģÐ½Ð¾Ð²Ð½ÑĭÑħ":5258,"ĠÑĥÑģÐ»Ð¾Ð²Ð¸Ð¹":5259,"ĠÐ¾ÑĤÑĤÐµÐ½":5260,"ĠÐºÐ°Ð»ÐµÐ½":5261,"Ð½ÐµÑģÑĤÐ¸":5262,"ĠÐ¸Ð½Ð¶ÐµÐ½":5263,"ĠÐ¿Ð»Ð°ÑĤ":5264,"ĠÐ¾Ð±Ð»Ð°ÑģÑĤ":5265,"ord":5266,"ĠÑĤÐ¸Ð¿":5267,"ĠÐŀÑģÐ¾Ð±":5268,"ĠÐľÐ¾ÑģÐºÐ¾Ð²ÑģÐºÐ¾Ð¹":5269,"ÑĩÐµÐ½Ð¸Ñİ":5270,"Ð¶ÑĥÑĤ":5271,"Ð¾ÑĤÐ¾Ðº":5272,"ĠÐ¿Ð¾Ð´Ñģ":5273,"ĠÐĵÐ¾Ñģ":5274,"ĠÐ¾ÑģÐ½Ð°":5275,"ĠÑĪÑĤ":5276,"ĠÐ¿Ð¾Ð»ÑĥÑĩÐ¸Ð»":5277,"ĠÑĢÐµÐ·ÑĥÐ»ÑĮÑĤÐ°ÑĤÑĭ":5278,"ĠÑĥÑĩÐµÐ½Ð¸":5279,"ĠÐ½ÐµÐ´Ð¾ÑģÑĤÐ°":5280,"ĠÐ°ÑĢÑħÐ¸ÑĤÐµ":5281,"ĠÐ½ÐµÐ¿Ð¾ÑģÑĢÐµÐ´ÑģÑĤÐ²ÐµÐ½Ð½Ð¾":5282,"ĠZ":5283,"ÑĤÐ¸ÑĤ":5284,"ÑįÐºÐ¾Ð½Ð¾Ð¼Ð¸":5285,"Ð¼Ð°Ñħ":5286,"ÑĤÐ¾Ð²Ð¾Ð¹":5287,"ĠÐ¶ÐµÐ½ÑīÐ¸Ð½Ð°":5288,"ĠÐ¸Ð·Ð²ÐµÑģÑĤÐ½Ð¾":5289,"ĠÐ°ÑĤÐ¼Ð¾Ñģ":5290,"ĠÐ´Ð¾Ð±Ð¸":5291,"ĠÐļÐ¾":5292,"ĠÑĢÐµÐ·Ð¸":5293,"ĠÐ¸Ð·Ð´Ð°":5294,"ÑĢÐ¾Ð²Ð¾Ð¹":5295,"ÑģÐºÐ°Ð·Ð°":5296,"ĠÐ´Ð¸Ð½Ð°Ð¼Ð¸":5297,"ĠÑĢÐ°ÑģÐ¿Ð¾Ð»Ð°Ð³Ð°":5298,"ĠÐ¸ÑģÑħÐ¾Ð´":5299,"ĠÐ¿ÐµÑĢÑģÐ¾Ð½Ð°Ð»ÑĮÐ½ÑĭÑħ":5300,"ĠÐºÐ°Ð±Ð¸Ð½":5301,"ÑĤÐµÐ»ÑĮÑģÑĤÐ²":5302,"ĠÐ²Ð¸Ð´Ñĭ":5303,"ĠÑģÐ°Ð¼Ð°":5304,"ĠÐ²ÐµÑĢÑģÐ¸Ð¸":5305,"ÑĢÐ¾Ð²Ð°Ð½Ð½ÑĭÐ¹":5306,"ÑĥÑİÑīÐ¸Ñħ":5307,"Ð¼ÑĥÐ»ÑıÑĤÐ¾ÑĢ":5308,"ĠÑĤÐºÐ°Ð½Ð¸":5309,"ER":5310,"ÑıÑĢ":5311,"ĠÑģÐ´Ðµ":5312,"ĠÐºÐ²":5313,"ÑĪÐºÐµ":5314,"ĠÐ¿Ð¾ÑģÑĤ":5315,"ĠÐ±ÑĥÐ´ÐµÐ¼":5316,"ĠÐ°ÐºÑĨÐ¸Ð¸":5317,"ĠÑĨÐµÐ»Ð¸":5318,"ĠÐ´ÐµÐ»Ð°ÑİÑĤ":5319,"ĠÐ°Ð´Ð¼Ð¸Ð½Ð¸ÑģÑĤÑĢÐ°ÑĨÐ¸Ð¸":5320,"ĠÐĹÐ°ÐºÐ°Ð·ÑĩÐ¸Ðº":5321,"ĠÐ³ÑĢÑĥÐ¿Ð¿Ð°":5322,"ĠÐ³Ð¾Ð²Ð¾ÑĢÐ¸ÑĤÑĮ":5323,"----------------":5324,"ĠÑĥÐ²Ð¸Ð´ÐµÑĤÑĮ":5325,"ÑĢÐµÐ½Ð¸Ðµ":5326,"Ð²Ð¾Ð¼":5327,"ÑĮÐµÑĢÐ°":5328,"Ð»Ð°Ð±":5329,"ÑĤÐ°ÐµÑĤ":5330,"Ð²Ð°Ð»ÑģÑı":5331,"ĠÐ·Ð°Ð¹":5332,"Ð¡ÐĲ":5333,"ĠÑħÐ»Ð¾Ð¿":5334,"ÑĪÐ°ÑİÑĤ":5335,"ĠÐ²Ð¾Ð¿ÑĢÐ¾ÑģÐ°Ð¼":5336,"ĠÐ¿ÑĢÐµÐ´ÑģÑĤÐ°Ð²Ð»ÐµÐ½Ñĭ":5337,"ĠÐ¿Ð¾Ð¼Ð¾Ð³Ð°ÐµÑĤ":5338,"ĠÑĥÑĩÐµÐ½":5339,"ĠÑĥÑģÑĤÐ¾Ð¹ÑĩÐ¸":5340,"ĠÐ·Ð°ÑĤ":5341,"ĠÑįÐºÑĢÐ°":5342,"ÑģÐ¿Ð¾ÑģÐ¾Ð±":5343,"ĠÐĽÑĥÑĩ":5344,"ĠÑĪÑĤÑĥ":5345,"ÑĢÐ¾Ð²Ð°Ð½Ð½ÑĭÐµ":5346,"ĠÐ¸ÑģÐ¿Ð¾Ð»ÑĮÐ·Ð¾Ð²Ð°Ð½Ð¸Ð¸":5347,"ĠÐºÑĥÐ»ÑĮÑĤÑĥÑĢ":5348,"Ð±ÐµÑĢÐµ":5349,"ĠÐºÐ¾Ð¿":5350,"Ð³ÐµÑĢ":5351,"ÑįÐ½ÐµÑĢ":5352,"Ð´Ð¸Ð¹":5353,"ĠÐ¿Ð¾Ð´ÑħÐ¾Ð´":5354,"Ð»Ð¾Ð½Ð°":5355,"ĠÐ±ÑĭÐ²Ð°ÐµÑĤ":5356,"ĠÐºÐ¾Ð¼Ñĥ":5357,"ĠÐ»Ð¸ÑĩÐ½Ð¾":5358,"ĠÑĦÐµÐ²ÑĢÐ°Ð»Ñı":5359,"Ð¾Ð¼ÐµÑĤ":5360,"ĠÑĥÐºÐ°Ð·ÑĭÐ²Ð°":5361,"ĠÐ¾Ð±ÑģÑĤÐ¾Ñı":5362,"ÑĢÐ¾Ð²Ð°ÑĤÑĮÑģÑı":5363,"ÐĶÐĲ":5364,"ĠCh":5365,"ĠBl":5366,"ĠÐ¼Ð°ÐºÑģÐ¸Ð¼Ð°Ð»ÑĮÐ½Ð¾":5367,"ĠÐ±ÑĢÐ¸Ð³Ð°":5368,"ĠÐ¾ÑĢÑĥÐ¶Ð¸":5369,"ÑĢÐ¸Ñģ":5370,"ĠÐ¾Ð±ÑīÐµÐ¼":5371,"ĠÐºÐ°Ð´":5372,"Ð¾ÑĩÐ½Ð¾Ð³Ð¾":5373,"ĠÐ¼ÐµÑĤÑĢÐ¾Ð²":5374,"ĠÐ¼Ð°ÑĢÑĪÑĢÑĥ":5375,"ĠÐºÐ¾ÑģÐ¼ÐµÑĤÐ¸":5376,"ĠÐ½ÐµÐ´Ð²Ð¸Ð¶Ð¸Ð¼Ð¾ÑģÑĤÐ¸":5377,"ĠÐºÐ°Ð½Ð´Ð¸Ð´Ð°":5378,"Ð¸Ð»Ð°":5379,"ĠÐ¸Ð·Ð±Ðµ":5380,"Ð³Ð¾Ð²Ð¾ÑĢ":5381,"Ð¦ÐµÐ½ÑĤ":5382,"ĠÐºÐ°ÑĤÐ°Ð»Ð¾Ð³":5383,"ĠÑģÐ¾ÐºÑĢÐ°":5384,"ĠÐ·Ð°ÑıÐ²Ð¸Ð»":5385,"ĠÐ±ÑĢÐ¾":5386,"ĠÑĢÐ°ÑģÑĤÐ²":5387,"ĠÐłÑĭ":5388,"ĠÐ¤Ð°":5389,"ĠÐ¿ÑĢÐ¾Ð´Ð°Ð¶":5390,"ĠÑģÐ¼Ð¾Ð¶ÐµÑĤ":5391,"th":5392,"Ð´Ð¾Ð²Ð°":5393,"ÑĢÐ¸Ð»":5394,"ĠÑįÐ¼Ð¾":5395,"Ð¾Ð·Ñĭ":5396,"ÑĪÐ¸ÑĤÐµ":5397,"Ð¡Ð°Ð¼":5398,"ĠÐĳÐ°ÑĢ":5399,"ĠÐºÐ¾Ð½ÑĤÑĢÐ¾Ð»Ñı":5400,"ĠÑģÐ»Ð¾Ð²Ð°Ð¼":5401,"Ð²Ð¾Ð»Ñİ":5402,"ĠÐ¿ÐµÑĤ":5403,"ÑħÐ¾Ð¹":5404,"ĠÐ¿Ð¾ÑģÑĤÐ°Ð½Ð¾Ð²":5405,"ĠÐ¸Ð·ÑĥÑĩ":5406,"ĠÐĲÐ½Ð³":5407,"ÐºÐ¾Ð²Ð¾":5408,"Ð±Ð¾ÑĢÐµ":5409,"ÐĽÑİ":5410,"ĠÐ¿ÐµÑĢÐ²ÑĭÐµ":5411,"ĠÐ³Ð¾Ð²Ð¾ÑĢÑıÑĤ":5412,"ĠÐ°Ð·Ð°ÑĢÑĤ":5413,"Ð¸Ðµ":5414,"Ð½Î¿":5415,"ĠÐ¿Ð¾Ñį":5416,"ĠÐ¾Ð±Ð¾Ð¸":5417,"ĠÐ¿ÐµÑĢÐµÐ²Ð¾Ð´":5418,"ĠÑĢÐ°Ð±Ð¾ÑĤÐ°ÑİÑĤ":5419,"ĠHD":5420,"ĠÐ³Ð¾ÑĤÐ¾Ð²Ñĭ":5421,"ĠÐ¼ÐµÑĤÐ°Ð»Ð»Ð¸":5422,"ĠÑģÐ¾Ð¶":5423,"ĠÐ±Ð»Ð°Ð³Ð¾Ð´Ð°":5424,"Ð¸Ð½ÑĤÐµÑĢÐµÑģ":5425,"Ð¢ÐŁ":5426,"ĠÐ½Ð¾ÑĥÑĤÐ±Ñĥ":5427,"Ð²ÑĭÐ¼Ð¸":5428,"ĠÑĨÐµÐ»ÑıÑħ":5429,"ĠÑĢÐ¸ÑģÐº":5430,"ĠÑĢÐµÐ¶Ð¸Ð¼":5431,"ĠÐºÐ¾Ð¼Ð°Ð½Ð´Ñĭ":5432,"ĠÑģÑĤÐµÐºÐ»Ð¾":5433,"Ð·Ð¸Ð´ÐµÐ½ÑĤÐ°":5434,"67":5435,"Ġ%":5436,"ÑİÐ·":5437,"ÑİÐ·Ð°":5438,"ĠÐ°Ð´Ð°":5439,"ĠÐŁÐ¾Ð¿":5440,"Ð¼Ð°ÑĤ":5441,"ĠÐ¾Ð´ÐµÐ¶Ð´Ñĭ":5442,"**":5443,"ÑıÐ·":5444,"ÑĢÐµÐ»Ð¸":5445,"Ð³Ð¾Ð¼":5446,"Ð»ÑıÐ±Ð¸Ð½":5447,"ĠÑĢÐ°ÑģÐ¿ÑĢÐµÐ´Ðµ":5448,"ĠÐ¸Ð½ÑģÑĤÑĢÑĥÐ¼ÐµÐ½ÑĤÐ°":5449,"Ð¾ÑĩÐ¸":5450,"ĠÐ¡ÑĢÐµÐ´":5451,"ĠÐ¿ÑĢÐ¾ÑģÑĤÐ¸ÑĤÑĥÑĤ":5452,"Ð³Ð¸ÑģÑĤÑĢÐ°":5453,"ĠÐĳÐ¾Ð³":5454,"ĠÑĦÐ¸Ð»Ð¾Ñģ":5455,"Ð´ÐµÑĢÐ¶Ð°":5456,"ĠÐ´Ð¾ÑģÑĤÐ¸Ð³Ð°":5457,"ĠÐ¾ÑĤÐ»Ð¸ÑĩÐ½Ð¾":5458,"ĠÐ¿Ð¾Ð´Ð°ÑĢÐ¾Ðº":5459,"ĠÐºÐ¾Ð¶Ñĥ":5460,"85":5461,"95":5462,"ĠÐ¿ÑıÑĤÐ¸":5463,"ÑģÑĤÐ°Ñı":5464,"ÑģÑĤÐ¸ÐºÐ¸":5465,"ĠÐ¿Ð¾Ð»Ð½Ð¾":5466,"ĠÐ¢Ð¾ÑĢ":5467,"ÑĢÐ°Ð·Ð´Ð¾":5468,"ĠÐ¨Ð°":5469,"ĠÑĤÑĢÐµÐ±ÑĥÐµÑĤ":5470,"ĠÐłÐ°Ð·Ð¼ÐµÑĢ":5471,"ĠÐ¸ÑģÑĤÐ¾ÑĩÐ½Ð¸ÐºÐ°":5472,"ĠÑĥÐ´Ð¾Ð²Ð»ÐµÑĤ":5473,"ĠÐ½Ñĭ":5474,"ĠÐ½Ð¾Ð¶":5475,"ĠÐ½Ð°ÑģÑĤÑĢÐ¾Ð¹":5476,"ĠÑĩÐµÐ¼Ñĥ":5477,"ĠÐ·Ð°Ð¼ÐµÑĤÐ¸":5478,"ĠÐ¾ÑĤÐ´Ð°":5479,"ÐĳÐŀ":5480,"ÐµÑģÐ¿Ð»Ð°ÑĤ":5481,"ĠÐ¿ÑĢÐ¾Ð²ÐµÑģÑĤÐ¸":5482,"ĠÑģÑĤÑĢÐ°Ð½Ð¸ÑĨÐµ":5483,"ĠÐ²ÑģÐµÐ¼Ñĥ":5484,"Ð¦Ðĺ":5485,"ĠÑĢÐ°Ð·Ð¼ÐµÑīÐµÐ½Ð¸Ñı":5486,"ĠÑĢÐ¾Ð´Ð¸ÑĤÐµÐ»ÐµÐ¹":5487,"Ð½Ð°ÑĩÐµ":5488,"ĠÐºÑĢÐ°Ñı":5489,"Ð§ÑĤÐ¾Ð±Ñĭ":5490,"ĠÐ¼ÑĥÐ¶ÑĩÐ¸Ð½":5491,"ÑģÐ¾ÑĤÐ°":5492,"ĠÐ´Ð¾ÑģÑĤÐ°Ð²ÐºÐ¸":5493,"ĠÐ¸ÑĤÐ¾Ð³Ðµ":5494,"ÑģÐ°Ð¼":5495,"ÑĢÐ½ÑĭÐµ":5496,"Ð»Ð°ÑģÑĤÐ¸":5497,"ÑģÑĤÐ¸ÑĩÐµÑģÐºÐ¾Ð¹":5498,"ĠÐ¾ÑĤÐ´ÐµÐ»Ð°":5499,"ĠÐ¡ÐŁ":5500,"ĠÐļÐ¸ÑĤÐ°":5501,"ĠÐ¸Ð·Ð¼ÐµÑĢ":5502,"ÑīÐ¸Ð½Ð°":5503,"ĠÑĢÐ°Ð·ÑĢÑĥ":5504,"ĠÐ¿ÑĢÐµÐ´ÑĭÐ´Ñĥ":5505,"ĠÑģÐµÐ²ÐµÑĢ":5506,"ĠÐ¿Ð°ÑģÑģÐ°":5507,"ĠÐ¼ÑĭÑģ":5508,"ĠÐ²ÑĭÐ¿Ð¾Ð»Ð½ÐµÐ½Ð¸Ñı":5509,"ĠÑĢÐ°Ð·Ð´ÐµÐ»Ðµ":5510,"ĠÐ²Ð¾ÑģÐ¿Ð¾Ð»ÑĮÐ·Ð¾Ð²Ð°":5511,"OS":5512,"Ð¶ÐµÐ½Ð¸ÐµÐ¼":5513,"ĠÑĤÑīÐ°":5514,"ĠÐ¡ÐľÐĺ":5515,"ĠÐ¢Ð¾Ð³Ð´Ð°":5516,"ÑĤÐ¸Ð²Ð½Ð°Ñı":5517,"ĠÑĢÐ¾ÑģÑĤÐ°":5518,"ĠÐ¢ÐµÐ»Ðµ":5519,"ĠÐ¾Ð¿ÑĤÐ¸Ð¼Ð°":5520,"ĠÐ½Ð°Ð³ÑĢÐ°":5521,"Ð²Ð°Ð¶Ð°":5522,"Ð»ÑıÑĨÐ¸Ð¸":5523,"ĠÐ¿Ð¾ÑģÑĤÑĢÐ°":5524,"Ð´Ð°Ñħ":5525,"ĠÐ¸ÑģÐ¿Ð¾Ð»ÑĮÐ·Ð¾Ð²Ð°Ð½Ð¸ÐµÐ¼":5526,"ĠÐ¾ÑģÑĤÐ°ÐµÑĤÑģÑı":5527,"ĠÑĩÐ¸ÑģÐ»Ð¾":5528,"ĠÑĦÑĥÑĤÐ±Ð¾Ð»":5529,"ĠÐ£ÑģÐ»ÑĥÐ³Ð¸":5530,"ĠÐ¿ÑĢÐ¾ÑĤÑıÐ¶ÐµÐ½Ð¸Ð¸":5531,"ĠÑģÐ°Ð»":5532,"ĠÐ´ÐµÐº":5533,"ÑģÑĤÐ°Ð¼Ð¸":5534,"ĠÐ¿Ð¾Ð´Ð½Ñı":5535,"ĠÐĽÐµÐ½Ð¸Ð½":5536,"ĠÐºÐ¾ÑĢÐ¿Ð¾ÑĢÐ°":5537,"ĠÐ¢Ð°ÐºÐ¸Ð¼":5538,"ĠÐ¿ÑĢÐ¾Ð¸Ð·Ð²Ð¾Ð´ÑģÑĤÐ²Ð¾":5539,"Ð¾Ð±ÑĢÐ°Ð·Ð¾Ð²Ð°":5540,"ĠÐ¼ÐµÑħÐ°Ð½Ð¸Ð·Ð¼":5541,"ĠÐ¾ÑĤÐ¼ÐµÑĤÐ¸ÑĤÑĮ":5542,"Ð±Ð¾Ðº":5543,"Ð½Ð°ÑĩÐ°":5544,"ĠÐ¾ÑĤÐ¿Ñĥ":5545,"ÐŁÑĢÐµ":5546,"ÑĢÐ°Ð·Ð´Ðµ":5547,"Ð¶Ð´Ð°Ñı":5548,"ĠÐ´Ð²ÑĥÐ¼Ñı":5549,"ĠÐ¾ÐºÐ°Ð·Ð°Ð½Ð¸Ñı":5550,"ĠÑģÑĢÐ°Ð²Ð½ÐµÐ½Ð¸Ñİ":5551,"Ð²Ð°ÑİÑīÐ¸Ðµ":5552,"ÑĦÐ»Ð¸":5553,"ĠÐ¾Ð±ÑīÐµÐ³Ð¾":5554,"ĠÐºÐ°Ð±Ðµ":5555,"ĠÐ»Ð¸ÑĨÐµÐ½":5556,"ĠÐ¸ÑģÐ¿Ð¾Ð»Ð½":5557,"Ð¾ÑģÑĤÐ¾Ð²":5558,"ĠÐĸÐµÐ½":5559,"ĠÐ¸ÑģÑģÐ»ÐµÐ´Ð¾Ð²Ð°":5560,"ĠÐºÐ¾Ð½ÑģÑĤÑĢÑĥÐºÑĨÐ¸Ð¸":5561,"ĠÐ¿Ð¾Ð¼Ð¾Ð³ÑĥÑĤ":5562,"ĠÐ¿ÑĢÐµÐ´Ð¿Ð¾Ð»Ð°Ð³Ð°":5563,"io":5564,"ĠÐ¿Ð»ÐµÐ½":5565,"Ð±Ð°Ð¹":5566,"Ð¾Ð±Ñĥ":5567,"ĠÐ·Ð°ÐºÐ°Ð·ÑĩÐ¸":5568,"Ð¡Ð¾Ð²":5569,"ĠÐºÐ¾Ð½ÑĨ":5570,"ĠÐ²Ð°ÑĪÐ¸":5571,"ĠÐ¿ÐµÑĩÐ°":5572,"ĠÐ»ÑİÐ±ÑĭÑħ":5573,"ĠÐ¾ÑĤÐ»Ð¸ÑĩÐ°ÐµÑĤÑģÑı":5574,"ĠÑĢÐµÐ¹ÑĤÐ¸":5575,"ĠÐºÐ¾Ð½Ð´Ð¸ÑĨÐ¸Ð¾Ð½":5576,"Ð¾Ð¶ÐµÐ»Ð°":5577,"ĠÑģÐ¿ÐµÑĨÐ¸Ð°Ð»Ð¸ÑģÑĤÐ¾Ð²":5578,"ĠÐ³Ð¾ÑģÑĥÐ´Ð°ÑĢÑģÑĤÐ²ÐµÐ½Ð½Ð¾Ð³Ð¾":5579,"ĠÐ¾Ð¿Ð»Ð°ÑĤÑĭ":5580,"ĠÑĢÐµÐ°Ð»Ð¸Ð·":5581,"ĠÑĥÐ½Ð¸Ð²ÐµÑĢÑģÐ°":5582,"ĠÐ¾ÑģÐ¾Ð±ÐµÐ½Ð½Ð¾ÑģÑĤÐ¸":5583,"ĠÐ´Ð¸ÑĢÐµÐºÑĤÐ¾ÑĢ":5584,"ÑĢÑĥÑĢ":5585,"Ð²ÐµÑĢÐ´":5586,"ĠÐĹÐ°ÑĤÐµÐ¼":5587,"Ð¤Ð¡":5588,"ĠÐ¾Ð±ÑĬÐµÐ´Ð¸Ð½":5589,"ant":5590,"ĠÑģÐµÑĢÑĤÐ¸ÑĦÐ¸ÐºÐ°":5591,"ĠÑĤÐ¾ÑĢÐ¼Ð¾Ð·":5592,"Ð½Ð¾ÑģÑĤÑıÐ¼Ð¸":5593,"ĠÐ¿ÑĢÐ¾ÑĦÐµÑģÑģÐ¸Ð¾Ð½Ð°":5594,"ĠÐ¾ÑĤÐ½Ð¾ÑģÐ¸ÑĤÐµÐ»ÑĮÐ½Ð¾":5595,"ĠÐ½ÐµÐ²Ð¾Ð·Ð¼Ð¾Ð¶Ð½Ð¾":5596,"Ġ&":5597,"ĠÑģÐµÐ¼ÑĮÐ¸":5598,"ĠÑĥÐ³Ð¾Ð»Ð¾Ð²":5599,"ĠÐĹÐ°ÐºÐ°Ð·ÑĩÐ¸ÐºÑĥ":5600,"ĠÑĦÐ¸Ð»ÑĮÐ¼Ñĭ":5601,"ĠÐĳÐµÐ»Ð°ÑĢÑĥ":5602,"ĠÐ´ÑĭÑħÐ°":5603,"ĠÐ¡ÐµÐ¹ÑĩÐ°Ñģ":5604,"ĠÐĿÐ°ÑĢ":5605,"ÐļÐ¾Ð³Ð´Ð°":5606,"ĠÐ¾Ð¿Ñĭ":5607,"ĠÐ¡Ð¾ÑĩÐ¸":5608,"ĠÐ¼Ð°ÑģÑĪÑĤÐ°":5609,"ĠÑĥÐ»Ð¸ÑĨÐµ":5610,"Ð¾ÑĦÐ¸":5611,"ĠÐºÐ¾ÑĢÐ°":5612,"Ð½Ð¸ÐµÐ¹":5613,"ÐºÐ°ÑĨÐ¸Ð¸":5614,"ĠÑħÑĥ":5615,"ĠÐķÐºÐ°ÑĤÐµÑĢÐ¸":5616,"ĠÑģÑĤÐ¸Ð»Ðµ":5617,"ĠÑģÑħÐµÐ¼":5618,"ĠÑĥÐ²ÐµÑĢÐµÐ½":5619,"Ð»Ð¾ÑĢÐ¸":5620,"ÑĤÐ¾ÑģÑĤÐ¸":5621,"ĠÐ¸Ð·Ñĥ":5622,"ĠÑĪÑĤÑĢÐ°":5623,"ĠÑįÐºÑģÐ¿Ðµ":5624,"Ð¾Ð³Ð»Ð°ÑģÐ½Ð¾":5625,"ĠÑģÐ¾Ð¾Ð±ÑīÐµÐ½Ð¸Ñı":5626,"ĠÐ³Ð¾ÑģÑĥÐ´Ð°ÑĢÑģÑĤÐ²Ð°":5627,"ĠÐ·ÐµÐ¼Ð»Ð¸":5628,"ĠÐ²Ð½Ð¸Ð¼Ð°Ð½Ð¸Ñı":5629,"ĠÐ¿Ð°Ð¼ÑıÑĤÐ¸":5630,"ĠÐ³Ð¾ÑĢÐ°Ð·Ð´Ð¾":5631,"ĠÐ½ÐµÐ²ÐµÑĢ":5632,"ĠÐºÐ°Ð¶ÐµÑĤÑģÑı":5633,"ĠÑģÑĤÐ¾Ð¹":5634,"ÑĢÐ¾Ð²Ð°Ð½Ñĭ":5635,"ÐľÐŀ":5636,"ĠÐ¾Ð±ÑĢÐ°Ð·Ð¾Ð²Ð°Ð½Ð¸Ðµ":5637,"ĠÐ²Ð·ÑıÑĤÑĮ":5638,"ĠÑĢÐ¾ÑģÑĤ":5639,"ĠÑģÐ¾Ð³Ð»Ð°ÑģÐ¸":5640,"ĠÐ¸ÑģÐ¿Ð¾Ð»ÑĮÐ·ÑĥÑİÑĤÑģÑı":5641,"ĠÐ¼ÐµÑĢÐ¾Ð¿ÑĢÐ¸ÑıÑĤÐ¸Ð¹":5642,"ĠÑģÐºÐ¾ÑĢÐ¾ÑģÑĤÑĮ":5643,"ĠÐ´Ð°Ð²Ð»ÐµÐ½Ð¸Ñı":5644,"Ð©":5645,"ĠÐ¿ÑĢÐ¸Ð²ÐµÐ´":5646,"ĠÑħÐ¾Ð´Ð¸":5647,"ÑĢÐ¾Ð²Ð¸":5648,"ÑĤÑĥÑĢÑĥ":5649,"ĠÐ²ÐµÐ´":5650,"ĠÐ²ÐµÑģÐµ":5651,"ĠÑĪÐ°Ð½":5652,"ĠÑĦÐ¸Ð³":5653,"ĠÑģÑĤÑĢÐ°Ð½Ð¸ÑĨÐ°":5654,"ĠÐ¼Ð¾Ð½Ð¸":5655,"ĠÑģÐ¾ÑģÑĤÐ¾ÑıÐ½Ð¸Ñı":5656,"ĠÑĤÐµÑħÐ½Ð¾Ð»Ð¾Ð³Ð¸Ð¹":5657,"79":5658,"Ð»ÐµÑĤÐ°":5659,"ÑĤÐ¸Ð»Ð¸":5660,"Ð»ÑıÐ¼Ð¸":5661,"ĠÑĢÐ°ÑģÑĤÐ¸":5662,"Ð¸Ð½ÐºÐ¸":5663,"ĠÐ¾Ð¿ÑıÑĤÑĮ":5664,"ĠÑģÐµÐºÑĥ":5665,"ĠÐ¿Ð¾Ð·Ð²Ð¾":5666,"ĠÑģÐ»ÑĥÑĩÐ°ÐµÐ²":5667,"ĠÐ¼Ð½ÐµÐ½Ð¸Ñİ":5668,"ĠÐ´ÑĥÑĪÐµ":5669,"ĠÐ¾Ð±ÑīÐµÑģÑĤÐ²Ð°":5670,"ĠÑıÐ·ÑĭÐºÐ°":5671,"ĠÑģÐ¾ÑĤÑĢÑĥÐ´Ð½Ð¸ÐºÐ¾Ð²":5672,"ĠÐ´ÐµÑĢÐ¶Ð°":5673,"ĠÐºÐ°ÑģÐ°ÐµÑĤÑģÑı":5674,"Ð½ÐµÐ½Ð¸Ð¹":5675,"ĠÐ¾ÑĤÑĢÐ¸ÑĨÐ°":5676,"ĠÐłÐµÐ¼":5677,"ĠÐłÐ°Ñģ":5678,"ÐķÐ¢":5679,"ĠÐ»ÑİÐ±Ð¾Ðµ":5680,"ĠÐ±Ð°Ð½ÐºÐ°":5681,"ĠÐ¸ÑģÐ¿Ð¾Ð»ÑĮÐ·ÑĥÑİÑĤ":5682,"ĠÑĩÐ°ÑģÑĤÐ½Ð¾ÑģÑĤÐ¸":5683,"ÑĢÐ¾ÑĤ":5684,"Ð±ÑĢÐ°Ð½":5685,"Ð½Ð¸Ð½Ð°":5686,"ĠÑĢÐµÑĩÑĮ":5687,"ĠÑĤÐ¾Ñĩ":5688,"ĠÐ¿ÑĢÐ¾Ð´ÑĥÐºÑĤ":5689,"ĠÐ¿ÑĢÐ¾Ð´Ð²Ð¸":5690,"ĠÐ¾ÑħÐ»Ð°":5691,"ĠÐ¾ÑĦÐ¾ÑĢÐ¼Ð»ÐµÐ½Ð¸Ñı":5692,"ĠÐľÐ¸Ð½Ð¸ÑģÑĤÐµÑĢ":5693,"ĠÐ½ÑĢÐ°Ð²Ð¸ÑĤÑģÑı":5694,"ÑĢÑĤÑĥ":5695,"ÐŁÐ¾Ð»":5696,"ÐµÐ·Ð´Ðµ":5697,"ĠÐ´ÑĢÑĥÐ³Ð¾Ð¼":5698,"ĠÐ¿ÑĢÐ¾Ð¸Ð·Ð²Ð¾Ð´Ð¸ÑĤÑģÑı":5699,"ĠÐºÐ¾Ð½ÑĤÑĢÐ¾Ð»":5700,"ĠÐºÐ¾Ð¼Ð¸ÑģÑģÐ¸Ð¸":5701,"ĠÐ¾ÑĤÐ²ÐµÑĤÑģÑĤÐ²ÐµÐ½Ð½Ð¾ÑģÑĤÐ¸":5702,"250":5703,"TA":5704,"ÑģÐ½Ð¾Ð¹":5705,"ĠÐ¡ÐµÐ¼":5706,"ĠÐ¿Ð¾Ð´ÑĢÑĥ":5707,"Ð»ÑİÐ¼Ð¸":5708,"ĠÐ¶ÐµÐ»Ðµ":5709,"Ð³Ð¾Ð´Ð½Ð¾":5710,"ĠÐ´ÐµÐ¹ÑģÑĤÐ²Ð¸Ð¹":5711,"ĠÐ´Ð¾ÑģÑĤÐ¸Ð³":5712,"ÑĥÑħ":5713,"ĠÐ¿Ð¾ÑģÑĤÐ°":5714,"ĠÐ¾Ð±Ð»":5715,"ĠÐºÐ¾Ð¼Ð¼ÐµÑĢ":5716,"ÐµÐºÑģ":5717,"ĠÐ´Ð°ÑĤÑĮ":5718,"ÑĥÑģÐ»Ð¾Ð²":5719,"ĠÑįÐºÐ¾Ð»Ð¾Ð³Ð¸":5720,"ĠMod":5721,"ÐµÐ¼Ð°Ñı":5722,"64":5723,"ÑĢÐ°ÑĤÐ¾Ð²":5724,"ÐµÑĤÐ¾Ð½":5725,"ÑĨÐ¾":5726,"ÑĤÐ¸ÐºÐ¸":5727,"ĠÐļÐ»Ð°":5728,"ĠÑģÐ²ÐµÐ´ÐµÐ½Ð¸Ñı":5729,"ĠÐĵÐ¾ÑģÑĥÐ´Ð°ÑĢ":5730,"Ð»Ð¾Ð¶ÐµÐ½Ð¸Ñı":5731,"ĠÑģÑĢÐµÐ´ÑģÑĤÐ²Ð¾":5732,"ĠÐ»ÑĥÑĩÑĪÐ¸Ñħ":5733,"ĠÑģÐ½Ð°ÑĩÐ°Ð»Ð°":5734,"Ġ=>":5735,"indow":5736,"ĠÐ¿Ð°ÑģÑģÐ°Ð¶Ð¸":5737,"Ġ==":5738,"ÐºÐ¾Ð²Ð°Ð½":5739,"Ð²ÑĮÑİ":5740,"ÐµÑĤÑĢÐ¾Ð²":5741,"ĠÐŁÑĢÐ¾Ð´":5742,"Ð²Ð¸Ð»":5743,"ĠÑĦÐµÑģÑĤÐ¸Ð²Ð°":5744,"ĠÑĤÐµÐ¼Ð°ÑĤÐ¸":5745,"ill":5746,"ĠÑģÐºÐ¾ÑĢÐµÐµ":5747,"ep":5748,"Ð²Ð¾Ñģ":5749,"Ð¾Ð³Ð¾Ð´":5750,"ĠÑĥÑĤÑĢÐ°":5751,"ÑģÐ¸Ñİ":5752,"ĠÐļÐ°Ð»Ð¸":5753,"Ð¸Ð½Ð³Ð°":5754,"ĠÐĵÐ¾Ð»":5755,"ĠÐ¿Ð¾Ð²ÑĭÑĪÐµÐ½":5756,"ĠÐ´Ð¾Ð³Ð¾Ð²Ð¾ÑĢÐ°":5757,"ĠÑģÑĬÐµÐ¼":5758,"ÑĤÐµÑħÐ½Ð¸":5759,"Ð¶Ð½Ð¾ÑģÑĤÑĮ":5760,"ĠÐ¿ÑĢÐ¸Ð²Ð¾Ð´":5761,"Ð¾ÑģÑĭ":5762,"Ð½ÐµÑĪ":5763,"ĠÐ³Ð»ÑĥÐ±Ð¾Ðº":5764,"ãĤ":5765,"ÑĤÐ¸ÑĢÐ¾Ð²Ð°ÑĤÑĮ":5766,"ĠÐ·Ð°Ð¼ÐµÑĤ":5767,"ĠÑĤÑĢÐµÐ½":5768,"ĠÐ¡ÑĤÐµ":5769,"ĠÐļÐ»Ð¸":5770,"ĠÑĥÑĩÐ°ÑģÑĤÐºÐ°":5771,"ĠÑģÑģÑĭÐ»ÐºÐ¸":5772,"ĠÐ¼ÐµÑģÑĤÐ°Ñħ":5773,"ĠÐ´Ð¾Ð³Ð¾Ð²Ð¾ÑĢ":5774,"ĠÑĦÐ¾ÑĤÐ¾Ð³ÑĢÐ°ÑĦÐ¸Ð¸":5775,"ON":5776,"Â°":5777,"ÑģÑĤÑĭÐµ":5778,"ĠÐ¸ÑģÑĤÐ¸Ð½":5779,"Ð½Ð¸Ð¼Ð¸":5780,"ĠÐĶÐ¾Ð¼":5781,"Ð²ÐµÐ»":5782,"ĠÑĦÐ¸Ð³Ñĥ":5783,"ĠÐ²Ð½ÐµÐ´":5784,"ĠÑģÐ»Ð¾Ð¶Ð½Ð¾":5785,"ĠÐ¾Ð±ÑĢÐ°Ð±Ð¾ÑĤÐºÐ¸":5786,"ĠÐºÐ²Ð°Ð´":5787,"Ġ)":5788,"Ð»Ð¾ÑĢ":5789,"Ð´Ð½Ð¾":5790,"ÑİÑīÑĥÑİ":5791,"ÑģÐ¸Ð²":5792,"ÐµÑĢÐµÐ¹":5793,"ĠÐĳÑĥÐ´":5794,"ĠÐ´Ð°Ð»ÐµÐºÐ¾":5795,"ĠThe":5796,"ĠÑįÐ»ÐµÐ¼ÐµÐ½ÑĤÑĭ":5797,"ax":5798,"ev":5799,"ĠÐ±Ð¾Ð»":5800,"ĠÐ±Ð¸Ð±Ð»Ð¸Ð¾ÑĤÐµ":5801,"ĠÐ¿Ð¾Ð·Ð²Ð¾Ð»ÑıÑİÑĤ":5802,"ĠÐ¿Ð¾Ð¶Ð°Ð»ÑĥÐ¹ÑģÑĤÐ°":5803,"69":5804,"ĠÑģÐºÐ»Ð°":5805,"ÑĢÐ¸ÐºÐ¸":5806,"ĠÐ¿ÑĢÐ¸ÑĩÐ¸Ð½Ð°":5807,"Ð·Ð°ÑĤÐ¾ÑĢ":5808,"ÐŁÐµ":5809,"ÐŁÑĢ":5810,"ÑĥÑĤÑĭ":5811,"Ð¸Ð·Ð½ÐµÑģ":5812,"ĠÐ½Ð°ÑĩÐ°ÑĤÑĮ":5813,"und":5814,"ĠÐºÐ¾Ð½ÐºÑĥÑĢÑģÐ°":5815,"ĠÐ½Ð°ÑħÐ¾Ð´ÑıÑĤÑģÑı":5816,"800":5817,"ĠÐ¿ÑĢÐ¸Ð±Ð»Ð¸":5818,"ĠÐ¿Ð¾Ð´ÑħÐ¾Ð´Ñı":5819,"ĠÐĳÐ°Ð½":5820,"Ð·Ð¸ÑĢÑĥ":5821,"ÑĦÐ¾ÑĢÐ¼Ð°ÑĨÐ¸Ñı":5822,"ÑĢÐ½ÑĭÑħ":5823,"ĠÑģÐºÐ°Ð·":5824,"ÐµÐ½ÑĤÑĥ":5825,"ÐµÐ½Ð½ÑĭÐ¼Ð¸":5826,"Ð½Ð¾ÑģÐ¸":5827,"Ð¾ÐºÑģÐ¸":5828,"Ð½ÐµÐ¿":5829,"Ð³Ð°Ñħ":5830,"ĠÐºÐ¾Ð½ÑĦÐ¸":5831,"ĠÐ¿Ð¾ÑģÑĭ":5832,"ĠÐ±Ð¾Ð»ÑĮÑĪÐ¸Ðµ":5833,"ĠÐ¿ÐµÑĢÐ²ÑĭÑħ":5834,"ĠÐ±Ð¸ÑĢ":5835,"ĠÐ¿ÑĢÐ¾Ð´Ð°Ð¶Ðµ":5836,"ĠÐ¾Ð¿ÐµÑĢÐ°ÑĨÐ¸Ð¸":5837,"ÐļÐ¾Ð¼Ð¿Ð°Ð½Ð¸Ñı":5838,"ÐºÐ°Ðº":5839,"ĠÐĴÐ¸Ð½":5840,"ĠÐ¡ÑĤÑĢ":5841,"ĠÐ¿ÑĢÐ¾ÑħÐ¾Ð´Ð¸ÑĤ":5842,"ĠÑĦÑĢÐ°Ð½":5843,"ĠÐ¿Ð¾Ð´Ð²ÐµÑĢ":5844,"ÐĴÐĺ":5845,"ĠÐ°Ð²ÑĤÐ¾Ð¼Ð¾Ð±Ð¸Ð»ÑĮ":5846,"ĠÐ¼Ð¾ÑĢÑı":5847,"ĠÑĢÐµÑĪÐ¸Ð»Ð¸":5848,"ĠÐ½ÐµÐ¾Ð±ÑħÐ¾Ð´Ð¸Ð¼ÑĭÐµ":5849,"%,":5850,"=>":5851,"ĠÐºÐ°Ð¿":5852,"ĠÐ¡Ðŀ":5853,"Ð¾ÑģÐ»Ð°Ð²":5854,"ĠÐ´ÐµÐºÐ¾ÑĢÐ°":5855,"ĠÑĢÑĥÐºÐ°":5856,"ÑĨÐ¸Ð¾Ð½Ð½Ð¾Ðµ":5857,"ĠÐ¥ÑĢÐ¸":5858,"ĠÐ²ÑĭÐ¿Ð¾Ð»Ð½ÐµÐ½":5859,"ĠÐļÑĥÐ¿Ð¸ÑĤÑĮ":5860,"ĠÐ½Ð°Ð¿ÑĢÑıÐ¶ÐµÐ½Ð¸Ñı":5861,"ĠÑģÐ¾Ð»Ð½Ðµ":5862,"ĠÑĥÐºÑĢÐµÐ¿":5863,"ĠÐ·Ð°Ð¼ÐµÑģÑĤÐ¸":5864,"ry":5865,"Ð²ÑĪÐµÐ¹":5866,"Ð¶Ð°Ð½":5867,"ÑīÐµÐ½Ð°":5868,"ĠÐ·ÑĢÐ¸":5869,"ÑĢÑĥÐ±Ðµ":5870,"ĠÐ¾Ð±Ð¾Ð·Ð½Ð°":5871,"ĠÐĺÐ»Ð¸":5872,"ĠÐ¾Ð±Ð»Ð°Ð´Ð°":5873,"ĠÐ´Ð¾Ð¼Ð¾Ð²":5874,"ÑĢÐ°ÑĤÐ½Ð¾":5875,"ĠÑĤÑĢÐ°Ð´Ð¸":5876,"ĠÐ¿Ð¾Ð²ÐµÑĢÑħÐ½Ð¾ÑģÑĤÑĮ":5877,"ĠÐ¾Ð·Ð½Ð°ÑĩÐ°ÐµÑĤ":5878,"ÑĤÐ°Ð»ÑĮÑıÐ½":5879,"ĠÐ¿Ð¾Ð¹":5880,"ÑģÑĤÐºÐ¸":5881,"Ð¾Ð±Ðµ":5882,"ĠÐļÐ¾Ð¼Ð¸":5883,"ÑģÑĤÑĮÑı":5884,"ĠÐ¼Ð¾Ð¶ÐµÐ¼":5885,"ĠÐ±Ð¾Ð»ÑĮÑĪÐ¸Ð¼":5886,"ĠÐºÐ°ÑĢÑĤÐ¸":5887,"ÑĢÐ¾Ð²Ð°Ð½Ð½ÑĭÑħ":5888,"ĠÐ´Ð¾ÑĢÐ¾Ð³":5889,"ĠÐ¸Ð½ÑĤÐµÑĢÐµÑģÐ½Ð¾":5890,"ĠÑĢÐµÐ±ÐµÐ½Ð¾Ðº":5891,"ĠÐ¾ÑģÐ½Ð¾Ð²Ð°Ð½Ð¸Ð¸":5892,"ĠÐ´ÑĥÐ¼Ð°Ñİ":5893,"ĠÐ±Ð»Ð¾ÐºÐ¸":5894,"ĠÐ²Ð¾Ð´Ñĥ":5895,"ĠÑĥÑĤÐµ":5896,"ĠÑĥÐ¼ÐµÑĢ":5897,"ĠÐ¾Ð±Ð»Ð¸":5898,"ĠÐ¾ÑģÐ²Ð¾Ð±":5899,"ÑĨÐ¸ÑıÐ¼Ð¸":5900,"ĠÑģÐ¿ÐµÑĨ":5901,"ĠÑĥÑĩÐ°ÑģÑĤÐ¾Ðº":5902,"ĠÐ²Ð¼ÐµÑģÑĤÐ¾":5903,"ĠÑĢÐµÑĪÐ¸Ð»":5904,"ĠÑħÐ°ÑĢÐ°ÐºÑĤÐµÑĢÐ¸ÑģÑĤÐ¸ÐºÐ¸":5905,"indows":5906,"ĠÐ½Ð°ÑĪÐ¸Ð¼":5907,"ĠÑĥÐ´Ð¾":5908,"Ð»ÐµÐ±":5909,"ĠÐ·Ð°ÐºÐ°":5910,"Ð´ÐµÐ²":5911,"Ð³Ð¸Ðµ":5912,"Ð¾ÐµÐ²":5913,"ĠÐ¿ÐµÑĢÐµÑħÐ¾Ð´":5914,"ĠÐ¼Ð½ÐµÐ½Ð¸Ðµ":5915,"ĠÑĦÑĥÐ½Ð´Ð°":5916,"ĠÑĥÑĩÐµÐ±Ð½Ð¾Ðµ":5917,"ĠÐ°ÑįÑĢÐ¾Ð¿":5918,"ĠÑģÐºÑĥ":5919,"ĠÐ±Ð¾Ð½ÑĥÑģ":5920,"ÑĤÐ¸Ðº":5921,"Ð¡ÑĤ":5922,"ĠÑģÐ¾ÐµÐ´Ð¸":5923,"Ð»Ð¾Ð²Ð¾Ð¹":5924,"2019":5925,"ĠÐ±ÑĥÐ´ÐµÑĤÐµ":5926,"ĠÐ¼Ð¾Ð»Ð¾Ð´Ðµ":5927,"ÑĤÐ¸ÑĢÑĥÐµÑĤ":5928,"ĠÑįÐ»ÐµÐ¼ÐµÐ½ÑĤÐ°":5929,"ĠÐ¿Ð¾Ð¸ÑģÐºÐ°":5930,"ĠÐ¿Ð¾ÑģÐ²ÑıÑīÐµÐ½":5931,"ge":5932,"ÑģÐ»Ð¾Ð²Ð¸":5933,"ĠÐ³ÑĢÑı":5934,"ĠÐ¿Ð¾Ð½ÑıÑĤÑĮ":5935,"ĠÐ¼Ð°ÑĤÐµÐ¼Ð°ÑĤÐ¸":5936,"ĠÑģÐ¾Ð¾ÑĢÑĥÐ¶":5937,"ĠÐ¿ÑĢÐ¾Ð¸Ð·Ð²ÐµÐ´":5938,"ĠÐ¸Ð¼ÐµÐµÑĤÑģÑı":5939,"ĠÐ¿Ð¾Ð¿ÑĭÑĤ":5940,"ÑģÑĤÑĢÐ¾Ð¸":5941,"ĠÐ½Ð°ÑĩÐ°Ð»":5942,"ĠÐ´Ð¾ÑĢÐ¾Ð³Ð¸":5943,"ĠÐ¿Ð»Ð¾ÑīÐ°Ð´Ð¸":5944,"ĠÐ¼Ð°Ð³Ð½Ð¸ÑĤ":5945,"ber":5946,"Ð»ÐºÑĥ":5947,"ÑģÑĤÐµÑĢÐ°":5948,"ĠÐºÐ¾Ð²":5949,"ĠÑĥÑģÑĤÐ°":5950,"ĠÐĴÑģÐµÐ¼":5951,"Ð¾Ð¿Ð¾Ð»ÑĮ":5952,"Ð¸Ð·Ð¾Ð»Ñı":5953,"ÑĢÐ¾Ð²Ð°Ð»Ð¸":5954,"ÑĤÐ¾ÑĢÐ°Ð¼Ð¸":5955,"Ð¼ÐµÐ½Ð¸ÑĤÑĮ":5956,"ĠÐ·Ð°Ð±Ð¾Ð»ÐµÐ²Ð°Ð½Ð¸Ð¹":5957,"ĠÐ´ÐµÐ¼Ð¾Ð½":5958,"ĠÐ¿Ð¾ÑģÑĤÑĥÐ¿Ð°":5959,"ĠÐ¿ÑĢÐ¸Ð½ÑıÑĤÑĮ":5960,"ÑĪÐµÐ±":5961,"ÑģÑĤÐ¾ÑĢÐ°":5962,"ĠÐ´ÐµÐ»":5963,"ĠSp":5964,"Ð·ÑĭÐ²Ð°ÑİÑĤ":5965,"ĠÑĥÑģÑĤÐ°Ð½Ð¾Ð²Ð¸ÑĤÑĮ":5966,"ĠÑĢÐµÐ¼Ð¾Ð½ÑĤÐ°":5967,"ĠÐ²Ð½ÑĥÑĤÑĢÐµÐ½Ð½Ð¸Ñħ":5968,"IN":5969,"ĠÐ¿Ð»Ð¸":5970,"ĠÐ·Ð´Ð°":5971,"ĠÐ¿ÑĢÐ¾Ð¸":5972,"ĠÑĦÐ°Ð½ÑĤÐ°":5973,"ÐļÑĢÐ°Ñģ":5974,"ĠÐ»Ð¸ÑĪ":5975,"ÐĳÐ£":5976,"ĠÐ³ÑĢÑĥÐ¿Ð¿":5977,"ĠÐ¿Ð»Ð¾ÑīÐ°Ð´ÑĮ":5978,"ĠÐ¿ÑĢÐ¾ÐµÐºÑĤÐ¾Ð²":5979,"ĠÑįÐ½ÐµÑĢÐ³Ð¸Ð¸":5980,"ĠÐ´Ð¾Ð±Ñĭ":5981,"ÑĤÐ°ÑĨÐ¸Ñİ":5982,"ĠÐ±Ð¾Ñı":5983,"ĠÐľÐ¾ÑĢ":5984,"ÑģÐ°Ð¹":5985,"ĠÐĹÐĲ":5986,"ĠÐ¸ÑģÐ¿Ð¾Ð»Ð½Ð¸":5987,"ÑĤÐµÑĢÐ½Ð°":5988,"ÑĨÐ¸Ð¾Ð½Ð½Ð°Ñı":5989,"ĠÐ³Ð¸Ð¿ÐµÑĢ":5990,"ĠÐ¿Ð¾Ð»ÑĥÑĩÐ°ÐµÑĤÑģÑı":5991,"ĠÑįÐ½ÐµÑĢÐ³ÐµÑĤÐ¸":5992,"ĠÐ½ÐµÑģÐµÑĤ":5993,"ĠÐ¿ÑĢÐ¸ÑħÐ¾Ð´Ð¸ÑĤÑģÑı":5994,"ĠÐ»ÑİÐ´ÑıÐ¼":5995,"iz":5996,"Ð´Ð¸Ð°":5997,"ÐµÐ·Ð¶Ð°":5998,"ĠÑĢÐ°ÑģÑģÑĤÐ¾Ñı":5999,"ĠÑģÐ¾Ð·Ð´Ð°Ð½Ð¸Ðµ":6000,"ĠÐŁÐ¾Ð´ÑĢÐ¾Ð±":6001,"ĠÑħÐ¾ÑĢÐ¾ÑĪÐµÐ¼":6002,"ĠÑĢÐ°Ð·Ð´ÐµÐ»":6003,"ĠÑĥÑĤÐ²ÐµÑĢÐ¶Ð´Ð°":6004,"ĠÑģÑĤÑĥÐ´ÐµÐ½ÑĤÐ¾Ð²":6005,"Ð¸Ð¼Ð¾ÑģÑĤÑĮ":6006,"ÑĩÐµÑģÐºÐ¾Ð¼Ñĥ":6007,"ÑĩÐ¸ÑĤÑĮÑģÑı":6008,"ĠÐļÑĤÐ¾":6009,"ĠÐ»Ð¸Ð´ÐµÑĢ":6010,"ĠÑĩÐ°Ñģ":6011,"ĠÐ¾ÑģÐ½Ð¾Ð²Ð½Ð¾Ð¹":6012,"ĠÐ¿Ð¾Ð»ÑĥÑĩÐ¸Ð»Ð¸":6013,"ĠÐ¿ÑĢÐ¾Ð´Ð¾Ð»Ð¶Ð¸":6014,"ÐµÑĢÑĪÐµÐ½":6015,"ĠÑįÐ¿Ð¸":6016,"ĠÐ²ÑĭÑıÑģ":6017,"ĠÐ²ÑĭÑħÐ¾Ð´Ð°":6018,"ĠÐ²Ð¾Ð·Ð±Ñĥ":6019,"ÐĶÐķ":6020,"ĠÐ¿Ð¾Ð²Ð¾Ð´Ñĥ":6021,"ÑĢÐ¾Ð¸Ð´":6022,"ĠÐ´ÑĢÑĥÐ³Ð¾Ð³Ð¾":6023,"ĠÐ½Ð°ÑģÑĤÐ¾Ð»ÑĮÐºÐ¾":6024,"ĠÐ¾ÑĤÐ»Ð¸ÑĩÐ¸Ðµ":6025,"ĠÐºÐ¾Ð¼Ð¼ÑĥÐ½Ð¸ÐºÐ°":6026,"ĠÐ¸Ð·Ð´ÐµÐ»Ð¸Ð¹":6027,"ĠÐ¿ÑĢÐµÐ¿Ð¾Ð´Ð°Ð²Ð°":6028,"ĠÑģÐ¾Ð¶Ð°Ð»":6029,"ĠÐ²ÑĢÐ¾Ð´Ðµ":6030,"ĠÐºÐ¾Ð¶Ð°":6031,"Ð¾Ð¶Ð´Ð°":6032,"Ð´Ð¸ÐºÐ°":6033,"Ð°Ð»ÑĮÐ½Ð¾Ðµ":6034,"ĠÐĹÐ°Ð¼":6035,"ĠÐ²ÐµÑīÐµÑģÑĤÐ²":6036,"ĠÐ¶Ð¸Ð»Ð¸":6037,"ont":6038,"ÑĩÐµÐ½Ð¾":6039,"ĠÐ²ÑĭÐ¿ÑĥÑģÐº":6040,"ĠÐ²Ð¾Ð»Ð¾ÑģÑĭ":6041,"ĠÑĢÐ¾Ð´ÑģÑĤÐ²ÐµÐ½":6042,"oy":6043,"Ð»Ð»ÐµÐºÑĤ":6044,"ÑĢÐµÑĨ":6045,"ÑĪÐºÐ¾Ð¹":6046,"ÑĤÐ°ÑĤÑĮ":6047,"ĠÐ±Ð°Ñģ":6048,"ĠÐ½ÐµÐ¼Ñĥ":6049,"ĠÐ²ÐµÐ»Ð¸ÑĩÐ¸":6050,"ĠÐ¤Ð¾ÑĤÐ¾":6051,"ĠÐ»ÑİÐ±ÑĭÐµ":6052,"ĠÐ¾ÑĤÐ½Ð¾ÑģÑı":6053,"ĠÐ³Ð¾Ð²Ð¾ÑĢÑı":6054,"ĠÑĢÑĭÐ½Ð¾Ðº":6055,"ĠÐ·Ð°Ð½Ð¸Ð¼Ð°ÑĤÑĮÑģÑı":6056,"ĠÐľÐµÐ¶Ð´ÑĥÐ½Ð°ÑĢÐ¾Ð´":6057,"ĠÐ½Ð°Ð¹Ð´ÐµÑĤÐµ":6058,"ost":6059,"ĠÐ·Ð´ÑĢÐ°Ð²":6060,"ĠÐ¿Ð¾ÑĢÐ°Ð¶":6061,"ÑĤÐµÐ»ÑĮÑģÑĤÐ²Ðµ":6062,"ĠÐ¿ÑĢÐ¸Ð½Ð°Ð´Ð»Ðµ":6063,"our":6064,"sh":6065,"ĠÑģÑĢÐ¾ÐºÐ°":6066,"ÑĢÐ¸ÑĤÐ°":6067,"Ð»ÑıÐµÐ¼":6068,"ÑĩÐ¸Ð²Ð°ÐµÑĤÑģÑı":6069,"ĠÑĦÐµÑĢ":6070,"ĠÐĶÐ¾Ð±Ð°":6071,"ĠÐ¿Ð¾Ð»Ð½ÑĭÐ¹":6072,"Ð±Ð¸ÑĢÐ°ÑĤÑĮ":6073,"ÐĶÐµ":6074,"ĠÐ¶ÐµÐ»ÑĥÐ´":6075,"ĠÐ±Ð¾Ð»ÑĮÑĪÐ°Ñı":6076,"ĠÐ½Ð°Ð¿Ð¾Ð¼Ð¸Ð½Ð°":6077,"ĠÑĤÑĢÐ°Ð½ÑģÐ¿Ð¾ÑĢÑĤÐ°":6078,"ĠÐ»ÑİÐ±Ð¾Ð²ÑĮ":6079,"Ð½Ð¾Ð´":6080,"ĠÐ·Ð´Ð°Ð½Ð¸Ñı":6081,"ĠÐ¾Ð±Ð¸":6082,"ĠÐŁÑĢÐ¾Ð´Ð°":6083,"ĠÑĤÐµÐ¼Ñĭ":6084,"ÑĢÐ¾Ð²Ð°Ð½Ð¾":6085,"ĠÐĴÐ°ÑĪ":6086,"ĠÑĥÑģÐ¿ÐµÑĪ":6087,"ĠÐ·Ð°Ð½ÑıÑĤÐ¸Ñı":6088,"ĠÑĢÐ°ÑģÑĤÐµÐ½Ð¸Ñı":6089,"Ñĸ":6090,"ÑĤÐºÐ¾Ð²":6091,"ĠÐ²ÐµÐº":6092,"ĠÐ¾Ð´Ð¸Ð½Ð°":6093,"ĠÐ±Ð¾Ð³":6094,"ĠÐ·Ð°ÑħÐ²Ð°":6095,"ĠÑĦÑĢÑĥ":6096,"ĠÐĶÐ¾Ð±":6097,"ĠÑģÐ¿Ð¾ÑĢÑĤÐ°":6098,"ÑĥÐ±Ð»Ð¸Ñĩ":6099,"ĠÐ¿Ð¾ÑĢÑĤ":6100,"ĠÐ¿ÑĢÐ¾Ð¸Ð·Ð²Ð¾Ð´Ð¸ÑĤÐµÐ»Ñı":6101,"ĠÐ¸Ð·Ð¼ÐµÐ½ÐµÐ½Ð¸Ð¹":6102,"ĠÐ½Ð°ÑĩÐ¸Ð½Ð°ÐµÑĤ":6103,"ĠÐ½ÐµÑĦÑĤÐ¸":6104,"ÑĥÐ»ÐºÐ°Ð½":6105,"Ð»ÐµÑĢÐ°":6106,"Ð»ÐµÑĨ":6107,"Ð¡Ñĥ":6108,"ĠÑĤÐ°ÐºÑĥÑİ":6109,"ĠÐĵÑĥ":6110,"ĠÐ§Ð¸ÑĤÐ°":6111,"ĠÐ¿Ð¾Ð²Ðµ":6112,"ĠÐ¶Ð¸ÑĤÑĮ":6113,"ĠÐ¿ÐµÑĢÐ²Ð¾Ð¼":6114,"ĠÑĥÑģÑĤÐ°Ð½Ð¾Ð²Ð»ÐµÐ½":6115,"ĠÑģÑĤÑĢÐ¾Ð¸ÑĤÐµÐ»ÑĮÑģÑĤÐ²Ð¾":6116,"ĠÐ¡ÐµÑĢÐ³Ðµ":6117,"ĠÐ¿Ð¾Ð´Ð³Ð¾ÑĤÐ¾Ð²ÐºÐ¸":6118,"ĠÐºÐ¾Ð½ÑĤÐ°ÐºÑĤ":6119,"ĠÐ¿Ð¾ÑģÑĢÐµÐ´ÑģÑĤÐ²Ð¾Ð¼":6120,"US":6121,"ĠÐ»Ð¾":6122,"ĠÐ¿Ð¾Ð´ÑĩÐµÑĢ":6123,"Ð¼ÑĥÐ»Ð¸":6124,"ĠÐŀÐ±ÑĬ":6125,"ĠÐĿÐ¾Ð²ÑĭÐ¹":6126,"ĠÑĥÐ³Ð¾Ð»":6127,"ĠÑģÑĤÐ°ÑĤÑĮÐµ":6128,"ĠÐ²ÐºÐ»ÑİÑĩÐ°ÐµÑĤ":6129,"ĠÐ´Ð¾Ð±Ð°Ð²Ð¸ÑĤÑĮ":6130,"ĠÐ½Ð¸ÐºÐ°ÐºÐ¸Ñħ":6131,"LE":6132,"Ð²Ð°Ð½Ð¸Ð¸":6133,"ÑĩÐµÐµ":6134,"ĠÑģÑĤÐ¾":6135,"Ð³Ð¾Ð²Ðµ":6136,"ĠÐ¿ÑĢÐ¾Ð±Ð»ÐµÐ¼Ð°":6137,"ĠÐ´Ð¾Ð»Ð»Ð°ÑĢÐ¾Ð²":6138,"ĠÐºÐ¾ÑģÑĤÑİ":6139,"ĠÐ¡Ð¿Ð°ÑģÐ¸Ð±Ð¾":6140,"ou":6141,"ĠÐ©":6142,"ĠÑĥÑĢ":6143,"ĠÐºÐ°ÐºÐ¸Ð¼":6144,"Ð¾ÑĢÐ¾ÑĪ":6145,"ĠÐ½Ð¾Ð²Ð¾Ðµ":6146,"ĠÐ¿Ð¾Ð·Ð²Ð¾Ð»Ð¸":6147,"Ð»Ð¸Ð½Ð´":6148,"ĠÐ´Ð¾ÑģÑĤÐ°Ð²ÐºÐ°":6149,"ĠÐ¿ÑĢÐ¸Ð½Ð¸Ð¼Ð°ÑĤÑĮ":6150,"ĠÐ¾ÑĤÐ½Ð¾ÑģÐ¸ÑĤÑģÑı":6151,"ĠÐ¾Ð±Ð½Ð°ÑĢÑĥ":6152,"ĠÐ¸Ð·Ð¾Ð±ÑĢÐ°Ð¶ÐµÐ½Ð¸Ñı":6153,"ĠQ":6154,"ĠÐ²Ð¾Ð´Ð°":6155,"ĠÐ½Ð°ÑģÑĭ":6156,"ĠÐ¿ÑĢÐ¸ÐµÐ¼Ð°":6157,"Ð¾Ð»ÑĮÑĪÐµ":6158,"Ð³Ð¸Ð½":6159,"ÑĥÐ´Ð¾Ð²":6160,"Ð½ÑĥÐ»Ð°":6161,"ÑģÑĤÐ²Ð¸Ð¹":6162,"ĠÐ¶Ð¸ÑĤÐµÐ»ÐµÐ¹":6163,"ĠÐ¿Ð¾Ð»ÑĥÑĩÐ°ÑĤÑĮ":6164,"ĠÑĤÑĥÐ´Ð°":6165,"ÑĨÑĥÐ·":6166,"ĠÐĲÑĢÑħÐ¸":6167,"ĠÑģÐ»ÐµÐ´ÑĥÑİÑīÐ¸Ðµ":6168,"ĠÑģÐ¼Ð°ÑĢÑĤ":6169,"Ð´Ð¾Ð»":6170,"ÐµÐ½ÑĤÐ¾Ð¼":6171,"ĠÐ¼Ð°Ð¹":6172,"ĠÐ²Ð¸Ð´ÐµÑĤÑĮ":6173,"ĠÐ¾ÑĦÐ¸Ñģ":6174,"ĠÐ¿Ð¾ÑĢÑıÐ´Ð¾Ðº":6175,"ĠÑĢÐ°ÑģÐºÑĢÑĭ":6176,"ĠÐ²Ð°ÐºÐ°Ð½ÑģÐ¸Ð¸":6177,"ĠÑģÐ¾Ð¶Ð°Ð»ÐµÐ½Ð¸Ñİ":6178,"Ð°Ð´":6179,"ĠÐºÑĢÐ¾":6180,"ĠÐ³ÑĢÑĥÐ´":6181,"ĠÐ°Ð²Ð°":6182,"ÑīÐ¸ÐºÐ¸":6183,"ÐºÑĤÑıÐ±ÑĢÑĮ":6184,"Ð½Ð¾Ð²ÑĮ":6185,"ĠÑģÐ¸Ñħ":6186,"ĠÐ½Ð¾ÑĩÑĮ":6187,"ĠÑĩÐ°ÑģÑĭ":6188,"Ð½ÐµÐ¹ÑĪÐ¸Ñħ":6189,"ĠÐ¿ÑĥÑĤÑĮ":6190,"ĠÐºÐ°Ð¶Ð´Ð¾Ð¼":6191,"ity":6192,"ĠÐ³Ð°Ð·Ð°":6193,"ĠÐ¿ÑĢÐ¸Ð½ÑıÐ»Ð¸":6194,"ĠÑĥÑĩÐµÑĤÐ¾Ð¼":6195,"ĠÐ±Ð»Ð°Ð³Ð¾":6196,"ĠÐļÐ¾Ð½ÐµÑĩÐ½Ð¾":6197,"ÑģÐµÐ»":6198,"Ð¾ÐµÐ´Ð¸":6199,"ÐµÐ·Ð´Ð°":6200,"ĠÐ¸Ð³ÑĢÐµ":6201,"ĠÐ¸Ð½ÑĤÐµÑĢÐ½ÐµÑĤÐµ":6202,"ÑĩÐ¸ÑĤÐ°ÑĤÑĮ":6203,"ĠÐ²Ð¾Ð¿ÑĢÐ¾ÑģÐ¾Ð²":6204,"ĠÑģÑĥÐ´ÑĮ":6205,"ĠÐ¿ÑĢÐ¾Ð²Ð¾Ð´Ð¸ÑĤÑģÑı":6206,"ĠÐ²ÑĢÐµÐ¼ÐµÐ½ÐµÐ¼":6207,"ĠÐļÐ°Ð·Ð°Ñħ":6208,"ĠÑĢÐµÐºÐ¾Ð¼ÐµÐ½Ð´ÑĥÐµÑĤÑģÑı":6209,"Ð¸Ð¼Ð¾":6210,"Ð¼Ð¾Ð»":6211,"ĠÐ°Ð½Ð°":6212,"ĠÐļÑĢÐ¸":6213,"Ġ->":6214,"ÐµÐºÐ¾ÑĤÐ¾ÑĢÑĭÐµ":6215,"ĠÐ¿ÑĢÐ°Ð²Ð´Ð°":6216,"ĠÐ¿Ð¾ÑģÐ»ÐµÐ´Ð¾Ð²Ð°":6217,"ĠÐ´ÐµÐ¹ÑģÑĤÐ²Ð¸Ðµ":6218,"ĠÐĶÐ°Ð¶Ðµ":6219,"ĠÑĢÐµÐºÐ»Ð°Ð¼Ñĭ":6220,"ĠÐ±Ð¾Ð»ÐµÐ·Ð½Ð¸":6221,"ua":6222,"ĠÑģÑĩÐ°ÑģÑĤ":6223,"ÐµÑĤÐ¾Ð²":6224,"ĠÐ´Ð²Ð¾ÑĢ":6225,"Ð¾Ð¼Ð°ÑĤ":6226,"ÑģÐºÐ¾Ð¿":6227,"ĠÐ¿ÑĢÐ¾ÑħÐ¾Ð´Ð¸":6228,"ĠÐŀÑĤÐµ":6229,"ĠÐ¿ÑĢÐµÐ´Ð¿Ð¾Ñĩ":6230,"ĠÐ¿ÑĢÐµÑģÑĤÑĥÐ¿":6231,"ĠÑĤÐµÑħÐ½Ð¸ÐºÐ°":6232,"ĠÐ²ÑĭÑģÐ¾ÐºÐ¾Ð³Ð¾":6233,"ĠÐ¸ÑģÑĤÐ¾ÑĩÐ½Ð¸Ðº":6234,"ĠÐļÑĢÐ°ÑģÐ½Ð¾":6235,"ĠÑĢÐ¾ÑģÑģÐ¸Ð¹ÑģÐºÐ¸Ñħ":6236,"ĠÑģÐ¸Ð¼Ð¿ÑĤÐ¾Ð¼":6237,"ĠÑģÐ»Ð¾Ð²Ð¾":6238,"ĠÐ¸Ð½Ð°ÑĩÐµ":6239,"ĠÐ¾ÐºÐ°":6240,"ÑĤÐ¾Ðµ":6241,"ĠÐ¿Ð¾Ð»Ñı":6242,"ĠÑģÑĤÐ°Ð½Ð¾Ð²":6243,"ĠÐ¥Ð¾ÑĤÑı":6244,"ÑĢÐ¾ÐºÐ¸":6245,"Ð¾Ð³ÑĢÐ°Ð¼Ð¼Ð°":6246,"Ð¾Ð»Ð½ÑĨÐµ":6247,"ĠÑģÐµÑĢÐ´ÑĨÐµ":6248,"ÑĩÑĳÑĤ":6249,"Ð·ÐµÐ¹":6250,"Ð·Ð¾ÑĢÐ°":6251,"Ð¿Ð»ÐµÐºÑĤ":6252,"ĠÐļÐĲ":6253,"ĠÐļÐ¸ÑĤÐ°Ð¹":6254,"ÐºÐ¾Ð²ÑĭÐ¹":6255,"ĠÐºÐ¾Ð¼Ð¿Ð¾Ð·Ð¸":6256,"ĠÐ¿ÑĢÐ¾Ð´ÑĥÐºÑĤÑĭ":6257,"ĠÐ·ÐµÐ¼Ð»Ðµ":6258,"ĠÐ¼Ð°Ð³Ð°Ð·Ð¸Ð½Ð°":6259,"ĠÑģÐ¾Ð´ÐµÑĢÐ¶Ð°Ð½Ð¸Ðµ":6260,"Ð»Ð¸Ð¼Ð¿Ð¸":6261,"Ð±ÑĢÐ¾":6262,"Ð¾Ð½ÑĮ":6263,"Ð³Ð¾ÑĤÐ°":6264,"ĠÐľÐ¾Ð¶ÐµÑĤ":6265,"Ð·ÑĭÐºÐ°":6266,"ĠÐ¸ÑģÐ¿Ð¾Ð»Ð½Ð¸ÑĤÐµÐ»ÑĮ":6267,"ĠÐ¾Ð±ÑĬÑıÐ²Ð»ÐµÐ½Ð¸Ñı":6268,"ÑģÑĤÐ°Ð²Ð¸Ð»":6269,"ĠAl":6270,"ĠCar":6271,"ĠÑĢÐµÐ·ÑĥÐ»ÑĮÑĤÐ°ÑĤÐ¾Ð²":6272,"ĠÐ¿ÑĢÐµÐ´Ð¾ÑģÑĤÐ°Ð²Ð»ÐµÐ½":6273,"ĠÐ¿ÑĢÐµÐ´Ð»Ð°Ð³Ð°ÐµÐ¼":6274,"ĠÐ´Ð¸Ð°Ð¿Ð°Ð·":6275,"ĠÐ¿ÑĢÐ¸Ð¼ÐµÑĢÑĥ":6276,"ĠÐ¿Ð¾ÐºÑĥÐ¿ÐºÐ¸":6277,"ĠÐ¿Ð¾Ð»Ð¾Ð¶ÐµÐ½Ð¸Ñı":6278,"ive":6279,"ĠÐ²Ð·Ð³Ð»ÑıÐ´":6280,"ĠÐ´ÐµÑĤÐ°Ð»Ð¸":6281,"OR":6282,"ĠÐ²ÐµÑĤÐµ":6283,"ĠÐ²ÑħÐ¾Ð´Ð¸ÑĤ":6284,"Ð¿ÐµÐ²":6285,"ĠÐ½Ð°ÐºÐ¾Ð½":6286,"ĠÐ±Ð¾Ð³Ð°":6287,"ÐµÑĢÑĥ":6288,"ĠÐ¿Ð¾ÑĢÐ°":6289,"ÐĴÐĶ":6290,"ĠÐ´Ð¸Ñģ":6291,"ÑĢÐ¾Ð²Ð°Ð½Ð½Ð¾Ð¹":6292,"ĠÐ¸Ð³ÑĢÐ¾ÐºÐ¾Ð²":6293,".:":6294,"Ð½Ð½Ð¾Ð¹":6295,"Ð½ÐµÑĤÑģÑı":6296,"ÑĩÑĳ":6297,"ÑĢÐ°Ð²Ðµ":6298,"ĠÐ½ÐµÐ´Ð¾ÑĢ":6299,"ÑĤÐ¸Ð½Ð³":6300,"ÑįÑĦ":6301,"ÐĶÐŀ":6302,"ĠÐ²ÐµÑīÐµÑģÑĤÐ²Ð°":6303,"2007":6304,"ÑħÑĢÐ°Ð½Ð¸":6305,"ĠÐ·Ð½Ð°ÐºÐ¾Ð¼ÑģÑĤÐ²Ð°":6306,"ĠÑģÐ¾Ð±ÑĭÑĤÐ¸Ð¹":6307,"ÑĢÐ¸ÑģÑĤÐ¸Ð°Ð½":6308,"53":6309,"hone":6310,"ĠÐ½Ð°Ð»Ð¾Ð³":6311,"ĠÑĥÐ´Ð¸":6312,"ĠÐ¿Ð¾Ð»Ð½Ð¾Ð¹":6313,"ĠÐĺÑĤÐ°":6314,"ÑĢÐ¾Ð²Ð°Ð½Ð¸Ð¸":6315,"ÐĶÐ¾":6316,"ĠÑĢÐ¾Ð´Ð°":6317,"ĠÐ·Ð½Ð°ÑĩÐµÐ½Ð¸Ñı":6318,"ÑģÑĤÐ²ÑĥÐ¹ÑĤÐµ":6319,"ĠÑģÐ¾Ð¾Ð±ÑīÐ¸Ð»":6320,"\":":6321,"Ð´Ð¶Ð¸":6322,"Ð½Ð¸Ð²ÐµÑĢ":6323,"ĠÑĥÐ¶Ð°":6324,"ĠÐ½ÐµÐ¼Ð°":6325,"Ð»ÐµÑģ":6326,"Ð¾Ð¶Ð´Ðµ":6327,"ĠÐ»Ð¾Ð²":6328,"Ð·Ð°ÑĨÐ¸Ñİ":6329,"ÐļÐ¸":6330,"ĠÐ²ÐµÐ±":6331,"ĠÐ²Ð¸Ð´Ð¸":6332,"ĠÐ¿ÑĢÐµÐ·":6333,"ĠÐ¤ÐµÐ´":6334,"ĠÑģÑĥÐ´Ð°":6335,"ĠÑĢÐ°Ð±Ð¾ÑĩÐµÐ³Ð¾":6336,"ĠÐ¸Ð¼Ð¿":6337,"ĠÐ¾ÑģÐ½Ð¾Ð²Ð½ÑĭÐµ":6338,"ĠÐ¡Ð¸ÑģÑĤÐµÐ¼":6339,"ÐµÑĢÐ¸ÑĤÑĮ":6340,"ĠÑģÐ¾ÑģÐµÐ´":6341,"Ð¼Ð°Ð³Ð°Ð·Ð¸Ð½":6342,"ĠÐ¿ÑĢÐ¾Ð¸Ð·Ð¾ÑĪÐ»Ð¾":6343,"ĠÐ°Ð´Ð°Ð¿":6344,"57":6345,"ĠÐ½Ð°Ð²Ñĭ":6346,"Ð¾Ð±Ð¾ÑĢÐ¾ÑĤ":6347,"Ð¼Ð¸ÑĤÐµ":6348,"ĠÐ¢Ð¾Ð¼":6349,"ĠÐ´Ð¾ÑģÑĤÐ¾Ð¹":6350,"ĠÑģÑĤÐ°Ð±Ð¸":6351,"ĠÐºÑĥÐ¿Ð¸":6352,"ĠÐĲÐ²ÑĤÐ¾Ð¼":6353,"ĠÐ¾Ð±ÑĬÑıÐ²Ð»ÐµÐ½Ð¸Ð¹":6354,"EN":6355,"pt":6356,"Ð½ÐºÐ°":6357,"ÑģÑĤÑĢÑĭ":6358,"ĠÐ¾ÑģÑĤÐ°Ð²Ð»Ñı":6359,"ÑĤÐµÐ»Ðµ":6360,"ĠÐ½Ð°ÐºÐ°":6361,"ĠÐ·Ð°Ñħ":6362,"ĠÐ¿ÑĢÐ¾Ð¹ÑĤÐ¸":6363,"ĠÐ¶ÐµÑĢÑĤ":6364,"ĠÐ¿Ð¾Ð´Ð¿Ð¸ÑģÐ°":6365,"Ð´ÑĥÐ¼Ñĭ":6366,"Ð¼Ð¾ÑĤÑĢÐ¸ÑĤÐµ":6367,"ĠÐ²Ð¾ÑģÐ¿Ð°":6368,"Ð¾Ð³ÑĢÐ°ÑĦÐ¸Ð¸":6369,"ĠÑģÐ¾ÑĨÐ¸Ð°Ð»ÑĮÐ½Ð¾Ð¹":6370,"ĠÐŁÐµÑĢÐµÐ´":6371,"Ġhttps":6372,"ĠÐ²ÑģÐ¿Ð¾Ð¼":6373,"ĠÐ·Ð°ÐºÐ»ÑİÑĩÐ°ÐµÑĤÑģÑı":6374,"Ð»ÐµÑĤÐ¸":6375,"Ð²ÑıÑĤ":6376,"ĠÐºÐ»Ðµ":6377,"ÑīÐµÑĢ":6378,"Ð¼ÐµÐ½Ñĭ":6379,"ĠÐłÐµÐ·":6380,"ĠÐ´Ð°ÑĤ":6381,"ĠÑģÐµÑĢÐ´Ðµ":6382,"ĠÐ±ÐµÑģÐº":6383,"ĠÐ¼ÑĥÐ¶ÑĩÐ¸Ð½Ð°":6384,"ĠÑģÐ¾Ð²ÑĢÐµÐ¼ÐµÐ½Ð½ÑĭÑħ":6385,"ĠÐºÐ¾ÑĢÐ¿ÑĥÑģ":6386,"ĠÐ½ÐµÐ´Ð°Ð²Ð½Ð¾":6387,"ĠÐ¼Ð¾ÑĤÐ¾ÑĢ":6388,"ĠÑĥÑħ":6389,"ĠÐ¿Ð¾ÑıÑģ":6390,"ÑįÑĤÐ°":6391,"ÑĩÐ¸Ð¹":6392,"ÐĵÐ£":6393,"ÐĽÐµ":6394,"ÐĽÐķ":6395,"ĠâĨ":6396,"ĠÐ¼Ð½Ð¾Ð³Ð¾Ðµ":6397,"ĠÐ·Ð°Ð´Ð°ÑĩÐ°":6398,"ĠÑģÐ¿ÐµÑĨÐ¸Ð°Ð»ÑĮÐ½Ð¾":6399,"ĠÐ°ÐºÑĤÐ¸Ð²Ð½Ð¾":6400,"ĠÑģÐ²ÑıÐ·Ð°Ð½Ð¾":6401,"ĠÑģÑĤÑĢÐµÐ¼Ð¸":6402,"ĠÐ¿Ð¾Ð»ÑĮÐ·Ñĥ":6403,"ĠÑģÐ¼ÐµÑĢÑĤÐ¸":6404,"ĠÐºÐ°ÑĢÑĤÐ¸Ð½ÐºÐ¸":6405,"ÑĢÐµÑı":6406,"ĠÐ±Ð¾Ð¹":6407,"ÐºÐ°Ð¶Ð¸ÑĤÐµ":6408,"ÐºÑĥÐ´Ð°":6409,"ÐºÐ¾Ð¼Ñĥ":6410,"---":6411,"ĠÐķÑīÐµ":6412,"ĠÐ¾Ð´Ð½":6413,"ĠÐ¾ÑĢÐ³Ð°Ð½Ð¸Ð·Ð¼":6414,"ÑĤÐ¾ÑĢÐ¸Ð¸":6415,"ĠÐ±Ð¾Ð»ÑĮÑĪÑĥÑİ":6416,"ĠÑĢÐµÐºÐ¾Ð¼ÐµÐ½Ð´":6417,"ĠÐ³ÑĢÑĥÐ½":6418,"ĠÐ´ÐµÑĢÐµÐ²ÑıÐ½":6419,"ĠÐ¾Ð¿Ð¸ÑģÐ°Ð½Ð¸Ðµ":6420,"ĠÐĶÐ¼Ð¸ÑĤÑĢÐ¸":6421,"ÐµÐ½Ð½ÑĥÑİ":6422,"ÑĤÐµÑĢÐ¾Ð²":6423,"ĠÐºÐ¾Ð½ÑĦÐµÑĢÐµÐ½":6424,"ĠÐ²Ð°ÑĪÐ¸Ñħ":6425,"ĠÐ´Ð¸Ð¿Ð»Ð¾Ð¼":6426,"ĠÐ·Ð½Ð°ÑİÑĤ":6427,"ĠÐ´Ð¾Ð¿ÑĥÑģÐºÐ°":6428,"ĠÐ¼Ð¸Ð½Ñĥ":6429,"ĠÑĥÐ½Ð¸ÑĩÑĤ":6430,"ĠÐ²Ð¾Ð·ÑĢÐ°ÑģÑĤÐµ":6431,"ĠÑħÑĥÐ´Ð¾Ð¶":6432,"ĠÐ¾ÑĤÐ²ÐµÑĢÑģÑĤÐ¸":6433,"ĠÐŁÐµÐ½":6434,"ĠÐ¡Ð²Ñı":6435,"Ð³Ð¾ÑĢÐ°":6436,"ĠÐ±Ð¾Ð»ÑĮÑĪÐ¸Ñħ":6437,"ÐµÑĢÐ°Ð¼Ð¸":6438,"ĠÐĴÐ¸Ð´ÐµÐ¾":6439,"ĠÐ¼Ð¸Ð½Ð¸Ð¼ÑĥÐ¼":6440,"ĠÐ½Ð°Ð·ÑĭÐ²Ð°ÐµÑĤÑģÑı":6441,"ĠÐ¿ÑĢÐµÐ´Ð¿ÑĢÐ¸ÑıÑĤÐ¸Ð¹":6442,"ĠÑĦÑĥÐ½ÐºÑĨÐ¸Ð¾Ð½Ð°Ð»ÑĮ":6443,"ĠÐĶÑĥÐ¼Ñĭ":6444,"ĠÐ²Ð´ÑĢÑĥÐ³":6445,"ian":6446,"ÑĢÐ°Ð½ÐµÐµ":6447,"Ð¿ÐºÐ¸":6448,"ÑĳÐ·":6449,"ĠÐ±ÑĥÐ´ÑĤÐ¾":6450,"ĠÐ¸Ð½ÑĤÐµÑĢÑĦÐµÐ¹":6451,"ĠÑĢÐ¸Ñģ":6452,"ĠÐ¸Ð½ÑģÑĤÑĢÑĥÐ¼ÐµÐ½ÑĤ":6453,"ĠÐ¿ÑĢÐ¾Ð²Ð¾Ð´Ð¸ÑĤÑĮ":6454,"ĠÐºÐ»ÑİÑĩÐµ":6455,"ĠÐ¿ÑĢÐ¾ÑģÐ¼Ð¾ÑĤÑĢÐ°":6456,"56":6457,"58":6458,"mail":6459,"Ð¸Ð¼Ð¸":6460,"ĠÐ²Ð½Ð¾Ð²ÑĮ":6461,"ĠÐºÐ¾ÑĢÐ¸":6462,"Ð²Ð°ÑİÑīÐ¸Ð¹":6463,"Ð¾Ð²Ð°ÑĢÐ¸":6464,"ÑĩÐ¸Ñħ":6465,"ĠÐ¿Ð¾Ð´ÐµÐ»Ð¸":6466,"Ð¿Ð°Ð½Ð¸Ð¸":6467,"Ð½ÑıÑİÑĤ":6468,"ĠÐºÐ¾Ð½ÑĤ":6469,"Ð±Ð¸ÑĤ":6470,"Ð¾Ð»ÑĮÐ·Ñĥ":6471,"Ð¾ÐºÐ°Ñı":6472,"ĠÑģÑĢÐµÐ´Ñĭ":6473,"ĠÑģÐ¾Ð·Ð½Ð°":6474,"ĠÑģÐ´ÐµÐ»Ð°Ð»":6475,"ĠÐŁÐ¾ÑĩÐµÐ¼Ñĥ":6476,"ĠÑģÑĨÐµÐ½Ð°":6477,"ÑįÑĦÑĦÐ¸ÑĨÐ¸":6478,"ÑĩÐºÐ¾Ð¹":6479,"ĠÑģÐ´Ð°":6480,"ĠÑģÑĬ":6481,"ĠÐ½Ð°ÑĪÐ°":6482,"Ð¡ÐµÑĢ":6483,"Ð¼ÐµÑĢÐ°":6484,"ĠÐ²Ð¸ÑĢÑĤÑĥ":6485,"ĠÐ¿ÐµÑĢÐµÑģÐµ":6486,"ĠÐ´Ð¸ÑģÐ¿":6487,"ÐĵÐĺ":6488,"Ð±Ð¾ÑĢÑĭ":6489,"ĠÐ¼Ð¾ÐµÐ¹":6490,"ĠÐºÑĥÑĢÑģÐ°":6491,"ĠÐ¿ÑĢÐ¾Ð´Ð°Ð¶Ð¸":6492,"ĠÐºÐ½Ð¸Ð³Ð°":6493,"ĠÐ²ÑĢÐ°Ñĩ":6494,"ĠÐĺÑģÐ¿Ð¾Ð»Ð½Ð¸ÑĤÐµÐ»ÐµÐ¼":6495,"Ð³Ð¾ÑĤÐ°Ð²Ð»Ð¸":6496,"az":6497,"ÑĢÐ¿Ð¸":6498,"ĠÐºÑĢÑİ":6499,"ÐºÑĤÐ¾ÑĢÐ¾Ð²":6500,"ÐºÐ¾Ð²ÑĮ":6501,"ĠÐºÐ¾ÑĤÐ¾ÑĢÐ¾Ð¼Ñĥ":6502,"ÑģÑĤÐ²ÐµÐ½Ð½ÑĥÑİ":6503,"Ð¾ÑĩÐ½Ð°Ñı":6504,"ĠÐ¿Ð»Ð°Ð½ÐµÑĤ":6505,"ĠÐ±Ð°Ð³Ð°":6506,"ite":6507,"ĠÑģÐµÐºÑģÐ°":6508,"ĠÐ·Ð°Ð´Ð°ÑĩÐ¸":6509,"ĠÐ²Ð¾Ð·ÑĢÐ°ÑģÑĤ":6510,"ĠÐķÐ²ÑĢÐ¾Ð¿Ñĭ":6511,"ĠÐ¿ÑĥÐ±Ð»Ð¸Ñĩ":6512,"ÑĤÐ¸ÐºÑĥ":6513,"Ð»ÐµÐ³Ð°":6514,"ĠÐ¡Ð¸Ð¼":6515,"ÐŁÐŀ":6516,"ĠÐ¿ÑĢÐµÑĤÐµÐ½":6517,"ĠÑģÑĤÑĢÐ°Ð½Ð°Ñħ":6518,"ĠÐ°ÐºÑĤÐ¸Ð²Ð¸":6519,"ĠÐļÐ°Ð¶Ð´ÑĭÐ¹":6520,"Ġto":6521,"ĠÐ²ÑĤÐ¾ÑĢÐ¾Ð³Ð¾":6522,"ĠÐ¼ÐµÐ´Ð¸ÑĨÐ¸":6523,"Ð½Ð°Ð´ÑĨÐ°":6524,"ĠÐ½Ð°Ð·ÑĭÐ²Ð°ÑİÑĤ":6525,"Ġk":6526,"Ð»Ð»Ñİ":6527,"ĠÑĦÑĢÐ¾Ð½":6528,"ĠÐ¿Ð¾Ð´ÑĬ":6529,"ÑģÑĤÐ¾Ð¸Ð½":6530,"ÐļÑĥÑĢ":6531,"ĠÐĳÐµÑĢ":6532,"ÐĺÑģÐ¿":6533,"ÐľÐ¾ÑģÐº":6534,"ÑĥÐ¶Ð´Ð°":6535,"ĠÐĴÐ°ÑģÐ¸":6536,"!!!!":6537,"ĠWindows":6538,"ĠÐ²ÑģÑĤÑĢÐµÑĩÐ¸":6539,"ĠÐ½Ð°ÑĢÑĥÑĪÐµÐ½Ð¸Ñı":6540,"ĠÐ¿Ð¾Ð¸ÑģÐº":6541,"ĠÐ§ÐµÐ»ÑıÐ±Ð¸Ð½":6542,"ect":6543,"Ð¿Ð°ÑĢÑĤÐ°":6544,"ĠÐºÐ¸ÑĤÐ°Ð¹":6545,"Ð¾Ð»Ñĭ":6546,"ĠÐ°Ð»ÑİÐ¼Ð¸":6547,"ĠÐĶÐ¾Ð³Ð¾Ð²":6548,"ĠÐ´ÑĥÑĪÐ¸":6549,"ĠÐ¿ÑĢÐ¾Ð³ÑĢÐ°Ð¼Ð¼Ðµ":6550,"ĠÐ³Ð¾Ð´Ð¾Ð²":6551,"ĠÑĤÑĢÐ°ÑħÐ°":6552,"ĠÑĥÐ¿ÑĢÐ°Ð¶":6553,"ĠÑģÐ½Ð¸Ð¶Ð°":6554,"ĠÐ¸ÑģÐ¿Ð¾Ð»Ð½ÐµÐ½Ð¸Ñı":6555,"AR":6556,"pp":6557,"Ð²ÑĮ":6558,"ĠÐ¿Ð»Ñı":6559,"ĠÐ¸Ð¼ÐµÐ½":6560,"Ð±Ð°ÑĢ":6561,"Ð²Ð°ÑİÑīÐ¸Ñħ":6562,"ĠÐ¾Ð±ÑīÐµÐ¹":6563,"ĠÐ¿ÑĢÐ¸ÑĩÐµÐ¼":6564,"ÑģÐ¿Ð¸":6565,"ĠÑģÑĤÐ¾Ð¼Ð°ÑĤ":6566,"ĠÐŀÐ´Ð¸Ð½":6567,"ĠÐ¿ÑĢÐµÐ´ÑĥÐ¿ÑĢÐµ":6568,"ĠÐĵÑĢÑĥ":6569,"ĠÐ¿Ð¾Ð´Ð´ÐµÑĢÐ¶ÐºÐ¸":6570,"ĠÐ²ÑĭÐ¸Ð³ÑĢÑĭ":6571,"Ð¾ÑĢÐ¾Ð½ÐµÐ¶":6572,"ĠÐļÐ½Ð¸Ð³Ð¸":6573,"AS":6574,"ÑĤÐ¸ÑĩÐµÑģÐºÐ¸":6575,"ĠÐ»Ð¾Ñħ":6576,"ĠÐ¿ÑĢÐ¸Ðº":6577,"ĠÐłÐ¾Ñģ":6578,"ĠÐĲÐ±":6579,"Ð½ÑĥÐ¶Ð´":6580,"ÐµÐ´ÐµÐ½Ð¸Ðµ":6581,"ĠÐ¾Ð±ÑĬÐµÐ´Ð¸":6582,"ĠÐ»ÑİÐ±Ð²Ð¸":6583,"ĠÐ²ÐµÑĢÑģÐ¸Ñı":6584,"ĠÐ´Ð²Ð¸Ð¶ÐµÐ½Ð¸Ðµ":6585,"ĠÐ¢ÐµÑħ":6586,"ĠÑĢÐ°Ð·Ð¼ÐµÑĢÐ°":6587,")))":6588,"ĠÐ²Ð¿ÑĢÐ°Ð²Ðµ":6589,"Ð±Ð°Ð½Ðº":6590,"Ð³Ð¾ÑĤ":6591,"ĠÐ´Ð°ÑĢ":6592,"Ð²Ð¸Ð·Ð¸":6593,"Ð¼ÐµÐ½Ñı":6594,"ĠÑħÐ¾Ð´":6595,"ĠÐ¸Ð½Ð´Ñĥ":6596,"ĠÐºÐ¾Ð½ÐºÑĥ":6597,"ĠÑģÐ¿ÐµÐºÑĤ":6598,"ĠÐłÐ¾ÑģÑģÐ¸Ð¹":6599,"ĠÐºÐ°ÑĢÑĤÑĥ":6600,"ĠÐĺÐ½ÑģÑĤÑĢÑĥ":6601,"Ð´ÑĮÐ¼Ð¸":6602,"ĠÐ¿ÑĢÐµÐºÑĢÐ°ÑģÐ½Ð¾":6603,"ĠÐ¸Ð·Ð³Ð¾ÑĤÐ¾Ð²Ð»ÐµÐ½Ð¸Ñı":6604,"ĠÐ¾ÑĤÐµÑĩÐµ":6605,"ÑĤÐ½Ð°Ñı":6606,"Ð¿ÐµÐ½Ð½Ð¾":6607,"ĠÐ½Ð°Ð½ÐµÑģ":6608,"ĠÐ·Ð°Ð¸Ð½ÑĤÐµÑĢÐµÑģ":6609,"ĠÑĤÑİ":6610,"ĠÐĳÐ»Ð¾Ðº":6611,"Ð»ÐµÐ½Ð½Ð°Ñı":6612,"ĠÐ²Ð¾ÑģÐº":6613,"ĠÑħÐ¾ÑĢÐ¾ÑĪÐ¸Ð¹":6614,"Ð³ÐµÐ»ÑĮ":6615,"ĠÐ·Ð°Ð½Ð¸Ð¼Ð°ÐµÑĤ":6616,"ĠÑĥÑģÐ¿ÐµÑĪÐ½Ð¾":6617,"ÐŁÐµÑĤÐµÑĢÐ±ÑĥÑĢÐ³Ð°":6618,"ĠÐ¿Ð¸ÑģÑĮÐ¼ÐµÐ½":6619,"ĠÐ¸Ð½ÑĦÐµÐº":6620,"??":6621,"ÐºÐ¾Ð±":6622,"ĠÐ¸ÑĤÐ°Ð»ÑĮÑıÐ½":6623,"ĠÐ±Ð°Ðº":6624,"ĠÑĩÑĢÐµÐ·":6625,"Ð»ÐµÐ²Ð¾Ð¹":6626,"ĠÐ¿Ð¾Ð´Ð±Ð¾ÑĢ":6627,"ĠÐĲÑĦ":6628,"ĠÐ¿Ð¾Ð»Ð¾Ð²":6629,"ÐĿÑĥ":6630,"ĠÐĳÐ¾Ð»ÐµÐµ":6631,"ĠÐ¸Ð½ÑĤÐµÐ»Ð»ÐµÐºÑĤ":6632,"2006":6633,"ĠÑģÐ¿Ð¾ÑģÐ¾Ð±Ð¾Ð¼":6634,"ÑīÐµÐ½Ð¾":6635,"ĠÐŁÑĢÐ¾ÑĦÐµÑģÑģÐ¸Ð¾Ð½Ð°Ð»ÑĮ":6636,"ĠÑĤÑĢÑĥÐ´Ð¾Ð²":6637,"ĠÐ±Ð¾Ð»ÑĮÑĪÐ¾Ð³Ð¾":6638,"ĠÐºÐ²Ð°ÑĢÑĤÐ¸ÑĢÑĥ":6639,"ĠÑĥÐ´Ð¾Ð±Ð½Ð¾":6640,"ĠÐ¶ÑĥÑĢÐ½Ð°Ð»Ð¸":6641,"ĠÑģÑĥÑĤÐºÐ¸":6642,"ĠÐ¿ÐµÐ´Ð°Ð³Ð¾Ð³Ð¸":6643,"Ð²ÑıÐ·Ð°":6644,"ĠÐ¿Ð¾Ð¶ÐµÐ»Ð°":6645,"ĠÐ¿Ð¾ÑģÑĤÑĥÐ¿Ð¸":6646,"Ð¾Ð»ÑĮÐ½ÑĭÐµ":6647,"ĠÐ²ÑĭÑĢÐ°":6648,"ÑĪÐ¸Ð¿":6649,"ÑīÐ¸Ð½Ñĭ":6650,"ĠÐľÐŀ":6651,"Ð³Ð¸Ñİ":6652,"ĠÐºÐ¾Ð¼Ð½Ð°ÑĤ":6653,"ĠÐĿÐ°ÑĪÐ¸":6654,"Ð²Ð°ÑĢÑĤÐ¸":6655,"ĠÑĨÐ¸ÐºÐ»":6656,"ĠÐ¸ÑģÑĤÐ¾ÑĢÐ¸Ñİ":6657,"ĠĠĠĠĠĠĠĠ":6658,"ĠÐ³Ð¸Ð´ÑĢÐ¾":6659,"ĠÐ¿ÑĢÐ¸Ð²Ð¾Ð´Ð¸ÑĤ":6660,"ĠÑĤÐµÑĢÑı":6661,"Ð°Ð½ÑĮ":6662,"ĠÑģÐ²ÐµÑĤÐ¸":6663,"ĠÐ¢ÐµÑĢ":6664,"ĠÐ¼ÐµÐ±ÐµÐ»Ð¸":6665,"Ð±Ð°ÑĢÐ¾Ð²":6666,"Ð»Ð¾Ð¶ÐµÐ½Ð¸Ðµ":6667,"ĠÐ¿ÑĢÐ°Ð²Ð¸Ð»":6668,"ĠÑĢÐµÐ³Ð¸Ð¾Ð½Ðµ":6669,"ÑģÑĤÑĢÐµÐµ":6670,"ĠÐ¿ÑĢÐµÐ´Ð»Ð¾Ð¶ÐµÐ½Ð¸Ðµ":6671,"ĠÐ¡ÑĤÑĢÐ¾Ð¸":6672,"ĠÑģÐ»ÐµÐ´ÑĥÑİÑīÐ¸Ð¹":6673,"Ð¼Ð°Ð³Ð°Ð·Ð¸Ð½Ðµ":6674,"ĠÐ¾Ð±ÑĢÐ°ÑĤÐ¸ÑĤÑĮÑģÑı":6675,"ÑģÐ½ÑĭÐ¹":6676,"Ð¶Ð½Ð¾Ðµ":6677,"Ð»ÑĮÐ½Ð¾ÑģÑĤÑĮ":6678,"ÑģÐºÐ¾ÑĢ":6679,"ĠÐ±ÑĥÑĢ":6680,"ĠÐ·Ð°Ð²Ðµ":6681,"Ð¾ÐºÐ¸":6682,"ĠÐ¿ÑĢÐ¾ÑĦ":6683,"ĠÐºÐ¾Ð¼Ð¸ÑĤ":6684,"ĠÑģÐ¸Ð»ÑĮ":6685,"Ð½ÑĥÐ»Ð¸":6686,"Ð¾Ð¶Ð¸Ð´Ð°Ð½":6687,"ĠÐ¦ÐµÐ½Ð°":6688,"ĠÐĴÐ°ÑĪÐ¸":6689,"Ð²Ð°ÑıÑģÑĮ":6690,"ĠÐºÑĢÐ°Ð¹Ð½Ðµ":6691,"ĠÐ´ÑĢÐµÐ²Ðµ":6692,"ÑĥÑģÑĤÑĢÐ¾Ð¹":6693,"Ð²Ð»Ð°":6694,"Ð»ÑĮÐ½Ð¸ÐºÐ°":6695,"ĠÐ³ÑĢÐ°Ð½":6696,"ĠÐ·Ð°ÑĢ":6697,"ĠÑģÑĤÐ¾ÑĢ":6698,"ĠÐ¿Ð¾Ð´ÑĢÐ°Ð·Ð´Ðµ":6699,"Ð»ÑİÐ±":6700,"ÑīÐ°ÑİÑĤÑģÑı":6701,"ĠÑģÐ»ÑĥÑĪÐ°":6702,"ĠÐ¿Ð¾Ð»ÑĥÑĩÐ¸ÑĤÐµ":6703,"Ð»Ð°Ð½Ð´":6704,"ÑĢÐ°Ð±Ð¾ÑĤÐ°ÑĤÑĮ":6705,"ĠÑĤÐµÐ¼Ð¿ÐµÑĢÐ°ÑĤÑĥÑĢÑĭ":6706,"ĠÐ°Ð½Ð°Ð»Ð¸Ð·":6707,"ĠÐŀÑĢÐ³Ð°Ð½Ð¸":6708,"ĠÐºÐ»ÑĥÐ±Ð°":6709,"59":6710,"63":6711,"ÑĤÑĦÐ¸Ð»ÑĮ":6712,"Ð±ÐµÑĤ":6713,"Ð²Ð°Ð»Ð°ÑģÑĮ":6714,"ĠÐºÐ°ÐºÐ°Ñı":6715,"ĠÐŁÐ¾Ð²":6716,"ĠÑĢÐµÐ´":6717,"ĠÐ»Ð¸Ð½":6718,"ÑĢÐ°Ð½Ñģ":6719,"Ð¾ÐºÐ°ÑĩÐµ":6720,"ÐĳÐ°":6721,"Ð¾ÑĢÐ¾ÑĤÐ°":6722,"ĠÑģÐ°Ð¹ÑĤÐ¾Ð²":6723,"ĠÑĦÐ¾ÑĢÑĥÐ¼Ðµ":6724,"Ð§Ðµ":6725,"ĠÐ¾ÑĤÐ½Ð¾ÑĪÐµÐ½Ð¸Ð¹":6726,"ĠÐ±ÑĥÐºÐ²Ð°":6727,"ÑģÐ½ÑĭÑħ":6728,"ĠÐ¸Ð½Ð¸ÑĨÐ¸":6729,"ÑĪÐ»Ð¾":6730,"ĠÑĥÐ»Ñĭ":6731,"ĠÐ·Ð°ÑĢÑıÐ´":6732,"ĠÐ·Ð°ÐºÐ¾Ð½Ð°":6733,"Ð¾ÐºÐ¾Ð¼":6734,"ĠÐ¿ÑĢÐ¸ÑĩÐ¸Ð½":6735,"ÑĩÐ°ÐµÑĤÑģÑı":6736,"ĠÑĦÐ°ÑĢ":6737,"ĠÑģÐ²ÐµÑĢ":6738,"Ð¶ÐµÐº":6739,"ĠÐ¸Ð½ÑĤÐ¸Ð¼":6740,"ĠÐĳÐµÑģÐ¿Ð»Ð°ÑĤ":6741,"ÑĨÐ¸Ð¾Ð½Ð½Ð¾":6742,"ÑĩÐµÐ½ÐºÐ¾":6743,"end":6744,"ĠÐ±ÐµÑģ":6745,"ĠÑģÐ²ÑıÐ·ÑĮ":6746,"ĠÐ·Ð°Ð´Ð°Ñĩ":6747,"ĠÑĢÐ°Ð´Ð¸Ð¾":6748,"ĠÐ½ÐµÐ±Ð¾Ð»ÑĮÑĪÐ¾Ð¹":6749,"Ð¾ÐºÐ°Ð·Ð°ÑĤÑĮ":6750,"ĠÐ¾Ð¿ÑĤÐ¸Ð¼Ð¸":6751,"54":6752,"Ġy":6753,"ÑħÐ°Ð»":6754,"ĠÐ½ÐµÑģÐ¼Ð¾ÑĤÑĢÑı":6755,"ĠÂ©":6756,"ÐļÐ¡":6757,"ĠÐ¼Ð¾Ñı":6758,"ÑıÐ±ÑĢÐµ":6759,"ĠÑĪÐ¸Ð½Ñĭ":6760,"ĠÑĩÐ¸ÑģÐ»Ð°":6761,"ĠÐ¶ÐµÐ»Ð°Ð½Ð¸Ðµ":6762,"ĠÐºÐ¾Ð½ÑĤÑĢÐ¾Ð»Ð¸":6763,"ÐĺÐ½ÑĤÐµÑĢ":6764,"ĠÐ±Ð°ÑĤÐ°ÑĢÐµÐ¸":6765,"ĠÐ¿Ð¾Ð·Ð¸ÑĨÐ¸Ð¸":6766,"Ġre":6767,"Ð¼ÑĭÑħ":6768,"ÐµÐ½Ð½Ð¾ÑģÑĤÐ¸":6769,"ĠÐ¸Ð±Ð¾":6770,"ĠÐ½ÐµÐ³Ð°":6771,"ĠÐŀÐ¿":6772,"ĠÐ»Ð¸ÑĨÐµ":6773,"ÑĢÐ¾Ð²Ð°Ð»":6774,"ÐłÐ£":6775,"ĠÐ¾ÑģÐ½Ð¾Ð²Ð°Ð½Ð¸Ñı":6776,"ĠÐ»ÑİÐ´ÑĮÐ¼Ð¸":6777,"ĠÑĢÐ¾Ð¼Ð°Ð½":6778,"Ð»Ð¾Ð¶Ð¸ÑĤÑĮ":6779,"ÐŃÐº":6780,"ĠÐ¿Ð¾ÑģÐ»ÐµÐ´Ð½Ð¸Ñħ":6781,"ĠÐ¡Ð¾ÑĨÐ¸Ð°Ð»Ð¸":6782,"ĠÐ£ÐºÑĢÐ°Ð¸Ð½Ð°":6783,"ĠÑģÐ¼Ð¾Ð³ÑĥÑĤ":6784,"SB":6785,"ÑģÐ¾ÑĢ":6786,"Ð³Ð°ÑĤÑĮ":6787,"ÑĢÐ¾Ð²Ð¾Ð´":6788,"ĠÐĳÐ¾Ð³Ð°":6789,"ino":6790,"ĠÑĢÐ°ÑģÐ¿Ð¾ÑĢÑı":6791,"ĠÑģÐµÑĢÐ´ÑĨÐ°":6792,"Ð¥ÐŁÐĺ":6793,"ĠÐ¼Ð°Ð³Ð°Ð·Ð¸Ð½Ñĭ":6794,"ash":6795,"ĠÐ¿Ð¾Ð²ÑĭÑĪÐµÐ½Ð¸Ñı":6796,"ĠÑģÐ¿Ð°ÑģÐ¸Ð±Ð¾":6797,"ĠÐ³Ð¾Ð»Ð¾Ð²Ñĥ":6798,"ĠÐ½ÐµÑĦÑĤÐµ":6799,"ĠÐ·Ð°Ð¿Ð¸ÑģÐ¸":6800,"Ð¢Ð°ÐºÐ¶Ðµ":6801,"ĠÐ±Ð¾Ð»ÑĮÑĪÐ¸Ð½ÑģÑĤÐ²Ð¾":6802,"ĠÐ°ÑģÑģÐ¾ÑĢÑĤÐ¸Ð¼ÐµÐ½ÑĤ":6803,"Â©":6804,"Ġ*":6805,"Ð¾Ð¾Ñħ":6806,"ĠÐ½Ð°ÑĪÐµ":6807,"ÑĩÐµÐ²":6808,"ÑģÐ¿ÐµÐºÑĤÐ¸Ð²":6809,"ĠÐºÐ°Ð¶Ð´Ð¾Ð¼Ñĥ":6810,"ĠÐ¿Ð¾ÑģÐ»ÐµÐ´Ð½Ð¸Ð¹":6811,"ĠÐ´Ð¾Ð¿Ð¾Ð»Ð½Ð¸":6812,"ĠÑĦÐ¸Ð»ÑĮÐ¼Ð°":6813,"ĠÐŁÐ¾ÑģÐ»ÐµÐ´":6814,"ĠÑģÐ¾ÑĨÐ¸Ð°Ð»ÑĮÐ½ÑĭÑħ":6815,"ĠÐ¾Ð±ÑĥÑĩÐµÐ½Ð¸Ðµ":6816,"ĠÐ²Ð·ÑĢÐ¾ÑģÐ»ÑĭÑħ":6817,"Ġï¿½ï¿½ï¿½ï¿½ï¿½ï¿½ï¿½ï¿½":6818,"ĠÐ¿Ð¾ÐºÐ¾Ð»ÐµÐ½Ð¸Ñı":6819,"ver":6820,"Ð´Ð»Ñı":6821,"ĠÐ¾ÑĦÐ¾ÑĢÐ¼Ð¸":6822,"ĠÐ±Ð»Ð¾Ð³":6823,"Ð¾Ð±Ð»Ð°":6824,"ĠÐ»ÐµÐº":6825,"ĠÐĴÑģÑĳ":6826,"ĠÐļÐ¾ÑģÑĤ":6827,"ĠÐ¿Ð¾Ð´Ð¾Ð·":6828,"ĠÑħÐ¾ÑĤ":6829,"ĠÐ´Ð¾ÑģÑĤÑĥÐ¿Ð°":6830,"ĠÑĪÐºÐ¾Ð»Ðµ":6831,"Ð¾Ð´ÐµÐ»ÑĮ":6832,"ĠÐ¸Ð¼Ð¼Ñĥ":6833,"Ð±ÑıÑĤÐ°":6834,"ĠÐ¿ÑĢÐ¾Ð³ÑĢÐ°Ð¼Ð¼Ñĥ":6835,"ĠÑĩÐµÐ»Ð¾Ð²ÐµÐºÑĥ":6836,"ĠÐ³Ð¾ÑĢÐ¾Ð´ÑģÐºÐ¾Ð¹":6837,"ĠÐ¾ÑĤÐ²ÐµÑĤÑģÑĤÐ²ÐµÐ½Ð½Ð¾ÑģÑĤÑĮ":6838,"72":6839,"ĠÑīÐ¸":6840,"ĠÐ¼Ð¾ÑĤÐ¸":6841,"ĠÐ³Ð¾Ð½":6842,"ÑģÑĤÐ°Ð¼":6843,"ĠÑģÑĤÐ¾Ð»ÑĮÐºÐ¾":6844,"ĠÑĤÐµÐ¼Ðµ":6845,"ÐŁÐŁ":6846,"ĠÐ²ÐµÑģÑĤÐ¸":6847,"Ð³ÑĥÐ»Ð¸":6848,"ÑĢÐ¾Ð²Ð°Ð½Ð½Ð¾Ð³Ð¾":6849,"Ð¾Ð³ÑĢÐ°ÑĦÐ¸Ñı":6850,"ĠÑģÐµÐ³Ð¾Ð´Ð½ÑıÑĪÐ½Ð¸Ð¹":6851,"ĠÐĲÐ´Ð¼Ð¸Ð½Ð¸ÑģÑĤÑĢÐ°":6852,"ĠÑĢÐ°ÑģÑģÐºÐ°Ð·Ð°Ð»":6853,"ĠÑģÐ²Ð°Ð´ÑĮ":6854,"ĠÐ¿Ð¾Ð·Ð½Ð°ÐºÐ¾Ð¼":6855,"ĠÑĢÐ¾Ð²":6856,"Ð²ÑĢÐ°ÑĤ":6857,"ĠÐ¿Î¿":6858,"ĠÐ½Ð¾Ð¼Ð¸Ð½Ð°":6859,"Ð»ÑĮÐ½Ð¾ÑģÑĤÐ¸":6860,"ÑĦÐ¾Ð½Ñĭ":6861,"ÑĩÐ¸Ð²Ð°ÑĤÑĮ":6862,"Ð²Ð¸ÑĤ":6863,"Ð¡Ð¿":6864,"ĠÐĶÐµÐ²":6865,"ÐĴÐ¾Ð·":6866,"ĠÐ»Ð¸ÐºÐ²Ð¸":6867,"Ð±Ð°Ñı":6868,"ÑģÑĤÐ¾ÑĢÐ¸Ñı":6869,"ÐºÑĤÐ¾ÑĢÑĭ":6870,"ĠÐ¿ÐµÑĢÐ¸Ð¾Ð´Ð¸":6871,"ĠÐ¸ÑĤÐ¾Ð³":6872,"ĠÐ³Ð°ÑĢÐ¼Ð¾":6873,"52":6874,"ĠÐ²ÑģÑĤÑĢÐ¾":6875,"ÐµÐ½Ð¾Ñģ":6876,"Ð¿ÑĢÐµÐ´":6877,"ĠÐ¾ÑģÑĤÐ°Ð²":6878,"ÑĢÐ¸Ð°":6879,"ĠÐŁÐµÑĤÐµÑĢÐ±ÑĥÑĢ":6880,"ÐĴÐ¾ÑĤ":6881,"ĠÐ¾ÑģÐ¾Ð±Ð¾":6882,"ĠÑĢÐ°ÑģÑģÑĩÐ¸ÑĤÑĭ":6883,"ĠÐ¿ÑĢÐ¸Ð¼ÐµÐ½ÐµÐ½Ð¸Ðµ":6884,"ÑģÑĤÐ²ÑĥÑİÑīÐ¸Ñħ":6885,"ĠÐ°Ð²ÑĤÐ¾Ð½Ð¾Ð¼":6886,"ĠÑģÐºÐ¾ÑĢÐ¾ÑģÑĤÐ¸":6887,"ĠÐ¿Ð¾Ð»Ð¾Ð¶ÐµÐ½Ð¸Ðµ":6888,"ĠÑħÑĥÐ´Ð¾Ð¶Ðµ":6889,"Ġ===>":6890,"Ġon":6891,"Ð¾ÑģÐ½Ð¾Ð²Ð°":6892,"ĠÐ²ÑĭÐ¿":6893,"ĠÐ¿ÑĢÐ¾Ñħ":6894,"ĠÐ¶Ð°ÑĢ":6895,"ĠÐĺÑİ":6896,"ĠÐ´Ð¾ÑģÑĤÐ¾Ð¸Ð½":6897,"ĠÑģÑĥÐ¿":6898,"ÐµÐ²Ð½Ð°":6899,"ĠÐ½Ð¾Ð²ÑĥÑİ":6900,"ÐºÐ»ÑİÑĩÐµÐ½Ð¸Ñı":6901,"ĠÐ½Ð°ÑĩÐ°Ð»Ð¸":6902,"ĠÑĤÐµÑĢÐ¼Ð¸":6903,"ĠÑģÑĩÐ¸ÑĤÐ°ÐµÑĤ":6904,"ĠÑĦÐ¾ÑĢÐ¼Ð°ÑĤÐµ":6905,"ĠÐ¾Ð±ÑģÐ»ÑĥÐ¶Ð¸Ð²Ð°Ð½Ð¸Ñı":6906,"ĠÐ¿ÑĢÐ¸Ð½Ð°Ð´Ð»ÐµÐ¶Ð°":6907,"ĠÐºÐ°Ð»ÐµÐ½Ð´Ð°ÑĢ":6908,"Ð»ÐºÐµ":6909,"Ð¼Ð³":6910,"ĠÐ²Ð½Ð¸":6911,"ÐµÑĤÐºÐ¸":6912,"Ð¶ÐµÐ½Ð¸Ñİ":6913,"Ð¾ÑĤÐ²ÑĢÐ°":6914,"ĠÐ½ÐµÐ·Ð½Ð°":6915,"ĠÐ¿Ð¾ÑģÑĤÐ°Ð²Ð¸ÑĤÑĮ":6916,"ĠÐ·Ð°ÑĢÑĥÐ±Ðµ":6917,"ÐºÐ¾Ð²Ð¾Ð³Ð¾":6918,"ĠÑĤÐ¾ÑĢÐ¶Ðµ":6919,"ĠÐ°Ð½Ð°Ð»Ð¸Ð·Ð°":6920,"ĠÐ¢Ð¸Ð¿":6921,"ĠÑģÑĥÑĤÐ¾Ðº":6922,".).":6923,"88":6924,"Ð°Ñı":6925,"ĠÐ¼Ð¾Ð½Ð°":6926,"ĠÐ·Ð°Ð¿Ð»Ð°":6927,"Ð´Ð¸Ð»Ð¸":6928,"Ð¼ÐµÐ»ÑĮ":6929,"ĠÐ¾Ð¿ÑĤÐ¾Ð¼":6930,"Ð¼ÑĭÑĪ":6931,"Ð¤ÐĹ":6932,"ĠÑģÐ¿ÐµÑĨÐ¸":6933,"ĠÑĥÑģÑĤÑĢÐ¾Ð¹ÑģÑĤÐ²Ð¾":6934,"ĠÑħÐ¸ÑĢÑĥÑĢ":6935,"ĠÐ¿Ð¾Ð³Ð¸Ð±":6936,"ĠÑģÐ¾ÑħÑĢÐ°Ð½":6937,"ÑģÑĤÐ½ÑĭÐµ":6938,"ĠÐ±Ð°Ð¼":6939,"ĠÐ¾Ð±ÑīÐµÑģÑĤÐ²":6940,"ĠÐŀÐºÑĤÑıÐ±ÑĢÑĮ":6941,"ÐŀÐ½":6942,"ÐĶÐ¾Ð±":6943,"ĠÐ´Ð°ÑİÑĤ":6944,"ĠÐ³Ð¾ÑĢÐ¸Ð·":6945,"ĠÑģÐ°Ð¼Ð°Ñı":6946,"ĠÑĢÐµÐ·ÑİÐ¼Ðµ":6947,"ĠÑĥÑģÑĤÐ°Ð½Ð¾Ð²ÐºÐ°":6948,"ĠÐ°Ð½Ð´":6949,"ĠÐ½Ð°Ð¼Ð½Ð¾Ð³Ð¾":6950,"oft":6951,"ĠÐºÐ¾Ð»ÐµÐ±Ð°":6952,"ĠÐ¾ÐºÐ¾Ð½ÑĩÐ°Ð½Ð¸Ñı":6953,"ÑĤÑĮÐ¸":6954,"ĠÑĢÐµÐ²Ð¾Ð»Ñİ":6955,"ĠÐ¸Ð·Ð¾Ð±":6956,"ĠÐĿÐĶ":6957,"ĠÐĲÐ¼ÐµÑĢÐ¸":6958,"Ð»ÐµÐ½Ð½ÑĭÐ¼":6959,"ĠÐ»ÑİÐ±ÑĥÑİ":6960,"ÑĦÐµÑģÑģ":6961,"ĠÐ°ÑĢÐ¼Ð¸":6962,"ĠÐ¿ÑĢÐ¾Ð´Ð°Ð¶Ð°":6963,"rack":6964,"ĠÑģÐ¾Ð±ÑģÑĤÐ²ÐµÐ½Ð½Ð¾ÑģÑĤÐ¸":6965,"ÑĤÑıÐ³Ð¸":6966,"Ð½Ð¾Ð²Ð¸Ð´":6967,"ĠÑįÐºÐ¾Ð½Ð¾Ð¼Ð¸ÐºÐ¸":6968,"ĠÑģÑĢÐ°Ð²Ð½Ð¸":6969,"ĠÑĢÐ°ÑģÐ¿ÑĢÐ¾ÑģÑĤÑĢÐ°":6970,"ĠÐ¾Ð±ÑģÐ»ÑĥÐ¶Ð¸Ð²Ð°Ð½Ð¸Ðµ":6971,"ĠÐ½Ð°ÐºÐ¾Ð½ÐµÑĨ":6972,"ĠÐ²ÑĢÑĥ":6973,"ĠÐ½ÐµÐ½Ð°":6974,"ÑħÐ³Ð°Ð»":6975,"Ġ----":6976,"ĠÐºÐ¾Ð½ÑĨÐµÐ½ÑĤ":6977,"Ð¾Ð¸ÑģÐº":6978,"ĠÐ·Ð½Ð°Ð½Ð¸Ð¹":6979,"ÐĽÐ¯":6980,"ĠÐ¦ÐµÑĢ":6981,"ate":6982,"ĠRe":6983,"ĠÐ±Ð¸Ð¾ÐºÐ°":6984,"ĠÐ´Ð¾Ð¿Ð¾Ð»Ð½Ð¸ÑĤÐµÐ»ÑĮÐ½ÑĭÐµ":6985,"ĠÑĥÐ½Ð¸Ð²ÐµÑĢÑģÐ¸ÑĤÐµÑĤÐ°":6986,"ĠÐ±ÐµÑĢÐµÐ¼ÐµÐ½Ð½Ð¾ÑģÑĤÐ¸":6987,"ĠÐĵÐµÑĢÐ¼Ð°Ð½Ð¸Ð¸":6988,"ĠÐ¾ÑģÑĤÐ°Ð²Ð¸ÑĤÑĮ":6989,"Ð¾ÐºÐµ":6990,"ĠÐĴÐŀ":6991,"ĠÐ»ÐµÑĩÐµÐ±":6992,"ĠÑĨÐµÐ»ÐµÐ¹":6993,"Ð¾Ð³Ð°Ñħ":6994,"ĠÐ¼Ð½Ð¾Ð³Ð¾ÑĩÐ¸Ñģ":6995,"ĠÑıÐ·ÑĭÐºÐµ":6996,"ĠÑĩÐ°ÑģÑĤÑĮÑİ":6997,"ĠÐ·Ð°Ð¿Ð°Ð´":6998,"110":6999,"Ð¿ÐµÑĤÐ¸":7000,"ĠÐ¼ÑıÑģ":7001,"ÑįÑĤ":7002,"ĠÐºÐ°ÐºÐ¾Ðµ":7003,"ĠÐ¸Ð·Ð±Ð¸ÑĢÐ°":7004,"ĠÐľÐ°Ñģ":7005,"ĠÐ±ÑĭÑģÑĤÑĢÐµÐµ":7006,"ĠÐĺÐ¼":7007,"ĠÑģÐ¿Ñĥ":7008,"ĠÑģÐ¸Ð´":7009,"ĠÑĢÐµÐ·ÐµÑĢ":7010,"ĠÐ¾Ð¿ÑĢÐµÐ´ÐµÐ»Ð¸ÑĤÑĮ":7011,"ÑĢÐ°Ð±Ð¾ÑĤÐºÐ¸":7012,"ĠÐ¾Ð±ÐµÑģÐ¿ÐµÑĩÐ¸ÑĤÑĮ":7013,"ĠÑħÐ¾Ð»Ð¾Ð´Ð¸":7014,"ĠÑĦÐ¸ÑĢÐ¼Ñĭ":7015,"ÐµÑħÐ°ÑĤÑĮ":7016,"ĠÐ²Ð¾ÑģÐ¿Ð¾Ð»ÑĮÐ·Ð¾Ð²Ð°ÑĤÑĮÑģÑı":7017,"ĠâĨĴ":7018,"Ð¸Ðº":7019,"ÑĤÐ½ÑĭÐ¼":7020,"Ð²ÑĪÐ¸Ð¼":7021,"ĠÑģÑĩÐ°":7022,"ĠÐ¼Ð½Ð¾Ð¹":7023,"ĠÑĥÑİÑĤ":7024,"Ð¾Ð²Ð°ÑĢÑĭ":7025,"ĠÐļÑĥÐ±":7026,"ĠÐ¿ÑĢÐ¾ÑĪÐµÐ»":7027,"ĠÐĶÐ¾Ð¼Ð°":7028,"Ð²ÐµÑĢÐ°":7029,"Ð¿Ð¸ÑģÑĮ":7030,"ĠÐ»Ð¸Ð½ÐµÐ¹":7031,"Ð¾Ð½Ð°ÑĩÐ°":7032,"ĠÐ¿ÐµÑĢÐµÐ¶Ð¸":7033,"ĠÐ¿ÐµÑĢÐ²Ð¾Ðµ":7034,"ĠGo":7035,"ĠÑģÐµÐ¼ÑĮÐµ":7036,"ĠÐľÐ¸ÑħÐ°":7037,"ĠÐ¸ÑģÑģÐ»ÐµÐ´Ð¾Ð²Ð°Ð½Ð¸Ð¹":7038,"ĠÐ¾Ð´ÐµÐ¶Ð´Ð°":7039,"ÐŀÑģÐ½Ð¾Ð²":7040,"Ð°ÑĢÑĮÐºÐ¾Ð²":7041,"line":7042,"Ð°Ð¿":7043,"ĠÑģÐ½ÑıÑĤÑĮ":7044,"ÑĤÐ°Ð»Ð¾Ð³":7045,"ÑĦÐ¾Ð²":7046,"ĠÐ½ÐµÐ´":7047,"ĠÐ³Ð»Ð¾Ð±":7048,"ĠÑĤÐ°Ð±Ð»Ð¸":7049,"ĠÐĶÑį":7050,"ĠMar":7051,"ÑīÐµÐ½Ð½ÑĭÐµ":7052,"ĠÐ¼Ð°ÑĪÐ¸Ð½Ð°":7053,"ĠÐ¸ÑģÑĤÐ¾ÑĩÐ½Ð¸ÐºÐ¾Ð²":7054,"ĠÐ¿ÐµÑĢÐµÐ´Ð°ÑĩÐ¸":7055,"ĠÐ½Ð°ÑĥÐºÐ¸":7056,"ĠÐ½Ð¾Ð¼ÐµÑĢÐ°":7057,"age":7058,"ĠÐĺÑģÐ¿Ð¾Ð»Ð½Ð¸ÑĤÐµÐ»Ñı":7059,"ĠÑįÐºÑģÐºÑĥÑĢ":7060,"ÑģÐ»Ð°Ð²":7061,"Ð¼ÑĥÑİ":7062,"ĠÐ²Ñĥ":7063,"ĠÐŀÐ»ÑĮ":7064,"Ð¼ÐµÐ½ÑĤÐ¾Ð¼":7065,"ĠÐ¿Ð¾Ð»Ð¾ÑĤ":7066,"ĠÐºÐ¾ÑĤÐ¾ÑĢÑĭÐ¼Ð¸":7067,"ĠÐ²Ð¸Ð´Ñĥ":7068,"int":7069,"ĠAd":7070,"ÑĢÐ°Ð»ÑĮÐ½ÑĭÑħ":7071,"ĠÑĢÐ°Ð·Ð²Ð¸ÑĤÐ¸Ñİ":7072,"ass":7073,"ĠÐ¾ÑģÑĥÑīÐµÑģÑĤÐ²Ð»Ñı":7074,"ĠÑĥÑģÑĤÑĢÐ¾Ð¹ÑģÑĤÐ²":7075,"ĠÑĪÐºÐ¾Ð»Ð°":7076,"ĠÐ¾Ð³ÑĢÐ°Ð½Ð¸ÑĩÐµÐ½":7077,"Ð»ÑİÐ´ÐµÐ½Ð¸Ñı":7078,"ock":7079,"Ð±ÐµÐ·":7080,"ĠÐ¼Ð¾ÑĤ":7081,"ÑĪÐ°Ð½":7082,"Ð¾Ð²Ð°Ð½Ð¸Ñİ":7083,"ĠÐ¿ÑĢÐ¾ÑģÑĤÐ¾Ð¹":7084,"ÑĪÐ¸Ð»":7085,"ĠÑĤÐµÐ»Ð¾":7086,"ĠÐŀÐĳ":7087,"ĠÐĵÑĢÐ°":7088,"Ð°ÐºÐ¾Ð¼":7089,"ĠÐ²ÐµÐ´Ð¾Ð¼":7090,"ĠSh":7091,"ĠÐ´ÐµÑĤÑıÐ¼":7092,"ĠÐ¼Ð¾Ð»Ð¾ÐºÐ°":7093,"ÑģÑĤÐ°Ð½ÑĨÐ¸Ð¸":7094,"ĠÐ²Ð¾Ð´Ð¾":7095,"ĠÐ¿ÑĢÐ¸Ð³Ð¾ÑĤÐ¾Ð²Ð»ÐµÐ½Ð¸Ñı":7096,"Ð¦ÐµÐ½ÑĤÑĢ":7097,"ĠÐ¸ÑģÐºÐ°":7098,"ĠÐ¿ÑĢÐ¸Ð²ÐµÑģÑĤÐ¸":7099,"ĠÐļÑĢÐ°":7100,"ĠÐ¿ÑĢÐ¾ÑģÑĮ":7101,"ÐŀÐ¿Ð¸ÑģÐ°Ð½Ð¸Ðµ":7102,"ĠÐĳÐ¾ÑĢÐ¸":7103,"Ð¾Ð»ÑĮÐ·Ð¾Ð²Ð°Ð½Ð¸Ðµ":7104,"ĠÐ±Ð°Ð»Ð°Ð½":7105,"ĠÐŁÑĢÐ¾ÑģÑĤÐ¾":7106,"ĠÐ¾ÑĤÐ´ÐµÐ»ÑĮÐ½ÑĭÑħ":7107,"ĠÐ»Ð°Ð±Ð¾ÑĢÐ°":7108,"ÑĤÐµÐ½ÑģÐ¸Ð²":7109,"ĠÐºÑĢÑĥÐ¿Ð½ÑĭÑħ":7110,"ĠÑįÑĦÑĦÐµÐºÑĤÐ¸Ð²Ð½Ð¾ÑģÑĤÐ¸":7111,"ĠÐ¿Ð¾ÐºÑĢÑĭÑĤÐ¸Ñı":7112,"ĠÑĤÐµÐ¾ÑĢÐ¸Ð¸":7113,"ÑĤÐ¾Ð¿":7114,"Ð²ÑĪÐ°Ñı":7115,"ÑĩÐ½Ð¸ÐºÐ°":7116,"Ð¶Ð½ÑĭÐ¼":7117,"ĠÐ±Ð»Ðµ":7118,"ĠÑĥÐ²Ð»ÐµÐºÐ°":7119,"Ð¾Ð¿ÐµÑĢÐ°":7120,"ĠÐºÐ¾Ð½ÑĨÐµÐ¿":7121,"ĠÐ¿ÐµÑĢÐ²ÑĭÐ¼":7122,"ĠII":7123,"ĠÑģÐµÐ¼ÑĮ":7124,"ĠÑģÐ¼Ð¾ÑĤÑĢÑı":7125,"ĠÑħÐ¾Ð·ÑıÐ¹ÑģÑĤÐ²Ð°":7126,"ies":7127,"Ð¼ÐµÐ¹":7128,"ĠÐ²ÑģÐº":7129,"ĠÐ½Ð¾Ð²Ð°Ñı":7130,"Ð¾ÑĢÐ¸ÑĤ":7131,"ĠÑĢÐ°Ð±Ð¾ÑĤÐ½Ð¸ÐºÐ¾Ð²":7132,"ÑģÐ¾Ð²ÐµÑĢÑĪÐµÐ½":7133,"ĠÑģÐ¾Ð¾ÑĤÐ²ÐµÑĤÑģÑĤÐ²ÐµÐ½Ð½Ð¾":7134,"ĠÐ¿ÑĢÐ¾Ð²ÐµÐ´ÐµÐ½Ð¸Ð¸":7135,"ĠÐ´Ð¾ÑģÑĤÐ¸Ð¶ÐµÐ½Ð¸Ñı":7136,"ĠÑĢÐ°Ð·Ð¼ÐµÑĢÐ¾Ð²":7137,"ĠÐ¿Ð¾Ð´Ð´ÐµÑĢÐ¶ÐºÑĥ":7138,"ĠÐ¾Ð¶Ð¸Ð´Ð°":7139,"ĠÐ¿ÑĢÐ¾ÑģÑĤÑĢÐ°Ð½ÑģÑĤÐ²Ð°":7140,"ĠÐ¿ÑĢÐ¾Ð³Ð½Ð¾Ð·":7141,"ÑĢÐ¾ÑģÐ¸Ð»":7142,"ĠÐ½ÐµÐ¿ÑĢÐ¸ÑıÑĤ":7143,"ĠÐľÐ°ÑĤÐµÑĢÐ¸Ð°Ð»":7144,"net":7145,"Ð½Ð½Ð°Ñı":7146,"Ð½ÐµÑĤÐ°":7147,"ÐºÐ²Ð°":7148,"Ð¼ÑģÑı":7149,"ÐµÐ½ÐºÐ¾":7150,"Ð¾Ð¼ÐµÑĢ":7151,"ĠÐ½Ð°Ð¼ÐµÑĢ":7152,"ÑīÐ°Ð¹":7153,"ĠÑĥÑĩÐµ":7154,"ÑĦÐµÐ´":7155,"ÑĤÐ¸ÑĩÐµÑģÐºÐ¸Ðµ":7156,"ĠÐ¡Ð¾Ð»":7157,"Ð²ÐµÑĨ":7158,"ÐµÐ½ÑĮÐµ":7159,"ĠÐ¿Ð»Ð°ÑĤÑĮÐµ":7160,"ĠÑģÐ°Ð´":7161,"ĠIP":7162,"ÑĢÐ°Ð±Ð¾ÑĤÐºÐ°":7163,"ĠÐ°Ð¿Ð¿Ð°ÑĢÐ°ÑĤ":7164,"ĠÐ¿ÑĢÐ°Ð·Ð´Ð½Ð¸Ðº":7165,"ĠÐ¿Ð°Ð¼ÑıÑĤ":7166,"ĠÐ¸Ð½ÑĦÑĢÐ°":7167,"ĠÐ¡Ð°Ð¹ÑĤÐµ":7168,"ĠÐ´ÑĢÑĥÐ·ÐµÐ¹":7169,"ĠÐ´Ð¸Ð·Ð°Ð¹Ð½Ð°":7170,"ĠÐºÐ¾ÑĢÐ°Ð±":7171,"ix":7172,"Ġx":7173,"ĠÐ¿ÑĢÐ¸Ð½Ð¾":7174,"ĠÑģÑĤÐµÐ½Ñĭ":7175,"ĠÑĤÐ°Ð»Ð°Ð½":7176,"Ð¸Ð·Ð¼":7177,"ÑģÑĤÐ²ÐµÐ½Ð½Ð¾Ð¼":7178,"ĠÐĵÐµ":7179,"ÑĨÐ°Ñħ":7180,"ĠÑģÐ¾Ð²Ð¼Ðµ":7181,"ÐµÐºÑĤÐ¾Ð²":7182,"ĠÑĨÐ¸Ð»Ð¸Ð½Ð´":7183,"ĠÐ²Ð¸Ð´Ð½Ð¾":7184,"ĠÑĪÐ¸ÑĢÐ¾ÐºÐ¾":7185,"ÐļÑĥÐ¿Ð¸ÑĤÑĮ":7186,"ĠÑģÐ²Ð°Ð´ÐµÐ±":7187,"ĠÐ¿ÐµÐ½ÑģÐ¸Ð¾Ð½":7188,"Ð¾Ð¿ÑĢÐ¸ÑıÑĤ":7189,"ĠÐ½ÐµÐ¸Ð·Ð²ÐµÑģÑĤ":7190,"ĠÐ¼ÑĥÐ¶ÑĩÐ¸Ð½Ñĭ":7191,"ĠÐ±Ð°Ð³Ð°Ð¶":7192,"pe":7193,"ĠÐľÐ¥ÐŁÐĺ":7194,"ĠÐ¿ÑĢÐµÐ´Ð¾ÑĤÐ²ÑĢÐ°":7195,"ÐľÐ¾Ð»":7196,"ĠÐºÐ¾Ð¼Ð¿ÐµÐ½":7197,"ĠÐºÐ¾Ð»Ð¾Ð½":7198,"ĠÐºÐ½Ð¸Ð³":7199,"ĠÐ½Ð°ÑĩÐ¸Ð½Ð°ÐµÑĤÑģÑı":7200,"ĠÐ½Ð°ÑĥÑĩÐ½Ð¾":7201,"ĠÐĲÐ½Ð´ÑĢÐµÐ¹":7202,"ĠÐ³Ð¾ÑģÑĤÐµÐ¹":7203,"ĠÐĵÐŀÐ¡Ð¢":7204,"ial":7205,"ÑĥÑĪÐºÐ¸":7206,"ĠÐ²Ð°ÑĢ":7207,"ĠÑģÑĦÐ¾ÑĢÐ¼Ð¸":7208,"ĠÐ¸Ð½ÑĭÑħ":7209,"ÑĢÐµÑħ":7210,"ĠÐ½ÐµÑĳ":7211,"ĠÑĤÐ²Ð¾":7212,"ĠÑįÐ½":7213,"ĠÐ²ÑĭÐ±Ð¾ÑĢÐ°":7214,"ÑĥÐ´Ñĭ":7215,"ĠÐ»Ð¸Ð½Ð¸Ñı":7216,"ĠÑģÐ¿ÑĢÐ¾":7217,"ÐľÐ¡":7218,"ĠPl":7219,"ĠÐ½Ð°Ð·Ð²Ð°Ð½Ð¸ÐµÐ¼":7220,"ĠÐ²Ð°ÑĢÐ¸Ð°Ð½ÑĤÐ¾Ð²":7221,"ĠÑĩÐµÑĢÐ½ÑĭÐ¹":7222,"ĠÐ²ÑĭÐ±ÑĢÐ°":7223,"ĠÐ¿Ð¾Ð¸ÑģÐºÐ¾Ð²":7224,"ĠÐºÐ¾Ð¼Ð°Ð½Ð´Ð¸":7225,"ĠÐºÐ²Ð°ÑĢÑĤÐ¸ÑĢÐµ":7226,"ĠÐĲÐ»ÐµÐºÑģÐ°Ð½Ð´ÑĢÐ¾Ð²":7227,"ĠÐºÐ¾Ð¼Ð¿Ð»ÐµÐºÑģÐ°":7228,"ĠÐ¤Ð¾ÑĢÑĥÐ¼":7229,"73":7230,"Ð´Ð½Ðµ":7231,"ĠÐ½Ð°Ð»Ð¸Ñĩ":7232,"ÑĤÐ¾ÑĢÐµ":7233,"ĠÐ¿Ð¾ÑıÐ²":7234,"ĠÐ·Ð°Ð±Ð¾ÑĤ":7235,"ĠÐ¾Ð±Ð»ÐµÐ³":7236,"ĠÐºÐ°Ð»ÑĮ":7237,"ĠÐ¿ÑĢÐ¾ÑıÐ²Ð»Ñı":7238,"ĠÐĶÐ¾Ð»":7239,"ĠÑģÐ°Ð¼Ð¾Ð»":7240,"ĠÐ¿ÑĢÐ¾ÑĪÐ»Ð¾Ð¼":7241,"ĠÐ¿Ð¾Ð´Ð¾Ð±ÑĢÐ°ÑĤÑĮ":7242,"ĠÑģÐ¸Ð¼Ð²":7243,"ĠÐ½Ð°Ð·Ð½Ð°ÑĩÐµÐ½Ð¸Ñı":7244,"ĠÐ¸Ð´ÑĤÐ¸":7245,"ÑĢÐºÑĥÑĤ":7246,"ĠÑħÐ¾ÑĤÑıÑĤ":7247,"out":7248,"ÑıÐµÑĤ":7249,"Ð¿ÑĢÐ¾Ð¼":7250,"ĠÐ½Ð°ÐºÐ°Ð·Ð°":7251,"Ð»Ð°Ð¹":7252,"ĠÑĥÐ»ÑĮ":7253,"ĠÐ½ÐµÐ¾Ð¶Ð¸Ð´Ð°Ð½":7254,"ĠÑįÑĢÐ¾ÑĤÐ¸":7255,"ĠÐŁÐ¾ÐºÐ°":7256,"ĠÐ¡Ð¾Ð±":7257,"ÑĩÐ¸Ð½Ð°Ñı":7258,"ÑģÐ¸Ð½":7259,"Ð³Ð°Ð»Ð¸":7260,"ĠÐºÐ°ÐºÐ¾Ð³Ð¾":7261,"Ð¢Ð¡":7262,"ĠÐ²ÐµÐ»Ð¾Ñģ":7263,"Ð¾ÑĢÐ¸ÑĤÑĮ":7264,"ĠÐ§Ð¸":7265,"Ð¾Ð»Ð¾Ð³Ð¸ÑĩÐµÑģÐºÐ¸Ñħ":7266,"Ð¾Ð¼Ð¸Ð¼Ð¾":7267,"ang":7268,"ĠÐ´Ð¾Ð¼Ð¾Ð¹":7269,"ĠÑģÐ°ÑħÐ°ÑĢ":7270,"Ð¾Ð²Ð°Ð½Ð½ÑĭÑħ":7271,"ĠÐĲÑĢÑĤ":7272,"ĠÑģÐ²ÐµÑĤÐ¾Ð´Ð¸":7273,"Ð¡ÐļÐŀ":7274,"ĠÑĢÐ°Ð±Ð¾ÑĩÐ¸Ð¹":7275,"ĠÐ¾ÑģÑĤÑĢÐ¾Ð²":7276,"ĠÐºÐ¾Ð¼Ð½Ð°ÑĤÑĭ":7277,"Ð¿Ð¾Ð·Ð¸ÑĤ":7278,"ĠÐ¿ÑĢÐµÐ´ÐµÐ»Ð°Ñħ":7279,"ÑĢÐµÐ°":7280,"ĠÐľÑĥÐ¶":7281,"ĠÑģÑĤÐ¾Ð»Ð°":7282,"Â»Â»":7283,"Ð·Ð¸ÑĤÑĮ":7284,"ÑĢÐ°Ð½ÑģÐ¿Ð¾ÑĢÑĤ":7285,"ĠÐºÑĥÐ¿":7286,"ĠÐ¯Ð¿Ð¾":7287,"ros":7288,"ĠÐ¿Ð»Ð¾ÑħÐ¾":7289,"ĠÐ¿ÑĢÐµÐ´Ð¾ÑģÑĤÐ°Ð²Ð»ÑıÐµÑĤ":7290,"Ð¿Ð»Ð°ÑĤÐ°":7291,"ĠÐĲÐ²ÑĤÐ¾ÑĢ":7292,"ĠÐ¿Ð¾Ð¼ÐµÑīÐµÐ½Ð¸Ð¹":7293,"ÑīÐ¸ÐµÑģÑı":7294,"ĠÐ¸Ð³ÑĢÐ¾Ð²Ð¾Ð¹":7295,"ĠÐ¡Ð¾Ð²ÐµÑĤÑģÐºÐ¾Ð¹":7296,"ĠÐ¼Ð¸Ð»Ð»Ð¸Ð¾Ð½Ð¾Ð²":7297,"Ð¾Ð³Ð¾ÑĢÑģÐº":7298,"Ð¤Ð¡ÐĺÐĿ":7299,"Ð°Ð½Ð°":7300,"Ð±Ð°Ð»":7301,"ĠÐ½Ð°ÑģÐºÐ¾Ð»ÑĮÐºÐ¾":7302,"ĠÐ±Ð¾Ð»Ðµ":7303,"ÑĦÐµÑĢÐ°":7304,"ÑģÐ¿Ð¾ÑĢ":7305,"ĠÐ¿Ð¾Ð´ÑĢÑıÐ´":7306,"Ð¼ÐµÐ½ÑĤÐµ":7307,"ÑĢÐ¾Ð²Ð°Ð½Ð¸Ñİ":7308,"ÑĪÐ°Ð»":7309,"180":7310,"ĠÐ¾ÑĤÐ½Ð¾ÑĪÐµÐ½Ð¸Ðµ":7311,"ĠÑĢÐ°Ð·Ð¼ÐµÑĢÐµ":7312,"ĠÐ¼Ð°ÑĢÐºÐµÑĤ":7313,"ish":7314,"ĠÐ¿Ð¾Ð»ÑĮÐ·Ð¾Ð²Ð°ÑĤÑĮÑģÑı":7315,"ĠÐ¼Ð°ÑĪÐ¸Ð½Ñĥ":7316,"ĠÐ¿ÑĢÐµÐ´ÑģÑĤÐ°Ð²Ð¸ÑĤÐµÐ»ÐµÐ¹":7317,"ĠÑĢÐ¾Ð´Ð¸ÑĤÐµÐ»Ð¸":7318,"ĠÐ´Ð¾Ð»Ð»Ð°ÑĢÐ°":7319,"ĠÐĺÐ²Ð°Ð½Ð¾Ð²":7320,"ĠÐ¿Ð¾ÑĤÑĢÐµÐ±Ð¸ÑĤÐµÐ»ÐµÐ¹":7321,"ĠÐ¸Ð½Ð¶ÐµÐ½ÐµÑĢ":7322,"ĠÑģÑĤÐ¾ÑĢÐ¾Ð½Ð°":7323,"!Â»":7324,"ÑĩÐºÐ¾Ð¼":7325,"Ð¿Ð¾Ñģ":7326,"ÑĢÑĥÐ±":7327,"ÑģÑĤÐ²Ð¾Ð²Ð°Ð»":7328,"ĠÐ¿Ð¾Ð´ÑĥÐ¼Ð°":7329,"ĠÐ¾Ð¿ÑĭÑĤÐ°":7330,"ĠÑģÑĢÐµÐ´Ð½ÐµÐ³Ð¾":7331,"ĠÐ½Ð°ÑģÐ»Ð°":7332,"ĠÑģÐ¾Ð¾ÑĤÐ²ÐµÑĤÑģÑĤÐ²ÑĥÐµÑĤ":7333,"ĠÐ±ÐµÑģÐ¿Ð»Ð°ÑĤÐ½ÑĭÐµ":7334,"ĠÑĦÐ°ÐºÑĥÐ»ÑĮ":7335,"ĠÑĢÐ°ÑģÑģÐ¼Ð¾ÑĤ":7336,"ĠÑģÐ»Ð¾Ð¶Ð½Ð¾ÑģÑĤÐ¸":7337,"ĠÐºÐ¾Ð¼Ð°Ð½Ð´Ð°":7338,"Ð½Ð¸ÑĨÐµÐ¹":7339,"ĠÐ½Ð¸ÐºÐ°Ðº":7340,"ĠÐ¾ÑģÑĤÑĢÐ¾Ð²Ð°":7341,"ĠÐ¾Ð±ÑĥÑĩÐ°":7342,"ĠÐºÐ¾ÑĢÐ¿ÑĥÑģÐ°":7343,"ĠÑħÐ¾ÑĤÐµÐ»Ð¾ÑģÑĮ":7344,"ÑĥÐ³Ð¾Ð»ÑĮ":7345,"ĠÐłÐµÐ¼Ð¾Ð½ÑĤ":7346,"ft":7347,"ĠÑģÐ¾Ð½":7348,"Ð¾Ð²Ð¾Ðµ":7349,"Ð±Ð¾Ð»Ð¸":7350,"Ð»Ð°ÑģÑģ":7351,"ĠÑĥÐ²ÐµÐ´Ð¾Ð¼":7352,"ĠÐ·Ð°ÑĢÐ°Ð½ÐµÐµ":7353,"ĠÐ°ÐºÑĤ":7354,"ĠÑįÑĦÐ¸":7355,"Ð²Ð¸Ñı":7356,"ĠÐłÐ¾ÑģÑĤÐ¾Ð²":7357,"ĠÐĲÐ¿":7358,"ĠÑħÐ¾Ð·Ñı":7359,"ÑĤÐ¸Ð²Ð½Ð¾Ðµ":7360,"ÑĤÐ¾Ð²ÑĭÑħ":7361,"ĠÐ½Ð°ÑĪÑĥ":7362,"ĠÑģÐ´ÐµÐ»Ð°Ð»Ð¸":7363,"ĠÐ¾ÑĤÐ²ÐµÑĤÑĭ":7364,"ĠÑģÑĥÐ¼Ð¼Ð°":7365,"ogle":7366,"ĠÐļÑĢÐ°ÑģÐ½Ð¾Ð´Ð°ÑĢ":7367,"ĠÑĤÑīÐ°ÑĤÐµÐ»ÑĮÐ½Ð¾":7368,"Ð¾Ñİ":7369,"Ð»ÑĥÑİ":7370,"Ð³Ð½Ð¸ÑĤ":7371,"ĠÐŁÐ¾Ð·":7372,"ÑĢÑĭÑħ":7373,"ĠÐ¼Ð°Ð¼Ð°":7374,"ÐļÑĢÐ¾Ð¼Ðµ":7375,"ĠÑıÐ¹":7376,"Ð¾ÐµÐ´Ð¸Ð½":7377,"ĠÑĢÑĥÐºÐ°Ñħ":7378,"Ð²Ð¾ÑĢÐ°":7379,"Ð¿ÐµÑĢÐµÐ´":7380,"are":7381,"ĠÐ½Ð°ÑģÐ¾Ñģ":7382,"ĠÑĥÑĩÐµÑĤÐ°":7383,"ĠÐ¾Ð³Ð½Ðµ":7384,"ĠÑĤÑĢÐ°Ð½ÑģÐ¿Ð¾ÑĢ":7385,"ide":7386,"ĠÐ¸ÑģÑĩÐµ":7387,"ĠÐ¾ÑĦÐ¾ÑĢÐ¼Ð»ÐµÐ½Ð¸Ðµ":7388,"ĠÑĢÐ°Ð·ÑĢÐµÑĪÐµÐ½Ð¸Ñı":7389,"ĠÑĩÐ¸ÑĤÐ°ÑĤÑĮ":7390,"ĠÐ¿ÑĢÐ¸Ð¼ÐµÐ½ÑıÐµÑĤÑģÑı":7391,"ĠÐĴÐ¾Ð·Ð¼Ð¾Ð¶Ð½Ð¾":7392,"ment":7393,"ÑĩÐºÐµ":7394,"ĠÑģÐ¾Ð»Ð¸":7395,"ĠÐ¿ÑĢÐ¸Ð²ÐµÑĤ":7396,"ĠÐµÐ·":7397,"ĠÐľÐ½Ð¾Ð³Ð¸Ðµ":7398,"ĠÐĵÐ¸":7399,"Ð¶Ð°Ð»":7400,"ĠÐ¤Ð¾ÑĤ":7401,"ĠÐ¾ÐºÑĢÑĥÐ³":7402,"ĠÑĢÐ°ÑģÐ¿Ð¾Ð»Ð¾Ð¶ÐµÐ½":7403,"ĠÑĤÑĭÑģÑıÑĩÐ¸":7404,"ĠÐ¸ÑģÐºÑĥÑģÑģÑĤÐ²Ð°":7405,"ĠÐ¾Ð±ÑĢÐ°Ð±Ð¾ÑĤÐºÑĥ":7406,"ĠÐĺÑģÐ¿Ð¾Ð»Ð½Ð¸ÑĤÐµÐ»Ñİ":7407,"Ð´ÑĨÐ°ÑĤÑĮ":7408,"ĠÐ´Ð°Ð»ÑĮÐ½ÐµÐ¹ÑĪÐµÐ¼":7409,"ĠÑĥÐ´Ð¾ÑģÑĤÐ¾Ð²ÐµÑĢ":7410,"62":7411,"ust":7412,"ÑĩÑĮÑİ":7413,"Ð¾Ð´Ð½ÑĭÐµ":7414,"ĠÐ³Ð³":7415,"ĠÐ·Ð°Ð»":7416,"ÑĪÐ¸Ð½Ð°":7417,"ĠÐ¶Ð°Ð½":7418,"ĠÐ¿Ð¾Ð´Ð½Ð¸Ð¼Ð°":7419,"ĠÐĶÐ¢ÐŁ":7420,"ĠÐ¼ÐµÐ´Ð°":7421,"Ð¶Ð¸Ð¼Ð°":7422,"ÑģÑĤÐ²ÐµÐ½Ð½ÑĭÐ¼Ð¸":7423,"Ð½ÑĥÐ»Ð°ÑģÑĮ":7424,"ĠÐ°Ð²ÑĤÐ¾ÑĢÐ°":7425,"ÑĢÐ¾Ð¼Ð°ÑĤ":7426,"ĠÑĦÐ¾ÑĢÐ¼":7427,"ÑĩÐµÐ½Ð½ÑĭÐµ":7428,"Ð§Ð¡":7429,"ĠÐºÐ¾ÑįÑĦÑĦÐ¸ÑĨÐ¸":7430,"ĠÐ½ÐµÐ¿Ð»Ð¾":7431,"Ð´ÑĢÐ°Ð²ÑģÑĤÐ²ÑĥÐ¹ÑĤÐµ":7432,"ĠiP":7433,"ĠÐ¿ÑĢÐµÐ¿Ð°ÑĢÐ°ÑĤÐ°":7434,"ĠÐ¿ÑĢÐµÐ´Ð¾ÑģÑĤÐ°Ð²Ð»ÐµÐ½Ð¸Ñı":7435,"ĠÐ¾Ð¿ÑĥÐ±Ð»Ð¸ÐºÐ¾Ð²Ð°":7436,"ĠÐ½ÐµÐ²ÐµÑĢÐ¾ÑıÑĤ":7437,".),":7438,"ÐµÑģÐ»Ð¸":7439,"Ð»Ð»Ñı":7440,"ÐºÐ¾ÑĤÐ¸":7441,"Ð´Ð¾Ð½":7442,"ÑģÑĤÐºÐ°":7443,"ÑħÐ¾Ð»":7444,"ÑħÐ¾Ð·":7445,"ĠÐ´Ð²Ð¾Ð¹":7446,"Ð·Ð°Ð¼Ð¸":7447,"Ð¾Ð¿Ð¾Ð»":7448,"Ð»Ð¾ÑīÐ°":7449,"ĠÐĺÐ¼Ðµ":7450,"Ð²ÐµÑĢÑħ":7451,"ĠÑĦÐ¸Ð»Ð¸":7452,"ĠÐ¼ÐµÑĤÑĢÐ¾":7453,"ĠÐ¼ÑĥÐ·Ðµ":7454,"ĠÑģÐ¿Ð¾ÑģÐ¾Ð±ÑģÑĤÐ²ÑĥÐµÑĤ":7455,"ĠÑĤÑĢÐµÐ±Ð¾Ð²Ð°Ð½Ð¸Ð¹":7456,"ĠÐ¿ÑĢÐ¾ÑĤÐ¸Ð²Ð¾":7457,"ĠÐ³ÑĢÐ°Ð´Ñĥ":7458,"Ð²Ð°ÐµÐ¼ÑĭÑħ":7459,"ĠÐ¼Ð¾Ð´ÐµÐ»ÐµÐ¹":7460,"ĠÐ»ÑİÐ±Ð¸ÑĤ":7461,"ĠÐ²Ð°ÑĢÐ¸Ð°Ð½ÑĤÑĭ":7462,"ĠÐ·Ð°Ð½ÑıÑĤÐ¾ÑģÑĤÐ¸":7463,"ĠÑĤÑĢÐµÐ±Ð¾Ð²Ð°Ð½Ð¸ÑıÐ¼":7464,"ĠÐºÐ½Ð¾Ð¿ÐºÑĥ":7465,"ĠÐ¸Ð¼ÑĥÑīÐµÑģÑĤÐ²Ð°":7466,"ĠÑģÐ¿Ð¾ÑĢÑĤÑģ":7467,"ĠÐ¿ÑĢÐ¸ÑĪÐ»Ð¾ÑģÑĮ":7468,"ĠÐ±Ð»Ð¾ÐºÐ°":7469,"IT":7470,"ÑģÐ½Ð¾Ð³Ð¾":7471,"Ð²Ð½Ð¾Ð¹":7472,"ĠÐ¾ÑĦ":7473,"Ð¾ÑĤÑĢÑĥÐ´":7474,"ÑīÐµÐ½Ð¸Ñİ":7475,"ĠÑĥÑģÑĤÑĢÐ¾":7476,"ÑĨÐ¸Ðº":7477,"ÑģÐµÐ´Ð½ÐµÐ²":7478,"ĠÑĤÐµÑĢÐ°Ð¿Ð¸":7479,"ĠÐŀÐ¼":7480,"ÑģÑĤÑĥÐ¿Ð¸ÑĤÑĮ":7481,"ĠÑįÐºÑģÑĤÑĢÐ°":7482,"ĠÐ¼Ð¾ÑģÐº":7483,"ĠÐ´Ð¾Ð¿Ð¾Ð»":7484,"ĠÐ³ÑĢÐ°Ð¼Ð¾ÑĤ":7485,"ĠÐ·Ð°ÐºÐ¾Ð½ÑĩÐ¸":7486,"ĠÐ°Ð²ÑĤÐ¾Ð¼Ð¾Ð±Ð¸Ð»Ð¸":7487,"ĠÐ¿ÑĢÐ¾Ð¿Ð°":7488,"ĠÑĪÐ¸ÑĢÐ¾ÐºÐ¸Ð¹":7489,"ĠÐ¿ÑĢÐ¾ÑģÑĤÑĢÐ°Ð½ÑģÑĤÐ²Ð¾":7490,"ĠÑĥÐ´Ð¾Ð²Ð»ÐµÑĤÐ²Ð¾ÑĢ":7491,"ĠÐ¼Ð¾Ð½Ð¸ÑĤÐ¾ÑĢ":7492,"ĠÐºÐ¾Ð½ÐºÑĥÑĢÐµÐ½":7493,"sk":7494,"Ð²ÐµÐ½Ð¸":7495,"ÑģÑĤÐ½Ð¾Ð¹":7496,"ĠÐ¾Ð±Ð²Ð¸":7497,"ĠÐ¾Ð±ÐµÐ·":7498,"ĠÐĴÐ¼Ðµ":7499,"ĠÐ¡Ð¼Ð¾ÑĤÑĢÐµÑĤÑĮ":7500,"Ð¾Ð¿Ð»ÐµÐ½Ð¸Ñı":7501,"ÑģÑĤÐ¾Ð¸ÑĤ":7502,"ÐļÐ°ÑĢ":7503,"ĠÑıÐ±":7504,"ĠÐĵÐ°ÑĢ":7505,"ÐĶÐĺ":7506,"ĠÑĨÐ°ÑĢ":7507,"ĠÑĢÑĥÐºÑĥ":7508,"ĠÑĢÐ°Ð±Ð¾ÑĤÐ¾Ð´Ð°":7509,"Ð§ÐµÑĢ":7510,"ÐºÐ°Ð½ÑĮ":7511,"ĠÐ¾ÑĤÐ´ÐµÐ»ÐµÐ½Ð¸Ñı":7512,"ĠÑĤÑĢÑĥÐ´Ð½Ð¾":7513,"ĠÐ²Ð¾Ð·Ð´ÐµÐ¹ÑģÑĤÐ²Ð¸Ñı":7514,"ava":7515,"ĠÐ¼ÑĥÐ½Ð¸ÑĨÐ¸Ð¿Ð°Ð»ÑĮÐ½Ð¾Ð³Ð¾":7516,"ĠÑĢÐµÐ»Ð¸Ð³Ð¸":7517,"ÑģÑİ":7518,"ĠÐ±ÐµÐ´":7519,"ĠÐ·Ð¾Ð½Ñĭ":7520,"ĠÑĥÐ´Ðµ":7521,"ĠÐ·Ð°ÐºÐ°Ð½":7522,"ĠÐ¿ÑĢÐ¸Ð´Ð°":7523,"ĠÐ¡ÐĿ":7524,"Ð¼Ð°Ð½Ð°":7525,"ÑĢÐ¾Ð²Ð°Ñı":7526,"ĠÐºÑĥÑħÐ½Ð¸":7527,"ĠÐ¿Ð¾ÐºÐ°Ð·ÑĭÐ²Ð°ÐµÑĤ":7528,"ĠÐ½Ð°ÑģÐ»ÐµÐ´":7529,"ĠÐ¿Ð¾ÑģÐ»ÐµÐ´Ð½ÐµÐµ":7530,"ĠÐ½Ð°Ð¿ÑĢÐ°Ð²Ð¸":7531,"ĠÐ¢Ð°ÐºÐ¸Ðµ":7532,"ĠÐ¾ÑĩÐµÐ²Ð¸Ð´":7533,"ĠÐ½ÐµÐ¾Ð±ÑħÐ¾Ð´Ð¸Ð¼ÑĭÑħ":7534,"ĠÑģÐ²ÐµÐ¶Ð¸":7535,"ĠÑģÐ¾ÑĢÐµÐ²Ð½Ð¾Ð²Ð°Ð½Ð¸Ñı":7536,"Ð½Ð¾Ð³":7537,"Ð»Ð¸Ðº":7538,"Ð¾Ð²Ð°Ð½Ð¸Ð¸":7539,"ĠÐ»Ð¾Ð´":7540,"Ð²Ð¸ÑĤÑĮÑģÑı":7541,"Ð·Ð°ÑīÐ¸":7542,"Ð´Ð¸Ð»":7543,"ĠÐļÐŀ":7544,"ĠÑıÐ¿Ð¾Ð½":7545,"ĠÐĳÐ°Ð½Ðº":7546,"Ð»Ð¾Ð²ÐµÐº":7547,"Ð¾ÑĩÐ½Ð¾":7548,"ĠÐ¿ÐµÑĢÑģÐ¿ÐµÐºÑĤÐ¸Ð²":7549,"Ð½Ð¸ÐºÐ°Ñħ":7550,"ĠÐ½Ð¾Ð²Ð¾ÑģÑĤ":7551,"ÑģÑĤÐ°Ð½Ð¾Ð²ÐºÐ°":7552,"Ð§Ðķ":7553,"ĠÐ¾Ð¿ÑĢÐµÐ´ÐµÐ»ÑıÐµÑĤÑģÑı":7554,"Ð¿ÑĢÐ¾ÑĩÐµÐ¼":7555,"ĠÐºÑĥÑĢÑģÑĭ":7556,"ĠÑĦÐ¸Ð»ÑĮÑĤÑĢÐ°":7557,"ĠÑģÑĩÐ¸ÑĤÐ°ÑĤÑĮ":7558,"ĠÐ·Ð°Ð½Ð¸Ð¼Ð°ÐµÑĤÑģÑı":7559,"ĠÑģÐ¼ÐµÑģÑĮ":7560,"ĠÐ²Ð¾Ð·Ð´ÑĥÑħ":7561,"ĠÑĢÐ°Ð·Ð¼ÐµÑĢÑĭ":7562,"ĠÑģÐ¸ÑĤÑĥÐ°ÑĨÐ¸Ñı":7563,"ĠÐ½Ð°Ð¿ÑĢÑıÐ¶ÐµÐ½Ð¸Ðµ":7564,"ĠÐ¿ÑĢÐµÐ´Ð¼ÐµÑĤÐ¾Ð²":7565,"ĠÐ²Ð¾Ð·Ð½Ð¸ÐºÐ°ÐµÑĤ":7566,"ĠÐĲÐ»ÐµÐºÑģÐµÐ¹":7567,"co":7568,"ph":7569,"Ġwww":7570,"ÐµÐ²Ðµ":7571,"ĠÐ¸ÑģÐºÐ°ÑĤÑĮ":7572,"Ð¿Ð¾ÑĤÐµ":7573,"Ð¾Ð²Ð°Ð½Ð¸ÐµÐ¼":7574,"Ð¾Ð¶Ð°ÑĢ":7575,"ĠÑĢÐµÐ´ÐºÐ¾":7576,"Ġ(Â«":7577,"ĠÐ¿Ð¸ÑĪÐµÑĤ":7578,"Ð½Ð¾Ð²Ð°Ñı":7579,"Ð½Ð¾ÑģÑĤÑıÑħ":7580,"ĠÐ¾ÑģÑĥÐ¶Ð´":7581,"ĠÐ¿ÑĢÐµÐ´ÑģÑĤÐ°Ð²Ð¸ÑĤÐµÐ»Ð¸":7582,"ĠÑĢÐµÐ³ÑĥÐ»ÑıÑĢÐ½Ð¾":7583,"ĠÑģÐ²ÐµÑĢÑħÑĥ":7584,"51":7585,"Ġr":7586,"ÑģÐ»ÐµÐ´":7587,"ÑĭÑĤÑĭ":7588,"ĠÐļÐµÐ¼":7589,"ĠÐ¿ÑĢÐ¾Ð³Ñĥ":7590,"ÑģÑĤÑĮÐµ":7591,"ÑĢÐ¾Ð²Ð°Ð½Ð°":7592,"ĠÐ¿Ð¾ÑģÐ»Ñĥ":7593,"ÐĳÑĭ":7594,"ĠÐ¾Ð±Ð»Ð°Ð´Ð°ÑİÑĤ":7595,"Ð¾ÐºÑĥÐ¿":7596,"ĠÑģÐ¾Ð¾Ð±ÑīÐµÐ½Ð¸Ðµ":7597,"ĠÐ¾ÐºÐ½Ð°":7598,"ĠÐ³Ð¾ÑĢÐ¾Ð´Ð¾Ð²":7599,"ĠÑħÐ°ÑĢÐ°ÐºÑĤÐµÑĢÐ°":7600,"ĠÐ°Ð¿ÑĤÐµ":7601,"ĠÐ´Ð¾Ð¼Ð°ÑĪÐ½Ð¸Ñħ":7602,"ĠÐ´Ð²ÐµÑĢÐµÐ¹":7603,"ĠÐ¼Ð¾ÐµÐ³Ð¾":7604,"ĠÐ±Ð»Ð°Ð³Ð¾Ð´Ð°ÑĢ":7605,"Ð¼ÑĭÐµ":7606,"ĠÐ²ÑıÐ·Ð°":7607,"ĠÐ±ÑĢÐ°ÑĤÑĮ":7608,"Ð¾Ð²Ð°ÑĤÑĮÑģÑı":7609,"ĠÐ¡ÑĢÐµÐ´Ð¸":7610,"ÑĩÐ°Ð»":7611,"ĠÑĢÐµÐºÐ¸":7612,"âĢĻ":7613,"ÐĲÐł":7614,"ĠÐ£ÑģÐ»Ð¾Ð²Ð¸":7615,"ĠÐ²Ð¾Ð·Ð¼Ð¾Ð¶Ð½Ð¾ÑģÑĤÐµÐ¹":7616,"ĠÐºÐ¾Ð¼Ð¿Ð°Ð½Ð¸Ñİ":7617,"ÑĤÐ¾ÑĢÐ°Ñı":7618,"ĠÐºÐ¸ÑĢÐ¿Ð¸":7619,"ĠÐ³Ð»Ð°Ð²Ð½ÑĭÐ¹":7620,"ĠÐĺÐ·ÑĢÐ°":7621,"ĠÐ¸Ð´ÐµÐ¸":7622,"Ġfor":7623,"ĠÐºÐ¾Ð»Ð»ÐµÐºÑĤÐ¸Ð²":7624,"ĠÐ·Ð°ÐºÐ¾Ð½Ð¾Ð´Ð°ÑĤÐµÐ»ÑĮÑģÑĤÐ²Ð¾Ð¼":7625,"ĠÑĩÐµÑĤÑĭÑĢÐµÑħ":7626,"ĠÐ¿ÑĢÐ¾Ð·ÑĢÐ°":7627,"ĠAnd":7628,"Ð²Ð½ÑĭÐµ":7629,"ÑģÑĤÑĭÐ¹":7630,"Ð³ÑĢÐµ":7631,"ĠÐ´Ð²ÐµÑĢÑĮ":7632,"ĠÐ½Ð°Ð¾Ð±Ð¾ÑĢÐ¾ÑĤ":7633,"Ð¼Ð¸ÑĢÐ°":7634,"Ð´Ð°Ð»ÐµÐµ":7635,"ĠÑĤÑĢÐ¾":7636,"ĠÐŁÐ¾Ð±":7637,"ĠÐ¿ÑĢÐ¾ÑĦÐµÑģÑģ":7638,"ÑģÐµÐ»ÑĮ":7639,"ĠÐºÐ°ÐºÑĥÑİ":7640,"Ð¿ÐµÐ»ÑĮ":7641,"ĠÐ½Ð°ÑĩÐ°Ð»Ð¾":7642,"ĠÐ³Ð¾Ð²Ð¾ÑĢÐ¸ÑĤÑģÑı":7643,"ĠÐ¡Ð¾Ð²ÐµÑĤÐ°":7644,"ĠÐ²ÑĭÐ±ÑĢÐ°Ð½":7645,"ĠÑĢÐµÐºÐ»Ð°Ð¼Ð°":7646,"ĠÐ¿Ð¾Ð»Ð¸ÑĤÐ¸ÐºÐ¸":7647,"ĠÐ¼Ð¾ÑīÐ½Ð¾ÑģÑĤÑĮ":7648,"ĠÑĢÐ°Ð·ÑĢÐ°Ð±Ð¾ÑĤÐºÐ¸":7649,"ĠÐ¾ÐºÐ°Ð·ÑĭÐ²Ð°ÐµÑĤ":7650,"ĠÑģÐ¾Ð²Ð¼ÐµÑģÑĤÐ½Ð¾":7651,"Ð¾ÑĨÐ¸Ð°":7652,"Ġst":7653,"ÐºÐ¾Ð²Ð°Ñı":7654,"Ð½Ð¸ÑĤÐ°ÑĢ":7655,"ĠÐ¾ÑĤÑĢÐ°":7656,"ĠÐºÐ°ÑĦÐµ":7657,"Ð·Ð°Ð¹Ð½":7658,"ĠÐļÐ¾Ñģ":7659,"ĠÐŀÑģÑĤÐ°":7660,"ÐŀÑĢ":7661,"ĠÐĿÐ°ÑĨÐ¸Ð¾Ð½Ð°Ð»ÑĮ":7662,"Ð¾Ð»Ð¾Ð³Ð¸ÑĩÐµÑģÐºÐ¸Ðµ":7663,"Ð¾ÐºÑĥÑĢÐ°":7664,"ĠÐºÑĢÐ°ÑĤ":7665,"ĠÑģÐ°Ð´Ð¾Ð²":7666,"ÑĥÐ½Ðº":7667,"ĠÐ´ÐµÐ¹ÑģÑĤÐ²ÑĥÐµÑĤ":7668,"ĠÐ¼Ð¾Ð»Ð¾ÐºÐ¾":7669,"ĠÑĦÐ°Ð¼Ð¸":7670,"ĠÑĥÐ¿ÑĢÐ°Ð²Ð»Ñı":7671,"ĠÑģÑĤÐ¸Ð»ÑĮ":7672,"ĠÑģÐ»Ð¾Ð²Ð°Ð¼Ð¸":7673,"ĠÑĢÐ°ÑģÑĤÐµÐ½Ð¸Ð¹":7674,"ĠÐ¿ÑĢÐ°Ð·Ð´Ð½Ð¸":7675,"ĠÑĥÑĩÑĢÐµÐ¶Ð´ÐµÐ½Ð¸Ð¹":7676,"ĠÐ³Ð»Ð°Ð·Ð°Ð¼Ð¸":7677,"ĠÐ²Ð°ÑĪÐµÐ¼Ñĥ":7678,"ĠÐ¸Ð·Ð¼ÐµÐ½Ð¸ÑĤÑĮ":7679,"me":7680,"Ð¾Ð´ÑĬÐµÐ¼":7681,"Ð¶Ð½ÑĥÑİ":7682,"ĠÐ¿Ð¾Ð½Ð¸":7683,"Ð¾ÐºÐ¾Ð½":7684,"Ð¾ÐºÐ°Ð¼":7685,"ĠÐŁÐ°Ð²":7686,"Ð¾ÑģÑĢÐ¾":7687,"ÑģÐ¸Ð½Ñĭ":7688,"ĠÐľÐµÐ´Ð¸":7689,"ĠÐ¢ÑĢÐ¸":7690,"Ð½ÑĥÐ»Ð¸ÑģÑĮ":7691,"ÑģÑĭÐ¿Ð°":7692,"ĠÐĹÐ°Ð¿":7693,"ĠÑįÐºÑĢÐ°Ð½":7694,"ĠÐ´ÐµÑĤÑģÐºÐ¸Ñħ":7695,"ĠÐ½ÑĥÐ¶ÐµÐ½":7696,"roid":7697,"ĠÐ¿ÑĢÐ¾Ð²ÐµÑĢÐºÐ¸":7698,"ĠÐ¿ÑĢÐ¸ÑıÑĤÐ½Ð¾":7699,"ĠÐ¿ÑĢÐ¾Ð´ÑĥÐºÑĨÐ¸Ñİ":7700,"ff":7701,"Ð´ÑĢÐ°":7702,"Ð¾Ð²Ð¾Ð»ÑĮ":7703,"ÑħÐ°Ð¹":7704,"ĠÑĥÑģÐ¿":7705,"ĠÐ³ÐµÐ½":7706,"Ð»ÐµÐ²Ð°Ñı":7707,"Ð¾Ð²Ð°Ð½Ñĭ":7708,"ĠÐ»ÐµÐ²":7709,"ĠÐ¾Ð±Ð¾":7710,"Ð¾Ð¿Ðµ":7711,"ĠÑģÑĤÐ¾ÑĢÐ¾Ð½Ðµ":7712,"ĠÐ¢Ñİ":7713,"ĠÐ´ÐµÐ»Ð¸":7714,"ĠÐĿÐ°Ð¸":7715,"ĠÑĪÑĥ":7716,"ÑĥÑĩÐµÐ½Ð¸Ðµ":7717,"ĠÑģÑĤÑĢÐ°Ð½Ð¸ÑĨÑĭ":7718,"ĠÑģÐ²Ð¾Ñĳ":7719,"ĠÐ¾Ð¿ÑĢÐµÐ´ÐµÐ»Ñı":7720,"ĠÐºÐ»Ð¸ÐµÐ½ÑĤ":7721,"ĠÑĤÐ¸Ð¿Ð¾Ð²":7722,"ĠÐ´ÑĢÑĥÐ³ÑĥÑİ":7723,"ĠÐ¾Ð±ÐµÑģÐ¿ÐµÑĩÐµÐ½Ð¸Ðµ":7724,"ĠÑĢÑĥÑģÑģÐºÐ¾Ð³Ð¾":7725,"ĠÑģÐ¾ÑĤÑĢÑĥÐ´Ð½Ð¸ÐºÐ¸":7726,"ĠÐºÐ¾Ð½ÐµÑĨ":7727,"ĠÐ·Ð°ÑıÐ²ÐºÑĥ":7728,"ĠÐ¿Ð¾ÑĢÑıÐ´ÐºÐ°":7729,"ĠÐ´Ð¾Ð¿Ð¾Ð»Ð½Ð¸ÑĤÐµÐ»ÑĮÐ½ÑĭÑħ":7730,"ĠÐ°Ð»Ð»ÐµÑĢ":7731,"ĠÐĲÐ»ÐµÐºÑģÐ°Ð½Ð´ÑĢÐ°":7732,"ĠÐ¿ÑĢÑıÐ¼Ð¾Ð¹":7733,"ĠÐ¼ÑĥÐ»ÑĮÑĤÐ¸":7734,"ĠÐ¿ÑĢÐ¾ÑģÑĤÐ¸ÑĤÑĥÑĤÐºÐ¸":7735,"Ð½Ð¾Ð´Ð¾ÑĢÐ¾Ð¶":7736,"76":7737,"ÑĥÑĪÐºÐ°":7738,"Ð²ÐºÐ°":7739,"ĠÑģÑĢÐ¾":7740,"Ð¿ÑĤ":7741,"Ð³ÑĢÑĥ":7742,"ÑĤÐµÑĢÐµ":7743,"ÑĢÑĥÑİÑĤÑģÑı":7744,"ĠÑģÑĤÐ¾Ð»Ð¾Ð²":7745,"ĠÐ¿Ð¾Ð´Ð²Ð¸":7746,"ĠÑĢÐ°Ð·Ð²Ð»Ðµ":7747,"ĠÑħÑĢÐ¾Ð½Ð¸":7748,"Ð»ÑİÐ·Ð¸":7749,"ÐĳÐ¾Ð»ÑĮ":7750,"ĠÐļÐ¾Ð½ÑģÑĤÐ°Ð½":7751,"ĠÐºÐ½Ð¸Ð³Ñĥ":7752,"ĠÑģÑĭÑĢ":7753,"ĠÑĤÐµÐ¼Ð¿ÐµÑĢÐ°ÑĤÑĥÑĢÐ°":7754,"ĠÑģÑĤÐ°Ð²ÐºÐ¸":7755,"ĠÐ¾ÑĤÐ»Ð¸ÑĩÐ°ÑİÑĤÑģÑı":7756,"ĠÐ¤Ð¸Ð»ÑĮ":7757,"ĠÐ°Ð»ÑĮÑĤÐµÑĢÐ½Ð°":7758,"ĠÐ¼Ð¸ÑĢÐ¾Ð²Ð¾Ð¹":7759,"ĠÐ¿ÑĢÐµÐ¿ÑıÑĤ":7760,"ĠÐļÐ¾Ð¼Ð¿Ð»ÐµÐºÑĤ":7761,"ĠÐ¿Ð¾ÑģÑĤÐµÐ¿ÐµÐ½Ð½Ð¾":7762,"ĠÐ¿Ð»ÑİÑģ":7763,"ĠÐĹÐ°ÐºÐ¾Ð½":7764,"ĠÐķÐºÐ°ÑĤÐµÑĢÐ¸Ð½":7765,"98":7766,"RO":7767,"ks":7768,"Ð»ÐµÑĢÑĭ":7769,"ĠÐ²ÐµÐ½":7770,"ĠÐ¸Ð´ÐµÐ½":7771,"Ð¿Ð¾Ð»Ð¸":7772,"Ð½Ð¸Ð½Ð³":7773,"ÐºÐ°ÑĥÐ½":7774,"ĠÑĥÑħÐ¾Ð´":7775,"Ð¾Ð²Ð°Ð»Ð°":7776,"ĠÐºÐ°Ð½Ð°Ð»Ð°":7777,"ĠÐ¿ÑĢÐ¾ÑĨÐµÐ½ÑĤ":7778,"ĠÑĢÐµÑĪÐµÐ½Ð¸Ð¹":7779,"Ð¡ÐºÐ°":7780,"Ð¿Ð¸Ð½":7781,"Ð·Ð¸ÑĢÐ¾Ð²Ð°ÑĤÑĮ":7782,"ĠÐ´ÐµÑģÑıÑĤ":7783,"ÑĢÑıÐ·":7784,"ĠÑģÐ¿ÐµÑĢ":7785,"ĠÐ·Ð½Ð°ÐµÑĤÐµ":7786,"Ð¾Ð»Ð¾Ð³Ð¸ÑĩÐµÑģÐºÐ¾Ð³Ð¾":7787,"ĠÑģÑĢÐµÐ´Ð½ÐµÐ¼":7788,"ĠÐ½ÑĥÐ¶Ð½Ð°":7789,"ĠÑĥÑĩÐ°ÑģÑĤÐºÐ¾Ð²":7790,"ĠÐ¿Ð°Ð¼ÑıÑĤÑĮ":7791,"ĠÐľÐ¾Ð»Ð´Ð¾Ð²":7792,"210":7793,"Ð²Ð¾ÑĤ":7794,"Ð¶ÐµÐ½Ð¸Ð¹":7795,"ĠÑĥÐ´":7796,"ĠÐµÐ¼":7797,"ÑĤÐµÐ»ÑĮÐ½Ð°":7798,"ÑģÐµÐ´":7799,"ĠÑģÑĤÑĥÐ´Ð¸":7800,"ĠÑģÑĤÑĢÐ¾Ð¹":7801,"Â»:":7802,"ÐºÐ¾Ð½Ñĭ":7803,"Ð¡Ð¿Ðµ":7804,"ĠÐ¢ÐĴ":7805,"ÑģÐºÐ°Ð¼Ð¸":7806,"Ð±Ð¸ÑĤÑĮ":7807,"ÑĦÐ¸ÑĨÐ¸Ð°Ð»ÑĮ":7808,"ÑģÑĤÐ°Ð²Ð¸Ð»Ð¸":7809,"ĠÐºÐ¾Ð¼Ð¿Ð°Ð½Ð¸ÐµÐ¹":7810,"ÐºÐ¾Ð»Ñĭ":7811,"ĠÐ¼ÐµÑĤÐ¾Ð´Ñĭ":7812,"ĠÑĢÐ°ÑģÑģÑĩÐ¸ÑĤÐ°":7813,"ĠÐ´Ð¾Ð²Ð¾Ð»ÑĮ":7814,"ĠÐ²ÑĢÐ°ÑĩÐ°":7815,"ĠÐ½ÐµÐ±Ð¾Ð»ÑĮÑĪ":7816,"ĠÐºÐ»ÑİÑĩ":7817,"ĠÐ¾ÑĨÐµÐ½ÐºÐ¸":7818,"ÐºÐ¾Ð»ÐµÐ¿":7819,"ES":7820,"ĠÐ²ÑģÑĤÐ°":7821,"Ð¾Ð²Ðµ":7822,"Ð¿Ð¾ÑĤ":7823,"ĠÐºÐ¸Ð½":7824,"ÑĨÐ¾Ð¼":7825,"Ð¼Ð¸ÑĤ":7826,"ĠÐ²ÑĭÐ¿Ð¸":7827,"ĠÑĢÐ°Ð·Ð²Ðµ":7828,"ĠÐĶÐ°Ð»ÑĮ":7829,"Ð½ÑıÑİÑĤÑģÑı":7830,"ÐĲÐ½":7831,"ĠÐĵÑĢÐµ":7832,"ÐĶÐĶ":7833,"ÑĤÐ¾Ð²ÑĭÐµ":7834,"Ð»ÑĭÐ¼Ð¸":7835,"ĠÐ½Ð°ÑĪÐ»Ð¸":7836,"ĠÐ¿ÑĢÐ°Ð²Ð¸ÑĤÐµÐ»ÑĮÑģÑĤÐ²Ð°":7837,"ĠÑģÐµÐ¼Ð¸Ð½Ð°":7838,"ĠÐ¾ÑĤÐ´ÐµÐ»ÑĮÐ½Ð¾":7839,"ĠÐ¸Ð½ÑĤÐµÑĢÐµÑģÐ½ÑĭÐµ":7840,"ĠÐ¿Ð¾Ð»ÑĮÐ·Ð¾Ð²Ð°ÑĤÐµÐ»ÑĮ":7841,"ĠÐ·Ð°ÐºÐ¾Ð½Ð¾Ð´Ð°ÑĤÐµÐ»ÑĮÑģÑĤÐ²Ð°":7842,"ĠÐ¥Ð°Ð±Ð°ÑĢÐ¾Ð²":7843,"ĠÑģÐºÐ¸Ð´ÐºÐ¸":7844,"ĠÑĩÑĤÐ¾Ð±":7845,"ĠÐ½Ð°Ð²ÐµÑĢÐ½Ð¾Ðµ":7846,"ĠÐ·Ð´ÑĢÐ°Ð²Ð¾Ð¾Ñħ":7847,"ĠÐ¸Ð½ÑĤÐµÐ»Ð»ÐµÐºÑĤÑĥ":7848,"ka":7849,"Ð²ÑĥÑİ":7850,"ÐµÑĤÑĢÐ°":7851,"Ð½Ð¸Ð»Ð°":7852,"ĠÐ¿ÑĢÐ¸Ð¼Ðµ":7853,"ĠÐ¡Ð»Ñĥ":7854,"ĠÐ¿ÑĢÐ¾ÑīÐµ":7855,"ĠÑģÑĤÐ¾Ð»ÑĮ":7856,"ĠÑĤÐ°ÑĢÐ¸ÑĦ":7857,"Ð½Ð¾Ð²ÐµÐ½Ð¸Ðµ":7858,"ÐĲÐ´":7859,"ÑĳÑħ":7860,"ÑģÑĤÐ°Ð²ÐºÐ¸":7861,"Ð¾ÑĢÐ¸Ñı":7862,"ĠÐ±Ð°ÑĢÐ°":7863,"ÑĥÑİÑīÐ¸Ð¹":7864,"ĠÐ¿Ð¾Ð½ÑıÑĤÐ¸Ñı":7865,"ĠÐºÑĢÐ°ÑģÐ¾ÑĤÑĭ":7866,"ĠÐ¾Ð³ÑĢÐ¾Ð¼Ð½Ð¾Ðµ":7867,"ĠÐ·Ð°Ð²ÑĤÑĢÐ°":7868,"ĠÑģÑģÑĭÐ»ÐºÐ¾Ð¹":7869,"ĠÐĿÐ¾Ð²Ð¾ÑģÐ¸Ð±Ð¸ÑĢÑģÐºÐµ":7870,"IS":7871,"ĠÎº":7872,"ĠÑģÑĩÐµÑĤÐ°":7873,"ĠÐ¸Ñī":7874,"ÑĦÑĥ":7875,"ĠÐ»ÐµÐ´":7876,"Ð¡Ðŀ":7877,"ÐĴÐ¾Ð»":7878,"ĠÐ¸Ð½ÑĤÐµÐ½ÑģÐ¸Ð²":7879,"ĠÐĳÐ¾Ð»":7880,"ĠÐ¾ÑĢÐ³Ð°Ð½Ñĭ":7881,"ĠÐ°ÐºÑģÐµÑģÑģÑĥÐ°ÑĢÑĭ":7882,"ĠÐļÐ°ÑĢÐ°":7883,"ĠÐĴÐ°ÑĪÐµÐ³Ð¾":7884,"ĠÐºÐ¾Ð»Ð¾":7885,"ĠÑįÑĤÐ°Ð¿Ðµ":7886,"Ð¾Ð½ÑĤÐ°Ð¶":7887,"ĠÑĤÐµÐ¼Ð¿ÐµÑĢÐ°ÑĤÑĥÑĢ":7888,"ĠÐ²Ð»Ð¸ÑıÐ½Ð¸Ðµ":7889,"ĠÐŁÐ¾ÑĤÐ¾Ð¼":7890,"ĠÐŁÐ¾ÑĤÐ¾Ð¼Ñĥ":7891,"ĠÑĥÐ±ÐµÐ´Ð¸":7892,"ĠÑĥÐ±Ð¸Ð¹":7893,"ĠÐ¿ÑĢÐ¾ÑĦÐ¸Ð»Ð°ÐºÑĤÐ¸ÐºÐ¸":7894,"ĠÑĢÐµÐ¹ÑĤÐ¸Ð½Ð³":7895,"ĠÐ¾ÑĤÐ½Ð¾ÑģÑıÑĤÑģÑı":7896,"96":7897,"ĠÐ²Ð¾Ð´Ðµ":7898,"ĠÑģÐ»Ð¾ÑĤ":7899,"Ð³Ð¾Ð´Ð¸":7900,"ĠÐĴÑĤÐ¾ÑĢ":7901,"Ð¾Ð¿ÑĢÐ¾Ñģ":7902,"ĠÐ¸Ð·Ð³Ð¾ÑĤÐ°Ð²Ð»Ð¸":7903,"ĠÑĢÐ°Ð·Ð´ÐµÐ»Ð°":7904,"ÑĤÑĭÐ¼Ð¸":7905,"ÐķÐľ":7906,"ĠÐ¿Ð¾Ð²ÐµÑĢ":7907,"Ð±ÑĭÑĩÐ½Ð¾":7908,"ĠÑĢÐ°ÑģÑĩÐµÑĤÐ°":7909,"ĠÐ¼Ð¾ÑģÐºÐ¾Ð²":7910,"ĠÑĨÐµÐ¿":7911,"ĠÐŀÐ±ÑĢÐ°Ð·":7912,"ĠÐ¾Ð¿ÑĢÐµÐ´ÐµÐ»ÐµÐ½Ð¸Ñı":7913,"ĠÐ³Ð»Ð°Ð²Ð°":7914,"ĠÑģÐ»ÐµÐ´Ð¾Ð²Ð°":7915,"ĠÑģÐ¼ÐµÑģÐ¸":7916,"ĠÐ¿Ð¾Ð»ÑĥÑĩÐ°ÐµÑĤ":7917,"ĠÐ¿Ð¾Ð´ÑĢÐ¾Ð±Ð½ÐµÐµ":7918,"ĠÐľÑĥÐ·ÑĭÐºÐ°":7919,"Ð²ÑĪÐ¸Ð¹ÑģÑı":7920,"Ð¾Ð³Ð¾ÑĢÐ¾Ð´Ð¸":7921,"ĠÐ°ÑĤÐ¼Ð¾ÑģÑĦÐµÑĢ":7922,"St":7923,"ÑĢÐ°Ð³":7924,"ĠÐ½Ð¾Ð³Ð¸":7925,"ĠÐ¼Ð¾Ð´Ð¸":7926,"ĠÑĥÐ±Ð¾ÑĢ":7927,"ĠÑĢÐ°Ð´":7928,"ĠÐĴÐ¾ÑģÑĤ":7929,"ĠÐ¿ÑĢÐ¸ÑĪÐ»Ð¸":7930,"ĠÐľÐ¾Ð½":7931,"ÐŁÑĢÐ¾Ð´":7932,"ĠÐºÐ¾Ð¼Ð±Ð¸Ð½Ð°":7933,"Ð»Ð¾Ð²Ð¾":7934,"ĠÐ¾Ð¿ÑĢÐ°Ð²":7935,"ĠÐ¿ÐµÑĢÐµÐ¼ÐµÐ½":7936,"ĠÐ²Ð¾Ð¾ÑĢÑĥÐ¶":7937,"ĠÑģÐ»ÑĥÑĩÐ¸":7938,"ĠÐºÐ¾ÑĢÐ·Ð¸":7939,"Ð¾Ð»ÑıÑħ":7940,"ĠÐ±Ð°Ð·Ð°":7941,"ÑĢÐµÐ´Ð¸ÑĤ":7942,"ĠÑįÐ»ÐµÐºÑĤÑĢÐ¾Ð¿":7943,"ĠÑģÐºÐ¾ÑĢ":7944,"ÐŃÑĤÐ¾ÑĤ":7945,"ĠÐ¿Ð¾ÑĩÑĤÑĭ":7946,"ÑİÑīÐ¸Ð¹ÑģÑı":7947,"ĠÐ¡ÑĤÐ°ÑĤÑĮÐ¸":7948,"ĠÑģÑĩÐ¸ÑĤÐ°ÑİÑĤ":7949,"ĠÐ¾ÐºÐ°Ð·Ð°Ð»ÑģÑı":7950,"ĠÐ¿ÑĢÐµÐ´ÑģÑĤÐ°Ð²Ð¸ÑĤÐµÐ»ÑĮ":7951,"ĠÑģÑģÑĭÐ»ÐºÐ°":7952,"IP":7953,"ĠÐ¿Ð»Ð¸ÑĤ":7954,"ĠÐ²Ð²ÐµÐ´":7955,"ĠÐºÑĢÐ¾Ð²Ð°":7956,"Ð½Ð°Ð¿ÑĢÐ¸Ð¼ÐµÑĢ":7957,"Ð¾Ð¶Ñĥ":7958,"ĠÐ²ÑĭÐ½ÑĥÐ¶Ð´":7959,"ÑģÐµÐº":7960,"ĠÑĢÐµÑģÑĤÐ¾ÑĢÐ°":7961,"ĠÑĢÐ°Ð·Ð¾Ð±ÑĢÐ°":7962,"ĠÐ¢Ðŀ":7963,"ĠÐ¸Ð½ÑģÑĤÐ¸ÑĤÑĥÑĤ":7964,"ÐĺÐĲ":7965,"ÑĢÑıÐ´Ð°":7966,"Ð½ÑĥÐ²":7967,"ĠÐ¸ÑģÐ¿ÑĭÑĤÑĭ":7968,"ĠÐ½Ð¾Ð²ÑĭÐ¼":7969,"ĠÑģÐ¾Ð±Ð°Ðº":7970,"ĠÐĸÐµ":7971,"ĠÐ¿Ð¾ÐºÐ»Ð¾Ð½":7972,"ĠÑĩÐµÐ»Ð¾Ð²ÐµÐºÐ¾Ð¼":7973,"ĠÐ¿Ð¾ÐºÐ°Ð·Ð°ÑĤÑĮ":7974,"ĠÐ½Ð°ÑĢÑĥÑĪÐµÐ½Ð¸Ðµ":7975,"ĠÐ±ÐµÐ·Ð¾Ð¿Ð°ÑģÐ½Ð¾ÑģÑĤÑĮ":7976,"ĠÐ¼ÐµÑĤÐ°Ð»Ð»Ð°":7977,"âĢĿ.":7978,"ĠÐ¿ÑĢÐ¸ÑĢÐ¾Ð´Ñĭ":7979,"ĠÐ¼ÐµÑĩÑĤÐ°":7980,"ĠÐ±Ð¾ÑĢÑĮÐ±Ñĭ":7981,"ĠÐºÐ²Ð°Ð´ÑĢÐ°ÑĤ":7982,"ĠÐŁÐ¾Ð´ÑĢÐ¾Ð±Ð½ÐµÐµ":7983,"ib":7984,"Ð»Ð»Ðµ":7985,"ÑıÐ³":7986,"ĠÐ¾ÑĩÐ°":7987,"ĠÐ»Ð¾Ð³":7988,"ĠÐĴÑĥÐ»ÐºÐ°Ð½":7989,"Ð¼Ð¾ÑģÐºÐ¾Ð²":7990,"ĠÐ´Ð°Ð»":7991,"ĠÐ¿ÑĢÐµÐ´Ðµ":7992,"ĠÑģÑĥÐ¶Ð´ÐµÐ½Ð¸Ñı":7993,"ÐºÐ¾Ð½ÑģÑĤÑĢÑĥ":7994,"ĠÐºÐ¸Ð¿":7995,"ĠÐ¾ÐºÐ°Ð·Ð°Ð»Ð¾ÑģÑĮ":7996,"ĠÐ¿ÑĢÐµÐ´ÑģÑĤÐ°Ð²Ð¸ÑĤÑĮ":7997,"ĠÐŁÐµÑĢÐ²ÑĭÐ¹":7998,"ĠÐ¿ÑĢÐ¾ÑĨÐµÑģÑģÐ¾Ð²":7999,"ĠÐ³ÑĢÑĥÐ´Ð¸":8000,"ĠÑģÑĤÐ¾Ð»Ðº":8001,"ĠXX":8002,"ĠÐ¼ÐµÐ´Ð¸ÑĨÐ¸Ð½ÑģÐºÐ¾Ð¹":8003,"ĠÐ¿ÑĥÐ½ÐºÑĤ":8004,"ĠÐŁÐµÑĤÑĢ":8005,"ĠÐķÐ²ÑĢÐ¾Ð¿Ðµ":8006,"ĠÐ¾ÑħÑĢÐ°Ð½Ñĭ":8007,"ĠÑįÐºÑģÐ¿ÐµÑĢÐ¸":8008,"ĠÐ±ÑĢÑİ":8009,"ĠÑĥÐ¿Ð»Ð°":8010,"ĠÐ½ÐµÐ´ÐµÐ»ÑĮ":8011,"Ð»ÑıÑĤÐ¾ÑĢ":8012,"ĠÐ·Ð°Ñģ":8013,"ĠÐŁÐ¾ÐºÐ°Ð·Ð°ÑĤÑĮ":8014,"ĠÐ¡Ð¾Ð·":8015,"ĠÐ¡Ð²ÑıÑĤ":8016,"Ð³Ð°Ð¼":8017,"ĠÐ¿Ð¾Ð»Ð°":8018,"Ð½ÑıÐ¼Ð¸":8019,"ĠÐ´Ð¾ÑģÑĤÐ°":8020,"ĠÐĵÐ°Ð·":8021,"ĠÐ²Ð°ÑĪÐµ":8022,"ÐĶÐ°Ð½":8023,"ÐºÐ¾Ð¼Ð°":8024,"ĠÐ¿Ð°Ð´":8025,"ĠÐ¿ÑĢÐ¾Ð¸Ð·Ð²ÐµÐ´ÐµÐ½Ð¸Ñı":8026,"ĠÑģÑĤÑĢÐ°ÑĪ":8027,"ĠÐ½ÑĥÐ¶Ð½Ñĭ":8028,"Ð§Ð°":8029,"ĠÐĿÐ¸Ðº":8030,"ĠÐ³Ð¾Ð²Ð¾ÑĢÐ¸Ð»":8031,"ĠÑĢÑĥÑģÑģÐºÐ¸Ð¹":8032,"ĠÐºÑĢÐ¸Ð·Ð¸":8033,"ĠÑģÑĥÐ¼Ð¼Ñĭ":8034,"ÑĩÐ°ÑģÑĤÑĥÑİ":8035,"ÐŁÐµÑĤÐµÑĢÐ±ÑĥÑĢÐ³Ðµ":8036,"ĠÐ¾ÑĢÐ¸ÐµÐ½ÑĤÐ¸":8037,"Ð¿ÑĢÐ¾Ð´Ñĥ":8038,"ĠÐ¿Ð¸ÑģÑĮÐ¼Ð°":8039,"ĠÐ°Ð²ÑĤÐ¾Ð¼Ð°ÑĤÐ¸ÑĩÐµÑģÐºÐ¸":8040,"fo":8041,"ĠÑĪÐµÐ»":8042,"Ð¶ÐºÑĥ":8043,"ĠÐ¿Ð¾ÐµÐ·Ð´":8044,"Ð¼Ð¸ÑĢ":8045,"Ð¾ÐºÐ°ÑĢ":8046,"ĠÐ¾ÑĤÑĢÐ°Ð¶Ð°":8047,"ĠÑĤÐ°ÐºÐ¸Ð¼Ð¸":8048,"ÐµÐºÑģÐ°":8049,"ÐĹÐŀ":8050,"ĠÑĥÑģÐ»Ñĭ":8051,"ĠÐ¿ÑĥÑģÑĤÑĮ":8052,"ĠÐ¸Ð½ÑĤÐµÑĢÐ²ÑĮÑİ":8053,"2005":8054,"ĠÐ¿ÑĢÐ¾ÑĤÐ¸Ð²Ð¾ÑĢÐµ":8055,"Ð¾Ð²Ð°Ð½Ð½ÑĭÐ¹":8056,"ĠÑģÐ¿ÐµÑĨÐ¸Ð°Ð»ÑĮÐ½ÑĭÐµ":8057,"âĢĿ,":8058,"ĠÑģÑİÐ´Ð°":8059,"Ġ>>":8060,"Ð¾ÑĪÐµÐ»":8061,"ĠÐ¿Ð¾Ð¶Ð¸":8062,"ÑĢÐµÐ¿Ð¸":8063,"ĠÐ·Ð°ÑĩÐµÐ¼":8064,"ĠÐ°ÐºÐ°Ð´ÐµÐ¼Ð¸":8065,"ĠÐľÐµÐ´":8066,"Ð¾Ð´Ð°Ð¼Ð¸":8067,"ĠÐºÐ¾Ð½ÑĦÐ»Ð¸":8068,"ÐĽÑĥÑĩ":8069,"Ð²ÑĭÑĩÐ°Ð¹":8070,"Ð³ÑĢÐ°Ð»":8071,"ĠCom":8072,"ĠÐ³Ð¾ÑģÑĥÐ´Ð°ÑĢÑģÑĤÐ²ÐµÐ½Ð½ÑĭÑħ":8073,"ĠÐ¼Ð¾Ð»Ð¾Ð´ÑĭÑħ":8074,"ĠÐ¾ÑĤÑģÑĥÑĤÑģÑĤÐ²Ð¸Ðµ":8075,"ĠÑģÐ¾Ð¾Ð±ÑīÐ¸Ð»Ð¸":8076,"ĠÑĢÐµÑģÑĥÑĢÑģÐ¾Ð²":8077,"ĠÐ¿ÑĢÐ¾Ð¼ÑĭÑĪÐ»ÐµÐ½Ð½Ð¾ÑģÑĤÐ¸":8078,"ĠÐĽÐµÐ½Ð¸Ð½Ð³ÑĢÐ°Ð´":8079,"ĠÐ¸ÑĤÐ¾Ð³Ð°Ð¼":8080,"ĠÐ¸Ð½Ð¾Ð¹":8081,"Ð¾ÑĢÐ³Ð°Ð½Ð¸":8082,"ĠÐ¼Ð¾Ð´ÐµÑĢ":8083,"ÑĤÐ°ÑĢÐ¸":8084,"ĠÐ·ÑĢÐµ":8085,"ĠÐ¡Ð»ÐµÐ´":8086,"ĠÐ¿Ð¾Ð´ÑĪÐ¸Ð¿":8087,"Ð½ÑıÐºÐ°":8088,"ĠÐĵÐ¾Ð´":8089,"ĠÐĵÑĢÐ¸":8090,"ÐĶÐµÑĤ":8091,"Ð¾Ð»ÐµÐ²":8092,"ĠÐºÐ°ÑĢÑĤ":8093,"ÑĢÐ¾ÑģÐ»Ð°Ð²":8094,"ĠÑĥÑĩÐ°ÑģÑĤÐºÐµ":8095,"Ð¿Ð¾ÑĩÐ¸ÑĤÐ°":8096,"ĠÐ´ÐµÐ²ÑĥÑĪÐµÐº":8097,"ĠÐ¼Ð»ÑĢÐ´":8098,"ĠÐĴÐ¾Ð»Ð³":8099,"ĠÑĩÐ»ÐµÐ½Ð¾Ð²":8100,"ĠÑģÑİÐ¶ÐµÑĤ":8101,"ĠÐ¿ÑĢÐ¾ÑĨÐµÐ´ÑĥÑĢÑĭ":8102,"ĠÐ²Ð·Ð°Ð¸Ð¼Ð¾Ð´ÐµÐ¹ÑģÑĤÐ²Ð¸Ñı":8103,"Ð¸Ð·Ð²Ð¾Ð´ÑģÑĤÐ²Ð¾":8104,"ne":8105,"Ġ!":8106,"ĠÐ¹":8107,"ĠÑģÐ»Ð°Ð´":8108,"ĠÐ¼ÐµÑĤÐ°":8109,"ÑĪÐºÐ°Ð¼Ð¸":8110,"ĠÐ·Ð¾Ð½":8111,"ĠÐ¿Ð¾ÑģÐ°Ð´":8112,"ĠÐ·Ð°Ð²ÐµÐ´":8113,"ĠÐĴÑģÐµÑĢ":8114,"ÑĩÐ¸Ð»Ð¸":8115,"ĠÐłÐ¾Ð´Ð¸":8116,"ÑĪÐµÐ»ÑĮ":8117,"ĠÑħÑĢÐ¸ÑģÑĤÐ¸Ð°Ð½":8118,"ÐµÐ½ÑĮÑİ":8119,"ĠÑĪÐµÑĢ":8120,"ÐĹÐĲ":8121,"ond":8122,"ĠÐ¼ÐµÐ½Ñİ":8123,"ĠÐ¼Ð¾Ð³Ð»Ð°":8124,"ĠÑģÐµÑĢÐ²ÐµÑĢ":8125,"Ð²Ð°ÐµÐ¼ÑĭÐµ":8126,"ĠÐ¿ÑĢÐ¾Ð²ÐµÐ´ÐµÐ½Ð¸Ðµ":8127,"ung":8128,"ĠÐ·Ð°Ð¿Ð¸ÑģÑĮ":8129,"ĠÐ²Ð°Ð»ÑİÑĤÑĭ":8130,"ĠÐ¿ÑĢÐ¸Ð±Ð¾ÑĢÐ¾Ð²":8131,"sp":8132,"Ð¸ÑģÑĥ":8133,"ÑģÐ¾ÑĢÐ¸":8134,"ÑĢÐ¾Ð´Ð¸":8135,"ÐºÐ²":8136,"Ð²ÑĢÐµÐ¼ÐµÐ½":8137,"ĠÐ²Ð´Ð¾Ñħ":8138,"Ð¾Ð²ÑĭÐ¼":8139,"Ð±ÑĢÐ°ÑĤÑĮ":8140,"ÑĢÐµÐ´Ð°":8141,"Ð¾Ð´Ð½ÑĭÐ¹":8142,"Ð²Ð°ÑĤÐ¸":8143,"ĠÐ½ÐµÐ¿ÑĢÐ¾":8144,"ÑĢÑĥÐµÐ¼":8145,"ĠÐ²ÑĭÐ·ÑĭÐ²Ð°ÐµÑĤ":8146,"ĠÐ¸Ð·Ð±ÑĢÐ°Ð½":8147,"ĠÑĦÐ¾Ð½Ðµ":8148,"ÑģÐ°Ð»":8149,"ĠÐ¿ÑĢÐµÐ´ÑĬ":8150,"ÐĿÐ¡":8151,"Ð·Ð¸Ð¹":8152,"ĠÐ²Ð°ÑĪÐµÐ¼":8153,"ĠÐ»ÑİÐ±Ñĭ":8154,"ĠÐĿÐ°ÑĤÐ°":8155,"ĠÐ¿ÐµÑĩÐºÐ¸":8156,"Ð³Ð¾Ð²Ð¾Ð¹":8157,"ĠÐºÐ°ÑĢÑĤÐ°":8158,"ÑĩÐµÐ½Ð½ÑĭÑħ":8159,"ÐµÐ½ÑĤÐ°Ð¼":8160,"ĠÐ»ÑĥÑĩÑĪÐ¸Ð¹":8161,"Ð¾Ð»Ð¸ÑĩÐµÑģÑĤÐ²Ð¾":8162,"ĠÐļÐ¾Ð¼Ð¿Ð°Ð½Ð¸Ñı":8163,"ĠÐ¾ÑģÑĥÑīÐµÑģÑĤÐ²Ð»ÐµÐ½Ð¸Ñı":8164,"ĠÑĢÐµÐ°Ð»ÑĮÐ½Ð¾":8165,"ĠÐºÐ²Ð°ÑĢÑĤÐ¸ÑĢ":8166,"ĠÐ¶ÑĥÑĢÐ½Ð°":8167,"ĠÐĵÐ»Ð°Ð²Ð½Ð¾Ðµ":8168,"ĠÐ´Ð¾Ð±Ð¸ÑĤÑĮÑģÑı":8169,"ĠÑĦÑĢÐ°Ð½ÑĨÑĥÐ·":8170,"ĠÐ¡Ð¾ÑĨÐ¸Ð°Ð»Ð¸ÑģÑĤÐ¸ÑĩÐµÑģÐºÐ¾Ð¹":8171,"Ġj":8172,"ÑĤÐ½Ð¾Ðµ":8173,"Ð´Ð¶Ð°":8174,"Ð²Ð°Ð»Ð¾":8175,"ĠÐ½ÐµÐ²":8176,"ÑĤÐ¸ÑĩÐµÑģÐºÐ¸Ð¹":8177,"ĠÐ·Ð°Ð³Ð°":8178,"ĠÐŁÐ¾ÑĢÑĤÐ°":8179,"ÑĩÐ°Ð»Ð¸":8180,"Ð»Ð¾Ð½Ñĭ":8181,"Ð»Ð¾ÑĤÐ°":8182,"ĠÑģÐ¾Ð¾ÑĤÐ½Ð¾":8183,"ĠÐ¿Ð¾Ð»Ð°Ð³Ð°":8184,"ÐļÐ¾ÑĢ":8185,"Ð»Ð¾Ð²ÑĭÐµ":8186,"ĠÐ¾Ð´Ð½Ð¾Ðº":8187,"Ð²Ð¾ÑģÑĤÑĮ":8188,"ĠCl":8189,"ĠÐ°ÑĢÐ¼Ð¸Ð¸":8190,"ĠÐ³Ð»Ð°Ð²Ñĭ":8191,"ĠÐ¡Ð¾ÑİÐ·Ð°":8192,"ĠÑģÐ¾Ð±ÑģÑĤÐ²ÐµÐ½Ð½Ð¾Ð³Ð¾":8193,"ĠÐ¿ÑĢÐ¸Ð½ÑıÑĤÐ¾":8194,"ĠÑģÐ²ÑıÐ·Ð°Ð½":8195,"ĠÐ±ÑĥÐ´ÑĥÑīÐµÐ¼":8196,"ĠÐ¿Ð¾Ð½ÑıÑĤÐ½Ð¾":8197,"ĠÑģÐ¸Ð¼Ð²Ð¾Ð»":8198,"ĠÐĶÐ¾ÑģÑĤÐ°Ð²ÐºÐ°":8199,"ĠÐ¿ÑĢÐ¸ÑĩÐ¸Ð½Ñĭ":8200,"ĠÐ°Ð¿Ð¿Ð°ÑĢÐ°ÑĤÑĭ":8201,"ĠÐ´ÐµÑĤÐ°Ð»ÐµÐ¹":8202,"ĠÑģÐµÑĢÐµÐ´Ð¸":8203,"74":8204,"pro":8205,"ÐºÐµÑĤÑĭ":8206,"ĠÐ½Ð¾ÑģÐ¸":8207,"Ð¾Ð²Ð¾":8208,"ÐµÑĤÑĥ":8209,"Ð»ÑĮÐ½Ð¸ÐºÐ¸":8210,"ĠÐ·Ð²Ð¾":8211,"ĠÐ½ÐµÐ²Ñĭ":8212,"ĠÐ³ÐµÐ¼":8213,"ĠÐ¿Ð¾Ð½Ðµ":8214,"Ð´Ð°ÑĩÐ¸":8215,"ĠÐ¾Ð±Ð¾Ð»":8216,"ÑģÑĤÐ¸Ðº":8217,"ĠÐ¾ÑĤÑĢÐ°Ñģ":8218,"ĠÐ²ÑĭÑģÑĤÑĥÐ¿Ð¸":8219,"ĠÐ¿ÑĢÐ¾ÐºÐ°":8220,"ĠÐĶÐ¾ÐºÑĥ":8221,"ĠÐĳÐ¾Ð³Ð¾ÑĢÐ¾Ð´Ð¸":8222,"Ð·Ð¸Ð°ÑĤ":8223,"Ð»ÑİÐ´Ð°ÑĤÑĮ":8224,"ĠÑĪÐ°Ð¼":8225,"ĠÑįÐºÐ·Ð°":8226,"ÑħÐ¸Ð¼Ð¸":8227,"ÑĦÑĦÐµÐºÑĤÐ¸Ð²":8228,"ĠÐ·Ð°ÑıÐ²Ð»ÐµÐ½Ð¸Ñı":8229,"ĠÑĦÐ¸Ð½Ð°Ð½ÑģÐ¸":8230,"ĠÑĥÐ´Ð¾Ð²Ð¾Ð»ÑĮÑģÑĤÐ²Ð¸Ðµ":8231,"ĠÑĤÐ¾ÑĢÐ¼Ð¾Ð·Ð½Ð¾Ð¹":8232,"ĠÐ¸Ð½ÑĦÑĢÐ°ÑģÑĤÑĢÑĥ":8233,"71":8234,"ÑİÑīÐµÐ¼":8235,"Ð¾Ð¼Ñı":8236,"ĠÐ±ÐµÑĢ":8237,"Ð²Ð°Ð¼Ð¸":8238,"Ð²Ð°ÐµÑĤÐµ":8239,"ĠÑģÑĤÑĢÐµÐ¼":8240,"ĠÐĲÐ½Ð°":8241,"ÐłÐ¾ÑģÑģÐ¸":8242,"ÐĵÐĲ":8243,"ĠÐ¿Ð¾Ð²ÑģÐµÐ´Ð½ÐµÐ²":8244,"ĠÐ¥Ð°ÑĢÑĮÐºÐ¾Ð²":8245,"ĠÐ¾Ð±ÑĬÐµÐºÑĤÐ¸Ð²":8246,"ĠÑģÐ¸ÑģÑĤÐµÐ¼Ð¾Ð¹":8247,"ĠÐ±ÐµÐ»ÑĭÐ¹":8248,"ÑģÑĤÑĥÐ¿Ð»ÐµÐ½Ð¸Ðµ":8249,"ĠÐ²Ð»Ð°ÑģÑĤÑĮ":8250,"ĠÐľÐ¸ÑĢ":8251,"ĠÐ»ÐµÐ³ÐµÐ½":8252,"ĠÐ¿Ð¸ÑĤÐ°Ð½Ð¸Ðµ":8253,"ĠÑĢÐµÐºÐ¾Ð¼ÐµÐ½Ð´Ð°ÑĨÐ¸Ð¸":8254,"ĠÐ²Ð½ÐµÑĪÐ½Ð¸Ð¹":8255,"ĠÐ¿Ð¾ÑĤÐµÐ½ÑĨÐ¸Ð°Ð»ÑĮ":8256,"ĠÐ¿ÑĢÐ¾ÑĨÐµÐ½ÑĤÐ¾Ð²":8257,"ĠÐ±Ð°ÑģÑģÐµÐ¹":8258,"ĠÐĶÐ¾Ð±Ð°Ð²Ð¸ÑĤÑĮ":8259,"ĠÐ´Ð¸ÑģÑĨÐ¸":8260,"ÑĢÐ¾Ð³":8261,"ÑģÑĤÑĭÑħ":8262,"ÐµÑĤÐ¾Ð¼":8263,"ĠÐ»Ð¾Ðº":8264,"ĠÐĴÐµÑĢÑħ":8265,"ĠÐ²ÑĭÐ±Ð¾ÑĢÐµ":8266,"ĠÐ¿ÑĢÐ¾ÑĪÐµÐ´":8267,"ĠÐ¿Ð¾Ð´Ð¾Ð¹Ð´ÐµÑĤ":8268,"ĠÑģÐ²ÑıÑĤ":8269,"ÐłÑĥ":8270,"ĠÐ»ÐµÐ¶Ð°":8271,"ÑĢÐµÐ½Ð´Ð°":8272,"ĠÑģÐ¾Ð·Ð´Ð°Ð½":8273,"ĠÐ¾ÑģÐ½Ð¾Ð²Ñĭ":8274,"rus":8275,"ĠÐ¿ÑĢÐ¸Ð¼ÐµÐ½ÑıÑĤÑĮ":8276,"ĠÐ¿ÑĢÐ¾Ð¸Ð·Ð²Ð¾Ð´ÑģÑĤÐ²Ðµ":8277,"Ð´ÐµÐ½ÑĨÐ¸Ð°Ð»ÑĮ":8278,"ĠÐ¿Ð¾Ð¿ÑĥÐ»ÑıÑĢÐ½ÑĭÑħ":8279,"ĠÑģÑħÐµÐ¼Ð°":8280,"ĠÐ·Ð°Ð´Ð½Ð¸Ð¹":8281,"ĠÑĤÐ¾Ð¿Ð»Ð¸Ð²Ð°":8282,"ĠÐ¾ÑĤÐ¼ÐµÑĤÐ¸Ð»":8283,"ĠÐ¼Ð¾Ð¸Ñħ":8284,"ĠÐ²ÑĭÐ³Ð»ÑıÐ´Ð¸ÑĤ":8285,"ĠÐĲÐ»ÐµÐºÑģÐµ":8286,"ĠÐ´Ð¾Ð¿Ð¾Ð»Ð½Ð¸ÑĤÐµÐ»ÑĮÐ½Ð¾":8287,"ĠÑģÐ¿ÐµÑĨÐ¸ÑĦÐ¸":8288,"ÐµÐ²Ð¸Ñĩ":8289,"ÑĢÐ¾Ð·Ð¸":8290,"ĠÐ½ÑĢÐ°Ð²":8291,"ĠÐ´Ð¾Ð¼Ð¸":8292,"ĠÐ±Ð¾Ð½Ñĥ":8293,"ÑīÐµÐ½Ð¸ÐµÐ¼":8294,"ĠÐ³ÑĢÐ¾Ð¼":8295,"ĠÑĢÐ°ÑģÑĤÐ²Ð¾":8296,"Ð´Ð¸Ð½Ð¾":8297,"ĠÐľÐµÑĢ":8298,"ĠÐĶÐŀ":8299,"ÐŁÐĲ":8300,"Ð¶Ð¸ÑĤÑģÑı":8301,"Ð°Ð»ÑĮÐ½ÑĭÐ¼":8302,"ĠÐ¿Ð¾ÑģÐ¼Ð¾ÑĤ":8303,"ĠÑģÑĢÐµÐ´Ð½ÐµÐ¹":8304,"ĠÐ´Ð¾Ð±ÑĢÐ°":8305,"ĠÐ¢Ð°ÐºÐ¾Ð¹":8306,"ĠÑĢÐ°ÑģÑģÑĭ":8307,"ĠÑĩÑĥÐ´Ðµ":8308,"ÐºÑĤÑĥÑĢÐ°":8309,"ĠÐ¡Ð°ÑĢÐ°ÑĤÐ¾Ð²":8310,"ĠÐ¸Ð½ÑģÑĤÑĢÑĥÐ¼ÐµÐ½ÑĤÑĭ":8311,"ĠÐ¿ÑĢÐ¾ÐµÐºÑĤÑĭ":8312,"ĠÑģÐ¸ÑĤÑĥÐ°ÑĨÐ¸Ñİ":8313,"Ð¾Ð²Ð¸Ñĩ":8314,"ĠÑģÐµÐ·Ð¾Ð½Ð°":8315,"ĠÐľÐ°ÐºÑģÐ¸":8316,"Ð¢ÐµÐ¿ÐµÑĢÑĮ":8317,"ĠÐ¿Ð¾ÑıÐ²Ð»ÑıÐµÑĤÑģÑı":8318,"ĠÐłÐµÐºÐ¾Ð¼ÐµÐ½":8319,"ĠÐ¾Ð¿ÑĭÑĤÐ¾Ð¼":8320,"ÑıÑĤÐ¸Ñı":8321,"Ð¼Ð¾Ð¼":8322,"ÑĮÐµÑĤ":8323,"ĠÐ¾ÐºÑĥ":8324,"ĠÐ¾ÐºÐµ":8325,"ĠÐ½ÐµÐ¿ÑĢÐµ":8326,"ÑĩÐµÑģÑĤÐ²Ðµ":8327,"ĠÐ¿Ð¾Ð´ÑĢÐ¾ÑģÑĤ":8328,"Ð¶ÐµÐ»Ð¸":8329,"ĠÐĵÐ¾ÑĢÐ¾Ð´":8330,"ĠÐ£Ð¤Ð¡ÐĺÐĿ":8331,"ĠÐ´ÐµÑĤÑģÐºÐ¸Ð¹":8332,"ĠÑģÐ¾Ð·Ð´Ð°Ð²Ð°ÑĤÑĮ":8333,"ĠÐ±ÐµÑģÑģ":8334,"Ġ//":8335,"ĠÑģÐµÐ¼ÑĮÑı":8336,"ĠÐ¿ÐµÑĢÐ¸Ð¾Ð´Ð°":8337,"ĠÑģÐ¿ÐµÑĨÐ¸Ð°Ð»ÑĮÐ½ÑĭÑħ":8338,"ĠÐ·Ð°Ð¿ÑĥÑģÐºÐ°":8339,"Ð²ÑĪÐ¸ÐµÑģÑı":8340,"ĠÐ·Ð°ÐºÑĢÐµÐ¿":8341,"ĠÐ¿Ð¾ÑıÐ²Ð»ÑıÑİÑĤÑģÑı":8342,"ĠÐ³Ð¾ÑĢÐ¸Ð·Ð¾Ð½ÑĤÐ°":8343,"Ð´ÑĳÑĤ":8344,"ĠÐ²Ð¿Ð¸":8345,"Ð³ÑĢÐ¾Ð¼":8346,"ÑĨÐºÐ¸Ð¹":8347,"ĠÐ¡Ð±Ð¾ÑĢ":8348,"ÐŁÐļ":8349,"ĠÐĺÐ²Ð°Ð½":8350,"ĠÐ¢Ð°Ð¹":8351,"Ð½Ð¾Ð²ÑĭÐ¹":8352,"ÐķÑīÐµ":8353,"ĠÑĪÐ¾Ñĥ":8354,"ĠÐ¿Ð¸ÑĤÑĮ":8355,"ÐºÐ»Ð°Ð´ÐºÐ¸":8356,"ĠÐ±Ð°Ð±Ñĥ":8357,"ÐºÐ¾Ð»Ð°Ð¹":8358,"ĠÑĤÐµÐ»ÐµÐ²Ð¸":8359,"ĠÐ³Ð»Ð°Ð²Ð½ÑĭÐ¼":8360,"ĠÐ¿ÑĢÐ¾ÑĪÐ»Ð¾Ð³Ð¾":8361,"ĠÑĩÐ¸ÑģÑĤÐ¾":8362,"ĠÐ·Ð°ÑıÐ²ÐºÐ¸":8363,"ĠÐ§Ð°ÑģÑĤÑĮ":8364,"ĠÐ¿ÑĢÐ¸ÑĩÐ¸Ð½Ð¾Ð¹":8365,"ĠÑģÐ¼ÑĭÑģÐ»":8366,"ĠÐ¸Ð·Ð±ÐµÐ¶Ð°ÑĤÑĮ":8367,"ĠÑģÑĤÐ°Ð½Ð¾Ð²ÑıÑĤÑģÑı":8368,"ĠÐ¿ÑĢÐµÐ·ÐµÐ½ÑĤÐ°":8369,"900":8370,"ech":8371,"ĠÑģÐµÑĤÑĮ":8372,"ĠÐ¼ÐµÑĢÑĭ":8373,"ĠÐ¼Ð¾Ð»Ð¸ÑĤ":8374,"Ð½Ð°ÑĩÐ°Ð»Ð°":8375,"ĠÑĥÑģÑĤÑĢÐ°Ð¸":8376,"Ð¾Ð±ÑĥÑģ":8377,"ÑįÑĤÐ¾":8378,"Ð¾Ð½ÑıÑĤ":8379,"ÑģÑĤÐ²Ð¾Ð²Ð°Ð»Ð¸":8380,"ĠÐŁÑĥÐ±Ð»Ð¸":8381,"ĠÐĴÐ¡":8382,"ĠÑĢÐ°Ð·Ð³Ð¾Ð²":8383,"ĠÐ¢ÑĢÑĥ":8384,"ĠÑģÐ¿ÑĥÑĤ":8385,"ĠÐ£Ð·Ð½Ð°":8386,"ĠÐ¼Ð¸ÑĢÑĥ":8387,"Ð²Ð¾ÑĩÐµÐº":8388,"ĠÐ´ÐµÑĤÑĮÐ¼Ð¸":8389,"ĠÑĢÑĭÐ±Ð°":8390,"ĠÐ¿Ð¾Ð»ÑĥÑĩÐ¸ÑĤÑģÑı":8391,"Ð»Ð¾ÐºÐ¸":8392,"ĠÐ¿Ð¾Ð»Ð¸Ñį":8393,"Ð¾Ð´ÐµÑĢÐ¶Ð°":8394,"ĠÐºÐ¸Ð»Ð¾Ð¼":8395,"ĠÐ²Ð¾Ð»ÑĪÐµÐ±":8396,"ĠÐ´Ð¾ÐºÑĥÐ¼ÐµÐ½ÑĤ":8397,"ĠÐ²ÑģÑĤÑĢÐµÑĤÐ¸":8398,"Ð´ÐµÐ»Ð¸ÑĤÑĮ":8399,"ĠÐ¸Ð·Ð²ÐµÑģÑĤÐ½ÑĭÑħ":8400,"ĠÑģÐ²ÑıÐ·Ð°Ð½Ð½ÑĭÑħ":8401,"ĠÐ¼Ð¾ÑīÐ½Ð¾ÑģÑĤÐ¸":8402,"ĠÐ¿Ð¾ÐºÑĥÐ¿ÐºÐµ":8403,"ĠÑĦÑĥÐ½ÐºÑĨÐ¸Ð¹":8404,"ĠÐ¿ÑĢÐ¾Ð´ÑĥÐºÑĤÐ°":8405,"ĠÑģÐ¸Ð³Ð½Ð°":8406,"ĠÐ·Ð¾Ð»Ð¾ÑĤ":8407,"ĠÐ¿ÑĢÐµÐ¸Ð¼ÑĥÑīÐµÑģÑĤÐ²Ð°":8408,"ĠÑħÐ²Ð°ÑĤÐ°ÐµÑĤ":8409,"ĠÐ¿Ð¾ÑĤÐµÐ½ÑĨÐ¸":8410,"ĠÐ±Ð¾Ð³Ð°ÑĤ":8411,"220":8412,"Ð¿ÑĢÑı":8413,"Ð¾ÑĢÐ½Ð¾":8414,"ĠÐĴÐ¾ÑĢÐ¾Ð½ÐµÐ¶":8415,"Ð·Ð°Ð½":8416,"ÑĤÐµÐ»ÑĮÑģÑĤÐ²Ñĥ":8417,"ĠÐľÐĲ":8418,"ĠÑģÑĤÑĥ":8419,"ĠÐ¼Ð°ÑģÑģÑĥ":8420,"ĠÐ±ÑĭÐ²Ð°ÑİÑĤ":8421,"ĠÐĲÐļ":8422,"ĠÐ¿ÑĢÐµÐ´Ð¿Ð¾ÑĩÐ¸ÑĤÐ°":8423,"ĠÑĪÐ°ÑĢ":8424,"ĠÐ¿Ð¾Ð·Ð¶Ðµ":8425,"ĠÐ¥Ð¾Ð»":8426,"ĠÐĴÐ°Ð¼Ð¸":8427,"ĠÐ¾Ð¿ÑĢÐµÐ´ÐµÐ»Ð¸":8428,"ice":8429,"ĠÐ·Ð°ÑīÐ¸ÑīÐµÐ½Ñĭ":8430,"ĠÐļÐ¸ÑĢÐ¾Ð²":8431,"ĠÐ´Ð¾Ð²ÐµÑĢ":8432,"ĠÑĢÐµÐ¼Ð¾Ð½ÑĤÑĥ":8433,"ĠÐ¿ÑĢÐ¸Ð½Ð¸Ð¼Ð°ÐµÑĤ":8434,"ĠÑĢÐ¾ÑģÑģÐ¸Ð¹ÑģÐºÐ¾Ð³Ð¾":8435,"ĠÑĦÑĥÐ½ÐºÑĨÐ¸Ð¾Ð½Ð¸":8436,"ĠÐ¿Ð¸ÑģÐ°ÑĤÑĮ":8437,"ĠÐ¿ÑĢÐ¸ÑĩÐ¸Ð½Ðµ":8438,"ĠÐ³ÑĥÐ±ÐµÑĢÐ½Ð°":8439,"ĠÑģÑĤÑĢÐ°ÑħÐ¾Ð²Ð°Ð½Ð¸Ñı":8440,"ĠÐ°Ð½Ð´ÑĢÐ¾Ð¸Ð´":8441,"la":8442,"ĠÑģÑĤÐ²":8443,"ÑĤÐµÑĤÐ°":8444,"Ð·Ð¾":8445,"ĠÑĩÐµÑĢÐµ":8446,"ĠÐºÐ°ÑĢÐ°":8447,"ĠÐ¡ÑĥÐ´":8448,"ĠÑĤÐµÐ¼Ð°":8449,"ÐŁÐ¾Ñĩ":8450,"ÑĪÐµÐ²":8451,"ĠÐ¿ÐµÑĢÐµÐ³Ð¾Ð²":8452,"Ð°Ð»ÐºÐ¸":8453,"ĠÐ±Ð¾Ð»ÑĮÑĪÐµÐ¹":8454,"ĠÐ¿ÑĢÐ°ÐºÑĤÐ¸ÐºÐµ":8455,"ĠÑģÐ¿Ð°Ñģ":8456,"ĠÐ¼Ð¸Ð½Ð¸ÑģÑĤÐµÑĢ":8457,"ĠÐ¿Ð¾ÑıÐ²Ð¸Ð»Ð°ÑģÑĮ":8458,"ĠÐ¶ÑĥÑĢÐ½Ð°Ð»Ð°":8459,"ĠÐ¿Ð¾Ð¼Ð¾Ð³Ð°ÑİÑĤ":8460,"ĠÐ¾Ð±ÑģÐ»ÐµÐ´":8461,"ĠÐĲÐ²ÑĤÐ¾Ð½Ð¾Ð¼":8462,"ÐŀÐ´Ð½Ð°ÐºÐ¾":8463,"ress":8464,"ure":8465,"ĠÐ¼ÑĥÑģ":8466,"Ð½Ð¾ÑģÐ¸ÑĤÑĮ":8467,"ĠÑĥÐ¿ÑĢÐ¾":8468,"ÑĤÐ¾Ð½Ð°":8469,"Ð¾ÐºÐ¾Ð»":8470,"ĠÐ¡Ð¿Ð¸":8471,"Ð½ÐµÐº":8472,"Ð¾Ð¿ÑĭÑĤ":8473,"ĠÐľÐµÐ½Ñı":8474,"Ð»Ð¾ÑģÑĤÐ¸":8475,"Ð»ÐµÐ½Ð½Ð¾Ðµ":8476,"ĠÑģÑĤÐ°Ð´Ð¸":8477,"ĠÐ²Ð¸Ð´Ð¸Ð¼":8478,"ĠÐĿÐ°ÑĪ":8479,"Ð½Ð¸Ð¼Ð°Ð½Ð¸Ðµ":8480,"Ð¼ÐµÑĢÑĭ":8481,"ĠMight":8482,"ÑīÐµÐ½Ð½ÑĭÑħ":8483,"ĠÐĸÐļ":8484,"ĠÐ¿ÑĢÐ¾Ð´Ð°Ð²":8485,"Ð¿Ð¾ÑĤÐ°":8486,"ĠÑįÑĤÐ°Ð¶":8487,"ĠÐ·Ð°Ð´Ð°Ð½Ð¸Ñı":8488,"ĠÐ¿Ð¾Ð»ÑĥÑĩÐ°ÑİÑĤ":8489,"ĠÑĢÐµÐ¶Ð¸Ð¼Ð°":8490,"ĠÐ¼Ð¾Ð»Ð¾Ð´Ð¾Ð¹":8491,"ĠÑĦÐ¸Ð³ÑĥÑĢ":8492,"ĠÐ¿Ð¾Ð´ÑĩÐµÑĢÐº":8493,"Ð¼ÐµÑĤÐ°":8494,"Ð´Ð²Ð°":8495,"Ð·Ð½ÐµÑĨ":8496,"ĠÑĥÑģÑĤÑĢÐ°":8497,"Ð²Ð°Ð»Ð¾ÑģÑĮ":8498,"ĠÐ³ÐµÐ¹":8499,"ÐºÐ¸Ñı":8500,"ĠÐ·Ð°Ð²Ð¸":8501,"ĠÐ¿ÑĢÐ¾Ð¹":8502,"ĠÐĿÐķ":8503,"ĠÐĶÐ¾Ð¿":8504,"ÐŀÑĩÐµÐ½ÑĮ":8505,"ÐºÐ¾Ð²Ð¸":8506,"ÑĳÐ³":8507,"Ð¢Ð¬":8508,"ĠÐ¿ÑĢÐµÐ¼":8509,"ĠÐ§ÐµÑĢÐµÐ·":8510,"ĠÐ¶Ð¸ÑĤÐµÐ»Ð¸":8511,"ĠÐ¾Ð±ÑĬÐµÐ¼Ð°":8512,"ĠÐ°Ð²ÑĤÐ¾Ð¼Ð°ÑĤ":8513,"Ð²Ð¾Ð´Ð¸ÑĤÑĮ":8514,"ĠÐ±ÑĥÑħÐ³Ð°Ð»":8515,"ĠÐ´Ð¾ÑĢÐ¾Ð³Ð¾":8516,"ĠÐ³Ð¾ÑĢÐ¾Ð´Ð°Ñħ":8517,"ĠÑĨÐµÐ½Ñĥ":8518,"ĠÑģÐ²ÑıÐ·Ð°Ð½Ð½ÑĭÐµ":8519,"ĠÐ³Ð¾Ð»Ð¾Ð²Ñĭ":8520,"ĠÑģÑĤÑĢÑĥÐºÑĤÑĥÑĢ":8521,"ĠÐ·Ð°Ð³ÑĢÑĥ":8522,"ĠÐķÐ²Ð³":8523,"ĠÐºÐ¾Ð½Ð´Ð¸ÑĨÐ¸Ð¾Ð½ÐµÑĢÐ°":8524,"ÐºÐ¾Ð±ÑĢÐ¸ÑĤÐ°":8525,"per":8526,"ux":8527,"ÑĢÐ°Ð¿ÐµÐ²":8528,"Ð¶Ð¼Ð¸ÑĤÐµ":8529,"ÑĤÐ¸ÑĩÐµÑģÐºÐ¸Ñħ":8530,"Ð¾ÑģÐ½Ð°Ð±":8531,"ĠÐĿÐµÐ´":8532,"ĠÐĳÑĢÐµÐ½":8533,"ĠÐ´ÐµÐ²Ð¾ÑĩÐµÐº":8534,"ÑīÐ°ÐµÐ¼":8535,"ĠÐ¾Ð´Ð½Ð¾Ð¼Ñĥ":8536,"ĠÑģÐ¾Ð²ÐµÑĤÐ°":8537,"ĠÑģÐ¾Ð·Ð´Ð°Ð½Ð¸Ð¸":8538,"ÐĸÐ¸":8539,"ĠÑģÐ¿ÐµÑĨÐ¸Ð°Ð»Ð¸Ð·Ð¸ÑĢÐ¾Ð²Ð°Ð½":8540,"ĠÐŀÐ´Ð½Ð°":8541,"ĠÐ¿ÑĢÐ¾ÑĪÐ»Ð°":8542,"ĠÑĤÐµÐ»ÐµÑĦÐ¾Ð½Ð¾Ð²":8543,"ĠÑģÑĤÐµÐºÐ»Ð°":8544,"ĠÐ¿Ð¸ÑģÐ°Ð»":8545,"ĠÐ¿Ð¸ÑģÑĮÐ¼Ð¾":8546,"ĠÐ²Ð¾Ð·Ð½Ð¸ÐºÐ½Ð¾Ð²ÐµÐ½Ð¸Ñı":8547,"ĠÐ³Ð»ÑĥÐ±Ð¸":8548,"ĠÐ²ÐµÐ´ÑĥÑīÐ¸Ñħ":8549,"ĠÐ¿Ð°ÑĨÐ¸ÐµÐ½ÑĤÐ¾Ð²":8550,"ĠMods":8551,"EL":8552,"PS":8553,"Ġ?":8554,"ĠÐ¿ÑĩÐµ":8555,"Ð¾ÑĢÐ´Ð¸Ð½Ð°":8556,"ĠÐ½Ð°ÑĤÑı":8557,"Ð»ÐµÑĢÐ¸Ð¹":8558,"ĠÐ°Ñģ":8559,"ĠÐ°Ð²Ð¸":8560,"ÑģÑĤÐ¸Ð»":8561,"ĠÐ¿ÑĢÐ¸Ð½ÐµÑģ":8562,"ĠÐ±ÑĭÑģÑĤ":8563,"ĠÐ¸Ð½ÑģÐ¿ÐµÐº":8564,"ĠÐĳÐ¸Ð·Ð½ÐµÑģ":8565,"ĠÐ¸ÑģÐ¿ÑĢÐ°Ð²Ð¸":8566,"ĠÑĩÐµÑģÑĤÑĮ":8567,"ĠÐ¿Ð¾Ð·Ð°":8568,"ĠÐ´ÐµÑĤÑģÐºÐ¾Ð³Ð¾":8569,"ĠÐ¿Ð¾Ð»ÑĥÑĩÐµÐ½Ð¸Ðµ":8570,"ĠÐŁÐµÑĢÐ¼":8571,"ĠÑĤÐµÐºÑģÑĤÐ¾Ð²":8572,"ĠÐ²Ð¾Ð²ÑģÐµ":8573,"ĠÐ¿Ð¾ÑģÑĤÑĢÐ°Ð´Ð°":8574,"ĠMighty":8575,"ÐµÑħÐ°Ð»":8576,"Ð±ÐºÐ¸":8577,"Ð¾Ð»Ð¾Ð³Ð°":8578,"Ð¾ÑĢÑıÐ´":8579,"ÑįÑĪ":8580,"ĠÑįÐ¿Ð¾":8581,"Ð¾Ð»ÑĮÐ½ÑĭÐ¹":8582,"ĠÐ´Ð°ÑĤÑĭ":8583,"Ð¿ÑĥÐ»ÑĮ":8584,"Ð¿ÐµÑĢÐ²ÑĭÑħ":8585,"ÑĢÐ¾Ð¿Ð¸":8586,"ÑĢÐ¾Ð¿Ñĭ":8587,"ĠÑĢÑĥÐ±Ð»Ñı":8588,"ÑĪÐºÐ°ÑĢ":8589,"ĠÑįÑĤÐ°Ð¿Ð°":8590,"ÐºÑĤÑĥÑĢÑĭ":8591,"ĠÑģÐ¾Ð±ÑģÑĤÐ²ÐµÐ½Ð½Ð¾Ð¹":8592,"ĠÐ½Ð°ÑģÑĤÐ¾ÑıÑīÐµÐ³Ð¾":8593,"Ġpro":8594,"ĠÐ¿ÑĢÐ¾ÑĪÐ»Ð¸":8595,"ĠÐ¿Ð¾Ð½Ð¸Ð¼Ð°Ñİ":8596,"ĠÑĤÐ¾Ð½Ð½":8597,"Ð²ÑĪÐ¸ÑħÑģÑı":8598,"ĠÐ¿ÑĢÐ¾Ð´Ð¾Ð»Ð¶Ð°ÐµÑĤ":8599,"ĠÑģÑĤÐ°ÑĤÑĥÑģ":8600,"ĠÑģÑĥÑīÐµÑģÑĤÐ²ÐµÐ½Ð½Ð¾":8601,"ĠÐºÐ°ÑĢÑĤÐ¾ÑĦÐµ":8602,"Ð¼Ð¾Ð½Ð°":8603,"ĠÐ¿Ð¾Ð»ÑĮ":8604,"Ð»ÑĮÑİ":8605,"ÑīÑĳÐ½":8606,"ĠÐ·Ð°Ð¿Ð¸ÑģÐ°":8607,"ÑįÐ¼":8608,"ĠÐ¼Ð°ÑģÑĤÐµÑĢÐ°":8609,"Ð¡Ð¿Ð°":8610,"ÑģÐ°Ð´ÐºÐ¸":8611,"ĠÐ¸Ð½ÑģÑĤÐ¸ÑĤÑĥ":8612,"ĠÑģÐ¿ÑĢÐ°Ð²Ð¸":8613,"Ð±Ð¸Ð»":8614,"ÑĨÐ¸ÑıÐ¼":8615,"Ð£ÐĹ":8616,"ĠÐ²ÑģÐ»ÐµÐ´":8617,"org":8618,"ĠAS":8619,"Ð¾Ð¶Ð¸ÑĤÑĮ":8620,"ĠÐ±Ð°Ð·Ñĭ":8621,"ĠÐ¾Ð±ÑĢÐ°Ð±Ð°ÑĤÑĭ":8622,"ĠÑĢÐµÐ³Ð¸Ð¾Ð½Ð¾Ð²":8623,"Ð¾ÑĢÐµÐºÑģ":8624,"ĠÑĢÑĥÑģÑģÐºÐ¾Ð¹":8625,"ĠÑĢÐµÑĪÐ¸ÑĤÑĮ":8626,"ĠÑĪÐµÑģÑĤÐ¸":8627,"ĠÑģÐ¾ÑħÑĢÐ°Ð½Ð¸ÑĤÑĮ":8628,"ĠÐ¿Ð¾ÑĢÑĤÐ°Ð»":8629,"ĠÐ´ÐµÑģÑıÑĤÑĮ":8630,"ĠÐ¿Ð°Ð½ÐµÐ»Ð¸":8631,"ĠÐ¶Ð¸Ð´ÐºÐ¾ÑģÑĤÐ¸":8632,"ĠÐ¿Ð¾Ð½ÐµÐ´ÐµÐ»ÑĮ":8633,"se":8634,"Ð²ÐºÐ¸":8635,"ĠÐ´Ð½ÐµÐ²":8636,"Ð¾Ð»Ð¾Ð¼":8637,"ĠÐ¿Ð¾ÑģÑĤÐ°Ð²Ð»ÐµÐ½":8638,"Ð¾Ð±Ð¾ÑĢ":8639,"ĠÐ¾Ð±Ð°":8640,"ÑĩÐ°ÑĤÑĭÐ¹":8641,"ĠÐ²ÑĭÑĢÐ°Ð¶Ð°":8642,"ĠÑĢÐ°Ð·Ð²ÐµÐ´":8643,"ĠÐ¿ÐµÑĢÐµÑĩÐ¸Ñģ":8644,"ĠÐºÐ¾ÑĦÐµ":8645,"ĠÐ·Ð°ÑīÐ¸ÑĤÐµ":8646,"ĠÐºÐ¾Ð»Ð¸ÑĩÐµÑģÑĤÐ²Ðµ":8647,"ĠÐ´Ð¾ÑĢÐ¾Ð³Ðµ":8648,"ĠÐ¿Ð¾ÐºÐ°Ð·Ð°ÑĤÐµÐ»Ð¸":8649,"ĠÐºÐ²Ð°ÑĢÑĤÐ°":8650,"ĠÐ¸Ð´ÐµÐ°Ð»ÑĮÐ½Ð¾":8651,"ĠÐºÐ¾Ð½ÐºÑĥÑĢÑģ":8652,"ĠÐ²ÑĢÐµÐ¼ÐµÐ½Ð°":8653,"ĠÑģÐ¼Ð¾Ð³Ð»Ð¸":8654,"ĠÑĢÐµÐºÐ¾Ð¼ÐµÐ½Ð´ÑĥÐµÐ¼":8655,"Ð´Ð½ÐµÐ²Ð½Ð¾":8656,"ĠÐ·Ð´ÑĢÐ°Ð²Ð¾Ð¾ÑħÑĢÐ°Ð½ÐµÐ½Ð¸Ñı":8657,"Ġ{":8658,"Ð´Ð½ÑĭÐ¹":8659,"ĠÑģÐµÐ¹":8660,"ĠÑģÐ»Ð¾Ð¹":8661,"Ð·Ð¾Ð½":8662,"ĠÐ±Ð¾Ð»Ð¸":8663,"ÑĨÐ¸Ð½Ð°":8664,"ĠÐĴÐĺ":8665,"ĠÐ²ÑĭÑĢÐ¾Ñģ":8666,"ĠÐĿÐ°Ðº":8667,"ĠÑģÑĤÐ¾ÑıÑĤ":8668,"ÑĢÑĭÐ¼":8669,"ĠÐĺÐ³Ð¾ÑĢ":8670,"ĠÐĺÑĢÐºÑĥÑĤ":8671,"ĠÑĢÑĥÐ±Ðµ":8672,"ĠÐ¿ÑĢÐ¾Ð²ÐµÑĢÐ¸ÑĤÑĮ":8673,"ÐºÑĢÐ°ÑĦÑĤ":8674,"ÑĢÐ¾Ð²Ð°Ð½Ð½Ð°Ñı":8675,"ÑģÑĤÑĢÐ¾Ð¹ÐºÐ¸":8676,"ram":8677,"ĠÐ»ÑİÐ±Ð¸ÑĤÐµÐ»ÐµÐ¹":8678,"ĠÑģÑĭÐ½":8679,"ĠÐ½Ð°Ð·Ð²Ð°ÑĤÑĮ":8680,"ĠÑģÐ¾Ð²ÑĢÐµÐ¼ÐµÐ½Ð½Ð¾Ð¹":8681,"ĠÐ¼ÐµÑģÑĤÐ½Ð¾Ð³Ð¾":8682,"Ġmp":8683,"ĠÐºÐ¾Ð½ÑģÑĤÑĢÑĥÐºÑĨÐ¸Ñı":8684,"ĠÐ¿Ð¾Ð³ÑĢÑĥ":8685,"ĠÑģÐ¾ÐµÐ´Ð¸Ð½ÐµÐ½Ð¸Ñı":8686,"ĠÑħÐ¾ÑĤÐµÐ»":8687,"ÐĿÐ«Ðķ":8688,"ĠÐ°Ð³ÐµÐ½ÑĤÑģÑĤÐ²Ð°":8689,"ĠÐ¸Ð½Ð¾ÑģÑĤÑĢÐ°Ð½Ð½ÑĭÑħ":8690,"ĠÐºÐ¾Ð½ÑģÑĤÑĢÑĥÐºÑĨÐ¸Ð¹":8691,"ĠÐ·Ð´Ð°Ð½Ð¸Ð¹":8692,"ĠÐ§Ð¸ÑĤÐ°ÑĤÑĮ":8693,"ĠÐŀÑĤÐµÑĩÐµ":8694,"87":8695,"ly":8696,"ran":8697,"Ð²ÑĤÐ¾ÑĢ":8698,"Ð±ÐºÐ°":8699,"Ð²Ð°Ð¸":8700,"ĠÐ·Ð°Ð»Ðµ":8701,"ĠÐ¾ÑĤÐ¼ÐµÑĤ":8702,"ĠÐ¡Ð¼Ðµ":8703,"ĠÐľÐ§Ð¡":8704,"Ð¿Ð°ÑĤÐ¸":8705,"ĠÐĺÐ³ÑĢÐ°":8706,"ĠÑģÑĤÐ°Ð±Ð¸Ð»Ð¸":8707,"ĠÐŁÑĢÐ¸ÑĩÐµÐ¼":8708,"ĠÐ´ÐµÑĤÑģÐºÐ¸Ðµ":8709,"140":8710,"ĠÐ¡Ð¾ÑģÑĤÐ°Ð²":8711,"240":8712,"ĠÐ½ÐµÐ¿ÑĢÐ°Ð²Ð¸":8713,"ĠÑģÑĭÐ½Ð°":8714,"ĠÐ´ÐµÑĢÐµÐ²Ð¾":8715,"ĠÑĤÐ¾ÑĢÐ³Ð¾Ð²Ð»Ð¸":8716,"ĠÐ¼ÑĥÐ·ÑĭÐºÑĥ":8717,"ĠÐ¾ÑħÐ¾ÑĤ":8718,"ĠÑģÐ½Ð°Ð±":8719,"ĠÐ´Ð°Ð²Ð»ÐµÐ½Ð¸Ðµ":8720,"ĠÐ¿Ð¾ÑģÐµÑĤÐ¸ÑĤÐµÐ»ÐµÐ¹":8721,"ĠÐ¡Ð¿Ð¾ÑĢÑĤ":8722,"ĠÑģÐ¾ÑģÑĤÐ¾Ð¸ÑĤÑģÑı":8723,"ĠÐ°ÐºÐºÑĥÐ¼ÑĥÐ»Ñı":8724,"ĠÑģÑĤÑĢÑĥÐºÑĤÑĥÑĢÑĭ":8725,"ĠÐ¾Ð±ÑıÐ·Ð°Ð½Ð½Ð¾ÑģÑĤÐ¸":8726,"ÑħÐ°Ð½Ð³ÐµÐ»ÑĮ":8727,"ĠÑĢÐ°ÑģÑħÐ¾Ð´Ñĭ":8728,"ĠÐ¿ÑĢÐµÐ´Ð¿Ð¾ÑĩÑĤ":8729,"IX":8730,"ld":8731,"ÑĭÑĪÐµ":8732,"ÑģÑĤÐ¾ÑĢÐ¾Ð½":8733,"ĠÐ·Ð°Ð´ÐµÑĢ":8734,"ÑįÐ»ÐµÐºÑĤ":8735,"ĠÐ°ÑĢÐ¾Ð¼Ð°ÑĤ":8736,"ĠÐ»ÐµÑĤÐ°":8737,"ĠÐľÐ°ÑĤ":8738,"ĠÐĲÐ¼ÑĥÑĢ":8739,"Ð³Ð¸Ð¹":8740,"Ð°Ð»ÑĮÐ½ÑĥÑİ":8741,"ĠÑĨÐ°":8742,"Ð¾ÑĩÐºÑĥ":8743,"ĠÐ¿Ð»Ð°ÑĤÑĮÑı":8744,"ĠÐ¶Ð¸ÑĢ":8745,"ĠÐ»ÑİÐ±ÑıÑĤ":8746,"Ð»ÐµÑĤÐ¾Ð²":8747,"ĠÐ²Ð»Ð°Ð´Ðµ":8748,"ĠÑģÐ²ÑıÐ·":8749,"amp":8750,"ĠÐ¾Ð¿ÐµÑĢÐ°ÑĨÐ¸Ð¹":8751,"ĠÐ¿Ð¾Ð´Ð¾Ð±Ð½ÑĭÑħ":8752,"ĠÐ²Ð½ÑĥÑĤÑĢÐµÐ½Ð½ÐµÐ¹":8753,"ĠÐ·Ð°Ð²Ð¾Ð´Ð°":8754,"ĠÐ±ÑİÐ´Ð¶ÐµÑĤÐ°":8755,"ĠÐ²Ð¾ÑģÐºÑĢÐµÑģ":8756,"OW":8757,"Ð»Ð¾ÑĤÐ¸":8758,"ĠÐ±Ð»ÑİÐ´Ð°":8759,"ĠÐŁÑĢÐ¾Ñģ":8760,"ĠÐ¿ÑĢÐ¾Ð¹Ð´ÐµÑĤ":8761,"Ð¿Ð°Ð´Ð°":8762,"ĠÐ¸Ð½Ð²Ð°Ð»Ð¸":8763,"Ð½Ð¾Ð²ÑĭÐµ":8764,"ĠÐ´Ð¾ÑģÑĤÐ°ÑĤÐ¾":8765,"ĠÐºÐ¾Ð¼Ð±Ð¸":8766,"Ð»Ð¾Ð²Ðµ":8767,"ĠÐ´ÐµÑĦ":8768,"ĠÐ¿ÐµÑĢÐµÐ´Ð°ÐµÑĤ":8769,"ĠÐ¿ÑĢÐµÐ·Ð¸Ð´ÐµÐ½ÑĤÐ°":8770,"Ð¾ÑĩÑĥ":8771,"ĠÐ¿Ð»Ð°Ð½Ðµ":8772,"ĠÑģÑĤÑĢÐ°Ð½Ð¸ÑĨÑĥ":8773,"ĠÑĢÐ°ÑģÐ¿Ð¸":8774,"ÐµÐ½ÑĤÐ°Ð¼Ð¸":8775,"ĠÐ¸Ð½ÑĤÐµÑĢÑĮÐµÑĢ":8776,"ĠÑĨÐ²ÐµÑĤÑĭ":8777,"ĠÐ¾ÑĤÐºÑĢÑĭÑĤÑĮ":8778,"ĠÐ±Ð°Ð½ÐºÐ¸":8779,"ĠÐ³Ð»Ð°Ð´":8780,"ĠÑĥÐ³Ð»Ðµ":8781,"ams":8782,"Ð²ÑıÐ·":8783,"ĠÐ¿ÑĢÐµÐ´Ð»Ð°Ð³Ð°ÑİÑĤ":8784,"ĠÐ½Ð°ÑĩÐ¸Ð½Ð°ÑİÑĤ":8785,"ĠÐ½Ð¸Ð·ÐºÐ¾Ð¹":8786,"ĠÑĩÑĥÐ²ÑģÑĤÐ²Ð°":8787,"ĠÐ´ÐµÐ¿ÑĥÑĤÐ°ÑĤÐ¾Ð²":8788,"Ð²Ð°Ð¶Ð°ÐµÐ¼ÑĭÐµ":8789,"ĠÐ¾ÑħÐ»Ð°Ð¶Ð´ÐµÐ½Ð¸Ñı":8790,"89":8791,"ĠÐ²ÑħÐ¾Ð´ÑıÑĤ":8792,"ÑĩÐºÐ°Ð¼Ð¸":8793,"ÑĪÐµÐ½Ð°":8794,"ĠÐ·Ð°ÑģÐ»Ñĥ":8795,"ĠÐ¾Ð±ÑīÐµÐ½Ð¸Ñı":8796,"Ð¾ÑģÐ¾Ð±Ñĭ":8797,"ĠÐĿÐµÐ¼":8798,"ĠÑĤÐµÑģÑĤÐ¸":8799,"ĠÐĲÑĤ":8800,"ĠÐ¿Ð¾Ð»Ð½ÑĥÑİ":8801,"ĠÐ¼ÐµÑģÑĤÑĥ":8802,"ÐľÐ°ÑĢ":8803,"ĠÐ¿ÐµÑĢÐµÑģÑĤÐ°":8804,"ĠÐ¿ÑĢÐµÐ²Ð¾Ñģ":8805,"ĠÑĢÐ¾Ð»ÑıÑħ":8806,"ÑīÐµÐ½Ð½ÑĭÐ¹":8807,"ĠÐ´Ð¾Ð¿ÑĥÑģÑĤÐ¸":8808,"ĠÐ²ÑĭÑģÐ¾ÐºÐ¾":8809,"ĠÑĥÑĩÐ°ÑģÑĤÐ½Ð¸ÐºÐ¸":8810,"ĠÐ¢Ð°ÑĤÑĮÑı":8811,"ĠÐ²ÑĤÐ¾ÑĢÐ¾Ð¼":8812,"ĠÐ´Ð¾ÑģÑĤÐ°Ð²ÐºÑĥ":8813,"ĠÐ¿ÑĢÐ¾ÑĨÐµÑģÑģÑĭ":8814,"ĠÐ´ÐµÑĢÐµÐ²Ð°":8815,"ĠÐ¿Ð¾ÐºÑĢÑĭÑĤÐ¸Ðµ":8816,"ult":8817,"ĠÐ¡ÑĤÐ¾Ð¸Ð¼Ð¾ÑģÑĤÑĮ":8818,"ĠÐłÐµÐ·ÑĥÐ»ÑĮÑĤÐ°":8819,"ĠÃ":8820,"Ð½ÐµÐ½Ð½Ð¾":8821,"ÑģÐ½Ð°Ñı":8822,"ĠÐºÐ»ÐµÐ¼":8823,"ÑĤÐ¸ÑĢÐ¾Ð²Ð°Ð½Ð¸Ðµ":8824,"ĠÐ¿Ð¾Ð½Ð°Ð´":8825,"ĠÐŁÐ¾Ð¸ÑģÐº":8826,"ĠÑĤÐµÐ»":8827,"ĠÐ¿Ð¾Ð´Ð²Ð¾Ð´":8828,"ĠÐ¿Ð¾Ð´Ð¾ÑĪ":8829,"ĠÑĢÐ°Ð·ÑĥÐ¼":8830,"Ð¡ÑĤÐ¾":8831,"ĠÐłÐµÐ¹":8832,"ÐŁÑĢÐ¾Ð´Ð°":8833,"ĠÐ¢ÑĥÑĤ":8834,"ĠÐĳÐ°Ð»":8835,"ĠÐºÑĥÑĢÐ¸":8836,"ĠÐĸÐ°Ð½":8837,"ĠÐ²ÑĭÑģÐ¾ÐºÐ¸Ð¼":8838,"ĠÑĢÐµÐ·ÑĥÐ»ÑĮÑĤÐ°ÑĤÐ°Ð¼":8839,"ich":8840,"ĠÐ¼Ð°Ð³Ð°Ð·Ð¸Ð½Ð¾Ð²":8841,"ĠÐ³ÑĢÑĥÐ¿Ð¿Ðµ":8842,"ĠÐ½Ð°ÑģÑĤÐ¾ÑıÑīÐ¸Ð¹":8843,"Ð¡Ð¢Ðĺ":8844,"ÐľÐ°ÑĤÐµÑĢÐ¸":8845,"ĠÐºÐ¾Ð¼Ð¿Ð»ÐµÐºÑĤÐµ":8846,"ĠÐ¾Ð±ÑĥÐ²ÑĮ":8847,"ĠÐ¼Ð¾Ð±Ð¸Ð»ÑĮÐ½ÑĭÑħ":8848,"ĠÐ¿ÑĢÐ¸Ð½ÑĨÐ¸Ð¿Ðµ":8849,"ĠÑģÐµÑĤÑıÑħ":8850,"ĠÐ±Ð¾Ð»ÑĮÑĪÐ¸Ð½ÑģÑĤÐ²Ðµ":8851,"ĠÐ¾Ð±ÐµÑīÐ°":8852,"ĠÑĦÐ°ÐºÑĤÐ¾ÑĢÐ¾Ð²":8853,"ĠÑĥÐ´Ð¾Ð²Ð¾Ð»ÑĮÑģÑĤÐ²Ð¸ÐµÐ¼":8854,"ĠÐ¼Ð¾Ð·Ð³Ð°":8855,"ĠÐ·ÐµÐ¼ÐµÐ»ÑĮÐ½Ð¾Ð³Ð¾":8856,"ĠÐ¾Ð±ÑģÑĤÐ¾ÑıÑĤÐµÐ»ÑĮÑģÑĤÐ²Ð°":8857,"ĠÑĪÑĤÑĢÐ°ÑĦ":8858,"Ð¾ÑĪÐºÐ°ÑĢ":8859,"ÑĥÐµÐ¼":8860,"Ð¿ÐµÐ½":8861,"ÑĪÐ½Ð¸":8862,"Ð»Ð¸Ð·Ð¼":8863,"ÑĢÐ¾ÑģÑĤÐ¸":8864,"ĠÑĩÑĥÐ´":8865,"ĠÐ°ÑĢÐ¾Ð¼Ð°":8866,"ĠÐŁÐłÐŀ":8867,"ĠÐ²ÑĭÐ´Ð²Ð¸":8868,"ĠÐ¶Ð´Ð°ÑĤÑĮ":8869,"ĠÑĢÐ°Ð·ÑĬ":8870,"ÐŁÐ¸":8871,"ÑĢÐ¾Ð²ÐºÑĥ":8872,"ĠÐºÐ¾Ð½ÑģÐµÑĢ":8873,"Ð¸Ð½ÑģÐº":8874,"Ð¸Ð½ÐºÐ°":8875,"ĠÑģÐ°Ð¼Ð¾Ð»ÐµÑĤ":8876,"ĠÑĢÐ¾ÑĤ":8877,"ÑĥÐ¶Ð½Ð¾":8878,"ĠÐ§Ñĥ":8879,"ĠÐ»ÑİÐ±Ð»Ñİ":8880,"ĠÐ²Ð¾ÑģÐ¿ÑĢÐ¾":8881,"ÑĪÐµÐ½Ð¾":8882,"ĠÐľÐ°ÑĢÐ¸":8883,"ÐŃÐ»ÐµÐºÑĤ":8884,"ĠÐ¿Ð¾Ð»ÑĥÑĩÐ¸Ð»Ð°":8885,"ĠÐ¾ÑģÑĤÐ°Ð»ÑĮÐ½ÑĭÐµ":8886,"ĠEx":8887,"ĠÑįÑĤÐ°Ð¿":8888,"ĠÐĺÑģÐ¿Ð°":8889,"ĠÐ·ÐµÐ¼Ð»Ñı":8890,"ĠÑĦÑĥÐ½ÐºÑĨÐ¸Ñı":8891,"ĠÐ½ÐµÐ·Ð°ÐºÐ¾Ð½":8892,"ĠÐ½Ð°ÑĥÐº":8893,"ĠÐ¿Ð¾ÑħÐ¾Ð¶Ð¸":8894,"ĠÑģÐ¿ÑĢÐ°ÑĪÐ¸":8895,"ĠÐ¿Ð¾Ð¿ÑĢÐ¾Ð±Ð¾Ð²Ð°ÑĤÑĮ":8896,"ĠÐ²Ð¾ÑģÑĤÑĢÐµÐ±":8897,"ĠÐ¿Ð¾Ð½Ð°Ð´Ð¾Ð±Ð¸":8898,"ĠÐºÐµÐ¼":8899,"ĠÐ´Ð²ÐµÑĢ":8900,"Ð³Ð°ÐµÑĤ":8901,"ÐļÐ£":8902,"Ð»Ð¾Ð²ÑĭÑħ":8903,"ÐľÐµÑĤ":8904,"ĠÐ²Ð¾Ð·Ð»Ðµ":8905,"ĠÐķÐµ":8906,"ĠÐ´ÑĢÑĥÐ³Ñĥ":8907,"Ð¾Ð´ÐµÐ»Ð¸":8908,"ĠÐ¾Ð±ÑĢÐ°ÑīÐµÐ½Ð¸Ñı":8909,"160":8910,"ĠÑĨÐ¸Ð²Ð¸Ð»Ð¸":8911,"ĠÐºÐ¾Ð»Ð¸ÑĩÐµÑģÑĤÐ²Ð¾Ð¼":8912,"ĠÐ·Ð°ÑıÐ²Ð»ÐµÐ½Ð¸Ðµ":8913,"ĠÐ¸ÑģÐºÐ»ÑİÑĩÐµÐ½Ð¸ÐµÐ¼":8914,"ĠÑĪÐµÑģÑĤÑĮ":8915,"Ġ::":8916,"ĠÑĢÐ¾Ð·Ð½Ð¸":8917,"ĠÐ¾ÑĦÐ¸ÑĨÐ¸Ð°Ð»ÑĮÐ½ÑĭÐ¹":8918,"ĠÐ¿Ð¾Ð´ÑĢÐ¾Ð±Ð½Ð¾":8919,"ĠÐ£ÑģÐ»ÑĥÐ³":8920,"ĠÐ²Ð¸Ð·Ñĥ":8921,"ĠÐ¸Ð·Ð±Ð°Ð²Ð¸ÑĤÑĮÑģÑı":8922,"ĠÑĤÐ°Ð±Ð»ÐµÑĤ":8923,"ĠÑģÐ¾Ð³Ð»Ð°ÑģÐ¸Ðµ":8924,"ĠÑĦÑĥÐ½Ð´Ð°Ð¼ÐµÐ½ÑĤÐ°":8925,"ĠÐĶÐ¼Ð¸ÑĤÑĢÐ¸Ð¹":8926,"ĠÐ¸Ð¿Ð¾ÑĤÐµ":8927,"Ð¿ÑĢÐ¾Ð´Ð°":8928,"ĠÐºÐ¾Ðº":8929,"ÑĢÐµÑĤÑĭ":8930,"ĠÐ·Ð¾Ð½Ðµ":8931,"ĠÐ·Ð´Ð°Ð½Ð¸Ðµ":8932,"ĠÑĥÑģÑĤÑĢÐ°Ð½":8933,"ÑĦÑĤÐµ":8934,"ĠÐºÐ°ÑĦÐµÐ´":8935,"ÑģÐ¸Ð»":8936,"ĠÐ¿ÑĢÐ¾ÑħÐ¾Ð´ÑıÑĤ":8937,"ÑĪÐ¸Ð²Ð°Ð½Ð¸Ñı":8938,"ĠÐĵÐµÐ½":8939,"ĠÐ¿ÐµÑĢÐµÐºÐ»ÑİÑĩÐ°":8940,"ÑĤÐ¾Ð²ÑĭÐ¹":8941,"ern":8942,"ĠÐ½Ð¾Ð²Ð¾Ð¼":8943,"2002":8944,"Ð¾Ð²Ð°Ð½Ð½ÑĭÐµ":8945,"Ð²Ð°ÐµÐ¼ÑĭÐ¹":8946,"ĠÑĢÐ°ÑģÑģÐºÐ°Ð·ÑĭÐ²Ð°":8947,"ĠÐ½Ð°Ð·Ð²Ð°Ð½Ð¸Ñı":8948,"ĠÐ¾ÑģÑĥÑīÐµÑģÑĤÐ²Ð»ÑıÐµÑĤ":8949,"ĠÐ»Ð¸ÑĨÐ°Ð¼":8950,"ĠÐ¾ÑĩÐµÑĢÐµÐ´Ð½Ð¾Ð¹":8951,"ĠÐ¾ÑģÑĤÐ¾ÑĢÐ¾Ð¶":8952,"ĠÐºÐ¾Ð¼Ð¿ÑĮÑİÑĤÐµÑĢÐ°":8953,"ĠÐ°Ð»ÑĮÐ±Ð¾Ð¼":8954,"ĠÐ¿ÑĢÐ¸Ð»Ð¾Ð¶ÐµÐ½Ð¸Ñı":8955,"ĠÑĥÐ½Ð¸Ð²ÐµÑĢÑģÐ¸ÑĤÐµÑĤ":8956,"61":8957,"ĠÑģÐºÐ»Ð°Ð´":8958,"Ð¿Ð¾ÑĢÑĤÐ°":8959,"ĠÐ¾Ð¿Ð°":8960,"ÑİÐ¹":8961,"ÑĤÐµÐºÐ°":8962,"Ð»Ð°Ð¼Ð°":8963,"ĠÐ±ÑĢÐ¾Ð½":8964,"ĠÐ·Ð°ÑĢÐ°Ð±Ð°ÑĤÑĭ":8965,"ĠÐ¡ÑĥÐ¼":8966,"ĠÑĢÐµÑĪÐ°":8967,"ĠÐĺÐ¸ÑģÑĥ":8968,"ÐĿÐķ":8969,"ĠÐ¿ÑĢÐµÐ·Ð¸Ð´ÐµÐ½ÑĤ":8970,"ĠÑĪÐ»Ð¸":8971,"ore":8972,"ĠÐ²ÐµÑĢÑĤÐ¸ÐºÐ°":8973,"ĠÐ¿Ð°ÑĢÑĤÐ¸Ð¸":8974,"ĠÑĥÑģÐ»Ð¾Ð²Ð¸Ð¸":8975,"ĠÐ½Ð°Ð¿ÑĢÐ°Ð²Ð»ÐµÐ½Ð¸Ð¸":8976,"ĠÐ¡Ð°Ð¼Ð°":8977,"ĠÑģÑĤÐµÐºÐ»Ð¾Ð¿":8978,"ower":8979,"ĠÑģÐµÑĢÐ²Ð¸ÑģÐ°":8980,"ĠÐĴÐµÑģ":8981,"ĠÑĦÐ¾Ð½Ð´Ð°":8982,"ĠÐ½Ð°Ð³ÑĢÑĥÐ·ÐºÐ¸":8983,"ĠÐ²ÐµÑĩÐµÑĢÐ¾Ð¼":8984,"ĠÐ¿ÑĢÐµÐ´ÑģÑĤÐ°Ð²Ð»ÐµÐ½Ð¸Ñı":8985,"ĠÐºÐ°Ð¼ÐµÑĢÑĭ":8986,"ĠÑĥÑĤÐ²ÐµÑĢÐ¶Ð´ÐµÐ½Ð¸Ð¸":8987,"ĠÐ¿Ð¾Ð»Ð½Ð¾ÑĨÐµÐ½":8988,"ĠiPhone":8989,"ĠÐ¾ÑĤÑĢÐ°ÑģÐ»Ð¸":8990,"Ð´Ð¾Ðº":8991,"ÑģÑĤÐµÑĤÐ¸":8992,"ĠÐ¼ÑĥÐ´":8993,"ĠÐ½Ð°ÑĩÐ¸Ð½Ð°Ñı":8994,"ÑģÑĤÐ¸Ð»Ð°":8995,"Ð´ÐµÑĢÐ°":8996,"ĠÐŁÑĢÐ¾Ð¼":8997,"ĠÐ¿ÑĢÐ¸ÑĢÐ¾Ð´Ðµ":8998,"ĠÐ²ÑĭÑĢÐ°Ð·Ð¸":8999,"ĠÑĢÐµÐ±ÑıÑĤÐ°":9000,"ĠÑıÐ²Ð½Ð¾":9001,"ÑĢÑıÐ½":9002,"ÐłÑĥÑģ":9003,"Ð¼ÑĭÐ¼Ð¸":9004,"Ð¾ÐºÑĥÐ¿Ð°":9005,"ĠÐ³Ð¾Ð»ÑĥÐ±":9006,"ĠÐ²ÑĭÐ¿Ð¾Ð»Ð½ÑıÑĤÑĮ":9007,"ĠÐ½Ð°Ð¿ÑĢÐ°Ð²Ð»ÐµÐ½Ð¸Ðµ":9008,"ĠÑĩÐ°ÑģÑĤÐµÐ¹":9009,"ĠÐ¶ÐµÐ»Ð°Ð½Ð¸Ñı":9010,"ĠÐĽÑİÐ´Ð¸":9011,"ĠÑĤÐ²Ð¾ÑĢÑĩÐµÑģÑĤÐ²Ð°":9012,"Ð¡ÐļÐĺ":9013,"ĠÐ¾Ð±ÑĬÐµÐºÑĤÑĭ":9014,"ĠÐĶÐ¶Ð¾Ð½":9015,"ĠÑģÐ¾Ð»Ð´Ð°":9016,"ĠÐºÐ¾Ð¼Ð¸ÑģÑģÐ¸":9017,"ĠÑĦÐ¾ÑĢÐ¼Ð¸ÑĢÐ¾Ð²Ð°Ð½Ð¸Ñı":9018,"ĠÐ¸ÑģÐ¿Ð¾Ð»ÑĮÐ·ÑĥÑı":9019,"ĠÐ»Ð¾ÑĪÐ°":9020,"ĠÑĩÑĢÐµÐ·Ð²ÑĭÑĩÐ°Ð¹":9021,"ĠÐĿÐĶÐ¡":9022,"ĠGoogle":9023,"ÑĤÑĢÐ¾":9024,"ÐºÑĢÐ¾":9025,"ÑĢÐ°ÑģÑĤÐ°":9026,"ĠÐ¸ÑģÑĤÐ¸":9027,"ÑĢÐµÐ»ÑĮ":9028,"ĠÐ±Ð¸ÑĤ":9029,"ĠÐ³Ð¾ÑĢÐµ":9030,"ĠÐ¾Ð±Ð·Ð¾ÑĢ":9031,"ĠÐ¶ÐµÐ½Ð°":9032,"ÐĴÐķ":9033,"ĠÐ¢ÐµÐº":9034,"Ð½Ð¾Ð²Ð¾Ð¹":9035,"ÐµÐ²Ð¾":9036,"ÐµÑĤÐ¸Ñı":9037,"Ð²Ð¾Ð´Ð¸ÑĤÑģÑı":9038,"Ð»ÐµÑĤÐ½Ð¸Ð¹":9039,"2003":9040,"2004":9041,"ĠÐłÐ°ÑģÐ¿":9042,"ĠÑģÐºÐ°Ð·Ð°Ð»Ð°":9043,"ĠÐ¿Ð¾Ð»ÑĮÐ·Ð¾Ð²Ð°ÑĤÐµÐ»Ñı":9044,"ĠÑĢÑĥÑģÑģÐºÐ¾Ð¼":9045,"ĠÑģÐ»Ð¾Ð¶Ð¸":9046,"ĠÐ¸Ð½ÑģÑĤÑĢÑĥÐ¼ÐµÐ½ÑĤÐ¾Ð²":9047,"ĠÐ¿Ð¾Ð¼ÐµÑīÐµÐ½Ð¸Ðµ":9048,"ĠÑĩÐ¸Ð½Ð¾Ð²":9049,"ĠÐĽÑİÐ±":9050,"ĠÐ¾ÐºÐ°Ð·ÑĭÐ²Ð°ÐµÑĤÑģÑı":9051,"ĠÐ½Ð¾ÑģÐ¸ÑĤ":9052,"ĠÑĤÑĢÑĥÐ±Ð¾Ð¿ÑĢÐ¾Ð²":9053,"ĠÑģÑĤÑĢÐ¾Ð³Ð¾":9054,"ĠÐ¼Ð°ÑģÑģÐ°Ð¶":9055,"ĠÐ¼Ð¾Ð½ÑĤÐ°Ð¶":9056,"ĠÐºÐ¾Ð½ÑĦÐ¸Ð´ÐµÐ½ÑĨÐ¸Ð°Ð»ÑĮ":9057,"ĠÐĴÑģÐµÐ¼Ð¸ÑĢ":9058,"Â®":9059,"ÑĩÐºÐ¾Ð²":9060,"ÑĢÐ°Ð±":9061,"ĠÐ´Ð°Ð¼":9062,"ĠÐ´Ð¸Ð·":9063,"ĠÐ¼ÐµÐ¼":9064,"ÑĨÐº":9065,"ĠÐ·Ð¸":9066,"ĠÐ·Ñĥ":9067,"ĠÑĩÐ»ÐµÐ½Ð°":9068,"ĠÑģÑĤÑĥÐ¿":9069,"ĠÐ¼Ð°ÑģÑģÑĭ":9070,"ĠÑģÐ²ÑĭÑĪÐµ":9071,"ĠÐĺÐĿ":9072,"ÑĥÐ´Ð¾Ð²Ð°Ð½Ð¸Ðµ":9073,"ÐłÐµÑģÐ¿":9074,"ĠÐĿÐ°Ð´Ðµ":9075,"ĠÑĪÐ²ÐµÐ¹":9076,"ÑģÑĭÐ²Ð°ÑĤÑĮ":9077,"ĠÐ²Ð¾ÐµÐ½Ð½Ð¾":9078,"Ð¿Ð¾Ð»Ð½Ð¾Ð¼":9079,"ĠÐ¿Ð¾Ð¿ÑĢÐ¾":9080,"ĠÐ´ÑĥÑĪÐ°":9081,"ĠÐĴÐ°Ð»ÐµÐ½":9082,"ĠÐ¾ÑĤÐ½Ð¾ÑĪÐµÐ½Ð¸Ñİ":9083,"ĠÑģÐ¿Ð¾ÑģÐ¾Ð±Ð¾Ð²":9084,"ĠÐ³Ð¸Ð±":9085,"ĠÑģÐ¾ÑģÑĤÐ¾ÑıÐ»ÑģÑı":9086,"ĠÐ¿ÑĢÐ¾Ð±Ð»ÐµÐ¼Ñĥ":9087,"ĠÑģÐ»ÐµÐ³":9088,"ĠÑģÑĤÑĢÐ¾Ð¸ÑĤÐµÐ»ÑĮÑģÑĤÐ²Ðµ":9089,"ĠÐ¾Ð±ÑīÐµÑģÑĤÐ²Ð¾":9090,"ĠÐ¿ÑĢÐµÐ´Ð»Ð¾Ð¶ÐµÐ½Ð¸Ð¹":9091,"ĠÑģÑĤÐ°Ð½ÑĨÐ¸Ð¸":9092,"ĠÐ´Ð»Ð¸Ð½Ð°":9093,"Ġ:)":9094,"ĠÐ¾ÑĤÑģÑĥÑĤÑģÑĤÐ²Ð¸Ð¸":9095,"ĠÑĤÐºÐ°Ð½ÐµÐ¹":9096,"ĠÐ³ÑĢÐ°Ð´ÑĥÑģÐ¾Ð²":9097,"ÐµÑģÑĤÑĮ":9098,"Ð°Ð»Ð¾Ð²":9099,"ĠÐ²Ð¿ÐµÑĢÐµÐ´":9100,"Ð½Ð¾Ð½":9101,"ĠÐ½ÐµÐ±":9102,"ĠÐ¿ÑĢÐ¸ÑĪÐµÐ»":9103,"ÑģÐ¿Ð¾ÑĢÑĤÐ°":9104,"ĠÐĿÐµÐºÐ¾ÑĤÐ¾ÑĢÑĭÐµ":9105,"ĠÐ¶Ð´ÐµÑĤ":9106,"ĠÐĵÐ´Ðµ":9107,"ÑģÑģÐµÑĢ":9108,"ÑĦÐ¸ÐºÑģÐ¸":9109,"ÑĢÐ°Ð»ÑĮÐ½ÑĭÐ¼":9110,"ĠÐ±ÐµÐ»":9111,"ĠÑħÐ¾ÑĢÐ¾ÑĪÐ¸Ðµ":9112,"ĠÑģÐ¿Ð¾ÑģÐ¾Ð±ÐµÐ½":9113,"ÑĢÐ¾Ð±Ð»ÐµÐ¼":9114,"ĠÐŀÐ½Ð»Ð°Ð¹Ð½":9115,"ĠÑĢÑĥÑģÑģÐºÐ¸Ñħ":9116,"ĠÐ´Ð¾ÑģÑĤÑĥÐ¿Ð½Ñĭ":9117,"ĠÑĢÐµÐ°Ð»ÑĮÐ½ÑĭÐµ":9118,"ĠÐ¸Ð³ÑĢÐ°ÐµÑĤ":9119,"ĠÐłÑĥÐºÐ¾Ð²":9120,"Ð»ÑİÐ´ÐµÐ½Ð¸Ðµ":9121,"ĠÐ²Ð»Ð¸ÑıÐµÑĤ":9122,"ÐłÐ°Ð±Ð¾ÑĤÐ°":9123,"ĠÐ¿Ð»Ð¾Ð´":9124,"ĠÐĲÐºÑģÐµÑģÑģÑĥÐ°ÑĢÑĭ":9125,"ĠÐĶÐµÑĤÑģÐºÐ¸Ðµ":9126,"ĠÑĩÐµÐ¼Ð¿Ð¸Ð¾Ð½Ð°ÑĤÐ°":9127,"Ð¾Ð¼ÐµÑĤÑĢÐ¸":9128,"ĠÐľÐ¸Ð½Ð¸ÑģÑĤÐµÑĢÑģÑĤÐ²Ð°":9129,"ĠÑģÐµÐ½":9130,"Ð¿Ð¾Ð·Ð¸":9131,"ĠÑĥÐ²Ð°":9132,"ĠÑĥÑħÐ¾Ð´Ð°":9133,"ÑĦÐ°Ð»ÑĮ":9134,"ĠÐ³Ð°Ð¹":9135,"ĠÑĩÐ»ÐµÐ½Ñĭ":9136,"ĠÐĲÐ½Ð°ÑĤ":9137,"ÐĴÐ¡":9138,"ĠÐĺÐ³ÑĢÑĭ":9139,"ĠÐ¢Ð¾Ð»":9140,"ÐºÐ¾Ð²Ñĭ":9141,"ĠÐºÐ¾Ð½ÑĤÐ°Ðº":9142,"ÐľÐ½Ðµ":9143,"ĠÐ£Ð½Ð¸Ð²ÐµÑĢ":9144,"ĠÐ²ÐµÑīÐµÐ¹":9145,"ĠÐ¿Ð°ÑĢÑĭ":9146,"ÐĽÐ°":9147,"Ð´Ð¸Ð½Ð³":9148,"ĠÐ¸Ð¼ÐµÑİÑĤÑģÑı":9149,"ĠÑģÐ°Ð»Ð¾Ð½Ð°":9150,"ĠÐ¼ÐµÐ½ÑıÑĤÑĮ":9151,"ĠÐ°ÑĢÑĤÐ¸":9152,"ĠÐ¿ÑĢÐ¾Ð´ÑĥÐºÑĨÐ¸Ñı":9153,"ĠÐ²ÑĭÑģÐ¾ÐºÐ¾ÐºÐ°ÑĩÐµ":9154,"ĠÐ·ÐµÐ¼ÐµÐ»ÑĮ":9155,"ĠÑĤÐµÐ¼Ð¿ÐµÑĢÐ°ÑĤÑĥÑĢÐµ":9156,"ĠÐ´Ð¾Ð»Ð»Ð°ÑĢ":9157,"ĠÐ¿ÑĢÐµÐ´ÑĥÑģÐ¼Ð°ÑĤÑĢÐ¸":9158,"ĠÐĻÐ¾ÑĪÐºÐ°ÑĢ":9159,"Ð¾ÑĢÐ¾ÑĪÐ¾":9160,"ĠÐ±ÑĥÐºÐ²Ð°Ð»ÑĮÐ½Ð¾":9161,"ĠÑĢÐµÐ»Ð¸Ð³Ð¸Ð¾Ð·":9162,"ÑĩÐµÑĤÐµ":9163,"Ð³Ð´Ðµ":9164,"ĠÐ´Ð¾Ð»Ð¸":9165,"Ð¾Ð´ÑģÑĤÐ²Ð¾":9166,"ĠÐ³Ð¾ÑĢÐ¾":9167,"ĠÐ¿Ð¾ÑĤÐµÑĢ":9168,"ÑģÑĤÐ¸ÑĩÐµÑģÐºÐ¸Ñħ":9169,"ĠÐºÐ°Ð½Ð°Ð»":9170,"ĠÐ¿ÑĢÐ¸ÑħÐ¾Ð´Ð¸ÑĤ":9171,"ĠÐ¡Ð²Ð°":9172,"ĠÐļÐ°Ð½":9173,"ĠÐĶÐµÐ¹":9174,"ĠÑĤÐ°ÐºÑģÐ¸":9175,"ĠÐĽÑĮ":9176,"Ð±Ð°Ð¼Ð¸":9177,"ĠÐ¿Ð¾ÑĤÑĢÑı":9178,"ĠÑĨÐµÐ»ÑĭÐ¹":9179,"ĠÐ¸Ð½ÑĤÐµÑĢÑĮÐµÑĢÐ°":9180,"Ð¥Ð°":9181,"ĠÐľÐ¸ÑħÐ°Ð¹":9182,"ĠÑĪÐ¸ÑĢÐ¸":9183,"ĠÑĢÐ¾ÑģÑģÐ¸Ð¹ÑģÐºÐ¾Ð¹":9184,"ĠÐ¸Ð´ÐµÑı":9185,"ĠÐ¿Ð¾Ð½ÑıÐ»":9186,"Ð¾ÑħÐ¾Ð·ÑıÐ¹":9187,"ĠÑĦÐ¸Ð·Ð¸ÑĩÐµÑģÐºÐ¸Ñħ":9188,"ĠÐ¿Ð¾ÐºÑĥÐ¿ÐºÑĥ":9189,"ĠÐ·Ð°ÐºÐ»ÑİÑĩÐµÐ½Ð¸Ñı":9190,"ĠÐ¸Ð³ÑĢÑĥÑĪÐºÐ¸":9191,"ĠÑģÐµÑĤÐµÐ¹":9192,"ĠÐµÑģÑĤÐµÑģÑĤÐ²ÐµÐ½Ð½Ð¾":9193,"ĠÐ½Ð°ÑĨÐ¸Ð¾Ð½Ð°Ð»ÑĮÐ½Ð¾Ð¹":9194,"ĠÐĹÐµÐ¼Ð»Ð¸":9195,"ĠÐ·ÐµÑĢÐºÐ°Ð»Ð¾":9196,"ĠÑģÐ»ÐµÐ³ÐºÐ°":9197,"ĠÐ¿Ð¸Ð·":9198,"Ð½Ð¸Ð²":9199,"ĠÑĥÐ´Ð°ÑĢ":9200,"Ð»ÐµÐ¸":9201,"ĠÑĤÐºÐ°Ð½ÑĮ":9202,"ÑģÑĤÐ°Ð½Ðµ":9203,"ĠÐ²ÑĭÑħÐ¾Ð´Ð¸ÑĤ":9204,"ĠÐľÐĺ":9205,"ÑīÐµÑģÑĤÐ²Ð¸":9206,"Ð¿Ð¸Ð¾Ð½":9207,"ĠÐĳÐ¾ÑĢ":9208,"Ð½Ð¾Ð¼ÐµÑĢ":9209,"ĠÐ¿ÑĢÐµÐ±Ñĭ":9210,"Ð¤Ð¸":9211,"ĠÐ¾Ð±ÑĬÑıÐ²Ð¸":9212,"ĠÐĴÑĭÑģÐ¾Ðº":9213,"ÑıÐ·Ð°Ð½":9214,"ĠÐĿÐ¾Ð²Ð³Ð¾ÑĢÐ¾Ð´":9215,"ĠÐ²ÑĭÑģÐ¾ÐºÐ¸Ð¹":9216,"Ð¾Ð¶Ð´ÐµÐ½Ð¸Ð¸":9217,"ĠÐ½ÐµÐ¾Ð±ÑħÐ¾Ð´Ð¸Ð¼Ð¾ÑģÑĤÑĮ":9218,"ĠÐĲÐ²ÑĤ":9219,"ĠÑĥÑĩÐ°ÑģÑĤÐ¸Ñı":9220,"ĠÐ¿Ð°ÑĢÐ°Ð»Ð»Ðµ":9221,"ĠÐ½ÐµÐ¾Ð±ÑħÐ¾Ð´Ð¸Ð¼Ð¾Ðµ":9222,"ÑģÑĤÐ²ÑĥÑİÑīÐ¸Ðµ":9223,"ĠÑĢÐ°ÑģÐ¿Ð¾Ð»Ð¾Ð¶ÐµÐ½Ñĭ":9224,"ĠÑĩÑĥÐ²ÑģÑĤÐ²Ð¸":9225,"ĠÑĤÐ¾Ð»ÑīÐ¸":9226,"ĠÐ²ÐµÐ»Ð¸ÐºÐ¾Ð»ÐµÐ¿":9227,"ĠÐ¿ÑĥÐ½Ðº":9228,"ĠÐ¿Ð¾Ð´Ð°ÑĢÐºÐ¸":9229,"Ð´ÑĨÐ°ÑĤÐ¸":9230,"ĠÑĥÐ²ÐµÐ»Ð¸ÑĩÐ¸ÑĤÑĮ":9231,"ĠÐºÐ¾Ð¼ÑĦÐ¾ÑĢÑĤ":9232,"ĠÐĴÐµÐ»Ð¸ÐºÐ¾Ð±ÑĢÐ¸ÑĤÐ°":9233,"ĠÐ¿ÑģÐ¸ÑħÐ¾Ð»Ð¾Ð³Ð¸":9234,"ĠÑģÐ¼ÐµÑĢÑĤÑĮ":9235,"ĠÐŀÑģÐ¾Ð±ÐµÐ½Ð½Ð¾":9236,"ĠÐ¾ÑĦÐ¾ÑĢÐ¼Ð¸ÑĤÑĮ":9237,"ĠÐ´Ð¸ÑģÑĨÐ¸Ð¿Ð»Ð¸":9238,"84":9239,"Ð½Ð¾Ð¶":9240,"Ð½ÐµÐ½Ð¸Ð¸":9241,"ÑıÑĤÑĮÑģÑı":9242,"Ð³Ð¾Ð´Ð°":9243,"Ð½Ð¸ÑĤÑĮÑģÑı":9244,"Ð»Ð°Ð½Ð°":9245,"ÐºÐ°Ð½Ð°":9246,"Ð¾Ð²Ð°Ð½Ð°":9247,"ĠÐºÐ°Ð´Ð°":9248,"ÑĩÐ¸Ð¼":9249,"Ð¾ÑģÐ»Ð¾Ð²":9250,"ÑĤÐµÐ»ÑĮÐ½Ñĭ":9251,"ĠÐ¸Ð·Ð¾Ð»Ñı":9252,"ĠÐĶÑĥÐ¼Ð°":9253,"ĠÑģÐ¾ÑĨ":9254,"ĠÐºÐ°ÐºÐ¾Ð¼":9255,"ÑģÑģÐ¾Ð²":9256,"ĠÑģÑĥÑħ":9257,"ĠÐºÐ¾Ð¼Ð¿Ð°ÐºÑĤ":9258,"ĠÑģÐ¿Ð¾ÑģÐ¾Ð±Ð½Ñĭ":9259,"Ð¾Ð²Ð°Ð½Ð½Ð¾Ð³Ð¾":9260,"ÐµÐºÑĤÐ°Ðº":9261,"ĠÑĢÐ°Ð·Ð»Ð¸ÑĩÐ½ÑĭÐ¼Ð¸":9262,"Ð¾Ð»Ð¾Ð¶ÐµÐ½Ð¸Ðµ":9263,"ÑģÑĤÑĥÐ¿Ð°ÐµÑĤ":9264,"ĠÐ»Ð¸ÑĨÐ¾Ð¼":9265,"Ð²Ð°ÑİÑīÐµÐ¹":9266,"ĠÑĢÐ°ÑģÑĤÑı":9267,"ĠÐ¿Ð¾ÑıÐ²Ð¸Ð»Ð¸ÑģÑĮ":9268,"ĠÐ²ÑĭÐ´Ð°ÑĩÐ¸":9269,"ĠÐ¾ÑĤÐµÑĨ":9270,"ĠÐºÐ¾Ð¼Ð¼ÐµÐ½ÑĤÐ°ÑĢÐ¸":9271,"ĠÐºÐ»Ð¸ÐµÐ½ÑĤÐ°Ð¼":9272,"ĠÐ£Ð¿ÑĢÐ°Ð²Ð»ÐµÐ½Ð¸Ðµ":9273,"ĠÐ°Ð³ÑĢÐµÐ³Ð°":9274,"ĠÐ¼Ð¾Ð´ÐµÑĢÐ½Ð¸":9275,"Ġ<":9276,"ÑĤÑĢÐ°Ðº":9277,"ÑĩÐ½Ð¾ÑģÑĤÑĮÑİ":9278,"ĠÐ±ÐµÑĤÐ¾Ð½":9279,"Ð»ÑıÑĤÑĮÑģÑı":9280,"ĠÐ³Ð°Ð¼":9281,"ĠÐ³Ð¸Ð¼":9282,"ĠÐ¡ÑĤÐ¸":9283,"ĠÑģÐ¾ÑĨÐ¸":9284,"Ð¾Ð´Ð¸Ð½":9285,"ĠÐ¿Ð¾Ð»Ð½Ð¾Ð³Ð¾":9286,"Ð½Ð¾Ð²Ð¾":9287,"ĠÐ´Ð¾ÑģÑĤÐ¾Ð²ÐµÑĢ":9288,"ĠÐ£Ð¶Ðµ":9289,"ĠÐ²ÐµÐ´ÐµÑĤ":9290,"ĠÐ¿ÑĢÐµÐ¾Ð´":9291,"ÑĤÐ¸Ð²Ð½ÑĭÐ¼":9292,"ĠÐ´Ð¸ÑģÐºÐ¸":9293,"Ð±Ð°Ñħ":9294,"ÐĵÐµÑĢ":9295,"ĠÐ²ÑĭÐ¿Ð¾Ð»Ð½ÐµÐ½Ð¸Ðµ":9296,"ĠÐ·Ð°ÑīÐ¸ÑĤÑĥ":9297,"ĠÐºÐ½Ð¸Ð³Ðµ":9298,"ĠÐ¿ÑĢÐ¸Ð½ÑıÐ»":9299,"Ð¾Ð±ÑĢÐ°Ð¶Ð°":9300,"ĠÑĤÐµÐºÑģÑĤÐ°":9301,"ĠÐ°Ð²ÑĤÐ¾Ð±Ñĥ":9302,"ĠÑģÑģÑĭÐ»ÐºÑĥ":9303,"ĠÑĤÐµÐ½Ð´ÐµÐ½":9304,"ĠÐºÑĥÑħÐ½Ñı":9305,"ĠÐ¾Ð¿ÑĥÐ±Ð»Ð¸ÐºÐ¾Ð²Ð°Ð½":9306,"ĠÑĢÐ°Ð·Ð¾Ð±ÑĢÐ°ÑĤÑĮÑģÑı":9307,"ÐłÐ¾ÑģÑģÐ¸Ñı":9308,"TE":9309,"Ð¼ÑĭÐ¹":9310,"ĠÑģÐ»Ð¸Ð²":9311,"ĠÐ¸ÐºÐ¾Ð½":9312,"Ð³Ð¾Ð»":9313,"Ð¶Ð½Ð¾Ð¼":9314,"Ð¶ÑĮÑı":9315,"ĠÐ±ÑĥÑĤÑĭ":9316,"Ð¾ÑĤÐ²Ð¾ÑĢÐ¸":9317,"Ð¾Ð²Ð°ÑĢ":9318,"ĠÐ¡ÑĤÐ¾ÑĢ":9319,"ÑĢÐ¾Ð²ÐºÐµ":9320,"ĠÐ¾ÑĢÐ³Ð°Ð½Ð°":9321,"orm":9322,"Ð»Ð¾Ð¼Ð°":9323,"ĠÐ¾Ð¿ÑĢÐµÐ´ÐµÐ»ÑĳÐ½":9324,"ÑĪÐºÐ¸Ð½":9325,"ĠÐºÐ»Ð¸Ð½Ð¸":9326,"ĠÑĥÑĩÑĳ":9327,"ĠÑĥÐ³ÑĢÐ¾Ð·":9328,"ÐºÑĤÐ¾ÑĢÐ¾Ð¼":9329,"ĠÐ¿Ð¾Ð´Ð´ÐµÑĢÐ¶Ð°":9330,"ĠÑģÐ¿ÐµÑĨÐ¸Ð°Ð»Ð¸ÑģÑĤ":9331,"ĠÑģÐ¾Ð²ÑĢÐµÐ¼ÐµÐ½Ð½ÑĭÐµ":9332,"ĠÑģÐ¾Ð²ÑĢÐµÐ¼ÐµÐ½Ð½Ð¾Ð³Ð¾":9333,"ĠÐ¿Ð¾Ð²ÑĭÑĪÐµÐ½Ð¸Ðµ":9334,"ĠÐ²Ð¾Ð¹Ð½Ð°":9335,"ĠÑģÐ°Ð¼Ð¾Ñĥ":9336,"ĠÑĢÐ¾Ð·Ñĭ":9337,"ĠÐ·Ð°Ð´Ð¾Ð»":9338,"ĠÐ¦ÐµÐ½ÑĤÑĢÐ°":9339,"ĠÐ¿ÑĥÐ±Ð»Ð¸ÐºÐ°ÑĨÐ¸Ð¸":9340,"ĠÐ½ÐµÐ´Ð²Ð¸Ð¶Ð¸Ð¼Ð¾ÑģÑĤÑĮ":9341,"ĠÐ´Ð¸ÑĢÐµÐºÑĤÐ¾ÑĢÐ°":9342,"ĠÐ½ÑĭÐ½ÐµÑĪ":9343,"ĠÐĳÐµÐ»Ð°ÑĢÑĥÑģÑĮ":9344,"ID":9345,"ai":9346,"Ð²Ð¾Ð»ÑĮ":9347,"ĠÐ¿Ñı":9348,"ÑĮÐµÐ¼":9349,"ĠÑģÐºÐ»Ð°Ð´Ñĭ":9350,"Ð¾Ð»Ð¾Ð³Ð¾Ð²":9351,"ÐµÐ¼Ñĭ":9352,"Ð¾ÑģÐµ":9353,"ÑĪÐ¸ÑĤ":9354,"ÑĪÐ¸Ð»Ð¸":9355,"ĠÑģÐ²ÐµÐ´":9356,"Ð²ÐµÑĢÐ¸":9357,"ÑĢÐ¾Ð²ÑĭÑħ":9358,"ĠÐĳÐ¾Ð¶Ð¸":9359,"ĠÐ£ÑĩÐµÐ±":9360,"ĠÑĦÐ¸ÐºÑģÐ¸":9361,"Ð¾Ð³ÑĢÐ°Ð½Ð¸":9362,"ĠÑĢÐ°Ð±Ð¾ÑĩÐµÐ¹":9363,"ÑĩÐµÐ½Ð½ÑĭÐ¹":9364,"ĠÐ¶Ð¸Ð·Ð½ÐµÐ½":9365,"ĠÐ¾ÑģÐ½Ð¾Ð²Ð½Ð¾Ð³Ð¾":9366,"ĠÐºÐ¾Ð»Ð»Ðµ":9367,"ĠÐ¾Ð¿ÑĢÐµÐ´ÐµÐ»ÑıÐµÑĤ":9368,"ĠÐ¿ÑĢÐ¾Ð¸Ð·Ð²Ð¾Ð´Ð¸ÑĤ":9369,"ĠÑĢÐµÐ±ÑĳÐ½":9370,"ĠÐ½Ð°Ð¸Ð¼ÐµÐ½":9371,"ĠÐ¿ÑĢÐ¾Ð¿Ñĥ":9372,"ĠÑĥÐºÑĢÐ°ÑĪÐµÐ½Ð¸Ñı":9373,"ĠÐ³ÐµÑĢÐ¾Ð¸":9374,"ĠÐ¿Ð¾ÐºÑĥÐ¿Ð°ÑĤÐµÐ»ÐµÐ¹":9375,"ĠÐ¼Ð¸Ð»Ð»Ð¸Ð°ÑĢ":9376,"ĠÐ°Ð¿Ð¿Ð°ÑĢÐ°ÑĤÐ°":9377,"ĠÐ¡Ð°Ð¹ÑĤ":9378,"ĠÐ¿ÐµÑĢÑģÐ¾Ð½Ð°Ð»Ð°":9379,"ĠÑĢÑıÐ´Ð°":9380,"ĠÑģÐ¾ÑģÑĤÐ°Ð²Ð°":9381,"ĠÐºÐ¾Ð¼Ð¼ÐµÐ½ÑĤÐ°ÑĢÐ¸Ð¸":9382,"ĠÐ²Ð°Ð½Ð½Ð¾Ð¹":9383,"ĠÐŁÑĢÐ°Ð²Ð´Ð°":9384,"ĠÐ¶ÐµÐ»ÐµÐ·Ñĭ":9385,"ĠÐ¡ÐĿÐĵ":9386,"Ð¿Ð¾Ð»Ð½Ð¾Ð¼Ð¾Ñĩ":9387,"Ð¼Ð¾Ð³Ð¾":9388,"ĠÑģÐ¾Ð»ÑĮ":9389,"ÐµÐ½Ð½Ð¾Ð¼":9390,"ÑĢÐ°ÑĨÐ¸Ñı":9391,"ĠÐ¾ÑĢÑĥ":9392,"Ð±ÐµÐº":9393,"Ð³ÑĢ":9394,"ĠÐ´Ð¾Ð¼Ñĥ":9395,"ĠÐ¾Ð±Ð¾ÑĢÐ¾Ð½Ñĭ":9396,"ĠÐ¼Ð°ÑĤÑĢÐ°":9397,"ĠÐĶÐµÑĢ":9398,"ĠÐłÐĲ":9399,"ÐºÐ¾Ð²ÑĭÐ¼":9400,"ÐļÐ¾Ð»":9401,"ÐľÑĥ":9402,"ĠÐ´Ð°ÑĤÑĥ":9403,"ĠÐ¿ÐµÑĢÐ²Ð°Ñı":9404,"ĠÑįÐºÐ·":9405,"ĠÐ²ÐµÑĢÐ½ÑĥÑĤÑĮ":9406,"ĠÑįÐ»ÐµÐºÑĤÑĢÐ¾Ð´":9407,"Ð¾ÑģÑĥÐ´Ð¸":9408,"ĠÑĢÑĭÐ±Ñĭ":9409,"ĠÐŀÑĤÐºÑĢÑĭ":9410,"ĠÐ¸Ð½ÑģÑĤÑĢÑĥÐºÑĨÐ¸Ñı":9411,"ÐµÑĢÑĤÐ¾Ð¹":9412,"ĠÐ¿ÑĢÐ¾ÑĪÐ»Ð¾":9413,"ĠÐ¼ÑĥÐ·ÑĭÐºÐ¸":9414,"ĠÐ½Ð°Ð¿Ð¸ÑģÐ°ÑĤÑĮ":9415,"ĠÐ¿ÑĢÐµÐ´ÑģÑĤÐ°Ð²Ð»ÑıÑİÑĤ":9416,"ĠÐ½Ð¾ÑĥÑĤÐ±ÑĥÐºÐ°":9417,"ĠÐ¿Ð¾ÑģÑĤÐ°ÑĢÐ°":9418,"ĠÐ±Ð°Ð³Ð°Ð¶Ð½Ð¸ÐºÐ°":9419,"94":9420,"ÐµÐ³Ð¾":9421,"ÐºÐµÑĤÐ°":9422,"ĠÑģÐ¾Ð»Ð½ÑĨÐµ":9423,"ĠÐ¸Ð´ÑĥÑĤ":9424,"Ð±ÐµÐ½":9425,"ĠÑĥÑīÐµÑĢ":9426,"ĠÐ½ÐµÐ¸ÑģÐ¿":9427,"ÐºÐ¸Ñģ":9428,"ĠÐ¾ÑĤÐºÐ»Ñİ":9429,"ĠÐºÐ°Ð¶Ð´Ð°Ñı":9430,"ĠÐŁÐ¾Ðº":9431,"ĠÑĤÐµÐ¾ÑĢÐµ":9432,"Ð¶ÐµÐ²":9433,"ĠÐ¿ÑĢÐµÐ´ÑģÑĤÐ¾Ñı":9434,"ĠÐĹÐ¾Ð»":9435,"ĠÐ¿ÐµÑĢÐµÑģ":9436,"ĠÑĢÑĥÐºÐ¾Ð¹":9437,"ĠÑĪÐ»Ð°":9438,"ĠÑģÑĥÑĤÐ¸":9439,"ĠÑĢÐ¾Ð¼Ð°":9440,"Ð³Ð¾Ð²ÑĭÐµ":9441,"ĠÐ»ÐµÑĤÐ¾Ð¼":9442,"ÑĢÐ°Ð»ÑĮÐ½ÑĭÐµ":9443,"ĠÐ¿ÑĢÐ°Ð²Ð¾ÑģÐ»Ð°Ð²":9444,"ĠÐ¿Ð¾ÑģÐ»ÐµÐ´Ð½ÐµÐ³Ð¾":9445,"ĠÐ´Ð¾Ð¿Ñĥ":9446,"ĠÐŁÑĢÐ¾ÐµÐºÑĤ":9447,"ĠÐļÐ¸ÐµÐ²Ðµ":9448,"ĠÐ³Ð¾ÑģÑĥÐ´Ð°ÑĢÑģÑĤÐ²ÐµÐ½Ð½ÑĭÐ¹":9449,"ĠÑĥÑĩÐ°ÑģÑĤÐ¸ÐµÐ¼":9450,"Ð²Ð°ÑİÑīÐ°Ñı":9451,"ĠÐ¿Ð¾Ð½Ð¸Ð¼Ð°ÑĤÑĮ":9452,"ĠÐ¿Ð¾ÐºÑĢÑĭÑĤÐ¸ÐµÐ¼":9453,"Ð»ÑĮÑıÐ½Ð¾Ð²":9454,"ĠÐ¾Ð³ÑĢÐ°Ð½Ð¸ÑĩÐ¸":9455,"ĠÐ°ÐºÐºÑĥÐ¼ÑĥÐ»ÑıÑĤÐ¾ÑĢ":9456,"ĠÐ´ÐµÑĪÐµÐ²Ð»Ðµ":9457,"ĠÑĨÐµÑĢÐºÐ²Ð¸":9458,"ĠÐ¶Ð¸Ð»Ð¸Ñī":9459,"ĠÐ·Ð°Ð²ÐµÑīÐ°":9460,"ĠÑģÐ¿ÑĥÑģÑĤÑı":9461,"700":9462,"RA":9463,"ĠÐ²Ð½Ñĥ":9464,"ĠÐ´Ð½ÐµÐ¼":9465,"Ð¾Ð´Ð½ÑĭÑħ":9466,"ĠÐ½Ð°ÑĢÐ¾Ð´Ð°":9467,"Ð¶ÐµÐ½Ñĭ":9468,"ĠÑĤÐ²ÐµÑĢÐ´":9469,"Ð¾Ð¿ÑĢÐµÐ´Ðµ":9470,"ĠÐ¿ÑĢÐ¾Ð½Ð¸Ðº":9471,"Ð¼ÐµÐ½Ð¾Ð²":9472,"ÐºÑĥÑĥÐ¼":9473,"ĠÐłÐ¾Ð±":9474,"ĠÐ»Ð¸ÑģÑĤÐ¾Ð²":9475,"ĠÐ²Ð°ÑĪÐ°":9476,"ĠÑģÐ°Ð¼Ð¾Ð¼Ñĥ":9477,"ĠÐºÐ°ÑĩÐµÑģÑĤÐ²Ð¾Ð¼":9478,"ĠÑĢÐµÐ·ÐºÐ¾":9479,"ĠÑģÐºÐ»Ð¾Ð½":9480,"ĠÐ¿Ð°ÑĢÐ»Ð°":9481,"ĠÑħÐ¾ÑĢÐ¾ÑĪÐµÐµ":9482,"ĠÑģÐ¿Ð¾ÑģÐ¾Ð±Ð½Ð¾ÑģÑĤÑĮ":9483,"ĠÑĦÐ°Ð±ÑĢÐ¸":9484,"ĠÐºÑĥÑĢÑģÐµ":9485,"ĠÑģÑĤÐ¸ÑħÐ¸":9486,"ĠÐ½Ð°Ð´Ð·Ð¾ÑĢ":9487,"Ð¿ÐµÑĢÐ°ÑĤÐ¾ÑĢ":9488,"ĠÐ¾ÑĢÐ³Ð°Ð½Ð¸Ð·Ð¼Ðµ":9489,"ĠÐ±ÑĥÐ´ÑĥÑīÐµÐ³Ð¾":9490,"ĠÑįÑĦÑĦÐµÐºÑĤÐ¸Ð²Ð½Ð¾ÑģÑĤÑĮ":9491,"ĠÐ¾Ð´ÐµÐ¶Ð´Ñĥ":9492,"ĠÑģÐ»Ð°Ð±":9493,"ĠÐ¿ÑģÐ¸ÑħÐ¸":9494,"ube":9495,"ĠÑĥÑĩÐ¸ÑĤÑĭÐ²Ð°ÑĤÑĮ":9496,"ĠÐ¿Ð¾Ð´Ð²ÐµÑģÐºÐ¸":9497,"ĠÐļÑĢÐ°ÑģÐ½Ð¾ÑıÑĢ":9498,"ĠÐ±Ð°ÐºÑĤÐµÑĢÐ¸":9499,"ĠÐļÐµÐ¼ÐµÑĢÐ¾Ð²":9500,"ug":9501,"ÑĢÐ¾Ð´Ñĥ":9502,"ÑģÑĤÐ¾Ð³Ð¾":9503,"ĠÐ¸Ð»Ð»Ñİ":9504,"ÑĪÐµÐ½Ñĭ":9505,"ĠÐ°ÑĥÐº":9506,"ĠÐĴÐ°Ð»":9507,"Ð¾Ð¿ÐµÑĢÐµ":9508,"ĠÐľÐ¾":9509,"ĠÐ¼Ð°Ð»":9510,"Ð½Ð¸ÑıÑħ":9511,"ĠÐ¿Ð¾Ð»Ñİ":9512,"ÐļÐ°Ð¼":9513,"ĠÑıÐ³Ð¾Ð´":9514,"ĠÐºÐ¾Ð½ÑĤÐµÐº":9515,"ĠÐ²Ð°ÑĪÑĥ":9516,"ÑħÐ¾Ð´Ð¾Ð²":9517,"ĠÐ¿ÐµÑĢÐµÐ½Ðµ":9518,"ina":9519,"ÑĨÐ¸Ð¾Ð½Ð½ÑĭÐ¼":9520,"ĠÐļÐ°ÑĤÐ°Ð»Ð¾Ð³":9521,"ark":9522,"ĠÑĢÑĭÑĩÐ°":9523,"ĠÐ¿Ð°ÑĢÐµÐ½ÑĮ":9524,"ĠÐ¾ÑģÑĥÑīÐµÑģÑĤÐ²Ð¸":9525,"ĠÐ¾Ð³Ð¾Ð½ÑĮ":9526,"ĠÑĤÑĢÐµÑĤÐ¸Ð¹":9527,"ĠÑģÑĥÑīÐµÑģÑĤÐ²ÑĥÑİÑĤ":9528,"ÑĪÐ¸Ð½ÑģÑĤÐ²Ð¾":9529,"ĠÐ¿ÑĢÐ¾Ð¼Ðµ":9530,"ĠÐ¿Ð¾ÑıÐ²Ð¸ÑĤÑģÑı":9531,"ĠÐŁÑĢÐ°Ð²Ð¸ÑĤÐµÐ»ÑĮÑģÑĤÐ²Ð°":9532,"ĠÑģÐ¼ÑĭÑģÐ»Ðµ":9533,"ĠÑĤÐµÐ½Ð½Ð¸":9534,"ĠÐ·Ð°ÑĤÑĢÐ°ÑĤ":9535,"ĠÐ¾Ð±Ð»Ð¸ÑĨÐ¾Ð²":9536,"ĠÐ¸Ð½Ð¸ÑĨÐ¸Ð°":9537,"92":9538,"ÑıÑĤÐ¸Ðµ":9539,"ĠÐ¾Ð³ÑĢÐ°":9540,"Ð³ÐµÐ½ÑĤ":9541,"ÑĪÑĥÑĤ":9542,"Ð½Ð°Ñģ":9543,"ĠÐ±Ð¾":9544,"ÐºÐ¸Ð½Ð°":9545,"ĠÐ·Ð°Ð»Ð¸":9546,"ĠÐ¾Ð±ÑīÐ¸Ð¹":9547,"Ð·Ð°Ð¿":9548,"ĠÐļÑģÑĤÐ°ÑĤÐ¸":9549,"ĠÑĢÐµÐºÐ¾Ð½ÑģÑĤÑĢÑĥ":9550,"Ð³Ð°Ñı":9551,"ĠÐľÐµÐ½":9552,"ĠÐľÑĥÐ»ÑĮ":9553,"ĠÐŀÐ±ÑĭÑĩÐ½Ð¾":9554,"ÐŁÐ°ÑĢ":9555,"ĠÐ¿Ð¾Ð»Ð½Ð¾Ðµ":9556,"ĠÐ¿ÑĢÐµÐ´ÑģÑĤÐ¾Ð¸ÑĤ":9557,"Ð°Ð¹ÑĤ":9558,"ĠÑĨÐµÐ½Ð¸":9559,"ÐĹÐ´ÑĢÐ°Ð²ÑģÑĤÐ²ÑĥÐ¹ÑĤÐµ":9560,"ĠÐĴÑĭÐ±ÐµÑĢÐ¸ÑĤÐµ":9561,"ĠÐ¿Ð¾Ð¿ÑĭÑĤÐ°":9562,"ĠÐ´ÐµÑĤÑģÐºÐ¾Ð¹":9563,"ĠÐ¾Ð±ÑĢÐ°ÑĤÐ½Ð¾":9564,"Ð½ÑĥÑĤÑĢÐ¸":9565,"ÑĥÑİÑīÐ¸Ð¼":9566,"ĠÐ¿Ð¾ÑĩÑĥÐ²":9567,"ĠÑĢÐ°ÑģÑģÐ¼Ð¾ÑĤÑĢ":9568,"ĠÑĤÑĢÑĥÐ´Ð¾":9569,"ĠEn":9570,"raft":9571,"ĠÐĶÐ°Ð»ÐµÐµ":9572,"ĠÐ³Ð»Ð°Ð²Ð½Ð¾Ð¹":9573,"ĠÐ²Ð¸Ð´Ð¾Ð¼":9574,"ĠÑĤÐµÑħÐ½Ð¸ÑĩÐµÑģÐºÐ¸Ñħ":9575,"ĠÐ¿Ð¾Ð´Ð°ÑĩÐ¸":9576,"ĠÐĳÐ¾Ð»ÑĮÑĪ":9577,"ĠÐĵÐ»Ð°Ð²Ð½ÑĭÐ¹":9578,"Ð¿Ð¾Ð¼Ð½Ð¸Ð¼":9579,"ĠÐĺÐ³ÑĢÐ¾Ð²ÑĭÐµ":9580,"ĠÐ°Ð»ÐºÐ¾Ð³Ð¾Ð»ÑĮ":9581,"ĠÐºÐ¾Ð»ÑĮÑĨÐ°":9582,"ĠÐ¯Ð½Ð´ÐµÐºÑģ":9583,"ĠÑĦÐ¸Ð»Ð¾ÑģÐ¾ÑĦÐ¸":9584,"ĠÐļÐ°Ð»Ð¸Ð½Ð¸Ð½":9585,"82":9586,"Ġ'":9587,"Ð²ÐºÑĥ":9588,"ÑĢÐµÐº":9589,"Ð³ÑĢÐ°Ð½":9590,"Ð¶Ð½ÑĭÐ¼Ð¸":9591,"ĠÐ·Ð°Ð²Ð¾Ðµ":9592,"ĠÐ·Ð°Ð³ÑĢÑĥÐ·":9593,"ĠÐ·Ð°Ð¶Ð¸Ð³Ð°":9594,"Ð¾ÐºÐ¾Ð»Ð°":9595,"ĠÐºÐ°Ð¿Ð¾ÑĤÐ°":9596,"ĠÐ¸Ð·Ð´Ð°Ð½Ð¸Ñı":9597,"ÑĪÐ¸Ð½Ñĭ":9598,"ĠÐĶÐ¾Ð½ÐµÑĨ":9599,"ĠÐĲÐ¼":9600,"ÐŁÑĥ":9601,"ĠÐĺÑģÐº":9602,"ĠÑģÐ¿ÑĢÐ¾Ñģ":9603,"ĠÐķÐ¡":9604,"ĠÑĪÑĥÐ¼":9605,"Ð²Ð¾ÑģÑĤÐ¾Ðº":9606,"ĠAr":9607,"ĠÑįÑĤÐ¸Ð¼Ð¸":9608,"ÑĢÐ°Ð»ÑĮÐ½Ð°Ñı":9609,"ĠÐºÐ¸ÑĪÐµ":9610,"ĠÐ¾ÑĤÐºÑĢÑĭÑĤÐ¸Ñı":9611,"ĠÐĿÐ¸ÐºÐ¾Ð»Ð°Ð¹":9612,"ĠÐ·ÐµÐ¼Ð»Ñİ":9613,"ĠÑģÐ¿ÐµÑĨÐ¸Ð°Ð»ÑĮÐ½Ð¾Ð¹":9614,"ĠÑĥÐ¿Ð»Ð¾ÑĤ":9615,"ĠÐ¿ÑĢÐµÐ´Ð»Ð¾Ð¶Ð¸ÑĤÑĮ":9616,"ĠÑĥÑĩÐ¸ÑĤÑĮÑģÑı":9617,"ÑĢÐ°Ð·ÑĥÐ¼Ðµ":9618,"ĠÐºÑĢÐ¸ÑĤÐµÑĢÐ¸":9619,"ĠÐ·Ð°Ð½ÑıÑĤÐ¸Ð¹":9620,"====":9621,"ĠÐ³Ð°ÑĢÐ°Ð½ÑĤÐ¸ÑĢÑĥÐµÑĤ":9622,"ÐĿÐĲÐ¯":9623,"ĠÐ¸Ð·Ð¾Ð±ÑĢÐ°Ð¶ÐµÐ½Ð¸Ðµ":9624,"ĠÐ²Ð´Ð¾Ð»ÑĮ":9625,"ĠÐĳÐµÐ»Ð°ÑĢÑĥÑģÐ¸":9626,"ĠAndroid":9627,"ĠÐĴÑģÐµÑĢÐ¾ÑģÑģÐ¸Ð¹":9628,"ĠÐ²Ð²Ð¾Ð´":9629,"Ð³ÑĢÐ¸":9630,"Ð»ÑĮÐ½Ð¾Ð¼Ñĥ":9631,"ĠÑĥÐ±Ñĭ":9632,"ĠÐ½ÐµÐ±Ðµ":9633,"ĠÐ²ÑĭÐ±Ð¸ÑĢÐ°ÑĤÑĮ":9634,"Ð´Ð¸Ð¾":9635,"ĠÑĢÐ°Ð·Ð´":9636,"ĠÑĢÐ°Ð·Ð½Ð¾Ð²Ð¸Ð´":9637,"ĠÑıÐ¸":9638,"Ð»ÐµÐ½Ð½ÑĥÑİ":9639,"ĠÑģÑĤÐ°Ð»ÐºÐ¸":9640,"Ð¢Ð£":9641,"ĠÐ¼Ð¸Ð½Ðµ":9642,"ĠÐĹÐ°ÐºÐ°Ð·":9643,"ĠÐºÐ°ÑĢÑĤÐµ":9644,"ĠÑĨÐµÐ»Ðµ":9645,"Ð²Ð°ÑĢÑĮ":9646,"ĠÐĺÐ½Ð¾Ð³Ð´Ð°":9647,"ĠÑĤÑĥÑĢÐ¸ÑģÑĤÐ¸":9648,"Ð¦Ð²ÐµÑĤ":9649,"ĠÑģÐ¾Ð³Ð»Ð°ÑģÐ¸Ñı":9650,"ile":9651,"ĠÐ³Ð»Ð°Ð²Ð½ÑĭÑħ":9652,"ĠÐ¿Ð¾ÑıÐ²Ð¸Ð»ÑģÑı":9653,"ĠÐ´ÐµÐ¼Ð¾":9654,"ÐµÑħÐ°Ð»Ð¸":9655,"ĠÐ»Ð¸ÑĤÐµÑĢÐ°ÑĤÑĥÑĢ":9656,"ĠÑģÑĤÑĢÐ°ÑĤÐµÐ³Ð¸Ð¸":9657,"Ð¾Ð±ÑĢÐ°Ð·Ð¸Ðµ":9658,"ĠÐĴÐ°ÑģÐ¸Ð»ÑĮ":9659,"Ð²Ð»Ð°Ð¶":9660,"ĠÑģÑĥÐ¿ÑĢÑĥ":9661,"ME":9662,"ue":9663,"ÑĢÐ°Ñı":9664,"ĠÐ·Ð»Ð¾":9665,"ĠÑĤÑĢÐµÐ¹":9666,"ĠÐ¾Ð±ÑģÑĤÐ°Ð½Ð¾Ð²":9667,"ĠÐºÐ°Ð¼ÐµÐ½":9668,"Ð¾Ð·Ðµ":9669,"ÑģÐ¸Ñħ":9670,"ĠÐ²ÑĭÐ·Ð¾Ð²":9671,"ĠÐļÐ»ÑĥÐ±":9672,"ÑĤÐµÐ»ÑĮÑģÐºÐ¸Ñħ":9673,"ĠÐĿÐ¾Ð²Ð°Ñı":9674,"Â»)":9675,"ĠÐĶÐ½ÐµÐ¿":9676,"ĠÐĳÐ»Ð°":9677,"ĠÑĢÐ¾Ð±":9678,"ĠÐ¾ÑģÑĤÐ°Ð»ÑĮÐ½ÑĭÑħ":9679,"ĠÐŀÑĤÐ²ÐµÑĤ":9680,"ĠÐłÐ°Ð´Ð¸Ð°":9681,"ĠÑĥÐ´Ð¾Ð±Ð½ÑĭÐ¹":9682,"ĠÑĢÐµÐ±ÐµÐ½ÐºÑĥ":9683,"ĠÑģÐ¾ÑĨÐ¸Ð°Ð»ÑĮÐ½Ð¾":9684,"ĠÐ½Ð¾ÑĢÐ¼Ð°Ð»ÑĮÐ½Ð¾":9685,"ĠÐ¿Ð¾Ð»Ð¾Ð¶ÐµÐ½Ð¸Ð¸":9686,"ĠÑħÐ°ÑĢÐ°ÐºÑĤÐµÑĢÐ¸Ð·":9687,"ĠÐ¼Ð°ÑĤÑĩÐ°":9688,"ĠÐ·Ð°Ð³ÑĢÑıÐ·":9689,"ĠÐ±ÑĥÐ¼Ð°Ð³Ð¸":9690,"ĠÐºÐ¸ÑģÐ»Ð¾ÑĤÑĭ":9691,"ĠÐŃÐ»ÐµÐºÑĤÑĢÐ¾Ð½":9692,"ĠÐ¿Ð°Ð½ÐµÐ»ÑĮ":9693,"ĠÐ½Ð°ÑĢÐºÐ¾ÑĤÐ¸":9694,"ĠÐ¿ÑĢÐ¾ÑĤÐ¸Ð²Ð¾Ð¿Ð¾Ð»Ð¾Ð¶":9695,"ĠÐ¿ÐµÑĩÐ°ÑĤÐ¸":9696,"ĠÐ¤ÐµÐ´Ð¾ÑĢÐ¾Ð²":9697,"ÑĥÐ½ÐºÑĨÐ¸Ð¾Ð½Ð°Ð»ÑĮ":9698,"âĨ":9699,"Ð´Ð½ÑĭÐµ":9700,"ĠÐ²ÐºÐ»Ð°Ð´":9701,"Ð¶Ð¾Ð¼":9702,"ĠÐ·Ð°ÑĦÐ¸ÐºÑģÐ¸":9703,"Ð¾Ð¿Ð°ÑĢ":9704,"ĠÐŀÐ½Ð¾":9705,"ĠÑĢÐ°Ð·Ð»Ð¸":9706,"ĠÑģÐ¾Ð±ÑĢÐ°ÑĤÑĮ":9707,"Ð³ÑĢÐ°ÑĦ":9708,"ĠÐºÐ°ÑĩÐµÑģÑĤÐ²ÐµÐ½Ð½Ð¾":9709,"ĠÐ¿ÐµÑĢÐ²Ð¾Ð½Ð°ÑĩÐ°":9710,"orld":9711,"ĠÐ¦Ð¸":9712,"2001":9713,"ick":9714,"ĠÐ²ÑĭÐ¿Ð¾Ð»Ð½Ð¸ÑĤÑĮ":9715,"Ð»Ð°Ð³Ð°ÐµÐ¼":9716,"ĠÐŁÐ¾Ð´Ð¼Ð¾ÑģÐºÐ¾Ð²":9717,"ĠÐ³ÑĢÑĥÐ¿Ð¿Ñĥ":9718,"Ð¾Ð·Ð°Ð²Ð¾Ð´":9719,"act":9720,"ĠÐ´Ð¾Ð¿Ð¾Ð»Ð½Ð¸ÑĤÐµÐ»ÑĮÐ½Ð¾Ð³Ð¾":9721,"ĠÐ·Ð¾Ð»Ð¾ÑĤÐ°":9722,"Ð¸Ð·Ð²Ð¾Ð´Ð¸ÑĤÐµÐ»ÑĮ":9723,"ÐºÑĢÑĥ":9724,"ÑħÐ»Ñĭ":9725,"ĠÐ·Ð°ÑĩÐ°ÑģÑĤÑĥÑİ":9726,"ĠÐŁÐ¾Ð³":9727,"ĠÐ²ÑĭÐ·ÑĭÐ²Ð°":9728,"ÑĢÐµÐ´ÐºÐ¾":9729,"ĠÐ¶Ð´ÑĥÑĤ":9730,"ĠÑĢÐ°Ð·Ñĭ":9731,"ĠÑĢÐ°Ð·ÑĢÐ°Ð±Ð°ÑĤÑĭ":9732,"ÐłÐµÐº":9733,"ÐķÑģÑĤÑĮ":9734,"ĠÐ¿ÑĢÐµÐ¶":9735,"ĠÐ¿ÑĢÐµÐ¼Ð¸":9736,"Ð¾ÑĩÐ½Ð¾Ðµ":9737,"ĠÐ¿Ð»Ð°ÑĤÑĭ":9738,"ĠÐĴÐ°ÑĪÐµ":9739,"ĠÐ¾Ð¿ÑĢÐµÐ´ÐµÐ»ÐµÐ½Ð½ÑĭÑħ":9740,"ĠÑģÐµÐºÑĢÐµÑĤ":9741,"Ð´ÐµÐ½ÑģÐ°":9742,"ĠÐ°ÐºÑĤÐ¸Ð²Ð½Ð¾ÑģÑĤÐ¸":9743,"ĠÐ²Ð¾Ð·Ð´ÑĥÑħÐµ":9744,"ÐĿÐŀÐĵÐŀ":9745,"ĠÐ¸ÑģÑħÐ¾Ð´Ñı":9746,"ĠÐ¿ÑĢÐ¾Ð²Ð¾Ð´Ð¸ÑĤ":9747,"ĠÑģÑĢÐµÐ´ÑģÑĤÐ²Ð°Ð¼Ð¸":9748,"ĠÐºÐ²Ð°ÑĢÑĤÐ¸ÑĢÐ°":9749,"ĠÐ½Ð°Ð¿ÑĢÑıÐ¼ÑĥÑİ":9750,"ĠÑģÐ»Ð¾Ð²Ð½Ð¾":9751,"ĠÐºÐ¾ÑģÐ¼Ð¸":9752,"Ð¡ÐļÐĲ":9753,"ĠÐ¼ÑĥÐ»ÑĮÑĤÑĦÐ¸Ð»ÑĮ":9754,"ĠÐ´Ð¸Ð°Ð¼ÐµÑĤÑĢÐ¾Ð¼":9755,"ĠÐĶÑĢÑĥÐ³Ð¾Ðµ":9756,"ĠÐ¿Ð°ÐºÐµÑĤ":9757,"ĠÐ¾Ð·Ð½Ð°ÐºÐ¾Ð¼Ð¸ÑĤÑĮÑģÑı":9758,"ÑĤÑĢÐ¾Ð²":9759,"Ð½Ð½Ð¾Ð³Ð¾":9760,"Ð½Ñĳ":9761,"ÑģÑĤÐ½ÑĭÐ¹":9762,"ĠÐºÑģÑĤÐ°ÑĤÐ¸":9763,"Ð¶ÑĥÑĢ":9764,"Ð²Ð°Ð»ÑĮ":9765,"Ð¾Ð½Ð½ÑĭÐµ":9766,"Ð¾ÐºÐ¾Ð¸":9767,"ĠÐ¿ÑĢÑĭ":9768,"ĠÐ¿ÑĢÐ¾Ð¿Ð¸":9769,"ĠÐ¿ÑĢÐ¾ÑĤÐ¾Ðº":9770,"ĠÑģÑĤÑĭ":9771,"ĠÐĺÑĢÐ°":9772,"ÐĲÐº":9773,"ĠÑģÑĤÐ°ÑĤÐµÐ¹":9774,"Ð¶Ð°Ð²Ðµ":9775,"ĠÐķÐ»ÐµÐ½Ð°":9776,"ĠÐ¤Ð¸Ð»Ð¸":9777,"ĠÐ´ÐµÐ¹ÑģÑĤÐ²ÑĥÑİ":9778,"ĠÐºÐ°Ð¶Ð´ÑĭÐ¼":9779,"ĠÐ¿Ð¾Ð»Ð¸ÑĨÐ¸Ð¸":9780,"ĠÐ¿ÑĢÐ¾Ð¸Ð·Ð²Ð¾Ð´Ð¸ÑĤÐµÐ»ÑĮ":9781,"ĠÑģÑĤÑĢÐ¾Ð¸ÑĤÐµÐ»ÑĮÐ½ÑĭÑħ":9782,"ĠÑĥÐºÐ°Ð·Ð°Ð½Ð½ÑĭÑħ":9783,"ĠÐ¿Ð¾Ð¼ÐµÑīÐµÐ½Ð¸Ð¸":9784,"ĠÑĥÑģÐ¿ÐµÑħÐ°":9785,"ign":9786,"ĠÑįÐ»ÐµÐ¼ÐµÐ½ÑĤ":9787,"ĠÐ¿ÑĢÐ¾ÑĦÐµÑģÑģÐ¸Ð¾Ð½Ð°Ð»ÑĮÐ½Ð¾Ð³Ð¾":9788,"ĠÑĥÐ²Ð¸Ð´ÐµÐ»":9789,"ĠÐºÐ¾Ð¼Ð½Ð°ÑĤÐµ":9790,"ĠÐµÐ¶ÐµÐ´Ð½ÐµÐ²Ð½Ð¾":9791,"ĠÐ±Ð¾ÑĢÑĮÐ±Ðµ":9792,"Ġï¿½ï¿½ï¿½ï¿½ï¿½ï¿½":9793,"ĠÐ¾ÑĨÐµÐ½Ð¸ÑĤÑĮ":9794,"ĠÐļÑĢÑĭÐ¼ÑģÐºÐ¾Ð¹":9795,"ĠÐ²Ð¾ÑģÐ¿ÑĢÐ¸Ð½Ð¸Ð¼Ð°":9796,"ĠÐ±ÑĢÐ¸Ð³Ð°Ð´Ñĭ":9797,",...":9798,"320":9799,"93":9800,"ÑĢÐ¾Ð»Ð¸":9801,"ÐºÐ½Ð¾Ð²":9802,"ĠÐ²ÑħÐ¾Ð´Ñı":9803,"ĠÐ²ÑģÑĤÑĥÐ¿Ð¸":9804,"ĠÐ²ÑĩÐµÑĢÐ°":9805,"ĠÑģÐ±Ð¾ÑĢÐ°":9806,"ÑİÐ½":9807,"ÑĤÐµÐ¹Ð½":9808,"ÑĤÐ¸ÑĤÐµ":9809,"ĠÐ¿Ð¾ÑģÑĤÑĥÐ¿Ð»ÐµÐ½Ð¸Ñı":9810,"Ð»ÐµÑı":9811,"Ð´Ð°ÑĩÐ°":9812,"ĠÐŁÐ°ÑĤ":9813,"ĠÐ¿ÑĢÐ¸Ð´ÑĥÐ¼Ð°":9814,"ĠÐ¡Ð¾Ð³Ð»Ð°ÑģÐ½Ð¾":9815,"ĠÐ¿Ð¾Ð´ÑģÐºÐ°":9816,"ÑĢÑĭÐ²Ð°":9817,"ĠÐ¼Ð°ÑĤÑĮ":9818,"ĠÐĶÐ¶Ðµ":9819,"ĠÐĳÐµÑĢÐµ":9820,"Ð·Ð¸Ñİ":9821,"Ð¶Ð¸Ð²Ð°ÑĤÑĮ":9822,"ĠÐ»Ð¸ÑĩÐ½Ð¾ÑģÑĤÐ¸":9823,"ĠÐ´ÐµÐ»Ñĥ":9824,"ĠÑģÑĤÐ°Ð´Ð¸Ð¸":9825,"ÐłÐ¸":9826,"Ð°Ð»Ð¾Ð³":9827,"ĠÑĪÐ»Ñİ":9828,"Ð£ÐºÑĢÐ°":9829,"ĠÐ§Ð°ÑĤ":9830,"ĠÐ¿Ð¾ÑĢÐ¾Ð¹":9831,"Ð¤Ð¾ÑĢ":9832,"ÑĢÐ°ÐºÑĤÐµÑĢÐ¸":9833,"ĠÐ°ÐºÐºÐ°ÑĥÐ½":9834,"ĠÐ²Ð¾Ð·Ð¼Ð¾Ð¶Ð½Ð¾ÑģÑĤÑĮÑİ":9835,"ĠÐ¾Ð±ÑĢÐ°ÑĤÐ¸ÑĤÑĮ":9836,"ĠÑĤÐ¾Ð²Ð°ÑĢÐ¸":9837,"ĠÐ·Ð°ÐºÐ¾Ð½Ð¾Ð¼":9838,"ÑĢÑĥÐ³Ð¾Ð¹":9839,"ĠÐ³Ð»Ð°Ð²Ð½Ð¾Ð³Ð¾":9840,"ĠÑģÐ»ÐµÐ´ÑĥÑİÑīÐ¸Ñħ":9841,"ĠÐĳÐ¾Ð»ÑĮÑĪÐ¾Ð¹":9842,"ĠÑģÑĥÐ±Ð±Ð¾ÑĤ":9843,"ĠÐ¾ÑĤÐ²ÐµÑĩÐ°ÐµÑĤ":9844,"ĠÐ·Ð°ÑģÐµÐ´Ð°Ð½Ð¸Ð¸":9845,"ĠÐŃÐºÑģÐ¿":9846,"ĠÑĢÐ¸ÑģÑĥÐ½":9847,"ĠÑģÐµÐºÑĥÐ½":9848,"ĠÐºÐ°ÑĢÑĤÐ¸Ð½Ñĭ":9849,"ĠÐ²ÐµÐ»Ð¾ÑģÐ¸Ð¿":9850,"115":9851,"ire":9852,"ÑĤÐ¾Ð»":9853,"ÑĥÑĤÐ¾":9854,"Ð²ÐµÑĢÐµ":9855,"ĠÐ½Ð°Ð²Ðµ":9856,"ÑĢÑĥÑİ":9857,"ÑĩÐµÑĪÑĮ":9858,"ÑĩÐ¸ÐºÐ¾Ð¼":9859,"ĠÐ¸Ð·Ð´Ð°Ð½Ð¸Ðµ":9860,"ÐºÐ¾Ð²ÐºÐ°":9861,"Ð»ÐµÐ½Ð½Ð¾ÑģÑĤÐ¸":9862,"ÐľÐķ":9863,"ĠÐ¿ÐµÑĢÐµÑĩÐµÐ½ÑĮ":9864,"ĠÐ¤Ð¸Ð½":9865,"ĠÐŃÐ»":9866,"ĠÐ¿Ð°Ð»Ð°":9867,"ĠÑĢÐ°Ð±Ð¾ÑĤÐ¾Ð¹":9868,"ĠÐłÐ¾ÑģÑģÐ¸Ñİ":9869,"ĠÐ²ÐµÑĢÑģÐ¸Ñİ":9870,"ĠÑģÐºÑĢÐ¸":9871,"ĠÐĺÐ½ÑĤÐµÑĢÐµÑģ":9872,"ĠÐ¿Ð¾ÑĩÑĤÑĥ":9873,"ĠÐ±ÐµÑģÐ¿Ð»Ð°ÑĤÐ½ÑĭÑħ":9874,"ĠÑĥÑĩÐ°ÑģÑĤÐºÐ¸":9875,"ree":9876,"ĠÑįÑĦÑĦÐµÐºÑĤÐ¸Ð²Ð½Ð¾":9877,"ĠÐ½Ð¸ÐºÐ°ÐºÐ¾Ð³Ð¾":9878,"ĠÐ¼ÐµÐ´Ð¸ÑĨÐ¸Ð½ÑģÐºÐ¸Ñħ":9879,"ĠÐ¿ÑĢÐµÐ´Ð½Ð°Ð·Ð½Ð°ÑĩÐµÐ½Ñĭ":9880,"ĠÐĴÐµÐ»Ð¸ÐºÐ¾Ð¹":9881,"ĠÐ¿ÑĢÐ¸Ð±ÑĭÐ»ÑĮ":9882,"ĠÐ½Ð°ÑģÑĤÑĢÐ¾ÐµÐ½Ð¸Ðµ":9883,"Ð¢ÐķÐĽÐ¬":9884,"ÐķÐĿÐĺÐķ":9885,"ÐĺÐ½ÑĤÐµÑĢÐ½ÐµÑĤ":9886,"ĠÐ¸Ð·Ð¾Ð±ÑĢÐµÑĤ":9887,"ÑĥÐ¹ÑĤÐµ":9888,"ĠÐ¸Ð½ÑĭÐµ":9889,"ĠÐ´Ð¾ÑģÑĥ":9890,"Ð¶ÑĮÐµ":9891,"ÑĤÐ¸ÑĩÐµÑģÐºÐ¾Ð¹":9892,"ĠÐºÐ°Ð»Ð¾ÑĢÐ¸":9893,"ĠÐŁÐ¾Ð¼Ð¸Ð¼Ð¾":9894,"ĠÐ¿ÑĢÐ¸ÐºÐ°Ð·":9895,"ÑģÑĤÐ²ÐµÐ½Ð½Ð¾ÑģÑĤÑĮ":9896,"ĠÐĿÐ°ÑĪÐ°":9897,"ĠÐ°Ð²ÑĤÐ¾ÑĢÐ¾Ð²":9898,"ĠÐ¸Ð³ÑĢÐ¾ÐºÐ°":9899,"ĠÑģÐ¾Ð²ÐµÑĤÑĭ":9900,"ĠÐ¿Ð¾Ð²ÐµÐ´ÐµÐ½Ð¸Ñı":9901,"Ð¾Ð³ÑĢÐ°ÑĦ":9902,"ĠÐºÐ¾Ð¼Ð¿ÑĢÐµÑģÑģ":9903,"ĠÐºÐ°ÑĢÐ¼Ð°":9904,"ĠÐŀÐ±ÑīÐµ":9905,"ÑĪÐµÐ½ÐºÐ¾":9906,"ĠÐľÐ°Ð³Ð°Ð·Ð¸":9907,"ÑīÐµÐ½Ð½Ð¾Ð¹":9908,"ĠÐ¾ÑģÑĤÐ°ÑİÑĤÑģÑı":9909,"ĠÐ²ÑĭÑģÐ¾ÐºÑĥÑİ":9910,"ĠÐ²ÑĭÑģÐ¾ÐºÐ¾Ðµ":9911,"ĠÐ»ÐµÐ³ÑĩÐµ":9912,"ĠÑģÑĤÐ°ÑĤÑĮÑı":9913,"ĠÐ¿Ð¾Ð»ÑĮÐ·Ð¾Ð²Ð°ÑĤÐµÐ»Ð¸":9914,"ĠÐ¤ÐµÐ´ÐµÑĢÐ°Ð»ÑĮÐ½Ð¾Ð³Ð¾":9915,"ĠÐ¼Ð¸Ð½ÑĥÑĤÑĭ":9916,"ĠÑĢÐµÑĪÐ¸Ð»Ð°":9917,"ĠXV":9918,"ĠÐ¾Ð³ÑĢÐ°Ð½Ð¸ÑĩÐµÐ½Ð¸Ñı":9919,"ĠÐłÐµÑģÐ¿ÑĥÐ±Ð»Ð¸ÐºÐ°":9920,"ĠÐ¿Ð¾Ð»ÑĮÐ·ÑĥÑİÑĤÑģÑı":9921,"ĠÑģÐ¾ÑģÑĤÐ°Ð²Ð¸ÑĤ":9922,"ĠÐ¿Ð¾Ð¶Ð°ÑĢÐ½Ð¾Ð¹":9923,"ĠÐŁÑĢÐ¾Ð²ÐµÑĢ":9924,"ĠÐ¾ÑĢÑĥÐ¶Ð¸Ñı":9925,"ĠÐºÐ¾Ð½ÑĨÐµÑĢ":9926,"pple":9927,"MA":9928,"Ð°Ð½Ð°Ð»Ð¸":9929,"ÑĢÐµÐ½Ð°":9930,"ĠÐ¿ÑĢÑĥÐ¶Ð¸":9931,"ÑĩÐ½ÐµÐ²":9932,"ĠÐ¾Ð¼":9933,"Ð»Ð°Ð´Ñĭ":9934,"Ð»ÐµÐ²Ð°":9935,"ĠÐ¾ÑĤÑĨÐ°":9936,"ĠÐŁÑĢÑı":9937,"ĠÐĴÐ¾Ñģ":9938,"ĠÐ¡Ðĺ":9939,"ĠÐ¡ÐµÐ½ÑĤ":9940,"ĠÐ¡Ð´ÐµÐ»Ð°":9941,"ÑĩÐ°Ð½":9942,"ĠÐļÐŁ":9943,"ÑģÐ¿Ð°":9944,"ĠÐłÐķ":9945,"ĠÐĲÐŀ":9946,"ĠÐ²Ð¾Ð·Ð¼Ðµ":9947,"ÐºÐ¾Ð¼Ð¿Ð»ÐµÐºÑĤ":9948,"ÑĤÐ¸Ð²Ð½ÑĥÑİ":9949,"ÐĳÐµÐ»":9950,"ÐĵÐ¾ÑĢÐ¾Ð´":9951,"ĠÐĹÐ°ÑīÐ¸":9952,"ĠÐĹÐ°Ð¿Ð°Ð´":9953,"ĠÐ¿Ð¾Ð¿Ð¾Ð»":9954,"ÑħÐ¸Ðµ":9955,"ĠÐĿÐ¾ÑıÐ±ÑĢÑĮ":9956,"uss":9957,"ĠÐ¿Ð¾Ð¿Ð°ÑģÑĤÑĮ":9958,"ĠÐ³ÑĢÑĥÐ·Ð¾Ð²":9959,"ĠÐ´ÑĢÑĥÐ³Ð°Ñı":9960,"ĠÐ°Ð³ÐµÐ½ÑĤÑģÑĤÐ²Ð¾":9961,"ĠÑģÐ¿ÑĢÐ°Ð²ÐµÐ´":9962,"ÑĤÐµÑħÐ½Ð¸ÐºÐ°":9963,"ĠÑģÑĤÐ°ÑĤÐ¸ÑģÑĤÐ¸":9964,"ĠÐĺÑĤÐ°Ð»Ð¸Ð¸":9965,"son":9966,"ÑģÎº":9967,"ÑĢÐ½Ð¾Ð¹":9968,"Ð²Ð¾ÐºÐ°":9969,"Ð´Ð¾Ð¹":9970,"Ð´ÐºÐ°":9971,"ÑĩÐµÐ½Ð¸":9972,"ĠÐ¾ÑĩÐºÐ¸":9973,"ĠÐºÐ½Ñı":9974,"ĠÐ´Ð¾Ð¶":9975,"ĠÐ±ÑĢÐ°ÑĤ":9976,"ĠÐ¾ÑĤÐºÐ°Ð·ÑĭÐ²Ð°":9977,"ĠÐ¿ÑĢÐ¸ÑĪÐ»Ð°":9978,"ĠÐĿÐµÐ²":9979,"Ð¸Ð·Ð¼Ð°":9980,"ÑĪÐ°ÐµÐ¼":9981,"ĠÑģÐµÐ³":9982,"ĠÐ´Ð¸ÑģÑĤÐ°Ð½":9983,"ÐºÐ¾Ð½Ð¾Ð¼":9984,"ÐĹÐ½Ð°":9985,"ÑģÑĤÑĢÐ°Ñħ":9986,"ĠÐ¿Ð¾Ð¿Ñĥ":9987,"ĠÐ²Ð¸Ð´ÐµÐ»":9988,"ÐŃÐ¡":9989,"ĠÑĤÐµÐ»ÐµÐ²Ð¸Ð´":9990,"ĠÐ´Ð¾Ð±ÑĢÐ¾Ð²":9991,"ĠÐ¿ÑĢÐµÐ´Ð¾ÑģÑĤÐ°Ð²Ð¸ÑĤÑĮ":9992,"ĠÑģÑĤÐ¸Ð¼ÑĥÐ»Ð¸":9993,"ĠÑģÐ¾ÑĤÐ½Ð¸":9994,"ĠÐºÑĢÐµÐ´Ð¸ÑĤÐ°":9995,"ĠÑĩÑĥÐ²ÑģÑĤÐ²Ð¾":9996,"ĠÐ¿Ð¾Ð»Ð¸ÑĤÐ¸ÐºÐ°":9997,"ĠÐ½ÐµÐ±Ð¾Ð»ÑĮÑĪÐ¸Ðµ":9998,"ĠÐ½ÐµÑĦÑĤÑı":9999,"ĠÐ¿ÑĥÐ½ÐºÑĤÐ¾Ð²":10000,"ĠÐļÐ¾Ð¼Ð¿ÑĮÑİ":10001,"ĠÑĢÐ°Ð´Ð¸Ð°ÑĤÐ¾ÑĢÐ°":10002,"ĠÑħÐ»Ð¾Ð¿Ð¾Ðº":10003,"ĠÐ¼Ð°ÑģÑĪÑĤÐ°Ð±":10004,"ĠÐ»Ð¾Ð³Ð¾ÑĤÐ¸":10005,"ĠÑĢÐ°ÑģÑĤÐ²Ð¾ÑĢÐ°":10006,"97":10007,"ain":10008,"ÑĤÑĢÐ¾Ð¿":10009,"ÑĢÐ¾Ð»":10010,"ÑĥÑģÐ°":10011,"ĠÐ¿ÑĥÐ»ÑĮ":10012,"ÑģÑĤÐ½ÑĭÑħ":10013,"ĠÑģÐºÐ°Ð½":10014,"Ð¿Ð¾Ðº":10015,"ĠÐ½Ð°Ð¶Ð¼Ð¸ÑĤÐµ":10016,"ĠÐ·Ð¾Ð½Ð°":10017,"ĠÐ¿Ð¾ÑģÑĤÑĥÐ¿":10018,"Ð»ÐµÐ´ÑĥÐµÑĤ":10019,"Ð´ÐµÐºÐ²Ð°":10020,"ĠÐ²ÑĭÑĪÐµÐ»":10021,"ĠÐ¿Ð¾Ð´ÑĩÐ¸":10022,"Ð¡ÐµÐ¹ÑĩÐ°Ñģ":10023,"ĠÐĺÑģ":10024,"ĠÑħÐ¾Ð´Ñĥ":10025,"Ð·Ð¸Ð´ÐµÐ½":10026,"ĠÐĵÐļ":10027,"ĠÐ¾ÑģÐ¼Ð¾ÑĤ":10028,"ÐºÐ¾Ð¼Ð½Ð°ÑĤ":10029,"ĠÐ¤Ð¡":10030,"ÐĳÐµÐ·":10031,"Ð³ÑĥÑģÑĤ":10032,"ÑĪÐµÐ½Ð½ÑĭÐµ":10033,"ĠÑĦÐ¸Ð»ÑĮÐ¼Ð¾Ð²":10034,"Ġcom":10035,"ĠÐ¸Ð·Ð¼ÐµÐ½ÐµÐ½Ð¸Ðµ":10036,"Ð¾Ð»Ð½ÐµÐ½Ð¸Ðµ":10037,"ĠÐ¼ÐµÑĤÐ°Ð»Ð»":10038,"ĠÐ¿Ð¾Ð´ÑĤÐ²ÐµÑĢÐ¶Ð´ÐµÐ½Ð¸Ñı":10039,"ĠÐ¾Ð³ÑĢÐ¾Ð¼Ð½ÑĭÐ¹":10040,"ĠÐ¿Ð¾ÐºÑĥÐ¿Ð°ÑĤÑĮ":10041,"ĠÐ¼Ð°Ð»ÐµÐ½ÑĮÐºÐ¸Ñħ":10042,"ĠÐºÐ°Ð¿Ð¸ÑĤÐ°Ð»Ð°":10043,"ĠÐ¿ÑĢÐµÐ´Ð¼ÐµÑĤÑĭ":10044,"Ð¾Ð¿ÑĢÐ¾ÑģÑĭ":10045,"ĠÑĢÑĥÐºÐ¾Ð²Ð¾Ð´Ð¸ÑĤÐµÐ»ÑĮ":10046,"ĠÐºÐ°Ð¼Ð½Ñı":10047,"ĠÐ¿ÑĢÐ¸ÑģÐ¾ÐµÐ´Ð¸":10048,"ĠÑĥÐ²ÐµÐ»Ð¸ÑĩÐµÐ½Ð¸Ðµ":10049,"ÐĿÐ«ÐĻ":10050,"ĠÐ¿ÐµÑĤÐ»Ð¸":10051,"ĠÐ¸Ð·Ð¼ÐµÑĢÐµÐ½Ð¸Ñı":10052,"ĠÑĪÐ°Ð½Ñģ":10053,"ĠÑģÐµÐºÑĥÐ½Ð´":10054,"ĠÐ±Ð¸ÑĢÐ¶Ðµ":10055,"ĠÐ¡Ð¸ÑģÑĤÐµÐ¼Ð°":10056,"fi":10057,"ÑĢÐ½ÑĭÐ¹":10058,"ĠÐ²Ð¾ÑĢ":10059,"Ð¾Ð´Ð¾Ð¼":10060,"Ð¾Ð³ÑĢÐµ":10061,"ÑĢÐ¸Ð´Ð¸":10062,"ĠÑĤÐ¾Ðº":10063,"ĠÑĤÐ²Ð¾Ð¸":10064,"ĠÐ¾Ð±Ð¼ÐµÐ½Ð°":10065,"ĠÐļÐ¾ÑĢÐµ":10066,"ĠÐ¿ÑĢÐ¾ÑĩÐ¸Ñħ":10067,"ĠÐŀÐ¡":10068,"Ð¡Ð¾Ð³Ð»Ð°ÑģÐ½Ð¾":10069,"ÐĴÑĤ":10070,"ĠÐ²Ð°Ð»Ñİ":10071,"ĠÐ²ÐµÑī":10072,"ĠÐ¿Ð°Ð»Ð°ÑĤ":10073,"ĠÑģÐ»ÑĥÑĪÐ°ÑĤÑĮ":10074,"ĠÐ¿Ð»Ð°ÑĤÐ¸ÑĤÑĮ":10075,"ĠÐ°ÐºÑģÐµÑģÑģÑĥÐ°":10076,"ÑģÑĤÐ°Ð²Ð»ÑıÑİÑĤÑģÑı":10077,"ĠÑįÐºÐ·ÐµÐ¼":10078,"ĠÑģÑĢÐµÐ´Ð½Ðµ":10079,"ĠÐ¸ÑģÐ¿Ð¾Ð»ÑĮÐ·Ð¾Ð²Ð°ÑĤÑĮÑģÑı":10080,"ĠPr":10081,"ĠÑħÐ¾ÑĢÐ¾ÑĪÐµÐ¹":10082,"ĠÑģÐ¿Ð¾ÑģÐ¾Ð±Ð½Ð¾ÑģÑĤÐ¸":10083,"ĠÐ¾ÑĤÐºÑĢÑĭÑĤÑĭÑħ":10084,"ĠÑĤÑĢÐµÐ±ÑĥÑİÑĤ":10085,"ĠÑĥÑĢÐ¾Ð²Ð½ÐµÐ¹":10086,"ĠÐ¢ÐµÑħÐ½Ð¸":10087,"ĠÑĥÐ³ÑĢ":10088,"ĠÑĢÑĥÑģÑģÐºÐ¸Ðµ":10089,"ĠÐ¿Ð»Ð¾ÑīÐ°Ð´ÐºÐ¸":10090,"ĠÐ²Ð¼ÐµÑĪÐ°":10091,"ĠÐ²Ð¾Ð¹ÑģÐº":10092,"ĠÐ»ÑĥÑĩÑĪÐµÐµ":10093,"Ð²Ð°ÑİÑīÐµÐ³Ð¾":10094,"ĠÐºÑĢÐ°ÑģÐ¸Ð²Ð¾":10095,"Ð³Ð°Ð½ÑĤ":10096,"ĠÑģÐ½Ð°ÑĢÑı":10097,"ĠÑĢÐµÑģÑĥÑĢÑģ":10098,"Ð»Ð¸Ð¹ÑģÐºÐ¸Ð¹":10099,"ews":10100,"ĠÑĢÐµÑĨÐµÐ¿ÑĤÑĭ":10101,"ĠÐ¿Ð°ÑĢÐ°Ð¼ÐµÑĤÑĢÑĭ":10102,"ĠÐ¾ÐºÑĢÑĥÐ¶Ð°ÑİÑīÐµÐ¹":10103,"________________":10104,"ÑģÐ»ÑĥÐ¶Ð±Ð°":10105,"ĠÐ±ÐµÐ½Ð·Ð¸":10106,"ĠÐĴÐ¾Ð»Ð³Ð¾Ð³ÑĢÐ°Ð´":10107,"ek":10108,"ÑĥÐ¼Ñĭ":10109,"ĠÐ²ÐµÐ·Ð´Ðµ":10110,"ĠÐ¸ÑģÑĤÐµ":10111,"ĠÐ¸Ð´ÐµÐ¹":10112,"ÑĪÐ½ÑĭÐµ":10113,"ĠÐ½Ð°ÐºÐ»Ð°Ð´":10114,"ĠÐ¿Ð¾ÑıÐ²Ð»ÐµÐ½Ð¸Ñı":10115,"ĠÐ¾Ð±Ð¸ÑĤÐ°":10116,"ĠÐ¿ÑĢÐ¸ÑģÐ¿Ð¾ÑģÐ¾Ð±":10117,"ĠÐ²ÑĭÐ¹ÑĤÐ¸":10118,"ĠÐļÑĢÐµ":10119,"ĠÑĢÐµÐ´Ñĥ":10120,"ĠÑĤÐ°Ð¼Ð¾Ð¶":10121,"ĠÐĲÑģÑģ":10122,"ĠÐĵÐĺ":10123,"ĠÐĵÐ»Ð°Ð²Ð°":10124,"ĠÐ½Ð¾Ð²Ð¸Ð½ÐºÐ¸":10125,"ĠÐ»ÐµÑģÑĤ":10126,"ÑĢÐ°Ð¶ÐµÐ½Ð¸Ñı":10127,"ĠÐ´Ð¾Ð»Ð¶Ð½Ð¾ÑģÑĤÑĮ":10128,"ĠÐ·Ð°ÑīÐ¸ÑĤÐ°":10129,"ĠÑĥÐ´Ð¾Ð±ÑģÑĤÐ²Ð°":10130,"ĠÐ¿ÑĢÐ¾Ð¼Ñĭ":10131,"ĠÑģÐ¾ÑĨÐ¸Ð°Ð»ÑĮÐ½Ð¾Ð³Ð¾":10132,"ĠÐ¶ÑĥÑĢÐ½Ð°Ð»":10133,"ĠÐŁÐµÑĤÑĢÐ¾Ð²":10134,"ĠÐ·Ð°ÐºÐ»ÑİÑĩÐµÐ½Ð¸Ðµ":10135,"ĠÑģÐ¸Ð³Ð½Ð°Ð»Ð°":10136,"ÑĥÐ¼ÐµÐµÑĤÑģÑı":10137,"ĠÐ¿ÑĢÐ¾Ð¶Ð¸Ð²Ð°Ð½Ð¸Ñı":10138,"ĠÐ²Ð·ÑıÐ»":10139,"ĠÐ²Ð½Ð¸Ð·":10140,"86":10141,"ron":10142,"ÑıÑİÑĤ":10143,"ĠÑģÐµÑĤÐµ":10144,"ĠÐ½Ñİ":10145,"Ð¿Ð»Ñİ":10146,"ÑĨÐºÐµ":10147,"Ð¾ÑĤÐ¾Ð²Ð°":10148,"Ð»ÑıÐ¼":10149,"ĠÐ·Ð°Ð±Ð°":10150,"ĠÐ·Ð°Ð¼ÐµÐ½Ð¸ÑĤÑĮ":10151,"ĠÐĴÐ°ÑĢ":10152,"Ð²Ð¸ÑĩÐ°":10153,"ĠÐļÑĥÐ»ÑĮ":10154,"âĢľ":10155,"ÑīÐ¸Ð½":10156,"ĠÐ¿Ð¾Ð´ÑħÐ¾Ð´ÑıÑĤ":10157,"ĠÑĢÐ°Ð·Ð½ÑĭÐ¼Ð¸":10158,"Ð³Ð¸Ð¿":10159,"ĠÐ¸Ð½ÑĦÐ¾ÑĢÐ¼Ð¸":10160,"ĠÐ»Ð¸ÑģÑĤÑĮ":10161,"ĠÑģÑĤÐ°ÑĢÑĤ":10162,"ĠÐ¾ÑģÐ¾Ð·Ð½Ð°":10163,"ĠÐ²ÐµÑĩÐµ":10164,"ĠÐ½Ð¾ÑĩÑĮÑİ":10165,"ĠÐ¾Ð´Ð½Ð¸":10166,"ĠÐ¿Ð°ÑĤÑĢÐ¸":10167,"ÑĢÐ°ÐºÑĤÐ°":10168,"ĠÐºÐ°ÑĢÐºÐ°":10169,"ĠÑģÑĢÐµÐ´Ñĥ":10170,"ĠÐ¾ÑģÐ½Ð¾Ð²Ð½ÑĭÐ¼":10171,"Ð»Ð¸ÑĩÐ¸Ðµ":10172,"ĠÐ¸Ð½ÑĤÐµÐ³ÑĢÐ°":10173,"ĠÐ¿Ð¾ÑĩÑĤÐµ":10174,"ĠÐ³Ð¾Ð»Ð¾Ð²Ð¾Ð¹":10175,"roup":10176,"ĠÐ¾ÑģÑĤÐ°Ð»Ð¸ÑģÑĮ":10177,"ĠÑģÐ¾ÑģÑĤÐ¾ÑıÐ»Ð¾ÑģÑĮ":10178,"ĠÐ²Ð½Ð¸Ð¼Ð°ÑĤÐµÐ»ÑĮÐ½Ð¾":10179,"ĠÑģÐ¿ÐµÑĨÐ¸Ð°Ð»ÑĮÐ½Ð¾Ð³Ð¾":10180,"ÑĩÐ°ÑĤÐºÐ¸":10181,"ĠÐ¸Ð³ÑĢÐ¾Ð²ÑĭÑħ":10182,"ĠÐºÑĢÐ¾Ð²Ð»Ð¸":10183,"ĠÐ´Ð²Ð¸Ð³Ð°ÑĤÐµÐ»ÑĮ":10184,"ĠÐ¡ÑĥÑīÐµÑģÑĤÐ²":10185,"ĠÐ¾ÑĤÐ»Ð¸ÑĩÐ½ÑĭÐ¹":10186,"ĠÐ½Ð°Ð¿Ð¸ÑģÐ°Ð»":10187,"ĠÐ¿ÑĢÐµÐ¸Ð¼ÑĥÑīÐµÑģÑĤÐ²":10188,"ĠÑĢÐµÑĨÐµÐ¿ÑĤ":10189,"ĠÐ¼Ð°Ð»ÑĭÑĪÐ°":10190,"Ð¾ÑīÑĮ":10191,"ĠÐ¤ÑĢÐ°Ð½ÑĨÐ¸Ð¸":10192,"ĠÑģÐ¿Ð¾ÐºÐ¾Ð¹Ð½Ð¾":10193,"ĠÐ¿Ð¾Ð´ÑĪÐ¸Ð¿Ð½Ð¸ÐºÐ¾Ð²":10194,"ĠÐĲÐ²ÑĤÐ¾Ð½Ð¾Ð¼Ð½Ð¾Ð¹":10195,"Ġ..":10196,"Ð¾ÑģÑĤÐµ":10197,"Ð»Ñĳ":10198,"ÑĩÐ½Ð¾Ð¼Ñĥ":10199,"ĠÑģÐ½Ð¸Ð¼":10200,"ĠÐ´Ð°Ð¹":10201,"ĠÐ¼Ð¾ÑĢÐ°":10202,"Ð¾Ð³ÑĢÐµÐ²Ð°":10203,"ĠÐ·Ð°ÑĤÐ¾":10204,"ÑģÑĤÐ°ÑĢ":10205,"ĠÐĴÑĢÐµÐ¼Ñı":10206,"ĠÑĦÐ¾Ð½Ð°":10207,"ĠÐĿÑĮÑİ":10208,"Ð¼ÐµÐ´":10209,"ĠÐĲÑĥÐ´Ð¸":10210,"Ð½ÑıÑĤ":10211,"ĠÑģÐ¿Ð¾ÑģÐ¾Ð±Ñĭ":10212,"ĠÐ¾ÑģÐ»Ð°Ð±":10213,"ĠÐ½Ð¾ÑĩÐ¸":10214,"ĠÐ¿ÐµÑĢÐµÐ¿Ð¸":10215,"ĠÐĿÐ°ÑĩÐ°":10216,"ĠÐ¶Ð¸Ð»ÑĮÑı":10217,"ĠÐ¿Ð¾ÑĤÑĢÐ°":10218,"Ð¸ÑģÑģÐ°":10219,"125":10220,"ĠÐ´ÐµÐ»Ð°ÐµÑĤÑģÑı":10221,"ÐµÐ½ÐµÑĨ":10222,"ĠÐĴÑģÐµÐ³Ð¾":10223,"ĠÑĢÐ¸ÑģÐºÐ°":10224,"ĠÐ¼Ð°Ð³Ð°Ð·Ð¸Ð½Ð°Ñħ":10225,"ĠÐ¿Ð¾ÐºÐ°Ð·Ð°ÑĤÐµÐ»ÑĮ":10226,"ĠÑĪÐ°Ð³":10227,"ĠÑģÐ¿Ð°ÑģÐ°":10228,"ĠÐ¿ÑĢÐ¸Ð½ÑıÑĤÐ¸Ñı":10229,"ĠÐĶÐ¸Ð°":10230,"ĠÐ¿Ð¾Ð´Ð¾Ð±Ð½ÑĭÐµ":10231,"ĠÐ¿Ð¾Ð¶Ð°ÑĢÐ°":10232,"ĠÐĵÐ°ÑĢÐ°Ð½":10233,"ĠÐ¾Ð±ÑĬÐµÐ¼Ðµ":10234,"ĠÐºÐ¾Ð¼Ð½Ð°ÑĤÑĥ":10235,"ĠÐ¿ÑĢÐ¸Ð³Ð¾ÑĤÐ¾Ð²Ð¸ÑĤÑĮ":10236,"ĠÐ¿ÑĢÐµÐ´Ð¾ÑģÑĤÐ°Ð²Ð»ÑıÐµÑĤÑģÑı":10237,"ĠÑģÐ²Ð¾Ð¹ÑģÑĤÐ²Ð°Ð¼Ð¸":10238,"ĠÐ¼ÐµÑĤÐ¾Ð´Ð¾Ð¼":10239,"ĠÑĥÑĩÐµÐ½ÑĭÐµ":10240,"ĠÐ±ÐµÑģÐºÐ¾Ð½Ðµ":10241,"ĠÐŀÐ»ÑĮÐ³Ð°":10242,"ĠÐºÐ¾Ð»Ð¾Ð½Ð¸Ð¸":10243,"Ð¡Ð¿Ð°ÑģÐ¸Ð±Ð¾":10244,"ĠÐłÐ°Ð´Ð¸Ð°ÑĤÐ¾ÑĢ":10245,"oot":10246,"Ð¾ÑĩÐ°":10247,"ÐµÑģÑı":10248,"Ð´ÑıÑĤ":10249,"ÑĢÐ°ÑĪÐ¸":10250,"ÑİÐº":10251,"ÑĤÐµÐ°ÑĤ":10252,"ÑĪÐ½Ñı":10253,"Ð»Ð¸Ð·Ð°ÑĨÐ¸Ð¸":10254,"Ð¾ÑĤÐ²Ð¾ÑĢ":10255,"ĠÑĢÐµÐºÐ¾ÑĢ":10256,"ĠÐ¸Ð·Ð»Ð¾Ð¶":10257,"ĠÐľÐ¾Ð¹":10258,"Ð°Ð½Ð´Ð°":10259,"ĠÑĢÐ°Ð·Ð±Ð¸ÑĢÐ°":10260,"ĠÐĲÐ¹":10261,"ÐĿÐµÑĤ":10262,"ĠÐ»Ð¸ÑģÑĤ":10263,"ĠÑģÐ¸Ð»Ð°":10264,"ĠÐ²Ð°ÑĪÐ¸Ð¼":10265,"ĠÐ¿ÑĢÐµÐ¿Ð°ÑĢÐ°ÑĤ":10266,"ĠÐ·Ð½Ð°Ð»":10267,"ĠÐ¿ÑĢÐ¾Ð²ÐµÐ»Ð¸":10268,"ĠÐ°ÑĢÐ¼Ð°":10269,"ĠÐĸÐµÐ»Ð°":10270,"ĠÑįÐºÑģÐ¿ÐµÑĢÑĤ":10271,"ĠÑĪÐ°Ñħ":10272,"ĠÑĥÑĩÐ¸Ð»Ð¸":10273,"ÐĿÐĺÐķ":10274,"ĠÑģÐ¾Ð´ÐµÑĢÐ¶Ð°Ð½Ð¸Ñı":10275,"ĠÑĤÑĢÐ°Ð½ÑģÐ¿Ð¾ÑĢÑĤÐ¸":10276,"ĠÐ¿ÑĢÐ¸Ð·Ð½Ð°ÐºÐ¸":10277,"ĠÐ¼ÐµÐ¶Ð´ÑĥÐ½Ð°ÑĢÐ¾Ð´Ð½ÑĭÑħ":10278,"ĠÐŁÑĢÐ¾Ð³ÑĢÐ°Ð¼":10279,"ĠÑĥÐ²ÐµÑĢÐµÐ½Ñĭ":10280,"ĠÐ¿Ð¾ÑĢÑĤÐ°Ð»Ðµ":10281,"ĠÐ¿Ð»Ð¾Ð´Ð¾Ð²":10282,"ĠÐ²Ð°ÐºÐ°Ð½ÑģÐ¸Ð¹":10283,"ĠÑĢÑĥÐºÐ¾Ð²Ð¾Ð´ÑģÑĤÐ²Ð¾":10284,"ĠÑĥÑģÐ¸Ð»Ð¸Ñı":10285,"ĠÐ²ÑĭÑģÑĤÐ°Ð²ÐºÐ¸":10286,"ĠÐ²Ð¾Ð·Ð´ÑĥÑĪÐ½Ð¾Ð³Ð¾":10287,"Ð²ÑģÐµÐ³Ð´Ð°":10288,"ĠÐ°ÑĢÑħÐ¸ÑĤÐµÐºÑĤÑĥÑĢ":10289,"ĠÐºÐ°Ð´ÑĢÐ¾Ð²":10290,"ĠÐºÐ¾Ð½ÑĦÐµÑĢÐµÐ½ÑĨÐ¸Ð¸":10291,"ĠÐ¿Ð»Ð°Ð½ÐµÑĤÑĭ":10292,"ÐľÐ¾ÑģÐºÐ²Ð°":10293,"ÑģÐµÑĤ":10294,"ĠÐ²Ð²ÐµÑģÑĤÐ¸":10295,"ĠÐ²Ð²ÐµÑĢÑħ":10296,"ÑĢÐµÐ»Ð°":10297,"ÑģÐºÐ¾ÑħÐ¾Ð·ÑıÐ¹":10298,"ĠÐ¿Ð¾ÐµÐ·":10299,"Ð¾Ð±Ð±Ð¸":10300,"ĠÐ»ÑĳÐ³":10301,"ĠÐ¾Ð±ÑĥÑģÐ»Ð¾Ð²":10302,"ÑīÐ¸ÐºÐ¾Ð¼":10303,"ĠÐ¿Ð¾Ð´Ð¾Ð¹":10304,"ĠÐŀÑħÐ¾ÑĤ":10305,"ĠÐ¼Ð°ÑģÐºÐ¸":10306,"ĠÐĲÐ·Ð¸Ð¸":10307,"ÑģÑĤÐ¾ÑĩÐ½Ð¾Ð¹":10308,"ĠÐ´Ð°ÑģÑĤ":10309,"ÐĵÐ°Ð·":10310,"ĠÐ¿Ð¸ÑīÐ¸":10311,"Ð¾Ð»Ð¾Ð³Ð¸ÑĩÐµÑģÐºÐ¸Ð¹":10312,"ĠÐĴÑĭÐ±Ð¾ÑĢ":10313,"ĠÐļÐ°Ð½Ð°":10314,"Ð¾Ð±ÑħÐ¾Ð´Ð¸Ð¼Ð¾":10315,"ĠÐ²ÑĭÑģÐ¾ÑĤÐµ":10316,"ÐŃÑĤÐ°":10317,"ĠÑįÐºÐ¾Ð½Ð¾Ð¼Ð¸ÑĩÐµÑģÐºÐ¾Ð¹":10318,"Ð»Ð¸Ð²ÑĭÐ¹":10319,"Ð·ÐµÐ»ÐµÐ½":10320,"ĠÐ½ÐµÑĦÑĤÑĮ":10321,"ĠÐ±ÑĢÐ¸ÑĤÐ°Ð½":10322,"ĠÐ²Ð¾Ð·Ð´ÐµÐ¹ÑģÑĤÐ²Ð¸Ðµ":10323,"ĠÐŁÑĢÐ°Ð²Ð¸Ð»Ð°":10324,"ĠÐ¿ÑĢÐµÐ¿Ð°ÑĢÐ°ÑĤÑĭ":10325,"ĠÑģÐ»ÐµÐ´ÑĥÑİÑīÐµÐ¼":10326,"ĠÐ´Ð¸Ð°Ð¼ÐµÑĤÑĢ":10327,"ĠÐ»Ð°Ð¼Ð¿Ñĭ":10328,"ĠÑįÐºÑģÐ¿ÐµÑĢÑĤÐ¸":10329,"ĠÐ·Ð°ÑĤÑĢÑĥÐ´":10330,"ĠÐļÐ¸ÑĤÐ°Ñı":10331,"ĠÐ¸ÑģÐ¿Ð¾Ð»Ð½ÐµÐ½Ð¸Ðµ":10332,"ĠÐºÐ¾Ð¼Ð¿ÐµÐ½ÑģÐ°":10333,"mp":10334,"sc":10335,"ÑĥÐºÐ°":10336,"ĠÑģÐ¾ÑĢÑĤÐ°":10337,"Ð·Ð¼Ñĭ":10338,"ĠÐ¼Ð»Ð°Ð´":10339,"ĠÐ±Ð»Ñİ":10340,"ÑĤÐ¸ÑĩÐµÑģÐºÐ¾Ð³Ð¾":10341,"Ð¾Ð±Ð¾Ð¹":10342,"ĠÐ¾ÑĤÐ¾Ð¿Ð»ÐµÐ½Ð¸Ñı":10343,"Ð´ÐµÑĪÑĮ":10344,"ĠÐŁÐļ":10345,"ĠÐĴÑģÑı":10346,"ĠÐ²ÑĭÐ¹":10347,"Ð¾Ð¿Ð¾Ð»Ð¸":10348,"ĠÐ¿ÑĢÐ¾ÑĤ":10349,"ĠÐ¸Ð·Ñĭ":10350,"ĠÑģÑĤÑĢÐ¸":10351,"ĠÑģÑĤÐµÑĢ":10352,"ĠÑĤÐµÑĩÐµÐ½Ð¸Ð¸":10353,"ĠÐĲÐ¿ÑĢÐµ":10354,"Ð¾Ð´Ð¸ÑĤÐµÐ»ÑĮ":10355,"Ð°Ð»ÑĮÐ½Ð¾Ð¼":10356,"ĠÐ¾Ð¿ÑĢÐ¾":10357,"ĠÐ¾Ð¿ÑĥÑħ":10358,"ĠÐ²ÐµÑģÐ°":10359,"Ð±Ð°ÑĢÐ¸":10360,"ĠÐ¿Ð°ÑģÐ¿Ð¾ÑĢÑĤ":10361,"ÐºÐ»Ð°ÑģÑģ":10362,"ÑĪÐµÐ½Ð½ÑĭÐ¹":10363,"ĠÐĺÐ½ÑĦÐ¾ÑĢÐ¼Ð°":10364,"ĠÑİÐ±Ð¸":10365,"Ð³Ð¾ÑĢÐ¾Ð´Ðµ":10366,"ĠÑĢÐ°Ð·Ð¼ÐµÑīÐµÐ½Ð¸Ðµ":10367,"Ð»Ð¾Ð½Ð´Ð¸Ð½":10368,"ĠÐ¾ÐºÐ°Ð·Ð°Ð½Ð¸Ðµ":10369,"old":10370,"Ð½Ð¾Ð²Ð¸Ñĩ":10371,"ĠÑĤÐ¾ÑĢÐ³Ð¾Ð²ÑĭÑħ":10372,"ĠÑģÐ¾Ð¿ÑĢÐ¾ÑĤÐ¸Ð²":10373,"ĠÑĤÑĢÑĳÑħ":10374,"ĠÐ¿Ð»Ð°ÑģÑĤÐ¸Ðº":10375,"ĠÐŁÑĥÑĤÐ¸Ð½":10376,"ĠÐ½Ð¸ÐºÐ°ÐºÐ¾Ð¹":10377,"ĠÑĥÑĩÑĢÐµÐ¶Ð´ÐµÐ½Ð¸Ðµ":10378,"ĠÐ¿Ð¾ÑĤÑĢÐµÐ±ÑĥÐµÑĤÑģÑı":10379,"ĠÐ¿Ð¾ÑģÐµÑĤÐ¸ÑĤÑĮ":10380,"ĠÑħÐ¾ÑĤÐµÐ»Ð¸":10381,"ĠÑĥÐ²ÐµÐ»Ð¸ÑĩÐµÐ½Ð¸Ñı":10382,"ĠÑĢÐµÐºÐ»Ð°Ð¼Ð½ÑĭÑħ":10383,"ÑģÑĤÑıÐ¼Ð¸":10384,"ÐµÐ½Ð½Ð¾ÑģÑĤÑĮ":10385,"Ð·Ð¾ÑĢÑĭ":10386,"Ð½Ð¸ÑĤÐµÐ»ÑĮ":10387,"Ð½Ð¸ÑĤÑģÑı":10388,"Ð»Ð¸Ð·Ð°":10389,"ÑĤÐ¸ÑĢÐ¾Ð²Ð°Ð½Ð¸Ñı":10390,"ĠÐ³Ð¸ÑĤÐ°":10391,"ĠÑįÐ»Ð°ÑģÑĤÐ¸":10392,"ÑģÑĤÐ¸ÑĤÐµ":10393,"ĠÐļÐ¾Ð´":10394,"ĠÑĢÐµÐ³Ð»Ð°":10395,"ĠÐľÐ¾Ð´ÐµÐ»ÑĮ":10396,"ĠÐ¿Ð¾Ð´ÑĢÐ°Ð·ÑĥÐ¼Ðµ":10397,"ÑĢÑĭÐ·":10398,"ĠÐŀÑĦÐ¸ÑĨÐ¸Ð°Ð»ÑĮ":10399,"ÐºÐ¾Ð²Ð¾Ðµ":10400,"ÑĢÐ°Ð²Ð½Ð¸":10401,"ÑĨÐµÐ²Ð°":10402,"ĠÐĵÐ¾Ð²":10403,"ÑħÐ¾Ð´Ñĭ":10404,"ĠÐĹÐ°ÐºÐ°Ð¶Ð¸ÑĤÐµ":10405,"ÐĹÐ´ÐµÑģÑĮ":10406,"ĠÑģÐ°Ð¹ÑĤÑĭ":10407,"ĠÐºÑĢÐ°Ðµ":10408,"ĠMic":10409,"ĠÐºÐ¾Ð»Ð»ÐµÐ´":10410,"ĠIII":10411,"ĠÐ²ÑĭÑģÐ¾ÐºÐ¸Ñħ":10412,"ith":10413,"eline":10414,"ĠÐ¾ÑĤÐ´ÐµÐ»ÑĮÐ½ÑĭÐµ":10415,"ĠÑĤÑĥÐ°Ð»":10416,"ĠÐºÑĥÑĢÑĮÐµÑĢ":10417,"ĠÐ¢Ð°ÐºÐ°Ñı":10418,"ĠÐ°Ð½ÑĤÐµÐ½":10419,"ÑĳÐ½Ð½ÑĭÑħ":10420,"Ð³Ð¾ÑĢÐ¸ÑĤ":10421,"ĠÐ±ÐµÑĢÐµÐ³Ñĥ":10422,"ĠÐºÑĢÐ°ÑģÐ¸Ð²ÑĭÐµ":10423,"ĠÑģÐ»ÐµÐ´ÑĥÑİÑīÐ¸Ð¼":10424,"ĠÐºÐ¾Ð»ÐµÑģÐ°":10425,"ĠÐľÐ°ÐºÐµÑĤÐ°":10426,"ĠÐ½ÐµÐ´ÐµÐ»Ðµ":10427,"ĠÐ¿Ð¾ÑģÑĤÐ°Ð²ÐºÐ¸":10428,"ĠÐºÑĢÐµÐ¿Ð»ÐµÐ½Ð¸Ñı":10429,"ĠÐ°Ð´ÑĢÐµÑģÐ°":10430,"ĠÑĥÑĤÑĢÐ¾Ð¼":10431,"ĠÐ¡Ð¿ÐµÑĨÐ¸Ð°Ð»Ð¸":10432,"ĠÐºÐ²Ð°Ð»Ð¸ÑĦÐ¸ÐºÐ°ÑĨÐ¸Ð¸":10433,"ĠÐºÐ°Ð±Ð¸Ð½ÐµÑĤ":10434,"ĠÑħÐ¾Ð´Ð¸ÑĤÑĮ":10435,"ĠÐ¯Ð¿Ð¾Ð½Ð¸Ð¸":10436,"ĠÐ°ÑģÑĦÐ°Ð»ÑĮ":10437,"5000":10438,"ear":10439,"ier":10440,"man":10441,"Ð½ÑĮÑİ":10442,"ĠÐ²ÑĢÑıÐ´":10443,"ÑĢÐ°ÑģÑĤ":10444,"ÑĨÐµÑĢ":10445,"Ð»Ð°ÑĤÑĮ":10446,"ĠÐ·Ð°Ð¼ÐµÐ½Ð°":10447,"Ð½ÐµÐ·":10448,"Ð¾Ð¿Ð¸Ñģ":10449,"ĠÐŀÐ±Ð¾ÑĢ":10450,"ĠÐ±ÑĭÑģÑĤÑĢ":10451,"ĠÐ²Ð¸ÑĢÑĥ":10452,"ĠÐ¿ÑĢÐµÑģÑĤÑĥÐ¿Ð»ÐµÐ½Ð¸Ñı":10453,"ÐĳÐ¸":10454,"ĠÐ¿ÐµÑĢÐµÐ½Ð¾Ñģ":10455,"ÑģÐ¾Ð²ÑĭÐµ":10456,"ĠÐ¿Ð¾ÑĢÐ¾Ð´":10457,"ÑĨÐ¸Ð¾Ð½Ð½ÑĥÑİ":10458,"Ð³ÑĢÐ°Ð¼":10459,"ĠÐºÐ¾ÑĢÐ¼":10460,"ĠÐ±ÐµÐ»Ð¾Ð³Ð¾":10461,"ĠÐ¿Ð¾Ð»ÑĥÑĩÐ¸Ð»Ð¾ÑģÑĮ":10462,"ical":10463,"ĠÑİÐ²ÐµÐ»Ð¸":10464,"ÑıÐ²Ð¸ÑĤÑĮ":10465,"ĠÑĥÑĩÐ¸ÑĤÐµÐ»Ñı":10466,"ÐºÑĥÑĢÑģ":10467,"ÑĩÐ°ÑģÑĤÐµÐ¹":10468,"ĠÐºÑĢÑĥÐ¿Ð½ÐµÐ¹":10469,"ĠÐ±ÑĥÐ´ÑĥÑīÐµÐµ":10470,"ĠÐµÐ¶ÐµÐ´Ð½ÐµÐ²":10471,"ĠÐŃÐ»ÐµÐºÑĤÑĢÐ¾":10472,"ĠÐ¿Ð¾ÑĤÐ¾Ð»Ð¾Ðº":10473,"ĠÐ¾ÑĪÐ¸Ð±ÐºÐ¸":10474,"ĠÐĶÑĢÑĥÐ³Ð¸Ðµ":10475,"ĠÐĿÐ¸Ð¶Ð½Ð¸Ð¹":10476,"ĠÑĤÑĢÐµÐ½Ð¸ÑĢÐ¾Ð²":10477,"ĠÐ½ÐµÐ·Ð°Ð²Ð¸ÑģÐ¸Ð¼Ð¾":10478,"ĠÐºÐ°ÑĤÐ°Ð»Ð¾Ð³Ðµ":10479,"ĠÐ³Ð°ÑĢÐ¼Ð¾Ð½Ð¸":10480,"Ð´ÑĢÐ¾":10481,"ÐµÐ½ÑģÐº":10482,"Ð·Ð¾Ð²Ð°":10483,"Ð±ÑĢÐµ":10484,"ÑģÐºÐ°Ð½":10485,"ĠÐ±ÐµÑĤ":10486,"ĠÑĥÑģÐº":10487,"ÐµÐ¼ÑĮ":10488,"ĠÐ·Ð°ÑĢÐ°Ð±Ð¾ÑĤÐ°ÑĤÑĮ":10489,"ÑįÐ»":10490,"ÑįÐ´":10491,"ĠÑĤÐ¾ÐºÐ°":10492,"ÑģÑĤÐ²Ð¾Ð²Ð°Ð½Ð¸Ñı":10493,"ĠÑįÑģÑĤÐµÑĤÐ¸":10494,"ĠÐŁÐ¾Ð»ÑĮ":10495,"ĠÐ¡ÐµÐºÑģ":10496,"ÑĩÐ¸Ð½Ñĭ":10497,"Ð·Ð°ÑĤÑĮ":10498,"ĠÐ²ÑĭÑıÐ²":10499,"ĠÐļÐĳ":10500,"ĠÐ¿ÑĢÐ¾ÑģÑĤÐ°":10501,"ĠÑĢÐµÐ¼":10502,"ĠÐľÑĥÑĢ":10503,"ĠÑģÐ¾ÑİÐ·":10504,"ĠÐ´Ð¾ÑħÐ¾Ð´Ð°":10505,"ĠÑģÑĤÐ°Ð½ÑĥÑĤ":10506,"ĠÐ¿Ð¾Ð¼Ð¸Ð¼Ð¾":10507,"Ð¿ÑĢÐ°Ð²Ð»ÐµÐ½Ð¸Ðµ":10508,"ĠÐ»ÐµÑĩÐµÐ½Ð¸Ð¸":10509,"ĠST":10510,"ĠSk":10511,"ĠÑģÐ°Ð´Ð°":10512,"ĠApple":10513,"Ð½Ð¾ÑģÑĤÑıÐ¼":10514,"ĠÐ¿ÑĢÐ¸Ð¼ÐµÐ½ÐµÐ½Ð¸ÐµÐ¼":10515,"ĠÐ¢Ð°ÐºÐ¾Ðµ":10516,"ĠÐ¼Ð°ÑĪÐ¸Ð½Ðµ":10517,"ĠÑģÐ¾Ð²ÑĢÐµÐ¼ÐµÐ½Ð½Ð¾Ð¼":10518,"ĠÑģÐ»ÑĥÐ¶Ð±Ð°":10519,"ĠÐ¿Ð¾Ð½ÑıÑĤÐ¸Ðµ":10520,"Ð¾Ð»Ð½ÑĨÐ°":10521,"ÑĨÐµÐ½ÑĤÑĢ":10522,"ĠÐ¿ÑĢÐ°Ð·Ð´Ð½Ð¸ÐºÐ°":10523,"ĠÐ³ÐµÑĢÐ¼ÐµÑĤÐ¸":10524,"ĠÐ¦ÐµÐ½ÑĤÑĢ":10525,"ĠÐ´Ð¸Ð·Ð°Ð¹Ð½ÐµÑĢ":10526,"ĠÐĶÐ°Ð½Ð½ÑĭÐ¹":10527,"ĠÐ·ÑĥÐ±Ð¾Ð²":10528,"ĠÑĦÐ¸Ð»Ð¾ÑģÐ¾ÑĦ":10529,"ĠÐ°Ð²Ð°ÑĢÐ¸Ð¹":10530,"ĠÐ¿ÑĥÐ±Ð»Ð¸ÑĩÐ½Ð¾Ð¹":10531,"ĠÐ¼Ð¾Ð½Ð°ÑģÑĤÑĭ":10532,"ĠÐ½Ð°ÑģÐ»Ð°Ð¶Ð´Ð°":10533,"?Â»":10534,"DF":10535,"RU":10536,"Ð²Ð¾Ð´Ðµ":10537,"ÑĢÐ°Ð½Ð¾Ð²":10538,"ĠÐ½ÐµÐ¾Ð±":10539,"ĠÐ·Ð°Ð´Ð°Ð½":10540,"Ð¾Ð¶Ð°Ð¹":10541,"ÑĥÑİÑīÐµÐ³Ð¾":10542,"ĠÐŀÐ»Ð¸Ð¼Ð¿Ð¸":10543,"ĠÐĺÑģÑĤÐ¾ÑĢÐ¸Ñı":10544,"ĠÑħÐ¾Ð´Ð°":10545,"ĠÐ¸Ð½Ð´Ð¸ÐºÐ°":10546,"ÐµÐ½ÑĮÑı":10547,"ĠÐ¿ÐµÑĢÐµÐ¹ÑĤÐ¸":10548,"ĠÐ´Ð°ÑĤÐ°":10549,"ĠÐĿÐ°Ð´Ð¾":10550,"ĠÐ¿ÐµÑĢÐ²Ð¸":10551,"ÐĹÐĺ":10552,"Ð¿ÑĢÐ°Ð²Ð»ÐµÐ½Ð¸Ñı":10553,"ĠÐ¿Ð¾ÑĤÐ¾Ðº":10554,"ĠÐ³Ð¾Ð´Ð°Ñħ":10555,"ĠÐºÐ¾ÑĢÑĢÑĥÐ¿":10556,"ĠÐ¿ÑĥÑģÑĤÑĭ":10557,"ĠÐ¿Ð°ÑĢÐº":10558,"ĠÐ¾ÑģÑĤÐ°Ð»Ð¾ÑģÑĮ":10559,"Ð²Ð¾ÑĢÐ¾ÑĤ":10560,"ĠÑģÐ²ÑıÑīÐµÐ½":10561,"ĠÑĢÐ°ÑģÑģÐ»ÐµÐ´":10562,"ĠÑģÐ¾ÑģÑĤÐ¾ÑıÐ»Ð°ÑģÑĮ":10563,"Ð¾Ð¶Ð°Ð»ÑĥÐ¹ÑģÑĤÐ°":10564,"ĠÐ¿ÑĢÐ¾Ð¸ÑģÑħÐ¾Ð¶Ð´ÐµÐ½Ð¸Ñı":10565,"ĠÑģÐ¾Ð¿ÐµÑĢ":10566,"ĠÐ¿Ð¾Ð´Ð³Ð¾ÑĤÐ¾Ð²ÐºÐµ":10567,"ĠÐ´ÐµÐ½ÐµÐ¶Ð½ÑĭÑħ":10568,"ĠÑĦÐ¸Ð½Ð°Ð½ÑģÐ¾Ð²Ð¾Ð³Ð¾":10569,"ĠÐ¿ÑĢÐ¸Ð¼ÐµÐ½ÑıÑİÑĤÑģÑı":10570,"Ð¾ÑģÐ¿Ð¾ÑģÐ¾Ð±":10571,"ĠÐ¡Ð¿Ð¾ÑĢ":10572,"ĠÐ²Ð¾ÑģÑģÑĤÐ°Ð½Ð¾Ð²Ð»ÐµÐ½Ð¸Ñı":10573,"III":10574,"ĠÐ¿ÑĢÐ¸Ð±ÑĭÐ»Ð¸":10575,"âĢ¢âĢ¢":10576,"ĠÐ¿ÑĢÐµÐ´ÑģÑĤÐ°Ð²Ð»ÐµÐ½Ð¸Ðµ":10577,"ĠÑĢÐµÑģÐ¿ÑĥÐ±Ð»Ð¸ÐºÐ¸":10578,"ĠÑįÐºÑĢÐ°Ð½Ð°":10579,"ĠÑħÑĥÐ¶Ðµ":10580,"ĠÐ·Ð°Ð¼ÐµÑģÑĤÐ¸ÑĤÐµÐ»ÑĮ":10581,"ĠÐ´ÐµÐ¼Ð¾Ð½ÑģÑĤÑĢÐ¸":10582,"ĠÐ½ÐµÐ¼Ð°Ð»Ð¾":10583,"ĠÑĤÐ°Ð»Ð°Ð½ÑĤ":10584,"ĠÐ¸ÑģÑĩÐµÐ·":10585,"ĠÐĺÐ·ÑĢÐ°Ð¸":10586,"ÑĢÐ½Ð¾Ð³Ð¾":10587,"ÑĥÑģÐ¸Ð»Ð¸":10588,"ÑıÐµÑĤÑģÑı":10589,"Ð¼ÑĥÑĤ":10590,"ĠÑģÐ¼ÐµÐ½":10591,"ĠÐºÑĢÐµÑģ":10592,"Ð³Ð¾Ð¹":10593,"Ð³Î¿":10594,"Ð¾Ð»Ð¾Ñģ":10595,"ĠÐ¼Ð¾Ð´Ñĭ":10596,"ĠÐ½Ð°Ð²Ð¸Ð³Ð°":10597,"Ð»Ð°ÑĢ":10598,"ÑĦÐ°Ð½":10599,"ĠÐ½ÐµÑĢÐµ":10600,"ÐµÐ¼ÑĭÐ¼":10601,"ĠÑĤÐµÑĤÑĢÐ°":10602,"ĠÐ¾ÑĤÐ²Ð°":10603,"ÑĩÐ¸Ð²Ð°ÐµÑĤ":10604,"ĠÐ¿ÑĢÐ¾ÑıÐ²Ð»ÐµÐ½Ð¸Ñı":10605,"Ð¼ÐµÐ½ÐµÐ½Ð¸Ðµ":10606,"ÑĪÐµÑģÑĤÐ²Ð¸Ñı":10607,"ĠÐ¿ÑĢÐµÐ´Ð¼ÐµÑĤÐ°":10608,"ÑģÑĤÐ²ÐµÐ½Ð½Ð¾ÑģÑĤÐ¸":10609,"ĠÑģÐ¿ÐµÐºÑĤÐ°Ðº":10610,"Ð¶Ð´ÐµÐ½Ð¸ÐµÐ¼":10611,"ĠÐ´Ð¾Ð»Ð³Ð¾Ð²Ðµ":10612,"ÑģÐ¾Ð²Ð¾Ð¹":10613,"ĠÐ¶Ð¸Ð´":10614,"ĠÐ¼Ð¾Ñİ":10615,"ĠÐ¸Ð½ÑĦÐ¾ÑĢÐ¼Ð°ÑĨÐ¸Ð¾Ð½Ð½ÑĭÑħ":10616,"rad":10617,"ĠÐ¸ÑģÐ¿Ð¾Ð»ÑĮÐ·ÑĥÐµÑĤ":10618,"ĠÐĲÑĢÑħÐ°Ð½Ð³ÐµÐ»ÑĮ":10619,"ĠÐ¿Ð¾Ð»ÑĮÐ·Ð¾Ð²Ð°Ð½Ð¸Ñı":10620,"ĠÑĩÐ°ÑģÑĤÐ½ÑĭÑħ":10621,"ĠÐ³Ð°Ð·ÐµÑĤÑĭ":10622,"ĠÑĢÐ°ÑģÑĤÐµÑĤ":10623,"ĠÐ¿Ð¾Ð¿ÑĥÐ»ÑıÑĢÐ½ÑĭÐµ":10624,"ĠÐ¼ÐµÑĢÐ¾Ð¿ÑĢÐ¸ÑıÑĤÐ¸Ðµ":10625,"ĠÐ¿ÑĢÐ¾ÑĦÐµÑģÑģÐ¸Ð¾Ð½Ð°Ð»ÑĮÐ½ÑĭÑħ":10626,"ĠÑģÑĤÑĢÐ°Ð½Ñĥ":10627,"ĠÐ¿Ð¾Ð´Ð´ÐµÑĢÐ¶ÐºÐµ":10628,"ĠÐ¾Ð±ÑģÑĥÐ¶":10629,"ĠÐºÐ»ÐµÑĤÐ¾Ðº":10630,"ĠÐ¿ÑĢÐ¸Ð±Ð»Ð¸Ð·Ð¸":10631,"Ð²ÑĪÐµÐ¹ÑģÑı":10632,"ĠÑģÐ¾Ð¾ÑĢÑĥÐ¶ÐµÐ½Ð¸Ð¹":10633,"ĠÑĥÐ´Ð¸Ð²":10634,"ĠÑĥÐ¿ÑĢÐ°Ð¶Ð½ÐµÐ½Ð¸Ñı":10635,"130":10636,"81":10637,"Ð²Ð½ÑĭÑħ":10638,"ĠÐ¿Ð¾Ð±Ñĭ":10639,"ĠÐ¸ÑģÑĤ":10640,"ĠÐ¾ÑģÑĤÐ°Ð²Ð¸":10641,"Ð³Ð¾Ð²Ð°ÑĢÐ¸":10642,"ÑĢÐ¸Ð·Ð¼":10643,"ÐºÐ°Ð»":10644,"ĠÐ»Ð¾ÐºÐ°":10645,"ĠÐ¾Ð±ÐµÐ´":10646,"ĠÐ¾ÑĤÐºÐ°Ð·":10647,"ĠÐĴÐ£ÐĹ":10648,"Ð¾ÑģÑģÐµ":10649,"Ð¾ÑģÐ»ÐµÐ´":10650,"ÑĥÑİÑīÐµÐ¹":10651,"ĠÐľÐ°Ð½":10652,"ĠÐ¿Ð¾Ð´Ð»ÐµÐ¶Ð°":10653,"Ð¶ÐµÐ»Ð°":10654,"ĠÐ¢Ð£":10655,"Ð½ÑıÐ¹ÑĤÐµ":10656,"ÐºÐ¾Ð²ÑģÐºÐ¸Ð¹":10657,"ĠÐĵÐ¾ÑģÐ¿":10658,"ÑĤÐ¾ÑĢÑĥ":10659,"ĠÐ£Ð·":10660,"ĠÐķÐ´Ð¸Ð½":10661,"ĠÐŃÐ½":10662,"Ð²Ð¾ÑģÑĤÐ¸":10663,"ÑħÐ°ÑĢÐ°":10664,"ÑħÐ°ÑĤÑĮ":10665,"Ð¿ÑĥÑģÐº":10666,"ÑĢÐµÐ±Ð¾Ð²Ð°Ð½Ð¸Ñı":10667,"ĠCo":10668,"ĠÐ¼ÐµÑĤÐ¾Ð´Ð¾Ð²":10669,"ĠÐºÐ°Ð¶Ð´ÑĥÑİ":10670,"ĠÑĨÐ¸ÐºÐ»Ð°":10671,"ĠÐ´Ð¾ÑĢÐ¾Ð³Ñĥ":10672,"ĠÐ¾Ð±ÑīÐµÑģÑĤÐ²ÐµÐ½Ð½Ð¾Ð³Ð¾":10673,"ĠÐ¼ÐµÑģÑĤÐ½ÑĭÑħ":10674,"ÐĿÐŀÐķ":10675,"ĠÐ²Ð½ÑĥÑĤÑĢÐµÐ½Ð½ÐµÐ³Ð¾":10676,"ĠÑģÐ»Ð¸Ð·Ð¸":10677,"ĠÑĦÐ¸Ð½Ð°Ð½ÑģÐ¾Ð²ÑĭÑħ":10678,"ĠÐ¿ÑĢÐ¸Ð¼ÐµÐ½ÑıÑİÑĤ":10679,"ĠÐ¿ÑĢÐ¾ÑģÑĤÑĢÐ°Ð½ÑģÑĤÐ²Ðµ":10680,"ĠÐ¼Ð°ÑĤÑĩÐµ":10681,"ĠÐ¾ÑĤÐ·ÑĭÐ²":10682,"ĠÐ¼Ð½Ð¾Ð³Ð¾Ðº":10683,"ĠÐ¾ÑīÑĥÑīÐµÐ½Ð¸Ðµ":10684,"ĠÐ±Ð¾Ð»ÑĮÑĪÐ¸Ð½ÑģÑĤÐ²Ð°":10685,"ĠÑģÐ¸Ð³Ð½Ð°Ð»":10686,"ĠÐ¿ÑĢÐµÐ´Ð²Ð°ÑĢÐ¸ÑĤÐµÐ»ÑĮÐ½Ð¾":10687,"ĠÐ¿Ð¾Ð²ÑĢÐµÐ¶Ð´ÐµÐ½Ð¸Ñı":10688,"ĠÐºÐ¾Ð½ÑĤÑĢÐ¾Ð»Ð»ÐµÑĢ":10689,"ĠÑģÐ¼Ð°ÑĢÑĤÑĦÐ¾Ð½":10690,"ĠÐļÐ°Ð·Ð°ÑħÑģÑĤÐ°Ð½":10691,"ĠÐ½ÐµÐ´Ð¾ÑĢÐ¾Ð³Ð¾":10692,"ĠÐºÑĢÑİÑĩÐºÐ¾Ð¼":10693,"ĠÑģÐ¿ÐµÐºÑĤÑĢ":10694,"ĠÑĥÐ»ÑĮÑĤÑĢÐ°":10695,"Ð²ÑĤÐ¾ÑĢÑĭÑħ":10696,"amsung":10697,"Ð¸ÑĤÐµ":10698,"ĠÐ²Ð»Ð¾Ð¶":10699,"ĠÑģÐ»Ð¾ÑĤÑĭ":10700,"ĠÐ¾Ð´Ð¸Ð½Ð¾":10701,"ĠÐ´ÑĥÐ±":10702,"ÐºÐ°ÐµÑĤ":10703,"ĠÑĥÑĢÐ¾Ðº":10704,"ĠÐ½ÐµÑģÑĥ":10705,"ÑģÑĤÐ°Ð²Ð°":10706,"ĠÐ»Ñĭ":10707,"ĠÐ¾Ð±Ð¾ÑģÐ½Ð¾Ð²Ð°":10708,"ĠÐ²ÑĭÑģÐºÐ°":10709,"ĠÑĢÐµÑĪÐ°ÑĤÑĮ":10710,"ĠÐ¢ÐĲ":10711,"Ð¢Ñĭ":10712,"ĠÐĹÐ´Ð¾ÑĢÐ¾Ð²":10713,"Ð¶Ð´ÐµÐ½Ð¸Ð¸":10714,"Ð¼ÑĭÐ²Ð°":10715,"ĠÐ¿Ð°Ð¿":10716,"ÑħÐ°Ð»Ð¸Ð½":10717,"ĠÑĦÐ¸Ð½Ð°":10718,"ĠÑģÐ¾Ð±ÑĢÐ°Ð½":10719,"Ð¾Ð»Ð¾Ð³Ð¸ÑĩÐµÑģÐºÐ¾Ð¹":10720,"ĠÐ¼Ð½ÐµÐ½Ð¸Ñı":10721,"ĠÐ¾Ð±ÑĢÐ°Ð·Ð°":10722,"ĠÐ¾Ð±ÑĢÐ°ÑīÐ°ÑĤÑĮÑģÑı":10723,"Ð¾Ð³Ð°Ð¼Ð¸":10724,"ĠÑĢÐ°Ð·Ð²Ð¸ÑĤÐ¸Ð¸":10725,"Ð¾Ð¶Ð°Ñı":10726,"ĠÐļÐ¾Ð½ÑĤÐ°":10727,"ame":10728,"ĠÑıÐ·ÑĭÐºÑĥ":10729,"ĠÑĤÐµÑħÐ½Ð¾Ð»Ð¾Ð³Ð¸Ñı":10730,"ĠÐ¡ÑĤÑĢÐ¾Ð¿Ñĭ":10731,"ĠÐ¿Ð¾ÑħÐ¾Ð¶Ðµ":10732,"ĠÐ½ÐµÐ´Ð¾ÑģÑĤÐ°ÑĤÐ¾":10733,"ĠÐºÐ¾Ð¶ÐµÐ¹":10734,"ĠÐ¾ÑīÑĥÑīÐµÐ½Ð¸Ñı":10735,"ĠÑĢÑĥÐºÐ¾Ð²Ð¾Ð´Ð¸ÑĤÐµÐ»Ñı":10736,"ĠÐ²ÐµÑĢÑħÐ½ÐµÐ¹":10737,"ĠÑģÐ¸Ð½ÑĤÐµ":10738,"ĠÐ±ÑĢÐµÐ½Ð´Ð°":10739,"ĠÐ¾ÑĤÐºÐ°Ð·Ð°ÑĤÑĮÑģÑı":10740,"ĠÐ¶ÐµÐ»ÐµÐ·Ð½Ð¾Ð´Ð¾ÑĢÐ¾Ð¶":10741,"ĠÐ·Ð°ÑģÐµÐ´Ð°Ð½Ð¸Ðµ":10742,"ÐķÐĿÐĺÐ¯":10743,"ĠÐ¾ÑĢÑĥÐ¶Ð¸Ðµ":10744,"ÐŁÐµÑĢÐµÐ´":10745,"ĠÐºÐ°Ð¿ÑģÑĥ":10746,"ĠÐ¿Ð¾Ð¶ÐµÐ»Ð°Ð½Ð¸Ñı":10747,"ĠÐľÐ¸ÑħÐ°Ð¸Ð»":10748,"ĠÐ»ÑİÐ±ÑĭÐ¼":10749,"ĠÐ£Ð·Ð½Ð°ÑĤÑĮ":10750,"\")":10751,"Ġ~":10752,"ĠÐ¿Ð¾Ð³Ð¾Ð²":10753,"ĠÐ²Ð¾Ð»ÑĮ":10754,"ĠÑģÐ»Ð°Ð²":10755,"ÐµÐ½ÑĩÐ°ÑĤÑĭÐ¹":10756,"Ð±ÑĢ":10757,"ĠÐºÐ¾Ð¶Ðµ":10758,"Ð³Ð¾Ñģ":10759,"ĠÑĥÐ²Ð»Ðµ":10760,"ĠÐ¾ÑĤÑĭ":10761,"ĠÐºÐ°Ð¼ÐµÐ½ÑĮ":10762,"ĠÐ¿ÑĢÐ¸ÑģÑĤÐ°Ð²":10763,"ÑģÐ¸ÐºÐ¸":10764,"ĠÐ²ÑĭÐ¿Ð°":10765,"ÑĤÐµÐ»ÑĮÑģÐºÐ¾Ð¹":10766,"Ð³Ð°ÑİÑĤ":10767,"ÐºÐ¾ÑģÑĤÑĮÑİ":10768,"ĠÐĶÐĽÐ¯":10769,"Ð¶ÐµÐ±":10770,"ĠÐºÐ¾ÑĤÑĤÐµ":10771,"Ð½Ð¾Ð²ÑĭÑħ":10772,"ĠÐ»Ð¸Ð½Ð¸Ð¹":10773,"ÐĳÐĺ":10774,"ĠÐ·Ð½Ð°ÐµÐ¼":10775,"ĠÑģÐ»ÑĥÐ¶Ð°":10776,"ĠÑģÑĤÑĢÐ°Ð½Ð°":10777,"ĠÑĥÑĩÐ°ÑīÐ¸ÑħÑģÑı":10778,"ĠÐ½Ð°ÑĪÐµÐ¼Ñĥ":10779,"ĠÑĤÐ¾ÑĢÐ³":10780,"ĠÐ¿ÑĢÐ¸Ð¼ÐµÐ½ÐµÐ½Ð¸Ñİ":10781,"ĠÐ¿ÑĢÐµÐ´Ð¾ÑħÑĢÐ°Ð½Ð¸":10782,"Ġcrack":10783,"ĠÐ¾Ð±ÑīÐµÑģÑĤÐ²ÐµÐ½Ð½ÑĭÑħ":10784,"ĠÑĥÐ¿Ð¾Ð¼Ð¸Ð½Ð°":10785,"ĠÐ¶ÐµÐ»Ð°ÑĤÐµÐ»ÑĮÐ½Ð¾":10786,"ĠÑĤÐ¾ÑĢÐ³Ð¾Ð²Ð¾Ð¹":10787,"ĠÑĢÐµÐºÐ¾Ð¼ÐµÐ½Ð´Ð°":10788,"ĠÐĽÑİÐ±Ð¸":10789,"ĠÐ¿ÑĢÐµÐ´ÑģÑĤÐ°Ð²Ð»ÐµÐ½Ð°":10790,"ĠÐ¼Ð°ÐºÑģÐ¸Ð¼ÑĥÐ¼":10791,"ĠÐ³ÐµÑĢÐ¾":10792,"ĠÐ·Ð°Ð¿ÑĢÐ¾Ñģ":10793,"1999":10794,"ĠÐ¿ÑĥÐ±Ð»Ð¸ÐºÐ°":10795,"ĠÑĦÑĥÑĤÐ±Ð¾Ð»ÑĮ":10796,"ĠÐ¿ÑĢÐ¾ÑģÐ¼Ð¾ÑĤÑĢ":10797,"ĠÐ¼Ð°Ð³Ð½Ð¸":10798,"ĠÑģÐ»ÑĥÑĩÐ°Ð¹Ð½Ð¾":10799,"ĠÐ¿Ð¾Ð´ÐºÐ»ÑİÑĩÐµÐ½Ð¸Ñı":10800,"ĠÐ¿ÑĢÐ¾Ð²Ð¾Ð´ÑıÑĤ":10801,"ĠÐ¾ÑģÐ²ÐµÑīÐµÐ½Ð¸Ñı":10802,"ĠÑĦÑĢÑĥÐºÑĤÐ¾Ð²":10803,"ĠÐĺÐ³Ð¾ÑĢÑĮ":10804,"AD":10805,"AL":10806,"min":10807,"Ð½Ð¾Ð»ÐµÑĤ":10808,"Ð¾Ð´Ð½Ð¾Ð¹":10809,"ĠÐ³Ð»Ð¸":10810,"Ð¼Ð°Ðº":10811,"ĠÐļÐ¾Ð»Ð¸ÑĩÐµÑģÑĤÐ²Ð¾":10812,"ĠÐ¿Ð¾Ð´Ð·ÐµÐ¼":10813,"ĠÑĢÐ°Ð·Ð±Ð¸":10814,"ĠÐłÐ¾Ð·":10815,"ÐºÐ¾Ð²Ð¾Ð»ÑĮ":10816,"ÐºÐ¾Ð¼Ð¼Ñĥ":10817,"1990":10818,"ĠÐ¾ÑĢÐ³Ð°Ð½":10819,"ĠÐ¯ÑĢÐ¾ÑģÐ»Ð°Ð²":10820,"ĠÐ»ÐµÑĤÐ½Ð¸Ðµ":10821,"ĠÑįÐ»ÐµÐºÑĤÑĢÐ¾Ñģ":10822,"alk":10823,"ĠÐ¼ÑĥÐ·ÐµÐ¹":10824,"ĠÐ¿Ð¾ÐºÐµÑĢ":10825,"ĠÐ¿ÑĢÐ¾Ð±Ðµ":10826,"ĠÐ¾ÑĤÐ´ÐµÐ»":10827,"ĠÐ²Ð¾Ð¿ÑĢÐ¾ÑģÐ°":10828,"Ð²ÑĢÐ¾Ð¿Ð¾Ð»ÑĮ":10829,"ÐļÐ°Ð¶Ð´ÑĭÐ¹":10830,"ĠÐ¾Ð±ÐµÑģÐ¿ÐµÑĩÐ¸Ð²Ð°ÑİÑĤ":10831,"ĠÐ·Ð½Ð°ÐºÐ¾Ð¼ÑģÑĤÐ²":10832,"ĠÐĶÐ¾ÑģÐºÐ°":10833,"ĠÐ±Ð»Ð°Ð³Ð¾Ð¿ÑĢÐ¸ÑıÑĤ":10834,"ĠÑĢÐ¾Ð»Ð¸ÐºÐ¸":10835,"ĠÐ»Ð¸ÑĤÐµÑĢÐ°ÑĤÑĥÑĢÑĭ":10836,"ÑĢÐµÐ·Ð°ÑĤÑĮ":10837,"ĠÐ¾Ð¿Ð¸ÑģÑĭ":10838,"ĠÑģÐ¾Ð±Ð°ÐºÐ°":10839,"ĠÐ¿ÑĢÐµÐ´ÑģÐµÐ´Ð°ÑĤÐµÐ»ÑĮ":10840,"ĠÐ½Ð°ÑģÑĤÑĢÐ¾Ð¹ÐºÐ¸":10841,"ĠÐ½Ð°Ð¿Ð¾Ð¼Ð¸Ð½Ð°ÐµÑĤ":10842,"ĠÐ¡ÑĤÑĢÐ¾Ð¸ÑĤÐµÐ»ÑĮÑģÑĤÐ²Ð¾":10843,"ÑīÐ°Ð¹ÑĤÐµÑģÑĮ":10844,"ĠÐ¢Ð°ÑĤÑĮÑıÐ½Ð°":10845,"Ð´Ð½ÑĭÑħ":10846,"Ð¶ÐµÑĢ":10847,"ĠÐ±Ð¾Ð¼":10848,"Ð²Ð°Ð½Ð°":10849,"Ð²Ð°ÑİÑīÐ¸Ð¼":10850,"ĠÐ³Ð»ÑıÐ½":10851,"ĠÑĢÐ°Ð´Ñĭ":10852,"Ð´ÐµÑģÑı":10853,"ÑĩÐ¸ÑģÐ»Ð¸":10854,"ÑģÐµÐ²":10855,"ĠÐĿÐ°Ð¼":10856,"ĠÐ¼Ð°Ð»Ð¾Ð³Ð¾":10857,"ĠÐĶÐ²ÐµÑĢÑĮ":10858,"ÐĿÐł":10859,"ĠÐ´ÐµÐ»Ð¾Ð¼":10860,"ĠÐ²Ð¾Ð·Ð³Ð»Ð°":10861,"ĠÐĹÐ¸":10862,"ÑģÑĤÐ²Ð¸Ñİ":10863,"ĠÑģÑĥÑģÑĤÐ°Ð²":10864,"ÑĤÐ¾Ð²Ð¾Ð³Ð¾":10865,"ĠÐ¿Ð¾ÐºÐ°Ð·ÑĭÐ²Ð°":10866,"ĠÐ¸Ð½ÑĦÐ¾ÑĢÐ¼Ð°ÑĨÐ¸ÐµÐ¹":10867,"ĠÐ±ÐµÑģÐµ":10868,"ĠÑĥÑģÑĤÐ°Ð½Ð¾Ð²ÐºÐµ":10869,"ĠÑĥÑģÐ»ÑĥÐ³Ñĥ":10870,"ics":10871,"ĠÐ³Ð¾Ð²Ð¾ÑĢÐ¸Ð»Ð¸":10872,"ĠÐ¾ÑħÐ²Ð°":10873,"ĠÑĪÐºÐ¾Ð»Ñĥ":10874,"ĠÐ¿ÐµÑģÐµÐ½":10875,"ĠÐºÐ¾Ð»Ð»ÐµÐºÑĨÐ¸Ð¸":10876,"ĠÑįÐ»ÐµÐºÑĤÑĢÐ¸ÑĩÐµÑģÐºÐ¾Ð³Ð¾":10877,"ĠÐ¤Ð¸Ð½Ð°Ð½":10878,"ĠÐĵÐ»Ð°Ð²Ð½Ð°Ñı":10879,"ĠÑģÑģÑĭÐ»ÐºÐµ":10880,"ĠÑĥÑģÑĤÐ°Ð½Ð°Ð²Ð»Ð¸Ð²Ð°ÐµÑĤÑģÑı":10881,"ÐĲÐ²ÑĤÐ¾":10882,"ĠÐĶÐ¸Ð½ÑģÐºÐ¾Ð³Ð¾":10883,"ĠÑģÐ¾ÑĢÐµÐ²Ð½Ð¾Ð²Ð°":10884,"ĠÐ²Ð¾ÑģÑĤÐ¾ÑĢ":10885,"ĠÐĵÐ¾ÑģÐ¿Ð¾Ð´":10886,"ĠÑģÐ´ÐµÐ»ÐºÐ¸":10887,"ĠÑĢÐ°ÑģÑĤÐ²Ð¾ÑĢ":10888,"ĠÐŁÑĢÐ¾Ð´Ð°Ð¼":10889,"ĠÐŁÑĢÐ¾Ð´Ð°Ð¶Ð°":10890,"ĠÐ¡ÐµÑĢÐ³ÐµÑı":10891,"ĠÐ³Ð¸Ð¼Ð½Ð°":10892,"Ð³ÑĥÑĤ":10893,"ĠÐ½ÐµÐ²Ðµ":10894,"ĠÐ³Ð¾ÑģÐ¿":10895,"ÑĢÑĥÐ½":10896,"ĠÐ¾ÑĤÐ¼Ðµ":10897,"ĠÐºÐ°ÑĤ":10898,"ĠÐ¡ÐµÐº":10899,"ĠÐ¿ÑĢÐ¾ÑħÐ¾Ð¶Ð´ÐµÐ½Ð¸Ñı":10900,"ĠÐľÐķ":10901,"ĠÐĶÐ°ÑĢ":10902,"ÐºÐ¾Ð²ÑģÐºÐ°Ñı":10903,"ĠÐ¿ÑĢÐµÐ´ÑģÐºÐ°Ð·Ð°":10904,"ÐĿÐļ":10905,"ÐķÐ²":10906,"ĠÐ´Ð¸ÑģÐºÐ¾Ð²":10907,"ĠÐ´Ð¸ÑģÐºÑĥ":10908,"ÐĳÐĶÐĶ":10909,"ĠÐ±Ð¾Ð»ÑĮÐ½ÑĭÑħ":10910,"Ð¾ÑĢÐ¾ÑĤÑĮÑģÑı":10911,"ĠÐ½Ð¾Ð²Ð¾Ð³Ð¾Ð´":10912,"ĠÐ»ÐµÐ¶Ð¸ÑĤ":10913,"Ð»Ð¸ÑĩÐ½ÑĭÐ¹":10914,"ĠÑģÐ¾Ð·Ð´Ð°Ð½Ð¸Ñİ":10915,"ĠÐ¨ÑĤÐ°":10916,"ĠÑģÐºÐ²Ð¾Ð·":10917,"ĠÐ²ÑĭÑģÐ¾ÐºÐ¸Ðµ":10918,"ĠÑİÐ½Ð¾":10919,"Ð°Ð²Ð»Ð¾Ð²":10920,"ĠÐ¿Ð¾ÐºÐ°Ð·Ð°ÑĤÐµÐ»ÐµÐ¹":10921,"ĠÐ¸ÑģÐºÑĥÑģÑģÑĤÐ²Ð¾":10922,"ĠÐĶÐµÐºÐ°Ð±":10923,"ĠÑĦÐ¸Ð½Ð°Ð½ÑģÐ¾Ð²Ð¾Ð¹":10924,"ĠÐ¾Ð±ÑĥÐ²Ð¸":10925,"ĠÐ¼ÐµÐ´Ð»ÐµÐ½Ð½Ð¾":10926,"ĠÑįÐ»ÐµÐºÑĤÑĢÐ¾ÑįÐ½ÐµÑĢ":10927,"ĠÐ´Ð¾ÐºÑĥÐ¼ÐµÐ½ÑĤÐ°ÑĨÐ¸Ð¸":10928,"ĠÐ²Ð¾Ð´Ð¸ÑĤÐµÐ»ÑĮ":10929,"ĠÐ²Ð¾ÑģÐ¿Ð¾Ð¼Ð¸Ð½Ð°":10930,"ĠÐ¢ÑĥÑĢÑĨÐ¸Ð¸":10931,"ĠÐ»Ð¸ÑĨÐµÐ½Ð·Ð¸Ð¸":10932,"ĠÐľÐ°ÐºÑģÐ¸Ð¼Ð°":10933,"ĠÐ¿Ð¾Ð½ÐµÐ´ÐµÐ»ÑĮÐ½Ð¸Ðº":10934,"ĠÑģÑĤÐµÐºÐ»Ð¾Ð¿Ð¾Ð´ÑĬÐµÐ¼":10935,".\"":10936,"ÐµÑīÐ°":10937,"ÐºÑĨÐ¸Ñİ":10938,"ĠÐ²Ð¾ÑĢÐ¾ÑĤ":10939,"ÑħÐ¾Ð´Ñĥ":10940,"Ð¿Ð¾ÑĢ":10941,"Ð±ÑĢÑı":10942,"Ð½Ð¾Ñİ":10943,"ĠÑĥÐ²Ð»Ð°Ð¶":10944,"ĠÐ½ÐµÐ¾Ð´":10945,"ĠÐ·Ð°Ð´ÐµÑĢÐ¶Ð°":10946,"ĠÑĤÐ²ÐµÑĢ":10947,"ĠÐ¾ÑĤÐºÑĥÐ´Ð°":10948,"ĠÐĴÐļ":10949,"ĠÐ¡Ð½Ð°ÑĩÐ°Ð»Ð°":10950,"ĠÑĢÐ°Ð·Ð´Ð°":10951,"ĠÐĶÐ¾Ð½":10952,"ĠÐĲÑģÑĤÑĢÐ°":10953,"ĠÐ¢ÑĢÐ°":10954,"ĠÐ¸Ð½Ð³":10955,"ĠÐĵÐ¾ÑĤÐ¾Ð²":10956,"ÑĪÐ°Ð»Ð¸":10957,"ÐĶÐ¾Ð½Ñĥ":10958,"Ð±ÐµÑĢÐ¸":10959,"ĠÐķÐ¼Ñĥ":10960,"ĠÐ¤Ð¾ÑĢÐ¼Ð°":10961,"ĠÐ·Ð½Ð°Ðº":10962,"ĠÑģÐ¾Ð²Ð¿Ð°":10963,"ÑģÐ¾Ð²Ñĭ":10964,"ĠÑĥÑģÐ»Ð¾Ð²":10965,"ĠÐ½ÑĥÐ¶Ð´Ð°":10966,"ĠÐĿÐµÑģÐ¼Ð¾ÑĤÑĢÑı":10967,"Ð½ÑĥÑĤÑģÑı":10968,"ĠÑħÐ¾ÑĢÐ¾ÑĪÐ¸Ð¼":10969,"ĠÐŁÑĢÐ¾Ð¸Ð·Ð²Ð¾Ð´ÑģÑĤÐ²Ð¾":10970,"ĠÑĤÑĢÐ°Ñħ":10971,"ĠÐ¾Ð±ÑıÐ·Ð°ÑĤÐµÐ»ÑĮÑģÑĤÐ²":10972,"ĠÑįÑĦÑĦÐµÐºÑĤÐ°":10973,"ĠÐ½Ð°ÑģÑĤÐ¾ÑıÑīÐ¸Ñħ":10974,"ĠÐ¿Ð¾Ð»ÑĥÑĩÐµÐ½Ð¸Ð¸":10975,"ĠÐ³Ð°Ð·ÐµÑĤÐ°":10976,"ĠÑįÐ»ÐµÐºÑĤÑĢÐ¾Ð½Ð½ÑĭÑħ":10977,"ĠÐºÐ¾Ð½ÐºÑĥÑĢÑģÐµ":10978,"ĠÑģÐ²Ð¾Ð±Ð¾Ð´Ñĥ":10979,"ĠÐ·Ð²ÑĥÑĩÐ°":10980,"ĠÐ¼ÐµÐ¶Ð´ÑĥÐ½Ð°ÑĢÐ¾Ð´Ð½Ð¾Ð³Ð¾":10981,"ĠÐ¾Ð±ÑĢÐ°Ð·Ð¾Ð²Ð°ÑĤÐµÐ»ÑĮÐ½ÑĭÑħ":10982,"ĠÑģÐ¸Ð³Ð½Ð°Ð»Ð¸":10983,"ĠÐ¿Ð¾ÑĢÑĤÐ°Ð»Ð°":10984,"ĠÐ¿ÑĢÐ¸Ð»Ð¾Ð¶ÐµÐ½Ð¸Ðµ":10985,"ĠÐ½ÐµÐ¼ÐµÐ´":10986,"ĠÐ¼ÐµÐ½ÐµÐ´Ð¶ÐµÑĢ":10987,"ĠÑĦÐ°ÐºÑĤÐ¸ÑĩÐµÑģÐºÐ¸":10988,"ĠÐ³Ð¸Ð¿Ð¾ÑĤÐµ":10989,"ĠÑĢÐµÐ³Ð¸ÑģÑĤÑĢÐ°ÑĨÐ¸Ñİ":10990,"ĠÑįÐºÑģÐºÐ»ÑİÐ·Ð¸":10991,"ĠÐ¼Ð¾ÑĤÐ¸Ð²Ð°":10992,"ĠÐĲÐ´Ð¼Ð¸Ð½Ð¸ÑģÑĤÑĢÐ°ÑĨÐ¸Ñı":10993,"ĠÐ±Ð¸Ð¾ÐºÐ°Ð¼Ð¸Ð½":10994,"!\"":10995,"ÑĤÐ½ÑĭÐ¼Ð¸":10996,"ĠÐ¿Ð°Ð½":10997,"Ð¿Ð»Ð¾":10998,"ĠÐ´Ð²Ð¾ÑĢÐµ":10999,"ĠÐ¼Ð¾ÑĤÐ¾":11000,"ÑĪÐµÑĢ":11001,"ĠÑĥÐ¿Ð¾Ð»Ð½Ð¾Ð¼Ð¾Ñĩ":11002,"ÑĦÐµÑĤ":11003,"ÐµÐ¼Ð¾Ð½":11004,"ĠÐ°ÐºÑĥ":11005,"ĠÐ»ÐµÐ½ÑĤÑĭ":11006,"ÑģÑĤÐ¸Ð»Ð¸":11007,"ĠÐĴÐ·":11008,"ĠÐ¿ÑĢÐ¾ÑĩÐ¸ÑĤÐ°":11009,"ĠÐ¿ÑĢÐ¾ÑĩÐ¸Ðµ":11010,"ĠÑĢÐµÑĩÐ¸":11011,"ĠÑģÑĤÑı":11012,"Ġ-----------------":11013,"ĠÐłÐ°Ð¹":11014,"ĠÐłÐ¾Ð¼Ð°Ð½":11015,"ĠÑħÑĢÐ°Ð½":11016,"Ð¾Ð´Ð°Ñı":11017,"ÑĥÐ´Ð¾Ð±":11018,"ÐĿÐĶ":11019,"Ð·ÑĭÐ²Ñĭ":11020,"ÐĶÑĥ":11021,"ĠÐ²ÐµÐ´ÑĥÑĤ":11022,"ÐķÐļ":11023,"ĠÐĿÐ°Ñģ":11024,"ĠÐ¶Ð¸Ð²ÐµÑĤ":11025,"ĠÐ¶Ð¸Ð²Ñĥ":11026,"ance":11027,"ĠÑģÐ¾Ð·Ð´Ð°ÐµÑĤ":11028,"ĠÐ´ÐµÐ¹ÑģÑĤÐ²Ð¾Ð²Ð°ÑĤÑĮ":11029,"âĢ¦]":11030,"ĠÑħÐ¾ÑĢÐ¾ÑĪÐµÐ³Ð¾":11031,"ÑģÑĤÑĢÐ¾Ð¹ÑģÑĤÐ²Ð¾":11032,"ÑģÑģÐ»ÐµÐ´Ð¾Ð²Ð°":11033,"ĠÐĶÐ¸Ð·Ð°Ð¹Ð½":11034,"ĠÑĤÐµÑħÐ½Ð¸ÐºÑĥ":11035,"ĠÐŁÐ°ÑĢÐ¸":11036,"ĠÐ¾Ð³ÑĢÐ°Ð½Ð¸ÑĩÐµÐ½Ð¸Ð¹":11037,"ĠÐ´ÐµÑĢÐ¶Ð°ÑĤÑĮ":11038,"ĠÐ·Ð°Ð¿ÑĩÐ°ÑģÑĤÐ¸":11039,"ĠÑĢÐ°Ð·ÑĢÐ°Ð±Ð¾ÑĤÐºÐµ":11040,"ĠÐºÐ°ÑĤÐ°ÑģÑĤÑĢÐ¾":11041,"ĠÐ½Ð°ÑĢÐ¾Ð´Ð½Ð¾Ð³Ð¾":11042,"ĠÐ¿ÑĢÐµÐ´Ð½Ð°Ð·Ð½Ð°ÑĩÐµÐ½Ð°":11043,"ĠÐ¿Ð¾Ð¶Ð°Ð»":11044,"ĠÐ´Ð¾Ð¼Ð°ÑĪÐ½ÐµÐ³Ð¾":11045,"ĠÑĢÐµÐ³ÑĥÐ»Ð¸ÑĢÐ¾Ð²Ð°Ð½Ð¸Ñı":11046,"ĠÑģÐ»Ð¾Ñı":11047,"ĠÑĦÐ°Ð¹Ð»Ñĭ":11048,"ĠÐ´ÐµÑģÑıÑĤÐ¸":11049,"ĠÐ¾ÑĤÐ¿ÑĢÐ°Ð²Ð¸ÑĤÑĮ":11050,"ĠÐ²Ð¸Ð·Ð¸ÑĤ":11051,"Ð»Ð¾ÑīÐ°Ð´ÑĮ":11052,"ĠÐ¾ÑĦÐµÑĢÑĤÐ¾Ð¹":11053,"ĠÑĪÐ°Ð¼Ð¿Ñĥ":11054,"ĠÐ²ÑģÐ»ÐµÐ´ÑģÑĤÐ²Ð¸Ðµ":11055,"In":11056,"no":11057,"ual":11058,"âĦĸ":11059,"Ð¸Ð¼ÐµÐ½":11060,"ÑģÐ½Ð¾Ðµ":11061,"ÐºÑģÐµ":11062,"ÑģÑĤÐ½Ð°Ñı":11063,"ĠÑģÑĩÑĳÑĤ":11064,"Ð»Ð¸Ð½Ð³":11065,"ĠÐ½Ð°Ð¶Ð°":11066,"ÐµÐ½Ð¸Ð½Ð°":11067,"ĠÐ³Ð¾ÑĢÐ°":11068,"Ð¾Ð½Ð½ÑĭÐ¹":11069,"ĠÐ¾Ð±ÑīÐµÐµ":11070,"ĠÐŁÐ¾Ð´Ñĥ":11071,"Ð¼Ð°Ð¼":11072,"ÐŀÐ»Ðµ":11073,"ÐŁÑĢÐ°Ð²Ð¸":11074,"ĠÐĺÐ»ÑĮ":11075,"ĠÐĵÐ£":11076,"ĠÐ¾ÑģÑĨÐ¸":11077,"Ð²ÐµÑĢÐ½Ð¾Ðµ":11078,"ĠÐķÐ´Ð¸":11079,"ĠÐ¿ÑĢÐ¾Ð¸Ð·Ð¾ÑĪÐµÐ»":11080,"ĠÐ¿ÑĢÐ°Ð²Ð¾Ð¹":11081,
[...]
