#version: 0.2
á ĥ
à ´
áĥ Ĳ
à ¸
Ġ áĥ
áĥĲ áĥ
à µ
áĥ ĺ
áĥĺ áĥ
àµ į
áĥ Ķ
áĥ Ŀ
áĥĶ áĥ
e n
áĥĿ áĥ
Ġ à´
áĥ £
e r
áĥ£ áĥ
à ¹
à´ ¿
c h
ł áĥ
Ġ d
à´ ¨
àµ ģ
e i
áĥĲáĥ ľ
â Ģ
à´ ķ
à´ ¤
à´ ¾
u n
Ġáĥ Ľ
áĥĲáĥ ¨
i e
áĥĺáĥ ¨
à´ °
à´ ¯
s t
Ġáĥ ĵ
áĥĲáĥ ļ
à´ Ł
i n
ľ áĥ
a n
à¸ ²
à´ ²
áĥĶáĥ ¤
áĥ ·
àµ Ĩ
àµį âĢ
à¸² à¸
áĥĲáĥ łáĥ
áĥ ł
Ġ a
e s
Ġ s
áĥ Ľ
à´ Ĥ
áĥĺáĥ ľ
Ġáĥ Ĵ
à¸ Ļ
àµįâĢ į
áĥĲáĥ ł
o n
Ŀ áĥ
ei n
áĥĲáĥ ¡
i ch
áĥ ķ
Ġ S
Ġ un
áĥĲáĥ Ľ
áĥ£áĥ ł
Ã ¼
à´ ±
à¹ Ī
à´ ª
áĥ ¡
à¸ Ń
a r
à´ ®
Ġ w
Ġáĥ Ĺ
e l
Ġáĥ ł
áĥ ¢
à¸ £
à¹ Ģ
Ġáĥ ľ
a s
ļ áĥĺ
à´ ³
Ġáĥ ¬
Ġ m
à´ µ
Ġáĥ ¡
o r
Ġáĥ Ļ
à´ £
áĥĲáĥ ¤
t e
à¸ ģ
a l
Ġáĥ Ŀáĥ
à¹ ī
un g
i t
Ã ¤
g e
Ġun d
Ġd ie
Ġ (
áĥ ®
Ġ âĢ
Ġáĥĵ áĥĿ
Ġ v
a t
Ġ A
áĥĿáĥ ł
s ch
à¸ ±
Ġ b
à¸ ĩ
à´ ļ
Ġ n
Ġáĥ ĺ
à¹Ģ à¸
Ġ ein
áĥĺáĥ ¡
Ġà´ ª
Ġd er
áĥ Ļ
Ġ B
Ġ D
à¸ ¡
à¸ µ
àµ ĭ
áĥĶáĥ ľáĥ
à´ ¸
à´ Ļ
Ġà´ ķ
u r
Ġ i
áĥ ¥
àµ ĩ
h r
t en
Ġ z
Ġáĥ¬ áĥĲáĥľ
áĥĶáĥ ł
e m
u s
áĥĲáĥ Ĺ
Ġ M
áĥĲáĥ ĵ
áĥ ĵ
áĥĿáĥ łáĥ
Ġ f
d er
áĥ ļ
g en
Ġáĥł áĥĶ
àµģ à´Ĥ
à¸ §
áĥĿáĥ ĳ
Ġ in
t er
Ġáĥ ĳ
à¸ Ķ
Ġáĥ £
à¸ ¥
áĥĺáĥ ł
áĥĿáĥ ļ
Ġ h
Ġ E
Ġ F
Ġà´ µ
áĥĲáĥłáĥ Ĺ
à¸ ¢
d en
Ġ P
e t
Ġ G
áĥĺáĥ Ĺ
u f
Ġ K
r a
áĥ ¨
Ġ áĥĲáĥ
áĥ ľ
áĥĺáĥ ļ
à¸ ´
Ġà´ ¸
Ġáĥ ŀ
t i
Ġáĥ ¨
o l
Ã ¶
Ġ W
áĥĶáĥ ĳ
à¸ Ĺ
Ġ k
áĥĶáĥ ¨
áĥĶáĥ¤ áĥĺáĥ¨
Ġ I
Ġáĥ Ķ
áĥ Ĵ
Ġà´ ħ
à¸ ļ
Ġà´ ®
ĠáĥĽ áĥ£áĥ
i r
áĥĿáĥ ľ
Ġà´ ¨
à¸ ª
d e
áĥĺáĥ Ļ
Ġ g
áĥĶáĥ ļ
áĥĶáĥ ¡
Ġ p
áĥ£áĥł áĥĺ
áĥ£áĥ ļáĥĺ
l e
r o
l ich
b er
Ġ T
Ġáĥľ áĥĲáĥĽ
Ġáĥ ķ
à¸ ķ
áĥĲáĥ ®
Ġáĥ ¤
u m
à¸ °
áĥĶáĥ¤ áĥĺ
Ġ H
à¸ «
i s
áĥĿáĥ ¡
áĥ· áĥĽ
à¸ Ħ
r e
áĥĺáĥ ľáĥ
áĥĶáĥ łáĥ
o s
Ã¼ r
Ġ V
àµ Ģ
ĠâĢ Ķ
o m
áĥ£áĥ ļ
áĥĶáĥ ľ
à¹ ģ
a ch
Ġáĥ ¥
Ġ R
a m
ei t
áĥĶáĥ Ĺ
Ġ o
c k
à´ ¦
áĥĺáĥ Ķ
Ġ L
Ġáĥ ¢
áĥĿáĥ ¨
u ch
u t
i l
áĥĺáĥ Ŀáĥ
áĥĿáĥ Ľ
áĥ §
Ġd as
2 0
à´ ·
áĥĲáĥ ¢
i er
Ġáĥĺ áĥ
Ġáĥ ®
áĥĺáĥ £
Ġz u
Ġd en
Ġ an
áĥĺáĥ Ľ
áĥĺ áĥĲáĥľ
1 9
ĠáĥľáĥĲáĥĽ áĥ£áĥ
b en
áĥĶáĥ¤ áĥ¡
Ġm it
Ġà´ ¤
à¹ Ħ
ĵ áĥ·
áĥĿáĥ ®
Ġ er
áĥĲáĥ ¥
áĥ ¦
àµ Ĥ
áĥĺ áĥĲáĥ¨
áĥ ŀ
Ġ ge
áĥĺáĥ ĵ
i g
áĥ Ĺ
en t
áĥĺáĥ ¢
Ġà´ İ
ich t
Ġ c
à¸ Ī
an d
Ġáĥ ¯
Ġ N
Ġv on
à¸ Ľ
âĢ ĭ
Ġa uf
Ġi st
à¹ ĥ
ĠáĥĽ áĥĲ
Ġ e
Ġa l
áĥ ¬
Ġáĥ łáĥ
. .
Ġ l
à¸ ·
Ġáĥ ļ
Ã Ł
i sch
Ġ C
Ġv er
à¸²à¸ £
áĥĺ áĥĲ
áĥ ĳ
âĢ ľ
à¸ ¸
áĥ£áĥ łáĥ
Ġf Ã¼r
à´ ŀ
áĥĺáĥ ļáĥĺ
áĥĺáĥ łáĥ
s e
áĥ ¤
à¸Ń à¸ĩ
el l
áĥĿáĥ ľáĥ
Ġd e
s en
r ei
à¸µ à¹Ī
an n
Ġi m
e h
Ġ -
i on
à´ §
ĠâĢ ŀ
à¹ Į
áĥĿáĥłáĥ Ĺ
0 0
áĥ Ł
à´ ¶
Ġ U
Ġà´ ļ
à¸ ¹
áĥĶáĥ Ľ
à¹ ĩ
Ġ t
áĥ£áĥ Ľ
à¸ Ĥ
à´ķ à´³
Ġ Z
Ġà´ ĩ
ĠáĥĹ áĥĶ
à´ Ĺ
áĥĲáĥļ áĥĺ
s er
áĥ£áĥ ľ
a d
n en
áĥĿáĥ ¦
a b
àµįâĢ Į
áĥĿáĥ ¤
Ġà´ Ĩ
Ġáĥ ©
àµ ½
ĠS t
Ġáĥ¬áĥĲáĥľ áĥĲ
àµ Ĭ
Ġw ir
à¸ ŀ
àµį .
Ġ áĥĲáĥłáĥ
ĠV er
Ġs ich
m en
ĠáĥĲáĥ Ļ
a u
Ġ J
Ġd es
à¸ Ĭ
Ġb e
áĥĲáĥľ áĥĵ
áĥķ áĥĲáĥļ
Ġn icht
áĥĲáĥľ áĥ¡
áĥ£áĥ ĵ
àµ ¼
ĠáĥĽ áĥĶáĥ
ĠS ch
à´ ´
in d
o ch
c i
à¹ Ĥ
a g
Ġáĥ Ŀ
f f
áĥĲáĥ Ļ
à´ ¹
à¸ ³
Ġ es
q u
Ġa us
à´¨ à´¤
Ġs ch
áĥł áĥĺ
ĠS ie
ĠI n
áĥĺáĥ ¥
áĥĶáĥľáĥ ¢
ie l
Ġein e
Ġáĥĺáĥ ľáĥ
k t
a hr
in g
áĥĿáĥ Ĵ
áĥĿáĥ Ĺ
áĥĿáĥ ĵ
áĥ£áĥ Ĺ
à´Ļ à´³
Ġáĥ¬áĥĲáĥľ áĥĲáĥ¨
ĠáĥĿáĥ ¨
Ġáĥ ĸ
àµģ .
s p
áĥĲáĥ ª
Ġ O
f t
áĥĺáĥ¡ áĥ¢
Ġd em
ĠA n
Ġáĥĵ áĥ¦
áĥĶáĥ ¥
e u
áĥĲáĥľ áĥ£áĥł
st en
ung en
áĥĲáĥ Ĵ
20 1
à¸²à¸ Ļ
áĥĲáĥ ĳ
à´ ľ
v er
Ġs o
Ã ³
a h
r i
Ġa uch
à¸ģ à¸²à¸£
Ġà´İ à´¨
e hr
áĥ£áĥ ¡
Ġáĥŀ áĥł
áĥ£áĥ ¨
Ã¼ ber
Ã¤ n
Ġb ei
Ġ áĥĲáĥłáĥĹ
o t
áĥĶáĥľáĥ ĵ
u l
) .
áĥĲáĥł áĥĺ
áĥ® áĥķ
à¸²à¸ ¢
áĥĺáĥ ĸ
e g
áĥ¬ áĥĲáĥľáĥ£áĥł
áĥĲáĥł áĥĺáĥ¨
áĥ ¯
áĥ£ áĥĲáĥ¤
áĥ łáĥ
áĥĲáĥ ķ
áĥĿáĥ Ļ
áĥĶáĥ ¢
áĥĶáĥ Ĵ
ĠáĥĹ áĥĺáĥľ
d i
áĥĿáĥĳ áĥĲáĥ¨
áĥĲáĥ ĺ
Ġ st
à¸²à¸ ĩ
Ġáĥ¬áĥĲáĥľ áĥĲáĥ¡
áĥ¨ áĥĶ
áĥĺ áĥĲáĥ¡
Ġw er
) ,
ĠD ie
Ġ j
ol l
er n
áĥĿáĥ ķ
áĥĶáĥ ļáĥĺ
Ġo der
áĥĲáĥľ áĥĴ
Ġà´ Ĵ
Ġáĥĵáĥ¦ áĥĲ
Ġ Ð
à¸£ à¸°
ei ch
ĠáĥĿáĥ¨ áĥ¬áĥĲáĥľáĥ£áĥł
e st
à¸²à¸ ¡
i k
à¸²à¸ ģ
à´ ¬
at ion
áĥĲáĥłáĥ Ļ
áĥĲáĥľ áĥĲ
i c
ĠáĥĽáĥĲ áĥĲáĥłáĥĹ
áĥĺáĥ Ĵ
áĥĶáĥ ĵ
un d
et z
Ġà´ ī
Ġà´ °
áĥ·áĥĽ áĥĲ
Ġ Ã¼ber
Ã³ n
Ġw ie
es ch
Ġáĥ ¦
à´µ à´°
áĥĶáĥ Ļ
i m
or t
Ġáĥłáĥ ĵáĥ·
Ã¶ n
Ġ qu
¡ áĥ®
Ġ "
ĠáĥĻ áĥĲáĥļ
áĥĶáĥĹ áĥĺáĥ¨
à´ ¡
w ei
Ġwer den
Ġal s
áĥĲáĥ ĸ
Ġd a
1 8
Ġáĥ¬ áĥ§
ĠáĥĿáĥ łáĥ
à´ Ń
áĥ· áĥľ
ung s
b e
à¹ģ à¸¥
àµ »
ĠáĥĽáĥĲáĥĲáĥłáĥĹ áĥĲ
Ġà´ ¬
Ġáĥ£ áĥĽ
Ġáĥ ª
m er
Ġ Ã
áĥĻ áĥ·áĥĽáĥĲ
Ġáĥ£ áĥĻ
áĥĲáĥĽ áĥĺ
àµ ¾
áĥ£áĥ ľáĥ
Ġáĥľ áĥĿáĥ¦
ĠáĥĹ áĥĺáĥ¨
Ġáĥ Ł
Ġ ich
áĥĲáĥļ áĥ£
à´ ¥
1 0
ĠáĥľáĥĲáĥĽáĥ£áĥ Ĺ
Ġs ind
áĥĶáĥ¨ áĥĶ
l a
Ġ à¹Ģà¸
ĠáĥĽáĥ£áĥ ¨
en n
h n
Ġà´ ľ
àµ Ī
à´¯ à´¤
Ġáĥ °
ĠE r
ĠU n
i en
áĥĺáĥľ áĥ£
al l
ĠáĥľáĥĲáĥĽáĥ£áĥ ¨
áĥĲáĥ¨ áĥĶ
áĥ· áĥĹ
áĥĺáĥł áĥĺ
h e
Ġqu e
en d
ti g
h a
Ń áĥ§
áĥĶáĥ ķ
áĥĿáĥĳ áĥĲ
áĥĿáĥ ŀ
áĥ ª
à¸ ĸ
Ġh at
o p
ĠâĢ ĵ
áĥĲáĥ ¦
ei l
ĠE in
à¸ ľ
áĥĲáĥļ áĥ£áĥłáĥĺ
Ġ r
Ġ um
à¸· à¹Ī
áĥĶáĥł áĥĺ
áĥ ľáĥ
ĠS p
à¸ ¶
ur ch
Ġv or
20 0
Ð °
ein e
áĥĿáĥł áĥ£
áĥĿáĥ ¬
áĥĺáĥ ª
áĥĲáĥłáĥĻ áĥĺ
áĥ ļáĥĺ
áĥĲáĥ ©
Ġáĥľ áĥĺáĥľ
áĥ ©
ĠáĥĻáĥĲáĥļ áĥĶáĥľáĥĵ
ch en
áĥĶáĥľáĥ ¡
áĥĲáĥľ áĥ¢
Ġn ach
Ġ áĥĲáĥĽ
à¹ĥ à¸Ļ
ĠáĥĴ áĥ·áĥĽ
.. .
áĥ£áĥ ĳ
i st
ĠáĥĿáĥ ĳ
Ġs ie
h al
an g
Ġà´ ¶
isch en
à¸Ń à¸Ļ
Ã¼ n
ĠáĥĴ áĥĺáĥľ
ĠáĥĿáĥ¨áĥ¬áĥĲáĥľáĥ£áĥł áĥĲáĥ¨
er s
o g
Ġáĥ¥ áĥĺáĥĲáĥľ
Ġ X
Ġáĥ¨ áĥ®áĥķ
à´° à´¤
ĠP ro
ci Ã³n
à¹Ģà¸ Ľ
or m
an z
Ã Ń
Ã¤ t
áĥĲáĥłáĥ Ľ
Ð ¾
Ġdas s
Ð µ
i v
Ġwir d
© áĥ¥
Ġáĥĳ áĥŁ
ĠáĥĿáĥ Ļ
w er
Ġáĥ Ń
Ġ re
i d
à´¿ .
a ben
áĥĲáĥ¨ áĥĲ
ter n
h l
Ð ¸
ch t
áĥĲáĥ¤ áĥĺáĥļáĥĺ
r u
à¹ĥ à¸«
à¹ģà¸¥ à¸°
k ti
Ġi hr
ar t
áĥĲáĥľ áĥ£áĥłáĥĺ
áĥĶáĥ¤ áĥĺáĥĹ
áĥĿáĥ ¢
à¹Ħ à¸Ķ
áĥĲáĥ £
à´ķ à´°
Ã ¡
à¸Ń à¸¢
Ġ ent
e b
áĥĺáĥ ŀ
Ġà´Ĵ à´°
a us
g er
áĥ¢ áĥł
áĥĲáĥł áĥĲ
Ġein en
st ell
Ġ áĥĲáĥļ
ĠáĥĽ áĥĲáĥ®
áĥ£áĥĲáĥ¤ áĥ£
áĥĿáĥļ áĥĿ
st e
Ġein er
Ġs ein
a uf
te t
áĥ® áĥĲ
áĥĲáĥľ áĥĺ
áĥĽ áĥĿáĥ¬
Ġáĥ¬áĥĲáĥľ áĥĽáĥĿáĥ¬
Ġk Ã¶n
ĠA r
p p
áĥĿáĥłáĥĹ áĥ£
Ġ áĥĲáĥĵ
e d
i ck
à¹Ģ à¸£
áĥĺáĥ£ áĥļáĥĺ
Ġa b
à¸± à¹ī
Ġáĥ ¸
Ġà´ ²
áĥĺáĥ ¯
Ġa m
áĥĺáĥ£ áĥłáĥĺ
áĥĺáĥĿáĥ ľ
Ġz ur
ut z
sch a
Ã¼ ck
b l
Ã¶ r
áĥĿáĥ ©
Ġz um
Ġw ar
ĠáĥĲáĥłáĥ «
at en
áĥ¨ áĥĲ
ei ter
Ġk ann
áĥĿáĥłáĥ ¯
Ġ Â
ĠA l
Ġáĥ¯ áĥĿáĥ®
áĥĲáĥ Ķ
z u
áĥĺáĥĶ áĥ¤
Ġáĥ¨ áĥ¥
it t
l er
Ġm an
Ġáĥ¬áĥĲáĥľáĥĽáĥĿáĥ¬ áĥĲáĥľáĥĲ
Ġáĥĺáĥľáĥ ĵ
Ġd urch
Ġáĥĵ áĥĺáĥĵ
1 7
áĥĲáĥłáĥ ĵ
à¸ ĭ
à´° à´®
n er
r Ã¤
ĠáĥĻáĥĲáĥļáĥĶáĥľáĥĵ áĥĲáĥłáĥĺáĥ¨
áĥĺáĥ ķ
Ġein em
ĠI hr
áĥ£áĥ ¦
à´Ł à´¤
r ie
ch e
lich en
à¸Ĥ à¸Ńà¸ĩ
à´¯ à´®
1 5
áĥĲáĥĵ áĥĲáĥ¨
áĥĿáĥ ¥
ĠáĥĽáĥ£áĥ Ń
à¸ ĵ
g t
áĥĺáĥľáĥ Ĵ
Ã¤ r
Ġun ter
à¸« à¸Ļ
áĥĶáĥļ áĥĺáĥ¨
áĥĲáĥļ áĥĲáĥ¨
Ġáĥ¡ áĥĲáĥ®
1 2
ĠáĥĻ áĥĿáĥľáĥ
r an
à´ķ à´¯
l in
áĥĿáĥ¡ áĥĿáĥ¤
ei ten
áĥĺáĥĶ áĥł
áĥ£áĥ ĵáĥ·
Ġáĥ£áĥĻ áĥ£áĥļáĥĺ
el t
Ġun ser
f Ã¼
Ġn och
on t
us s
Ġà´ ¦
Ġáĥĵ áĥĶáĥĻ
áĥĶáĥłáĥ ¡
ĠáĥĹáĥĺáĥľ áĥĲ
ier t
áĥĲáĥĹ áĥĶ
áĥĲáĥ ŀ
b t
áĥĺáĥ ®
isch e
ĠáĥĿáĥ ®
ĠR e
Ġh aben
p f
an t
Ñ Ĥ
áĥĲáĥłáĥ Ĵ
áĥĲáĥľ áĥ¯
Ġà´ħ à´¤
áĥĲáĥ¤ áĥĲ
ĠJ ahr
sch l
Ñ ģ
à¹Ħ à¸¡
ge b
Ġáĥ¬ áĥ·áĥĽ
ĠáĥĹ áĥĲáĥ¨
ª áĥ®
áĥ¢ áĥĲáĥ¢
à¹Ģ à¸ģ
D ie
Ġáĥ¤ áĥĺáĥļ
áĥĲáĥ¤ áĥĲáĥ¨
áĥĶáĥ¨ áĥĲ
áĥĺáĥłáĥ Ĺ
Ġáĥľ áĥĿáĥłáĥĹ
Ġáĥ£áĥĽ áĥĿáĥ¡
¬ áĥĻáĥ·áĥĽáĥĲ
i z
áĥĺáĥĻ áĥĲáĥ¨
âĢĭ âĢĭ
ĠA us
áĥĶáĥľáĥ ¬
àµ ĥ
à¹Ģà¸ ¥
Ġn ur
ĠáĥĶ áĥĻ
es s
ĠáĥĽáĥ£áĥŃ áĥĿáĥĹ
h er
Ġà´ª à´±
Ġáĥĵ áĥ£áĥĵ
ĠáĥĵáĥĶáĥĻ áĥĲáĥĵáĥĲáĥ¨
áĥĶáĥ ĸ
ĠkÃ¶n nen
I I
ĠáĥĽ áĥĺáĥ¨
à´¾ à´Ĥ
áĥĺáĥ ĳ
Ġáĥĳ áĥł
áĥĺáĥĹ áĥĿáĥ¨
Ġáĥĺ áĥĵ
lich e
à¸Ń à¸ģ
áĥ¢ áĥĿáĥł
h en
1 6
áĥĺáĥ¢ áĥĿáĥł
áĥĶáĥ¤ áĥ¥
à¸ ¨
à¸Ħ à¸§
ier en
ĠE n
Ð ½
Ġ en
à¸Ħ à¸£
st er
Ġáĥ¡ áĥĲáĥ¥
ĠáĥĽáĥĲáĥ® áĥĿáĥł
o d
ĠB e
ĠáĥĲáĥ ķ
Ġa ber
à´ ĸ
Ġà´ Ń
Ġáĥ¢ áĥĶáĥł
Ġs p
áĥĺáĥĿáĥ ļ
1 3
Ġáĥĳ áĥĿáĥłáĥ¯
ĠáĥĿáĥĳ áĥŁ
à¸Ľ à¸£à¸°
scha ft
áĥĲáĥł áĥĶ
Ġm ehr
Ġáĥķ áĥĲáĥľ
ar b
i gen
z en
ĠáĥĹáĥĲáĥ¨ áĥľ
áĥĶáĥľ áĥĺ
Ġà´ħ à´µ
o k
Ġáĥĸ áĥ£áĥ¦
ah l
1 4
áĥĺáĥľáĥ ¯
ĠáĥĴ áĥł
à´ İ
ĠD e
Ġb is
Ġw ur
k en
b ar
Ġáĥ¨áĥ¥ áĥĲáĥ¡
ĠáĥĹáĥĲáĥ¨áĥľ áĥĶáĥ¨áĥĶ
ĠáĥĿ áĥĽ
p l
à¸²à¸ §
áĥĶáĥ ©
ĠáĥĽ áĥĲáĥ
ĠáĥķáĥĲáĥľ áĥĲáĥłáĥĻáĥĺ
áĥ£ áĥĲáĥ¨
à¸ ł
Ġáĥĺ áĥ£áĥļáĥĺ
áĥ£áĥłáĥ Ĵ
Ġáĥĺáĥ£áĥļáĥĺ áĥĲáĥľáĥ£áĥłáĥĺ
áĥĺáĥľ áĥĶáĥĳ
il l
à´ «
ĠáĥľáĥĿáĥ¦ áĥĲ
Ġáĥ® áĥĿáĥļáĥĿ
ĠáĥĻ áĥĿáĥĽ
Ġd o
e c
áĥĿáĥķ áĥĺáĥĹ
à¸ į
h t
a p
Ġ |
at z
áĥ£ áĥĲ
à¸Ī à¸°
19 9
as s
ĠáĥĴ áĥ·
g el
à¸§ à¸¢
er t
Ã¤ l
ĠáĥĿ áĥĿáĥłáĥ£
o b
der n
áĥĲáĥł áĥĲáĥ¨
áĥĵ áĥĲ
Ñ Ģ
sch en
. [
Ġ áĥĲáĥ¤
Ġal l
áĥĿáĥł áĥĺáĥľ
a ciÃ³n
Ġ à¸ª
áĥĺáĥľáĥ ĵ
à¸µ à¹ī
e x
Ġp ro
Ġà´ Ĺ
m e
t ra
áĥ· áĥ¤
áĥĶáĥľáĥ ª
áĥĶáĥľáĥ¬ áĥ·áĥ¤
i ge
Ġ áĥĲáĥ¡
ĠB er
k eit
a de
áĥĿáĥ £
Ġáĥ¢áĥĶáĥł áĥĺáĥ¢áĥĿáĥł
g l
ĠáĥĴ áĥĺáĥ¨
áĥĶáĥ¡ áĥŀ
f orm
à¸Ļ à¸Ĺ
áĥĲáĥ¨ áĥ®áĥĲ
Ġun s
ĠáĥĲáĥĽ áĥĶáĥł
Ġáĥ¨áĥ®áĥķ áĥĲ
2 5
00 0
áĥĿáĥľ áĥĺ
Ġdie s
áĥĴ áĥĺáĥľ
ĠA b
ĠA uf
om men
à¸ ©
áĥĿáĥļ áĥĿáĥĴ
Ġan der
- -
áĥĶáĥľ áĥĲ
ĠáĥĴ áĥķ
áĥ ĸ
à¸ ĺ
Ġáĥĺáĥ łáĥ
Ġà´ ¯
ĠG r
Ġáĥ¡áĥĲáĥ® áĥĶáĥľáĥ¬áĥ·áĥ¤
áĥĿáĥ® áĥĿáĥļ
áĥĲáĥ¤ áĥĺáĥļ
Ġà´ª à´°
d u
Ġáĥ¨ áĥĲáĥľ
Ã ©
u g
as sen
al t
áĥĲáĥļ áĥĲ
ĠD as
h eit
à¸ Ł
l ei
a c
à¸Ħà¸§ à¸²à¸¡
f en
áĥĲáĥłáĥ ¢
ff en
ach t
ĠáĥĻ áĥļ
áĥ£áĥ ¯
à¸« à¸¥
áĥł áĥĿáĥŀ
g lich
áĥĲáĥľ áĥĺáĥ¨
3 0
áĥ °
Ġà´ ±
à¹Ħ à¸Ľ
Ġáĥĺ áĥ¡
áĥĿáĥłáĥ Ľ
eh en
a st
à´° à´£
áĥĿáĥ ĸ
ĠG e
Ĺ áĥ®
à¸¹ à¹ī
Ġà´ĩ à´¤
áĥĺáĥľ áĥĲáĥĹ
Ġà´µ à´°
Ġáĥ¬áĥ§ áĥĲáĥłáĥĽ
ĠáĥĽ áĥĿáĥ¡áĥĿáĥ¤
Ð¾ Ð
Ġn eu
áĥĲáĥļ áĥ£áĥł
Ġc on
à´Ĥ .
Ã ±
Ġáĥ «
ĠáĥĲáĥĵ áĥĲáĥĽ
Ġáĥĺáĥĵ áĥķáĥĲáĥļ
ĠáĥĴ áĥĶáĥ¨áĥĲ
ab e
áĥĶáĥľáĥ ¯
áĥł áĥĲáĥ¤
om m
ĠáĥĻ áĥĿáĥĻ
áĥ£áĥ ¢
ĠáĥĲáĥ ®
Ġ à¸Ĺ
r Ã¼
n e
ĠD er
Ġp ar
Ã º
Ġà´ «
áĥ£áĥłáĥ ¡
Ã¤ hr
áĥĲáĥĵ áĥĲáĥļ
ĠáĥĴáĥ· áĥ¨
p er
ĠáĥĹáĥĺáĥ¨ áĥĺ
ĠV or
áĥĶáĥĳ áĥĲáĥ¨
un den
áĥ£áĥľ áĥĲ
Ġáĥ¡áĥĲáĥ¥ áĥĿáĥłáĥĹáĥ£
Ġà´ħ à´¨
ĠáĥĲáĥ ĳ
áĥĲáĥĶ áĥĺáĥĿáĥļ
Ġáĥĵáĥĺáĥĵ áĥĺ
ÃŁ en
ĠM it
Ĵ áĥĲáĥľ
Ġ à¹ģ
Ġáĥ¯ áĥķ
Ġáĥ¤áĥĺáĥļ áĥĽ
áĥĺáĥ£ áĥļ
áĥĲáĥ¨ áĥĺ
áĥ£ áĥĲáĥľ
f er
Ġb er
ei gen
i a
áĥĲáĥļ áĥĶ
etz t
à ¤
áĥ¬ áĥĻáĥ·áĥĽáĥĲ
Ġáĥ£ áĥ¦
5 0
f ahr
áĥĺáĥľ áĥĲáĥ¨
à´µ à´¨
ĠáĥĿáĥ ¤
áĥ£áĥłáĥ Ĺ
kti on
Ġà´ĩ à´¨
Ġj e
ĠâĢ ¢
Ġáĥ¬áĥĲáĥľ áĥĶáĥ¤áĥ¡
áĥ¢ áĥ£áĥł
ĠáĥĲáĥĻ áĥĽ
ĠáĥĽáĥ£áĥ ľ
l os
Ġw enn
Ġ à¸ģ
à´² à´¯
Ġáĥŀ áĥĶáĥł
s s
Ġà´¸ à´®
áĥ£áĥĳ áĥļ
e ch
áĥĲáĥľ áĥĻ
il d
Ġáĥ ľáĥ
áĥĶáĥĹ áĥĺáĥ¡
e kt
m al
a k
à¸£ à¸²à¸
g es
áĥĿáĥłáĥ ¢
áĥĶáĥĳ áĥ£
w ie
u st
áĥĶáĥłáĥ «
à¹Ģà¸ ŀ
Ġáĥł áĥ£áĥ¡
áĥ£áĥĹ áĥĲ
áĥĲáĥłáĥ ¡
Ġáĥª áĥĶáĥľáĥ¢
àµģà´Ĥ .
à´Ł à´¨
z e
r es
áĥł áĥĲáĥľáĥĴ
ĠáĥĽáĥ£áĥ¨ áĥĺ
el n
ĠáĥľáĥĲáĥĽ áĥ£
Ġv iel
Ġà´ Ī
áĥĶáĥ ®
Ġs oll
Ġg es
Ġà´ ¹
áĥĲáĥłáĥĹ áĥĺ
áĥĺáĥĻ áĥ£áĥłáĥĺ
ĠáĥĺáĥĵáĥķáĥĲáĥļ áĥ£áĥĲáĥ¤áĥ£
eh men
áĥĲáĥ ¸
w ar
à¹Ģà¸ Ĺ
Ġw eiter
áĥĳ áĥŁ
Ġáĥł áĥĶáĥ¡áĥŀ
n is
à¹ Ĩ
a ge
áĥĿáĥĳ áĥĲáĥ¡
ra u
à¸Ń à¸£
áĥĶáĥłáĥ Ľ
Ġc om
áĥĺáĥ Ŀ
à¹Ģà¸ Ķ
e ben
áĥķ áĥĲáĥĵ
ĠáĥłáĥĶáĥ¡áĥŀ áĥ£áĥĳáĥļ
áĥ Ń
Ġà´ Ł
b st
à¸« à¸£
Ġd ar
âĢ Ŀ
áĥĲáĥ Ń
ĠáĥĿáĥĳáĥŁ áĥĲáĥĹáĥĶ
1 1
g r
áĥĺáĥĿáĥ ĵ
Ġk l
áĥĶáĥ¤ áĥ¨áĥĶ
áĥł áĥĺáĥ¨
áĥĶáĥľáĥ ĵáĥ·
à¸Ń à¸¡
áĥĿáĥĳ áĥĲáĥĹ
áĥĺáĥĻ áĥĲ
âĢ ĵ
Ġà´ ı
k l
áĥĺáĥ ¤
ĠM ar
Ġ gen
ĠáĥĽ áĥĿáĥ®
ĠáĥĻ áĥĽ
Ġd ann
o v
Ġ x
Ġà´ ¡
Ġ à¹ģà¸¥à¸°
áĥ£áĥ Ļ
à¸Ń à¸ļ
áĥĲáĥ¡ áĥ¢
¬ áĥ§
ĠÂ ·
Ġà´¤ à´¨
Ġb es
à¹Ģà¸ Ĥ
Ġwur de
Ġh ier
ĠáĥĿáĥłáĥ ĴáĥĲáĥľ
ĠáĥĽáĥ£áĥ ĵ
ĠáĥĴ áĥĶáĥķ
Ġwie der
el le
áĥĿáĥĴ áĥłáĥĲáĥ¤
à´° à´ķ
ĠD aten
áĥķ áĥĺáĥĹáĥĿáĥ¨
ĠáĥĶ áĥķ
o hn
Ġà´ ĵ
à¸Ī à¸²à¸ģ
áĥĶáĥ £
áĥĲáĥļ áĥĿ
¡áĥ® áĥ£
Ġáĥ¬áĥ§áĥĲáĥłáĥĽ áĥĲáĥļáĥ£
áĥĺáĥ£ áĥł
ĠáĥĳáĥĿáĥłáĥ¯ áĥĺáĥ¡
Ñ ĥ
áĥĺáĥľ áĥĺ
a y
áĥĺáĥľáĥ ª
Ġs ehr
àµĩ à´¾
ÃŁ e
Ġáĥ¨ áĥ¢áĥĲáĥ¢
áĥĲáĥ¤ áĥ£
ĠáĥĽ áĥĺ
Ġdie se
Ġáĥ¡ áĥĲáĥĽ
ĠáĥĻ áĥĺáĥľ
à´ķ àµ¾
Ġ à¸¡
áĥĺáĥľáĥĴ áĥļ
Ġ et
a ck
áĥĿáĥł áĥĺ
ĠáĥĿáĥ ļ
Ġáĥ© áĥĺáĥľáĥĶáĥĳ
à¸ģ à¸£
Ġw as
ĠW ir
at t
à¸²à¸ Ĺ
áĥĵ áĥĺáĥĵ
o w
ĠáĥĴ áĥĺáĥĽ
Ġáĥ¥áĥĺáĥĲáĥľ áĥĲáĥ¨
áĥĿáĥľ áĥĺáĥ¨
19 6
à´¯ à´¨
Ã¶ glich
f l
à´° à´¸
ĠH er
áĥĲáĥľáĥĵ áĥ·
à¹Ģà¸ «
Ð »
áĥĲáĥª áĥĺáĥĲáĥ¨
i al
h nen
im m
à´Ł à´ķ
áĥĶáĥ© áĥĵ
áĥ¡ áĥŀ
à¸¹ à¹Ī
áĥĺáĥĿáĥ ĸ
áĥĺáĥł áĥĿ
à¸²à¸ ª
âĢľ ,
i bt
Ġáĥ¡áĥĲáĥ®áĥĶáĥľáĥ¬áĥ·áĥ¤ áĥĿ
Ã¼ t
Ġáĥĺ áĥĽ
or d
áĥķ áĥĲáĥĽ
Ġáĥ¡ áĥ£áĥĽ
áĥķ áĥĺáĥļ
ĠáĥĶ áĥļ
áĥķ áĥĲáĥł
Ġáĥ¡ áĥ¥
k e
el d
ĠáĥĿáĥ ¡
ĠáĥľáĥĲáĥĽáĥ£áĥ ĵ
o sten
ĠáĥĽáĥ£áĥ ¡
ers on
à´¯ à´ķ
Ġim mer
ei te
à¹Ģà¸ ª
à´° à´µ
Ġh er
áĥĶáĥĳ áĥĲ
Ġáĥĵ áĥĺáĥ®
Ġ %
Ġáĥ¡ áĥ¢
r in
ĠáĥĶ áĥĵ
2 4
áĥĺáĥĶ áĥłáĥĺ
ĠáĥĿáĥĿáĥłáĥ£ áĥĶ
a te
à¸ģ à¸¥
f ach
Ġf in
Ġh in
f e
áĥĶáĥłáĥ Ĵ
áĥĿáĥĽ áĥ£áĥ¨
Ġà´ķ à´£
o st
Ġsch on
ĠáĥĹ áĥĶáĥ¨
Ġ à¸Ħ
Ġ ,
it Ã¤t
ĠS o
ĠZ eit
áĥĺáĥĲáĥľ áĥ£áĥļáĥĺ
áĥ£áĥľáĥ ¡
ĠáĥĴ áĥ·áĥľ
Ġáĥĺáĥ ¸
Ġl ie
r it
Ġáĥľ áĥĲáĥľ
áĥĿáĥ ª
áĥĺáĥĲáĥľ áĥĺ
ell en
ĠE s
à¸ļ à¸£
i o
à¸ĩ à¸²à¸Ļ
áĥĺáĥĻ áĥĲáĥ¡
ĠB l
ĠáĥĲáĥłáĥ« áĥĲáĥ¨áĥĶ
áĥ® áĥ£áĥľ
Ġ à¸£
Ġ le
Ġge w
f ol
à´¤ à´®
ĠáĥĴáĥł áĥĺáĥĴ
ĠáĥĽáĥĿáĥ¡áĥĿáĥ¤ áĥĶáĥļáĥĺáĥ¨
ĠF l
d em
p t
à¸´ à¹Ī
Ġáĥ¡ áĥĿáĥĵ
áĥĺáĥłáĥ ¡
l ung
Ġg ro
áĥĿáĥľ áĥĿáĥĽ
ĠáĥĽáĥĶáĥ ¯
à¸ķ à¸£
áĥĶáĥł áĥĺáĥ¨
ein en
Ġ à¹Ĥ
ĠáĥĽ áĥĲáĥ¡
áĥĺáĥľ áĥĲ
Ġ áĥĲ
áĥ¢ áĥĺ
Ġáĥł áĥĶáĥĴ
à¸§ à¸Ļ
ŀ áĥĺáĥ¯
áĥ£áĥł áĥĿ
ie le
à¸¢ à¸Ļ
ĠáĥĴ áĥķáĥĲáĥļ
ĠáĥŀáĥĶáĥł áĥĺáĥĿáĥĵ
áĥĶáĥĹ áĥĺ
Ã¤ ch
rei s
o u
ĠU m
à´ ĺ
ĠáĥĿáĥ ĵ
ĠáĥĽáĥ£áĥ Ĺ
eit s
w as
l eich
sch ie
Ġ áĥĲáĥł
ĠáĥĴ áĥĶ
Ġà´ ŀ
u ÃŁ
Ġg ibt
Ġv om
Ġà´® à´¨
in e
ĠM a
áĥĺáĥľáĥ ·
áĥĺáĥłáĥĹ áĥ·
Ġa s
Ġdie ser
Ġg anz
gen d
à´Ļ àµ¾
à¸Ń à¸Ķ
Ł áĥĺáĥł
ĠáĥĴáĥłáĥĺáĥĴ áĥĿáĥł
ĠáĥľáĥĲáĥĽáĥ£áĥĵ áĥĲ
I n
à´Ł à´Ļ
à¸± à¹Ī
âĢ ¦
Ġs el
Ġs e
Ġà´ªà´± à´ŀ
ĠâĢ ľ
Ġáĥ¥ áĥĺáĥĽ
ĠáĥĹ áĥĺáĥ¥
áĥ£ áĥĲáĥ¡
áĥ£áĥ ¥
Ø §
ĠM en
Ġal le
Ġáĥ¨áĥĲáĥľ áĥ£áĥļ
áĥĿáĥł áĥĿ
áĥĲáĥļ áĥĺáĥ¨
áĥĺ áĥĲáĥĹ
Ġ áĥĲáĥľ
19 7
Ġe x
uch t
Ġáĥ¤ áĥĲáĥłáĥĹ
fÃ¼ hr
Ġáĥĺáĥľáĥĵ áĥĿ
ation en
ĠI m
z eit
Ġáĥ¢ áĥĺáĥĿáĥĸ
2 2
d ig
Ġà´¨ à´²
te m
ĠC h
ĠáĥĽáĥĶáĥ ¢
áĥĿáĥķ áĥĺáĥľáĥª
ĠáĥĻáĥĿáĥĽ áĥŀ
in der
at iv
ĠáĥĴáĥłáĥĺáĥĴáĥĿáĥł áĥĺáĥĲáĥľáĥ£áĥļáĥĺ
áĥĲáĥľ áĥĿáĥ¦
on der
áĥķ áĥĶáĥļ
ĠáĥĹ áĥĺáĥ¡
hal ten
ĠG es
Ġun ha
à¸· à¹ī
Ġ /
ĠáĥĿáĥ Ĺáĥ®
à´ļ à´¤
à´³ à´¤
Ġp er
Ġà´ķ à´´
Ġáĥĺ áĥĻ
ĠáĥľáĥĲáĥľ áĥĲáĥľáĥĿáĥ¦
ĠáĥĽ áĥĲáĥļ
áĥĺáĥľ áĥĺáĥ¡áĥ¢
Ġ à¸Ļ
ĠáĥĴ áĥĶáĥĴ
áĥĲáĥ ¬áĥĻáĥ·áĥĽáĥĲ
Ġáĥķ áĥĲáĥłáĥĵ
áĥ «
hn e
Ġs on
ĠáĥĲáĥłáĥĹ áĥĿ
u b
ĠG esch
Ġ :
áĥĿáĥ¡ áĥ¥
à¸²à¸ Ī
à´ª à´¤
Ġ à¸Ń
à¹ĥ à¸Ĭ
et t
ĠáĥĽáĥĶáĥ¯ áĥĺáĥľáĥĲáĥĹ
áĥķáĥĲáĥļ áĥĶ
ĠáĥĽ áĥĲáĥłáĥĲ
ĠáĥľáĥĲáĥĽáĥ£áĥ ¡
l en
Ġ [
m a
Ġáĥ£áĥĽáĥĿáĥ¡ áĥĺ
Ġáĥĺáĥľáĥ Ĵ
Ġáĥĺáĥ¡ áĥ¢áĥĿáĥł
áĥŀ áĥĶáĥł
à¸Ĺ à¸³
Ġh abe
rei ch
à´¿ âĢĭ
à¸²à¸ Ķ
e di
Ł áĥĲáĥĽ
ĠáĥĽ áĥĶáĥľáĥª
ĠáĥľáĥĲáĥĽ áĥĵáĥĲ
am en
Ġbe st
ĠEn t
Ġg el
] .
s o
ĠO r
Ġà´Ĩ à´°
à¸²à¸ Ħ
à´¨ à´Ļ
áĥĺáĥ ¦
ĠáĥĶáĥĵ áĥĿáĥĽáĥ£áĥ¨
ach en
áĥĶáĥ¨ áĥĺ
Ġáĥ© áĥ®
Ġáĥ¡áĥĲáĥ¥áĥĿáĥłáĥĹáĥ£ áĥĿáĥ¨
Ġáĥŀáĥł áĥĿáĥķáĥĺáĥľáĥª
Ġe st
l ie
o ok
Ġz wei
v or
áĥłáĥ ¡
à´¤ à´°
ĠáĥĽáĥĲáĥ®áĥĿáĥł áĥĿáĥĳáĥĲáĥ¨
à¸²à¸ ķ
áĥĶáĥ¥ áĥ¢
áĥĲáĥł áĥĺáĥľáĥ£
áĥĺáĥĸ áĥĽ
àµį ,
ĠK l
2 1
ti gen
Ġáĥ¯áĥĿáĥ® áĥĿ
áĥĿáĥ¥ áĥĺáĥĽ
áĥĿáĥ ªáĥ®
ĠáĥķáĥĲáĥłáĥĵ áĥĲ
Ġáĥł áĥĿáĥĽ
à¸ļ à¸ļ
k te
à¸²à¸ ŀ
áĥĲáĥĻ áĥĲáĥĹ
ĠP l
ĠB ei
ĠáĥĲ áĥĲáĥ¨
©áĥ¥ áĥĺáĥľ
Ġm ir
4 0
a is
f all
ĠáĥĶáĥķ áĥłáĥĿáĥŀ
à´¯ à´ª
Ġ à¸ŀ
ÃŃ a
c e
c o
s i
ĠN ach
à¹Ģà¸ ¡
Ġge gen
f or
e w
ĠÃ ľ
Ġáĥĳ áĥ£áĥľ
áĥĿáĥ ¸
Ġáĥľáĥĺáĥľ áĥĲ
ĠáĥĴ áĥĶáĥ
Ġ &
g esch
Ġpar a
e z
à´ ħ
àµ Ĺ
at ur
ĠáĥĳáĥŁ áĥĲáĥĶáĥĺáĥĿáĥļ
áĥĲáĥł áĥĶáĥ¤áĥĺáĥ¨
Ġáĥ£ áĥĵáĥĺáĥĵ
áĥł áĥĿ
ĠDe ut
1 00
ĠáĥĹ áĥĲáĥł
Ġáĥ® áĥķáĥĲáĥļáĥĶ
áĥĶáĥ¥ áĥ¡
áĥĲáĥłáĥ ¯
19 8
ier ung
Ġáĥ¢áĥĺáĥĿáĥĸ áĥĺ
áĥĶáĥĳ áĥ£áĥļáĥĺ
Ġd u
ad t
à¹Ģà¸ §
áĥ· áĥľáĥ
áĥĿáĥķáĥĺáĥĹ áĥĲáĥł
ĠáĥĽ áĥĿáĥľáĥ
áĥ· áĥĵ
à¹Ģà¸ Ħ
ich tig
ar d
Ġáĥĸáĥ£áĥ¦ áĥĲáĥ¨
áĥĺáĥ Ńáĥ§
áĥ£áĥł áĥĺáĥ¨
áĥĶáĥĳ áĥ£áĥļ
© áĥ®
Ġà´® à´±
à¸¢ à¸§
sch e
Ġso wie
g an
ver s
Ġáĥ£ áĥ©
áĥĿáĥ¨ áĥ®áĥķ
ck en
à´µ à´¸
ra m
p ro
am men
ĠáĥĴ áĥĿáĥķáĥĺáĥĹáĥĲáĥł
áĥĺáĥ¨ áĥĶ
áĥ£áĥĹ áĥĲáĥ¡
áĥĿáĥ «
al e
Ġge m
m itt
ĠáĥĴ áĥĿ
Ġáĥ¢ áĥł
Ð º
2 3
à´· à´£
ich er
à¸¸ à¹Ī
à¸£ à¸¡
Ġáĥ¬áĥĲáĥľáĥĲáĥ¨ áĥĶ
ĠáĥĲáĥłáĥ ¢
à¹Ģà¸ ķ
Ġk eine
at er
à¸²à¸ «
Ã¼ hr
ĠáĥĹ áĥĺ
Ġáĥŀ áĥĿáĥļ
áĥĶáĥļ áĥ¡
ĠáĥĶ áĥł
k s
Ġo b
ĠAr b
Ġb et
ie s
ĠUn ter
sp iel
ĠáĥĻ áĥķ
à¸Ľ à¸£
Ġc o
à¸¶ à¹Ī
Q u
Â Ń
áĥĺáĥľáĥ Ľ
à¸Ĺ à¸¢
on n
Ġm ich
h o
áĥĿáĥĵ áĥķáĥĲáĥļ
áĥĲáĥ ¬
ĠáĥĶ áĥŃ
à¸« à¸¡
ur g
Ġ à¸ķ
6 0
it z
áĥĲáĥļ áĥĶáĥ¤áĥĺ
áĥĲáĥļ áĥĶáĥ¤áĥĺáĥ¨
à¹Ģ à¸Ļ
ĠI ch
à´° à´¨
a gen
Ġ .
Ġà´ħ à´±
Ġ eigen
Ã¶ ch
à´¤ à´²
ĠáĥĽáĥĲáĥ Łáĥĺáĥł
áĥĺáĥ¡áĥ¢ áĥĺ
Ġein fach
2 7
ti on
in n
ĠáĥĳáĥŁ áĥĲáĥĵáĥĲáĥļ
ĠX V
ol le
n et
áĥĺáĥ Ń
ĠáĥĻ áĥ£áĥļ
ĠáĥĽ áĥĺáĥĿáĥ
ĠáĥĹ áĥĲáĥłáĥĺ
áĥĲáĥª áĥĺáĥĲ
áĥ£áĥ ª
w ick
Ġ os
Ġp ol
t ur
ĠáĥĲáĥ ¢
ĠáĥĽ áĥĿáĥłáĥ
ĠáĥĻ áĥĲáĥĹ
à´ķ à´£
ļ áĥĲáĥľáĥĵ
ĠáĥľáĥĲáĥľáĥĲáĥľáĥĿáĥ¦ áĥĲ
áĥĲáĥ¨ áĥ¥
áĥĺáĥļ áĥĶáĥĳ
áĥĺáĥľ áĥĺáĥ¨
Ġáĥ¡ áĥ®áĥ£áĥľ
ĠW as
i b
ad o
en den
o hl
2 8
àµįâĢį ,
Ġein es
us ammen
ei st
áĥĲáĥĵ áĥĿáĥ¨áĥ®áĥķ
ĠáĥľáĥĲáĥĽáĥ£áĥ¡ áĥ·áĥĹ
w end
à¸Ķ à¸¢
à´¤ à´¨
h em
Ġm al
ĠáĥĲáĥĽáĥĶáĥł áĥĺáĥĻ
ĠáĥĶ áĥ¨
ĠáĥľáĥĿáĥłáĥĹ áĥĺ
àµ¼ à´¤
à´¤ à´¤
r en
Ġáĥ¥ áĥĿáĥłáĥĹ
áĥĶáĥ¡ áĥ¢
áĥ£áĥ Ĵ
is sen
à´¯ à´Ļ
el e
ĠZ u
áĥĺáĥĶáĥ¤ áĥĺ
áĥĶáĥ ŀ
er en
w e
D er
ti ge
201 8
a ut
Ġg ut
áĥĺ áĥĲáĥ¥
Ġp or
ar k
n ah
u d
an k
ĠE ur
áĥĿáĥ Ńáĥ§
Ġáĥķ áĥĲ
Ã¼ s
ĠR eg
Ġd ir
à´¯ à´°
ĠáĥĴ áĥĿáĥ¤
áĥĽ áĥĲáĥł
Ġáĥ©áĥĺáĥľáĥĶáĥĳ áĥ£áĥļáĥĺ
ĠáĥŃ áĥĲáĥł
Ļ áĥķ
un de
eh t
om p
Ġáĥĸ áĥĿáĥ®
ĠáĥªáĥĶáĥľáĥ¢ áĥł
áĥĿáĥľáĥ Ĺ
áĥĺáĥĶ áĥĳ
am it
ĠL and
áĥĺáĥ¡áĥ¢ áĥĶáĥĽ
Ġáĥ¨áĥ®áĥķ áĥĲáĥĵáĥĿáĥ¨áĥ®áĥķ
ĠáĥĽáĥĶáĥľáĥª áĥĲáĥł
Ġáĥ¡ áĥŀ
Ġáĥĵ áĥĺáĥľ
áĥĶáĥľáĥ¯ áĥĺ
Ġáĥļ áĥ·áĥĽ
à´Ł à´ª
ĠÃľ ber
y st
tra g
âĢľ .
Ġn o
áĥĲáĥ¤ áĥĲáĥĹ
ĠáĥĿáĥĽ áĥĲáĥ¤
Ġg r
ĠK on
ĠS e
Ġg er
Ġm ein
ĠW er
re u
ĠáĥľáĥĿáĥłáĥĹ áĥĺáĥ¡
áĥĿáĥł áĥĿáĥªáĥ®
áĥĿáĥł áĥĿáĥľáĥĹ
áĥĲáĥ «
arb eit
Ġà´ī à´£
ĠW eb
es en
ĠáĥĻ áĥĲáĥľ
kti v
ig er
ĠáĥľáĥĿáĥ¦ áĥĲáĥ¨
Ġáĥĵ áĥĿáĥ®
ĠáĥĻ áĥĿáĥļ
Ġáĥ¬áĥ·áĥĽ áĥĲáĥłáĥĺáĥľáĥ£
ĠáĥĴáĥĶ áĥĿáĥĴáĥłáĥĲáĥ¤
ge ben
à¹Ģ à¸Ń
ĠB et
à¹Ģà¸ Ĭ
Ã¶ ff
áĥĲáĥ¥ áĥ¢
áĥĽ áĥĺáĥľáĥĺáĥ¡áĥ¢
Ġo hne
k ommen
s b
o ff
Ġg esch
áĥĿáĥ Ń
ĠáĥĻ áĥĿáĥ©
áĥĲáĥ¦ áĥĲáĥļ
lin e
Ġáĥ¡ áĥĻ
Ġ Qu
ĠL eben
Ã¤ hl
áĥĿáĥ¡áĥ¥ áĥĺáĥļ
Ġáĥ¡ áĥĺáĥ¡áĥ¢áĥĶáĥĽ
Ġáĥĺáĥ¸ áĥ£
à´Ĺ à´¤
ĠH and
à´· à´¨
ar i
19 5
à¸Ļ à¸ª
wei se
uch en
áĥĲáĥļ áĥ¡
Ġáĥĺáĥľáĥ ¢
áĥ¨ áĥĿ
eu te
à´° à´Ļ
Ġt ra
à¸ģ à¸©
ge m
w ischen
ĠIhr e
áĥĿáĥł áĥĺáĥ¨
áĥ¤ áĥĶáĥł
Ġáĥ¬áĥ§ áĥĲáĥłáĥ
áĥĺáĥª áĥĺ
ĠáĥĽ áĥĶáĥłáĥ
ĠUn d
Ð ²
Ġà´¨ à´Łà´¤
Ġn a
à¹ĥ à¸Ī
19 4
áĥĺáĥł áĥĺáĥľ
ĠáĥĽ áĥĺáĥļ
Ġáĥ¥ áĥĺáĥłáĥ¡
Ġáĥĵ áĥĿáĥłáĥ
áĥ® áĥĺáĥł
Ġáĥ §
i p
Ġà´ħ à´Ł
z eu
z o
t o
áĥĶáĥ©áĥĵ áĥĿáĥķáĥĺáĥĹ
ĠáĥĽ áĥĲáĥĵ
ĠáĥĲáĥ ĸ
ĠáĥĿáĥĻ áĥĿ
áĥĺáĥĿáĥľ áĥĺ
áĥĺáĥĻ áĥĿáĥ¡
ei m
à´² à´¤
ad a
i x
al en
áĥĶáĥłáĥ ľ
ĠáĥĿáĥļ áĥ¥
áĥķ áĥĲáĥľ
Ġà´ªà´± à´¯
ĠSp iel
Ġa r
ab ei
à¸¡ à¸²à¸ģ
ti k
ar ten
ĠáĥĽáĥ£áĥĵ áĥĲáĥľ
Ġáĥ¤ áĥĿáĥłáĥĽ
áĥĿáĥľáĥ ¡
yst em
Ġw el
Ġn un
st Ã¤n
D as
t eil
à´¨ à´®
Ġihr e
áĥ·áĥľ áĥĲ
áĥł áĥĲáĥ¢
áĥĲáĥĵ áĥĴáĥĺáĥľ
Ġáĥ¨áĥ®áĥķáĥĲáĥĵáĥĿáĥ¨áĥ®áĥķ áĥĲ
ĠáĥĽáĥĲáĥŁáĥĺáĥł áĥĲ
s k
Ġbei m
f ten
à¹ģ à¸ķ
a um
m in
ĠáĥĻáĥ£áĥļ áĥ¢áĥ£áĥł
áĥĲáĥ¤ áĥĲáĥ¡
Ġáĥĺ áĥł
áĥĿáĥłáĥ ĵ
áĥĿáĥĳ áĥ£áĥłáĥĺ
áĥļ áĥĺáĥ¡
Ġm o
ĠI I
2 6
ti v
Ġdies em
à¸§ à¸ĩ
ĠI hnen
Ġáĥ¯áĥĿáĥ® áĥĿáĥĵáĥķáĥĲáĥļ
Ġáĥ£ áĥľ
ĠáĥĽ áĥĲáĥľáĥĴ
áĥ ¸
r as
hal t
ĠáĥĶ áĥ¡áĥŀ
áĥĶáĥłáĥ ¢
® áĥķáĥĶáĥļ
Ñ ı
Ġsel bst
l au
di en
Ġj ed
áĥĿáĥĵ áĥĴáĥĺáĥľ
Ġáĥ¡áĥĿáĥĵ áĥĶáĥĹ
ĠáĥĹ áĥ£áĥĹ
ĠÃ ¡
8 0
t a
l l
áĥĲáĥ Ńáĥ§
áĥ£áĥł áĥĲ
ĠáĥĲáĥķ áĥ¢
Ġáĥ© áĥ¥
ĠÃ ©
âĢ Ļ
ĠIn form
Ġ à¸Ī
ci a
ĠáĥĴáĥĿáĥ¤ áĥĲáĥ©
Ġáĥ¤áĥĲáĥłáĥĹ áĥĿáĥĳ
s atz
Ġà´ī à´ª
r em
à¸ĩ à¸ª
¨ áĥĲ
áĥĲáĥĵ áĥ·
Ġáĥ¡ áĥĲáĥ¤
à¹Ģà¸ Ī
or en
à´° à´¯
Â ²
Ġ Ø
à¸§ à¸¡
à¸Ļ à¸Ļ
à´µ à´¤
áĥĲáĥ¤ áĥĲáĥļáĥĺ
à´ķ à´²
ha us
Ġb ie
ĠPro du
Ġ te
à´Ł à´°
à´¯ à´¯
el s
ĠáĥĽ áĥĿáĥ£
ĠáĥĶ áĥĴ
ĠáĥĿáĥ® áĥĿáĥł
áĥķ áĥĲ
áĥĺáĥ ©
áĥĲáĥ© áĥĶáĥĽ
áĥĶáĥ¡ áĥĺ
áĥĺáĥŃáĥ§ áĥ·
áĥĲáĥłáĥ ·
Ġà´µ à´¨
Ġà´İ à´¤
i de
b au
3 5
áĥĶáĥľáĥ¢ áĥĺ
Ġet was
p o
à´® à´¯
Ġm uss
áĥĲáĥ¤ áĥĺáĥłáĥĿ
Ġáĥ¢ áĥĿáĥĽ
áĥĺáĥľ áĥĶ
ĠF rau
Ġa c
Ġander en
ch n
2 9
à¸²à¸ ¥
à´¿ à´Ĥ
ĠáĥĽáĥĺ áĥĲáĥłáĥĶ
áĥĶáĥĸ áĥĺáĥĵ
áĥĶáĥ¤ áĥ¬áĥĻáĥ·áĥĽáĥĲ
er v
ĠP erson
Ġm Ã¡
à¸¢ à¸ĩ
à´ķ à´¤
Ġ à¸Ķ
d ing
ĠMen schen
áĥ® áĥ£
ĠáĥĽáĥĶáĥ £
áĥĺáĥ¢ áĥĶáĥ¢
ĠáĥĽáĥĲáĥ®áĥĿáĥł áĥĿáĥĳáĥĲ
áĥĿáĥ ļáĥĺ
áĥ¡ áĥ¢áĥł
Ġáĥ¡ áĥĲáĥĳ
¡áĥ® áĥ£áĥĲáĥ¤
p h
Ġw en
Ġs Ãº
7 0
r on
Ġáĥķ áĥĺáĥĹáĥĿáĥ¨
áĥĺáĥĿáĥ ľáĥ
¥ áĥ·áĥĹ
Ġáĥ¬áĥ§áĥĲáĥłáĥ ŀáĥĺáĥ¯
Ġáĥ¨ áĥĺáĥļáĥĶáĥĳ
ĠáĥĽáĥĺáĥ¨ áĥĽ
áĥĺáĥĶ áĥ¥
Ġo f
Ġà´° à´£
ĠA ut
Ġáĥĵ áĥĿáĥľ
Ġáĥĵ áĥĿáĥ®áĥĿáĥļ
Ġáĥ¡ áĥ¢áĥĲáĥ¢
o ur
oll en
r icht
áĥĿáĥ¡áĥ¥áĥĺáĥļ áĥĲáĥĵ
ĠáĥĹ áĥĲáĥ¥
ĠáĥĽ áĥĲáĥĻáĥĲáĥĹ
áĥĲáĥłáĥ ľ
áĥĶáĥ ª
Ġfin den
ĠL ie
ĠX I
áĥĿáĥ¦ áĥĲáĥļ
ĠáĥĲáĥļ áĥĽ
áĥĶáĥ¤ áĥ¨áĥĲ
ĠáĥĽ áĥĿáĥľ
ĠáĥĲáĥ® áĥĲáĥļáĥĺ
áĥĲáĥłáĥ ¥
stell en
Ð° Ð
z t
à¸ľ à¸¥
à¸ª à¸¡
à¸Ħ à¸Ļ
ĠáĥĴ áĥĿáĥļ
áĥł áĥĲáĥª
ĠáĥĽ áĥĺáĥĹ
ĠH aus
or n
Ã¤ uf
schl and
Ġde ut
ru ck
Ġ à¸ĭ
à´ķ à´¨
Ġáĥĵáĥ£áĥĵ áĥĺáĥ¨
Ġáĥ£áĥĵáĥĺáĥĵ áĥĲáĥ¨áĥĺ
áĥĿáĥĳ áĥ£áĥł
à¸ł à¸²à¸ŀ
r at
Ġ em
ĠT ag
ĠB est
ĠGr und
it ion
àµįâĢį .
ĠáĥĽáĥ£áĥ ŁáĥĲáĥĽ
Ñ Į
áĥĲáĥĴ áĥĲáĥĵ
áĥ® áĥĲáĥĸ
ĠáĥĿáĥłáĥ Ĺ
à¸¶ à¹ī
ei ÃŁ
d a
Ġ on
l and
am m
ra gen
ĠáĥĿáĥłáĥĴáĥĲáĥľ áĥĺáĥĸ
áĥł áĥĶ
ĠáĥľáĥĲáĥĽáĥ£ áĥĶáĥ¤áĥĺáĥĹ
Ġáĥĳ áĥĿáĥļ
ich te
tern ehmen
Ġs eine
Ġà´ħ à´µà´°
Ġ ...
Ġver b
201 1
âĢ ŀ
Ġáĥ ļáĥĺ
Ġáĥł áĥĲáĥĺ
áĥĲáĥ °
áĥķ áĥĺáĥĹ
áĥĲáĥĹ áĥ£
Ã¤l t
ĠK inder
à´± à´¤
201 7
en s
ah n
à¸£ à¸ĩ
Ġáĥ¤ áĥĲáĥľ
Ġà¹Ģà¸ ŀ
àµ¼ à´ķ
¨ áĥĶ
¡áĥ® áĥĺáĥł
áĥĿáĥ ¯
Ġáĥłáĥ ©áĥ¥
ĠáĥŀáĥĿáĥļ áĥĺáĥ¢
Ġge ht
ol og
a il
sch utz
Ġd amit
ĠVer s
Ġ à¸§
g ung
ĠIn tern
ĠD u
ĠmÃ¡ is
i f
áĥĲáĥļ áĥĶáĥ¤áĥ¡
áĥĿáĥľáĥ ĵ
áĥķ áĥĶáĥľ
u ten
s st
ĠáĥĲáĥĻáĥĽ áĥĲáĥĵáĥĴáĥĺáĥľ
áĥĿáĥ© áĥĲáĥĽ
áĥĻ áĥĿ
ĠáĥĺáĥĽ áĥŀáĥĶáĥł
ier te
hal b
Ġ à¸ļ
omm t
Ġunser er
id ade
áĥĲáĥľ áĥĹ
áĥĳáĥŁ áĥĲáĥĵáĥĲáĥļ
Ġáĥłáĥ ĵ
áĥ£áĥł áĥĶ
áĥĺáĥĶáĥ¤ áĥĺáĥ¨
áĥĲáĥł áĥĲáĥļáĥ£
áĥ£áĥĵ áĥĶáĥ¡
¡ áĥ¢
à´² à´ª
_ _
stell t
à´® à´¤
ĠU hr
à´¾ âĢĭ
ĠT eil
w eg
ĠR ei
Ġn on
ĠA m
áĥĽ áĥĿáĥ¡
ĠG er
ĠáĥĽáĥ£áĥľ áĥĲáĥ©áĥĶáĥĽ
ĠáĥĿáĥ¤ áĥĺáĥªáĥĺ
áĥĺáĥł áĥĺáĥľáĥ£
Ġáĥ£ áĥłáĥ
ĠáĥĻ áĥł
à´ ĩ
à´ķ à´®
la ge
Ġà´İ à´²
à¸ģ à¸§
an te
Ġsch n
ĠáĥĻ áĥĲáĥł
áĥĶáĥ Ł
Ġáĥľáĥ «
ĠáĥĹáĥĺáĥľ áĥĶáĥ¤áĥĺáĥ¨
ĠE x
S t
in nen
Ġà´ħ à´ª
Ġunser e
à¸Ń à¸¥
ĠM in
ran k
à¸ª à¸³
Ġáĥķ áĥĺáĥĻ
áĥĲáĥ¢ áĥĺ
ĠáĥĴ áĥ£áĥł
ĠáĥĿ áĥł
U n
a i
rie b
am il
ra g
à´Ĥ ,
à¸Ļ à¸ķ
Ġáĥ« áĥĲáĥļ
ĠáĥŀáĥĶáĥłáĥĺáĥĿáĥĵ áĥĺáĥ¡
ĠáĥĲáĥĵ áĥĽáĥĺáĥľáĥĺáĥ¡áĥ¢
áĥĲáĥ ¯
Ġáĥ¡ áĥĺáĥĽ
à´Ł à´¯
c a
Ġà´ķ à´°
Ġg leich
ie der
Ñ ĭ
Ġáĥ¥ áĥĲáĥłáĥĹ
áĥĵ áĥ¦
áĥĴ áĥ·áĥĽ
Ġáĥ£áĥ¦ áĥ£
Ġáĥ£ áĥ¯
ĠáĥĲáĥłáĥ¢ áĥĺáĥ¡áĥ¢áĥĺ
áĥ£ áĥĶáĥ¤áĥĺáĥ¨
d o
Ġer st
à´ª à´¨
Ġ or
ĠB es
Ġan ge
3 4
ĠF ahr
ĠP ol
à¹Ģ à¸ĩ
ĠáĥĲáĥĻ áĥĿáĥĵáĥĴáĥĺáĥľ
Ġáĥľ áĥĲáĥ®
áĥĺáĥłáĥĹ áĥ£
áĥĺáĥĻ áĥ£áĥł
Ġm achen
Ã¶ s
ich ten
ĠP art
9 0
Ġneu e
Ġm Ã¼s
ic a
3 8
áĥĺáĥľ áĥĲáĥ¡
Ġáĥ£áĥĽáĥĿáĥ¡ áĥĿ
Ġáĥ¨áĥĺáĥļáĥĶáĥĳ áĥĶ
ĠáĥĶ áĥłáĥ
áĥĲáĥ¤áĥĺáĥļ áĥĿ
un ktion
à´µ à´¶
ĠM on
ĠG eb
E R
schie den
ĠJahr en
a z
o ten
ĠáĥĸáĥĿáĥ® áĥĿáĥłáĥĺáĥľ
áĥĲáĥł áĥĶáĥ¤áĥĺ
ĠáĥĴ áĥĲáĥĽ
ĠáĥĴáĥĺáĥľ áĥĿáĥłáĥĹ
as e
Ġáĥ¦ áĥĿáĥłáĥĿáĥľáĥĹ
ĠáĥĲáĥĵáĥĲáĥĽ áĥĺáĥĶáĥł
Ġà´ħ à´¦
m ent
t es
w w
Ġhat te
k eiten
ĠDeut schland
en de
à´¿ ,
à¸¥ à¸ĩ
Ġwur den
ĠáĥĲáĥļ áĥĳ
Ġáĥĵ áĥĿáĥ¡áĥ¥áĥĺáĥļáĥĲáĥĵ
áĥ£ áĥĲáĥĹ
áĥĲáĥľ áĥĶáĥĹáĥĺáĥ¨
h m
a ar
iv e
ĠT ra
Ġà´¨ à´®
A n
ĠáĥĻ áĥĺáĥļ
ĠáĥĿáĥĳáĥŁ áĥĲáĥĹ
áĥĶáĥłáĥ ĵ
áĥĶáĥļ áĥĿ
Ġ áĥĲáĥĹ
Ġáĥĺ áĥ¢
ru pp
a den
Ġà´ħ à´®
z eich
Ġcom o
z ahl
Ġ à¸Ľ
ĠSt adt
à´¯ à´±
áĥĶáĥł áĥĿ
áĥĿáĥ¨ áĥĶ
ĠáĥĽáĥ£áĥ ¡áĥ®áĥĺáĥł
ĠáĥłáĥĶáĥ¡áĥŀáĥ£áĥĳáĥļ áĥĺáĥĻáĥĲ
Ġáĥĵ áĥĺ
áĥĲáĥļ áĥĲáĥ¡
ĠáĥĺáĥľáĥĴ áĥļáĥĺáĥ¡
al d
u te
fahr en
o ck
isch er
ĠD a
Ġà´¸ à´°
Ġaus ge
Ġj etzt
-- --
er e
áĥĲáĥĳ áĥĲáĥĵ
ĠáĥĲáĥłáĥ ¥
áĥĲáĥļ áĥĲáĥĹ
ĠáĥľáĥĲáĥĽ áĥ·
Ġáĥ¢áĥĶáĥłáĥĺáĥ¢áĥĿáĥł áĥĺáĥĲáĥ¡
m an
ĠáĥĶ áĥĹ
Ġà´ķ à´®
Ġ Y
Ġà´ħ à´²
Ġà´ı à´±
k auf
en te
s am
Ġbe k
Ġáĥ£áĥ© áĥĲ
áĥł áĥĲáĥĽ
áĥĶáĥłáĥĽ áĥĲáĥľ
Ġáĥ¤áĥĲáĥłáĥĹáĥĿáĥĳ áĥĺ
Ġáĥķ áĥĲáĥłáĥĲ
Ġà´Ĵ à´¨
sp re
áĥĲáĥłáĥ ļ
ĠáĥĹ áĥ®
áĥĺáĥĻ áĥļ
àµģà´Ĥ ,
Ġd och
Ġk ein
à´ª à´°
w ir
ei g
à¸ģ à¸£à¸°
à¸¡ à¸²
ĠS ex
b urg
ĠK ont
Ã¤ d
Ġv iele
Ġd os
Ġl assen
ĠW elt
áĥĲáĥĽ áĥĿ
áĥĳáĥŁ áĥĲáĥĶáĥĺáĥĿáĥļ
áĥĶáĥľ áĥĺáĥ¨
áĥĲáĥľ áĥ¬
ĠáĥĽ áĥĺáĥĻ
ĠáĥĲáĥłáĥ ¡
ĠáĥĺáĥľáĥĵáĥĿ áĥĶáĥĹáĥĺáĥ¨
ĠáĥĶáĥł áĥ£áĥĲáĥľ
201 6
ĠB o
3 1
al ten
sch ei
à´¨ à´¯
Ġj a
ĠáĥĻáĥĲáĥļáĥĶáĥľáĥĵ áĥĲáĥł
áĥ£áĥ ŀ
Ġáĥ¥áĥĺáĥĲáĥľ áĥĲ
áĥĲáĥł áĥĿ
ĠáĥĶáĥĵáĥĿáĥĽáĥ£áĥ¨ áĥĲáĥĽáĥĺ
áĥĶáĥ¤ áĥª
ĠáĥĽáĥ£áĥ Ľ
ĠM an
Ġden n
in ter
ĠM us
à¸²à¸£ à¸ĸ
Ġall es
ew s
Ġ el
Ġz wischen
der t
à¸²à¸ Ń
ĠáĥľáĥĲáĥĽáĥ£áĥ ¥áĥ·áĥĹ
áĥĺáĥĲáĥ¨ áĥĶ
ĠáĥĲáĥĵáĥĽáĥĺáĥľáĥĺáĥ¡áĥ¢ áĥłáĥĲáĥª
ĠáĥĿáĥ¨ áĥ¥
áĥ£áĥłáĥ ĵ
z ent
an ge
Ã¡ n
201 2
f Ã¼r
b ild
a kt
ĠN utz
Ġge h
ĠF or
à´² à´ķ
áĥĹ áĥĲáĥķ
ĠáĥĿáĥ® áĥķáĥĲáĥĽ
ĠáĥĲáĥłáĥ« áĥĲ
Ġáĥĺ áĥľ
Ġáĥ¤ áĥĶ
Ġáĥłáĥ Ļ
áĥĺáĥľ áĥĶáĥļáĥĺ
áĥĲáĥĻ áĥĶáĥłáĥ«
à¹ģ à¸ļà¸ļ
à¹Ħ à¸Ĺà¸¢
ch er
Ġs eit
Ġà´ª à´¤
ĠVer b
osten los
II I
und es
à´ ł
I ch
n ung
Ġ à¸Ĭ
am t
zo gen
Ġáĥ¥áĥĺáĥĲáĥľ áĥĲáĥ¡
ĠáĥĽáĥ£áĥĵ áĥĴ
bl em
at s
s etz
Ġm Ã¶ch
uÃŁ er
Ġ '
Ġà´¸ à´¹
it u
Ġin s
Ġ â
áĥ£áĥłáĥĹ áĥ£áĥĹáĥĲ
ĠáĥĹ áĥĶáĥ
ĠáĥĹ áĥĶáĥľáĥĲ
áĥ£áĥł áĥĲáĥ¨
ĠáĥĿáĥĳ áĥĺáĥĶáĥ¥
ĠáĥĲáĥ¤ áĥł
ĠáĥĻ áĥ£áĥĳ
a x
ent o
z ie
lich er
c om
áĥĶáĥłáĥ« áĥĶáĥľ
ĠáĥĻáĥĿáĥĻ áĥĶáĥ¤áĥĺ
Ġáĥ¡ áĥĺáĥĴ
Ġáĥ® áĥĶáĥļ
áĥĲáĥ¡ áĥĺáĥĲáĥĹ
áĥ¨ áĥĲáĥ®
ĠáĥĲáĥłáĥĹ áĥĺ
Ġson dern
Ġb en
Ã¶ l
kl Ã¤r
an der
p r
Ã¤ m
à´° à´¦
ĠL e
ĠW ar
s el
" ,
ĠAl l
Ġáĥľáĥĺáĥľ áĥĲáĥ¨áĥĲ
ĠáĥĵáĥĿáĥ®áĥĿáĥļ áĥĲáĥ¤áĥĺáĥłáĥĿ
ĠáĥĵáĥĿáĥ¡áĥ¥áĥĺáĥļáĥĲáĥĵ áĥĺáĥłáĥĺ
Ġáĥŀ áĥĺáĥł
ĠáĥŁ áĥĺáĥłáĥĺ
Ġáĥľ áĥĲáĥłáĥĻáĥĺ
áĥķ áĥĶ
Ġ ch
ĠRe cht
Ñ ħ
ro s
r itt
al itÃ¤t
at Ã¼r
à´Ļ à´¨
Ġge f
Ø§ Ø
st and
Ġdies es
« áĥĴ
áĥĺáĥ¢ áĥ§
ĠáĥĲáĥł áĥĲáĥĳ
ĠáĥĶ áĥľáĥ
ĠáĥĻáĥļ áĥĲáĥłáĥ¯
Ġt he
à¸Ħ à¸¥
à¸²à¸¡ à¸²à¸£à¸ĸ
ic e
ĠT e
m o
4 5
st ag
W ir
Ġp o
i te
áĥĽ áĥĺ
Ġáĥ¢ áĥ§
áĥ£áĥłáĥ ¥
ig n
âĢĭâĢĭ âĢĭ
Ġà´Ĩ à´¦
stell ung
S ch
àµĨ .
à´¯ à´µ
Ġbes onder
ĠsÃº a
ur z
la gen
ĠG l
ĠáĥĽáĥĿáĥłáĥ ©
áĥĶáĥĵ áĥĶáĥł
áĥĺáĥ¨ áĥĲ
à´± à´µ
kt u
Ġander e
Ġà¹Ģà¸ Ľ
ĠInform ationen
Ġein z
Ã¤ re
im mer
Ġin ter
Ġ à¸Ĥ
g ang
am p
Ġp ers
f te
Ġw Ã¼r
Ġ Ñģ
Ġd i
Ġd abei
ĠáĥŁ áĥĲáĥłáĥľ
ĠáĥĽ áĥĶáĥļ
áĥ¦ áĥķ
ĠáĥĻáĥĿáĥľáĥ ¢
u le
Ġà¹ģ à¸ķ
ber g
ei le
Ġs ol
Ġà´ħ à´Ń
an den
Ġb in
Ġb esch
ĠX X
áĥ£áĥ¡ áĥĺ
áĥĲáĥľ áĥ¥
ĠáĥĳáĥĿáĥłáĥ¯ áĥĺáĥ¨
ĠáĥªáĥĶáĥľáĥ¢ áĥłáĥĺ
Ġáĥŀ áĥĺáĥ¯
ĠáĥĲáĥ® áĥĲáĥļ
Ġáĥŀáĥł áĥĶáĥĸáĥĺáĥĵ
ĠáĥĽ áĥĲáĥ¦
au pt
Ġm Ã¶glich
ĠM al
ie d
ĠO n
ri ff
u p
à¹ Ĭ
ind et
ro t
Ġà´ ·
Ã¤ ÃŁ
ĠUn ternehmen
.. ..
Ġáĥ£ áĥ®
ĠáĥĵáĥĿáĥ® áĥĿáĥł
ĠáĥĴ áĥĶáĥłáĥĽáĥĲáĥľ
Ġáĥ¬áĥ·áĥĽáĥĲáĥłáĥĺáĥľáĥ£ áĥĲáĥľáĥ¡
Ġáĥł áĥĿáĥļ
áĥĺáĥľáĥ ¡
Ġáĥ¯ áĥĺáĥľáĥ¯
ĠáĥĽáĥĶáĥ ®
Ġbe g
à¸²à¸ Ĭ
ul tur
ĠF Ã¼r
it te
à¸ĩ à¸Ĺ
g ram
Ġà´µ à´²
Ġe ben
ĠE l
ann t
àµ º
as ch
re cht
ig keit
ĠJahr e
Ġáĥ¤ áĥłáĥĲáĥľáĥĴ
áĥĲáĥ¨ áĥĿ
áĥĲáĥ §
Ġge st
en z
ri v
ĠIntern et
w ort
Ġber eits
ra f
à´£ à´®
Ġer sten
à¸« à¸§
Ġl etz
ĠáĥĽ áĥĿáĥļ
áĥļ áĥĶ
áĥķ áĥĺ
Ġáĥ¨áĥĲáĥľáĥ£áĥļ áĥĲáĥĽáĥĺ
Ġáĥł áĥĶáĥļ
áĥ£áĥľáĥ ¥
ĠáĥĿáĥłáĥ ĵ
ĠáĥĿáĥĵ áĥĿ
k er
Ñ ĩ
Ġa o
à´¹ à´¤
k un
Ġwar en
r um
o ber
ĠD es
Ġw ill
ĠWas ser
ĠT hem
Ã¶ff ent
Ġge b
ĠF re
ĠáĥĽ áĥĲáĥłáĥĴ
áĥĿáĥłáĥ ¡
áĥĲáĥłáĥĹ áĥĿ
Ġáĥŀ áĥĲáĥ¢
áĥĺáĥł áĥĿáĥľ
Ġver l
à¹Ģà¸ ¢
ĠáĥĴáĥĶáĥķ áĥĲáĥł
ern e
z w
uch e
à¸Ń à¸ª
Ġal ler
Ġk ommen
ier ten
Ã¤t z
Ġà´® à´¤
h ol
ĠáĥĽ áĥĺáĥľ
Ġ áĥĲáĥľáĥ¢
ĠáĥĲáĥĵáĥĲáĥĽ áĥĺáĥĶáĥłáĥĺ
Ġáĥ£áĥĽ áĥĶáĥľáĥ¢
áĥĲáĥ Ŀáĥ
ĠáĥĿáĥłáĥ ®áĥķáĥĶáĥļ
ĠáĥĿáĥĻ áĥĺáĥĲáĥľ
áĥĲáĥ¸ áĥĲáĥ¤
i Ã³n
à¸Ń à¸Ńà¸ģ
ĠP f
em ber
ĠÃ ĸ
ĠN eu
Ġzur Ã¼ck
au er
ĠW och
ĠmÃ¼s sen
t schaft
m ei
à´İ à´¸
un ter
Ġsoll te
r y
áĥĶáĥļ áĥĶ
áĥĲáĥĽ áĥĳ
ĠáĥĲáĥĽáĥĶáĥł áĥĺáĥĻáĥĲáĥ¨
Ġáĥĵ áĥĺáĥłáĥ
áĥ£áĥļ áĥĿ
Ġáĥ¤ áĥł
Ġáĥ¡áĥĲáĥ¤ áĥłáĥĲáĥľáĥĴ
Ġz usammen
ĠGe w
a v
E in
Ġsein er
t s
ĠArb eit
and o
ĠF il
à¸Ĺ à¸²à¸ĩ
9 9
àµģ âĢĭ
àµįâĢĮ .
i an
f in
Ġáĥ¡ áĥĲáĥĺ
ĠáĥĲáĥĻáĥĿáĥĵáĥĴáĥĺáĥľ áĥĲáĥļáĥ£
Ġáĥĵ áĥĶáĥĽ
Ġ áĥĲáĥĹáĥĶ
Ġáĥ£ áĥ¨
ĠA u
Ġáĥ¥ áĥ·áĥĵ
o c
om e
3 6
âĢ İ
Ġk onn
Ġà´ħ à´§
g ar
Ù ħ
es sen
ĠIn ter
ĠK unden
à´ķ à´ª
Ġà´² à´Ń
h in
áĥĶáĥłáĥ ĳ
áĥĺáĥ¦ áĥ·
ĠáĥĽ áĥĺáĥłáĥ
ĠáĥĶáĥĻ áĥĿáĥľáĥĿáĥĽ
ĠáĥĲáĥĽáĥĶáĥłáĥĺáĥĻ áĥĲáĥļáĥĺ
áĥĶáĥ¤ áĥ¨áĥĿ
áĥ¡ áĥ¢
ĠáĥĽ áĥĲáĥłáĥ
à´Ń à´µ
k ten
is s
ĠW enn
u bl
y m
à¸§ à¸ģ
Ġver schieden
Ðµ Ð
ch te
Ġw o
à¸ Ĳ
ĠSch w
Ġ à¸ģà¸²à¸£
à´µ à´¯
fol g
áĥĿáĥľ áĥĶáĥ©áĥĵáĥĿáĥķáĥĺáĥĹ
áĥľ áĥĲáĥłáĥĻáĥĺ
ĠáĥĴ áĥĿáĥłáĥ
ĠáĥĴ áĥĶáĥłáĥĴ
áĥĺáĥĶáĥ¤ áĥ¡
áĥĶáĥ£ áĥļ
áĥĿáĥĳ áĥĲáĥ¥
ĠáĥĲáĥ ¥
¡áĥ¢ áĥĺáĥ¢
Ġáĥļáĥ·áĥĽ áĥĲáĥ¨
gl eich
201 0
Ġdie sen
Ġ à¸¥
ĠG em
à¸ Ŀ
Ð½ Ð¸
Ġda zu
Ġje der
Ġneu en
! !
m ann
Ġáĥ¡áĥĻ áĥĿáĥļ
áĥĲáĥł áĥ£áĥļáĥĺ
ĠáĥĿáĥ¤ áĥ£áĥ¢
ĠáĥľáĥĲáĥ® áĥĲáĥľáĥĵ
Ġáĥ¯áĥķ áĥĶáĥ¨áĥĺ
áĥķ áĥĶáĥľáĥ¯áĥĺ
h Ã¤lt
à¸ŀ à¸£
Ã¼n st
à¸¢ à¸¡
o x
à´ Ĩ
à´¸ à´°
Ã© n
ĠM edi
ĠAr t
sp r
Ġáĥ¥áĥĿáĥłáĥĹ áĥ£áĥļáĥĺ
áĥ· áĥļ
ĠáĥĲáĥĻ áĥĿáĥ¥áĥĺáĥĽ
áĥĲáĥª áĥĺáĥĿáĥľ
áĥ£áĥĽ áĥĺ
Ġáĥļáĥĺ áĥĲáĥ¨áĥĲ
áĥĶáĥł áĥĶáĥ¤áĥĺ
áĥ£áĥľáĥ ¢
áĥĽ áĥĲ
áĥĺáĥŃ áĥĶ
áĥĿáĥ¡ áĥ¢
áĥĲáĥĺ áĥľ
ĠáĥĿáĥ¨áĥ¬áĥĲáĥľáĥ£áĥł áĥĲáĥ¡
áĥĲáĥ£ áĥ©
ĠáĥĲáĥ¤ áĥ®áĥĲáĥĸ
ĠB ild
ĠM itt
Ġà´ľ à´¨
t ag
à¸Ļ à¸Ķ
ra ge
Ġh eute
i der
ĠM o
un kt
i sten
áĥĿáĥĻ áĥłáĥĲáĥ¢
ĠáĥĽ áĥĲáĥĴ
ĠáĥĻ áĥĲáĥľáĥĻ
áĥĺ áĥĲáĥł
Ġáĥĵ áĥĶ
Ġà´ī à´³
an gen
ĠDie se
z ei
" .
à¹Ģà¸ ļ
Ġs ei
Ġst eht
áĥĺáĥŀ áĥĺáĥ¨
áĥĻ áĥĿáĥĽ
áĥĶáĥ¤ áĥĿ
Ġáĥĳáĥł áĥĺáĥ¢
áĥĲáĥ¨ áĥ£áĥłáĥĺ
Ġáĥķ áĥĺáĥĹ
Ġáĥĺ áĥ¨
Ġáĥķ áĥĲáĥł
os e
Ġver s
Ġ à¹ĥà¸Ļ
Ġihr er
schl ie
l s
Ġs ex
u er
r Ã¼ck
s icht
ĠÐ ²
201 5
ra d
Ġáĥŀáĥł áĥĶáĥĽ
áĥĲáĥ¡ áĥĺ
Ġáĥŀ áĥĿáĥŀ
áĥĺáĥķ áĥĶáĥłáĥ¡
áĥĺáĥł áĥĺáĥ¨
ĠáĥĴ áĥĲáĥľ
ĠáĥĶ áĥ¥
ĠáĥĿáĥłáĥĹ áĥĲáĥ¨
áĥĿáĥļ áĥ£áĥª
wer t
v en
Ġf Ã¼hr
à´° à´µà´°
alt ung
Ã¤n g
Ġà´Ĩ à´¯
à¹Ĥ à¸¥
Ġo u
ĠkÃ¶n n
Ġ #
à¸Ļ à¸ģ
ĠW ei
ĠáĥĿáĥ¤áĥĺáĥªáĥĺ áĥĲáĥļáĥ£áĥłáĥĺ
ĠáĥĴáĥķ áĥĶáĥłáĥĵ
ĠáĥĻáĥĿáĥ© áĥĺ
áĥĺáĥł áĥĶ
áĥ£áĥĹ áĥĺ
Ġáĥ® áĥĲáĥľ
áĥĿáĥľ áĥĺáĥĲ
áĥĺáĥľáĥ «
Ñģ ÑĤ
Ġd rei
or den
st Ã¼t
ĠF rei
ĠS eite
Ġk ommt
à¸£ à¸Ħ
à´² à´µ
Ġf ol
p ar
Ġáĥĳ áĥĺáĥł
200 9
Ġáĥ¨áĥ¢áĥĲáĥ¢ áĥĺáĥ¨
áĥ¢áĥĿáĥł áĥĺ
ĠáĥĻáĥĿáĥĻ áĥĺ
áĥķ áĥĺáĥŀ
áĥĺáĥļ áĥĺáĥ¨
ĠáĥĶ áĥ©
ĠáĥĿáĥ Ń
áĥĶáĥĳ áĥĲáĥĹ
áĥĴ áĥ£áĥ¨
Ġáĥļ áĥĲáĥĹ
áĥĿáĥ®áĥĿáĥļ áĥĶ
Ġáĥ¸ áĥĿáĥ¤
ĠáĥĲáĥķáĥ¢ áĥĿáĥľáĥĿáĥĽ
Ã¤hr end
Ġà´µ à´³
à¸Ļ à¸Ħ
àµ½ à´ķ
à¸Ī à¸³
s eite
à´± à´ķ
lich t
ĠT he
d ung
Ġschn ell
áĥĿáĥ¡ áĥĺáĥ¨
Ġáĥĳ áĥĲáĥ¦
Ġáĥª áĥ®
ĠáĥĿáĥĿáĥłáĥ£ áĥĶáĥ¨áĥĶ
áĥĿáĥ¨ áĥ¥
áĥĲáĥłáĥĹ áĥ·
ĠáĥĽ áĥĺáĥĽ
Ġáĥĸ áĥĺáĥ¢áĥ§
áĥ£ áĥĲáĥļ
áĥ£áĥĽ áĥĶ
ĠáĥĲáĥłáĥ ĸ
ec t
o te
ĠÐ ¿
ĠS te
or e
à¸Ļ à¸§
c l
eu er
ro m
Ġf est
f ern
ĠSch l
wer k
nah me
gr und
ĠG en
b ung
ĠA d
áĥĿáĥłáĥ ª
Ġáĥ¤ áĥĶáĥĵáĥĶáĥł
ĠáĥĽáĥ£áĥŁáĥĲáĥĽ áĥ¡
Ġáĥŀ áĥĲáĥł
ĠáĥĽ áĥĲáĥłáĥĲáĥ¨
Ġáĥŀáĥł áĥĿáĥª
Ġáĥłáĥ£áĥ¡ áĥĶáĥĹáĥĺáĥ¨
Ġáĥ¦ áĥĲáĥľáĥĻ
il der
f rei
Ġ Î
E N
ĠEin e
ĠG ro
à¸£ à¸ģ
k ehr
ĠF all
à¸ĩ à¸Ħ
à¸²à¸ Ĥ
nis se
Ġein mal
Ġ à¸ľ
à´® à´¨
à¸ŀ à¸£à¸°
b all
Ġ áĥĲáĥ¨
Ġ à¸«
Ġáĥĵ áĥĺáĥŃáĥ§áĥ·
ĠáĥĽáĥĲáĥ ¸
ĠáĥłáĥĻ áĥĺáĥľáĥĲáĥ¨
Ġáĥ¬ áĥĺáĥĽ
áĥĻ áĥļ
as se
y p
Ã¶ ÃŁ
à´¯ à´²
on s
à´· à´¤
ĠU r
à¸Ļ à¸¡
Ĥ ¬
Ġà´Ĩ à´ķ
ĠP ar
Ġals o
Ġa ut
ĠP h
ĠK omm
f il
ĠáĥĲáĥĳ áĥĲáĥľ
áĥĺáĥĻ áĥ£áĥļáĥĺ
áĥĺáĥ£ áĥ¢
áĥĺáĥĿáĥ łáĥ
ĠáĥĲáĥķ áĥ¡áĥ¢áĥł
Ġáĥľáĥĺáĥľ áĥĲáĥ¨
ĠáĥĴáĥĿáĥ¤áĥĲáĥ© áĥĺáĥļáĥĺ
Ġà¹Ĥ à¸Ķà¸¢
201 3
l o
Ġn os
ei tet
arbeit ung
Ø§ Ù
Â »
Ġc ont
ĠL in
Ġn atÃ¼r
al is
à ¦
for der
à¸£à¸²à¸ °
ĠSt ra
áĥĲáĥłáĥĴ áĥĲáĥļ
Ġ à¸¢
ĠáĥĲáĥĽ áĥĵáĥ¦
Ġáĥ¡ áĥĶáĥł
Ġáĥ¬ áĥĲáĥłáĥĽ
áĥĺáĥĿáĥľáĥ ¡
áĥĺáĥ£ áĥ¡
ĠáĥĽáĥ£áĥ Ļ
áĥĺáĥłáĥ Ļáĥķ
ĠáĥĶáĥŃ áĥĿáĥ¤
Ġáĥ¤ áĥĺáĥĸ
áĥĶ áĥĶáĥ¤áĥĺáĥ¨
Ġáĥ® áĥĶáĥ¨
ĠáĥĶáĥłáĥ£áĥĲáĥľ áĥ£áĥļáĥĺ
áĥĶáĥķ áĥĿáĥļáĥ£áĥª
ĠA uch
ĠB undes
à¸£à¸²à¸ Ħ
Ġver w
m us
Ġv oll
à¸Ļ à¸Ń
à¸ĩ à¸ģ
on e
Ġm eine
3 2
Ġ =
b r
áĥĲáĥłáĥĹáĥĿ áĥĺáĥĲáĥľ
áĥĲáĥ¤ áĥ£áĥļ
ĠáĥĽ áĥĲáĥłáĥĹ
ĠáĥŃ áĥĺáĥŃáĥĶ
ĠáĥĲáĥĵáĥĽáĥĺáĥľáĥĺáĥ¡áĥ¢áĥłáĥĲáĥª áĥĺáĥ£áĥļáĥĺ
ĠáĥĻ áĥĲáĥ¢
Ġáĥłáĥ ¡áĥ®
ĠáĥĴáĥĶáĥ ¸
w or
¥ áĥĺáĥĲáĥľ
rei chen
Ã¤n ger
Ġf rei
auf en
ĠW ohn
à¹Ģà¸Ħ à¸£
ck e
Ġà´® à´£
à¸²à¸ ļ
Ġsch Ã¶n
à¸´ à¹ī
ĠF amil
sch ein
ie t
ĠA ber
áĥĽáĥĿáĥ¡ áĥ¤áĥĶáĥł
Ġáĥĺáĥłáĥ ļáĥĲáĥľáĥĵ
Ġáĥ¯áĥĿáĥ®áĥĿáĥĵáĥķáĥĲáĥļ áĥĲ
ĠáĥĴáĥĺáĥľ áĥĺáĥłáĥĹáĥ·
áĥĶáĥłáĥ ¥
áĥĺáĥłáĥĺáĥľ áĥ£áĥĲáĥ¤áĥ£
ĠáĥĴáĥĿáĥķáĥĺáĥĹáĥĲáĥł áĥĲáĥ¤áĥĲáĥ¨
Ĺ áĥ£
áĥĲáĥª áĥĺáĥĲáĥ¡
Ġáĥ¥ áĥ·áĥĽ
Ġáĥĵáĥĺáĥ® áĥĲáĥ£áĥ©
áĥ£áĥ ©áĥ®
ĠD urch
ĠâĢ ĺ
ĠAn geb
201 4
rin gen
in a
à¸ķ à¸²à¸¡
ĠS ti
à´ļ à´¯
Ġh och
Ġg ar
Ġw eil
i um
fall s
200 8
ĠáĥĹ áĥĲáĥ®
Ġáĥ© áĥĲáĥľ
ĠáĥĿáĥ ľ
áĥĺáĥķáĥĶáĥłáĥ¡ áĥĺáĥ¢áĥĶáĥ¢
Ġáĥ¯ áĥĺáĥĽ
Ã¤ h
ci al
zu g
Ġà´Ĩ à´£
p rÃ¤
Ġd un
Ġk om
Ġihr en
ĠU S
à¸Ľ à¸¥
g ie
imm t
ĠB uch
ĠH ier
a ff
en k
l Ã¤
ĠI V
ĠB au
Ġwel che
ĠG o
Ġb lei
p ti
áĥĶ áĥĿáĥł
Ġáĥ¥ áĥķ
Ġáĥłáĥ ¡
ĠáĥĲáĥĵáĥĲáĥĽ áĥĺáĥĶ
Ġáĥĵ áĥĲáĥŃáĥ§
áĥĲáĥļ áĥĺáĥĲáĥ¨
Ġáĥŀ áĥļ
ĠáĥĴáĥĶáĥĴ áĥľ
an s
V er
Ġl ang
st ra
ĠW ie
ĠF r
ation s
ĠF orm
ĠR Ã¼ck
à¹Ģà¸Ĺ à¸¨
Ġà´¸ à´¨
Ġre cht
Ġh o
Ð¾Ð ²
f ang
la uf
Ġf or
ĠF ot
3 7
Ġ à¸«à¸£
à¸ ī
ĠS h
áĥĿáĥ© áĥ®
áĥłáĥ ľ
Ġáĥŀ áĥĿáĥłáĥ¢
áĥĲáĥĽ áĥĺáĥ¨
ĠáĥĶ áĥĽ
ĠáĥĹáĥ£áĥĹ áĥĲáĥ¨áĥ®áĥĲ
áĥĲáĥ© áĥĲáĥĽ
ĠáĥĿáĥĽáĥĲáĥ¤ áĥĶ
áĥĶáĥ¥ áĥľ
áĥ¢ áĥĺáĥ¨
Ġáĥ¤áĥĶ áĥĺáĥľáĥĽ
Ġà´ §
ĠáĥłáĥĶáĥĴ áĥĺáĥĿáĥľ
ĠáĥĽáĥĿáĥľáĥ «
áĥ£áĥĽ áĥĲ
kun ft
200 7
t re
Ġl ei
Ġjed och
k lich
Ġer halten
à´± à´Ļ
ion en
it y
à¸²à¸ ¨
Ġsich er
0 1
ag t
áĥ£ áĥĿ
áĥĿáĥĽ áĥĶáĥ¢
áĥĶáĥľ áĥĲáĥĵ
Ġáĥ¢áĥĶáĥłáĥĺáĥ¢áĥĿáĥł áĥĺáĥĲ
ĠáĥĴáĥĺáĥ¨ áĥĽ
áĥĶáĥłáĥ ķ
ĠáĥłáĥĶáĥ¡áĥŀáĥ£áĥĳáĥļ áĥĺáĥĻáĥĲáĥ¨
Ġáĥł áĥĶáĥŁ
áĥĶáĥĳ áĥ£áĥĵáĥ·
áĥĲáĥ¦ áĥĲáĥļáĥĲáĥ¨
rei ben
enn t
ge w
t h
wick lung
à¹Ģà¸ ĭ
t t
à¸ĩ à¸Ļ
e gen
z ial
an st
à¹Ģà¸ģ à¸¡
am e
I m
Ġi hn
ĠSch ul
Ġa ktu
aciÃ³n s
áĥĲáĥŃ áĥĲáĥł
áĥĿáĥľ áĥĶáĥĸ
ĠáĥĴáĥĿ áĥĲáĥłáĥĹáĥĿáĥĺáĥĲáĥľ
áĥĲáĥ¡ áĥ¥
ĠáĥĿáĥ Ĵ
ĠáĥĽ áĥĿáĥłáĥĿ
áĥĿáĥĳ áĥĶáĥ¤áĥĺáĥ¨
Ġáĥĵáĥĺáĥłáĥ ¡áĥ®áĥ£
ĠáĥĶ áĥŀ
ĠáĥĻáĥķ áĥĺáĥłáĥĻáĥķ
« áĥĺáĥł
áĥĲáĥłáĥ ¡áĥ®áĥ£
Ġáĥ¡áĥ¥ áĥĺáĥłáĥĿáĥľ
Ġp erson
ra uch
à´° à´³
ĠSt and
ĠP reis
à´¯ à´¸
ĠB r
à´ķ à´±
Ġd ort
et ter
j ekt
ĠÃ Ħ
Ø ±
ad os
ĠD ien
à¸²à¸ °
Ð ¿
à´¨ à´²
Ġà´Ĩ à´µà´¶
ĠáĥĲáĥ¢ áĥĽáĥĿáĥ¡áĥ¤áĥĶáĥł
ĠáĥĿáĥłáĥĴáĥĲáĥľ áĥĿ
áĥ¡ áĥĲáĥĽ
Ġáĥł áĥĲáĥĵ
Ġáĥ¡áĥĲáĥ¥áĥĿáĥłáĥĹáĥ£ áĥĿáĥ¡
ĠáĥĹ áĥ¥
áĥĶáĥ¥ áĥ¢áĥł
ĠáĥĽ áĥĿáĥĴ
áĥĺáĥł áĥĲáĥ¤áĥĺáĥļáĥĺ
Ġáĥĺáĥľáĥ ¤
Ġáĥĸáĥ£áĥ¦ áĥĲ
áĥĲáĥľ áĥª
ĠáĥĽáĥĿáĥ¡áĥĿáĥ¤ áĥĶáĥļáĥ¡
áĥĶáĥĳ áĥĲáĥ¡
Ġsein en
ĠJ u
à¸Ĭ à¸Ļ
p ort
le x
y s
rie ben
Ġà´¬ à´¨
Ġk ostenlos
ĠW eiter
ĠG al
Ã¼ l
Ġà´Ĩ à´¶
ĠM Ã¶glich
u per
g abe
à¹ĥà¸« à¸į
m ar
à´ª à´ķ
áĥĶáĥł áĥĿáĥ¨
Ġáĥķ áĥĶáĥłáĥ¡
Ġáĥŀ áĥĿ
Ġà´īà´ª à´¯
ĠáĥĺáĥĻ áĥĿáĥłáĥĿáĥªáĥ®
áĥĶáĥ ĵáĥ·
áĥ£áĥĽ áĥĲáĥļ
áĥĶáĥ¢ áĥĺáĥ¨
à´Ł à´±
ĠáĥĲáĥ Ĵ
áĥĶáĥł áĥĲáĥ¢
Ġáĥ£ áĥ«
áĥ£áĥľáĥ ĵ
áĥĲáĥļáĥ£áĥł áĥĿ
Ġáĥ¡ áĥ¢áĥł
Ġáĥ¤áĥĺáĥļ áĥĿáĥ¡áĥĿáĥ¤
áĥĿáĥľáĥ ¢
à¹ģ à¸ģ
ĠáĥĴáĥĶáĥķ áĥĲáĥłáĥĲ
i pp
gram m
à¸ª à¸°
à´¾à´Ĥ .
ĠC ook
tik el
ĠK ar
al s
ĠOn line
ĠBer lin
à¹Ħ à¸¥
schl uss
sch n
à¸¥ à¸°
Ġt od
à´° à´¶
mitt el
Ġà´®à´¨ à´¸
Ġbie tet
à¹ģ à¸¡
5 5
ic o
ur t
. âĢľ
Ġà´ķ à´³
f ort
ĠSt u
re g
Ġáĥ¥ áĥĿáĥłáĥĹáĥ£
áĥĺáĥª áĥ®
Ġáĥª áĥĲáĥ¨áĥ®áĥĲ
áĥŀ áĥł
áĥĶáĥ¢ áĥĺ
ĠáĥĺáĥĻ áĥĲáĥĹáĥ£
ra ch
Ġáĥ¨ áĥķ
áĥĿáĥłáĥ ·
à¸ª à¸£
Ġb zw
Ġ% ,
un t
w a
Ã¶r t
ĠEur o
ĠEur op
in gen
i vers
Ġà´¨ à´Łà´¨
icher heit
ĠB eg
Ġst ehen
eit ung
Ġáĥ¯ áĥĲáĥ¡áĥ¢
ĠáĥĿáĥ®áĥĿáĥł áĥĲáĥľáĥ¡
ĠáĥĶáĥ¡áĥŀ áĥĲáĥľ
Ġáĥĺáĥ ĳ
ĠáĥĽ áĥĶáĥ¨
Ġáĥĵ áĥĲáĥĽ
ĠáĥŁ áĥĲáĥ¨áĥ®áĥĲ
Ġáĥĵ áĥĶáĥŀ
Ġáĥ® áĥĲáĥ¨áĥ£áĥłáĥĺ
áĥ£áĥľáĥ ĵáĥ·
áĥĿáĥª áĥĺ
áĥĺáĥ ¬áĥĻáĥ·áĥĽáĥĲ
áĥķ áĥĶáĥ¨
ĠáĥŁ áĥĺáĥł
áĥĲáĥĴ áĥĿáĥł
Ġgro ÃŁ
Ġb eh
à´ķà´° à´£
y n
Ġall em
ĠFrau en
k on
Ġà´ĩ à´ª
Ġm acht
uf t
ĠBer eich
à¸ª à¸Ļ
ur s
Ġs er
as st
ĠS on
v on
ig ung
u ter
is k
Ã± a
à¸Ĺ à¸£
áĥĲáĥ¡ áĥ·áĥļ
áĥĲáĥ¡ áĥĺáĥ¨
Ġáĥ¬áĥ§ áĥĲáĥłáĥĺáĥ¨
ĠáĥķáĥĺáĥĹáĥĿáĥ¨ áĥĺ
áĥ· áĥłáĥ
Ġáĥ£áĥľ áĥĺáĥķáĥĶáĥłáĥ¡áĥĺáĥ¢áĥĶáĥ¢
ĠáĥĴ áĥĺáĥľáĥĽ
áĥĻ áĥĺ
ĠáĥŁ áĥĺáĥłáĥ
áĥĲáĥ Ł
Ġáĥĺ áĥĴ
Ġáĥ¸ áĥ£áĥ¯
ĠáĥĴ áĥĿáĥ«
Ġáĥ© áĥĺáĥľ
or es
be zogen
es se
Ġsp iel
7 5
Ġà´ª à´ķ
ro ffen
Ġm us
ri st
or gen
4 4
à¸ ®
Ġan d
Ġ à¹Ħà¸¡
ĠÐ ´
M it
à¹ĥà¸« à¸¡
ĠáĥĽ áĥĲáĥ¤áĥĲ
Ġáĥĵ áĥĿáĥĻ
Ġáĥ¡ áĥĲáĥľ
Ġáĥļ áĥĶáĥ®
ĠáĥĶáĥłáĥ Ļ
ĠáĥĽáĥ£áĥľáĥĲáĥ©áĥĶáĥĽ áĥĶáĥ¤áĥĺáĥĹ
áĥĲáĥłáĥ ®
ĠáĥĹ áĥ£áĥłáĥ¥
ĠáĥĲáĥ¡ áĥĶ
un der
og le
à´¨ à´µ
ĠÐ ¸
tig t
Ġà´ĩ à´°
ĠIhr er
ĠM ann
b el
Ġst att
r Ã¤n
v id
Ġ à¹Ģà¸£
ater ial
in o
E s
ra ft
5 00
b ie
ar e
. )
ĠH och
Û Į
4 9
Ġall en
à¹Ĥ à¸Ķà¸¢
g aben
ĠÂ «
f Ã¤l
ation al
áĥĲáĥ¢ áĥĶáĥĽ
ĠáĥĲáĥļáĥĳ áĥĿáĥĽ
áĥ¡ áĥĲáĥ¥
ĠáĥĹ áĥĲáĥľáĥ¯
Ġáĥ¢áĥĶáĥłáĥĺáĥ¢áĥĿáĥł áĥĺáĥĲáĥ¨
ĠáĥĹ áĥĶáĥ¥
áĥĽ áĥĲáĥĵ
ĠáĥĴáĥĶáĥłáĥĴ áĥĿáĥĳáĥĲáĥĹ
áĥĺáĥ¡ áĥĺ
ĠáĥĿáĥĳáĥŁáĥĲáĥĹ áĥĶáĥ¨áĥĶ
ĠáĥłáĥĶáĥļ áĥĺáĥĴ
áĥĿáĥłáĥ ľ
ĠáĥĽáĥĿáĥłáĥ© áĥĺáĥļáĥĺ
Ġáĥĳáĥł áĥĶáĥļáĥĺ
áĥĺáĥľ áĥĲáĥļáĥĺ
áĥĿáĥļáĥĿáĥĴ áĥĺáĥĲ
Ġáĥ¨ áĥ£áĥłáĥĺáĥ¨
ĠáĥĶáĥŃ áĥĲáĥł
ĠáĥĿáĥĳáĥĺáĥĶáĥ¥ áĥ¢
áĥĶáĥľáĥ¢ áĥĺáĥ¨
ĠáĥĴáĥĿáĥ« áĥķáĥĶáĥľ
ĠáĥĴáĥ·áĥĽ áĥĲáĥĹ
Ġáĥł áĥĶáĥķáĥĿáĥļáĥ£áĥª
ĉ Ċ
à´° à´§
Ġ à¸ĸ
à´² à´®
Ġ ra
ĠDie s
Ġà´ī à´¦
or f
m b
Ġk on
un st
à´§ à´¤
Ġp l
ti ert
ie f
Ġà´ Ĳ
sten s
à´² à´¨
ĠPro blem
ĠáĥĽáĥĿáĥ£ áĥłáĥ¡
áĥĲáĥłáĥ ĳ
ĠáĥĳáĥŁáĥĲáĥĶáĥĺáĥĿáĥļ áĥ¨áĥĶ
áĥ¡ áĥĺ
ĠáĥľáĥĿáĥ¦ áĥĲáĥ¡
áĥĿáĥ¤ áĥĶáĥ¡
©áĥ¥áĥĺáĥľ áĥĶáĥļáĥĺ
ĠáĥĶáĥ© áĥĵ
ĠáĥĴ áĥ£áĥĽ
ĠáĥĲáĥĳ áĥĲáĥľáĥĺ
áĥ£áĥł áĥ£
Ġáĥ£ áĥĴ
áĥĿáĥŀ áĥĶáĥĵ
ti er
à´ľ à´¨
à´ª à´±
ĠN ov
ĠC o
Ġg erne
Ġb el
ĠH ot
I N
Ġà¹Ģà¸ ¡
scha ften
à´¬ à´¨
un i
à´¤ à´ª
schie d
et te
Ġw ichtig
ĠLeben s
à¸²à¸Ī à¸°
h Ã¶
w eit
Ġáĥĳ áĥĲáĥ®
Ã¤n der
áĥĿáĥĽ áĥĺáĥľ
Ġáĥľ áĥĺáĥ£
Ġáĥ£áĥ® áĥ£áĥłáĥĴ
áĥĶáĥļ áĥ¥
Ġáĥ¥áĥĺáĥłáĥ¡ áĥĶáĥĹ
áĥĺáĥľ áĥĲáĥ¤
áĥĲáĥķ áĥĻ
ĠáĥŀáĥĿáĥŀ áĥ£áĥļ
Ġáĥ® áĥĲáĥľáĥĵ
áĥĺáĥĻáĥĿáĥ¡ áĥĺ
áĥ£áĥł áĥĲáĥĹ
áĥĲáĥĻáĥĶáĥłáĥ« áĥĲáĥ¤áĥĺáĥļáĥĿ
Ġáĥŀáĥł áĥĿ
ĠáĥĿáĥłáĥ®áĥķáĥĶáĥļ áĥ·
ĠB eh
b ei
Ġweiter e
Ã¤ ft
Ġà´® à´²à´¯
ag er
ur en
r ich
Ġr es
er k
à¸ª à¸²à¸¡à¸²à¸£à¸ĸ
Ġà´¨ à´Łà´ª
u he
Ġw ollen
ĠEn de
áĥ¡áĥĲáĥ¥ áĥĿáĥłáĥĹáĥ£
áĥĻ áĥĲáĥł
ĠáĥĽáĥ£áĥŁáĥĲáĥĽáĥ¡ áĥ·áĥĹ
ĠáĥĲáĥĽ áĥ¨
Ġáĥľáĥ« áĥĲáĥļ
Ġáĥ¯ áĥĲáĥłáĥĲáĥļáĥ£
ĠáĥĴáĥĺáĥľáĥĿáĥłáĥĹ áĥĲ
Ġáĥ¡ áĥĿáĥĽ
áĥĲáĥľ áĥĲáĥ¨
ĠáĥĴ áĥĶáĥĽ
Ġáĥ£ áĥľáĥ
âĢ Į
áĥĶáĥ¡ áĥĺáĥ¡
ĠáĥĽáĥĺáĥ¨áĥĽ áĥ£áĥłáĥ¡
ĠáĥĴáĥĿáĥ«áĥķáĥĶáĥľ áĥĲáĥ¡
áĥĺáĥĸáĥĽ áĥĺáĥ¨
ech n
áĥĺáĥĻáĥļ áĥĿáĥŀáĥĶáĥĵ
utz en
ĠâĢ ¦
Ù Ī
Ġà´ī à´¤
0 8
ĠB Ã¼
C H
Ġà´® à´°
n eh
Ġc a
Ġà´ķ à´²
Ġs ehen
ĠmÃ¶ch te
Ġà´ħà´µ à´¸
Ġletz ten
zeu g
áĥĿáĥļ áĥĺáĥ¨
Ġáĥ¨ áĥĶáĥĵ
áĥ¤ áĥłáĥĲáĥľáĥĴ
ĠáĥĶáĥĴ áĥķáĥĺáĥŀ
ĠáĥĶ áĥ¡
Ġáĥĺáĥ Ńáĥ§
áĥ£áĥĵ áĥĶ
áĥĺáĥ¢ áĥĶáĥłáĥĲáĥ¢
Ġáĥ¡áĥŀ áĥĶáĥª
áĥľáĥ ¡
áĥĶáĥĴ áĥĿáĥł
Ġáĥĵáĥĺáĥ®áĥĲáĥ£áĥ© áĥĲáĥ¨
si te
à¹Ģà¸¥ à¸¢
Ġà´² à´ķ
il fe
Ġbes ser
à¹Ģ à¸Ńà¸ĩ
ge stellt
Ġi r
6 5
ĠI II
200 6
Ġ à¸Ľà¸£à¸°
ĠwÃ¼r de
h and
à¸ĩ à¸¡
/ /
it al
b et
à¹ĥà¸Ļ à¸ģà¸²à¸£
b o
ol d
à¸Ķ à¸ª
Ġdir ekt
Ġlie gt
áĥĲáĥªáĥĺáĥĿáĥľ áĥĲáĥļáĥ£áĥłáĥĺ
áĥĿáĥĳ áĥ£áĥłáĥĿ
Ġáĥłáĥĵ áĥĶáĥ¡
ĠáĥłáĥĶáĥĴ áĥĺáĥĿáĥľáĥ¡
ĠáĥŀáĥłáĥĿáĥķáĥĺáĥľáĥª áĥĺáĥĲ
ĠáĥĿáĥ ŀ
Ġáĥ¢ áĥĶáĥ¥áĥľ
ĠáĥĻáĥĲáĥļ áĥĶáĥľáĥĲáĥĵ
ĠáĥĻáĥĲáĥļáĥĶáĥľáĥĵáĥĲáĥł áĥĶáĥ¤áĥ¡
ĠáĥĻáĥĲáĥļáĥĶáĥľáĥĲáĥĵ áĥłáĥĺáĥ¨
áĥľ áĥĲ
ĠáĥĲáĥĵáĥĲáĥĽáĥĺáĥĶáĥł áĥĺáĥ¨
áĥĲáĥľ áĥĺáĥĲ
Ġáĥ¯ áĥ£áĥĽ
áĥ£áĥļ áĥ¡
áĥĿáĥĵ áĥĺáĥłáĥĹáĥ£
ah men
Ġáĥ¨áĥ¢áĥĲáĥ¢ áĥĺ
ĠáĥĿáĥ ¡áĥ®
Ġáĥ£áĥĽ áĥĲáĥ¦áĥĲáĥļáĥĲáĥ¨
à¸Ĺ à¸ĺ
áĥ£áĥłáĥ ľ
à´¤ à´¯
ciÃ³n s
on d
Ġge ben
Ã¼ hl
st a
Ġt eil
Ġà´ĩ à´µ
à¸ļ à¸ģà¸²à¸£
op p
st ehen
j e
à´° à´ŀ
6 1
Ð ¼
3 9
à¸Ī à¸£
l es
ĠZ usammen
ĠB esch
Ġunser en
. :
in de
ob il
Ġgem ein
gan gen
à¸Ļ à¸³
Ġáĥłáĥ£áĥ¡ áĥĹáĥĲáĥķ
ĠM e
ĠáĥĳáĥŁ áĥĲáĥ¨
Ġáĥ£áĥ®áĥ£áĥłáĥĴ áĥĲáĥľáĥ¡
Ġáĥĳ áĥĺáĥĸ
Ġáĥłáĥ ĸ
Ġáĥ¯áĥķ áĥĶáĥ¨
áĥ·áĥľáĥ ¡
áĥł áĥ£áĥļ
Ġáĥ¡ áĥĲáĥł
áĥĴ áĥ£áĥłáĥĲ
ĠáĥĻáĥĿáĥĽáĥŀ áĥĺáĥ£áĥ¢
áĥĺáĥ¨ áĥ®áĥĲ
ĠáĥĿáĥĳ áĥĺáĥ¨áĥ®áĥĲ
Ġáĥ¯ áĥĴ
ĠáĥĽ áĥĿáĥł
áĥĺáĥĹ áĥ®
ĠáĥĲáĥ ¬
Ġáĥŀ áĥĲáĥłáĥ¢
ick en
ĠáĥĴáĥĶáĥĿáĥĴáĥłáĥĲáĥ¤ áĥĺáĥ£áĥļáĥĺ
ein er
Ã¤ u
z er
t lich
à¸ ¤
à´Ĺ à´Ļ
l t
Ġa t
à´Ł à´®
schlie ÃŁ
Ġwir klich
ĠF ol
Ġgr Ã¶ÃŁ
âĢ Ķ
ach sen
: //
ach ten
res se
Ġh and
à¹ģ à¸Ĺ
P ro
à´± à´ª
à´µ à´²
ĠÂ »
Ġda fÃ¼r
Ã¼n f
en bezogen
ĠáĥĵáĥĶáĥĽ áĥĿáĥĻáĥłáĥĲáĥ¢
ĠáĥĽáĥĶáĥ ĵ
ĠáĥĶáĥķáĥłáĥĿáĥŀ áĥĲáĥ¡
ĠáĥĲáĥłáĥĹ áĥĺáĥĲáĥľ
ĠáĥĻáĥĿáĥľáĥ Ļ
Ġáĥ£áĥ« áĥĲáĥ®
ĠáĥĹáĥĺáĥľ áĥĶáĥ¤áĥ¡
ĠáĥĽáĥĶáĥļ áĥĲáĥ®
ĠáĥĽáĥĲáĥłáĥĲáĥ¨ áĥĺáĥľáĥĲáĥĹ
Ġáĥ¨áĥ£áĥłáĥĺáĥ¨ áĥ®áĥĲ
à´¨ à´µà´°
Ġáĥ¡ áĥĲ
áĥĺáĥ¡ áĥ®
áĥĲáĥľáĥ¯ áĥ¦áĥķ
áĥĿáĥļáĥĿáĥĴ áĥĺáĥ£áĥłáĥĺ
áĥĹ áĥĶ
ĠáĥĵáĥĿáĥłáĥ ¡áĥ®áĥ£áĥĲáĥ¤
áĥĲáĥķ áĥĺáĥĹ
Ġáĥ§ áĥĲáĥł
Ġl eich
Ġn Ã¤ch
Ġà´İ à´´
ĠáĥĴáĥĶáĥķ áĥĲáĥłáĥĲáĥ¨
r uf
à¸Ķ à¸Ļ
ĠM od
op f
Ġkonn te
b re
ĠGem ein
Ġgen au
à¹Ħ à¸£
Ġnicht s
Ġà´İ à´¸
Ġ u
ist er
Ġà´ħ à´¯
it zen
m it
à´ļ à´°
Ġin form
Ġà´ĵ à´°
ĠS eiten
à¹Ģà¸ ĺ
ach e
ĠMus ik
à¸ģ à¸ķ
áĥĿáĥ °
áĥĺáĥĿáĥ ļáĥĺ
ĠáĥĹ áĥĺáĥĽ
áĥĽ áĥĲáĥľ
ĠáĥĴ áĥĲáĥļ
ĠáĥĽáĥĲáĥĻáĥĲáĥĹ áĥ£áĥłáĥĺ
áĥĲáĥł áĥĲáĥĹ
Ġáĥł áĥĶáĥľáĥĲ
ĠáĥĴáĥ·áĥĽ áĥĿáĥłáĥĺáĥľ
áĥĲáĥłáĥ ©áĥ®
áĥĲáĥĵ áĥĺáĥª
ĠáĥĴáĥ·áĥľ áĥĺáĥłáĥĹáĥ·
ĠáĥĶáĥĻ áĥĶáĥľ
áĥĺáĥľáĥ£ áĥĿ
áĥĺáĥĸáĥĽ áĥĺ
ĠáĥļáĥĲáĥĹ áĥĺáĥľ
ĠáĥĲáĥķáĥ¢áĥĿáĥľáĥĿáĥĽ áĥĺáĥ£áĥłáĥĺ
áĥĲáĥ¡ áĥ¢áĥł
ĠnatÃ¼r lich
Ġbe f
a pp
ar m
M ail
v oll
gan is
à´± à´¨
in en
Ġà´µà´³ à´°
ĠW eg
à ¥
ding s
ing er
ck er
om at
ĠSch n
à´İ à´¨
à¸Ļ à¸¢
Ġb ra
Ġden en
Ð ·
à¸Ķ à¸ķ
200 5
ĠT h
áĥ£ áĥĶáĥ¤áĥ¡
áĥŀ áĥĿáĥłáĥ¢
áĥĲáĥĶ áĥĺáĥĿáĥļáĥĺ
Ġáĥķ áĥĲáĥļ
ĠáĥĴ áĥ·áĥĹ
Ġáĥ° áĥĲáĥķ
áĥķáĥĲáĥĵ áĥ·
ĠáĥĲáĥ ¦
áĥĲáĥľáĥĵ áĥĶáĥ¡
áĥĺáĥ¥ áĥ¡
Ġáĥ¬áĥĺáĥĽ áĥĺáĥľáĥĵ
áĥĿáĥľ áĥĺáĥĲáĥ¨
ĠáĥĽáĥĶáĥ Ĵ
áĥ¥ áĥķ
ĠáĥĲáĥ ĺ
ĠO ber
àµ¼ à´¨
à¸ģà¸£ à¸£à¸¡
d ruck
à¹Ģà¸§ à¸¥
ĠF ach
gen den
es ser
ÃŃ n
ck t
Ġ à¸«à¸Ļ
n ehmen
Ġje den
st off
ĠF in
d et
Ġà´µ à´´
ant wort
ĠC hr
ĠC on
ĠIhr en
ĠC l
Ġviel en
Ġsein em
Ġperson enbezogen
ĠPl atz
âĢľ .[
or g
rupp e
à´· à´®
Ġáĥ¢ áĥĺáĥĽ
Ġáĥĺáĥľáĥ¢ áĥĶáĥłáĥľ
áĥĺáĥĲáĥľ áĥĲáĥ¨
Ġáĥ¡áĥĿáĥĵ áĥĶ
Ġáĥ¡ áĥĲáĥĴ
ĠáĥĴ áĥĶáĥ¨
áĥĲáĥ¤ áĥĲáĥ¥
áĥĿáĥľ áĥĲ
ĠáĥĽ áĥĿáĥ¡
Ġáĥ¨áĥĲáĥľ áĥĶáĥľáĥ¡
ĠáĥĴáĥĶáĥĴ áĥĽ
áĥĺáĥľ áĥĲáĥļ
Ġáĥ¢ áĥĶáĥłáĥĽ
áĥĺáĥļ áĥĿ
áĥ£áĥ¯ áĥĺáĥľáĥ£áĥĿ
áĥĶ áĥĶáĥ¤áĥĺ
áĥĺáĥĶ áĥļ
ri ft
âĢľ )
Ð ±
Î ¿
wei s
Ġn ie
A N
Ã¤ ter
Ġi hm
ĠV ide
Ġà´ª à´²
ĠSp ort
z in
Ġar b
f eld
Ġsch w
ver b
m Ã¶glich
Ã¶r per
à´ Ĳ
p or
Ġà´İ à´Ł
à¸ļ à¸Ļ
Ġr und
Ġà´ķ à´¥
ĠF er
ĠáĥĴáĥĿ áĥĶáĥłáĥĿáĥ¨
ĠáĥĹáĥĲáĥ® áĥĲáĥ¨áĥ®áĥĲ
Ġáĥ¨áĥĶáĥĵ áĥĶáĥĴ
Ġáĥĳ áĥĶáĥłáĥ«áĥĶáĥľ
Ġáĥľáĥĺáĥľ áĥĶáĥ¤áĥĺáĥ¨
ĠáĥĽáĥ£áĥĵáĥĲáĥľ áĥĿáĥĳáĥĲ
ĠáĥĽ áĥĶáĥĹ
ĠáĥĴáĥ·áĥĽ áĥĺáĥłáĥĺáĥľáĥ£áĥĲáĥ¤áĥ£
ĠáĥĲáĥłáĥ¡ áĥĶáĥĳ
ĠáĥĴ áĥĶáĥľ
ĠáĥĻ áĥ£áĥľáĥ¢
ĠáĥĳáĥŁ áĥĲáĥĵ
ĠáĥĴ áĥĲáĥĴ
Ġáĥŀáĥł áĥĿáĥĵ
ĠáĥĽ áĥĿáĥ¦
ier e
Ġáĥ£áĥĻ áĥ£áĥļ
Ġáĥ¡ áĥĲáĥ£
ĠáĥĽáĥĺ áĥĲáĥł
ĠáĥĿ áĥ£áĥłáĥĵ
Ġáĥ¤áĥĺáĥļáĥĽ áĥĺáĥ¡
ĠáĥĿáĥ£áĥłáĥĵ áĥ£áĥĽáĥĶ
áĥĺáĥł áĥ£
Ġáĥ¡áĥ®áĥ£áĥľ áĥ£áĥĶáĥ¤áĥĺáĥ¨
ĠáĥłáĥĿáĥĽ áĥĺáĥ¨
à´ļ à´¨
ĠáĥĴáĥĶáĥķáĥĲáĥł áĥĲáĥ¥
ut ter
à¸ģ à¸Ĺ
ĠZ ahl
h eim
et ten
à´¸ à´®
ir e
ĠT er
v ent
re ffen
à¸ªà¸³ à¸«à¸£
à´° à´¹
ĠS er
an ten
en nen
lei st
Ġein ge
ing s
à´ª à´£
Ġw Ã¤hrend
il t
ativ e
Ġdar auf
à´¯à´® à´¨
a ÃŁ
ĠáĥĹáĥĶ áĥĲáĥ¢
ĠáĥĿáĥ ľáĥ
ĠáĥĿáĥ ¢
Ġáĥĵ áĥĲ
áĥĶáĥĳ áĥĲáĥĵáĥ·
áĥ¥ áĥĲáĥ¨
ĠáĥªáĥĶáĥľáĥ¢áĥł áĥĲáĥļáĥ£áĥłáĥĺ
ĠáĥĿáĥĻ áĥĲáĥĹ
ĠáĥĲáĥ¥ áĥ¢
ĠáĥĴáĥĶáĥ¸ áĥķáĥĶáĥľáĥ¯áĥĺ
ĠáĥĺáĥĻáĥĲáĥĹáĥ£ áĥĲáĥľáĥ¡
ĠáĥĶáĥķáĥłáĥĿáĥŀ áĥĲáĥ¨
áĥĺáĥ ¸
áĥĺáĥłáĥ ·
ĠF ar
ur e
war e
ĠK n
spre chen
lich keit
à¸ª à¸Ķ
0 7
à´Ł à´²
à¸²à¸ģ à¸²à¸£
w ohl
ĠP er
Ġà´¶ à´°
Ġ rei
à´¤ à´ķ
à¸ĵ à¸°
Ġbie ten
à¸¡ à¸ŀ
Ã¼ ss
ĠL eist
z immer
ĠA ug
à´° à´³à´¤
dien st
ĠDaten schutz
ĠWeb site
le b
ul ar
ĠAr tikel
ĠG eld
le ge
ĠCook ies
d es
g or
ad as
di gen
ell schaft
Ġs eu
Ġeigen en
Ġje wei
E r
Ġáĥ¡áĥĲáĥĽ áĥĲáĥłáĥĴáĥĲáĥļ
ĠáĥĲáĥĸ áĥĺáĥĲáĥ¡
Ġáĥ® áĥĲáĥ¡áĥ·áĥļ
áĥĿáĥ©áĥ® áĥĿáĥłáĥĿ
ĠáĥĽ áĥĲáĥł
Ġáĥĵ áĥĲáĥłáĥĴ
ĠáĥĳáĥŁáĥĲáĥĵáĥĲáĥļ áĥ¨áĥĶ
áĥĶáĥ ¯
áĥĶáĥł áĥĶáĥ¤áĥĺáĥ¨
Ġáĥ¦ áĥĿáĥĸ
Ġáĥ¬áĥ·áĥĽ áĥĿáĥ«
Ġáĥĵáĥĺáĥ® áĥĲáĥ¨
Ġáĥ¦ áĥ£áĥłáĥĲáĥ¨
áĥ« áĥ¦
áĥł áĥĺáĥ¡
Ġáĥ¯áĥ£áĥĽ áĥĲáĥ¨áĥ®áĥĲ
áĥĲáĥļ áĥĺáĥĸ
Ġáĥł áĥĲáĥĴáĥĲáĥĵ
Ġáĥ® áĥ£áĥłáĥĴ
ĠáĥĳáĥĿáĥļ áĥĺáĥķ
Ġgro ÃŁe
p unkt
Ġ +
à¸ĩ à¸Ĥ
ĠGo ogle
z ung
ĠS el
Ġein ige
at or
ĠJ an
p e
Ġ à¹Ħà¸Ķ
A l
Ġà´¨ à´Łà´ķ
ti c
ing t
us e
um en
ĠGr Ã¼n
Ġáĥ©áĥ® áĥĿáĥł
Ġáĥ¡ áĥĲáĥļ
Ġáĥ¬áĥ·áĥĽ áĥĽáĥĲáĥł
Ġáĥĳ áĥĲáĥĸ
ĠáĥĲáĥļáĥĽ áĥĲáĥ®
áĥ£áĥ ĸ
Ġáĥĵ áĥĿáĥŃáĥ§
ĠáĥĲáĥĻáĥĿáĥĵáĥĴáĥĺáĥľáĥĲáĥļáĥ£ áĥĲáĥ¨áĥĲ
ĠM ot
Ġáĥ¢ áĥĶáĥĽ
áĥĺáĥ© áĥĲáĥłáĥĵ
ĠáĥĽáĥĿáĥĴ áĥķ
ĠáĥĹáĥĺáĥľ áĥĶáĥ¤
ĠáĥĶáĥļ áĥĶáĥ¥áĥ¢áĥł
ĠáĥĽáĥĿáĥľ áĥĲáĥ¡áĥ¢
ĠáĥĻáĥļ áĥĺáĥĽ
ĠáĥĻáĥĲáĥľáĥĻ áĥĲáĥļáĥĶ
áĥ£áĥłáĥ ·
áĥĲáĥľáĥ¢ áĥĺáĥ¨
ĠáĥĽáĥ£áĥľ áĥĶáĥ¤áĥĺáĥ¨
áĥ®áĥĺáĥł áĥĲáĥ¡
Ġáĥļ áĥĲáĥ¸áĥĲáĥ¤
ĠáĥĲáĥłáĥ Ľ
áĥĿáĥļ áĥĶ
ª áĥĺáĥĻáĥļáĥĿáĥŀáĥĶáĥĵ
ĠáĥĶáĥľáĥ ªáĥĺáĥĻáĥļáĥĿáĥŀáĥĶáĥĵ
à¹Ħ à¸§
ĠE m
Ġger ade
Ġk urz
ĠXI X
in ner
u x
3 3
Ġw eiÃŁ
Ġp re
Ð¾Ð ´
à¸ģ à¸³
Ġgro ÃŁen
eh n
qu e
à¸£ à¸£à¸¡
à´Ĺ à´®
Ġwen ig
z Ã¼
Ġw ohl
] [
Ġà´ª à´Ļ
à¸«à¸¥ à¸²à¸¢
ĠÐ ¼
Ġin tern
à¹Ģà¸« à¸¥
ĠMit gl
ĠSt a
Ðµ ÑĤ
à¸¡ à¸Ļ
ĠR ahmen
à´® à´°
Ġà´ª à´ł
om mer
ĠThem a
à´· à´¯
rei se
los sen
Ġáĥ¤ áĥ£áĥłáĥĹáĥ£áĥĹáĥĲ
Ġáĥļ áĥĺáĥĳ
ĠáĥĻáĥļ áĥĲáĥ¡
à ª
Ġáĥ¬áĥ·áĥĽ áĥĿáĥłáĥĺáĥľ
áĥĿáĥĳ áĥł
Ġáĥ¬áĥ§áĥĲáĥłáĥŀáĥĺáĥ¯ áĥĺáĥ¡
Ġáĥĵ áĥĺáĥĿ
ĠáĥĹáĥĶ áĥĿáĥł
ĠáĥĲáĥĽáĥĶáĥł áĥĺáĥĻáĥĲáĥ¡
ĠáĥĲáĥĻáĥĽáĥĲáĥĵáĥĴáĥĺáĥľ áĥĲáĥľáĥ¡
áĥ£ áĥĲáĥļáĥĲáĥ¨
áĥ£áĥ ©
áĥĲáĥ¢ áĥĺáĥ¨
áĥĲáĥĵ áĥĺ
ĠáĥĲáĥĻ áĥĿ
áĥ£áĥłáĥĹ áĥ£áĥĹáĥĲáĥ¡
Ġáĥ¨ áĥĶáĥ£áĥļ
áĥĲáĥĻ áĥĺ
Ġáĥĵ áĥĲáĥ®
áĥ£áĥĲáĥ¤ áĥ£áĥĵáĥ·
ĠáĥĹáĥĺáĥľ áĥĶáĥ¤áĥĺ
r is
Ġm edi
pl atz
ĠH a
ĠArb eits
4 6
am Ã©n
s ol
i le
Ġà´ª à´£
ĠWoch en
ber eich
à¸Ń à¸§
ĠS erv
ist or
Ġf indet
Ġ ter
Ġ )
7 8
Ñ Ĩ
ell er
. -
Ġà´ħ à´¸
w ahl
ster reich
Ġge hen
18 0
à´¦ à´°
à¸Ľà¸£à¸° à¹Ģà¸Ĺà¸¨
ĠáĥĻ áĥĺáĥłáĥ
ĠáĥĿáĥłáĥĴáĥĲáĥľáĥĺáĥĸ áĥĲáĥªáĥĺáĥĲáĥ¨
áĥł áĥĶáĥ¨
Ġáĥĳ áĥĺáĥĳ
ele f
Ġo ft
Ġáĥ® áĥĶ
áĥ£áĥĽ áĥĶáĥľáĥ¢
Ġáĥ¬áĥ§ áĥĲáĥł
Ġáĥ¡áĥĲáĥ¥ áĥķáĥĲáĥł
ĠáĥĹ áĥĶáĥľ
áĥĽ áĥĲáĥ®
ĠáĥĽáĥĶáĥ ¦
Ġáĥ¦áĥĿáĥłáĥĿáĥľáĥĹ áĥĺ
Ġáĥ¡ áĥĿáĥªáĥĺ
Ġáĥ¢áĥł áĥĲáĥĵáĥĺáĥª
ĠS k
ĠáĥªáĥĶáĥľáĥ¢áĥł áĥĲáĥļáĥ£áĥł
áĥ£áĥ ®
Ġáĥ£áĥłáĥ Ĺ
ĠáĥĶáĥĻ áĥĿáĥľáĥĺáĥĲ
Ġáĥŀ áĥĶáĥłáĥ¡
Ġáĥĸáĥĺáĥ¢áĥ§ áĥķ
áĥĺáĥĿáĥ ¨
Ġáĥ¡ áĥ£áĥĳ
Ġáĥĺ áĥļ
Ġà´ļ à´°
Ġh ab
Ġ ro
Ġà´ĩ à´²
Ġo ut
à¸²à¸ Ľ
ĠS icherheit
ĠW or
ben d
Ġem pf
Ġunser em
Ġmit t
ĠA pp
ah er
arb eiter
Ġe uch
Ġf orm
ĠXV I
us Ã¤tz
wend ung
ĠB eit
Ġbe sten
Ġin di
. ,
ech s
àµĨ à´¾
à´ķà´£ à´®
à´µ à´ķ
à¸²à¸« à¸²à¸£
Ġs en
Ġw Ã¤re
à¸Ķ à¸Ĺ
à¸ļ à¸Ńà¸¥
ĠM et
d it
p art
m m
ĠT ex
er al
Ġpers Ã¶n
Ġd ich
Ð ¹
Ġo ffen
à´µ à´¦
tra gen
ĠáĥĽáĥĶáĥ¢ áĥĶáĥĿáĥł
áĥĶáĥ °
Ġáĥ¤áĥĺáĥļáĥĽ áĥĺáĥ¨
ĠáĥłáĥĲáĥĺ áĥĿáĥľ
áĥļ áĥĲáĥľáĥĵ
ĠáĥĻáĥĺáĥļ áĥĿáĥĽáĥĶáĥ¢
áĥĲáĥ¤ áĥĺáĥłáĥĺ
Ġáĥ®áĥĶáĥļ áĥ£áĥĲáĥľ
áĥł áĥĶáĥ¡
ĠáĥĵáĥĲáĥŃáĥ§ áĥĲáĥ¤
Ġáĥ£ áĥł
áĥľ áĥĺ
áĥĺáĥļ áĥ¡
Ġáĥļ áĥĺáĥ¢áĥĶáĥłáĥĲáĥ¢
áĥĶáĥłáĥ ļ
Ġáĥ® áĥĶáĥĽ
áĥĶáĥ¤áĥ¡ áĥ·áĥĹ
áĥ£áĥļ áĥĺáĥ¨
áĥĳ áĥł
Ġáĥ¬ áĥĿáĥł
áĥ£áĥļ áĥĻ
m Ã¤ÃŁ
ĠH ol
st adt
à¹ģ à¸Ĥ
ĠM Ã¤r
à´¸ à´¨
ra cht
Ġl Ã¤
Ġ à¹Ĩ
u e
Ġbesonder s
Ġbei den
Ġf r
à´± à´¯
ĠL ei
ĠC as
st ru
ho f
Ġa uÃŁer
Ã¶r en
ad es
Ġin ner
ti eren
ĠR o
Ã¼r ger
ĠJu gend
% -
olog ie
ĠM ehr
an ken
fÃ¼hr t
leich t
Ã¤hl en
u ar
ĠáĥĽ áĥĶáĥľáĥĵ
ĠáĥĴáĥķ áĥĲáĥ¢áĥĶáĥĽ
Ġáĥ¢ áĥĺáĥŀáĥĺáĥ¨
ĠáĥĴáĥĺáĥľ áĥĿáĥ¦áĥĲáĥļ
ĠáĥĴáĥĿáĥĲáĥłáĥĹáĥĿáĥĺáĥĲáĥľ áĥĲáĥ¤áĥĺáĥļáĥĺ
Ġáĥ¬ áĥĶáĥ¡
áĥĺáĥĿáĥłáĥ Ļ
áĥ¬ áĥ§
Ġáĥĸáĥ£áĥ¦ áĥĲáĥ¡
áĥĲáĥľ áĥ£
ĠáĥŁáĥĲáĥłáĥľ áĥĶáĥ©áĥĵáĥĿáĥķáĥĺáĥĹ
ĠáĥĶáĥłáĥĻ áĥĶáĥĳáĥ£áĥļ
Ġáĥ¡áĥ£áĥĽ áĥĺ
áĥ£áĥ ¤
áĥĺáĥľáĥ Ĺ
áĥ£áĥļ áĥĲ
áĥĺáĥ¥ áĥĺáĥĽ
áĥĲáĥł áĥĿáĥĳáĥĲ
Ġáĥĺáĥłáĥ Ĺáĥ£
Ġáĥ¡áĥĲáĥ®áĥĶáĥľáĥ¬áĥ·áĥ¤ áĥĿáĥ¨
áĥļ áĥĺáĥ¨
ĠáĥŀáĥĿáĥļáĥĺáĥ¢ áĥĺáĥĻáĥ£áĥłáĥĺ
áĥĶáĥł áĥĶáĥ¡
Ġg ilt
ĠáĥĴ áĥļ
ĠáĥĲáĥĻáĥĽ áĥĿáĥĵáĥĺáĥłáĥĹáĥ£
ĠáĥĴ áĥĿáĥĽ
Ġb r
p os
ĠT echn
à¹ģ à¸«
ÑĤ Ðµ
ĠP at
Ġre g
Ð½ Ñĭ
Ġg l
ul t
ei gt
ĠVer fÃ¼
Ġà´ĵ à´«
j Ã¤hr
id a
Ġà´ħ à´°
ĠVer arbeitung
u pp
à´§ à´¨
Ġf l
à¸Ļ à¸°
9 8
Ġà´ħ à´Ļ
ĠGe gen
bild ung
ĠN ews
ĠZ iel
à¸ļ à¸Ĺ
à´¬ à´°
le ben
g lichen
og raf
à´® à´¸
ĠS ystem
S ie
ĠH aupt
etz en
7 6
ĠVer ein
Ġer ste
ĠBes uch
ĠáĥĴ áĥĶáĥ£
Ġáĥ¤áĥĺáĥļáĥĽ áĥĺ
áĥĿáĥłáĥ ¥
áĥĲáĥĽ áĥ¡
Ġáĥ¢ áĥ£áĥł
ĠáĥĽáĥ£áĥ¡áĥ®áĥĺáĥł áĥĶáĥľ
áĥĿáĥĳ áĥĶáĥļ
áĥĺáĥ ĵáĥ·
ĠáĥĲáĥ¢ áĥļ
Ġáĥĺáĥ ¤
Ġáĥĵáĥĺ áĥĲáĥļ
Ġáĥ¡áĥŀáĥĶáĥª áĥĺ
Ġáĥĵáĥ¦ áĥĲáĥ¡
Ġáĥ£áĥĻ áĥķáĥĶ
ra um
st Ã¼ck
tem ber
Ã¼ b
ann ten
Ġgem acht
Ġz ahl
Ġg ute
à¸Ĭ à¸²à¸ķ
à¸Ń à¸°
Ġet wa
ĠN atur
i ff
Ġà´ħà´µ à´³
àµ¼ à´®
ind ung
200 1
Ġ tem
ĠF est
ĠTe am
0 9
lau b
ein ander
nah men
Ġà´¤ à´®
ĠV iel
den t
à¸Ļ à¸ģà¸²à¸£
vid u
__ __
ĠAl s
ĠSt Ã¼ck
Ġso gar
ĠF ragen
à¸ Ĵ
Ġ Ã¤
v est
ĠK Ã¼
rot z
Ġst ell
Ġpro f
Ġáĥ¢ áĥĶáĥ¡
áĥĿáĥĹ áĥĲ
Ġáĥ£áĥĵáĥĺáĥĵ áĥĲáĥ¨
Ġáĥľ áĥĿáĥłáĥ
ĠáĥĿáĥĹáĥ® áĥĿáĥľáĥĶáĥ©áĥĵáĥĿáĥķáĥĺáĥĹ
áĥ·áĥľáĥ ĵáĥ·
Ġ áĥĲáĥľáĥĴ
ĠáĥĽ áĥĲáĥ¤
ĠáĥĽáĥĲáĥļ áĥĲáĥ¡
Ġáĥĳáĥ£áĥľ áĥĲáĥ¡
ĠáĥĶáĥ¨ áĥĽ
áĥĳáĥŁáĥĲáĥĵáĥĲáĥļ áĥ¨áĥĶ
áĥĳáĥŁáĥĲáĥĶáĥĺáĥĿáĥļ áĥ¨áĥĶ
Ġáĥ«áĥĲáĥļ áĥĲáĥĽáĥĺ
Ġáĥĺáĥľáĥĵ áĥĿáĥľáĥĶáĥĸ
Ġáĥ¯áĥĺáĥľáĥ¯ áĥĺáĥĶáĥłáĥĺ
ĠáĥŀáĥłáĥĿáĥª áĥĶáĥ¡
áĥķ áĥĺáĥļáĥĺ
Ġáĥ¯ áĥĺáĥ®
Ġáĥĺáĥľáĥ¤ áĥĿáĥłáĥĽ
ĠáĥĲáĥłáĥ« áĥĿ
ĠáĥĽ áĥĲáĥłáĥĻ
áĥĲáĥ¢ áĥĿáĥł
ĠáĥĽ áĥĺáĥĵ
ĠáĥĽáĥ£áĥ¡áĥ®áĥĺáĥł áĥĶáĥľáĥĺ
Ġáĥ Ńáĥ§
5 6
fÃ¼hr ung
p s
à´± à´°
it ter
Ġ à¤
ĠK unst
ti f
ĠFil m
ĠI de
ĠOr t
kt ur
zie h
ĠF ac
ĠH Ã¶
g Ã¤n
Ã¤ ten
w and
ĠA c
ĠM Ã¼n
à¸ŀ à¸¥
ĠK ir
Ġl ange
ĠS an
rÃ¤ ge
Ġw issen
eb ook
et s
amen te
ĠIhr em
lich es
Ð° Ð»
au en
ĠK am
Ġon line
ĠáĥĻ áĥĶáĥ¨áĥĺ
áĥł áĥĺáĥĵ
áĥĺáĥ¡ áĥĿáĥłáĥĺ
ĠáĥĶáĥĴáĥķáĥĺáĥŀ áĥ¢
ĠáĥĽáĥĶáĥ ¥
ĠáĥĿáĥłáĥ ¥
ĠáĥĻáĥĲáĥł áĥĺáĥĶáĥł
ĠáĥĽáĥĲáĥ® áĥĿáĥłáĥ£
áĥĲáĥłáĥ ¨
ĠáĥĿáĥ ¬
ĠáĥĽáĥĿáĥĴáĥķ áĥĺáĥĲáĥľ
áĥĲáĥĽ áĥ¨
áĥ£áĥľáĥ¥ áĥª
ĠáĥŀáĥłáĥĿ áĥĶáĥ¥áĥ¢
ĠáĥĲáĥłáĥ Ĵ
Ġda von
c en
ĠB i
ei ster
ĠkÃ¶nn te
g o
ĠB en
ĠD ir
à¹Ħà¸¥ à¸Ļ
Ġà´ħ à´ķ
ĠS al
ig es
Ã¤ tig
ĠBei spiel
r et
Ġf rÃ¼
à´ Ĵ
à¸ĩ à¸ķ
ze pt
ge hen
à´± à´±
ĠKont akt
an a
W enn
Ġà´¤ à´Ł
ĠB ed
B ei
ar a
ri k
isch es
Ġà´ĩ à´Ł
ĠC om
à¸£à¸²à¸ Ĭ
ĠEr fahr
ĠE ner
Ġges p
t u
sch ule
à¸£ à¸²à¸¢
k el
ĠáĥĽáĥ£áĥ¡ áĥĺáĥĻ
áĥĿáĥļ áĥ¡
ĠáĥĲáĥĳ áĥĲáĥľáĥ¡
ĠáĥĻáĥ£áĥļáĥ¢áĥ£áĥł áĥ£áĥļáĥĺ
ĠáĥĻáĥĿáĥľáĥ ª
áĥ£áĥĹ áĥĲáĥ¨
áĥĺáĥ£áĥł áĥĿ
áĥĿáĥł áĥĿáĥ¤
áĥĿáĥĹ áĥ®
áĥ£áĥł áĥĲáĥ¤
Ġáĥ¤ áĥļ
áĥĺáĥľ áĥĶáĥ¤áĥĺ
Ġáĥ¨ áĥĶáĥļ
Ġáĥĵ áĥ·áĥĽ
ĠáĥĿáĥ¨áĥ¥ áĥĲáĥ¨áĥĶ
áĥ£áĥ ķ
áĥĿáĥľáĥ ¥
ĠáĥĻáĥĿáĥľáĥ Ĵ
áĥĲáĥŀ áĥĿáĥļáĥĶ
ĠD ar
w elt
al ter
à´ŀ à´¤
S p
Ġp os
ĠXV II
ĠE U
Ġr el
Ġn ov
Ġauf ge
ĠAn t
Ġr ichtig
Ġent wick
Ġa d
Ġh Ã¤t
ĠF unktion
ar te
Ġder en
gem ein
e der
it ik
wend et
Ġn ehmen
Ġz ie
und heit
ci p
à´ª à´¯
8 5
ĠK om
ĠH in
à¹Ģà¸« à¸¡
ĠlÃ¤ sst
sch t
ĠP rÃ¤
áĥĺáĥ¤ áĥĺáĥĻ
áĥķáĥĲáĥĵ áĥ£
Ġáĥ¨ áĥ¢
Ġáĥĵ áĥĶáĥĳáĥĲáĥĵáĥ·
áĥĺáĥĽ áĥĺáĥ¨
áĥĶáĥ¡ áĥĻ
ĠáĥĴáĥĿáĥłáĥ ©áĥ¥
ĠáĥĺáĥĻáĥĿáĥłáĥĿáĥªáĥ® áĥ£
áĥĲáĥľáĥĹ áĥ®
áĥĿáĥļáĥĿáĥĴ áĥĺáĥĲáĥ¨
áĥĺáĥŀ áĥĶáĥĵ
Ġáĥ¬áĥĺáĥĽáĥĺáĥľáĥĵ áĥĶ
ĠáĥĽ áĥĿáĥĳ
ĠáĥĽ áĥĲáĥ¢
Ġà´° à´ķ
áĥĺáĥ£áĥļ áĥĿ
áĥĿáĥłáĥ¯ áĥĺáĥ¡
áĥķ áĥĶáĥľáĥ¯
áĥ£áĥĻ áĥĿ
m Ã¶
Ġ áĥĲáĥľáĥĵ
Ġáĥ£áĥ¦ áĥ£áĥĵáĥ·
áĥĺáĥłáĥ ¥
à¸ĺ à¸£à¸£à¸¡
ĠA s
b eh
ge gen
fl Ã¤
à¸£ à¸ĸ
ĠJ ul
ot t
à¸§ à¸Ķ
ran s
n o
ĠAngeb ot
a f
Ñ Ī
ĠO kt
ch ten
ĠH e
à´ľ à´¯
ĠO b
199 1
ol f
ĠIn st
ĠGesch Ã¤ft
ro w
) :
à¹Ĥ à¸£à¸Ħ
ĠB ilder
à¸Ĥ à¸²à¸¢
à´¡ à´¨
Ġhin ter
ĠEin satz
ĠÐ ¾
an ce
à¸²à¸ ĵ
i as
ĠB ar
ĠMar kt
ion al
r al
ĠNov ember
Ġm es
áĥľ áĥĶáĥĹáĥĺáĥ¨
áĥ¥ áĥĿáĥłáĥĹ
áĥĶáĥĽ áĥĺ
ĠáĥĽáĥĶáĥ£ áĥłáĥľ
ĠáĥĲáĥĻáĥĽáĥĲáĥĵáĥĴáĥĺáĥľ áĥĲáĥľáĥĵáĥ·
ĠáĥĿáĥ ķ
Ġáĥ¦ áĥ£áĥłáĥĹáĥ£áĥĹáĥĲ
ĠáĥĿáĥļáĥ¥ áĥĺáĥ¨
áĥĲáĥĵ áĥĿ
áĥ£ áĥĶáĥ¤áĥĺ
áĥĽ áĥĺáĥ¨
Ġáĥ¡áĥ¥áĥĺáĥłáĥĿáĥľ áĥĲáĥ¨áĥ¥
ĠáĥĽ áĥĲáĥĹ
áĥĺáĥ¨ áĥĲáĥ®
Ġáĥ£áĥ¦ áĥ·
áĥĺáĥ¢ áĥĲáĥļ
áĥķ áĥĲáĥĹ
Ġáĥ¬ áĥĺáĥľáĥĴ
Ġáĥ¨ áĥ®áĥĺáĥłáĥĲáĥ¡
áĥ£áĥłáĥĹ áĥĶ
ĠáĥĽáĥĲáĥ¦ áĥĲáĥļáĥĺ
áĥł áĥĲ
ĠáĥĻáĥĿáĥľáĥ ¤
ĠC ar
Ġáĥ§áĥĲáĥł áĥĲáĥ¤
Ġáĥķ áĥ£áĥļáĥĻ
Ġáĥ© áĥĶ
ĠD och
p tember
Ġh tt
Ġà´ŀ à´Ļ
3 00
Ġà´ı à´¤
Ðµ Ñģ
be ding
Ñ İ
5 7
eg t
Ġs eg
ĠSch wei
Ġv ier
ĠQu alitÃ¤t
ĠM ill
à¸Ń à¸ķ
0 4
age ment
Ã¤t ze
5 9
ig ht
di a
Ã¶r der
à¸§ à¸£
h eiten
] ,
men te
Ġmein er
Ġinter ess
b in
sch w
ĠF ir
Ð ´
ĠF rank
« áĥĲ
áĥĲáĥľ áĥĿ
ĠáĥĽáĥ£áĥ ¥
Ġáĥĺáĥ ©
ĠáĥĽ áĥĲáĥĻ
Ġáĥ£áĥĽ áĥĻ
áĥĺáĥľáĥ ĵáĥ·
ĠáĥĽáĥĶáĥ Ń
áĥ£áĥ¡ áĥ¢
ĠáĥĶáĥĹ áĥľ
ĠáĥĽáĥ£áĥĹ áĥĽ
áĥĿáĥłáĥ «áĥĴ
ĠáĥĴáĥĶáĥ «
ĠáĥĹ áĥ£áĥĵ
áĥĶáĥĳ áĥĶáĥļáĥĺ
ĠáĥĴáĥ·áĥĽ áĥĺáĥłáĥĺáĥľáĥ£
ĠáĥĽ áĥ£
Ġáĥ¬áĥĲáĥľ áĥĶáĥ¤áĥĺáĥ¨
ĠáĥĿáĥĻ áĥ£áĥ©áĥ®
Ġáĥĺáĥ Ĺ
ĠNutz ung
ĠF rage
à¸ľ à¸¡
ĠAug ust
p res
ĠO p
ĠUn ivers
ĠXI V
à¹Ħ à¸Ł
ĠE igen
Ġà´ ĸ
ĠP o
bl ick
Ġp ra
Ġà´ª à´¦
er st
it er
Ġo pti
o ut
Ġr ich
ĠVerfÃ¼ gung
ĠT age
6 8
Ù Ħ
à¸Ļ à¹ģ
ĠRecht s
à¹Ģà¸ķ à¸Ńà¸£
à¸Ńà¸Ļ à¹Ħà¸¥à¸Ļ
i os
Ġt amÃ©n
v ol
Ġà´ª à´Ł
eh len
Ġunter stÃ¼t
à¹Ģà¸£ à¸²
se hen
Ġver fÃ¼
ĠÐ ½
h le
áĥĺáĥł áĥĲáĥ¤áĥĲáĥ¨
ĠáĥĲáĥĻ áĥĲáĥĵ
áĥķáĥĲáĥļ áĥ£
áĥĺáĥľ áĥĲáĥľáĥ¡
áĥķ áĥĺáĥĵ
Ġáĥ® áĥķáĥĲáĥĽ
áĥ£áĥĽ áĥĺáĥ¨
áĥ£áĥĵ áĥĺáĥ¨
áĥĶáĥĳ áĥ·
áĥĲáĥľ áĥ£áĥļ
áĥ¡ áĥĺáĥ¨
ĠáĥĽáĥĲáĥĲáĥłáĥĹ áĥĲáĥĹ
ĠáĥĲáĥłáĥ« áĥĿáĥ¨áĥĶ
Ġáĥ¢áĥĶáĥĽ áĥŀáĥĶáĥł
Ġáĥł áĥĿáĥĳ
áĥĿáĥľáĥ ¯
ĠáĥĹáĥ® áĥĺáĥļ
áĥĻ áĥķáĥĺáĥĹ
áĥĺáĥľáĥ ¢
áĥĺáĥĶáĥł áĥĿ
áĥĺáĥ ¬
áĥĺáĥļ áĥĵ
ĠáĥĹ áĥĺáĥł
ĠáĥłáĥĶáĥĴ áĥĺáĥĿáĥľáĥĺ
ĠáĥŀáĥłáĥĶáĥĸáĥĺáĥĵ áĥĶáĥľáĥ¢
áĥĻ áĥĿáĥ©
áĥĲáĥłáĥļ áĥĲáĥĽ
áĥ·áĥĵ áĥ·
¡áĥ¢áĥĺáĥ¢ áĥ£áĥª
Ġáĥĺáĥĵ áĥĶ
Ġáĥľ áĥĲáĥŀáĥĿáĥļáĥĶ
E n
à´ķàµ¾ à´ķ
est er
à´£ à´¤
à´ª à´Ł
A uf
Ġ à¸Īà¸°
ĠProdu kt
ĠBet rieb
5 8
Ġf ast
à¸ļ à¸ª
ĠK re
ĠD enn
Ġp aar
Ġp ri
à¸ģ à¸ª
Ġz war
S T
i ci
ĠFl ug
Ã¤n dern
was ser
à¸ģà¸© à¸²
ĠP e
ĠOkt ober
stÃ¤n d
ĠVer l
Ġer folg
à¸Ń à¸Ĺ
Ġw ei
à´¨ à´¨
ĠD r
àµ¼ à´Ł
ĠN icht
N ach
ĠA t
Ġt o
Ġkl eine
am ent
le gen
Ã¼ d
ĠVer trag
b es
áĥĶáĥļáĥĶ áĥĶáĥķ
ĠáĥĳáĥŁ áĥĲáĥĶáĥĺáĥĿáĥļáĥĺ
Ġáĥĳ áĥĲáĥł
ĠáĥĳáĥĿáĥłáĥ¯áĥĺáĥ¨ áĥĿ
áĥĿáĥĳáĥł áĥ£áĥĿ
Ġáĥĺáĥłáĥ ĵ
Ġáĥ¥áĥĺáĥłáĥ¡ áĥĺáĥĲáĥľ
ĠáĥĽáĥĲáĥľáĥĴ áĥĺ
Ġáĥĳáĥĺáĥĸ áĥĲáĥľáĥ¢
áĥĲáĥłáĥ¢ áĥĲáĥĽ
áĥĿáĥ¡ áĥĺ
ĠáĥĻáĥĺáĥľ áĥĶ
ĠáĥĽáĥĶáĥ¨ áĥ¥áĥĲáĥ¨
Ġáĥ¡áĥ¥áĥĺáĥłáĥĿáĥľáĥĲáĥ¨áĥ¥ áĥĲ
áĥ£áĥ¨ áĥĶ
áĥ¸ áĥ£áĥłáĥĶ
Ġáĥ¤ áĥ£áĥľáĥ¥áĥª
Ġáĥĺáĥ¡áĥ¢áĥĿáĥł áĥĺáĥ£áĥļáĥĺ
áĥĶáĥł áĥĶ
Ġáĥļ áĥĿáĥľáĥĵ
áĥĺáĥľ áĥĿ
Ġáĥł áĥĶáĥľ
áĥķáĥĲáĥļ áĥĲáĥĽ
áĥĲáĥĳ áĥĿáĥłáĥ¯áĥĺáĥ¡
Ġáĥ£ áĥª
ĠáĥĲáĥ¤áĥ®áĥĲáĥĸ áĥĶáĥĹáĥĺáĥ¨
spr uch
u be
ĠH o
4 8
à¹Ĥ à¸¡
a in
Ġbet roffen
ĠJ uni
à¸Ĵ à¸Ļ
Ã¶ ÃŁe
ĠMÃ¶glich keit
ĠSt r
v el
ĠMa i
à¸ĩ à¹ģ
Ġg al
A R
ĠN e
Ġd Ã¼r
sp ro
199 0
Ġer klÃ¤r
j ahr
hal te
hr en
ĠGesch ichte
a ur
Ġ à¸Ĥà¸Ńà¸ĩ
Ġà´Ĵ à´´
à´® à´²
Ã± o
Ø ¯
am os
rei fen
à¸Ńà¸ĩ à¸ģà¸²à¸£
ann te
ĠPart ner
Ã¤ um
ĠK osten
Ġp rÃ¤
Ġf ac
Ġ us
ĠPro zent
Ġà´¨ àµ½à´ķ
ĠZ ug
du st
à¸Ńà¸ĩ à¸Ħ
sch er
at ten
Ġre c
Ġáĥļ áĥĿáĥĻ
Ġáĥ¥ áĥ·áĥľáĥĵáĥ·
ĠáĥĶ áĥľ
áĥĿ áĥĿáĥłáĥ£
áĥĿáĥļ áĥĶáĥ¥
Ġáĥ¡áĥ£áĥĽ áĥĿáĥ¨
Ġáĥ¬áĥ§áĥĲáĥłáĥĽ áĥĲáĥļ
ĠáĥĵáĥĶáĥŀ áĥĲáĥłáĥ¢áĥĲáĥĽ
áĥĲáĥ¬ áĥĲáĥłáĥĽ
áĥł áĥĲáĥ¨
áĥĺáĥļ áĥĺáĥĶ
áĥĿáĥ¢ áĥĺ
áĥĶáĥ ¦
ĠáĥĲáĥ Ķ
áĥłáĥĿáĥŀ áĥĿáĥłáĥ¢
ĠáĥĽ áĥĿáĥĵ
ĠáĥĴ áĥĿáĥ®
áĥĲáĥł áĥ£
áĥĺáĥ¢ áĥ£
Ġáĥ¨áĥ¥ áĥĲ
Ġáĥ£áĥ¯ áĥķáĥĶáĥ¨
ĠáĥĽ áĥĲáĥĺ
áĥĶáĥĳ áĥĶáĥ¤áĥĺáĥ¨
áĥĺáĥĵ áĥ£
áĥĲáĥª áĥ®
ĠáĥŀáĥĶáĥłáĥ¡ áĥĿáĥľ
áĥ¯ áĥķ
áĥļ áĥĶáĥ¡
em ent
Ġm ei
ĠVer anst
icher ung
Ġw oll
Ġc as
Ġsp Ã¤ter
Ġihr em
ĠMitt el
ĠSe ptember
h op
Ġver st
ter s
ï ¿
sch ul
Ġsp ez
Ġher aus
à¸¸ à¹ī
ĠPro jekt
ï¿ ½
ĠB el
u h
o i
à¸¢ à¸ģ
rupp en
Ġb itte
fÃ¼ hl
ĠGro ÃŁ
m el
ei ra
20 00
ĠÐ º
ĠV ol
Ġle ben
k ung
rie d
Ġ( âĢŀ
à¹Ģà¸Ľ à¸¥
Ġ ti
Ġst ellen
ĠW issen
Ġn utzen
f re
Ġir gend
b est
6 7
Ġge t
w ohn
ĠSel bst
au ber
Ġb l
à¸Ľà¸£à¸° à¸ģ
ĠáĥĽáĥĶáĥ ¸
Ġáĥ¨ áĥ®áĥ£
áĥĳ áĥĶáĥłáĥ«áĥĶáĥľ
Ġáĥ¨áĥĶáĥĵáĥĶáĥĴ áĥĿ
Ġáĥ¥áĥĿáĥłáĥĹ áĥ£áĥļ
Ġáĥĳ áĥ£áĥľáĥĲ
áĥª áĥĶáĥľ
áĥ£áĥł áĥĺáĥľáĥ¯
áĥĲáĥłáĥĹ áĥĲ
ĠáĥĽáĥĺáĥļ áĥĺáĥĿáĥľáĥĺ
¡áĥ¢áĥĺáĥ¢ áĥ£áĥ¢
áĥ£ áĥ£áĥļ
Ġáĥ® áĥ£áĥĹ
ĠáĥĽáĥĲáĥ¡ áĥ£áĥĽáĥĲ
áĥĺáĥľáĥ ©
ĠáĥĽ áĥĿáĥ¸
Ġáĥ¥ áĥĿáĥĽ
ĠáĥĴáĥ· áĥľáĥ
áĥĲáĥľ áĥ©
áĥĺáĥ¡ áĥĻ
ĠáĥĹáĥĺáĥ¨ áĥĶáĥľ
Ġáĥ¤ áĥĲáĥł
áĥĺáĥ¢ áĥĺ
Ġáĥĳáĥłáĥĺáĥ¢ áĥĲáĥľáĥĶáĥĹáĥĺáĥ¨
ĠáĥĴáĥķáĥĲáĥļ áĥĿ
ĠáĥĻ áĥĲáĥŀ
ĠáĥĺáĥľáĥĵáĥĿ áĥĶáĥĹáĥĺáĥ¡
áĥĲáĥłáĥ ĸ
Ġáĥŀ áĥĲáĥłáĥĻáĥĺ
áĥĲáĥľ áĥĲáĥ¡
ĠW ahl
áĥĺáĥ¡áĥ¢ áĥ£áĥłáĥĺ
ĠáĥĻáĥĿáĥľáĥ ¡áĥ¢áĥĺáĥ¢áĥ£áĥª
gen ommen
196 0
mal s
ĠBer uf
Ġk aufen
ab le
Ġkl einen
à¸Ļà¸Ĺ à¸²à¸ĩ
ĠDien st
s l
à¸Ļ à¸²à¸Ķ
. "
á ŀ
Ġer fol
ar f
Ã¤hl t
utz t
à´± à´²
ĠAn d
Ġà´¨à´Łà´ª à´Ł
Ġâ Ĥ¬
Ġp res
ut t
Ġsoll ten
Ġf re
Ġunter schied
Ġ ?
Ġg ab
200 2
à¸Ĺà¸³ à¹ĥà¸«
à¸³ à¸Ļ
Ï ģ
Ġhat ten
mb H
à´° à´Ł
Ã¤ te
áĥľ áĥĿáĥ¦
ĠáĥĽáĥĶáĥłáĥ Ļ
Ġáĥŀáĥł áĥĿáĥ¤áĥĶáĥ¡
áĥĶ áĥĺáĥ¨
áĥĺáĥ¡áĥ¢ áĥĶáĥ¤áĥĺáĥ¨
áĥ£áĥ «
áĥĺáĥĿáĥļ áĥĿáĥĴ
ĠáĥĶáĥĵáĥĿáĥĽáĥ£áĥ¨ áĥĲáĥĽáĥĿ
Ġáĥł áĥĺáĥ©áĥĲáĥłáĥĵ
Ġáĥ® áĥĲáĥł
ĠáĥĽ áĥĿ
ĠáĥĽ áĥĿáĥ¦áĥĲáĥļ
ĠáĥĻ áĥĲáĥĽ
áĥĺáĥĿáĥ Ĵ
Ġáĥļ áĥ·áĥĽáĥĲ
áĥĶáĥľáĥĵ áĥĶáĥ¡
ĠáĥŁ áĥĲáĥľ
ĠáĥŀáĥłáĥĶáĥĸáĥĺáĥĵ áĥĶáĥľáĥ¢áĥĺ
ĠáĥĲáĥĵáĥĲáĥĽáĥĺáĥĶ áĥłáĥ¡
áĥĿáĥ Ł
áĥĶáĥĳ áĥĶáĥļáĥĿ
Ġáĥĵ áĥĲáĥĳ
Ġáĥ£áĥĽáĥĶáĥľáĥ¢ áĥĲáĥ¨
áĥĺ áĥĲáĥłáĥĹ
Ġáĥ£ áĥļ
Ġáĥ£áĥĽáĥĲáĥ¦áĥĲáĥļáĥĲáĥ¨ áĥĺ
Ġz usÃ¤tz
um mer
à¸ĩ à¸ģà¸²à¸£
ĠG Ã¤
F Ã¼r
à´µ à´£
Ġt un
Ġà¹Ģà¸ŀ à¸£à¸²à¸°
Î ±
d ition
ĠH am
ĠV I
à¸ ı
b ach
Ġn eben
schn itt
it a
Ġw eit
ĠS am
Ġ Ã¶ffent
al le
ĠDe z
Ġw orden
rÃ¼ f
ĠP orn
Ã¤n de
ĠR aum
à´² à´Ļ
sp ort
iel t
de ut
p ol
àµ» à´¸
ĠMÃ¤r z
X I
Ġe ur
4 1
ri gen
Ġindi vidu
s weise
at h
à´ķ à´Ł
spre ch
a ffen
Ġsch wer
ĠC omp
ĠD i
m et
Ġaller dings
Ð² Ð¸
Ġw ahr
arb eiten
à¸ģ à¸Ķ
18 9
à¸ ¯
à¸ģ à¸Ħ
8 9
Ġáĥŀ áĥ£áĥľáĥ¥
áĥĿáĥĳ áĥŁ
ĠáĥĽáĥĶáĥ ©
ĠáĥĲáĥ £
ĠáĥĶáĥļ áĥĶáĥĽ
ĠáĥĴáĥ£áĥł áĥĲáĥ¤áĥ£áĥļ
ĠáĥĽ áĥĶáĥ¡áĥĺ
áĥ¥ áĥĺáĥĲáĥľáĥĲáĥ¨
ĠáĥĿáĥĵ áĥĲáĥĳáĥĲáĥĵ
Ġáĥ£ áĥĸ
áĥĶáĥł áĥĺáĥĲáĥ¨
Ġáĥ£ áĥĹ
áĥĺáĥĵ áĥĶ
áĥĿáĥľáĥ ¬áĥ§
Ġáĥŀáĥł áĥĿáĥĴ
áĥĺáĥĳ áĥĺáĥ¨
áĥĲáĥļ áĥĺáĥĹ
Ġáĥĳáĥł áĥĶáĥļ
ĠáĥĽáĥĺáĥłáĥ ©áĥ¥áĥĺáĥľ
ĠáĥĲáĥ¢áĥļ áĥĲáĥľáĥ¢áĥĺáĥ¨
ĠáĥĲáĥĶ áĥłáĥĿáĥŀáĥĿáĥłáĥ¢
ĠáĥĻ áĥĲáĥķáĥĻ
Ġáĥ¢ áĥĺáĥĳ
ĠáĥĵáĥĲáĥ® áĥĶ
ĠáĥĴáĥ·áĥ¨ áĥĽ
áĥĿáĥľáĥ ·
ĠáĥĽáĥĶáĥ® áĥ·
ĠáĥĶáĥ¥ áĥ¡áĥŀ
ess ion
ĠB as
ĠE le
; ;
elef on
Ð¾Ð »
Ġver wendet
ow s
Ġc m
àµģ ,
à¸£à¸° à¸ļà¸ļ
Ġà´İ à´Ļ
à´ĺ à´Łà´¨
stell er
6 2
it ten
Ðµ Ð½
ĠM Ã¤n
ĠW ind
ĠL es
bar e
Ġm ar
e ten
es onder
bar en
ak te
ĠJahr es
p a
wer b
à´¹ à´®
200 4
te gr
ĠG eh
ĠW ider
gr Ã¼n
s f
Ã ľ
ĠV on
ĠDes ign
z el
199 2
ĠL uft
l ungen
199 9
Ġi hnen
al y
Ġf reu
ĠG mbH
Ġ à¸«à¸¥
à¤ °
Ġp riv
à´Ļàµ¾ à´ķ
ĠProdu kte
c es
ge ber
à¸¢à¸§ à¸ģ
I T
A d
áĥĵ áĥķáĥĲáĥļ
Ġáĥ¨ áĥĿáĥľ
Ġáĥ° áĥĿáĥļ
áĥĺáĥĿáĥ Ń
áĥĿáĥ£ áĥļ
ĠáĥĻáĥĿáĥľáĥ¢ áĥł
ĠáĥĽáĥĺáĥĿáĥ Ĵ
ĠáĥĽ áĥĶáĥľ
Ġáĥŀ áĥĲáĥļ
ĠáĥĲáĥĻ áĥĲáĥľáĥ¡
áĥł áĥ£áĥ¡
áĥĺáĥļ áĥ£
Ġáĥ®áĥĶáĥ¨ áĥ£áĥ£áĥļ
áĥĲáĥłáĥ ©áĥ¥
ĠáĥĿáĥ ª
Ġáĥļ áĥĶ
áĥĿáĥļáĥĿáĥĴ áĥĺáĥĲáĥ¡
Ġáĥĵ áĥĴáĥ·áĥĽ
Ġáĥŀ áĥĿáĥ¢
áĥĶáĥłáĥ ļáĥĲáĥľáĥĵ
ĠáĥĴáĥ·áĥľáĥ Ľ
Ġáĥ¢áĥĶáĥĽáĥŀáĥĶáĥł áĥĲáĥ¢
Ġáĥĵ áĥĲáĥ¡
áĥĲáĥĽ áĥĲ
áĥ¯ áĥĴáĥ£áĥ¨
áĥĶáĥ ¸
áĥĲáĥľ áĥĺáĥĲáĥ¨
ĠáĥĽáĥĿáĥľáĥ ¬áĥ§
áĥĶáĥĳ áĥĶáĥļ
áĥłáĥ ¥áĥĺáĥĲáĥľ
áĥłáĥ¥áĥĺáĥĲáĥľ áĥĿ
áĥĺáĥľ áĥĶáĥľáĥ¢
áĥ·áĥľ áĥĶ
Ġáĥ¡áĥĲáĥĽ áĥĲáĥłáĥĹ
st ein
ĠáĥĻáĥļáĥĲáĥłáĥ¯ áĥĶáĥĹáĥĺáĥ¨
Ġd is
ĠV ort
at te
ĠReg el
ĠAut o
rei che
Ã¤ch st
ĠK omp
ĠEr geb
à´µ àµ¼
Ġi de
à¸ķ à¸¥
sp l
om it
ist e
ĠPro f
ĠG ut
neh mer
à¸Ļ à¹Ħà¸Ľ
Ġn ot
ran ken
ĠD at
klÃ¤r ung
ĠChr ist
ĠLand es
u ck
Ġverschieden en
Ġkann st
ĠPerson en
ĠD en
b uch
Ġk einen
Ð ³
ges etzt
Ġà¹Ģà¸ Ĭ
ow n
ĠD ann
0 2
Ġbe kommen
ser e
Ġver m
ĠH ei
à¹Ģà¸ ¨
à¸ŀ à¸¢
Ġso bre
àµĨ âĢĭ
0 6
à¸ļ à¸Ħ
à¹Ĥ à¸£à¸ĩ
Ġgemein sam
Ġeben falls
Ġinner halb
A m
à´ķ à´µ
0 3
Ġz eigt
ĠA pr
ĠH ar
ein t
el a
Ã¼ ler
sch ung
ĠMit arbeiter
Ġpol o
ĠáĥĻáĥĲáĥļáĥĶáĥľáĥĵáĥĲáĥł áĥĺáĥĹ
áĥĺáĥľ áĥĺáĥĹ
Ġáĥ¢ áĥĿáĥĳ
ĠáĥĿáĥ® áĥķáĥĺáĥļ
ĠáĥľáĥĲáĥĽáĥ£ áĥĶáĥ¤
ĠáĥĻáĥĿáĥļ áĥĿáĥľ
Ġáĥ¡ áĥªáĥĶáĥľ
áĥ£áĥĲáĥ¤ áĥ·
Ġáĥ¬áĥ§áĥĲáĥłáĥĽáĥĲáĥļáĥ£ áĥĶáĥ¤áĥĺáĥ¨
Ġáĥĳáĥłáĥĺáĥ¢ áĥĲáĥľ
áĥĶáĥłáĥ ª
Ġáĥĺáĥľáĥ ¡áĥ¢áĥĺáĥ¢áĥ£áĥ¢
ĠáĥĽ áĥĺáĥ¦áĥ·
ĠáĥĺáĥŃáĥ§ áĥĲáĥ¤áĥ£
Ġáĥĳ áĥĿáĥļáĥĿ
Ġáĥłáĥ Ĵ
áĥĲáĥ¨áĥ¥ áĥ£áĥĽáĥĲáĥļ
ĠáĥĵáĥĿáĥľ áĥĶ
Ġáĥ¡áĥ¢áĥĲáĥ¢ áĥ£áĥ¡áĥĺ
Ġáĥĵáĥ¦ áĥĲáĥ¨
ĠáĥĿáĥĽáĥĲáĥ¤ áĥĶáĥ¨
ĠáĥĹ áĥĲáĥľáĥĴ
áĥ®áĥķ áĥĲáĥĵ
áĥĲáĥļ áĥĲáĥ¥
Ġáĥĳ áĥĶáĥļ
ĠáĥĿáĥĽ áĥ«áĥ¦
ĠáĥłáĥĶáĥ¡áĥŀáĥ£áĥĳáĥļ áĥĺáĥĻ
ĠáĥĽáĥĿáĥľáĥ« áĥĲáĥļáĥĲáĥ¨
áĥĿáĥłáĥ ©
áĥĲáĥ£ áĥļ
áĥĶáĥ Ń
à´¤ àµ½
Ġáĥŀ áĥĲáĥłáĥļáĥĲáĥĽ
áĥĺáĥĲáĥ¨ áĥĲ
Ġáĥ¡áĥĲáĥ¤áĥłáĥĲáĥľáĥĴ áĥĶáĥĹáĥĺáĥ¨
Ġab ge
áĥĻ áĥĺáĥł
Ġáĥ¢ áĥĶáĥļ
áĥ£áĥĽ áĥĳ
Ġáĥ¨ áĥĲáĥłáĥĲáĥļáĥ£
ÑĢ Ð¸
h Ã¤ng
anz en
à¹ ĭ
lie ÃŁ
ĠDez ember
ĠB us
à´¸ à´¤
ft ware
Ġpers o
Ðº Ð¸
Ġà¸Ĺ à¸³
la y
Ù Ĭ
Ġm ag
à´£ à´¨
Ġwen iger
Ġ end
ie g
Ġan geb
19 21
à´¶ à´¨
ĠAl le
m eld
ĠHot el
e e
Ġ à¸Ħà¸£
ĠK o
Ã¤n d
ĠG ast
ĠG el
ate gor
Ġal t
à´® à´±
uf en
ĠJan uar
Ġ ten
ass ung
ĠBl ick
Ġin st
Ġà´Ĩ à´¨
Ġn ah
ĠF rÃ¼
ist r
ĠS il
ĠD abei
ĠK Ã¶rper
setz ung
ĠAb s
ĠS ommer
à¸² à¹ģ
ĠF uÃŁ
ĠR est
Ġn ews
ĠMin uten
à¸¢ à¸ļ
Ġáĥ¡áĥĲáĥĽáĥĲáĥłáĥĴáĥĲáĥļ áĥĿáĥ¨
Ġáĥ¡áĥĲáĥļ áĥķáĥĲáĥĵ
áĥĺáĥĿáĥľ áĥĺáĥ¨
Ġáĥľ áĥĿáĥļáĥĶáĥ¥
Ġáĥļ áĥĲáĥķ
Ġáĥĺáĥ¡ áĥļ
ĠáĥĲáĥłáĥ ®
áĥ¢ áĥĺáĥ¡
Ġáĥŀáĥł áĥĿáĥ¢
Ġ à¸Ńà¸¢
ĠáĥĹ áĥĶáĥļ
Ġáĥľ áĥĺáĥĻ
Ġáĥķ áĥĲáĥ£
ĠáĥĿáĥ¤áĥ£áĥ¢ áĥĶ
áĥĿáĥ® áĥ£áĥĹáĥĺ
ĠáĥĴáĥĶáĥ Ń
Ġáĥĵáĥ£áĥĵáĥĺáĥ¨ áĥ£áĥļáĥĺ
Ġáĥŀáĥĺáĥł áĥĶáĥļáĥĺ
áĥĺáĥĹ áĥ®áĥĺáĥł
ĠáĥĴ áĥĺáĥĹ
áĥ£áĥł áĥĶáĥ¨áĥĶ
ĠáĥĿáĥĽáĥ«áĥ¦ áĥ·
Ġáĥķ áĥĲáĥłáĥĶ
áĥĶáĥĹ áĥĺáĥ¥
Ġáĥ¡áĥĲáĥ® áĥĶáĥĹ
ĠáĥĴáĥ·áĥ¨ áĥĲáĥĻáĥĶáĥłáĥ«áĥĲáĥ¤áĥĺáĥļáĥĿ
Ġáĥ¡áĥĺáĥ¡áĥ¢áĥĶáĥĽ áĥĲ
áĥĲáĥľáĥ¯ áĥĲáĥł
áĥĲáĥłáĥ ªáĥ®
áĥĿáĥĽ áĥĳ
ĠáĥĺáĥĽáĥŀáĥĶáĥł áĥĺáĥĲ
ĠáĥĻáĥ£áĥĳ áĥĲáĥ¨
ĠáĥĿáĥ Ĺ
Ġk am
Ġà¹Ģà¸ ¥
her ap
4 7
à´² à´°
Ġes c
Ã¤d chen
Ġkom pl
ubl ik
à´³ à´³
ĠR ad
icht ung
m os
Ġà´ķ à´¯à´±
ĠM ein
à¸²à¸ ĸ
Ġà´¨ à´¨
tre ten
Ġkl ein
y ch
Ġblei bt
Ġpol a
g n
Ġp assen
ĠJul i
it o
ĠG arten
ĠP ark
pf en
Ġbe w
in s
g al
à¸Ł à¸£
à´¯ àµ»
Ġs agen
ĠN etz
or a
Ġk ont
à¸Ļ à¸ĺ
ch es
ĠM aterial
de u
a un
l ig
l ungs
à¸Ń à¸Ħ
ĠB Ã¼rger
à´§ à´®
Ġpersonenbezogen en
um m
ĠB ad
Î ½
à¸ĩ à¹Ģà¸Ľ
S o
z ess
ĠFac ebook
Ġz un
ĠáĥĽáĥĲáĥĵ áĥłáĥĺáĥĵ
Ġáĥĵ áĥłáĥĲáĥĽ
ĠáĥĿáĥ ¯
Ġáĥ£áĥĽáĥĶáĥľáĥ¢ áĥĲáĥ¨áĥĿ
ĠáĥĶáĥĻáĥĿáĥľáĥĿáĥĽ áĥĺáĥĻáĥ£áĥłáĥĺ
áĥķ áĥĶáĥļáĥĺ
áĥĶáĥł áĥĶáĥ¤
Ġáĥ¤áĥĲáĥľ áĥĺáĥĲáĥ¡
ĠáĥĲáĥĻáĥĲáĥĵ áĥĶáĥĽ
áĥĶáĥ¨ áĥĺáĥ¡
áĥĺáĥľáĥ£ áĥĲáĥľáĥ¡
Ġáĥĵ áĥĲáĥĻ
ĠáĥĲáĥļ áĥĲáĥĸ
ĠáĥĽáĥ£áĥ ĸ
Ġáĥĵ áĥĲáĥĵ
áĥľ áĥĶáĥłáĥĺ
áĥĶáĥ¨ áĥ·
áĥĲáĥĴ áĥĿáĥłáĥ£
áĥ¥ áĥĺáĥĽ
Ġáĥł áĥĲáĥľáĥ¬
áĥĺáĥļ áĥ¥
áĥĲáĥł áĥĲáĥĳ
áĥĺáĥł áĥĲáĥ¤áĥĲ
ĠáĥĶáĥĹ áĥĽ
k o
áĥĺáĥľ áĥĶáĥļ
áĥĲáĥł áĥĲáĥ¡
à¹Ĥ à¸Ļ
ĠLie fer
ab el
Ġgal eg
Ġeigen tlich
Ġbest eht
ĠApr il
Ġson st
ĠW ert
ei ro
ung e
à¸Ń à¸²à¸«à¸²à¸£
schei den
à¸§ à¸Ī
199 4
ag te
àµĨ ,
A T
Ġent sprechen
à´± à´ļ
v e
à¸Ľà¸£à¸° à¸ª
ĠmÃ¶ch ten
d el
schl ag
Ġà´¶ à´ķ
ar en
4 2
ĠPl an
ra che
Ġà´ħà´µ à´¨
ab or
ĠL ehr
Ø ³
il f
ĠS ing
à¸«à¸¡ à¸²à¸¢
Ġsoll en
8 8
ĠRe p
Ã¤r en
er a
à¸Ķ à¹Ģà¸ĩ
ĠT em
x x
ord nung
ĠRei se
ĠWir tschaft
ĠK auf
Ġeinz el
à´¿ :
um ent
à´Ĥ :
Ġco a
ĠVers and
0 5
zei tig
ĠP riv
Ġleich t
ĠIn f
war z
O N
8 2
X V
ĠáĥĽáĥĶáĥľáĥĵ áĥĶáĥļáĥĶáĥĶáĥķ
Ġáĥĵ áĥĲáĥļ
áĥĺáĥł áĥĶáĥ¡
Ġà¸ŀ à¸£
áĥĲáĥ¡ áĥĻ
Ġà´ķ à´Ł
Ġáĥķ áĥĶáĥľ
ĠáĥŀáĥłáĥĶáĥĽ áĥĺáĥĶáĥł
Ġáĥ¡áĥ£áĥĽ áĥĿáĥľáĥĶáĥ©áĥĵáĥĿáĥķáĥĺáĥĹ
Ġáĥĵ áĥĿáĥłáĥĹáĥ£
áĥĿáĥľ áĥĶáĥ¤áĥĺáĥ¨
Ġáĥ© áĥĶáĥ©
Ġáĥľáĥ Ń
ĠáĥĽáĥ£áĥĵáĥĴ áĥĲáĥ¨
ĠáĥŀáĥĲáĥł áĥĺáĥĸ
Ġáĥĵ áĥĿáĥļ
áĥĲáĥłáĥ ¡áĥ®áĥ£áĥĲáĥ¤
áĥĺáĥĵ áĥĶáĥłáĥļáĥĲáĥľáĥĵ
Ġáĥ¬ áĥĿáĥ®áĥĿáĥļáĥĶ
Ġáĥ¤áĥĿáĥłáĥĽ áĥĲ
âĢİ âĢİ
áĥĺáĥľ áĥĶáĥ¡
áĥ£áĥ¡ áĥĺáĥ¨
Ġáĥ¡áĥĲáĥĽ áĥĲáĥľáĥĴ
Ġáĥ¡áĥĺáĥ¡áĥ¢áĥĶáĥĽ áĥĲáĥ¨
Ġáĥ¡áĥĲáĥĳ áĥĿáĥļ
Ġáĥ®áĥĶáĥĽ áĥĲáĥľáĥ¯áĥ¦áĥķ
áĥĿáĥŁ áĥĺáĥłáĥĺ
ĠáĥĽ áĥĶáĥł
Ġáĥ¡ áĥĲáĥĹ
Ġáĥłáĥ Ĺ
ĠáĥĽáĥĶáĥľáĥªáĥĲáĥł áĥĿáĥĳáĥĲáĥ¨
áĥ£ áĥĲáĥļáĥĲ
Ġà´ħ à´ŀ
ĠáĥĹ áĥĿáĥļ
Ġáĥ¡áĥĲáĥĺ áĥłáĥ¥áĥĺáĥĲáĥľáĥĿ
Ġáĥ£áĥłáĥĹ áĥĺáĥĲáĥłáĥĹ
Ġáĥŀ áĥĲáĥŀ
àµįâĢ ĭ
w ill
à´¦ à´¨
it el
ĠGes undheit
ĠA bend
à¸Ńà¸ĩ à¸Ĺ
Ġda ÃŁ
Ġd aher
Ġm in
ĠP ap
ĠEnt wicklung
ie b
â Ĥ¬
à¸²à¸ĩ à¸ģ
ĠMar k
à¸²à¸¢ à¸Ļ
Ġw ww
Ġà´Ĩ à´³
ĠZ we
Ġà´¤ à´¯
Ġm einen
rau en
Ġà¸ģ à¸¥
à¸Ļ à¸Ńà¸¢
al iz
rit ten
ĠAu gen
i ar
6 9
ÑĤ Ð°
5 3
ĠN amen
st att
esonder e
di ge
chn ik
ĠD an
ĠT est
el fen
s ver
at ung
à´° à´ª
is mus
à´Ĺ à´¸
ĠR es
Ġent re
à´¶ à´¤
Ġer z
à¸ªà¸° à¹Ģà¸ģ
à¸Ļ à¹Ħà¸Ķ
ĠF e
s or
ff iz
ĠÃ¡ s
ĠSt unden
Ġà¹Ģà¸ §
ĠT o
E D
Ġà´ĩ à´µà´°
ant es
it iv
ĠCh ar
ĠPro gramm
Â «
ĠFamil ie
à´¹ à´¨
Ġ y
ich tet
ĠEner gie
à¸Ļ à¹ĥà¸Ļ
áĥ£áĥĽ áĥĶáĥļ
Ġáĥł áĥĶáĥĻ
áĥĶáĥľáĥ¬ áĥ§
Ġáĥ®áĥĲáĥ¡áĥ·áĥļ áĥĲáĥ¡
áĥĽ áĥĶáĥ¢
ĠáĥŀáĥĿáĥłáĥ¢ áĥ£áĥĴ
áĥĶáĥľáĥ Ļ
áĥķ áĥĺáĥľáĥĺáĥ¨
áĥ¡ áĥ£áĥĽ
áĥĹ áĥĿáĥĳ
àµĭ .
áĥĺáĥ¢ áĥł
Ġáĥĺáĥ© áĥĺáĥĶáĥĳ
Ġáĥłáĥ ¨
Ġáĥķ áĥĲáĥłáĥĹ
ĠáĥĿáĥ¨áĥ¬áĥĲáĥľáĥ£áĥł áĥĲáĥ¨áĥĶ
ĠáĥĲáĥ¤áĥł áĥĺáĥĻáĥĲáĥ¡
gen de
áĥĺáĥŀ áĥĲáĥļ
Ġáĥĵ áĥĿáĥĹ
Ġáĥĵ áĥĲáĥłáĥ¡áĥ®áĥ£
áĥĲáĥ¥ áĥ¡
ĠáĥĽ áĥĲáĥ¦áĥĲáĥļ
áĥĺáĥ¨ áĥĿ
áĥ® áĥ£áĥĲáĥ¨
ĠáĥĶáĥĵáĥĿáĥĽáĥ£áĥ¨ áĥĲáĥĽ
ĠáĥĺáĥĽáĥŀáĥĶáĥł áĥĺáĥĲáĥ¨
Ġáĥ£áĥ¨ áĥ®áĥ£áĥĲáĥ¨
ĠáĥĵáĥĺáĥĲáĥļ áĥĶáĥ¥áĥ¢
ĠáĥĴ áĥĲáĥĸ
Ġáĥĸ áĥĲáĥłáĥ®
Ġáĥ¡ áĥ¡
áĥĶáĥľáĥª áĥĲáĥłáĥĶ
áĥ£áĥĵ áĥ£áĥĻáĥĿ
áĥ£áĥ¨ áĥĲ
ĠáĥĿáĥ ¥áĥĺáĥĲáĥľ
áĥĶáĥķ áĥĺáĥĸ
à´¶ à´Ļ
à´ħ à´¤
à¸ ĳ
ell o
ĠK ultur
ĠK ap
stra ÃŁe
Ġm en
rie den
ĠN acht
ĠW inter
eig net
Ġà´¨ à´Ł
Ġe her
ĠTra in
Ġben Ã¶
z lich
A us
sb esondere
pf er
à¸³ à¸«à¸£
Ġlei der
ĠZu kunft
ĠF ern
ĠWoch e
in ge
i ra
à´ķ à´ļ
à´± à´ŀ
s h
Ġgeh Ã¶rt
am ento
Ġbek annt
O R
ĠF eb
Ġà´¸ à´¤
Ġsie ht
ĠFamil ien
Ã¶s ung
Ġà¸Ħ à¸¥
ĠK ind
i ent
ech sel
à´µà´¨ à´¨
Ġh istor
Ë Ī
à¹ĥ à¸ª
ĠD em
ot s
ww w
Ġbis her
Ġw under
à¹Ģà¸ª à¸£
Ġ *
à´§ à´ª
Ġjed em
Ġx a
est e
à¸²à¸ ĺ
Ġn orm
Ðµ ÑĢ
à¸ĸ à¸²à¸Ļ
ĠáĥĽ áĥ£áĥł
Ġáĥĺ áĥĶáĥł
áĥĶáĥł áĥĲáĥļáĥ£áĥłáĥĺ
ĠáĥĹáĥĶáĥ ŁáĥĲáĥĽ
áĥĲáĥł áĥ£áĥļ
áĥ£áĥļ áĥ¢
áĥ£áĥł áĥĲáĥ¡
áĥĵ áĥĶ
ĠáĥĽáĥĲáĥĻáĥĲáĥĹ áĥ£áĥł
ĠáĥŁáĥĲáĥłáĥľ áĥĶáĥ©áĥĵ
áĥĻ áĥķ
áĥĲáĥ® áĥĲáĥļ
áĥĺáĥ¥áĥĺáĥĽ áĥĺáĥľáĥ·
ĠáĥĻ áĥĿáĥ¡
áĥĲáĥĵ áĥĲ
áĥĺáĥĲáĥľ áĥĺáĥ¨
áĥĺáĥ «
Ġáĥĵ áĥĿáĥłáĥĹ
ĠáĥĴ áĥĿáĥ£
ĠáĥĿáĥļáĥ¥ áĥĺ
ĠáĥķáĥĺáĥĻ áĥĺáĥŀáĥĶáĥĵ
Ġáĥ¦áĥĿáĥłáĥĿáĥľáĥĹ áĥĺáĥ¨
Ġáĥĵ áĥķáĥĲáĥļ
áĥĺáĥłáĥ ©
Ġáĥŀáĥł áĥĺáĥľáĥª
áĥĿáĥĹ áĥĿáĥľáĥ¯
Ġáĥ¸ áĥķáĥĺáĥļ
Ġáĥ¥áĥĺáĥĽ áĥĺáĥľáĥ¯
áĥĿáĥł áĥĶ
áĥĿáĥļ áĥ·
ĠáĥľáĥĲáĥĽáĥ£ áĥĶáĥ¤áĥ¡áĥ·áĥĹ
Ġáĥĳ áĥĲáĥļ
ĠáĥĿáĥłáĥĹáĥĲáĥ¨ áĥĿáĥĳáĥ£áĥłáĥĺ
ĠáĥĿáĥ¨áĥ¬áĥĲáĥľáĥ£áĥł áĥĲ
Ġáĥĵáĥĺáĥľ áĥĿáĥ®áĥĿáĥļ
ĠL auf
ĠnÃ¤ch sten
ti sch
Ġs uper
ĠT Ã¼r
Ġtra ball
ab il
au l
Ġw egen
àµĢ à´Ĥ
6 3
a uch
Ġdar Ã¼ber
à´¨ à´ª
ro h
ĠWer k
lÃ¤ ss
à´´ à´¯
Ð» Ñı
ĠG ed
Ġ Ùħ
te st
Â °
im men
Ã¤ us
ĠS ol
ĠW e
ti l
à¸²à¸Ħ à¸¡
à´¨ à´ķ
à¸Ķ à¸³
ha ft
s ystem
p en
à¸Ľà¸£ à¸ª
à¹Ģà¸ ī
Ġà´Ń à´°à´£
ĠMot or
Ãº bl
Ġaut omat
fall en
ktion en
it ar
ĠMa ÃŁ
Ġl in
ĠKomm un
Ġbest imm
ĠM ag
mei ster
ser v
en ten
Ï Ĥ
E ine
ĠP ra
wei sen
Ġà´Ń à´ķ
ru ar
s w
h ein
A L
stÃ¤n dig
Ġviel leicht
omm un
un kte
à¹Ĥà¸¥ à¸ģ
ĠáĥĿáĥ®áĥķáĥĲáĥĽ áĥĶ
ĠáĥłáĥĲáĥĵ áĥĺáĥĿ
ĠáĥĽ áĥĽ
áĥł áĥĲáĥľáĥ¡
áĥĶáĥ¥ áĥ¢áĥĿáĥłáĥĺ
áĥĺáĥŀ áĥĺ
ĠáĥĲáĥķ áĥ¢áĥĿáĥłáĥĺ
ĠáĥĴáĥĿáĥļ áĥĺáĥľáĥĲ
áĥ¡áĥĲáĥ¥áĥĿáĥłáĥĹáĥ£ áĥĿáĥ¨
áĥķ áĥĲáĥľáĥ¡
ĠáĥĿ áĥĶáĥłáĥĶáĥ¤
ĠáĥľáĥĲáĥĽáĥ£ áĥĶáĥ¤áĥĺáĥ¨
ĠáĥĽáĥĲáĥļ áĥĿáĥĳáĥĲáĥ¡
áĥĶ áĥĺáĥĵ
áĥļ áĥĿ
Ġáĥ¬áĥ·áĥĽáĥĽáĥĲáĥł áĥĺáĥľáĥĲáĥ¤
ĠáĥĹ áĥĶáĥļáĥĺ
Ġáĥ¡ áĥĺáĥľ
Ġáĥ¥ áĥ£áĥĽ
áĥĲáĥ¤áĥĺáĥļ áĥ¥
ĠáĥĿáĥĹáĥ® áĥĿáĥ¨
áĥ£áĥľ áĥĲáĥ¤áĥĺáĥļáĥĺ
Ġáĥ¬áĥĲáĥľáĥĲáĥ¨ áĥĲáĥ®
ĠáĥĴáĥķáĥĲáĥļ áĥĲáĥ¨
ĠáĥĴáĥ·áĥĹ áĥĽ
áĥĺáĥĿáĥ ¡
Ġáĥĵáĥ£áĥĵ áĥ¨áĥĶ
ĠáĥĹáĥĲáĥł áĥĿáĥĳáĥĲáĥ¨
áĥĿáĥ¡ áĥĲáĥ®
áĥĲáĥ£ áĥł
E S
áĥĲáĥłáĥ ¦
ĠáĥĿáĥ ĸ
¡áĥ® áĥĺáĥļáĥĺ
ĠáĥłáĥĶáĥ¡áĥŀáĥ£áĥĳáĥļ áĥĺáĥĻáĥĲáĥ¡
ĠáĥĽáĥ£áĥŁáĥĲáĥĽ áĥª
áĥĿáĥľ áĥĲáĥł
áĥĴ áĥĶ
áĥĺáĥĶ áĥĹ
er nen
Ġáĥ¡ áĥ¤áĥĶáĥł
Ġáĥ¡áĥŀ áĥĲáĥłáĥ¡
ĠáĥĿáĥĻáĥĺáĥĲáĥľ áĥĶáĥ¨
ĠáĥĽáĥĶáĥĴ áĥĿáĥł
ĠáĥĲáĥ¤áĥł áĥĺáĥĻáĥĲáĥ¨
ĠáĥĶáĥĻ áĥļáĥĶáĥ¡
v in
ĠVer antwort
Ġc l
à¸Ļ à¸Ĭ
Ġf unktion
ĠHol z
à¸¢ à¸£
l d
un dert
Ġ à¸Īà¸²à¸ģ
Ġk n
R e
Ġpar ti
Ġa ktiv
âĢ¦ ]
w alt
à¸«à¸¡ à¸Ķ
Ġh eiÃŁ
Ġd ein
ten s
ĠEl tern
A r
Ð½ Ð¾Ð
- ,
id o
ĠÐ½ Ð°
ĠH ilfe
) ;
Ġp as
Ġà´¤ à´Ļ
eich en
Ã© s
âĢ ĺ
Ġn e
ĠB ay
st o
i cia
Ø§Ù Ĩ
iel le
ge h
Ġ à¹ĥà¸«
à¹Ħ à¸ĭ
Ã¤n ge
à´ Ľ
ĠEr folg
Ġ Ġ
r ichten
à¸« à¸²à¸£
ĠT our
Ġf al
Ġte chn
' s
stell ungen
ĠK at
Ġblei ben
ĠN eben
Ġf oi
u hr
ach te
ei en
zeich net
ĠSch utz
us st
Ġso fort
d as
row ser
à´³ à´µà´°
áĥ¥ áĥ·
Ġáĥ©áĥ®áĥĿáĥł áĥĿáĥ¨
Ġáĥ¥ áĥĺáĥĴ
Ġáĥ¡áĥĺáĥĴ áĥ·áĥłáĥ
Ġáĥ¥áĥĺáĥłáĥ¡áĥĶáĥĹ áĥ£áĥĹáĥĲ
ĠáĥĵáĥĶáĥĽáĥĿáĥĻáĥłáĥĲáĥ¢ áĥĺáĥ£áĥļáĥĺ
ĠáĥĶáĥļáĥĶáĥĽ áĥĶáĥľáĥ¢
áĥ£ áĥĿáĥ¨
áĥļ áĥĲáĥĹ
Ġáĥ¡ áĥĶáĥłáĥĺ
áĥĶáĥľáĥ Ĵ
áĥĺáĥĹ áĥĺ
ĠáĥĽáĥĿáĥ® áĥķáĥĲáĥĵáĥ·
ĠáĥŀáĥłáĥĿáĥķáĥĺáĥľáĥª áĥĺáĥĲáĥ¡
áĥĺáĥľáĥ« áĥĿáĥł
áĥĲáĥ© áĥ·
ĠáĥĽ áĥĶáĥ¡
Ġáĥľ áĥĺáĥĵáĥĶáĥłáĥļáĥĲáĥľáĥĵ
áĥĺáĥŀ áĥĲáĥļáĥ£
ĠáĥĶáĥ¡áĥŀ áĥĲáĥľáĥĶáĥĹáĥĺáĥ¨
ĠáĥļáĥĲáĥĹáĥĺáĥľ áĥ£áĥłáĥĺ
ĠáĥĽ áĥĲáĥľ
Ġáĥĺ áĥ£áĥľ
ĠáĥĲáĥĹ áĥĶáĥ¨
Ġáĥ¡ áĥĽ
áĥĺáĥļ áĥĶ
áĥĿáĥ® áĥĲáĥľáĥ¢
áĥĳ áĥ£áĥłáĥĹáĥĶ
áĥĲáĥĺ áĥ¨
áĥĿáĥĴáĥłáĥĲáĥ¤ áĥĺáĥ£áĥļáĥĺ
Ġáĥ¡áĥĿáĥĽ áĥĶáĥ®
Ġáĥ¡áĥĲáĥ£ áĥ¯áĥĴáĥ£áĥ¨
áĥł áĥĿáĥĽ
Ġáĥ¡ áĥĺáĥĵ
ĠáĥĲáĥĻ áĥĿáĥ®
áĥĶáĥ¥ áĥª
ĠáĥĹáĥĲáĥł áĥĿ
áĥĺáĥĽ áĥĺ
ĠáĥłáĥĶáĥķáĥĿáĥļáĥ£áĥª áĥĺáĥĲáĥ¨
ĠáĥŀáĥłáĥĿáĥĵ áĥ£áĥ¥
Ġáĥ£ áĥĵ
áĥĶáĥ¥ áĥ¡áĥŀ
à¹Ĥ à¸Ľ
ur a
Ð» Ð°
asch inen
ĠFeb ruar
bie ter
al b
ĠFl Ã¼
6 4
à´® à´¦
ĠVer t
ĠJ e
Ġwer de
ay al
à¸²à¸ ©
Ġs agt
ad urch
g u
Ġber eit
ĠServ ice
à¹Ĥ à¸Ľà¸£
an de
Ġà¹Ģà¸ Ħ
Ġà´ī à´¯à´°
v is
à¸Ļ à¸£
in al
ik er
Ã¤ f
à¸ĩ à¸«à¸§
à¸Ķ à¸ģ
ĠhÃ¤t te
Ġà´µ à´ķ
ĠG ar
à´Ń à´¯
ĠJ o
1 000
and lung
âĢĿ ,
Ġpro p
ĠSt art
Ġk omp
Ù Ĩ
Ġfin de
Ġà´Ĩ à´¤
at is
à¸Ĳ à¸²à¸Ļ
it Ã¤ten
à¸į à¸į
à¸ª à¸²à¸£
ungs k
à¹Ĥ à¸ķ
à¸²à¸Ĥ à¸Ńà¸ĩ
id ades
Ġges am
em os
d ie
à´³ à´µ
ð Ł
l eitung
ĠD ruck
ĠT ur
Ġd eine
all en
à¸² à¹Ģà¸Ľ
z ip
ab a
Ġo ben
200 3
Ġdar f
à¹Ĥ à¸Ń
à¹ģ à¸ŀ
ĠáĥĹáĥĲáĥľáĥ¯ áĥĲ
áĥĶáĥ¨ áĥĺáĥ¨
ĠáĥĽáĥĲáĥłáĥĴ áĥĲáĥļáĥ£áĥłáĥĺ
ĠáĥĴáĥĺáĥľáĥĿáĥ¦áĥĲáĥļ áĥĺáĥłáĥĺ
áĥĲáĥľ áĥĶáĥ¢
Ġáĥļ áĥĲáĥĻ
áĥĲáĥľáĥ£áĥł áĥĿ
áĥĲáĥĺ áĥļ
Ġáĥ¡áĥ®áĥ£áĥľ áĥ£
Ġáĥ£áĥ«áĥĲáĥ® áĥ·áĥľáĥĲ
áĥĿáĥļáĥĿáĥĴ áĥĺáĥ£áĥł
ĠáĥĲáĥĻáĥĿáĥ¥áĥĺáĥĽ áĥĺáĥľáĥ£
Ġáĥļ áĥĺáĥĴ
ĠáĥľáĥĿáĥ¦ áĥĶáĥ¤áĥ¡
ĠáĥĲáĥĵáĥĲáĥĽáĥĺáĥĶ áĥłáĥ
áĥ¡áĥ£áĥĽ áĥĿáĥ¨
® áĥĿáĥļáĥĿ
Ġáĥ¯áĥĿáĥ®áĥĿáĥĵáĥķáĥĲáĥļ áĥĲáĥ¨
ĠáĥĵáĥĿáĥ®áĥĿáĥł áĥĶáĥļáĥĺ
ĠáĥĿáĥ¤áĥ£áĥ¢ áĥĶáĥ¨
ĠáĥĶáĥ©áĥĵ áĥĿáĥķáĥĺáĥĹ
Ġáĥ£áĥĽáĥĻ áĥ£áĥ¯áĥĺáĥľáĥ£áĥĿ
Ġáĥĵ áĥĺáĥł
Ġáĥĵ áĥĿáĥĴ
Ġáĥ¡ áĥĲáĥ¡
áĥĿáĥ¡ áĥ£áĥĽáĥĺ
áĥĶáĥłáĥ Ĺ
Ġáĥĺáĥ ¦
Ġáĥ¨áĥ¢áĥĲáĥ¢ áĥĺáĥ¡
Ġáĥ¯áĥĴ áĥĺáĥłáĥĿ
áĥ£áĥł áĥĲáĥľáĥ¯
Ġáĥĺ áĥłáĥĿ
áĥĺáĥ¡ áĥĺáĥ¨
áĥĲáĥĵ áĥĺáĥ¨
áĥĶáĥĳ áĥ£áĥłáĥĺ
áĥĺáĥĻ áĥ£áĥļ
áĥ£áĥľáĥ ·
áĥĲáĥľ áĥĶáĥ¤áĥĺáĥ¨
Ġáĥľ áĥĿáĥĳ
Ġáĥ¡ áĥĿ
áĥĲáĥ¤ áĥĲáĥļáĥĿ
Ġáĥ® áĥ£áĥĹáĥĺ
Ġáĥĸ áĥ·áĥĽ
áĥĲáĥ¸ áĥĿáĥľ
ĠáĥĶáĥłáĥĻáĥĶáĥĳáĥ£áĥļ áĥ¨áĥĲ
áĥĹ áĥĺáĥ¨
ĠáĥŁ áĥĺáĥľáĥ
áĥĲáĥľáĥ¬ áĥ§
áĥĿáĥĳáĥĲáĥ¨ áĥĶ
áĥķáĥĲáĥľ áĥĶáĥļ
áĥĶáĥ ¬
áĥĲáĥľ áĥĶ
áĥĺáĥĿ áĥł
Ġáĥ¡áĥĺáĥĽ áĥĳ
ĠáĥĻáĥĲáĥ¢ áĥĶáĥĴáĥĿáĥł
ĠáĥĿáĥĽ áĥĶáĥľáĥªáĥĲáĥłáĥĶ
ĠáĥĻ áĥĲáĥ¡áĥ¢áĥł
Ġà´µ àµ¼
199 6
l esen
A S
rie g
I D
Ġre gel
Ġper o
Ġganz e
ĠHer r
Ġer forder
ab l
Ġt rotz
ri b
zie hen
ĠPol iz
ĠP ort
y l
rit te
ĠSch Ã¼ler
st r
la ck
ĠN ord
à´¦ à´®
Ðµ Ð½Ð¸
Ġd at
Ġje de
Ġmein em
Die se
Ġdeut schen
ĠEnt schei
Ġdeut lich
ti sche
Ã¤uf er
fin den
à¸Ń à¸²à¸Ī
à´· à´ª
Ġg uten
ĠWeb seite
ĠBl og
im e
Ġpro du
Ġ à¸ļà¸£
à¸Ļ à¹Ģà¸Ľ
icht s
ĠZ um
à´· à´Ļ
ĠÂ §
Ġmei sten
199 7
ges etz
15 0
à¸ģà¸£ à¸ĵ
G V
Ġverw enden
Ġà´ħ à´¬
Ġstell t
Ġh Ã¶
Ġgegen Ã¼ber
di o
m art
Ġcom p
op er
Ġer war
ĠThem en
eh ler
Ġer fahren
ĠHer z
Ġà¹Ģà¸ Ĥ
Ġm m
och en
Ġ ur
es e
à¸² à¹Ħà¸Ľ
à¸ļ à¸ķ
à¸¥ à¸Ķ
à¸Ļ à¸ŀ
197 0
richt ung
ĠáĥĴáĥĿáĥķáĥĺáĥĹáĥĲáĥł áĥĲáĥ¤áĥĲáĥ¡
áĥł áĥĲáĥĶ
ĠáĥĻ áĥĿáĥĵ
Ġáĥ¢ áĥłáĥĿáĥŀ
áĥĲáĥ£ áĥłáĥĶ
ĠáĥĻáĥ£áĥļáĥ¢áĥ£áĥł áĥĲáĥ¨
áĥĿáĥ¡ áĥĶ
áĥŁ áĥĺáĥł
ĠZ ust
áĥĲáĥĳ áĥł
áĥĲáĥļ áĥĶáĥ¤áĥĺáĥĹ
áĥĶáĥ® áĥĲáĥľáĥ£áĥłáĥĺ
Ġáĥĵ áĥĿáĥ¸
Ġáĥľ áĥĿáĥĽáĥĺáĥľ
ĠáĥĽáĥ£áĥ¨ áĥĺáĥĹ
ĠáĥĽáĥ£áĥĵáĥĲáĥľ áĥĿáĥĳáĥĲáĥĹ
áĥĿáĥ©áĥĲáĥĽ áĥĺáĥļáĥĺ
ĠáĥĲáĥłáĥ¥ áĥĺáĥ¢
Ġáĥ¢áĥĶáĥłáĥĽ áĥĺáĥľáĥĺ
áĥĲáĥĽ áĥĲáĥłáĥĹ
áĥ·áĥľáĥ «
ĠáĥĿáĥĳáĥĺáĥĶáĥ¥áĥ¢ áĥĶáĥ¤áĥĺáĥ¨
ĠáĥĴ áĥĺáĥļ
Ġáĥĺ áĥĲáĥŀ
Ġáĥ£ áĥ¬
Ġáĥŀ áĥĶáĥ¢
áĥĶáĥĽ áĥĳ
áĥķáĥĺáĥļ áĥĺáĥ¨
ĠáĥĲáĥĽáĥ¨ áĥĿáĥ¨
ĠáĥĻáĥĺáĥľ áĥĿ
Ġáĥ©áĥ® áĥĿáĥļ
Ġáĥĵáĥĺáĥľ áĥĲáĥ¡áĥ¢
Ġáĥ¨ áĥĺáĥļ
Ġáĥ¤ áĥĲáĥ¡
áĥĶáĥ¢ áĥĺáĥ¡
ĠUS A
ĠáĥĽáĥĲáĥłáĥĲáĥ¨áĥĺáĥľáĥĲáĥĹ áĥ£áĥĹáĥĲ
Ġáĥ¡áĥĲáĥ£áĥ¯áĥĴáĥ£áĥ¨ áĥĿ
Ġáĥł áĥĺáĥľáĥĲáĥ¨
ĠáĥĽáĥĶáĥ «
Ġáĥ¡áĥ¢ áĥĲáĥĵ
áĥ£áĥ¥ áĥ¢áĥ£áĥł
ĠáĥĽáĥĺáĥĹ áĥĽ
áĥĶáĥļ áĥĶáĥ¤áĥĺáĥ¨
ĠáĥĻáĥĿáĥĽ áĥ£áĥľ
ĠáĥĽáĥĶáĥ Ļ
ĠáĥĲáĥ ŀ
j a
Ġweiter en
Ġà´® à´¹
Ġc ol
Ġd an
ĠHÃ¶ he
tig keit
en zen
wir tschaft
or te
ie w
Ġspiel en
un sch
Ġb ringen
um s
% ,
ig t
Ġc al
ik ation
ent es
à´¨ à´±
Ġkl ar
ĠBest ell
à¸Ńà¸ĩ à¸ģ
ĠâĢ Ŀ
ĠT r
arb eitet
Ã¤ch lich
c t
on nen
c on
Ġà´ħ à´ļ
ĠD ank
à¸Ļ à¸Ńà¸Ļ
4 3
Ġverschieden e
ĠAus wahl
à´³ à´¯
at es
à´°à´µ àµ¼à´¤
à¸Ħà¸§à¸²à¸¡ à¸£
195 9
} }
c ul
Ġge k
Ġà¹Ģà¸ Ķ
Ġ >
meld ung
we gen
à´¥ à´¯
à¹Ģà¸« à¸ķ
ar io
Ġh ast
schlieÃŁ lich
à´³ à´ķ
ĠI s
Ġn as
ĠFre und
ĠZ wei
{ {
à¸Ķ à¸Ĥ
Ġà¹Ģà¸ ª
Ġà´¨ à´·
Ġdes sen
U N
Ġ Ã¼b
on g
ĠK opf
ĠfÃ¼hr en
eich er
p re
à¸¡ à¸Ĺ
à¸²à¸ĩ à¹Ĩ
Ġc ar
à¤ ¾
Ġf er
e k
ĠN ieder
ĠIn dust
ĠK reis
Ġer f
Ġer sch
Ġhin aus
Ġerfol gt
E T
ĠáĥĲáĥ ©
áĥĲáĥł áĥĺáĥĲáĥľ
Ġáĥ® áĥĿáĥļ
áĥĴ áĥĿ
Ġáĥ¢ áĥĲáĥĺ
áĥĿáĥłáĥĹ áĥ·
ĠáĥĹáĥ¥ áĥķáĥĲ
ĠáĥĹáĥĺáĥ¨ áĥĲ
ĠáĥĿáĥĶáĥłáĥĶáĥ¤ áĥĿáĥ¨áĥ¥
Ġáĥ£ áĥĺáĥļáĥĺ
áĥĲáĥª áĥĺáĥĲáĥ¥
ist a
Ġáĥĵáĥ£áĥĵ áĥĺ
áĥ£áĥłáĥĴ áĥĺáĥ¨
ĠáĥĵáĥĿáĥľ áĥĶáĥ¨áĥĶ
áĥķ áĥĶáĥĽ
Ġáĥ¡ áĥĲáĥĻ
Ġáĥĺáĥľáĥĵ áĥ£
ĠáĥĵáĥĿáĥłáĥ ®áĥķáĥĶáĥļ
ĠáĥĽáĥĶáĥļáĥĲáĥ® áĥĺ
ĠáĥĵáĥĲáĥŃáĥ§áĥĲáĥ¤ áĥ£áĥ¡
áĥĺáĥŀáĥĲáĥļ áĥĺáĥ¢áĥĶáĥ¢
áĥĲáĥĽ áĥĲáĥ¨
áĥľ áĥĲáĥ¦
Ġáĥ¢ áĥĿáĥĳáĥĲ
Ġáĥ® áĥĲáĥľáĥ¢
áĥĶáĥľáĥĵ áĥĺ
ĠáĥĴáĥĺáĥľ áĥĿáĥŃáĥ§
ĠáĥĲáĥķ áĥ¢áĥĿáĥł
ĠáĥĲáĥĻáĥĽ áĥĿáĥ¥áĥĺáĥĽ
ĠáĥĽáĥĺáĥĿáĥ łáĥ
áĥĲáĥľ áĥĶáĥ¤áĥĺ
áĥĲáĥł áĥĶáĥ¤áĥ¡
áĥ¢ áĥĲáĥĳ
áĥ¨ áĥ¢áĥĲáĥĳ
áĥĺáĥļ áĥ·
ĠáĥĽáĥ£áĥľ áĥĺáĥª
áĥĲáĥ§ áĥĲáĥł
Ġáĥ®áĥĲáĥł áĥĺáĥ¡áĥ®
áĥĿáĥł áĥĲ
áĥĶáĥłáĥ ĸ
ĠáĥĿáĥłáĥ¥ áĥĿáĥ¨
f rage
áĥĲáĥļ áĥĺáĥĲ
áĥķ áĥĶáĥ¡
áĥĿáĥĹ áĥĲáĥľáĥ¯
mÃ¤ÃŁ ig
áĥĶáĥĹ áĥ¨áĥĲ
áĥĲáĥļáĥ£ áĥĲ
ĠáĥĿáĥĻáĥ£áĥ©áĥ® áĥĳáĥ£áĥłáĥĹáĥĶ
áĥĽ áĥĲáĥłáĥ
áĥĲáĥĻ áĥĺáĥ¡áĥ¢
áĥĲáĥľ áĥ£áĥļáĥĺ
áĥĺáĥłáĥ ¤
à´¹ à´°
à´ª à´®
z a
em ento
ĠKl ein
al er
ĠB and
Ġso zial
Ġw elt
ĠH inter
ĠEin zel
Ġà¸ª à¸¡
à¸£à¸° à¸Ķ
Ġk ennen
ĠBo den
ativ en
à¸ĩ à¹Ħà¸¡
à¸ĵ à¸ĳ
d ade
am b
à¸ĩ à¹ĥà¸Ļ
5 1
Ġz eigen
x ec
d rÃ¼ck
Ġges etz
ĠBeit rag
Ġ à¹ģà¸¥
f est
eh m
u k
à¸¡ à¸«
an geb
ĠTag es
ĠFin anz
ĠL icht
b ahn
n ach
à¸Ļ à¸«
ĠEurop a
Ã¶ t
Ġs agte
Ġg ing
it h
ĠGal icia
à¸Ļ à¸ļ
à´ļ à´ª
ĠP ost
kl us
it ze
W er
B er
à¸Ļ à¸Ĥà¸Ńà¸ĩ
ik en
in t
E L
ĠG ra
ĠVide o
z uf
à¸ł à¸²à¸¢
Ð°Ð ¹
Ã¤uf ig
ĠS uche
Ġà´ĩ à´ķ
U m
Ã¶ hn
fahr t
à¥ į
Ġs uchen
Ġj em
à¹Ħ à¸Ĥ
Ġeigen e
Ġd ur
19 18
as en
à¸Ĭ à¸¡
ĠM ont
ges amt
ÑĢ Ð°
h aupt
ĠPf lege
5 4
setz en
Ġab sol
Ġan os
Ġh alten
Ġh elfen
Ġs erv
Ġer k
Ġáĥ¬áĥ§ áĥĲáĥłáĥĺ
ĠáĥĿáĥ® áĥĺáĥĵ
ĠáĥĽáĥĶáĥ¸ áĥ£áĥľáĥ¡
Ġáĥĺáĥľáĥ ¡
Ġáĥ¬áĥ§ áĥĲáĥłáĥĴ
áĥĺáĥª áĥ®áĥ£
ĠáĥĸáĥĿáĥ® áĥĿ
ĠáĥĻáĥļáĥĲáĥ¡ áĥĺáĥ¤áĥĺáĥĻ
ĠáĥĿáĥŃ áĥĻáĥĿáĥĽ
Ġáĥľ áĥĲáĥĵ
áĥĿáĥķ áĥĺáĥ¨
ĠáĥĿáĥ¨áĥ¬áĥĲáĥľáĥ£áĥł áĥĶáĥ¤áĥĺáĥ¨
ĠáĥĵáĥĿáĥ® áĥĿáĥłáĥĺáĥľ
áĥĶáĥł áĥĶáĥ¤áĥ¡
ĠáĥĹ áĥĺáĥ¯
Ġáĥ¡ áĥĺáĥł
Ġáĥ¡ áĥ£áĥŀ
ĠáĥĿáĥ ©
Ġáĥĳ áĥļ
áĥĶáĥĳ áĥĲáĥ¥
Ġáĥ¨áĥĲáĥľáĥ£áĥļ áĥĿáĥĳáĥĲ
ĠáĥłáĥĶáĥŁ áĥĺáĥ¡áĥĿáĥłáĥĺ
ĠáĥĹáĥĺáĥ¯ áĥĴáĥ£áĥłáĥĲ
® áĥķáĥĶáĥļáĥĺ
áĥĶáĥ¤ áĥĺáĥĶ
Ġáĥľáĥĺáĥľ áĥĶáĥ¤áĥĺ
Ġáĥĺáĥ¡áĥ¢áĥĿáĥł áĥĺáĥ£áĥļ
áĥķ áĥĺáĥł
Ġáĥł áĥĶáĥ¡
ĠáĥĲáĥ ŀáĥĺáĥ¯
Ġáĥķ áĥĺáĥĵáĥĶ
áĥ¤ áĥł
ĠáĥĲáĥķ áĥ¦
ĠáĥĲáĥ¤ áĥ£
áĥĲáĥ¤áĥĺáĥļ áĥĺáĥĶ
ĠáĥĻáĥļ áĥ£áĥĳ
ĠáĥĹáĥĶáĥ ¬áĥĻáĥ·áĥĽáĥĲ
ĠáĥĶáĥĻáĥĶáĥľ áĥĺáĥĲ
áĥĲáĥ Łáĥĺáĥł
ĠáĥĻ áĥĺáĥĵ
ĠáĥĿáĥ¨áĥ¬áĥĲáĥľáĥ£áĥł áĥĶáĥ¤áĥ¡
ĠáĥŁáĥĺáĥľáĥ ŀáĥĺáĥ¯
ĠáĥĽ áĥĺáĥŀáĥĲáĥļáĥ£
Ġáĥľ áĥĲáĥ¬áĥĲáĥłáĥĽ
Ġáĥ¡ áĥ£áĥłáĥĲáĥĹ
Ġáĥļ áĥĲáĥ®
áĥĶáĥ¥ áĥ¢áĥ£áĥł
ªáĥ® áĥ£áĥĲáĥ¤
Ġáĥ¤áĥĺáĥļáĥĽ áĥĶáĥ¤áĥ¡
ĠáĥĻáĥĲáĥĹ áĥĲáĥ¨
ĠáĥĽáĥ£áĥĵáĥĲáĥľ áĥĿáĥĳáĥĲáĥ¨
ĠáĥĽáĥĶáĥ¥ áĥ¡
áĥĲáĥłáĥ «
ĠáĥĽáĥĺáĥ¨ áĥĲáĥ¦áĥĲáĥļ
ĠáĥĴáĥĿáĥ® áĥ£áĥłáĥĴ
ĠáĥĴ áĥĿáĥ®áĥĿáĥļ
ĠáĥŀáĥłáĥĿáĥķáĥĺáĥľáĥª áĥĺáĥĲáĥ¨
ĠáĥĽ áĥĺáĥ¡
Ġáĥĺáĥ¢ áĥĲáĥļáĥĺáĥĲáĥ¨
ĠáĥĲáĥĻ áĥĲ
áĥĳ áĥ£áĥ¥
ĠáĥŀáĥĶáĥł áĥ£áĥ¨
Ġ à¹Ģà¸Ń
ĠV III
d aten
à¹Ĥ à¸Ķ
f el
Ġer hÃ¤lt
op h
ĠD is
Ġg Ã¼nst
ien en
Ġl esen
k ont
Ãº n
Ġ à¹Ģà¸Ļ
8 3
z us
ĠH eim
e y
pl an
Ġpri mei
ĠIn nen
os sen
Ġun ver
Ġr ein
Ġa g
Ġer w
ĠWar en
x is
à¸£ à¸ĵ
ahr en
à´· àµ»
Ġà´ķà´£ à´ķ
ier ungs
---- ----
W ie
eil en
Ġà´ĩ à´¸
Ġcon c
ĠGes ellschaft
àµĭ ?
ĠN Ã¤
à¸ĩ à¸Īà¸²à¸ģ
ĠG u
flÃ¤ che
ĠMedi en
ie gel
ĠStand ard
ĠE is
Ġsch l
ĠIn halte
ĠAn fang
A b
ge f
ĠA k
Ġst ar
c ri
s ych
à¸Ļ à¹ĥà¸Ī
ti ca
ĠF Ã¼hr
Ð¾Ð´ Ð°
ĠSch m
ĠC or
áĥĻ áĥ£áĥĽáĥĶáĥļ
ĠáĥĴáĥĶáĥ£ áĥĻáĥ£áĥĽáĥĶáĥļ
Ġáĥĺáĥľáĥ¢áĥĶáĥłáĥľ áĥĲáĥªáĥĺáĥĿáĥľáĥĲáĥļáĥ£áĥłáĥĺ
Ġáĥ¢ áĥĿáĥĳáĥĲáĥ¨
¯ áĥĲáĥłáĥĺáĥ¨
áĥĺáĥĽ áĥĶáĥĵ
Ġáĥĺáĥ¡ áĥłáĥĲáĥĶ
Ġáĥļ áĥĲáĥ£áĥłáĥĶ
ĠáĥĻáĥĿáĥĽ áĥĺáĥ¥áĥ¡
áĥĽáĥĲáĥł áĥĶáĥľáĥ¯
áĥĿáĥŃ áĥĲáĥľ
Ġáĥ¤áĥłáĥĲáĥľáĥĴ áĥ£áĥļáĥĺ
áĥĲáĥł áĥĿáĥĳáĥĲáĥ¨
Ġáĥĺ áĥ®
áĥ¥ áĥĲáĥłáĥĹ
ĠáĥĵáĥĿáĥłáĥ ®áĥķáĥĶáĥļáĥĺ
ĠáĥĴáĥĶáĥłáĥĴáĥĿáĥĳáĥĲáĥĹ áĥ£áĥĹáĥĲ
Ġáĥĵ áĥĲáĥ¦
áĥ£áĥł áĥĿáĥłáĥ¢
áĥĶáĥł áĥ£
Ġáĥ® áĥĶáĥ¡
Ġáĥľáĥĺáĥľ áĥĲáĥ¡
áĥĲáĥ£ áĥľáĥĺ
Ġáĥ¯áĥĿáĥ® áĥĿáĥĹ
ĠáĥĲáĥĽáĥĶáĥłáĥĺáĥĻ áĥ£áĥļáĥĺ
Ġáĥ¢áĥĿáĥĽ áĥĳ
Ġáĥ¤áĥĲáĥľ áĥĺáĥĲáĥ¨
Ġáĥ¸áĥ£áĥ¯ áĥĺáĥ¨
ĠáĥĲáĥ¦ áĥĺáĥĲáĥł
áĥĿáĥł áĥĺáĥļáĥĺ
ĠáĥĽáĥ£áĥ ®
áĥĺáĥľáĥĵ áĥ£
Ġáĥ¤áĥĶáĥĺáĥľáĥĽ áĥĲáĥľáĥĺ
áĥĲáĥĽ áĥĶáĥł
Ġc or
Ġáĥ¤áĥĺáĥļáĥĽ áĥĶáĥ¤áĥĺáĥ¨
Ġáĥĺáĥ¡áĥ¢áĥĿáĥł áĥĺáĥĲ
Ġáĥĳáĥ£áĥľ áĥĲáĥ¨
ĠáĥĲáĥłáĥ¥ áĥĶ
áĥĲáĥļáĥĺ áĥĲáĥ¡
áĥĻ áĥĺáĥ¨
áĥĿáĥľ áĥĶáĥ©áĥĵ
Ġáĥĸ áĥĿáĥĹáĥĿáĥľáĥ¯
ĠáĥĿáĥĹáĥ® áĥĺ
ĠáĥĺáĥľáĥĴáĥļáĥĺáĥ¡ áĥĲáĥłáĥĺ
áĥĻáĥķáĥĺáĥĹ áĥĺ
ĠáĥĳáĥŁáĥĲáĥĵ áĥĲáĥļáĥĺ
Ġáĥŀ áĥĲáĥĻáĥĺáĥ¡áĥ¢
áĥ£áĥľ áĥĺ
ĠáĥłáĥĿáĥļ áĥ¡
Ġáĥ¡áĥ¢áĥł áĥ£áĥ¥áĥ¢áĥ£áĥł
ĠáĥĲáĥľ áĥ£
Ġw ich
à¸£à¸²à¸Ħ à¸²
Ġst ark
iel l
l ang
l igen
ĠT agen
Ðº Ð°
am a
ĠAn g
Ġk aum
ĠG est
Ġ Ã¶
ar on
Ġhand elt
à´¨ à´¸
àµĩ âĢĭ
ĠÐ ³
Ġf Ã¼nf
à´ĺ à´Ł
in ne
à´¤ à´µ
ÃŃ as
Ġà´ĵ à´Ł
à´± à´®
Ġel ekt
ĠKomm ent
à¸Ľà¸£à¸° à¸Ĭ
ĠS itz
os ition
eich ert
h ei
ĠK Ã¶n
im a
7 9
ĠEr w
Ġco Ã±
Ã¶ nen
ĠGeschÃ¤ft s
ik an
àµ¼ à´µ
* *
ĠGÃ¤ ste
la st
Ġw eg
ĠM ich
f Ã¤h
àµį :
ĠI st
em b
w en
à¸Ń à¸Ńà¸Ļà¹Ħà¸¥à¸Ļ
Ġbei spiel
ien ten
Ġ Ñĥ
Ġver Ã¶ffent
s on
Ġsch le
ar ch
ĠK raft
un k
ĠdÃ¼r fen
u en
ĠUnter stÃ¼t
st elle
os en
àµĤ .
ĠD ach
Ġmehr ere
8 1
àµ¼ à´ļ
Ġà´Ĩ à´¸
à¸ģà¸¥ à¸²à¸ĩ
Ġest Ã¡
w o
V or
à¸´ à¹Į
Ġáĥ¯áĥķ áĥĲáĥłáĥĺáĥ¨
Ġáĥłáĥ£áĥ¡áĥĹáĥĲáĥķ áĥĶáĥļáĥĺáĥ¨
ĠáĥĽáĥ£áĥ¡ áĥĺáĥĻáĥĲáĥ¨
ĠáĥĴáĥĶáĥ¨ áĥĲáĥĹ
Ġáĥľ áĥĲáĥłáĥĻ
áĥĲáĥ¤ áĥĲáĥ¨áĥĲ
ĠáĥĽáĥĶáĥ¢ áĥĺ
ĠáĥĶáĥ¨áĥĽ áĥĲáĥ¦áĥĲáĥļ
áĥ£áĥł áĥĲáĥ¤áĥ£
Ġáĥ¨ áĥĲáĥłáĥĲ
Ġáĥ¡ áĥĺáĥļ
áĥĿáĥ¢ áĥĺáĥ¨
áĥĶáĥłáĥĴ áĥĺáĥ¨
Ġáĥ¡ áĥĲáĥķ
áĥĶáĥľáĥ¯ áĥĲáĥĳ
ĠáĥĸáĥĿáĥ®áĥĿáĥłáĥĺáĥľ áĥĶáĥļáĥĺ
áĥ£áĥł áĥ£áĥļáĥĺ
áĥĺáĥĻ áĥĺ
Ġáĥ® áĥĲáĥľáĥ¡
Ġáĥ° áĥĺáĥĵ
áĥĺáĥĶáĥ¤ áĥĺáĥĹ
Ġáĥĳáĥł áĥĲáĥĸ
áĥĿáĥ¥áĥĺáĥĽ áĥĺáĥľáĥ£
Ġáĥ¡áĥĺáĥ¡áĥ¢áĥĶáĥĽ áĥĲáĥ¡
ĠáĥĿáĥłáĥĵ áĥĿáĥ¨
áĥĽ áĥĿáĥ¡áĥĿáĥ¤
Ġáĥľ áĥĶ
áĥĲáĥ¤ áĥĶáĥ¤áĥĺáĥ¨
áĥļ áĥĿáĥķ
áĥ£áĥłáĥ ¦
Ġáĥ©áĥĺáĥľáĥĶáĥĳ áĥ£áĥļ
ĠáĥĺáĥľáĥĴáĥļáĥĺáĥ¡ áĥ£áĥłáĥĺ
Ġáĥ®áĥĶáĥĽáĥĲáĥľáĥ¯áĥ¦áĥķ áĥĶáĥł
ĠáĥĽ áĥļ
áĥĲáĥł áĥĶáĥ¤áĥ¥
Ġáĥ¡ áĥĶáĥľ
áĥ¥ áĥĺáĥļ
áĥĲáĥ¢ áĥĿáĥłáĥĺ
áĥĹ áĥĺáĥľáĥĶ
áĥĶáĥĽ áĥĲáĥ¢
ĠáĥŃ áĥĻ
ĠáĥĿáĥ¡ áĥĻ
Ġáĥłáĥ©áĥ¥ áĥķáĥĲáĥľáĥĶáĥļ
Ġáĥ£áĥ¯ áĥĴáĥ£áĥ¨
ĠáĥĴáĥĶáĥłáĥĴáĥĿáĥĳáĥĲáĥĹ áĥ£áĥĹáĥĲáĥ¡
ĠáĥĽáĥ£áĥĸ áĥĶáĥ£
Ġáĥ£áĥ¨áĥ®áĥ£áĥĲáĥ¨ áĥĺ
ĠáĥĽ áĥĿáĥ¯
áĥ¯ áĥĿáĥ®
Ġáĥ° áĥĲáĥłáĥĺ
Ġáĥ©áĥ¥ áĥĿáĥľáĥĺáĥ¨
ĠáĥĶáĥŃáĥĲáĥł áĥ£áĥĲáĥ¨
ĠáĥĽ áĥĺáĥľáĥĺáĥ¡áĥ¢
áĥĲáĥł áĥĺáĥĲ
áĥĻ áĥĽ
áĥĿáĥľ áĥĶáĥ¤áĥĺ
ĠáĥłáĥĶáĥĴáĥĺáĥĿáĥľ áĥĺáĥ¨
Ġáĥľ áĥĲáĥĻ
áĥ£áĥ¯ áĥĺáĥ¨
ĠáĥĽ áĥĶáĥ¡áĥĺáĥ¡
Ļáĥķ áĥĺáĥĶáĥĳ
Ġáĥ¬áĥ§áĥĲáĥłáĥŀáĥĺáĥ¯ áĥĺáĥ¨
ĠáĥĳáĥĿáĥļ áĥĿáĥ¡
áĥĲáĥ¤ áĥ®áĥĲáĥĸ
áĥĿáĥ¨ áĥĲ
áĥĶáĥĵ áĥĺáĥª
Ġáĥĳ áĥ£áĥĵ
ĠáĥĻáĥĿáĥľáĥ¢ áĥĺáĥľáĥĶáĥľáĥ¢
Ġáĥ¨áĥķ áĥĲáĥľáĥ¡
ĠáĥĲáĥłáĥĴ áĥĶáĥľáĥ¢
Ġáĥļáĥ·áĥĽ áĥĲáĥ¡
ĠáĥĴáĥĶáĥķáĥĲáĥł áĥĲáĥ¡
ĠR om
Ð» Ð¸
à´ķ à´´
à¸ļ à¸²à¸ĩ
und o
Ġe ste
à´° à´ļ
s es
ĠD S
au sch
à´° à´ĸ
Ġher vor
ĠSte uer
al tet
Ġum f
ubl ic
ĠT op
à´°à´£ à´®
194 5
ĠD amen
ĠM il
mar kt
Ġin sbesondere
gel egt
à´¿ âĢĭâĢĭ
à¸ĩ à¸§
Ġ[ âĢ¦]
la f
âĢ ¢
à¸Ķ à¸ģà¸²à¸£
asch ine
gesch lossen
Ġà´ķ à´¤
b y
r ig
ĠIm m
ĠM at
U S
à¸ İ
ĠK ostenlos
Ġà¹Ģà¸ «
t ritt
Ġsch reiben
à¸ĩ à¸Ķ
ĠsÃº as
ie ÃŁen
Ġet c
Ġt Ã¤
ĠIn halt
à´ĩ à´¨
Ġfreu en
ĠBe weg
eit o
on a
ack en
Ġso wohl
à¸Īà¸° à¸¡
t al
ĠfÃ¼hr t
à¸Ļ à¸Ĥ
n ov
Ġgel ten
wei ter
Ġà´¨ à´Ĺ
à¸ģà¸³ à¸¥
i den
Ġ ..
ot he
fÃ¼ l
Ġwoll te
à¸¡ à¸²à¸ĵ
Ð¾ ÑĢ
à¸Ń à¹ĥà¸«
iel len
ĠEm pf
ick t
Ġm on
ĠVer wendung
Ġkonn ten
st anden
à¸ª à¸ķ
à´İ à´²
Ġà´¤ à´°
Ã¶ sen
à´µ à´®
Ġáĥ¬áĥĶáĥ¡ áĥĵáĥķáĥĲáĥļ
ĠáĥĻáĥĿáĥľáĥª áĥĶáĥłáĥ¢
áĥľáĥ ¬
áĥĲáĥ ²
Ġáĥłáĥ ©áĥ¥áĥĺáĥľáĥĶáĥļáĥĺ
Ġáĥ¤áĥłáĥĲáĥľáĥĴ áĥĺ
ĠáĥĽ áĥĲáĥ©
ĠáĥĽáĥĿáĥłáĥ© áĥĺáĥļ
ĠáĥĽáĥĶáĥ£áĥłáĥľ áĥĿáĥĳáĥĲáĥ¨
áĥĲ áĥĲáĥľáĥĹáĥ®
áĥĽ áĥĲáĥ¨
áĥĺáĥľ áĥĲáĥ¤áĥĲáĥļáĥĺ
áĥĶáĥľáĥ ¨
Ġáĥŀ áĥĲáĥķ
áĥĺáĥľáĥ ¥
áĥĺáĥłáĥ ¨áĥĲ
áĥĲáĥļáĥ£ áĥĲáĥ¨
¬áĥ§ áĥ£
ĠáĥĴáĥĶáĥĴ áĥ¨
ĠáĥĻáĥĲáĥł áĥĺáĥĳáĥĺáĥ¨
Ġáĥ¡áĥĻáĥĿáĥļ áĥĲ
Ġáĥĸáĥĺáĥ¢áĥ§ áĥķáĥĲ
Ġáĥĺáĥĳ áĥĶáĥłáĥĺáĥĲáĥ¨
ĠáĥĳáĥłáĥĲáĥĸ áĥĺáĥļáĥĺ
Ġáĥ¤ áĥ¡
áĥ£áĥľ áĥĶáĥļ
Ġáĥĺáĥľáĥ Ļ
áĥĿáĥłáĥª áĥĺáĥĶáĥļ
ĠáĥŁáĥĺáĥłáĥ ®áĥĿáĥļáĥĿ
ĠáĥĶáĥļáĥĶáĥ¥áĥ¢áĥł áĥĿáĥľ
ĠáĥĴ áĥĲáĥļáĥĶ
áĥĿáĥł áĥĶáĥ¡
áĥ£áĥļ áĥĲáĥ¨
áĥĸ áĥĺ
ĠáĥĽáĥĶáĥ£ áĥłáĥ¡
ĠáĥĽáĥ£áĥĽ áĥĲ
áĥĶáĥľáĥ ĳ
ĠáĥĶ áĥ¤
áĥĶáĥľ áĥĿ
áĥĺáĥĶ áĥłáĥ
Ġáĥĳ áĥ£áĥļ
áĥĶáĥĳ áĥĶáĥ¤áĥĺ
Ġáĥļ áĥĺáĥĵ
Ġáĥ© áĥĺáĥļ
áĥĺáĥľáĥĶáĥĳ áĥ£
áĥĺáĥľáĥĵ áĥĺáĥ¨
ĠáĥĴáĥļ áĥĿáĥĳ
ĠáĥĽáĥĿáĥĴáĥķáĥĺáĥĲáĥľ áĥĲáĥ¤áĥĺáĥļáĥĿ
áĥ¬ áĥĻ
Ġáĥļ áĥĶáĥĴ
ĠáĥŁ áĥĺáĥĵ
ĠáĥĴáĥ·áĥĽáĥĺáĥłáĥĺáĥľáĥ£ áĥĲáĥľáĥĲ
Ġáĥĵ áĥĲáĥķáĥĺáĥĹ
Ġáĥ¤ áĥĿáĥ¢
Ġáĥļ áĥĿáĥ¡
ĠáĥĿáĥ «áĥĺáĥł
Ġáĥĳ áĥĲáĥ«
ĠáĥĽáĥĺáĥĿáĥ Ń
áĥ¸ áĥĿáĥ¤
Ġáĥł áĥĶáĥ¤
Ġáĥļ áĥĶáĥłáĥ¡
Ġáĥł áĥĿáĥļáĥĺ
Ġáĥ° áĥĶáĥĴ
ĠLie be
an o
rÃ¤ gt
ic s
Ġarb eiten
à´² à´ķà´³
ĠEle kt
à¸¢ à¸Ķ
w ehr
k osten
Ġp art
ĠGl Ã¼ck
b esch
à¹ĥ à¸Ħà¸£
ĠWei se
Ġjeder zeit
ĠR ein
ft ung
ĠX III
Ġ% ),
ĠEn d
196 5
ĠR ich
tion en
eh l
k reis
Ġà´¤ à´²
Ġtod o
à¹Ģà¸Ĥ à¸²
à¸Ħ à¸³
ant o
ĠN o
geb ung
ĠS en
Ġà´µ à´ļ
ar ia
sch uhe
d orf
ĠW ein
à¸Ńà¸Ļ à¸Ĺ
à¹Ĥ à¸Ħà¸£
ĠAr ch
ĠM Ã¤dchen
forder ungen
u a
à¸²à¸Ħ à¸²à¸£
5 2
à¸ĩ à¸£
ĠMÃ¼n chen
ĠK in
à´¡ à´²
à´İ à´«
Ġbe vor
Ð¾ ÑĤ
Ġal ten
ĠVer kehr
ĠK ur
lin k
ĠH el
ak ter
ĠBen utz
Ġbe d
Ġh ei
Ġlie gen
à¸ļ à¸ģ
ĠÐ´ Ð»Ñı
Ġs etzen
Ġz uf
ĠEr inner
ĠA uÃŁer
og o
ĠGes etz
à¸Ļ à¸ľ
ĠS onn
à´¯à´® à´Ļ
Ġa os
6 00
ĠVerb indung
à¸¡ à¸ķ
ri ften
al te
à¸Ń à¸Ľ
p reis
Ġge geben
Ġl Ã¤nger
Ġdar an
Ġv ari
ĠFer ien
ĠP or
A ls
r ess
W as
àµ¼ à´¡
is se
ri d
Ġs em
pro du
áĥĺáĥłáĥ ļáĥĲáĥľáĥĵ
Ġáĥ¬áĥĲáĥľáĥĲáĥ¨ áĥĿ
áĥ£áĥ¡ áĥĲáĥļ
áĥĺáĥļ áĥĿáĥ¨
ais on
ĠáĥĲáĥļáĥĳáĥĿáĥĽ áĥĺ
ĠáĥĽáĥ£áĥ¡áĥĺáĥĻ áĥĲáĥļáĥ£áĥłáĥĺ
ĠáĥĻ áĥĲáĥłáĥ¢
Ġáĥĳ áĥĲáĥľáĥĻ
áĥĿáĥ¥ áĥĽ
Ġáĥĺáĥłáĥ ¬
ĠáĥĻáĥĿáĥĻ áĥĶáĥ¤áĥĺáĥ¨
ĠáĥĸáĥĿáĥ®áĥĿáĥłáĥĺáĥľ áĥĲáĥļáĥĲáĥ¨
áĥĲáĥļ áĥĶáĥ¨áĥĲ
áĥ¡ áĥĲáĥ¤
Ġáĥŀ áĥĶáĥľáĥ¯áĥĲáĥĳ
ĠáĥĽáĥĿáĥľ áĥĲáĥłáĥ¥
ĠáĥĽ áĥĲáĥľáĥ¥
áĥĶáĥł áĥĺáĥĹ
áĥĿáĥ¡ áĥĻ
áĥĿáĥķ áĥł
ĠáĥĿáĥ¡ áĥ£áĥł
ĠáĥĽáĥĶáĥłáĥ ©áĥ¥áĥĺáĥľáĥĶáĥļáĥĺ
Ġáĥ£áĥ¨ áĥ¥
Ġáĥłáĥ¡ áĥ£áĥļ
ĠáĥĽáĥĶáĥłáĥĻ áĥĶ
Ġáĥĵ áĥ£áĥĽ
Ġáĥŀáĥĺáĥł áĥĶáĥļáĥ¡
ĠáĥĻáĥķáĥĺáĥłáĥĻáĥķ áĥĶ
Ġáĥ£áĥľáĥ ©
ĠáĥłáĥĿáĥĳ áĥĶáĥłáĥ¢
áĥĺáĥľ áĥĲáĥĽáĥĺ
ĠáĥĴ áĥĶáĥłáĥ
áĥĲáĥĹ áĥ®
áĥĿáĥĽ áĥŀ
áĥĸ áĥĺáĥ¨
Ġáĥ¨áĥķ áĥĶáĥĵ
ĠáĥĴáĥĶáĥĽ áĥ¨
Ġáĥ®áĥĶáĥļáĥ£áĥĲáĥľ áĥĿáĥĳáĥĲáĥ¨
áĥĽ áĥĲáĥļ
áĥĺáĥł áĥĺáĥĹ
Ġáĥķ áĥĲáĥĵ
Ġáĥĸ áĥ£áĥĴ
ĠáĥĽáĥĲáĥ¡ áĥ¨áĥ¢áĥĲáĥĳ
ĠáĥĻáĥĿáĥ© áĥĺáĥ¡
Ġáĥ¡ áĥĲáĥľáĥ¢
áĥĿáĥłáĥ Ļ
áĥĿáĥļ áĥĲáĥĽ
ĠáĥĲáĥľ áĥĹ
ĠáĥŀáĥłáĥĿáĥĴ áĥłáĥĲáĥĽ
áĥļ áĥĿáĥĽ
Ġáĥłáĥ ¡áĥ®áĥ£
ĠáĥĹáĥĺáĥľ áĥĶáĥ¤áĥ¨áĥĶ
áĥĿáĥĸ áĥĺáĥª
ĠáĥĳáĥĲáĥ« áĥĲáĥ«
Ġáĥ¡ áĥĲáĥ¨
áĥĿáĥłáĥ Ĵ
Ġáĥ¯ áĥĺáĥ¨
Ġáĥļ áĥĲ
áĥ£áĥľáĥ Ĺáĥ®
ĠáĥĴáĥ·áĥĽáĥĲáĥĹ áĥ£áĥĹáĥĲáĥ¡
ĠáĥĿáĥĳáĥĺáĥĶáĥ¥ áĥ¢áĥĺ
âĢĮ àµį
Ã¼hr en
ik a
or gt
om ent
Ġer n
ge t
à¸Ń à¸ģà¸²à¸£
m ehr
Ġk m
à´ Ī
Ġà´ĩ à´Ļ
ĠD on
ĠW ill
ei er
Ġent sp
ĠT V
ĠMill ionen
ĠA G
à¸ĩ à¹ģà¸ķ
à¸¨ à¸²à¸ª
la pp
os s
tiv o
Ġà´ķ à´µ
ad or
Ġsol che
b eg
Ġmo i
à¹Ĥ à¸£
rei cht
8 4
ic as
sch rift
ĠWei hn
Ġs ucht
Ð¾ Ñģ
àµ½ à´ª
ĠN ew
ĠPoliz ei
ĠT ier
ĠG old
à¹ģ à¸Ħ
7 3
et ail
à¸ģ à¸ģ
di c
à´ĩ à´¤
ur ger
Ġhoch wer
ĠEr n
sp e
ĠPol itik
um e
ĠB rowser
ge st
Ġdun ha
z eiten
sprech end
a ktiv
É Ļ
rei ber
dig ung
Ġan o
rÃ¼f ung
in den
au b
à¸Ńà¸ĩ à¹Ģà¸Ĺ
ĠS or
ĠReg ion
al k
à¸Ī à¸Ļ
à´£ à´¯
Ġhtt p
is e
à´ķà´° à´®
i ber
Ġauf grund
Ġ à¹Ģà¸ģ
à¸Ńà¸ĩ à¸£
tig ung
à´ļ à´ķ
à´ļ à´±
k am
ĠGr Ã¶ÃŁe
ĠheiÃŁ t
m od
ĠSp aÃŁ
om as
à¸Ĥ à¸Ļà¸²à¸Ķ
o der
et ing
Ã¤l lt
Ġz eit
à¹Ĥà¸£à¸Ħ à¸ªà¸°à¹Ģà¸ģ
je kte
19 50
Ġjewei ls
Ġáĥ¨ áĥĿáĥĹáĥĲ
Ġ ;
Ġáĥ¡ áĥĲáĥĿáĥ
áĥĳ áĥĶáĥĻ
ĠáĥĺáĥłáĥļáĥĲáĥľáĥĵ áĥĺáĥĲáĥ¨
Ġáĥĺáĥľáĥ¡ áĥ¢áĥł
Ġà´¸à´® à´°
ĠáĥĲáĥ¢áĥĽáĥĿáĥ¡áĥ¤áĥĶáĥł áĥĿáĥ¨
ĠáĥĻ áĥĲáĥľáĥ¢
Ġáĥ¤áĥĶáĥĵáĥĶáĥł áĥĲáĥļáĥ£áĥłáĥĺ
ĠáĥĲáĥłáĥĹáĥĺáĥĲáĥľ áĥ¡
ĠáĥĲáĥĻáĥĿ áĥĲáĥłáĥĹ
Ġáĥ®áĥĶáĥļ áĥ£
áĥĴ áĥķ
áĥĿáĥľ áĥ£áĥłáĥĺ
áĥĲáĥľáĥĵ áĥĲáĥłáĥ¢
áĥĺáĥľáĥ¯ áĥĺáĥ¨
ĠáĥĲáĥ¡ áĥ¢áĥł
áĥĺáĥĿáĥłáĥĻ áĥĺáĥ¡
áĥĲáĥ ¬áĥ§
ĠáĥĴ áĥĿáĥĵ
ĠáĥŃ áĥķáĥĶáĥĽ
Ġáĥ¬áĥ·áĥĽáĥĿáĥłáĥĺáĥľ áĥĲáĥ¤áĥĺáĥļáĥĺ
ĠáĥĴ áĥĶáĥĵ
áĥľ áĥĶ
Ġáĥķ áĥĶáĥĽ
Ġáĥļ áĥĲáĥĽ
áĥĲáĥĻ áĥĺáĥ¨
Ġáĥ¸ áĥ£áĥłáĥĶ
ĠáĥĻáĥĺáĥľ áĥĿáĥ®
Ġáĥĺáĥľáĥ¤áĥĿáĥłáĥĽ áĥĲáĥªáĥĺáĥĲáĥ¨
Ġáĥ®áĥ£áĥĹ áĥĿáĥ¨
áĥĴ áĥĿáĥĽ
ĠáĥĽáĥĲáĥ «áĥĺáĥł
ĠáĥĹáĥĶáĥĲáĥ¢ áĥłáĥĺáĥ¨
Ġáĥ¡áĥŀáĥĶáĥªáĥĺ áĥĲáĥļáĥ£áĥłáĥĺ
ĠáĥĽáĥ£áĥľáĥĺáĥª áĥĺáĥŀáĥĲáĥļáĥĺáĥ¢áĥĶáĥ¢
áĥĶáĥļ áĥĲáĥ¨
ĠáĥľáĥĲáĥĽ áĥĹáĥĺáĥľáĥĶ
Ġáĥłáĥĵ áĥĲáĥ¡
ĠáĥĽáĥĶáĥ¦ áĥĶáĥĳáĥ£áĥļáĥĺ
ĠáĥĹ áĥĺáĥĹ
áĥĶáĥł áĥ£áĥļáĥĺ
áĥĿáĥľáĥ Ĵ
Ġáĥ¦ áĥĲáĥľáĥ©
¢ áĥ§
áĥĻ áĥł
Ġáĥ¦ áĥ£áĥłáĥĹáĥ£áĥĹáĥĲáĥ¡
áĥĺáĥľáĥ¯ áĥĶ
áĥĺáĥ¤ áĥĿáĥłáĥľ
ĠáĥĹáĥ£áĥĹ áĥĲáĥ¨
ĠáĥļáĥĶáĥ® áĥĶáĥłáĥ¡
ĠáĥĹáĥ£áĥĵ áĥĿ
áĥĶáĥ ¬áĥĻáĥ·áĥĽáĥĲ
áĥĲáĥļ áĥĲáĥĽ
ĠáĥĵáĥĲáĥĳ áĥĲáĥļáĥĺ
áĥĴ áĥĲáĥ¨
áĥĶáĥ «
ĠáĥŀáĥĲáĥłáĥ¢ áĥĺáĥĸ
ĠÐ¿ ÑĢ
g ra
à¸²à¸¢ à¸Ĺ
9 3
GV O
à¸ª à¸§à¸¢
ayal am
mitt lung
per atur
à´Ĵ à´°
Ġk osten
ĠAn ti
Ġzwei ten
ĠT elefon
Ġà´ ĺ
Ġà´Ĵ à´Ł
à´¤ à´°à´µ
Ã¼nst ler
Ġk ur
k Ã¼n
eit ag
rei bt
Ġà´µ à´¸
Ã¶ st
Ġbeispiel sweise
el es
ĠW ien
Ġs omit
p rÃ¼
ĠÂ °
Ġà´ľ à´¯
9 00
ĠE ing
Ġi s
Ġà´ª à´ŀ
l ing
ĠTex t
Ġpol it
ĠP rin
Ġander s
ĠSt re
ĠB ra
Ġp ass
Ġin cl
ĠB ank
ic os
Un d
à¸Ń à¸Ń
ĠprÃ¤ sen
ig keiten
Ø ª
Ġà´¹ à´°
at a
ĠSt elle
lo ad
ĠHer ren
all o
l assen
à¤ ¿
Ġd am
Ġjed es
ĠBer g
Ġc re
Ġ à¸Ħà¸§à¸²à¸¡
ab hÃ¤ng
âĢĿ .
ĠK ranken
à¹Į ,
ĠAuf trag
à´¯à´ķ à´¨
ĠN ur
Ġh Ã¶ch
ĠD amit
r oll
à¸Ļ à¹Ĩ
Ġse us
à¸ł à¸²à¸©
Ġres p
9 6
fÃ¼ ll
w Ã¼r
Ġà´® à´²
ĠSt rom
ĠL a
ak e
de ck
m on
ĠD isk
Ġf ort
ĠW and
Ġà´® à´°à´£
ĠO l
Ġverb esser
f urt
es ent
n ess
ig it
ĠAl t
Ġm Ã¶
à¸¢ à¸°
ĠX II
ĠW ahr
ul l
à¸Ļà¸Ĺ à¸£
t rem
il den
Ġà´Ĩ à´±
Ġmo dern
ac e
áĥĶáĥ¨ áĥĺáĥ¥
it i
ĠáĥĽáĥ£áĥł áĥĺáĥªáĥ®
ĠF euer
Ġáĥĳ áĥĿáĥ¢
ĠáĥĽáĥĲáĥ ¯
Ġáĥ¨áĥĲáĥľáĥ£áĥļ áĥĲáĥĽ
ĠáĥĽáĥĿáĥ¡ áĥĻ
Ġáĥ¢áĥłáĥĿáĥŀ áĥĺáĥĻáĥ£áĥļáĥĺ
áĥĺáĥľ áĥ£áĥĲáĥ¤áĥ£
áĥĲáĥĽ áĥĶáĥ¤áĥĺáĥ¨
Ġáĥ¡áĥ¢ áĥ£áĥĵ
Ġáĥ¨áĥĶáĥļ áĥĶáĥĳáĥ£
Ġáĥ¡áĥĺáĥĴáĥ·áĥłáĥ «áĥĲ
h ar
áĥĶáĥĳ áĥĶáĥľáĥ¡
Ġáĥ¥ áĥĿáĥ«
áĥĲáĥľáĥĵ áĥĲáĥ¨
áĥ£áĥ¡ áĥ¢áĥł
áĥĶáĥĴ áĥĿáĥłáĥ£
ĠáĥĽáĥĲáĥłáĥĴ áĥĲáĥļáĥ£áĥł
áĥĲáĥĺ áĥĵ
ĠáĥĿáĥĻáĥĲáĥĹ áĥ£áĥĵáĥ·
ĠáĥĿáĥĶáĥłáĥĶáĥ¤áĥĿáĥ¨áĥ¥ áĥĲáĥ¨áĥĶ
Ġáĥĵ áĥĿáĥŃ
Ġáĥľ áĥĲáĥķ
áĥĶáĥļ áĥ·
áĥĲáĥª áĥĺáĥĲáĥĹ
ĠáĥĹáĥĺáĥľ áĥĶáĥ¤áĥ¥
ĠáĥĶáĥķ áĥł
ĠáĥĺáĥľáĥĵáĥĿáĥľáĥĶáĥĸ áĥĺáĥĲáĥ¨
¯ áĥĴáĥ£áĥłáĥĲ
ĠáĥĲáĥ °
ĠáĥĴáĥ·áĥĽ áĥĿáĥ¡áĥĲáĥ®
áĥĽ áĥ£áĥ
áĥļ áĥĲ
áĥĶáĥ¨ áĥĶáĥ¡
áĥ£áĥĹ áĥĽ
áĥĺáĥĶáĥ¤ áĥ¥
áĥ£áĥ¯ áĥĲáĥłáĥĲáĥĹ
ĠáĥĺáĥľáĥĴ áĥļ
ĠáĥĻáĥļáĥĺáĥĽ áĥĲáĥ¢
áĥĲáĥĽáĥ¨ áĥķáĥĺ
Ġáĥ®áĥķáĥĲáĥĽ áĥĲáĥłáĥĵ
Ġáĥ£áĥĹ áĥĲáĥłáĥĲáĥ¨
ĠáĥĿáĥª áĥĲáĥĵ
ĠáĥĻáĥĿáĥ¡ áĥĽáĥĿáĥ¡
ĠáĥĽáĥļ áĥľ
áĥĲáĥłáĥ §
áĥĿáĥĳ áĥĶáĥ¤áĥĺ
Ġáĥĺáĥ Ń
ĠáĥĲáĥķáĥ¢ áĥĿáĥĽ
ĠáĥĽ áĥĿáĥ¨
áĥ¢ áĥ£áĥłáĥĺ
áĥĲáĥ¤ áĥĲáĥļ
Ġáĥĺ áĥłáĥĺ
áĥļ áĥĲáĥķ
Ġáĥķ áĥĲáĥĴ
Ġáĥ¢ áĥĶáĥ¥áĥ¡
ĠáĥĲáĥļ áĥĶáĥ¥áĥ¡
ĠáĥĿáĥĹáĥ® áĥĿáĥľáĥĶáĥ©áĥĵ
áĥĺáĥłáĥ Ľ
ĠáĥŀáĥĿáĥļáĥĺáĥ¢ áĥĺáĥĻáĥ£áĥł
ĠáĥĴáĥ·áĥĽáĥĲáĥĹ áĥ£áĥĹáĥĲ
ĠáĥĵáĥĺáĥľáĥĿáĥ®áĥĿáĥļ áĥĶáĥľáĥĺ
áĥĲáĥ¤ áĥĿáĥľáĥĺ
áĥĶáĥ¡ áĥĺáĥ¨
ĠáĥĻáĥĿáĥļ áĥ£áĥĽáĥĳ
Ġáĥĳ áĥĿáĥł
áĥĺáĥ¢ áĥĲáĥĽ
Ġáĥª áĥľ
Ġáĥ¨ áĥĶáĥ¥áĥ¡áĥŀ
ĠáĥĳáĥĿáĥļáĥĺáĥķ áĥĺáĥĲáĥ¨
g ruppe
à¸²à¸ ľ
ĠFot os
Ġgef unden
4 00
uch ten
ĠA ust
Ġà´İ à´ķ
D e
ig ar
196 4
ĠSo ftware
Ġver kauf
ic ro
à¸¢à¸Ļ à¸ķ
Ġent scheiden
Ġt ats
ĠPh il
Ã¤n dig
Ġaktu ellen
ang el
ĠR olle
ks am
Â» ,
lie gen
ĠÃ¤ hn
as chen
ĠS l
I S
ĠI X
ĠB ru
bar keit
se x
6 6
Ġber ech
ĠR at
ĠSo zial
Ġvor h
198 8
A uch
à¸ģ à¸ĩà¸²à¸Ļ
Ġwel ches
ĠhÃ¶ her
k or
ĠL eute
u ster
ĠD ort
ĠB aum
à´® à´£
à¸ł à¸²à¸Ħ
Ã¶ ll
ĠHam burg
ĠGemein de
à´¨ à´°
i or
à¹Ģà¸ ł
ĠZ ur
pf lich
Ġà´ľ à´¨à´Ļ
ĠFor um
Ad resse
à´¹ à´ļà´°
ungs ver
ĠN ot
Ġà´Ĩ à´Ĺ
A M
Ġs ing
à¸ĩ à¸«
e ci
Ġà´Ĵ à´ķ
ĠDeut schen
â Ĩ
teil t
Ð½ Ð°
ĠL age
ĠGes amt
ri ck
ÃŃn da
re chen
ĠEx per
Ġver sch
Ġ ÑĤ
1 20
à¹Ĥ à¸¢
à¸į à¸«
Ġgew Ã¤hr
Ġ Ø§Ù
ĠFot o
ĠS Ã¼d
Ã¼n d
f a
å ı
à¸Ńà¸ĩ à¸Ļ
zeu gen
Ġer reichen
h el
à¸Ļ à¹Ģà¸¥
geb iet
ĠØ ª
ĠErfahr ung
ĠVer gleich
ec es
re ff
Ġest a
ĠMitgl ied
ĠOr ganis
iss ion
Ġà´İ à´£
r ol
à¸¤ à¸©
wie sen
àµģ àµį
ĠI S
àµĪ à´Ĥ
ĠMÃ¤n ner
Ġerforder lich
à´¯ àµ¼
Ðµ Ð²
h ang
ĠW h
à´¤ à´ķà´°
o gen
à¸ļ à¸¥
ĠMod ell
Ġopti mal
M an
ĠT isch
ĠR is
Ġt ot
halt ung
k a
ĠT od
D a
ĠH eil
Ġver ein
be d
Ġáĥ¥ áĥĲáĥľáĥĹ
ĠáĥĻáĥĺáĥłáĥ ªáĥ®
áĥłáĥĶáĥ¨ áĥ£áĥĽáĥĺáĥ¨
ĠáĥŀáĥĿáĥłáĥ¢áĥ£áĥĴ áĥĲáĥļáĥĺáĥĲáĥ¨
ĠáĥĺáĥĶáĥł áĥ£áĥ¡áĥĲáĥļ
Ġáĥļ áĥĲáĥĺ
ĠáĥĲáĥļáĥĽ áĥĲáĥ¨
Ġáĥĵáĥĺáĥ®áĥĲáĥ¨ áĥľáĥ¬
áĥĿáĥĳáĥŁ áĥĲáĥĹáĥĶ
Ġáĥŀáĥļ áĥĲáĥľáĥĶáĥ¢
áĥł áĥĺáĥĴ
áĥĺáĥł áĥĲ
áĥĿáĥļ áĥĲáĥ¤áĥĺáĥłáĥĿ
áĥĲáĥłáĥĹ áĥ£
ĠT ran
ĠáĥĽáĥĲáĥłáĥ «áĥĴ
ĠáĥĲáĥĻáĥĿáĥ¥áĥĺáĥĽ áĥĺáĥľáĥ·
Ġáĥ¬áĥĲáĥłáĥĽ áĥĶáĥĳáĥĲáĥ¨
ĠáĥĴ áĥĺ
áĥĲáĥĳáĥĲáĥĵ áĥĺ
áĥ£áĥłáĥ¦ áĥĿáĥłáĥĿáĥľáĥĹ
Ġáĥĵ áĥĿáĥĵ
Ġáĥĳ áĥĶáĥľ
áĥĿáĥľ áĥĲáĥ¨
áĥ¤ áĥĺáĥļ
áĥĶáĥ¥ áĥ¢áĥĺ
ĠáĥĲáĥ¤ áĥ·
ĠáĥĴáĥĺáĥ¨ áĥĲáĥłáĥĹáĥ·
áĥĿáĥĸ áĥĺáĥľáĥĵ
Ġáĥĺáĥ¡áĥ¢áĥĿáĥł áĥĺáĥĲáĥ¡
ĠáĥĽáĥĲáĥĵ áĥ£áĥĵáĥĶ
Ġáĥªáĥ® áĥĿáĥķáĥł
ĠáĥĻáĥ£áĥľáĥ¢ áĥĲ
ĠáĥĴáĥĿáĥłáĥ©áĥ¥ áĥĺáĥľáĥĵáĥ·
áĥĲáĥĲáĥľáĥĹáĥ® áĥĺ
Ġáĥĵ áĥĿáĥ¦
áĥĲáĥ¡ áĥ£áĥł
Ġáĥ¡áĥ¥ áĥ£áĥĲ
Ġáĥĵáĥĺáĥ® áĥĲáĥ¡
ĠáĥĽáĥ£áĥľáĥĲáĥ©áĥĶáĥĽ áĥĶáĥ¤áĥĺ
ĠáĥĹáĥĶáĥ ¯áĥĴáĥ£áĥłáĥĲ
ĠáĥĲáĥĽáĥĵáĥ¦ áĥĲ
ĠáĥĽáĥĶáĥļáĥĲáĥ® áĥĺáĥ¡
ĠáĥĽáĥĶáĥĹ áĥĿáĥĵ
ĠáĥĽáĥĶáĥŃ áĥĶáĥĵ
áĥĿáĥĿáĥłáĥ£ áĥĶ
áĥĺáĥļ áĥĿáĥĳáĥĲ
Ġáĥ¨ áĥ£áĥł
Ġáĥ¤ áĥĲáĥ¥áĥ¢
Ġáĥ¢ áĥĺáĥ¢
áĥľáĥ ¢
ĠáĥĿáĥĻ áĥĺáĥĹáĥ®
ĠáĥŃ áĥĺáĥĹ
ĠáĥĴáĥĺáĥ¨ áĥĲáĥĻáĥĶáĥłáĥ«áĥĲáĥ¤áĥĺáĥļáĥĿ
Ġáĥ¤áĥĶáĥĺáĥľáĥĽ áĥĲáĥľáĥ¥
áĥĺáĥĹáĥ®áĥĺáĥł áĥĺáĥ¨
ĠáĥľáĥĿáĥĳ áĥĶáĥļáĥĺáĥ¨
áĥĿáĥ ĵáĥ·
Ġáĥĵ áĥĶáĥľ
Ġáĥ¡ áĥĲáĥĶ
áĥĲáĥ® áĥĲáĥļáĥĺ
ĠáĥĻáĥĿáĥĽáĥŀ áĥĲáĥľáĥĺáĥĲ
ĠáĥĽ áĥĶáĥĽ
Ġáĥľ áĥĲáĥªáĥĺáĥĿáĥľáĥĲáĥļáĥ£áĥłáĥĺ
áĥĲáĥ¢ áĥĺáĥ¡áĥ¢
ĠáĥĿáĥ¤ áĥĺáĥłáĥ©
Ġáĥŀáĥļ áĥĲáĥ¢
áĥ£ áĥĲáĥ¥
áĥĺáĥľ áĥĶáĥ¤áĥĺáĥ¨
áĥĲáĥľáĥ¢ áĥĶáĥ¤áĥĺ
ĠáĥľáĥĲáĥĻ áĥĿáĥł
Ġáĥł áĥĲáĥ®
Ġáĥĸ áĥĿáĥĴ
ĠáĥĲáĥĽ áĥĳ
áĥ£áĥłáĥ ª
ĠáĥĹáĥĲáĥł áĥĺáĥ¦
áĥĺáĥļ áĥĺáĥĸ
Ġáĥ£áĥª áĥĺáĥĿ
ĠáĥĲáĥĻáĥĿ áĥĲáĥľáĥ¯áĥĲáĥł
a el
à´´ à´ķ
Ġst and
iz iert
ĠEs sen
an lage
ĠB itte
fÃ¼hr er
inn t
Î ¹
em in
ite d
ĠH aar
o o
à¸Ĺà¸³ à¸ĩà¸²à¸Ļ
ĠJahr h
Ġw ider
à¹ģ à¸ªà¸Ķ
à´°à´µ à´§
ci as
Ġz w
25 0
Ã¤uf t
r Ã¡
f rist
Ġentwick elt
Ġm eist
Ġà´ Ĭ
ĠZ oll
Ġà´¤ à´³
ĠH aut
à¸Ńà¸ĩ à¸¡
Ġg ra
à¸ŀ à¸§à¸ģ
Ġà´ħ à´£
ĠP ass
Ġb em
Ġdes halb
àµ» à´¡
Ġent halten
Ġpra kti
ĠDie ser
f ekt
ĠProdu ktion
à¹ģ à¸ľ
Ġbef indet
Ġà´ı à´ķ
herap ie
Ġvor her
hr e
à¸²à¸Ń à¸¢
Ã¤n dert
ĠT ipp
Ġander em
Ã¼t zen
ĠÃĸ ff
ĠfrÃ¼ her
u sch
ar r
Ġdeut sche
ĠZ immer
p ack
an e
iÃ³n s
w Ã¤r
Ġg lau
a Ã±
u ell
ĠÃ º
à´ ī
Ġzun Ã¤chst
ĠIndust rie
9 5
ÐµÐ ´
1 10
sch riften
ĠProblem e
âĢľ -
ÃŃ s
ĠÐ ·
à¹Ģà¸§à¸¥ à¸²
ĠInter esse
v olle
àµĭ ,
g ien
Ã¤u de
Ã¼ gen
ĠPorn o
Ġmus ste
om in
Ġerfolg reich
Ġin dem
ĠKÃ¼ che
be w
b ank
à´Ĺ à´£
ĠSpiel er
ĠV oll
ĠK lei
Ġw Ã¼n
il le
Ġver gangen
ĠS eit
) [
wert ung
el te
ne te
à¸ĩ à¸Ń
ĠG ruppe
ĠÃĸ sterreich
à¸ĩ à¸Ĥà¸Ńà¸ĩ
Ġà´ī à´±à´ª
ĠB on
à¸Ļ à¸Ī
ĠP aul
Ġp h
ĠGes prÃ¤
ĠUnterstÃ¼t zung
ĠMitgl ieder
tig er
Ġho he
ĠM utter
Ñĥ Ñİ
à¸ª à¸²à¸§
rei sen
7 2
Ġáĥ¢áĥĺáĥĽ áĥĿáĥłáĥĺáĥ¨
ĠáĥłáĥĶáĥĻ áĥĿáĥłáĥĵ
áĥ£áĥ ¬áĥĻáĥ·áĥĽáĥĲ
ĠáĥĽ áĥĲáĥłáĥĽ
Ġáĥł áĥĺáĥªáĥ®áĥ£
áĥĴ áĥĲáĥ¡
Ġáĥ©áĥĲáĥľ áĥĲáĥłáĥĺ
áĥłáĥĲáĥľáĥ¡ áĥŀáĥĿáĥłáĥ¢
áĥĲ áĥĲáĥłáĥĹáĥĺ
áĥ£áĥļ áĥĺáĥłáĥĺ
áĥ° áĥĺ
ĠáĥĿáĥłáĥĴáĥĲáĥľ áĥĺáĥĸáĥĽ
áĥĺáĥĿáĥľáĥ ¨áĥĶ
áĥĲáĥłáĥ ¨áĥĲ
Ġáĥ¡ áĥĶáĥľáĥ¢
rei te
áĥĶáĥľáĥĵ áĥĺáĥ¨
áĥĲáĥľáĥĴ áĥĺ
Ġáĥ¸ áĥ£áĥĵ
Ġáĥĵáĥĺáĥĵ áĥĲáĥłáĥĺ
ĠáĥĽáĥĺáĥ¨ áĥ·
áĥĶáĥ¡áĥ¢ áĥĺáĥķ
ĠáĥĸáĥĿáĥ®áĥĿáĥłáĥĺáĥľ áĥĶáĥļ
Ġáĥ¢áĥ£áĥł áĥĺáĥ¡áĥ¢
ĠRest aur
ĠáĥĽáĥ£áĥ ľáĥ
Ġáĥ©áĥ® áĥĿáĥłáĥĿ
ĠáĥĽáĥĶáĥľáĥªáĥĲáĥł áĥĿáĥĳáĥĲ
ĠáĥĿáĥłáĥĴáĥĲáĥľáĥĺáĥĸ áĥĲáĥªáĥĺáĥĲ
Ġáĥ¤áĥĲáĥľ áĥĺáĥĲáĥ¨áĥĶ
ĠáĥĲáĥĳáĥĲáĥľ áĥĿáĥĳáĥ£áĥłáĥĺ
áĥĽ áĥĶáĥ®
ĠáĥĴ áĥĲáĥł
Ġáĥĺ áĥĿ
áĥĿáĥľ áĥĲáĥ¡
áĥĺáĥľáĥ ľ
áĥĶáĥľ áĥĶáĥ¤áĥĺ
Ġáĥļ áĥ£
Ġáĥŀáĥł áĥĲáĥ¥áĥ¢
ĠáĥĴáĥĺáĥľ áĥĿáĥĸáĥĺáĥľáĥĵ
áĥĺáĥľáĥ¯ áĥĺ
ĠáĥĴáĥķáĥĲáĥļ áĥĲ
ĠáĥĲáĥł áĥĺáĥ¡áĥ¢
ĠáĥĿáĥľ áĥĿáĥ¦
áĥĶáĥĽáĥĳ áĥĶáĥłáĥĺ
ĠáĥĴáĥĺáĥľáĥĿáĥĸáĥĺáĥľáĥĵ áĥĺáĥļáĥĺ
áĥĲáĥłáĥĹ áĥĶ
áĥĶáĥļ áĥĲáĥĴ
Ġáĥ¢ áĥĲáĥł
ĠáĥĲáĥĻ áĥĲáĥľáĥĺ
áĥĺáĥŀ áĥĶáĥļáĥĲáĥĴ
áĥĺáĥ¯ áĥĴ
Ġáĥ¢áĥł áĥĲáĥľáĥ¡
ĠáĥĽáĥ£áĥĵáĥĴ áĥĲáĥĸ
áĥ® áĥĶáĥĹáĥĺáĥ¨
áĥĻ áĥĲáĥļ
áĥļ áĥĶáĥ¥áĥ¡
Ġáĥ¤ áĥĿáĥļ
Ġáĥ¤ áĥ£áĥłáĥĹáĥ£áĥĹáĥĲáĥ¡
áĥĺáĥ¢ áĥĺáĥ¨
áĥĿáĥ¢ áĥļáĥĲáĥľáĥĵ
ĠáĥĲáĥ® áĥĲáĥ¡áĥĺáĥĲáĥĹ
áĥĲáĥŃ áĥĲáĥłáĥĲ
ĠáĥĻáĥĿáĥĽáĥŀ áĥļáĥĶáĥ¥áĥ¡
ĠáĥĿáĥĻáĥĺáĥĲáĥľ áĥĶ
áĥĽáĥĲ áĥĲáĥłáĥĹáĥĲ
áĥĲáĥ¦ áĥĲáĥļáĥĲ
ĠáĥĹ áĥ£
áĥĶáĥļ áĥĶáĥ¤áĥĺ
áĥĶáĥ¢ áĥł
Ġáĥ¥áĥĺáĥĲáĥľ áĥĶáĥ¤áĥ¡
ĠáĥĴáĥķ áĥĺáĥľáĥĶ
áĥ£áĥĻ áĥĺ
ĠáĥĿáĥ¤áĥĺáĥªáĥĺ áĥĲáĥļáĥ£áĥłáĥĿ
Ġáĥĺáĥ¢ áĥĲáĥļ
ĠáĥĴáĥ£áĥł áĥĲáĥ¤áĥĲ
Ġáĥ¦áĥĲáĥľáĥĻ áĥĺáĥĹ
áĥĲáĥľ áĥĶáĥł
áĥĺáĥĽ áĥŀ
Ġáĥ¯ áĥĿáĥľ
Ġ- ----
ĠáĥĲáĥłáĥ ĳ
Ġáĥĺáĥ¡áĥ¢áĥĿáĥł áĥĺáĥĲáĥ¨
ĠáĥĴáĥĿáĥĽ áĥĿáĥłáĥ«áĥĴ
ĠáĥĻáĥĿáĥľáĥĴ áĥĿáĥ¨
Ġ áĥĲáĥľáĥ¯
áĥĲ áĥĲáĥłáĥĹ
áĥĺ áĥĲáĥ¬áĥĻáĥ·áĥĽáĥĲ
¬ áĥ£áĥĽ
áĥĺáĥľ áĥĲáĥļáĥĿ
ĠáĥĴ áĥĺáĥĿáĥ
ĠáĥĻáĥļáĥĲáĥłáĥ¯ áĥĶáĥĹáĥĺáĥ¡
Ġáĥ£áĥ¯áĥķáĥĶáĥ¨ áĥĲáĥ¨áĥĺ
ĠMen sch
s ei
Ġjewei ligen
inde stens
ĠEr k
min ister
Ġver z
ĠS uper
Ġganz en
ĠNutz er
à¹ģ à¸Ļ
la den
si dent
w issen
à¸ļ à¸¡
à¸Ħà¸§ à¸£
Ġan zu
ĠE st
l ass
deu tet
imm ung
k om
un ta
dig t
ne ten
Ġ à¸«à¸¡
ĠUr laub
mitt eln
à¸Ļ à¹Ģà¸Ķ
à ¨
h ilfe
7 1
beding ungen
I E
ĠW el
ĠMal ayalam
itu ation
Ġc un
ĠMÃ¶glich keiten
ĠF Ã¤l
à¸Ļ à¸Ħà¸£
% .
à¹Ģà¸¨ à¸©
and es
à´¶ à´¯
ĠB lack
à¹ĥ à¸ķ
i bl
ken nen
Ġbest ehen
ĠS P
Ġà´Ĩ à´µ
à¹Ģà¸ģà¸¡ à¸ª
à¸Ļ à¸«à¸Ļ
f r
de cken
ar s
Ġbel ieb
zei gt
ĠHaus e
Ġà´ª à´ķà´°
ei sen
weg s
ver stÃ¤nd
g liche
ĠT or
u z
Ġ à¸¨
ob o
ĠPriv at
à¸ĩ à¸Ĭ
Ã¤t zen
Ġein igen
Ã¶l ker
à´·à´£ à´¤
ĠS mart
v a
rei ten
. ).
Ġl os
ĠW ort
A G
uch te
à´§ à´°
à´¨à´® à´¨
Ð¾Ð» ÑĮ
ez ial
z te
ĠW ald
s a
Ġà¸ª à¸³à¸«à¸£
à´ĸ à´²à´¯
à¸¡ à¸²à¸¢
à¸Ļ à¹ģà¸¥à¸°
Ġpar te
Ġal te
ĠUm welt
as h
ÐµÐ ¹
Ġm er
ĠAut or
ĠSchwei z
gan iz
à´® à´ķ
ĠFlÃ¼ cht
ĠMon at
à¸Ķ à¸§
à¹Ħ à¸«à¸Ļ
c is
i ver
Ġh ai
Ġh ol
vers icherung
Ġh Ã¤ufig
Ġt reffen
ĠO s
ĠN r
Ð°Ð» ÑĮ
ĠS a
à¸Ī à¸Ī
ĠBl ut
ĠF ran
Ġgesp eichert
à¸¡ à¸Ń
1 12
à´µ à´ª
Ð½Ñĭ Ñħ
ĠDies es
Ġmitt ler
ĠC D
Ġen g
sp iele
ĠK Ã¶l
n a
Ġm indestens
Ġt h
ei den
R O
Ġgew orden
à¸Ļ à¹Ģà¸ŀ
ĠB al
w agen
Ġpo der
áĥĲáĥ¢ áĥĲ
áĥĲáĥ¨áĥ¥ áĥ·
Ġáĥ¥áĥĲáĥłáĥĹ áĥĺáĥ¨
ĠáĥĿáĥľ áĥĺáĥ¨
ĠáĥłáĥĶáĥļáĥĺáĥĴ áĥĺáĥ£áĥłáĥĺ
áĥĺáĥĽ áĥĲáĥ¤áĥĲáĥĹ
áĥĲáĥłáĥĴ áĥĲáĥļáĥĿ
ĠáĥĻáĥĺáĥłáĥ ĵ
áĥĲáĥĽ áĥĲáĥ¡
áĥĶáĥĳ áĥ£áĥĲáĥ¤áĥ£
ĠáĥĽáĥ£áĥ ¬
áĥĿáĥĽ áĥĺáĥ¨
Ġáĥ¡áĥ¥ áĥĺ
ĠáĥĻáĥĲáĥľáĥĻ áĥĲáĥļáĥĶáĥ¨áĥĲ
ĠáĥĴáĥ£áĥłáĥĲáĥ¤áĥ£áĥļ áĥĶáĥľáĥ¡
Ġáĥĵ áĥĿáĥĽáĥĺáĥľ
ĠáĥĴ áĥ£áĥłáĥĴ
áĥŀ áĥļ
áĥĺáĥłáĥ Ļ
áĥĲáĥª áĥĺáĥ£áĥļáĥĺ
Ġáĥª áĥĺáĥĻáĥļ
ĠáĥĽáĥĲáĥ¡ áĥ¥
ĠáĥĺáĥľáĥĴ áĥ£áĥ¨
ĠáĥłáĥĶáĥ¡ áĥ£áĥłáĥ¡
áĥĲáĥļ áĥĿáĥĳáĥĲáĥ¨
áĥĶáĥłáĥ Ļ
áĥĲáĥŀ áĥł
áĥĺáĥľáĥĶáĥĳ áĥĲáĥ¤áĥ£
áĥ£áĥ¢ áĥĺ
ĠáĥŃáĥĲáĥł áĥ£
ĠáĥĲáĥłáĥ¥ áĥĺáĥŀáĥĶáĥļáĥĲáĥĴ
Ġáĥ¨áĥ¢ áĥĿáĥłáĥĽ
ĠáĥĽáĥ£áĥĹáĥĽ áĥĿáĥ®
áĥĽáĥĿáĥ¡áĥĿáĥ¤ áĥĶáĥļáĥĺáĥ¨
Ġáĥĵ áĥĲáĥĳáĥĲáĥĵ
áĥ¢ áĥĿáĥĽ
Ġáĥ¡ áĥķ
Ġáĥ¤ áĥĺáĥĴ
Ġáĥĺáĥ ĸ
áĥ¬ áĥĲáĥľ
ik e
Ġáĥ¨áĥ®áĥķ áĥĶáĥ¤áĥĺ
ĠáĥĿáĥłáĥĵ áĥĲáĥ¡
Ġáĥ¡áĥĲáĥ¤áĥłáĥĲáĥľáĥĴ áĥĶáĥĹáĥĺáĥ¡
áĥĶ áĥĺ
ĠáĥĴ áĥĿáĥ¢
áĥĺáĥĿáĥ Ĺ
Ġáĥłáĥ ªáĥ®
ĠáĥĴáĥķ áĥĲáĥłáĥĿáĥĳáĥĲ
áĥķáĥĺáĥĹ áĥĲáĥł
ĠáĥĿáĥŀ áĥĶáĥł
áĥĺáĥ ©áĥ¥
ĠáĥĹ áĥĶáĥĽ
ĠáĥĽáĥ£áĥ¨ áĥĶáĥľáĥĵáĥ·
áĥĲáĥľáĥ¢ áĥĺ
Ġáĥĵáĥ£áĥĵ áĥ¡
Ġáĥ¡áĥĲáĥ¥ áĥķ
ĠáĥĲáĥľ áĥĳ
ĠáĥķáĥĺáĥĹáĥĿáĥ¨ áĥ¬áĥĲáĥľáĥ£áĥł
Ġáĥłáĥ©áĥ¥ áĥĲáĥļáĥĺ
Ġáĥ¥áĥĺáĥłáĥ¡áĥĶáĥĹ áĥ£áĥĹáĥĲáĥ¡
ĠáĥĽáĥ£áĥŁáĥĲáĥĽáĥª áĥ·áĥĹ
ĠáĥĽ áĥĶáĥĳ
Ġáĥł áĥĺáĥľáĥĲ
Ġáĥķ áĥĺáĥļ
áĥĲáĥ® áĥĲáĥ¡áĥĺáĥĲáĥĹ
ĠáĥĻáĥĲáĥļáĥĶáĥľáĥĵ áĥĲáĥłáĥĺ
Ġáĥ¥áĥĺáĥĲáĥľ áĥĶáĥ¤áĥĺáĥ¨
Ġáĥĵáĥĺáĥľ áĥĿáĥ®áĥĿáĥļáĥĶ
ĠáĥĴáĥĲáĥľ áĥ¨áĥĶ
Ġáĥ¦áĥĲáĥľáĥĻ áĥĺ
Ġáĥ¡ áĥĺáĥ¢
ĠáĥĻ áĥ£áĥ©áĥ®
áĥĲáĥľáĥĴ áĥĺáĥ¨
ĠáĥŀáĥĶáĥłáĥĺáĥĿáĥĵ áĥĺáĥ¨
k lei
Ġáĥ¡ áĥĶáĥ¥áĥ¡
ĠáĥĶ áĥ¢
amm lung
à´¤ à´ķà´³
194 4
Ġho hen
ri c
ĠEn gl
ĠH ig
ĠSonn tag
à¸ģ à¸ĭ
wei le
ĠN un
Ġer hÃ¶
ĠBes onder
hÃ¤lt nis
sicht lich
ĠN ational
9 4
à´¯ à´µà´¸
o f
ze p
Ġeben so
à¸ªà¸³ à¸Ħ
haus en
m ack
z eigen
Ġes p
Ġempf ehlen
Ġà´¸à´® à´¯
Ġa k
rei b
Ġv is
p ul
ol a
âĨ ĳ
Ġ( "
Ġvorh anden
ĠZ ent
à¹Ĥ à¸ģ
s ie
à´¯ à´£
à¸ļ à¸§
Ġà´ħà´± à´¸
tiv e
et a
Ġà¸ļ à¸²à¸Ĺ
16 0
à¸ļ à¸ľ
à´µ à´ļ
Ġl ib
à¸Ĭ à¸²à¸¢
ĠW est
ĠF Ã¶rder
le g
Ġ !
ĠA ir
ax e
zent r
k ur
ĠBeh andlung
Ġfin anz
f o
8 00
ĠW etter
Ġbe ste
Ġe v
lieÃŁ lich
____ ____
à´± àµ¼
Ġ Ã³
Ġt ro
as che
àµ Į
ĠAn aly
te x
Ã¤l ter
à´°à´® à´²
rin k
ĠB ahn
A D
ĠA f
ra gt
ĠÃ¼ber haupt
Ġgr und
à´¯à´¤ à´¯
ett be
ÑĢ Ð°Ð
ation alen
Ġm e
sch au
à´¦ à´¤
ĠStra ÃŁe
Ġperso as
ĠD re
Ġh e
à¸²à¸§ à¸Ļ
ĠGeb urt
ĠS c
Ġaus zu
ig ur
u c
ohn t
Ġge d
w altung
zieh ung
ĠR ichtung
ell es
ĠTeil nehmer
In nen
Ġge eignet
reu de
à¸Ńà¸° à¹Ħà¸£
sp rÃ¼
en cia
ĠK ategor
Ġbr ingt
u al
ĠFrÃ¼ h
à¸ģà¸²à¸£ à¸Ĺ
ĠR ot
eh e
Ġà´¤ à´ķà´°
schl Ã¤
Ġor ganis
ĠKin dern
à¸Ľ à¸ı
st ieg
ĠK olle
T he
à¸Ķ à¸£
Ã¶s ungen
Ã¼r f
àµĭ à´Ĥ
Ġm ell
ele gen
à¸§ à¹Ģà¸Ńà¸ĩ
ĠB ran
ĠBesuch er
à¹ĥ à¸ļ
Ñ Ħ
ob ei
ĠSch ule
Ġent fern
Ġac tu
m lich
Ø§Ø ª
ĠSam stag
t el
ĠFar be
ĠáĥĴáĥł áĥĺáĥŀáĥĺáĥ¨
Ġáĥ¯áĥĲáĥ¡áĥ¢ áĥĺáĥľ
Ð²Ð¸ ÑĢ
ĠáĥĲáĥ© áĥĶáĥ°
ĠáĥĴ áĥĲáĥŃáĥ§
Ġáĥ¬áĥ§ áĥ£áĥĶáĥ¤áĥ¡
ĠáĥŁ áĥĲáĥĽáĥ¡
ĠáĥĲáĥļáĥĲáĥĸ áĥĺáĥĽáĥĲáĥ¤áĥĲáĥĹ
Ġáĥķ áĥĶáĥ¡áĥ¢
áĥĿáĥ¡ áĥ¤
ĠáĥľáĥŃ áĥĲáĥ¤
Ã³n s
Ġáĥĵ áĥĿáĥ¨
áĥĲáĥļ áĥ·
áĥĽ áĥĲáĥłáĥĺáĥľáĥ£
áĥ¡ áĥ®áĥ£áĥľ
Ġáĥ¡ áĥĶáĥļ
áĥĿáĥļ áĥĵ
Ġáĥ¥ áĥĺáĥĵ
áĥĲáĥª áĥĺáĥĶáĥ¤áĥĺ
ĠáĥĲáĥļ áĥĻ
Ġáĥ¯áĥĿáĥ® áĥĿáĥ¨
ĠáĥĽáĥ£áĥŃ áĥĿáĥĽ
ĠáĥĿáĥĿáĥłáĥ£ áĥĶáĥ¨
ĠáĥĻáĥĿáĥĻ áĥĶáĥ¤áĥ¡
ĠáĥĽáĥĶáĥľáĥªáĥĲáĥł áĥ£áĥļáĥĺ
ĠáĥĶáĥŀ áĥĿáĥ¥
Ġáĥ£áĥĺáĥļáĥĺ áĥĲáĥĽ
Ġáĥĵ áĥĺáĥŃáĥ§
Ġáĥľ áĥĿáĥ¸
Ġáĥ¡ áĥłáĥ£áĥļ
áĥĺáĥ£ áĥľ
ĠáĥĲáĥĻ áĥĺáĥ¥áĥĺáĥĽáĥĺáĥľáĥ·
áĥĿáĥĵ áĥĴáĥ·áĥĽ
áĥĶáĥķ áĥłáĥĿáĥŀ
ĠáĥĴ áĥĿáĥĻ
ĠáĥĻ áĥĿáĥł
áĥĴ áĥĲáĥłáĥĵ
áĥĵáĥĺáĥĵ áĥĺ
Ġáĥ¡áĥĲáĥ®áĥĶáĥľáĥ¬áĥ·áĥ¤áĥĿ áĥĶáĥ¤áĥĺáĥ¨
ĠáĥŀáĥĿáĥļ áĥĿáĥľ
Ġáĥłáĥ©áĥ¥ áĥĺáĥľáĥĲáĥ¨
à´Ĩ à´°
Ġáĥ¥áĥķ áĥĺáĥ¨
ĠáĥĵáĥĲáĥŃáĥ§ áĥĲáĥ¤áĥ£
ĠáĥĲáĥĽáĥ¨ áĥķáĥĺ
Ġáĥ¯áĥĲáĥłáĥĲáĥļáĥ£ áĥĲáĥ¨
ĠáĥĲáĥĶáĥłáĥĿáĥŀáĥĿáĥłáĥ¢ áĥĺ
Ġáĥ¢áĥĶáĥĽáĥŀáĥĶáĥłáĥĲáĥ¢ áĥ£áĥłáĥĲ
ĠáĥķáĥĺáĥĵáĥĶ áĥĿ
Ġáĥ¢áĥĿáĥĽáĥĳ áĥĲ
ĠáĥĲáĥ®áĥĲáĥ¡áĥĺáĥĲáĥĹ áĥĶáĥľáĥ¡
Ġáĥĵ áĥĲáĥ©
áĥĽ áĥĶáĥļ
ĠáĥĴ áĥĺáĥ¤
ĠáĥĿáĥ ¦
ĠáĥĲáĥ «
ĠáĥĽáĥ£áĥ ¥áĥ·áĥĹ
ĠáĥĽáĥĿáĥłáĥ ¡áĥ®áĥ£
ĠáĥĶáĥĻáĥĶáĥľ áĥĺáĥĲáĥ¡
ĠáĥĲáĥļáĥĽáĥĲáĥ® áĥĲáĥľáĥ£áĥłáĥĺ
Ġeur op
Ġáĥĺáĥ£áĥľ áĥĶáĥ¡áĥĻ
Ġáĥ¡áĥĺáĥĵ áĥĺáĥĵ
ĠáĥĽ áĥĿáĥ¬
ĠáĥĽ áĥĲáĥłáĥ¢
Ġáĥĵ áĥĿáĥ¥
áĥł áĥĶáĥ¢
ĠáĥĻ áĥĲáĥłáĥļ
áĥĶáĥł áĥĺáĥĲ
áĥĿáĥĳ áĥĶáĥ¤áĥ¡
Ġáĥ¯ áĥĺáĥļáĥĵ
ĠáĥĲáĥĻ áĥĿáĥĴ
ĠáĥĿáĥĻ áĥĲáĥĹáĥĶ
áĥĲáĥŀ áĥĺáĥ¯
áĥĲáĥĻáĥĶáĥłáĥ« áĥĲáĥ¤áĥĺáĥļáĥĺ
ĠáĥĻáĥķáĥĺáĥłáĥĻáĥķ áĥĶáĥ¡
ĠÃĦ n
Ġáĥ¡áĥĲáĥĽáĥĲáĥľáĥĴ áĥĲáĥĹ
Ġáĥŀáĥłáĥĺáĥľáĥª áĥĺáĥŀ
ĠáĥĲáĥļáĥĶáĥ¥áĥ¡ áĥĲáĥľáĥĵ
áĥĲáĥĽ áĥ£áĥ¨
áĥĶáĥĳ áĥĶáĥ¤áĥ¡
áĥĺáĥĶáĥł áĥĲ
áĥĶáĥłáĥ« áĥľ
ĠáĥĴ áĥĿáĥľ
áĥĺáĥ£ áĥĽ
áĥ£áĥľáĥ Ĵ
ĠáĥĴáĥ·áĥĽ áĥĿáĥ®áĥĲáĥľáĥ¢
áĥĲáĥļ áĥ¥
Ġáĥĵ áĥ£áĥľ
áĥĺáĥ¡áĥ¢ áĥ£áĥł
áĥĻáĥļ áĥĲáĥłáĥ¯
r ar
ĠáĥĲáĥłáĥĸ áĥĺáĥĹ
Ġáĥ¢áĥĿáĥĽ áĥĿ
Ø ¨
Ġeinzel nen
ĠP al
à¸Ń à¹Ħà¸Ľ
à¸Ļ à¹Ħà¸¡
T C
Ġges ehen
Ġb o
ĠK urz
Ġa x
Ġà´Ĵ à´±
ĠStu di
Ġà´® à´ķ
z ig
ĠErgeb nis
rei bung
ĠW o
ĠJ ohn
ĠU N
Ġverb unden
c m
Ġà¸£ à¸§à¸¡
ĠAngeb ote
Ġall ein
Ġà´ķ à´¨
à¸Ń à¸ľ
ä ¸
Ġangeb oten
à¸³ à¸«à¸Ļ
ĠI P
Î ¯
er klÃ¤rung
s eiten
ĠFar ben
197 8
wor ten
à¸²à¸Ī à¸²à¸ģ
Ã¤ ischen
199 3
ĠL Ã¶
P l
ĠVor aus
a ktion
ĠschÃ¶n e
H ier
Ġn immt
Ġsp ann
ho ben
ĠS u
à¸Ļ à¹Ģà¸£
ĠR ed
Ġjem and
196 2
à¸²à¸« à¸¥
ĠA uss
ges ehen
is h
à¸ĩ à¸¢
Ġwar um
ĠVer k
ĠW ik
Ġbe deutet
in k
ĠAus bildung
ĠAl ter
ĠStra ÃŁen
à¸ĩ à¸Ńà¸¢
Ġas ÃŃ
Ġs a
Ġin tegr
z ir
ĠV II
à¸« à¸į
8 7
àµģ ;
Ġac tiv
mÃ¶ glichen
Ġà´¶ à´¤à´®
à¹Ģà¸ ľ
ĠKir che
Ġm ax
Ġ ðŁ
Ġà´ħà´µ à´¤à´°
20 19
zu stellen
ag s
Ġer mÃ¶glich
riff t
alis ierung
ĠS oll
own load
à¸£à¸° à¸«à¸§
ch mal
à´¯ à´µà´°
ge fÃ¼hrt
e cht
re ten
ĠT a
196 1
ĠUnivers itÃ¤t
P h
ĠA ktiv
st at
à¸Ńà¸Ļ à¸Ļ
à¸ĩ à¹Ħà¸Ķ
à¹Ģ à¸Ńà¸ģ
Ð ĺ
à´£ à´±
Ġd adurch
à¸ķ à¸Ļ
à´· à´ķà´°
gel d
ĠB is
lin gen
à¸ª à¸Ńà¸ļ
Ġbra ucht
Ġsel ten
à¸³ à¸£
Ġà´ª à´¨
Ġ% ).
ber t
Ġbe ant
à¸ĩ à¸²à¸¡
b ol
9 2
rit er
Ġneu es
Ġde st
ver ein
Ġh Ã¤lt
Ã¤ den
rÃ¤ ger
ĠLeist ung
à´ķ à´¸
ch ter
Ġkl ass
198 9
Ġvor bei
à¸ŀ à¸²à¸°
Ã ĥ
Ġà´¬ à´¹
s ichtig
ĠG et
Ġà´ĩ à´Łà´ª
st u
áĥľ áĥĺáĥ£
Ġáĥķ áĥĺáĥł
Ġáĥ¢ áĥķáĥĺáĥľáĥĺáĥ¨
Ġáĥ° áĥĺáĥ¢
Ġáĥĺáĥľáĥ¡áĥ¢áĥł áĥ£áĥĽáĥĶáĥľáĥ¢
ĠáĥĽáĥĺáĥļ áĥĺáĥĿáĥľáĥ¨áĥĶ
Ġáĥ° áĥĲáĥļ
ĠáĥĻáĥļ áĥĲáĥķ
ĠáĥĻáĥĲáĥľ áĥĲáĥĵáĥĲáĥ¨
ĠáĥķáĥĺáĥĻ áĥĺáĥĽáĥĶáĥĵ
Ġáĥĳ áĥĺáĥĿáĥļáĥĿáĥĴ
Ġáĥ¨ áĥĲáĥłáĥĲáĥ¨
Ġáĥ¤áĥĺáĥļ áĥĺáĥŀ
ĠáĥŀáĥłáĥĶáĥĽ áĥĺáĥĲáĥ¨
ĠáĥĲáĥĽáĥĵáĥ¦ áĥĲáĥłáĥ¨
ĠáĥĶáĥ¡áĥŀáĥĲáĥľ áĥĶáĥĹáĥĺáĥ¡
à¸łà¸²à¸¢ à¹ĥà¸Ļ
áĥĲáĥĵ áĥķáĥĲáĥļáĥ£
áĥļ áĥĲáĥ¨
áĥĶáĥĳ áĥ£áĥľáĥĲ
áĥĿáĥľ áĥĺáĥĲáĥ¡
Ġáĥ¤ áĥ£áĥłáĥĺáĥľáĥ¯
Ġáĥĺáĥľáĥĵ áĥ£áĥłáĥĺ
ĠáĥĽáĥĲáĥ®áĥĿáĥł áĥĿáĥĳáĥĲáĥĹ
Ġáĥĺáĥłáĥ Ĺ
Ġáĥľáĥ Ĺ
ĠáĥĽáĥĿáĥ® áĥķ
ĠáĥªáĥĶáĥľáĥ¢áĥł áĥĺáĥ¡
ĠáĥĵáĥĲáĥĽ áĥ£áĥ¨
Ġáĥĺáĥľáĥ¡áĥ¢áĥĺáĥ¢áĥ£áĥ¢ áĥĺáĥ¨
ĠáĥķáĥĺáĥĻáĥĺáĥŀáĥĶáĥĵ áĥĺáĥĲáĥ¨
ĠáĥĴ áĥĶáĥ©
Ġáĥľ áĥĲáĥĹ
áĥĶáĥł áĥĶáĥľáĥª
Ġáĥķ áĥĲáĥłáĥ
Ġáĥ¥ áĥĿáĥĹ
áĥĺáĥĿáĥ ¢
Ġáĥ® áĥĿáĥłáĥª
ĠáĥĻáĥĿáĥľáĥ ¡
ĠáĥĿáĥ¡ áĥ£áĥłáĥ¦áĥĿáĥłáĥĿáĥľáĥĹ
ĠáĥĴáĥĲáĥĽ áĥľ
Ġáĥłáĥ¨ áĥķáĥĺáĥļáĥĺ
ĠáĥĻ áĥĲáĥĳ
ĠáĥĻ áĥĶáĥłáĥ«
áĥĺáĥļ áĥĿáĥĳáĥĲáĥ¨
áĥĺáĥĿáĥ ĳ
Ġáĥĵáĥ£áĥĵ áĥĲáĥļáĥĲáĥĹ
áĥĺáĥľáĥĵ áĥĿ
Ġáĥ¡áĥĲáĥ¥áĥĿáĥłáĥĹáĥ£ áĥĿ
Ġáĥ¡áĥ¢ áĥĲáĥľáĥĵáĥĲáĥłáĥ¢
ĠáĥĻáĥĲáĥľ áĥĿáĥľáĥ
ĠáĥĴáĥķáĥĶáĥłáĥĵ áĥĿ
ĠáĥĽáĥĲáĥłáĥĹ áĥļ
ĠáĥĵáĥĿáĥĻ áĥ£áĥĽáĥĶáĥľáĥ¢
ĠáĥĲáĥłáĥ¡áĥĶáĥĳ áĥĶáĥľáĥ¡
áĥĺáĥĿáĥĴ áĥłáĥĲáĥ¤
ĠáĥĽáĥĺáĥ¨áĥĲáĥ¦áĥĲáĥļ áĥĺáĥłáĥĺ
áĥ¢ áĥĶáĥł
áĥ¥ áĥ£
áĥĲáĥ¸ áĥ£áĥłáĥĶáĥ¨áĥĶ
ĠáĥĶáĥļ áĥĲáĥ®
ĠáĥĽáĥĺáĥĹ áĥĿáĥļáĥĿáĥĴáĥĺáĥĲáĥ¡
ĠáĥĽáĥĲáĥ¸ áĥĲáĥļáĥĶ
Ġáĥ¤áĥĺáĥĸ áĥĺáĥĻáĥĲáĥ¨
ĠáĥŀáĥłáĥĿáĥĶáĥ¥áĥ¢ áĥĺáĥ¨
ĠáĥĽ áĥĺáĥļáĥĺ
áĥķ áĥĺáĥ¡
ĠáĥĹ áĥĶáĥ¡
áĥĺáĥļ áĥĶáĥ¤áĥĺ
Ġáĥŀ áĥĿáĥ¡áĥ¢
áĥĴ áĥł
Ġáĥķ áĥĲáĥłáĥĺ
áĥĶáĥľ áĥĺáĥĹ
áĥĿáĥ¦ áĥĲáĥļáĥĶ
Ġáĥ¸ áĥĺáĥľáĥĺáĥ¨
áĥķáĥĲáĥł áĥĲáĥĹ
ĠáĥŃáĥĲáĥł áĥ£áĥĲ
ĠáĥĻáĥł áĥĺáĥ¡áĥ¢
ĠáĥĴáĥ£áĥĽ áĥľáĥĲáĥ¦
ĠáĥĲáĥłáĥ¥áĥĺáĥ¢ áĥĶáĥ¥áĥ¢áĥ£áĥł
áĥĺ áĥĲáĥłáĥĺ
áĥĲáĥľ áĥĶáĥ¤áĥ¡
áĥł áĥĲáĥĺáĥľ
áĥĺáĥľáĥĵ áĥĺ
Ġáĥĺáĥłáĥ ¤
áĥĺ áĥĲáĥĻ
áĥĶ áĥĺáĥĽ
áĥĿ áĥĶáĥ¤áĥĺ
ĠáĥĻ áĥĿ
ĠáĥĻ áĥĿáĥłáĥ
áĥĲáĥĵ áĥĶ
Ġáĥĳ áĥĲáĥĴ
áĥĺáĥł áĥĲáĥ¡
áĥĲáĥ¥ áĥĺáĥĽ
Ġáĥ¥áĥĺáĥĲáĥľ áĥĶáĥ¤áĥĺ
Ġáĥ¬áĥ§áĥĲáĥłáĥĽáĥĲáĥļáĥ£ áĥĶáĥ¤áĥĺ
ĠáĥĲáĥĸ áĥĺáĥĲáĥ¨
ĠáĥĽáĥĲáĥľáĥĴ áĥĺáĥ¡
ĠáĥĽáĥĿáĥł áĥĲáĥĴáĥĲáĥĵ
ĠáĥłáĥĲáĥľáĥ¬ áĥĻ
áĥĿáĥļ áĥĶáĥľáĥĺ
áĥľ áĥĺáĥ¨
áĥ£áĥľ áĥ£
áĥĲáĥĴ áĥĶáĥľáĥ¢
Ġáĥķ áĥĺáĥ¢áĥĲáĥĽ
áĥ£áĥĵ áĥ£
ĠáĥĲáĥłáĥ¢ áĥĺáĥ¡áĥ¢
ĠáĥĶáĥ¨ áĥĲáĥľ
áĥķáĥĶ áĥĺáĥª
Ġáĥ¤ áĥĺáĥľ
ĠáĥĻáĥĲáĥĹ áĥĲ
áĥ£áĥłáĥ ¢
Ġend lich
ĠáĥļáĥĶáĥłáĥ¡ áĥĺáĥĻ
Ġà´Ĩ à´²
à¹ģ à¸Ķ
b ringen
ĠBas is
à´³ à´¨
Ġà´ķ à´Łà´¨
à¸² à¹Ģà¸£
ion s
ĠD inge
199 5
9 7
reu z
Ð° ÑĢ
à´± à´£
Ð¾ Ð½
? ?
à´µà´° à´Ļ
Ġà¹Ģà¸Ħ à¸£
den ten
de te
all s
ĠK or
ĠBÃ¼ cher
8 6
ĠL iter
ĠF en
ĠwÃ¼r den
à¹ģ à¸Ī
à´° à´Ń
lin ge
196 7
ĠÐ ľ
ĠJahrh undert
Al le
Ġà´¸ àµ¼à´ķ
ĠUn sere
-- -
ĠRestaur ant
Ġf and
Ġgeh Ã¶ren
ĠF el
b Ã¼
Ġso gen
ĠSt ein
ĠD ok
ier ter
att form
à¸ĩ à¸ļ
fl uss
Ã¼ss el
p el
Ġd ÃŃa
à¸ģ à¸Ħà¸£
ĠVerb rauch
ĠPerson al
ff e
ĠC he
ĠEr st
Ġà´® à´¦
at o
I C
ĠJ etzt
richt ungen
Ġfol genden
ĠFr eitag
ĠW ieder
Ġa f
ĠPe ter
g arten
pr ess
ĠHer aus
O S
zent rum
ĠverfÃ¼ g
ei x
à´ ĵ
à¸²à¸ģ à¸²à¸¨
ĠWeiter e
alt ungen
ap an
U R
s Ã¤tz
Ã¶ff net
mÃ¶glich keiten
ĠSt ellen
s ent
Ġf Ã¼hl
ĠG ott
Ġsel ber
Ġon de
ĠIn vest
zeu ge
Ġm ai
d os
ĠWind ows
am es
à´ª à´³
ach er
à¸« à¸¢
à¸²à¸ĩ à¸§
ĠFol ge
ĠSon nen
àµįâĢį :
à´¤ à´¨à´Ļ
b a
ĠEnt wick
ĠunterstÃ¼t zen
te chnik
zahl en
ĠE ro
ik o
v iew
Ġà´ī à´¨
ĠØ§Ù Ħ
ĠIhr es
k ungen
à¸ Ĩ
r olle
ul ti
ĠD etail
zahl ung
ĠK an
Ð¸ Ñģ
ĠH y
el o
àµ½ à´¨
ĠF ehler
à¹ģ à¸ª
inde st
ĠC ont
Ã± en
ĠSe k
195 5
al es
Ġver d
Ñģ Ð¿
Ï Ħ
ĠS icht
à¸Ńà¸ģ à¸Īà¸²à¸ģ
ic aciÃ³n
Ġà¹Ģà¸ Ĺ
ĠSch ritt
B e
ĠermÃ¶glich t
ur f
Ð¾Ð»ÑĮ Ð·
áĥĲáĥĻáĥĲáĥĹ áĥĲáĥ¤
ĠáĥĶáĥ¡ áĥ¥
ĠáĥĳáĥĲáĥĸ áĥĲáĥ¡
áĥľáĥ ¯áĥĲáĥłáĥĺáĥ¨
ĠáĥĽáĥĺáĥĻ áĥĽ
Ġáĥłáĥ¡ áĥ£áĥļáĥĺ
Ġáĥ¥áĥĿáĥłáĥĹáĥ£ áĥĶáĥ¤áĥĺáĥ¨
Ġáĥ¬áĥ·áĥĽáĥĽáĥĲáĥł áĥĺáĥľáĥĲáĥ¤áĥĲáĥļáĥĺ
áĥ° áĥĲáĥķ
ĠáĥĴ áĥĶáĥľáĥ
áĥķ áĥĲáĥľáĥĺ
áĥĺáĥł áĥĶáĥ¤áĥĺ
Ġáĥŀ áĥĺáĥ¢
áĥĶáĥłáĥ ®
áĥĲáĥ¢ áĥĶáĥ¤áĥĺ
Ġáĥ° áĥĶáĥł
Ġáĥĺáĥ¸ áĥ£áĥĲáĥ¡
ĠáĥĴáĥķáĥĲáĥļ áĥĶáĥ¤áĥĺ
áĥĿáĥªáĥ® áĥĲáĥĵ
ĠáĥłáĥĿáĥĽ áĥ¡
ĠáĥĸáĥĿáĥ®áĥĿáĥłáĥĺáĥľ áĥĲáĥļáĥĲ
Ġáĥ¡áĥĲáĥł áĥĿáĥ¢
ĠáĥĳáĥĶáĥłáĥ«áĥĶáĥľ áĥ£áĥļáĥĺ
ĠáĥĽáĥĿáĥĴáĥķáĥĺáĥĲáĥľ áĥĲáĥ¤áĥĲáĥĹ
Ġáĥ¨ áĥĲáĥłáĥĲáĥĹ
ĠáĥĿ áĥĲáĥłáĥĹáĥĶ
ĠáĥĻáĥĿáĥĽ áĥĶáĥłáĥª
Ġáĥ¨áĥĶáĥļáĥĶáĥĳáĥ£ áĥĲáĥľáĥĺ
ĠáĥĲáĥ° áĥĽáĥĲáĥĵ
¦ áĥķ
ķ áĥĶáĥĴ
ĠáĥĴ áĥĿáĥľáĥ¬áĥ§
áĥĲáĥł áĥĶáĥ¡
ĠáĥĻ áĥĲáĥĻ
áĥĲáĥ® áĥ£
áĥ£áĥļ áĥĲáĥĹ
áĥĶáĥľ áĥ£áĥłáĥĺ
Ġáĥ© áĥĺáĥļáĥĿ
Ġáĥ¸ áĥ£áĥĵáĥĶ
ĠáĥĽáĥĿáĥ® áĥķáĥĲáĥļáĥĲáĥĽ
ĠáĥĴáĥ·áĥľ áĥĿáĥŃáĥ§
ĠáĥŀáĥłáĥĿáĥķáĥĺáĥľáĥª áĥĺáĥĶáĥ¤áĥĺ
ĠáĥĲáĥļáĥĽ áĥĲáĥ¡áĥ¥
ĠáĥĿáĥĻáĥĺáĥĲáĥľ áĥĶáĥ¡
Ġáĥ¯áĥĺáĥĽ áĥĲ
áĥĽáĥĲáĥĵ áĥĺáĥĵ
Ġáĥ¬áĥ§áĥĲáĥł áĥĺáĥĹ
áĥĽáĥĲáĥ® áĥĿáĥł
Ġáĥ¡áĥĿáĥªáĥĺ áĥĲáĥļáĥ£áĥłáĥĺ
Ġáĥłáĥ©áĥ¥áĥķáĥĲáĥľáĥĶáĥļ áĥĿáĥĳáĥ£áĥłáĥĿ
Ġáĥ£áĥ¨áĥ¥ áĥ£áĥłáĥĲáĥľáĥ¯
ĠáĥĽáĥĲáĥłáĥĹáĥļ áĥĽáĥĲáĥĵáĥĺáĥĵ
áĥķ áĥĺáĥ¨
áĥĺáĥĲáĥľ áĥĿ
Ġáĥĺáĥľáĥ ¬
áĥłáĥ Ĺáĥ®
ĠáĥĴáĥĺáĥĽ áĥĶ
ĠáĥļáĥĶáĥĴ áĥĶáĥľáĥĵ
áĥĲáĥļ áĥĶáĥ¤áĥ¥
áĥĺáĥľ áĥĲáĥ¤áĥĺáĥļáĥĺ
áĥĲáĥ¤ áĥĶáĥ¤áĥĺ
Ġáĥ¨ áĥĿáĥ¢áĥļáĥĲáĥľáĥĵ
áĥĺáĥĲáĥľ áĥĲ
Ġáĥ¨áĥ¢áĥĲáĥ¢ áĥĶáĥ¤áĥ¡
Ġáĥ©áĥ® áĥĶ
ĠáĥĲáĥĵáĥĽáĥĺáĥľáĥĺáĥ¡áĥ¢áĥłáĥĲáĥª áĥĺáĥ£áĥļ
ĠáĥĵáĥĿáĥ®áĥĿáĥł áĥĶ
Ġáĥ¥áĥ·áĥĵ áĥĺáĥŃáĥ§áĥ·
áĥ£áĥľáĥĵ áĥĶáĥ¡
Ġáĥ£áĥĻáĥ£áĥļ áĥľ
Ġáĥ¬áĥ·áĥĽáĥĿáĥ« áĥĺáĥľ
ĠáĥĻáĥĲáĥĽ áĥŀ
ªáĥ®áĥ£áĥĲáĥ¤ áĥĺáĥļáĥĺ
ĠáĥŃáĥĺáĥĹ áĥĲ
áĥĲáĥłáĥ ¡áĥ®
áĥĽ áĥ£áĥ¨
áĥĲáĥĹ áĥ·
áĥĶáĥłáĥ ©
áĥĿáĥ® áĥĺáĥ¨
Ġáĥ© áĥĺáĥļáĥĺ
Ġáĥ¬áĥ·áĥĽáĥĲáĥłáĥĺáĥľáĥ£ áĥĲáĥľáĥĵáĥ·
ĠáĥĶáĥłáĥ£áĥĲáĥľ áĥ£áĥļ
áĥĶáĥĵáĥ· áĥĻáĥĿ
áĥĺáĥ¸ áĥĿáĥľáĥ·
ĠáĥĻáĥĲáĥłáĥĺáĥĶáĥł áĥĲ
ĠáĥľáĥĲáĥĽ áĥĵ
Ġáĥķ áĥĶáĥĴ
Ġáĥ® áĥĲáĥĸ
Ġáĥ® áĥĲáĥ¡áĥĺáĥĲáĥĹ
áĥ£áĥ¨ áĥĿ
áĥĲáĥĺ áĥĸ
ĠáĥĻáĥĲáĥļ áĥĺáĥ¤áĥĿáĥłáĥľ
Ġáĥ¯áĥĺáĥľáĥ¯ áĥĺáĥĶáĥłáĥĿ
ĠáĥĴáĥĶáĥŃ áĥĿáĥ¤
ĠáĥĳáĥĲáĥĴ áĥłáĥĲáĥ¢
Ġáĥ¡ áĥ£áĥļ
ĠáĥĴáĥ·áĥĽ áĥĿáĥłáĥ
áĥĲáĥľáĥ¯ áĥĶáĥļ
áĥĶáĥ¤ áĥ¨
à¸ĩ à¸Ī
áĥĴ áĥĲáĥł
Ġáĥĺáĥľáĥ¢ áĥĶáĥłáĥĶáĥ¡
ĠáĥĴáĥĿáĥ®áĥĿáĥļ áĥ£áĥĲáĥ¡
Ġáĥ¯ áĥĲáĥłáĥĺáĥ¨
áĥľáĥ ĵáĥ·
ĠáĥĽáĥĲáĥłáĥĻ áĥķ
ĠáĥĽ áĥĲáĥłáĥ¥
ĠáĥłáĥĶáĥ¤ áĥĿáĥłáĥĽ
áĥĺáĥ °
Ġáĥķ áĥĲáĥ®
Ġáĥļ áĥĿáĥĴ
ĠáĥĶáĥľáĥªáĥĺáĥĻáĥļáĥĿáĥŀáĥĶáĥĵ áĥĺáĥĲ
ĠB ern
à¸ļ à¸²à¸¢
ĠVer kauf
ĠBer atung
ĠP C
ĠAuÃŁer dem
ĠSch Ã¶n
Ġkompl ett
Ġb ist
à¹ĥ à¸Ķ
is iert
Ġj unge
Ġgew esen
à¸ª à¸ĸà¸²à¸Ļ
Ġins gesamt
Ġà¸ģ à¸£à¸°
Ġde fin
anz Ã¶s
schlieÃŁ end
à¹Ģà¸Ħ à¸¢
h ann
an c
Ġa ÃŃnda
z ul
Ã¤ ss
G B
ug ar
à¹Ģà¸ī à¸ŀà¸²à¸°
à¸ķà¸£ à¸§à¸Ī
à´· à´ķ
ĠDa zu
ĠKÃ¶n ig
l etter
ĠIde en
Ġunser es
ĠunterstÃ¼t zt
eg a
à¸Ń à¸ĸ
ĠG leich
Ð° Ð½
à¸ģ à¸Ļ
Ã³ x
ab y
c or
Î¿ ÏĤ
Ġc ando
G r
ĠH ome
Ġpro blem
à¸ļ à¸Ħà¸§à¸²à¸¡
lei sch
Ġautomat isch
à¸² à¹Ħà¸Ķ
à¸Ķ à¸¥
Ġc ent
ĠA mer
à´ķ àµ½
Ġb y
à¸²à¸« à¸Ļ
à¸Ńà¸¢ à¸²à¸ģ
ĠVide os
Ġhtt ps
Ġgem Ã¤ÃŁ
ã Ģ
P S
ennt nis
7 7
leist ungen
end o
Ġà´ªà´° à´¸
i Ã±
au st
Ġmes mo
ĠM icro
197 4
ĠD ich
un to
àµĩ ,
ĠÃ¼ber n
ĠcoÃ± ec
ktiv e
à¸²à¸ĩ à¸Ĺ
Ġl ernen
so ft
à¹ģ à¸£à¸ģ
ann e
ĠV ari
Ġtats Ã¤chlich
à¸ģà¸£ à¸¡
ir m
ĠInter essen
ag o
S h
on te
Ġz ehn
sp ar
eh Ã¶r
Ġà´ª à´°à´®
Ġsch eint
à¹ĥ à¸ģà¸¥
ĠW unsch
àµ¼ à´ª
ann en
ĠSt ell
iv en
Ġà¹Ģà¸ Ī
ĠpersÃ¶n lichen
og ra
Ġf a
ĠComp uter
199 8
à¸Ĥà¸Ńà¸ĩ à¸Ħ
Ġlin ks
Ġà¸Ľà¸£à¸° à¸ģ
it as
Ġkein er
Ġer reicht
Ġf ot
edi a
f le
ĠE ben
ĠT itel
ĠÐ »
deut ung
ĠP fl
Ð° Ð½Ð¸
Ð°Ð ¿
ot ter
ĠO der
ĠM art
à¸Ļ à¸¥
ĠM Ã¶
sk i
ger icht
ix o
à´µ à´³
s ein
Ġtem po
à¹Ģà¸Ĺ à¸ŀ
;; ;;
à¹ģ à¸£à¸¡
à¸ĩ à¸«à¸¡à¸Ķ
à´¸ à´²
à¸ļà¸£ à¸£
H er
ĠMen ge
ĠAl ler
Ġe hem
jÃ¤hr ige
i ciÃ³n
Ġf ahren
schlie ÃŁen
197 2
chn ung
ĠMon ate
Ġal g
ĠI T
âĢ¦ .
Ð¾Ð ¼
fer enz
rÃ¤ fte
imm ungen
Ġà¹ģ à¸¡
ĠâĢ ķ
ĠI tal
schaft s
ĠSch laf
à¸«à¸¥ à¸§à¸ĩ
ĠWor ld
Ġbek ommt
Ġvergangen en
ang er
Ġgen ug
7 4
c ar
ĠMar vel
Ġà´¨ à´µ
Ġs h
ĠIde e
Ġà´µ à´¯à´¸
à¸Ń à¸ŀ
al if
leb nis
Ġáĥĵ áĥķ
ĠáĥĲáĥĳ áĥłáĥĶáĥ¨áĥ£áĥĽáĥĺáĥ¨
Ñı ÑĨ
ĠÐ¼ ÐµÑģ
Ġáĥ¢áĥĶáĥ¡ áĥĶáĥł
Ġáĥ¢áĥĶáĥ¡ áĥ¢áĥ£áĥł
ĠÐ¼ÐµÑģ ÑıÑĨ
Ġáĥĳ áĥ£áĥ¨
Ġáĥĳ áĥ£áĥłáĥĴ
Ġáĥķ áĥĲáĥŃáĥĲáĥł
ĠáĥķáĥĶáĥľ áĥĶáĥª
ĠáĥĺáĥłáĥļáĥĲáĥľáĥĵ áĥĺáĥ£áĥłáĥĺ
Ġáĥĵ áĥĲáĥłáĥĳ
Ġáĥľ áĥĲáĥľáĥĲ
Ġáĥ¡ áĥĺáĥ£
Ġáĥ¡ áĥĺáĥľáĥĴ
áĥ¢áĥł áĥĿáĥŀ
ĠáĥĽáĥĶáĥ¢ áĥł
ĠáĥĿáĥ®áĥķáĥĲáĥĽ áĥĶáĥ¨
ĠáĥľáĥĿáĥłáĥ Ļ
Ġáĥ£áĥ¯áĥķáĥĶáĥ¨ áĥĲáĥ¨
ĠáĥĽáĥĺáĥĿáĥĴ áĥĿáĥłáĥ£
ĠáĥŀáĥĲáĥļ áĥĲáĥ¢
ĠáĥĿáĥ®áĥķáĥĺáĥļ áĥ£áĥłáĥĺ
in ess
ĠáĥĴáĥĺáĥľ áĥĿáĥ©áĥĲáĥĽ
Ġáĥľáĥ«áĥĲáĥļ áĥĺáĥĶáĥłáĥĺ
ĠáĥĿáĥĵáĥĲáĥĳáĥĲáĥĵ áĥ£áĥłáĥĺ
ĠáĥļáĥĲáĥ£áĥłáĥĶ áĥĲáĥ¢áĥĺ
áĥ¢ áĥ§
ĠáĥĻ áĥĺáĥĹáĥ®
áĥĿáĥļ áĥĺáĥ¢
Ġáĥ¥ áĥ£áĥĵ
áĥĲáĥ¢ áĥ£áĥļáĥĺ
Ġáĥļ áĥĲáĥ¢
áĥ¤ áĥĶáĥłáĥĺ
áĥ£áĥĵ áĥĺ
áĥĲáĥķ áĥł
áĥĲáĥłáĥĻ áĥĺáĥ¨
áĥĲáĥĸ áĥĲáĥ®
Ġáĥĺáĥľáĥĵ áĥĺ
áĥ£áĥĻ áĥĲ
áĥĶáĥ£ áĥłáĥľ
ĠáĥĻáĥĲáĥĹ áĥĿáĥļ
Ġáĥ£áĥ¯ áĥĿáĥ®
ĠáĥĿáĥľáĥ ĵ
ĠáĥĲáĥ¥áĥ¢ áĥĺáĥ£áĥłáĥĺ
áĥ¥áĥĿáĥłáĥĹ áĥ£áĥļáĥĺ
Ġáĥĺáĥłáĥĵ áĥ¦
áĥĶáĥ¦ áĥ·
ĠáĥĲáĥĻáĥĽáĥĿáĥ¥áĥĺáĥĽ áĥĺáĥľ
ĠáĥľáĥĲáĥķ áĥĹáĥĿáĥĳ
ĠáĥĺáĥĻ áĥĶáĥľáĥ¡
áĥķáĥĲáĥľ áĥĶ
ĠáĥĲáĥĴ áĥļáĥĿáĥĽ
Ġáĥł áĥĲáĥ¯
Ġáĥľ áĥĶáĥĳáĥĲ
Ġáĥ¬ áĥ¬
Ġáĥ¡ áĥĶáĥłáĥĳ
áĥĺáĥ¡ áĥĺáĥ¡
áĥļ áĥĲáĥ¡
áĥĶáĥĳ áĥĺ
Ġáĥ¤ áĥĺáĥľáĥĲáĥľáĥ¡
Ġáĥ¥ áĥ·
áĥ£áĥłáĥ ¨áĥĲ
áĥĺáĥļáĥĺ áĥĲ
áĥĿáĥľáĥ Ĺáĥ®
áĥĿáĥ¤ áĥ®áĥķáĥĲáĥĵ
áĥĶáĥ¥ áĥ¢áĥĿáĥł
áĥ£áĥłáĥĴ áĥĺ
ĠáĥĴáĥĺáĥ¨ áĥĲáĥĴáĥĿáĥłáĥ£
ĠáĥĺáĥĽ áĥĲáĥľáĥ¯
ĠáĥĻáĥķ áĥĲáĥłáĥ©áĥ®
áĥĺáĥľáĥĲáĥ¤ áĥĲáĥļáĥĿ
ĠáĥĽáĥĲáĥłáĥĲáĥ¨áĥĺáĥľáĥĲáĥĹ áĥ£áĥĹáĥĲáĥ¡
Ġáĥĵáĥ·áĥĽ áĥĲáĥłáĥ¡áĥ®áĥ£áĥĲáĥ¤
áĥ¥áĥĺáĥĽ áĥĺáĥľáĥ¯
Ġáĥ¡áĥĲáĥľáĥ¢ áĥĲ
Ġáĥĵ áĥ·áĥľ
Ġáĥ£áĥĻ áĥłáĥĲáĥĺáĥľ
ĠáĥĲáĥĽáĥĶáĥł áĥĺáĥĻáĥĲ
áĥ·áĥĵ áĥĶáĥ¡
ĠáĥŀáĥĿáĥ¢ áĥĶáĥłáĥĺ
« áĥĶ
ĠáĥĴ áĥĿáĥŃáĥ§
áĥ¡ áĥĲáĥ®
Ġáĥ¡ áĥĶáĥĸ
áĥĿáĥ¡ áĥĺáĥ¡
ĠáĥĽáĥĶáĥ ¬
ĠáĥŁ áĥ£áĥłáĥľ
ĠSp rache
áĥ© áĥ¥
áĥĿáĥŃ áĥĲáĥł
ĠáĥĽáĥĺáĥļ áĥĺáĥĿáĥľ
ĠáĥķáĥĲáĥł áĥĺáĥľ
ĠáĥĵáĥĿáĥĹ áĥĺáĥłáĥ£
Ġáĥ¡áĥ¢áĥĲáĥĵ áĥĺáĥĿáĥľáĥĺ
áĥ© áĥ®
ĠáĥĽ áĥĿáĥĻ
ĠáĥĽ áĥĲáĥ¥áĥ¡
ie fer
áĥĻ áĥĿáĥľáĥ¢
Ġáĥ¨ áĥķáĥĶáĥĺáĥª
áĥĺáĥľáĥĴ áĥĺáĥ¨
Ġáĥ«áĥĲáĥļ áĥĲáĥĽ
ĠáĥłáĥĶáĥŁ áĥĺáĥĽáĥĺáĥ¨
Ġáĥĺáĥļ áĥĲáĥ¸áĥĲáĥ¤
Ġáĥ¥áĥĿáĥĽ áĥĿáĥļ
áĥĲáĥľ áĥ¨áĥĶ
áĥĻ áĥĿáĥľ
Ġáĥľ áĥĶáĥ«
ĠáĥĲáĥłáĥĽ áĥĺáĥĲáĥ¨
¬ áĥĻ
áĥĴ áĥĶáĥķ
ĠC al
ĠSh op
Ġt oll
Ġbei de
ĠS and
Ġin vest
R E
Ġ à¸Ł
!! !
ĠÃĦ r
Ã¤us er
ĠFir men
v ar
Ġ Q
f ragen
ĠE uch
25 61
ĠXX I
ĠF ort
I L
ĠG anz
ĠNÃ¤ he
ĠB ack
Ġzu dem
à´¥ à´¨
à¹Ģà¸ŀ à¸£à¸²à¸°
ĠS aison
ĠLin k
ad em
Ġbetroffen e
Ġbe ein
à¹Ĥ à¸Ńà¸ģ
ten t
ei ger
ĠVeranst altung
à¸Ńà¸ĩ à¸ª
ĠR hein
à¸ĩ à¸Īà¸°
196 8
Ġâ Ĩ
Ġper fe
out ube
å ħ
in er
à¸ģ à¸Ĥ
ĠEntschei dung
ĠEr d
em a
ol s
ĠErfahr ungen
ĠP reise
Ġf un
à´µ à´±
i Ã±a
itz t
Ġf amil
Ġletz te
s uch
à¤ ¨
7 00
Ġp Ãºbl
Ã¼s se
Ġa ta
Ġd ist
] ;
Ã¼t zt
Ġa u
ie ÃŁ
Ġbe gl
195 7
ĠPat ienten
ĠAn bieter
à´¶ à´®
Ġgleich zeitig
Ġaus schlieÃŁlich
Ġent stehen
c el
àµ¾ à´ķ
Ġà¸ŀ à¸£à¸°
F A
ĠG re
à¸²à¸ ĭ
leist ung
iz e
Ġm od
ĠAn gaben
ĠIn di
à¸Ķ à¸Ķ
n ers
Ġun ten
t or
Ġà¸Ĺà¸³ à¹ĥà¸«
end et
Ġst Ã¤r
198 5
à¸ķ à¸§
ĠInform ation
Ġà´ħà´µ àµ¼
Ġv Ã¶ll
à¸Ľà¸£à¸°à¸ģ à¸Ńà¸ļ
f ter
ĠR el
ĠGen er
ĠMich ael
Ġentfern t
n ungen
Ġgar an
ĠV is
ĠG ruppen
Ġge stellt
ĠKÃ¶l n
in st
ĠP re
ĠTh omas
Ġwelt weit
ĠSer ver
du c
Ġtra gen
196 9
Ġc ada
r ing
à¸£ à¸§à¸¡
19 20
Ġà´¬ à´¸
ĠFir ma
l eiter
à¸Ń à¸Ĥ
Ġà´ª à´³
ne ut
Ġrich tige
ĠUnternehmen s
Ġn eg
àµ¼ à´¦
ĠSch wer
Ġbetroffen en
ĠÃĦn der
ĠO st
beding t
and elt
Ð°Ð ¼
Ã¤ her
la us
ĠZust and
im o
198 0
s itzen
ĠK unde
à¸¥ à¸¥
ĠT rans
te d
ĠSti l
am er
ĠInternet seite
Ġm et
C o
ĠW olf
Ã¤n gt
à¹ģ à¸Ľ
Ãº as
Ġtod os
s m
ri m
à´£ à´²
à¸ĩ à¸ģà¸¥
it os
ĠB rem
ĠImm obil
àµį ;
ĠSt off
ari os
ĠSt Ã¤d
à´¸ à´®à´¯
ik al
n ungs
T E
stell ten
ĠRe gen
Ġw esent
. ),
Ã¤m lich
ĠS inne
Ã¤n gen
l ad
ver l
ĠAll tag
Ġso weit
I G
Ã¶ pf
ost a
ĠKre dit
ĠzusÃ¤tz lich
à¸¡ à¸Ĥ
ĠWeihn acht
áĥĺáĥł áĥĲáĥ¡áĥ¥
áĥĿáĥ¢ áĥĺáĥĻ
áĥĲáĥ¥áĥ¢ áĥĺáĥ¨
Ġáĥªáĥ® áĥĶáĥľáĥ¬áĥ§
ĠáĥŀáĥĿ áĥĶáĥ¢áĥĺ
ĠáĥĶáĥľ áĥĶáĥłáĥĴ
ĠáĥľáĥĲáĥłáĥĻ áĥĿáĥ¢áĥĺáĥĻ
ĠáĥĺáĥĶáĥłáĥ£áĥ¡áĥĲáĥļ áĥĺáĥĽáĥĺáĥ¨
áĥĲ áĥĲáĥļ
Ġáĥłáĥ£áĥ¡ áĥĺ
áĥĽ áĥĲáĥłáĥĴ
áĥĲáĥł áĥĲáĥĴ
ĠáĥĹ áĥĺáĥľáĥ©
Ġáĥķ áĥĶáĥĳ
áĥĺáĥĶ áĥłáĥ¡
áĥĶáĥľáĥ¢ áĥĶáĥ¤áĥĺ
áĥĲáĥĺ áĥ¯
ĠáĥĻáĥĿáĥĽ áĥĶáĥĵ
ĠáĥĻáĥĺáĥľ áĥĿáĥł
áĥĺáĥŃ áĥĲáĥľáĥ£
áĥĶáĥŁ áĥĺáĥ¡áĥĿáĥłáĥĺ
ĠáĥĿáĥł áĥĺáĥĴ
ĠáĥĲáĥĻáĥĿáĥĵáĥĴáĥĺáĥľáĥĲáĥļáĥ£ áĥĲ
áĥĶáĥłáĥĳ áĥĲáĥĺáĥ¯
ĠáĥĲáĥļáĥĽáĥĲáĥ® áĥĲáĥľáĥ£áĥł
Ġáĥ©áĥĶáĥ© áĥľáĥĶáĥĹáĥĺáĥ¨
ĠáĥĻáĥĿáĥĽáĥĺáĥ¥áĥ¡ áĥĶáĥ¤áĥĺáĥ¨
ĠáĥĽáĥĲáĥłáĥĽ áĥĲáĥł
áĥłáĥĲáĥľáĥ¡áĥŀáĥĿáĥłáĥ¢ áĥĶ
ĠáĥĵáĥĲáĥłáĥĳ áĥĲáĥĸ
áĥĶ áĥĶáĥ¤áĥ¡
ĠáĥĻ áĥ£
Ġáĥĳ áĥĲáĥłáĥĳ
Ġáĥ¤ áĥĿáĥłáĥĺáĥļáĥĺ
ĠáĥĿáĥ®áĥĿáĥł áĥĲáĥľáĥĵáĥĶáĥ¡
áĥŀáĥł áĥĲáĥĵ
áĥĺáĥ Ł
ĠáĥĴ áĥĿáĥ¡
ĠáĥĴ áĥĲáĥľáĥ¬
Ġáĥ¬ áĥĿáĥ®áĥĿáĥļ
áĥ¨ áĥĲáĥłáĥĲáĥ¨
áĥ£áĥļ áĥĶáĥĳ
áĥĶáĥľ áĥĶáĥ©áĥĵ
Ġáĥ¯ áĥĲáĥķ
áĥĺáĥłáĥ ĵ
áĥĲáĥĺ áĥĽ
áĥĲáĥľáĥ¢ áĥĺáĥľ
ĠáĥĻáĥĺáĥľ áĥĿáĥ¨
Ġáĥ¡áĥ£áĥĽ áĥĶáĥľáĥĶáĥ©áĥĵ
ĠáĥĽáĥĺáĥĿáĥ ¦
ĠáĥĽáĥĺáĥĿáĥ ¬
ĠáĥĻáĥĲáĥľ áĥĲáĥĵ
ĠáĥĲáĥłáĥĲáĥĳ áĥ£áĥļáĥĺ
ĠáĥĽáĥĶáĥ® áĥĿáĥļáĥĲáĥ¤áĥĺáĥłáĥĿ
ĠáĥŀáĥłáĥĿáĥĵ áĥĺáĥ£áĥ¡
ĠáĥłáĥĲáĥĺáĥĿáĥľ áĥĶáĥ¤áĥ¡
ĠáĥľáĥĿáĥłáĥ ķáĥĶáĥĴ
ĠáĥļáĥĿáĥľáĥĵ áĥĿáĥľáĥĺáĥ¨
Ġáĥĺáĥ©áĥĺáĥĶáĥĳ áĥ£
ĠáĥĴáĥĲáĥľáĥ¬ áĥ®
ĠáĥĴ áĥĲáĥľáĥĵ
ĠáĥĻ áĥĿáĥľ
áĥĶáĥľáĥ ĸ
áĥĿáĥľ áĥĶáĥ¡
ĠáĥĲáĥĳáĥĲáĥľ áĥĿáĥĳáĥ£áĥł
ĠáĥĹáĥĶáĥŁáĥĲáĥĽ áĥĿ
ĠáĥĽáĥ£áĥĵáĥĴáĥĲáĥĸ áĥĽáĥĲáĥł
ĠáĥĴáĥĲáĥĽáĥľ áĥĲáĥłáĥ§
áĥ¡ áĥĲ
áĥĻ áĥķáĥĺáĥĹáĥĿáĥ¨
áĥĿáĥłáĥ ¬
Ġáĥĳ áĥĲáĥĽáĥĳ
áĥľ áĥĶáĥłáĥĿ
áĥĶáĥ¤áĥĺáĥ¨ áĥĺáĥĹ
áĥĴ áĥĶáĥłáĥĽ
áĥĲáĥ¢ áĥĺáĥ¡
áĥĺáĥĴ áĥľ
áĥĳáĥŁ áĥĲáĥĵ
áĥĶáĥĳáĥ£áĥļ áĥ¥
ĠáĥĽáĥĺáĥ¨áĥĽ áĥĶáĥ¨áĥ·
áĥĲáĥľáĥĹ áĥ®áĥĲ
ĠáĥĶáĥĻáĥĿáĥľáĥĿáĥĽ áĥĺáĥĻáĥĲáĥ¨
Ġáĥ©áĥĲáĥľ áĥĲáĥłáĥĶáĥ¤áĥĺáĥ¨
ĠáĥĽáĥĿáĥĳ áĥĺáĥłáĥĶ
áĥĲáĥªáĥ® áĥĲáĥĵáĥ·
Ġáĥ£áĥĽáĥĶáĥľáĥ¢áĥĲáĥ¨ áĥĿáĥĳáĥĲ
ĠáĥķáĥĲáĥ£ áĥ¦
Ġáĥ£áĥ¯áĥĴáĥ£áĥ¨ áĥĺ
ĠáĥĹ áĥĺáĥĲ
Ġáĥľ áĥĶáĥłáĥ©
áĥľ áĥĿ
ĠáĥĲáĥĻ áĥĿáĥĻ
Ġáĥ¯áĥĴ áĥĺáĥłáĥĺ
ĠáĥĴáĥ·áĥĽáĥĿáĥłáĥĺáĥľ áĥĲáĥ¤áĥĲáĥ¨
ĠáĥĻáĥļáĥĺáĥĽ áĥĲáĥ¢áĥĺ
ĠáĥĻáĥĿáĥ¡áĥĽáĥĿáĥ¡ áĥ£áĥłáĥĺ
áĥĶ áĥĺáĥ¡
áĥĲáĥ¨ áĥĶáĥĹ
Ġáĥĵ áĥĲáĥł
áĥĺáĥľ áĥĶáĥ¨áĥĶáĥ¡
Ġáĥľáĥ ¢
ĠáĥŃáĥĲáĥł áĥĺáĥļáĥĺ
áĥĿáĥłáĥĵ áĥĺ
Ġáĥ¤áĥĺáĥļáĥĿáĥ¡áĥĿáĥ¤ áĥĺáĥ£áĥłáĥĺ
ĠáĥŀáĥĶáĥłáĥ¡áĥĿáĥľ áĥĲáĥŁ
Ġáĥ¡áĥ¡ áĥłáĥ
Ġáĥŀáĥł áĥĿáĥĳ
áĥĲáĥŀ áĥĲáĥ¢
áĥĽ áĥĿáĥľ
áĥĽ áĥĲáĥĴ
ĠáĥĴ áĥ£áĥłáĥ
Ġáĥ¦ áĥ£áĥł
ĠáĥĽáĥ£áĥ¨ áĥĿáĥĳáĥ£áĥł
Ġáĥ¤áĥĲáĥłáĥĹ áĥĿ
ĠáĥĴáĥĶáĥĿáĥĴáĥłáĥĲáĥ¤ áĥĺáĥ£áĥļ
ĠáĥĶáĥłáĥ ľ
ĠáĥŀáĥĲáĥłáĥļáĥĲáĥĽ áĥĶáĥľáĥ¢áĥĺáĥ¨
ĠáĥĽáĥĲáĥ¥áĥ¡ áĥĺáĥĽ
ĠáĥľáĥĲáĥĽáĥ£áĥ ¥
Ġáĥĵ áĥ·
Ġáĥª áĥĺáĥķ
Ġáĥ¸ áĥĿáĥľ
ĠáĥĻáĥĿáĥľáĥ ¬
Ġáĥ¡áĥĲáĥ¨ áĥ£áĥĲáĥļ
Ġáĥªáĥĺáĥķ áĥĺáĥļáĥĺáĥĸ
Ġáĥ¬áĥĲáĥľ áĥĶáĥ¤áĥª
ĠáĥĴáĥĶáĥĿáĥĴáĥłáĥĲáĥ¤ áĥĺáĥĲáĥ¨
ÐµÐ ¼
à¸Ļ à¸§à¸Ļ
gesch ichte
Ġein zu
st euer
ma ÃŁ
D F
Ãľ ber
Ġprof ession
à´¤ à´Ļ
k raft
Ġlie be
er tif
ĠSp iele
ĠB ett
der s
ĠS ym
ĠL Ã¶sung
pro chen
ĠJ ob
à¸£ à¸©
l ti
à¸²à¸ķ à¸£
aff t
à¸ģ à¹Ģà¸£
ot tes
w ig
spiel er
ĠK il
Ġsch Ã¶nen
- )
à´°à´£ à´¯
Ġs Ã³
Z u
ĠR a
Ġs ub
à´® à´³
wer te
à´® à´ķà´³
se e
gel n
imm el
Ġpo de
opp el
ĠMaÃŁ nahmen
t ro
Ġp e
Ġfac er
ĠR eich
ect or
à¸²à¸Ļ à¸¡
ĠS inn
k n
z wischen
Ġdan ach
Ġs orgen
Ġà´ĩ à´·
ĠSta at
it ut
ĠH all
ĠAl so
ĠAu ÃŁen
itz er
ip s
ĠBeg inn
ig inal
Ġander es
Ġbest immt
sch uss
etz ung
Ġor ganiz
w itter
à¸ĵ à¸łà¸²à¸ŀ
teil en
à¸£à¸²à¸ ļ
à´ĸ à´°
Ġ ÃŁ
à¸Ļ à¸ĭ
ĠZeit punkt
à¸Ľ à¸ģà¸£à¸ĵ
ĠFahr zeug
Ġw obei
Ġb ald
ĠK aff
à¸Ĭ à¸²à¸§
ĠT ro
ĠL og
M A
ĠAn wendung
end es
i ft
ges sen
197 5
Â ĸ
f assung
Ġà¸ľ à¸¡
ari f
Ã¼ ll
ĠUm gebung
iel en
Ġges agt
um in
I P
Ġd ra
ĠBe deutung
à¹Ģà¸ŀ à¸¥à¸ĩ
w ind
ĠDeut sche
à¸ļ à¸Ńà¸ģ
Ġus w
Ġl ugar
Ġs etzt
qu em
s recht
ĠGe fÃ¼hl
ĠN or
sb urg
ĠCas ino
pf licht
Ġdam als
à¸²à¸ĩ à¸Ļ
ĠTechn ik
zeu gt
am s
ĠerklÃ¤r t
à´Ĥ ;
ettbe werb
it en
Ġp a
ĠTur n
ge geben
Ð¸ Ñĩ
ĠMa x
à¸Ń à¹Ģà¸Ľ
Ġà´Ĵ à´ª
ĠRe chte
ot h
à´¥ à´®
mitt elt
à¸Ļ à¸Īà¸°
ist ische
Ġer reich
ĠIn dia
o ver
10 1
à¹Ĥà¸Ńà¸ģ à¸²à¸ª
à¸§ à¸²à¸ĩ
p ark
de ckt
ĠGl as
neh m
Ġre al
aus e
Ġsch affen
Ġw eb
ist ischen
ier ungen
Ġg ern
ob ile
ĠHer steller
Ġpol ÃŃ
Ġc ap
Ġver t
fol ge
à¹ģ à¸£à¸ĩ
ĠGed anken
XI X
à¸²à¸Ľ à¸£à¸°
ĠCon c
sp art
à´® à´²à´¯
ĠZusammen arbeit
Ġnah e
tig ten
ĠÑģ Ð°Ð¹
ver t
9 1
à¸Ńà¸ĩ à¸Īà¸²à¸ģ
à¸§ à¸Ĺ
statt ung
om en
àµĢ âĢĭ
àµ¼ à´¶
ĠBay ern
uch s
à´ĸ à´¤
ĠDatenschutz erklÃ¤rung
Ġfol gen
ome ter
ĠPra xis
à ²
ĠZahl ungs
à¸Ľà¸£à¸° à¸¡à¸²à¸ĵ
áĥ¢ áĥĺáĥ¥
ĠáĥĶ áĥ®
Ġáĥ¢ áĥĶáĥ®
Ġáĥ© áĥĲáĥ©
áĥĲáĥĻ áĥĺáĥĲ
ĠáĥļáĥĿáĥĻ áĥĺ
áĥĲáĥľ áĥĺáĥĻáĥ£áĥłáĥĺ
áĥĺáĥĿáĥłáĥĻ áĥĺ
áĥ¢ áĥĶ
áĥĵ áĥĶáĥļ
áĥļ áĥĶáĥ¤áĥĺ
áĥĲáĥ¢ áĥĿáĥłáĥĺáĥ¨
Ġáĥ® áĥķáĥĲáĥĵáĥ£
ĠáĥľáĥĿáĥ¦ áĥĲáĥĹ
Ġáĥ° áĥĿáĥľáĥĵ
ĠáĥĻáĥĲáĥļáĥĶáĥľáĥĵ áĥĲáĥłáĥ¡
ĠáĥŃ áĥĿáĥ¤
ĠáĥĴáĥ·áĥ¨ áĥĲáĥłáĥĹ
áĥĽáĥĺáĥľáĥĺáĥ¡áĥ¢ áĥłáĥĺ
Ġáĥ£áĥĸ áĥĳáĥĶáĥĻ
ĠáĥĻáĥĿáĥĵ áĥĺ
Ġáĥ¸áĥ£áĥĵ áĥĶáĥ¨
ĠáĥĻáĥĺáĥľáĥĿáĥł áĥĶáĥŁáĥĺáĥ¡áĥĿáĥłáĥĺ
Ġáĥĳ áĥĺáĥłáĥĹ
áĥĺáĥ¡áĥ¢ áĥĺáĥĻáĥĲáĥ¨
Ġáĥ¡áĥĲáĥ¤ áĥ£áĥļ
Ġáĥ¡áĥĶáĥł áĥĺáĥĿáĥĸ
ĠáĥĽ áĥĺáĥ®
áĥ£áĥł áĥĺáĥľ
áĥ£áĥł áĥĶáĥ¨
áĥĲáĥ¤ áĥ¨
áĥĿáĥļ áĥĲáĥ¤áĥĺáĥłáĥĺ
Ġáĥ¨ áĥĶáĥĴ
áĥĴ áĥĲáĥĹ
áĥĺáĥĻ áĥĿ
áĥĺáĥĽ áĥ£
áĥĶáĥĴ áĥķáĥĺáĥŀ
ĠáĥĻáĥĲáĥļ áĥĲáĥŀ
áĥĲáĥ£ áĥľáĥ
ĠáĥĿáĥ® áĥĿáĥłáĥĺáĥľ
ĠáĥľáĥĿáĥłáĥĹ áĥĺáĥ¨
Ġáĥ¢áĥł áĥĲáĥĴ
ĠáĥĿáĥł áĥĶáĥ¬
Ġáĥ¥áĥĲáĥłáĥĹ áĥļáĥĺáĥ¡
Ġáĥ£áĥ¨ áĥĲáĥľáĥ£áĥļ
ĠáĥĲáĥķáĥ¡áĥ¢áĥł áĥĺáĥĲáĥ¨
áĥĲáĥłáĥ©áĥ® áĥĺáĥļáĥĺáĥ¨
Ġáĥĺáĥ¤ áĥĲáĥ©
ĠáĥĵáĥĶáĥŀáĥĲáĥłáĥ¢áĥĲáĥĽ áĥĶáĥľáĥ¢áĥĺ
ĠáĥĽáĥĲáĥĺ áĥĲáĥ¨
Ġáĥŀáĥ£áĥľáĥ¥ áĥ¢áĥĺ
ĠáĥŃáĥķáĥĶáĥĽ áĥĲáĥ¨
ĠáĥĿáĥłáĥĶáĥ¬ áĥ£
ĠáĥĴ áĥĲáĥĹáĥ£
áĥ¡ áĥĻáĥĺ
Ġáĥ¡ áĥĺ
áĥĶáĥĹ áĥ®
Ġáĥ£áĥĻ áĥĶáĥĳáĥ·
áĥĲáĥŃ áĥĲáĥłáĥĶ
ĠáĥĿáĥ¡ áĥĽáĥĲáĥļ
ĠáĥĴáĥĶáĥ« áĥĺáĥľáĥĶáĥļáĥĺ
ĠáĥĲáĥĴáĥļáĥĿáĥĽ áĥĶáĥł
áĥĲáĥļ áĥŀ
áĥ£áĥł áĥĲáĥ¤áĥĲ
áĥĶáĥł áĥĲáĥļ
áĥĶáĥ¨ áĥ¢
áĥĺáĥĻ áĥĺáĥ¨
áĥĹ áĥĺáĥľ
áĥĶáĥĽ áĥĺáĥ¨
áĥĲáĥĺ áĥĻ
ĠáĥĲáĥłáĥ« áĥĲáĥ¨
ĠáĥĽáĥĿáĥľáĥ Ļ
áĥĿáĥ¡áĥ¥áĥĺáĥļ áĥĶáĥĵ
áĥĶáĥłáĥ¢ áĥĿ
ĠáĥŁáĥĺáĥł áĥĿáĥ¨
Ġáĥ¤áĥļ áĥĿáĥł
Ġáĥ¥áĥ· áĥĴ
ĠáĥĴ áĥ£áĥ¯áĥĲáĥłáĥĲáĥĹ
ĠáĥĹ áĥĶáĥĳáĥĲáĥ¨
ĠáĥĹ áĥĲáĥ¸áĥ£áĥłáĥĶáĥ¨áĥĶ
Ġáĥ¡ áĥĲáĥ°
áĥĻ áĥĲáĥľ
áĥ¨ áĥĶáĥĹ
áĥĿáĥľáĥ ª
Ġáĥľáĥĺáĥľ áĥĶáĥ¤áĥ¡
ĠáĥĲáĥ¤ áĥ£áĥĵáĥ·
ĠáĥĽ áĥĿáĥĹ
ĠáĥĴ áĥ£áĥĳ
ĠáĥĹ áĥĺáĥ¬áĥĻáĥ·áĥĽáĥĲ
Ġáĥ¡ áĥĺáĥľáĥĹ
Ġáĥ£ áĥĳ
áĥĺáĥļ áĥĺáĥĹ
áĥĺáĥłáĥ ĸ
áĥĶáĥľáĥ¢ áĥĺáĥ¡
ĠáĥĿáĥ¨ áĥ£áĥĽ
áĥĺáĥ¡áĥ¢ áĥĿáĥł
ĠáĥĻáĥĿáĥľáĥ ¡áĥ¢
ĠáĥĿáĥĽ áĥĲáĥľáĥĴ
ĠáĥĻáĥĿáĥĻ áĥĺáĥ¨
áĥĲáĥŃ áĥĻáĥĺáĥł
ĠáĥĿáĥ¡ áĥ¥áĥķ
ĠáĥĻáĥĿáĥĽáĥŀ áĥĲáĥľáĥĺáĥĲáĥ¨
Ġáĥ¥áĥĺáĥłáĥ¡ áĥĺáĥĲáĥľáĥ£áĥļáĥĺ
ĠáĥĽáĥĺáĥĻ áĥł
ĠáĥĽáĥĲáĥ¦ áĥķáĥĶáĥľáĥ¯áĥĺ
ĠáĥĴáĥĶáĥłáĥĽáĥĲáĥľ áĥĺáĥĲáĥ¡
ĠáĥĲáĥķáĥ¢áĥĿáĥľáĥĿáĥĽ áĥĺáĥ£áĥł
Ġáĥłáĥ¡áĥ® áĥ£áĥ¨
Ġaktu elle
Ġáĥ¡áĥ¢áĥł áĥĲáĥ¢
ĠáĥĵáĥĿáĥŃáĥ§ áĥĲáĥ¤
Ġáĥ¡áĥĲáĥĳáĥĿáĥļ áĥĲáĥĹ
ĠáĥĽáĥĶáĥ« áĥĿáĥĳáĥĶáĥļ
ĠáĥĽáĥĶáĥ¥áĥ¡ áĥĺáĥĻáĥĲáĥ¨
áĥĲáĥľáĥĵ áĥ·áĥľ
ĠáĥŀáĥłáĥĿáĥĳ áĥļ
ĠáĥĴ áĥĲ
Ġáĥł áĥĿáĥĵ
ĠáĥĻ áĥĿáĥłáĥ¡
ĠáĥĿáĥ ¸
áĥĵ áĥĺáĥ¨
ĠáĥĶ áĥĺáĥĿáĥ¨
áĥĶáĥļ áĥĶáĥķáĥĺáĥĸ
ĠáĥľáĥĲáĥĽáĥ£ áĥĶáĥ¤áĥ¥
ĠáĥĽáĥĶáĥłáĥ ¡áĥ®áĥĺáĥļáĥĺ
ĠáĥĲáĥłáĥ¡ áĥ£áĥļ
Ġáĥ¡áĥĿáĥªáĥĺ áĥĲáĥļ
Ġáĥ¡áĥ£áĥĳ áĥĺáĥĶáĥ¥
ĠáĥĺáĥļáĥĲáĥ¸áĥĲáĥ¤ áĥ·
áĥĲáĥľ áĥĶáĥłáĥĺ
ĠáĥĹáĥĶáĥ¨ áĥĺ
ĠáĥłáĥĲáĥ® áĥĲáĥľ
ĠáĥĽ áĥĿáĥĽ
ĠáĥĻáĥļáĥĲáĥłáĥ¯ áĥĶáĥĹáĥĺ
al a
ar n
den ken
ĠW Ã¼r
ĠZ ahn
Ġer g
ĠFuÃŁ ball
ĠSch uhe
Ġg ran
Ã ĸ
wend ig
om aten
ele v
z ehn
Ġpres ent
ĠIn s
Ġmo der
B l
à¸¨à¸²à¸ª à¸ķà¸£
ĠSt ud
fl ug
setz ungen
ma il
, [
Ġkn app
Ġa p
Ġrich tigen
ĠSta ats
ĠMus e
Ġspiel t
f ar
or k
ĠWohn ung
à¸Ļà¸° à¸Ļà¸³
Ġintern ational
ĠFunktion en
A C
ĠP osition
à¸Ĭ à¸Ńà¸ļ
Ġbeg innt
wend ungen
Ġweiter hin
Ã¼r en
N r
à´³ à´ª
zÃ¼ glich
n ern
âĢĭâĢĭ âĢĭâĢĭ
Ġher r
eil ung
Ġgen ommen
Ġge pl
à´¸ à´Ļ
à¸° à¹Ģà¸¥
u tion
be k
Ø ©
Ġl Ã¤uft
fil ter
it or
Ġn atur
h as
stÃ¤n de
Ġder zeit
Ġre aliz
ĠErgeb nisse
ĠP rem
ĠDisk uss
Ġer he
Ġent hÃ¤lt
Ġh eu
à´² à´±
ru ktur
ĠvÃ¶ll ig
ĠNews letter
ĠS ache
ĠMon aten
Ġà´ķ à´¯
àµ¼ à´£
Ġw ith
Ġs echs
Ġst ets
Ġer kennen
for men
Ã¤hr t
ie ten
ĠT ab
à¸Ļ à¸Ľ
Ġinform ieren
ha ben
z iert
Ġ à¹Ħ
à¹ģ à¸Ļà¸§
war d
198 1
à¸¥à¸° à¹Ģà¸Ń
Ġt ran
ĠT yp
Ġsein es
ativ a
Ġp ort
ĠAl tern
Ġsch warz
z i
Ġà´® à´ŀ
Ġex trem
à´¥ à´°
Ġà´¸ à´ľ
àµįâĢĮ ,
x e
u ÃŃ
Ġwel cher
g a
ĠD ownload
ĠN ame
à¹Ģà¸ Ł
wohn er
Ġfunktion iert
ĠMe er
Ã³ m
Â ®
à¹Ĥ à¸Ĺ
à¸Ńà¸ĩ à¸ķ
Ġh off
ĠBe k
Ġem p
Ġs inn
ĠCl ub
Ġh il
s an
Ð½Ð¾Ð ¹
tig es
Ġer mÃ¶glichen
Ġd ank
h ard
à´° à´²
as er
à¸§ à¹Ħà¸Ľ
197 1
Ġzahl reiche
Ġf rauen
ĠF ried
ĠF eld
à¸ģ à¸²à¸¥
Ġex pl
de st
Ġdes en
à¸ĩà¸ģ à¸¤à¸©
197 3
Ġà¸£ à¸²à¸¢
à¸²à¸ģ à¸¥
b le
Ð¾ ÑģÑĤ
195 1
or gung
à¸ģà¸²à¸£ à¸ª
à¸Ńà¸ĩ à¸Ķ
ha fen
ti schen
p d
ĠKommun ikation
ĠMet ho
ĠSal z
ĠMein ung
at al
ĠS Ã¼
s amen
Ġk Ã¼
ist ik
Ġehem al
Ġaktu ell
à¹Ģà¸« à¸Ļ
à´Ł à´µ
o y
à´· à´µ
E x
Ġn Ã¤mlich
ĠgroÃŁ er
ĠE vent
en a
à´¸ à´Ń
sp ir
ÑģÑĤ Ð²
ĠO ut
à¸² à¹Ħà¸¡
our n
à¸ĩ à¹Ĩ
à¸²à¸ģ à¸£
ig ital
t liche
ĠF reude
à ®
à¸ĺ à¸²à¸Ļ
Ġwich tige
atÃ¼r lich
g ruppen
à¸ĩ à¸«à¸Ļ
Ġv ol
Ġtot al
ĠGer Ã¤t
ĠAuf gaben
Ð° Ðº
flÃ¤ chen
le gt
ib el
Ã¤ hn
à¸Ķ à¸¡
ĠHar ry
ĠF arb
jÃ¤hr igen
teil ung
Ġtrotz dem
ĠDS GVO
ĠS ach
Ġst ra
tur es
ĠLeist ungen
Ġent sprechend
ĠP ublik
Ø§ÙĨ Ø³
Ġper fekt
Ġrecht s
rie f
Ð° ÑĪ
xec to
ĠS ituation
el ten
I CH
àµ¼ à´ľ
Ġv al
ĠP oten
Ġgen utzt
ĠáĥĻ áĥĶáĥ¨áĥĺáĥ¥
ĠáĥĲáĥĻ áĥĲáĥĻáĥĲáĥĹáĥĲáĥ¤
ĠáĥŀáĥĿ áĥĶáĥ¢áĥĺáĥ¨
ĠáĥĳáĥĲáĥ® áĥĺáĥ¥
ĠáĥĽáĥĲáĥł áĥĺáĥĲ
ĠáĥĽáĥĲáĥĵáĥłáĥĺáĥĵ áĥĺáĥ¨
áĥĺ áĥĲáĥļáĥĺ
áĥ¡ áĥĲáĥļ
áĥĿáĥłáĥĹ áĥĶáĥ¡
ĠáĥĲáĥ¡ áĥĲáĥĽáĥĳ
ĠáĥĲáĥĸ áĥĶáĥłáĥĳáĥĲáĥĺáĥ¯
ĠáĥŀáĥĿáĥŀáĥ£áĥļ áĥĲáĥłáĥ£áĥļ
ĠáĥĴáĥĶáĥľ áĥĶáĥłáĥĲáĥļáĥ£áĥłáĥĺ
Ġáĥ¡áĥĲáĥĽáĥĲáĥłáĥĴáĥĲáĥļ áĥĿáĥ¡
ĠáĥĻáĥĺáĥļáĥĿáĥĽáĥĶáĥ¢ áĥłáĥĺ
Ġáĥĺáĥ¡áĥļ áĥĲáĥĽáĥĺáĥ¨
ĠáĥĵáĥĿáĥ®áĥĿáĥłáĥĺáĥľ áĥĶáĥļáĥĺ
ĠáĥĲáĥ¡áĥĲáĥĽáĥĳ áĥļáĥĶ
Ġáĥĺ áĥ£áĥĽ
ĠáĥĲáĥĻ áĥĿáĥłáĥ
áĥĲáĥĴ áĥĳ
ĠáĥĻáĥĺáĥłáĥĵ áĥĶ
¨ áĥĲáĥ®
áĥĲáĥľ áĥ¨áĥĲ
ĠáĥĽ áĥĿáĥŃáĥĲáĥľ
áĥĽ áĥ£áĥ¡
Ġáĥł áĥĿáĥĻ
Ġáĥ¡ áĥĿáĥ¸
áĥĲáĥ¤ áĥĶ
áĥ® áĥĺáĥłáĥĺ
áĥĲáĥĹ áĥļ
Ġáĥĳ áĥĶáĥľáĥĴ
áĥľ áĥĶáĥķ
áĥĶáĥĳ áĥĶ
áĥĺáĥĶ áĥľ
áĥĺáĥĽ áĥĺáĥ¢
áĥĺáĥ¡áĥ¢ áĥł
ĠAn meldung
ĠáĥĹáĥĺáĥ¨ áĥľáĥĶáĥłáĥĺ
ĠáĥĻáĥĿáĥľáĥ ĵ
áĥĿáĥļáĥĿáĥĴ áĥĺáĥĲáĥ¥
áĥĺáĥľáĥĴáĥļ áĥĺáĥ¡
áĥĲáĥ¬ áĥĽáĥĲáĥłáĥĶáĥľáĥ¯
Ġáĥ¤áĥĲáĥľ áĥĺáĥĲ
Ġáĥ¡áĥĻáĥĿáĥļ áĥĲáĥ¡
Ġáĥ°áĥĲáĥķ áĥĲáĥ¨
ĠáĥłáĥĴ áĥĺáĥļáĥĺ
ĠáĥĲáĥĻáĥĿáĥĲáĥłáĥĹ áĥĲáĥ¤áĥĺáĥļáĥĺ
ĠáĥĲáĥļáĥĻ áĥĿáĥ°
áĥ£áĥłáĥĶáĥ¨ áĥĶáĥĹ
Ġáĥ¨áĥĶáĥĴ áĥĺáĥļáĥĶáĥĳ
Ġáĥ¡áĥĿáĥ¸ áĥ£áĥłáĥĶáĥ¨áĥĶáĥĹ
áĥ® áĥĿáĥļáĥĿ
áĥĻ áĥĺáĥĵ
áĥ¨ áĥ¢áĥĲáĥ¢
Ġà´¸ à´ŀ
Ġáĥ¨áĥ¥ áĥķáĥĺáĥĹ
ĠáĥĴáĥĿáĥłáĥ©áĥ¥ áĥĺáĥľáĥĲáĥ¨
áĥŁáĥĺáĥł áĥĿáĥ¨
Ġáĥĺáĥ® áĥĲáĥ¡áĥĺáĥĲáĥĹ
ĠáĥĴáĥĿáĥĵ áĥ£áĥĵáĥĺáĥ¨
ĠáĥĴáĥĺ áĥĲáĥĵáĥ·
áĥĶáĥķáĥłáĥĿáĥŀ áĥ£áĥļáĥĺ
ĠáĥĻáĥĿáĥĽáĥĶáĥłáĥª áĥĺáĥ£áĥļáĥĺ
ĠáĥĽ áĥĲáĥķáĥĺáĥĹ
ĠáĥĴ áĥĺáĥŃáĥ§áĥ·
ĠáĥĻ áĥĲáĥ¡áĥ¢
áĥĻ áĥĺáĥĹáĥ®áĥĺáĥłáĥĺáĥ¨
ĠáĥĽáĥ£áĥ ļ
áĥĺáĥłáĥ ªáĥ®
Ġáĥĸ áĥĿáĥ¯
à¸ĸ à¸²à¸¡
ĠáĥĽáĥĲáĥ® áĥķáĥĲáĥĽ
Ġáĥ¯áĥĿáĥ® áĥĿáĥ¥
ĠáĥĲáĥ¡ áĥ¥áĥĺáĥļ
Ġáĥłáĥ£áĥ¡ áĥĶáĥĹáĥĺáĥ¡
ĠáĥĿáĥļ áĥ·áĥĽ
ĠáĥĻáĥķ áĥĲáĥĹ
Ġáĥ¡áĥ®áĥ£áĥľ áĥ£áĥ¨
ĠáĥĽáĥ£áĥľáĥĲáĥ©áĥĶáĥĽ áĥĶáĥ¤áĥĺáĥ¨
ĠáĥĽáĥĲáĥĴ áĥ£áĥłáĥĲáĥ¤
ĠáĥĿáĥ¡áĥ® áĥĺáĥłáĥĺ
ĠáĥĴáĥ·áĥĽáĥĿáĥłáĥĺáĥľ áĥĲáĥ¤áĥĲ
ĠáĥłáĥĲáĥĴáĥĲáĥĵ áĥĲáĥľáĥ¡
Ġáĥļáĥĺáĥ¢áĥĶáĥłáĥĲáĥ¢ áĥ£áĥłáĥĲáĥ¨
Ð¾Ð»ÑĮÐ· Ñĥ
Ġáĥ£áĥĻáĥ£áĥļáĥľ áĥĶáĥ¨áĥĺáĥ¡
Ġ áĥĲáĥłáĥĶ
Ġáĥŀ áĥĲáĥľ
áĥĶáĥĸ áĥĶáĥłáĥķ
Ġáĥĺáĥł áĥĲáĥľáĥĺáĥ¨
ĠáĥĲáĥłáĥĲáĥĳ áĥĶáĥ¤áĥĺáĥ¨
Ġáĥ£áĥľáĥĺáĥķáĥĶáĥłáĥ¡áĥĺáĥ¢áĥĶáĥ¢ áĥĺáĥ¨
Ġáĥ¢áĥłáĥĲáĥĵáĥĺáĥª áĥĺáĥ£áĥļáĥĺ
ĠBeit rÃ¤ge
Ġáĥ¬áĥ§áĥĲáĥłáĥĽáĥĲáĥļ áĥ£áĥ¨
Ġáĥĵ áĥĴáĥĿáĥĽ
Ġáĥ¬ áĥķ
Ġáĥ¬ áĥĶáĥ¡áĥĺ
ĠáĥĻ áĥ£áĥľáĥĹáĥ®
Ġáĥĺ áĥķáĥĺáĥĹáĥĲáĥł
áĥĵ áĥĿ
Ġáĥ¤ áĥĲáĥ¥
Ġáĥ® áĥĲáĥľáĥĺáĥ¨
áĥĺáĥĵ áĥĺ
áĥĿáĥĵ áĥĴ
áĥ£áĥľáĥ ª
ªáĥ® áĥ£
Ġáĥ¢áĥĶáĥłáĥĺáĥ¢áĥĿáĥł áĥĺáĥĶáĥ¤áĥĺ
áĥ£áĥĲáĥľ áĥĿáĥĳáĥĲáĥ¨
©áĥ¥áĥĺáĥľ áĥĶáĥļ
Ġáĥ¡áĥĺáĥĽ áĥĲáĥ¦áĥĲáĥļ
ĠáĥĹáĥ® áĥĿáĥĳáĥĶáĥļ
ĠáĥĽáĥĺáĥĲáĥł áĥĶáĥ¤
Ġáĥ¯áĥĺáĥ® áĥĲ
ĠáĥĽáĥĿáĥ¸ áĥ£áĥľáĥĲáĥ¤áĥĺáĥļáĥĺ
ĠáĥĿáĥ¡áĥ¥áĥķ áĥĶáĥĳ
áĥĶáĥĽ áĥĲ
áĥĲáĥĺ áĥĲ
áĥĺáĥłáĥĺáĥľáĥ£ áĥĲáĥľáĥ¡
áĥĲáĥļ áĥĶáĥ¡
áĥĲáĥ¡ áĥ·áĥľ
áĥļ áĥ£
áĥļ áĥĺáĥ¥
Ġáĥĳ áĥĶáĥłáĥļ
Ġáĥ¤ áĥĿáĥłáĥ·
Ġáĥ® áĥĲáĥľáĥĴ
Ġáĥ© áĥĶáĥĽ
áĥĿáĥ¬ áĥĻáĥ·áĥĽáĥĲ
ĠáĥĴáĥ·áĥľ áĥĿáĥ©áĥĲáĥĽ
ĠáĥĿáĥłáĥĵ áĥĿ
Ġáĥ¤áĥł áĥĲáĥľáĥĻ
ĠáĥĻáĥĿáĥľáĥ¤ áĥļáĥĺáĥ¥
áĥĿáĥłáĥĴ áĥĿáĥĹ
Ġáĥł áĥĶáĥĵ
áĥ¢ áĥĲáĥľáĥĴ
áĥĺáĥľáĥ ĳ
áĥĲáĥľáĥ¢ áĥ£áĥłáĥĺ
ĠáĥĲáĥłáĥĲáĥĳ áĥĶáĥĹáĥĺáĥ¨
áĥĲáĥ Ŀ
Ġáĥķ áĥĺáĥľáĥĵ
ĠáĥĲáĥłáĥ §
ĠáĥĻáĥł áĥĺáĥ¢
Ġáĥ©áĥĺáĥľ áĥĶáĥĹáĥĺáĥ¨
Ġáĥķáĥĺáĥľáĥĵ áĥĲáĥłáĥĿ
áĥ® áĥĺáĥļ
à¸¢ à¸²à¸¢
Ġcon s
ĠKam pf
à¸Īà¸³ à¸Ļà¸§à¸Ļ
ĠâĨ Ĵ
ĠWissen schaft
à¸© à¸¢
à¹ģ à¸Ł
à´¹ à´¸
ei ros
Ġer h
Ġneu er
bau en
c ion
geb aut
Ġ à¸ĺ
Ġf il
em ente
Ġbesch Ã¤f
ĠTer min
fre und
g ut
ĠD rei
m and
S eit
Ġv ez
ĠVol ks
ograf ien
Ġver h
Ã¤hr ung
ĠSt at
ĠÃ¶ffent lichen
à¹Ħà¸ĭ à¸ķ
and a
Ġall gem
àµį ...
à¸ª à¸²à¸¢
ĠK rieg
stoff e
Ġm el
à¸ŀ à¸Ļ
D S
ib le
ĠK Ã¼nstler
man agement
à¹Ģà¸Ħ à¸¥
Ġà´ħà´µ à´ķ
Un ter
eh mer
Ġim port
Ã¶ se
ĠFrank furt
Ġà´ī à´®
à´°à´£ à´¤
à¸ĩ à¸Ħà¸§à¸²à¸¡
ĠM erk
w och
ĠAb schluss
Ġwer t
ak et
Ġa v
Ġà´ħ à´´
Ã¶r den
à¸Ń à¸Ħà¸§à¸²à¸¡
ĠZwe ck
et h
pro gramm
Ġc am
à´³ à´®
ick e
à´¤ à´°à´®
Ġà´ı à´´
ĠLin ks
at ter
Ġer le
à¸ŀ à¸Ń
ei der
ĠGe f
à´£ à´ķ
er in
D urch
ver kehr
Ġseg u
r or
ĠVers icher
ĠkÃ¶nn ten
ĠSti m
b and
ÑĨ Ð¸
Ù ĩ
à¸Ń à¹Ħà¸¡
à¸Ńà¸Ļ à¸ģ
fÃ¼ll t
Ġà´Ĩ à´ĺ
197 7
i Ã±o
ĠA ktion
Ġgesch rieben
ĠVertrag s
O M
àµģ :
zeich en
pro b
ĠP ic
à´µà´¨ à´ķ
ĠHot els
ol e
Ġzu vor
Ġn eces
ĠL ust
Ã ¢
à´¶ à´¦
ĠCas h
ï ¼
ĠVer fahren
ĠRei he
ĠSp ezial
te uer
à¹ĥà¸Ļ à¸Ĭ
ĠBl u
Ġher unter
ĠP unkte
Ã¤tig keit
à¸Ļ à¹Ħ
Ġà¸ª à¸²à¸¡à¸²à¸£à¸ĸ
ĠZu dem
à¸ĩ à¹Ĥà¸Ľ
ĠMe ter
H H
ĠErw achsen
r t
ĠBestell ung
Ã¼ se
à¹Ĥà¸Ħà¸£ à¸ĩà¸ģà¸²à¸£
ĠTipp s
we der
ĠWider ruf
Ġo ber
ĠÃ ī
ohl en
ĠKom bin
à´¸ à´¯
à¸ķ à¸¢
un ternehmen
sÃ¤tz lich
ĠW Ã¤hrend
ir t
ĠO ff
Ð¾Ð ³
in i
Ġà´® à´§
ĠMa in
Ġzie hen
Ġw Ã¤hlen
Ã¼t z
ĠR und
ĠEU R
ÃŃ st
Ġbesonder e
Ä ģ
ĠGeb Ã¤ude
à´ľ à´±
W eiter
Ñ ī
ĠC amp
O L
Ġà´ª à´¶
ĠV iele
o ci
Ġgaleg o
ĠT rink
Ġà´® à´ķà´¨
à´ª à´²
ĠB ade
Ġer neut
i u
Ġk or
k ir
ĠM eister
lie ÃŁen
à¸Ĺà¸¢ à¸²à¸¥
ĠSt roh
ĠAn gel
à¸Ĭ à¸£
k arte
Ġmai or
um an
ĠB ro
ĠA g
É ª
Î »
Ġl aut
M ar
Ġunter wegs
g ern
i us
ĠAn spruch
à¸¥ à¸²
st Ã¤t
Ġp rin
Ġre du
is ierung
ÙĪ Ø±
ĠnÃ¤ch ste
ĠÃ¼b rigen
Ġun bedingt
Ġdar in
ĠErinner ungen
ig ten
Ġj en
Ġregel mÃ¤ÃŁig
g te
ĠFen ster
ym p
13 0
Ġl le
Ġà´ Ķ
ger ech
ĠP unkt
at ik
r aten
ĠP fer
ĠVers ion
b urger
ĠgrÃ¶ÃŁ ten
Ġz ent
Ġgr Ã¼n
Ð½ ÑĥÑİ
Ġáĥł áĥĿáĥ¯
Ġáĥ¤ áĥĲáĥĺáĥļ
Ġáĥª áĥĺáĥłáĥĲáĥ¡áĥ¥
Ġáĥ£áĥľáĥĺáĥķáĥĶáĥłáĥ¡áĥĺáĥ¢áĥĶáĥ¢ áĥĺ
ĠáĥĹáĥ£áĥłáĥ¥ áĥĶáĥĹáĥĺ
ĠáĥĴáĥķáĥĲáĥ¢áĥĶáĥĽ áĥĲáĥļáĥĲáĥ¨
ĠáĥŀáĥĶáĥ¢ áĥĶáĥłáĥĳ
áĥĲáĥļ áĥĲáĥ¤áĥĲ
ĠáĥĹ áĥ£áĥĹáĥĲ
ĠáĥĽáĥĲáĥ¡ áĥĺáĥķ
áĥ£áĥłáĥĵ áĥ£
áĥĽ áĥĲáĥŁáĥĺáĥł
áĥĶáĥľáĥ ¥
áĥĺáĥł áĥĶáĥ¨
áĥĺáĥł áĥĶáĥĳáĥ£áĥļáĥĺ
Ġáĥŀ áĥĶáĥĵ
áĥĶáĥĳ áĥĿ
áĥĺáĥľáĥ ķ
áĥĶáĥłáĥ ¬áĥĻáĥ·áĥĽáĥĲ
Ġáĥ® áĥĿáĥľ
áĥĺáĥ¢ áĥĲáĥłáĥ£áĥļáĥĺ
Ġáĥ¦ áĥķ
áĥĲáĥļáĥ£ áĥĶáĥ¤áĥĺ
ĠáĥĴáĥ·áĥĽ áĥĿáĥªáĥ®áĥĲáĥĵ
ĠáĥĽáĥ£áĥ¡ áĥļ
áĥĶáĥ¥áĥ¢ áĥĺáĥķ
ĠáĥĶáĥķáĥłáĥĿáĥŀ áĥ£áĥļáĥĺ
ĠáĥĴáĥĿáĥķáĥĺáĥĹáĥĲáĥł áĥĲáĥ¤áĥĺáĥļáĥĺ
ĠáĥĵáĥĿáĥľ áĥĶáĥ¨
áĥ¡áĥĲáĥ¥áĥĿáĥłáĥĹáĥ£ áĥĿáĥ¡
Ġáĥĳáĥĺáĥĸ áĥľ
Ġáĥ¡áĥĲ áĥĲáĥ¬áĥĽáĥĲáĥłáĥĶáĥľáĥ¯
ĠáĥĿáĥ¢ áĥłáĥĲáĥľáĥ¡áĥŀáĥĿáĥłáĥ¢áĥĶ
ĠáĥĲáĥķáĥ¦ áĥĲáĥľáĥĶáĥĹáĥĺáĥ¨
áĥł áĥ£áĥļáĥĺ
áĥĲáĥļáĥĺ áĥĲáĥłáĥĺ
ĠáĥŁ áĥĺáĥĴ
ĠáĥĳáĥĲáĥ¦ áĥĲáĥľ
ĠáĥĻáĥĲáĥłáĥĺáĥĶáĥł áĥĲáĥ¨
ĠáĥĹáĥ®áĥĺáĥļ áĥ£áĥĲáĥ¨
ĠáĥĽ áĥĿáĥ¥áĥĽ
áĥĲáĥł áĥĺáĥ¦
áĥķ áĥĲáĥļáĥĺ
áĥķ áĥĺáĥĵáĥ·
ĠáĥĹ áĥĶáĥ®áĥĲáĥľáĥ£áĥłáĥĺ
Ġáĥľ áĥĶáĥĳáĥĶáĥ¤áĥĺáĥ¨
ĠáĥĻ áĥĶáĥłáĥĸ
ĠáĥĶ áĥłáĥĺáĥ¨
áĥ£áĥļ áĥĶáĥ¤áĥĺáĥ¨
Ġáĥ¢ áĥĺáĥŀ
áĥĹ áĥĲáĥ¨
áĥĺáĥłáĥ Ĵ
áĥĲáĥľáĥ¡ áĥĺ
áĥĺáĥ¥ áĥ¢áĥĿáĥł
áĥ¯ áĥ¦
Ġáĥ¬áĥ§ áĥ£
Ġáĥ¯áĥĿáĥ® áĥĿáĥĵáĥ·
áĥĲáĥłáĥĵ áĥĺáĥ¨
ĠáĥĲáĥ¤ áĥĶáĥĹ
ĠáĥĶáĥļ áĥĽ
Ġáĥĵáĥĺáĥ® áĥĲ
Ġáĥ¡áĥ¢ áĥĲáĥłáĥĻáĥĺ
ĠáĥĻáĥĲáĥľ áĥĿáĥľáĥĺáĥ¨
ĠáĥĿáĥ®áĥĿáĥł áĥĲáĥľáĥĵáĥ·
ĠáĥĵáĥĲáĥłáĥĴ áĥĺ
Ġtraball o
Ġáĥ¡áĥĺáĥĽáĥĳ áĥĿáĥļáĥĿ
ĠáĥĵáĥĲáĥĳáĥĲáĥĵ áĥĶáĥĳáĥĲáĥ¨
ĠáĥĽáĥ£áĥŃáĥĿáĥĽ áĥĶáĥ¤áĥĺáĥĹ
ĠáĥĽ áĥĿáĥ©áĥĲáĥĽáĥĺáĥļáĥĺ
áĥĲáĥļ áĥĳ
ĠáĥĴ áĥĲáĥĳ
Ġáĥ¡ áĥĶáĥłáĥĺáĥ¨
áĥĺáĥĻ áĥ£áĥłáĥĿ
Ġáĥķ áĥĶáĥļ
Ġáĥ¢áĥĶáĥłáĥĺáĥ¢áĥĿáĥł áĥĺáĥĶáĥ¤áĥ¡
áĥĺáĥĿáĥĵ áĥķáĥĶáĥ¡
ĠáĥĴáĥķáĥĲáĥļ áĥĲáĥĽáĥĺ
Ġáĥĺáĥł áĥĺáĥľáĥ£
ĠáĥĽáĥĺáĥľ áĥĺáĥĽ
Ġáĥ£áĥľáĥĺáĥķáĥĶáĥłáĥ¡áĥĺáĥ¢áĥĶáĥ¢ áĥĺáĥ¡
ĠáĥĹáĥ£áĥłáĥ¥ áĥĶáĥĹáĥĺáĥ¨
ĠáĥĵáĥķáĥĲáĥļ áĥĺáĥłáĥĺ
ĠáĥĵáĥĿáĥ¦ áĥ£áĥłáĥ·
ĠáĥĴáĥķáĥĺáĥľáĥĶ áĥĲ
áĥĲ áĥĲáĥĽáĥ¨áĥķáĥĺ
ĠáĥĽ áĥĿáĥ¥áĥĺáĥĽ
ĠáĥĴ áĥĶáĥĹ
ĠáĥĴ áĥĲáĥ£
Ġáĥł áĥĺáĥľáĥĲáĥ¡
áĥĿáĥł áĥĶáĥ¤áĥĺ
áĥĵ áĥ£áĥĵ
áĥĿáĥĳ áĥĺáĥļáĥĺ
Ġáĥĳ áĥ£áĥłáĥ
áĥľ áĥĲáĥĽ
áĥĺáĥĽ áĥĲ
ĠáĥĲáĥĻ áĥĲáĥľáĥĺáĥ¨
ĠáĥŃ áĥĺáĥĶ
ĠáĥĲáĥłáĥ« áĥĿáĥ¨
Ġáĥĳáĥł áĥ£áĥĿ
ĠáĥĻáĥĿáĥĻ áĥĺáĥ¡
Ġáĥ¡áĥŀ áĥĿáĥłáĥ¢
ĠáĥĽáĥĺáĥĹ áĥĽáĥĺ
ĠáĥłáĥĲáĥĺ áĥĿáĥľáĥĺ
ĠáĥĻáĥł áĥĺáĥĸ
Ġáĥ©áĥĺáĥľ áĥ£áĥłáĥĺ
ĠáĥŀáĥĿáĥŀáĥ£áĥļ áĥĲáĥłáĥĿáĥĳáĥĲ
ĠáĥĵáĥĿáĥłáĥ¡áĥ®áĥ£áĥĲáĥ¤ áĥĲáĥ¨
Ġáĥĸáĥ·áĥĽ áĥĲáĥ¨
áĥĲáĥĽáĥĶáĥł áĥĺáĥĻ
ĠáĥĶáĥļáĥĶáĥ¥áĥ¢áĥłáĥĿáĥľ áĥ£áĥļáĥĺ
¨ áĥĿ
ĠáĥĴáĥł áĥĲáĥľ
áĥĲáĥĽ áĥĺáĥļ
Ġáĥŀ áĥĿáĥĸáĥĺáĥª
Ġáĥļ áĥĲáĥľáĥĵ
áĥ£áĥĵáĥ· áĥľ
áĥĶáĥĸ áĥĺ
áĥŃ áĥĺáĥĶáĥĹ
ĠáĥŀáĥĶáĥłáĥĺáĥĿáĥĵ áĥĺ
áĥĶáĥŀ áĥ¢
ĠáĥĻáĥĲáĥŀ áĥĺáĥ¢
Ġáĥ¡áĥĺáĥ¢ áĥĿáĥĽáĥĳ
Ġáĥ¥áĥĿáĥĽáĥĿáĥļ áĥĻáĥĿáĥ©
Ġáĥ¤ áĥ£áĥłáĥª
Ġáĥ© áĥĺáĥĶáĥĳ
áĥ£ áĥĲáĥļáĥ£áĥłáĥĺ
Ġáĥ¬ áĥ£áĥĽ
Ġáĥ® áĥĿáĥłáĥ
Ġáĥ£áĥĽ áĥ£áĥĻ
ĠáĥĲáĥļ áĥŀ
ĠáĥĶáĥĻ áĥł
Ġáĥ¢áĥĶáĥļ áĥĶáĥķáĥĺáĥĸ
áĥĴáĥĶ áĥĿáĥĴáĥłáĥĲáĥ¤
Ġáĥ£áĥĽáĥ£áĥĻ áĥ£áĥ¯áĥĺáĥľáĥ£áĥĿ
ĠáĥĴáĥĶáĥĿáĥĴáĥłáĥĲáĥ¤ áĥĺáĥĲ
áĥĽáĥĲáĥłáĥ ©áĥ¥áĥĺáĥľ
ĠZusammen hang
Ġver stehen
à¹Ĥ à¸Ħ
à´Ń à´µà´¤
ĠHer bst
ĠS atz
Ġgesam ten
v iel
ad ores
wer ke
à¸ļ à¸Ĥ
bie ten
à¸Ĺ à¸²à¸Ļ
à¸²à¸ĩà¸ģ à¸²à¸¢
l ag
à¸¨ à¸£
me di
iv al
à¸Ń à¸«
à¸³ à¸¡
ach st
c as
I M
Ġpos itiv
L E
ic es
ĠL o
à´¿ ;
c er
Î ¼
Ġs im
om a
Ġverbesser n
Ġpor no
ĠZ us
å ¹
Ġin tens
ĠP ers
Ġfre und
à¸Ħ à¸°
à´³ à´ľ
ĠK er
lig a
ĠKon z
ĠUn ser
m ine
or y
au ern
s etzt
Ġan ges
ac ional
ras se
ĠWochen ende
ĠkÃ¶nn t
ĠBeg riff
ĠEn g
j en
ĠFre unde
Ġumf assen
e ck
ĠT el
à¸ķ à¸ļà¸Ńà¸¥
àµį ?
Ġpl an
à¸³ à¸¥
g art
f an
ation ale
ĠMit te
ĠR Ã¶
Ġzie mlich
Ġgleich en
ir l
ĠP ay
Ġan gen
enn ung
ĠV ater
Ġgesam te
m es
Ġdenn och
ĠS w
ĠArb eiten
ar Ã¡
Ġl ing
rÃ¼ck en
los e
D u
à´Ńà´µ à´Ļ
ent halt
ĠL ager
Ġteil weise
Ġab zu
à´Ł àµ»
st re
ĠMicro soft
ei s
Ġà´ĩ à´±à´Ļ
part ner
ti co
à¸ķ à¸ł
197 9
ut h
on en
Ġà´¨ à´¯
Ø ¹
Ï Į
à¸ģà¸£à¸° à¸Ĺ
R A
à´µ àµ»
Ġn Ã¶
Ġver pflich
Ġà¸ģ à¸£
k re
ĠB ot
ide o
an cen
198 4
f unktion
Ġp asst
geh end
à´¸ à´µ
ĠTem peratur
ĠI r
Ġh or
Ġl a
ie gen
ĠVer tra
Ġ à¦
ĠÐ ¡
sch Ã¶n
ĠDeut sch
ĠGesprÃ¤ ch
b an
Ġsp ort
à´Ľ à´¨
ĠSch warz
198 7
em pl
schein lich
à¸Ķ à¸Ń
à¸ªà¸¡ à¸ļ
à¸ļ à¹Ħà¸ĭà¸ķ
Ġeinz igar
ĠGew inn
ĠLes er
3 000
Ġs itu
Ġn ied
min ist
à¸² à¹ĥà¸Ī
" -
Ġan gem
Ġsch lieÃŁlich
Ġlang sam
ÃŃ an
l ern
Ġf e
Ġabsol ut
Ġzwei te
] )
Ġander er
à¸Ńà¸ĩ à¸ŀ
à¹Ĥ à¸Ĭ
Ġs u
ĠL im
Ġch eg
195 4
Ġgen annten
ha ber
ĠFre e
b ox
ers eits
Ġkostenlos e
Ġà´ħ à´¡
Un sere
ĠR uss
Ġra us
ĠGrund lage
Ġmittler weile
à¸Ļ à¹Ģà¸Ĺ
Ġt rans
p ft
à¸² à¹ģà¸¥à¸°
Ġdesen vol
ĠW ander
ris e
à¸Īà¸° à¹Ħà¸Ķ
ri a
Ġdi ver
l y
ĠverÃ¶ffent licht
à¸Ķà¸³ à¹Ģà¸Ļ
Ã¼ hle
ĠPro zess
ss ystem
Ġlie ber
Ġà´Ĩ à´§
ĠP sych
ed es
a Ã±a
it s
ĠJo hann
Ġein gel
Ġaus drÃ¼ck
y r
im al
pf lege
Ø§Ø ±
Ġdes de
ĠMark eting
ĠItal ien
alen der
Ġver tra
Ð» ÑĮ
Ã¤um e
om os
Ġgesch lossen
Ġn en
à¸ģ à¸¡
à´¬ à´¤
ĠauÃŁer dem
ĠD om
ei ert
ĠZ wischen
Ð ŀ
ym n
à´Ĺ à´µ
anz eigen
ĠBei m
ĠP otter
ĠSch ei
ĠBÃ¼ ro
fl Ã¼
Ġzum indest
198 2
fÃ¼hr en
ra el
à´µ à´Ł
à´Ł àµ¼à´¨
à¸§ à¸«à¸Ļ
196 6
ruf en
ĠS eg
à¸« à¸²à¸¢
ĠP en
ant as
Ġgen ieÃŁen
Ġdo us
ĠE t
Ã¤l te
Ġs orgt
ĠØ ¢
Ġà´ī à´¯
Ġreg istr
ĠÑģ Ð¾
ĠA ss
ĠOr d
ĠWar e
ĠS E
14 0
K l
âĢ į
à¸ģà¸²à¸£ à¸ķ
ab an
Ġe cht
Ġun abhÃ¤ng
à¸Īà¸° à¸ķ
ĠĠ ĠĠ
UN G
b as
Ð± Ñĥ
àµ» à´ª
ĠmÃ¶glich st
à´¿ âĢĭâĢĭâĢĭ
ĠE ind
ĠáĥĴ áĥĺáĥ¢
ge g
Ġáĥĳ áĥĿáĥ¡áĥ¤
Ġáĥ° áĥĲáĥłáĥĺáĥĲáĥľ
Ġáĥ¤áĥĺáĥļáĥĽ áĥĶáĥ¤áĥĺ
Ġáĥĳáĥĺáĥł áĥĲ
ĠáĥĲáĥ¢áĥĽáĥĿáĥ¡áĥ¤áĥĶáĥł áĥ£áĥļáĥĺ
áĥ¡áĥĲáĥĽ áĥĲáĥłáĥĴáĥĲáĥļ
Ġáĥłáĥ£áĥ¡áĥĹáĥĲáĥķ áĥĶáĥļáĥĺ
ĠáĥĴáĥķáĥĲáĥ¢áĥĶáĥĽ áĥĲáĥļáĥĲ
Ġáĥļ áĥĺáĥª
ĠáĥĶáĥłáĥĻáĥĶáĥĳáĥ£áĥļ áĥ¡
ĠáĥĴáĥĶáĥŃ áĥĿáĥ¤áĥĶáĥ¡
ĠáĥŀáĥļáĥĲáĥľáĥĶáĥ¢ áĥĲ
Ġáĥĵ áĥĶáĥļ
áĥĺáĥľ áĥĿáĥ¨
Ġáĥł áĥĲáĥ¡
Ġáĥ¢ áĥĺáĥŀáĥĺ
áĥĺáĥĿáĥ ¬
áĥĺáĥ£ áĥłáĥ
ĠáĥĿáĥłáĥ Ļ
áĥ£áĥľáĥ Ĺ
ĠáĥŁ áĥĺáĥľ
ĠáĥĲáĥļ áĥĶáĥĳáĥĲáĥĹ
áĥĿáĥĸ áĥĺáĥ¢áĥĿáĥł
ĠáĥĽáĥĿáĥ® áĥķáĥĲáĥĵ
ĠáĥĻáĥĿáĥĽáĥŀ áĥĿáĥĸáĥĺáĥ¢áĥĿáĥł
ĠáĥĶáĥł áĥĶáĥ¤áĥĺáĥ¨
ĠáĥĽáĥĺáĥ¨áĥĽ áĥĲáĥļáĥĺ
áĥķáĥĶáĥľ áĥ£
ĠáĥĿáĥ®áĥķáĥĲáĥĽ áĥĶáĥ¡
ĠáĥľáĥĲáĥ®áĥĲáĥľáĥĵ áĥĺ
Ġáĥłáĥ¡ áĥĶáĥĳáĥĶáĥľáĥ¡
ĠáĥĺáĥĻáĥĿáĥłáĥĿáĥªáĥ® áĥ£áĥĵáĥ·
Ġáĥĵáĥĺáĥł áĥĶáĥ¥áĥ¢áĥĿáĥłáĥĺ
Ġáĥĺáĥ¦ áĥķáĥĶáĥľáĥ£
ĠáĥĻáĥļáĥĲáĥ¡áĥĺáĥ¤áĥĺáĥĻ áĥĲáĥªáĥĺáĥĲ
ĠáĥĶáĥ¨áĥĽáĥĲáĥ¦áĥĲáĥļ áĥĲáĥłáĥĶáĥ¤áĥĺ
áĥ¡áĥĲáĥ¤ áĥłáĥĲáĥľáĥĴ
ĠáĥĲáĥļáĥĽáĥĲáĥ¨ áĥĲáĥłáĥĶ
áĥ£áĥł áĥĺáĥĶ
Ġáĥ¯ áĥĿ
ĠáĥŃ áĥĻáĥĿáĥĽ
Ġáĥĵáĥ£áĥĵ áĥĶáĥľáĥ¡
ĠáĥĽáĥ£áĥ¡ áĥ£áĥļ
ĠÐ² Ð°ÑĪ
ĠáĥķáĥĶáĥłáĥ¡ áĥĺáĥĲ
ĠáĥĻáĥĿáĥľáĥ¤ áĥĶáĥłáĥĶáĥľáĥª
ĠáĥĴáĥĶáĥ© áĥĺáĥľáĥĶáĥĳáĥĲáĥ¤áĥ£
Ġáĥĺáĥ®áĥĲáĥ¡áĥĺáĥĲáĥĹ áĥĶáĥĳáĥ£
áĥĲáĥļ áĥĲáĥ¨áĥĲ
à¸² à¹ĥà¸Ļ
áĥ¡ áĥĺáĥ¡
Ġáĥľ áĥĿáĥĵáĥĴáĥ·áĥĽ
áĥĶáĥł áĥĲ
áĥĿáĥĳ áĥĿ
áĥĺáĥł áĥĲáĥ¨
áĥĿáĥľ áĥĺáĥĹ
Ġáĥ¤ áĥĲáĥłáĥĴ
áĥ£áĥļ áĥĿáĥĳáĥĲáĥ¨
Ġáĥ® áĥķáĥĲáĥł
áĥĺáĥĲáĥľ áĥĶáĥ¤áĥĺáĥ¨
áĥĿáĥ® áĥĲáĥľáĥĵ
áĥĲáĥª áĥĺáĥ£áĥłáĥĺ
áĥĲáĥĸ áĥĽ
Ġáĥĺáĥľáĥĵ áĥĺáĥ¨
áĥĺáĥľáĥĴ áĥĺ
Ġáĥĸáĥ£áĥ¦ áĥĲáĥ¨áĥĲ
Ġáĥ¨áĥĲáĥľáĥ£áĥļ áĥĲáĥĽáĥĿ
ĠáĥĻáĥĿáĥļ áĥĿáĥľáĥĺáĥĲ
Ġáĥ§ áĥĲáĥĸáĥĲáĥ®
ĠáĥĴáĥĿáĥ¤áĥĲáĥ© áĥ£áĥĲáĥ¨
ĠáĥĽáĥĶáĥ£ áĥ¯áĥ¦
Ġáĥ¡áĥ¢áĥĲáĥ¢ áĥĺáĥĲ
ĠáĥĴáĥĶáĥłáĥĽáĥĲáĥľ áĥĺáĥĲáĥ¨
ĠáĥĴáĥĶáĥłáĥĽáĥĲáĥľ áĥĲáĥļáĥĺ
ĠáĥĽáĥĺáĥĽ áĥĲáĥļ
ĠáĥłáĥĻáĥĺáĥľáĥĲáĥ¨ áĥ¨áĥĲáĥłáĥĲáĥ¨
ĠáĥĽáĥĶáĥĵ áĥĺáĥª
ĠáĥķáĥĲáĥļ áĥĶáĥľáĥ¡
ĠáĥĵáĥĿáĥŃáĥ§ áĥĲáĥ¤áĥĺáĥļáĥĺ
ĠáĥĽáĥĲáĥ¤ áĥ£áĥłáĥĺáĥľáĥ¯
ĠáĥĶáĥĴáĥķáĥĺáĥŀáĥ¢ áĥĶáĥ¨
ĠáĥĽáĥĲáĥĻ áĥĶáĥĵ
ĠáĥŀáĥłáĥĶáĥĸáĥĺáĥĵáĥĶáĥľáĥ¢ áĥĿ
ĠáĥĵáĥĿáĥłáĥĹáĥ£ áĥĲáĥļáĥĲ
ĠáĥĵáĥĿáĥ¸ áĥ£áĥľ
ĠáĥĴáĥĿáĥ®áĥ£áĥłáĥĴ áĥĺáĥļáĥĺ
Ġáĥĸáĥ£áĥĴ áĥĵáĥĺáĥĵ
ĠáĥŀáĥłáĥĿáĥĵáĥĺáĥ£áĥ¡ áĥĶáĥłáĥĺ
ĠáĥĽ áĥĲáĥ¤áĥĲáĥ¨
áĥĲáĥłáĥ ª
áĥĶáĥľáĥ Ĺ
áĥĿáĥļ áĥ£
áĥĴ áĥ·
Ġáĥ¥ áĥĺáĥľ
áĥĺáĥĵ áĥĶáĥĽ
Ġáĥ¯ áĥĲáĥĺáĥľ
Ġáĥ¬áĥĲáĥľáĥĲáĥ¨ áĥĲ
Ġáĥ£áĥĻ áĥĿáĥ®áĥĿáĥļáĥĶ
áĥĺáĥľáĥ· áĥľáĥ¡
ĠáĥĽáĥĶáĥľáĥªáĥĲáĥł áĥĿáĥĳáĥĶáĥ¤áĥĺáĥ¨
Ġáĥĺáĥľ áĥĿáĥ®
ĠáĥŀáĥłáĥĶáĥĽ áĥĺáĥĲ
ĠáĥĽáĥĿáĥĵ áĥĶáĥļáĥĺ
ĠáĥĽáĥĲáĥ¡áĥ¨áĥ¢áĥĲáĥĳ áĥĺáĥĹ
ĠáĥĽáĥ£áĥĵáĥĴáĥĲáĥĸáĥĽáĥĲáĥł áĥĶáĥľáĥĺ
Ġáĥĵ áĥĺáĥĹ
ĠáĥĴ áĥĿáĥĹáĥĲáĥľáĥ¯
áĥķ áĥĺáĥĻ
áĥ¡ áĥł
áĥ¨ áĥ®áĥķ
áĥĴ áĥ£áĥĽ
Ġáĥķ áĥĿáĥļ
Ġáĥķ áĥĺáĥĸ
Ġáĥ¥ áĥł
áĥŀ áĥĶáĥłáĥĺ
ĠáĥĿáĥ¨ áĥĺáĥľáĥĲáĥļáĥĺ
áĥĲáĥĴ áĥľ
áĥłáĥ Ļ
Ġáĥ£áĥĻáĥ£áĥļáĥĺ áĥĲáĥľ
áĥĺáĥłáĥĹ áĥĶáĥ¡
ĠáĥĽáĥĲáĥ Ń
ĠáĥĲáĥ¡ áĥĿ
ĠáĥĴáĥĶáĥķ áĥĺáĥĹ
ĠáĥĶáĥ¨ áĥĲáĥĴ
ĠáĥĻáĥ£áĥļáĥ¢áĥ£áĥł áĥĲ
Ġáĥ¡áĥĲáĥĳ áĥĿáĥļáĥĿ
áĥĲáĥĻáĥĶáĥłáĥ« áĥĲáĥ¤áĥĺáĥļ
ĠáĥĶáĥľáĥ ¬áĥ§
ĠáĥĴáĥĶáĥłáĥĽáĥĲáĥľ áĥ£áĥļáĥĺ
Ġáĥĺáĥ¨ áĥĶáĥľáĥĺáĥĹ
áĥĲáĥĴáĥĿáĥł áĥĺáĥļáĥĺ
ĠáĥŀáĥĿáĥŀáĥ£áĥļ áĥĲáĥłáĥ£áĥļáĥĺ
ĠáĥĽáĥĿáĥ¦ áĥĲáĥļáĥĶ
ĠáĥĻáĥĿáĥłáĥ ŀ
ĠáĥĵáĥĴáĥĿáĥĽ áĥĲáĥł
áĥĲáĥľ áĥĲáĥĽáĥĺ
áĥĲáĥł áĥĲáĥļ
Ġáĥľ áĥĿáĥĽ
ĠáĥĻ áĥĴ
áĥĿáĥľáĥ Ļ
áĥĲáĥª áĥĺáĥĶáĥ¤áĥĺáĥ¨
Ġáĥ¸ áĥ£áĥľáĥ¡
ĠáĥĽáĥĲáĥĵ áĥķáĥĲáĥļáĥ£
Ġáĥĺáĥ¢ áĥĲáĥļáĥĺáĥĲáĥ¡
áĥ¡áĥ¢ áĥłáĥĺ
ĠáĥĶáĥłáĥĻ áĥĶáĥĳáĥ£áĥļáĥĺ
ĠáĥłáĥĹ áĥ£áĥļáĥĺ
ĠáĥĽáĥĿáĥłáĥ¡áĥ®áĥ£ áĥĶ
Ġáĥĵ áĥł
Ġáĥĵ áĥĺáĥ¡
Ġáĥ¡ áĥĺáĥ©áĥ¥
ĠáĥĻ áĥ£áĥł
ĠáĥĿáĥ «áĥĴ
Ġáĥĳ áĥĿáĥľ
áĥĿáĥļ áĥĿáĥ¤
áĥĲáĥĳ áĥĺ
Ġáĥ¡áĥ¥ áĥĺáĥĵáĥ£
ĠáĥĽáĥ£áĥ¡ áĥĺáĥĻáĥĿáĥ¡áĥĺ
Ġáĥ£áĥłáĥ ªáĥ®
Ġáĥ¤áĥĶáĥĵáĥĶáĥł áĥĲáĥªáĥĺáĥĲáĥ¨
ĠáĥĹáĥ¥ áĥ£
ĠáĥļáĥĲáĥĹáĥĺáĥľ áĥ£áĥł
Ġáĥ¬áĥĿáĥł áĥĿáĥĽ
Ġáĥ§áĥĲáĥłáĥĲáĥ¤ áĥĺ
Ġáĥķáĥ£áĥļáĥĻ áĥĲáĥľáĥ£áĥłáĥĺ
ĠáĥŁáĥĲáĥľ áĥłáĥĺáĥ¨
Ġáĥ¡áĥ¡ áĥł
ĠáĥĲáĥłáĥ¥áĥĶ áĥĿáĥļáĥĿáĥĴáĥĺáĥ£áĥłáĥĺ
ĠáĥĶáĥłáĥľ áĥĶáĥ¡áĥ¢
Ġáĥĳ áĥ°
áĥ£áĥłáĥ ¨áĥĶ
ĠáĥĽáĥĲáĥ °
Ġáĥ¯áĥĲáĥłáĥĺáĥ¨ áĥĻáĥĿáĥ©
Ġáĥ¡ áĥĲáĥłáĥ¯
ĠáĥĿáĥ ¥
ĠáĥĿ áĥĲáĥĴáĥĶáĥľáĥ¢
ĠáĥĽáĥ£áĥŃ áĥĿ
áĥĺáĥ® áĥ¢
áĥĲáĥłáĥĻ áĥķ
Ġáĥ§áĥĲáĥłáĥĲáĥ¤ áĥĺáĥ¨
Ġáĥķ áĥĶáĥĵ
áĥłáĥĺ áĥĲáĥłáĥ¥
ĠáĥĶáĥľáĥªáĥĺáĥĻáĥļáĥĿáĥŀáĥĶáĥĵ áĥĺáĥĲáĥ¥
ĠáĥľáĥĲáĥŀáĥĿáĥļáĥĶ áĥĿáĥľáĥ¥
Ġer stellen
Ġbesonder en
Ġ à¹Ħà¸Ľ
ul ler
Ġver antwort
à´² à´¸
à¸§à¸¡ à¸ģ
ĠL ED
Ġihr es
Ġer o
ieren den
à¸Īà¸° à¹Ģà¸Ľ
ĠAnd re
à¸ĩ à¸Ľ
Ġà´ī à´ļ
eral a
angeb ot
ĠImmobil ien
ĠSo cial
4 50
ann ung
Ġsol chen
ur o
à¸«à¸¥ à¸Ķ
Ġà´¸ à´Ń
à´° àµ»
ĠR os
Die ser
Ġent gegen
ĠD el
m aterial
Ġcom un
rÃ¤ f
Ġ à¸ĵ
Ġer ster
om ie
Ġ à¸£à¸²à¸Ħà¸²
ĠH Ã¶r
ri ffen
à¸ļ à¸²à¸Ĺ
Ġà¸« à¸²à¸ģ
ĠBeruf s
Ġl au
ern er
ĠBo x
Ġunterschied lichen
ĠbenÃ¶ tigt
Ġge kommen
d at
Ġb ild
ist as
Ġa qu
ur m
ĠLeist ungs
Ġr uh
ĠSp eicher
Ġbra uchen
à¸ļ à¸Ķ
klus ive
à¸Ī à¸ģà¸£à¸£à¸¡
à¸³ à¹ģ
Ġà´ĩ à´Łà´¯
ober t
ar se
los s
z un
ĠC re
Ġgest alten
à¸ģà¸²à¸£ à¸£
Ġver gleich
eich t
Ġf Ã¤llt
n y
à¸ĩ à¹ĥà¸«
ĠÐ Ł
Ġd el
ĠM w
se h
ĠEin sch
Ġvers ucht
w echsel
à´£ à´Ļ
Ġein ger
% ),
ĠZ eiten
Ù Ĥ
ĠMont ag
ĠSicherheit s
v Ã¶lker
ph one
E U
Ġà´¸ à´Ńà´¯
Ġb as
à¸į à¸Ĭ
ĠK urs
à¸Ļ à¸ĸ
ĠP il
l etzt
ĠD auer
ĠtÃ¤ glich
ĠT on
à¸£à¸° à¸¢à¸°
Ġhil ft
T V
Ġbe quem
ĠM ay
ĠPro vin
ĠR ock
ĠC ap
Ġwichtig sten
ra chen
Ġr et
ĠH ann
Ġem pres
Ġj ungen
Ġà´¸à´® à´¯à´¤
ĠStu dien
ven tion
K on
Ã¤r m
s al
Ġle gen
ĠSil ber
ĠAnt wort
ĠEr satz
k ra
hol z
z Ã¤hl
à¸³ à¸ķ
a der
as ser
à´§ à´µ
Ġbestimm ten
En t
à¸ĩ à¸ĸ
es a
ĠR en
ĠM ass
p la
ĠGesch mack
Ġà´ªà´² à´°
Ġzuf rieden
ĠS achen
Ġw ohn
ind ust
à´ľ à´°
zeich nung
ĠBe zug
ĠK arten
Ġmell or
mer ksam
Ġd isk
ĠW Ã¼n
ĠBest and
ĠFÃ¤l len
ĠA ktu
och ter
Ġbest Ã¤
ĠNach richten
il la
ĠU l
d ass
T e
ÑĢ Ñĥ
ver trag
Ġest Ã¡n
ĠEigen t
à¸ĩ à¹Ģà¸ģ
ĠMedi a
à´¸ à´°à´¤
Ġentsprechen den
ĠAuf gabe
p tion
Ġein gesetzt
Ġd ah
spr ung
Ġb a
ĠM ad
C l
à¸Ľà¸£à¸° à¸Īà¸³
Ġdeut sch
Ġ Ã¤lter
ber eitung
ord in
ox e
Ñģ ÐºÐ¸
à¸¡ à¹Ģà¸ķ
ĠMar ken
Ġc an
ĠverfÃ¼g bar
à¸¢ à¸Ńà¸Ķ
à¸Ķ à¹ĥà¸Ļ
Ġer leben
ĠH on
Ġden de
ig o
z y
Ġà´ļ à´¨
àµĭ âĢĭ
ĠAn forderungen
à¸Ľà¸£à¸° à¹Ĥà¸¢
it es
A ll
Ġprof es
ĠK rank
ief el
ĠMw St
m ut
ĠL ive
ÑĤ ÑĮ
ĠGew alt
ch ner
Ġkl einer
Ġv ida
Ġob wohl
ib il
verb and
à´¤ à´°à´¤
f ass
Ġd re
Ġge tragen
Ġk re
à¹Ģà¸§ à¸Ńà¸£
ĠTra um
sp rache
tern e
Ġà´¡ à´¯à´±
Ġv ia
17 00
à¸²à¸Ļ à¸Ĺ
B O
los en
Ð¾Ð ¶
ie ben
ĠS onder
Ã³ s
ĠReg ierung
ĠIn tegr
er ie
m l
gew Ã¶hn
ĠS ohn
in u
Ġange geben
Ġle dig
Ġt olle
Ġman chmal
Ġ Ã¤ndern
Ġi den
à¸Ľà¸£à¸°à¹Ģà¸Ĺà¸¨ à¹Ħà¸Ĺà¸¢
Ġin nov
umm ern
XV III
at hl
an lagen
ĠV en
ht t
L e
ĠÐ¾ Ð±
it Ã¤r
ĠW ohl
Ġs an
ĠP aar
à´¥ à´²à´¤
Ġwir tschaft
ogra ph
unt ry
ĠM ess
Ġm orgen
Ġinst all
ÐµÐ½Ð¸ Ñı
à¸ ¬
ĠAus land
v ollen
Ġà´Ĺ à´µ
ĠÑĥ Ñĩ
Ð¸Ñģ ÑĮ
s sen
ĠY ou
à¸ķà¸¥ à¸²à¸Ķ
verstÃ¤nd lich
i ol
ira j
z ur
or ien
auf trag
and id
Ġgew Ã¼n
ĠMet all
ĠÑģÐ°Ð¹ ÑĤ
mer z
Ġauf zu
ĠÐ· Ð°Ð¿
u el
ĠerklÃ¤r en
ot o
ie te
Ġentwick eln
Ġgeb racht
ĠS uch
Ġf Ã¶r
ĠSch rift
ĠJ ung
à¹Ĥ à¸Ĺà¸£
Ġtra dition
Ú ĺ
Ġáĥŀ áĥĺáĥĻáĥĲáĥ¡
ĠáĥĿáĥłáĥ ¦
ĠáĥĴáĥĿáĥļ áĥĴ
Ġáĥ¯áĥĲáĥ¡áĥ¢ áĥĺáĥľáĥĺáĥ¨
ĠáĥĳáĥĲáĥ® áĥĺáĥ¨
Ġáĥĳáĥĺáĥĳ áĥĶáĥłáĥ¥
ĠpersÃ¶n lich
ĠáĥļáĥĲáĥĻ áĥĿáĥ¢
áĥĶáĥłáĥĹ áĥ·
ĠáĥĲáĥ©áĥĶáĥ° áĥĺáĥ¨
ĠáĥĴáĥĲáĥŃáĥ§ áĥ·
ĠáĥĶáĥ® áĥĲáĥłáĥĴ
ĠáĥłáĥĿáĥ¯ áĥĶáĥłáĥ¡
ĠØ¢ Úĺ
ĠØ¢Úĺ Ø§ÙĨØ³
Ġáĥľáĥĺáĥľ áĥĲáĥĽ
ĠáĥĽáĥĲáĥ¤ áĥĶáĥ¤áĥĺáĥ¨
Ġáĥĵ áĥĺáĥļ
Ġáĥľ áĥĿáĥ¢
à´µ à´§
ĠáĥĻ áĥĲáĥ®
ĠáĥĿáĥ ¬áĥ§
áĥĲáĥĵ áĥĺáĥł
ĠG raf
áĥ¤ áĥª
Ġáĥĵáĥ¦ áĥĲáĥ®áĥ£
áĥĺáĥĸ áĥĲáĥªáĥĺáĥĲ
áĥĺáĥĴ áĥ£áĥłáĥ£
Ġáĥ¨áĥĲáĥľ áĥ¥
Ġáĥ£áĥ© áĥ¥áĥ·
ĠáĥĿáĥļáĥ¥ áĥĺáĥ¥
Ġáĥ¢áĥĿáĥĽ áĥĺáĥ¨
Ġáĥĳáĥĺáĥł áĥĶáĥ¤áĥĺáĥ¨
ĠáĥĹáĥĶáĥĲáĥ¢ áĥł
ĠáĥĿáĥĹáĥ®áĥĿáĥľáĥĶáĥ©áĥĵáĥĿáĥķáĥĺáĥĹ áĥĿáĥ©áĥ®áĥĿáĥłáĥĿ
Ġáĥ°áĥĿáĥļ áĥĽ
ĠáĥĽáĥĲáĥĻáĥĲáĥĹáĥ£áĥł áĥĶáĥ¤áĥĺ
ĠáĥļáĥĺáĥĴ áĥĶ
ĠáĥĿáĥ®áĥĺáĥĵ áĥĲ
Ġáĥ¬áĥ§áĥĲáĥłáĥĴ áĥĶáĥļ
Ġáĥ¡áĥĺáĥľáĥĴ áĥļáĥĺ
áĥ¤áĥª áĥĺáĥĴ
Ġáĥ¡ áĥĺáĥ¡
áĥĵ áĥĺ
Ġáĥĳ áĥĶáĥłáĥľ
áĥĲáĥĻ áĥĿ
ĠáĥĽáĥ£áĥ¨ áĥĶáĥľáĥ¡
Ñħ Ð¾Ð´Ð°
ĠáĥĽáĥĶáĥłáĥĻ áĥĶáĥĹ
áĥĶ áĥĿáĥ¡áĥĺáĥ¨
áĥ£ áĥĶáĥ¡
áĥĲáĥļ áĥĺáĥĲáĥľ
ĠáĥĻ áĥĲáĥ¡
áĥĿáĥł áĥĶáĥ¤áĥĺáĥ¨
áĥĻ áĥĿáĥł
áĥĿáĥĳ áĥĺ
áĥ¨ áĥĻáĥķáĥĺáĥĹáĥĿáĥ¨
áĥĴ áĥĲáĥļáĥĶ
Ġáĥ¤ áĥĶáĥľ
Ġáĥĺáĥ «áĥĺáĥł
áĥĺáĥ£ áĥ¯
Ġáĥ¯ áĥĿáĥ¦
ĠáĥĽáĥĲ áĥĲáĥľáĥĹáĥ®áĥĲ
áĥ£áĥłáĥ ĸ
áĥ£áĥĽ áĥĲáĥĵáĥķáĥĲáĥļáĥ£
áĥĲáĥĻ áĥĿáĥłáĥĿáĥªáĥ®
ĠáĥĿáĥĽ áĥĶáĥľ
áĥ° áĥĺáĥľ
ĠáĥĿáĥĵ áĥ£áĥĵ
Ġáĥ¥áĥĺáĥĽ áĥĺáĥ¦áĥ·
Ġáĥ¤áĥĲáĥłáĥĹ áĥĶ
áĥĲáĥ« áĥĶ
ĠáĥĶáĥ¡áĥŀ áĥĲáĥľáĥ£áĥłáĥĺ
áĥĿáĥĳáĥ£áĥł áĥĶáĥ¤áĥĺáĥ¨
ĠáĥĿáĥĳáĥŁáĥĲáĥĹ áĥĶáĥ¨
áĥĺáĥłáĥĿáĥľ áĥĶ
ĠáĥķáĥĲáĥł áĥĺáĥĲáĥľ
Ġáĥ¤áĥĺáĥĸ áĥĺáĥĻáĥĲáĥ¡
Ġáĥ®áĥĲáĥľáĥĵ áĥĲáĥ¨
ĠáĥĻáĥĿáĥľáĥĻ áĥĲ
ĠáĥĲáĥ¥áĥ¢ áĥĺáĥ£áĥłáĥĿ
ĠáĥĵáĥĲáĥłáĥĴ áĥĺáĥ¡
Ġáĥ¢áĥłáĥĲáĥĵáĥĺáĥª áĥĺáĥ£áĥļ
ĠáĥĿáĥķ áĥĲáĥŃáĥĲáĥłáĥĶ
ĠáĥĵáĥĲáĥ¡ áĥĲáĥĳ
Ġáĥ¨áĥķáĥĶáĥĵ áĥĶáĥĹáĥĺáĥ¨
ĠáĥĲáĥ¡áĥ¢áĥł áĥĿáĥľáĥĿáĥĽ
ĠáĥļáĥĲáĥĽ áĥĶ
ĠáĥĵáĥĿáĥŃ áĥĲáĥłáĥ·
Ġáĥ£áĥĹáĥĲáĥłáĥĲáĥ¨ áĥĿ
ĠáĥľáĥĹ áĥĶáĥļ
ĠáĥĲáĥłáĥ¥áĥĺáĥ¢áĥĶáĥ¥áĥ¢áĥ£áĥł áĥĲáĥ¨
ĠáĥĿáĥľáĥĵ áĥĶáĥĹ
áĥĲáĥľáĥ¢áĥĺáĥľ áĥĿáĥŀ
áĥĽ áĥĲáĥłáĥĹ
áĥ¡ áĥĽ
Ġáĥ¡ áĥĲáĥ¢
Ġáĥ¦ áĥĿáĥļáĥĲáĥĽ
áĥª áĥ®
ĠáĥĽáĥĶáĥłáĥ ¡áĥ®áĥ£áĥĲáĥ¤
ĠáĥĶáĥŀ áĥĺáĥĵáĥĶáĥĽ
ĠáĥĵáĥĴáĥ·áĥĽ áĥĺáĥļáĥĺ
ĠáĥľáĥĲáĥĽáĥ£áĥĶáĥ¤ áĥ¨áĥĶáĥĹ
áĥĿáĥłáĥ© áĥĺáĥļáĥĺ
Ġáĥ®áĥĿáĥļ áĥĿáĥ¡
Ġáĥ£áĥľáĥ© áĥĲáĥ¨áĥĺ
ĠáĥĽáĥ£áĥĹáĥĽáĥĿáĥ® áĥķáĥĲáĥĵáĥ£
ĠáĥķáĥĲáĥłáĥ ĵáĥ·
áĥ£áĥ Ń
Ġáĥĵ áĥĺáĥ¥
áĥł áĥĶáĥĵ
ĠáĥĴ áĥ£áĥĹáĥĽ
áĥĲáĥł áĥĶáĥĹ
áĥĲáĥ¡ áĥĺáĥ¡
Ġáĥł áĥĶáĥŀ
Ġáĥ¡ áĥĺáĥ¢áĥ£
áĥĵ áĥĿáĥ®áĥĿáĥļ
áĥĿáĥłáĥ ĵáĥ·
Ġáĥĳ áĥĲáĥĵ
Ġáĥ£ áĥ¢
áĥĿáĥļ áĥĺáĥĹ
Ġáĥķ áĥĺáĥĿáĥļ
áĥ£áĥļ áĥĶ
áĥ£áĥļ áĥĶáĥ¤áĥĺ
áĥĶáĥĹ áĥ¨áĥĶ
Ġáĥ® áĥĿáĥľáĥĲáĥł
áĥ¦ áĥķáĥĲáĥł
Ġáĥłáĥ ĻáĥķáĥĺáĥĶáĥĳ
áĥ£áĥłáĥ Ń
ĠáĥľáĥĿáĥ¦ áĥĶáĥ¤áĥĺ
áĥª áĥĺáĥĲáĥ¨
ĠáĥĽáĥĲáĥ® áĥķáĥĲáĥł
ĠáĥĽáĥĺáĥ¨ áĥĶáĥļáĥ·
áĥ£áĥłáĥĴ áĥĺáĥ¡
ĠáĥĴáĥĺáĥ¨ áĥĲáĥłáĥĹ
ĠáĥĴáĥĺáĥ¨ áĥĶáĥĴáĥĿáĥł
áĥĿáĥĸ áĥĺ
ĠáĥĴáĥ·áĥ¨ áĥĲáĥĻáĥĶáĥłáĥ«áĥĲáĥ¤áĥĺáĥļáĥĺ
ĠáĥĺáĥĽ áĥŀáĥĶáĥłáĥĺ
ĠáĥĴáĥķáĥĲáĥļ áĥĶáĥ¤áĥĺáĥ¨
ĠáĥĴáĥ£áĥł áĥĲáĥ¤áĥĲáĥ¨
ĠáĥłáĥĿáĥļ áĥĺáĥĹ
Ġáĥ¡áĥĲáĥ¤áĥłáĥĲáĥľáĥĴ áĥĶáĥĹáĥĺ
ĠÐ² ÑħÐ¾Ð´Ð°
Ġáĥ¡áĥĶáĥł áĥĺáĥĲáĥ¡
ĠáĥĽáĥĿáĥľáĥ« áĥ¦áĥķáĥĲáĥł
ĠáĥķáĥĲáĥļ áĥ£áĥ¢
Ġáĥĺáĥľáĥ¢áĥĶáĥłáĥľ áĥĶáĥ¢
ÐµÑĤ Ð½ÑĥÑİ
Ġáĥ¨áĥĶáĥ£áĥļ áĥĶáĥĳáĥ·
Ð¹ ÑĤÐµ
ĠáĥĴáĥĿáĥĽ áĥĲáĥľáĥĴ
áĥĺáĥľáĥ¢ áĥĶáĥłáĥĶáĥ¡
ĠáĥĳáĥĶáĥļ áĥĴ
ĠáĥŀáĥĲáĥłáĥļáĥĲáĥĽ áĥĶáĥľáĥ¢áĥĺ
ĠáĥĹáĥĶáĥļ áĥĲáĥłáĥĲáĥ¨
Ġáĥ¡áĥĶáĥłáĥĺ áĥĲáĥļáĥ¡
Ġáĥ°áĥĺáĥĵ áĥł
ĠáĥĿáĥłáĥĵáĥĿáĥ¨ áĥĺáĥĲáĥľáĥĺ
ĠáĥĽáĥ£áĥĸáĥĶáĥ£ áĥĽáĥĺ
Ðĺ ÑģÐ¿
áĥ¡áĥĲáĥ® áĥĶáĥľáĥ¬áĥ·áĥ¤
Ð¾Ð»ÑĮÐ·Ñĥ Ð¹ÑĤÐµ
ĠáĥĴáĥĶáĥĹ áĥ£
ĠÐ²Ð°ÑĪ Ñĥ
ĠÑĥÑĩ ÐµÑĤÐ½ÑĥÑİ
ĠÐ·Ð°Ð¿ Ð¸ÑģÑĮ
ÐĺÑģÐ¿ Ð¾Ð»ÑĮÐ·ÑĥÐ¹ÑĤÐµ
ĠáĥĽ áĥĲáĥ¨
áĥĲáĥ¡ áĥĶ
Ġáĥ¡ áĥĺáĥĶáĥłáĥĲ
áĥĲáĥ® áĥĲáĥļáĥĶ
Ġáĥ¥ áĥ£
áĥĲáĥ¢ áĥ£áĥłáĥĺ
áĥĲáĥłáĥ¢ áĥĺ
Ġáĥĺáĥľáĥ¢ áĥĶáĥł
Ġáĥ¤áĥĿáĥłáĥĽ áĥĲáĥ¨
Ġáĥ¢áĥĿáĥĽ áĥĺ
áĥĳáĥł áĥ£áĥĿáĥ¨
Ġáĥ¡áĥĺáĥĵáĥĺáĥĵ áĥĲáĥĹ
áĥĲáĥļ áĥĲáĥ¤
áĥĲáĥĵ áĥ£
ĠáĥĲáĥ Ń
áĥľ áĥĲáĥķ
áĥĹ áĥ£áĥłáĥ¥
áĥĳ áĥĿáĥłáĥ¯
Ġáĥ¤áĥĺáĥļáĥĽ áĥĺáĥ¥
Ġáĥ¡áĥĲáĥĽ áĥ£áĥ¨
ĠáĥĴáĥķáĥĲáĥļ áĥĶáĥ¤áĥ¡
ĠáĥĽáĥĿáĥľáĥ ¢
ĠáĥĿáĥ¨áĥ¥ áĥĲáĥ¨áĥĶáĥĹ
ĠáĥĻáĥķáĥĺáĥłáĥĻáĥķ áĥĶáĥ¨
ĠáĥŀáĥĿáĥŀáĥ£áĥļ áĥĲáĥł
ĠáĥĽáĥĿáĥľáĥ¬áĥ§ áĥĺáĥļ
Ì ģ
ĠáĥĴ áĥĶáĥĻ
ĠáĥĻ áĥĺáĥĳ
Ġà´¸ à´Ļ
áĥĺáĥłáĥ ķ
áĥ£áĥĵáĥ· áĥĻáĥĿ
áĥĺáĥĿ áĥłáĥĿ
Ġáĥ¥áĥĲáĥłáĥĹ áĥļáĥĺáĥ¨
ĠáĥĴ áĥĲáĥĻ
áĥĹ áĥĳáĥ£áĥ¥
áĥ¬ áĥĿáĥľ
Ġáĥ° áĥĿáĥł
Ġáĥĺáĥľáĥĵ áĥĺáĥķ
áĥĿáĥ£ áĥĹáĥĳáĥ£áĥ¥
Ġáĥ¤áĥĺáĥļáĥĿáĥ¡áĥĿáĥ¤ áĥĺáĥĲáĥ¨
ĠáĥĵáĥĲáĥĽ áĥĲáĥłáĥªáĥ®
Ġáĥĵáĥ·áĥĽ áĥĲáĥ®áĥĲáĥ¡áĥĺáĥĲáĥĹ
Ġáĥ©áĥĶáĥĽ áĥŀ
áĥ¦ áĥĿáĥľ
Ġáĥ©áĥ¥ áĥĿáĥľáĥ¡
Ġáĥ¤ áĥĺáĥĵ
Ġáĥ© áĥ®áĥķ
ĠáĥĳáĥĿáĥłáĥ¯áĥĺáĥ¡ áĥ·áĥľáĥĶ
ĠáĥľáĥĲáĥŀáĥĿáĥļáĥĶ áĥĿáĥľáĥĺáĥ¨
ĠáĥĶáĥ¢ áĥĲáĥŀ
uf e
ĠLiefer ung
Ġledig lich
Ġsp rechen
Ġmitt els
ĠM y
194 3
Ġ {{
ent wicklung
p lay
Ġà´§ à´°
à¸ģ à¹Ĩ
Ġzu letzt
Ġhin zu
ĠCh ance
à´¶ à´ķ
à¸¡ à¸ª
ri min
Ġbe achten
m as
ĠStr and
Ġbe finden
à¸²à¸£ à¸°
Ġden ke
Ġl o
wer be
ĠÃĸ l
ĠFrei zeit
ĠGes icht
à¸ģà¸²à¸£ à¸Ī
gr ess
Ġ à¸ľà¸¥
utt gart
im ent
wer ten
15 00
spr Ã¼n
ĠBed Ã¼rf
Ã Ħ
àµĤ âĢĭ
ver lÃ¤ss
ĠSp rach
in form
à¸ķ à¸ª
st eht
w echs
Ġd igit
S e
à¸Ľ à¹ģà¸ļà¸ļ
ot el
' ,
ĠHer zen
ĠT eile
ĠT at
à¸Ļ à¸²à¸¢
à¸¢à¸Ļ à¸£
ĠZug ang
f alt
de ten
ĠSchwei zer
à´² à´²
ĠHand el
à¹Ħà¸Ł à¸Ł
Ġverl oren
ĠZwe cke
à¸ģ à¸Ħà¸Ļ
aben d
ĠH or
ieren de
ĠC ent
" )
acht ung
ĠL ang
à´¦ à´Ļ
lin ien
à¸Ńà¸¡ à¸ģ
ĠMa il
à¸£ à¸Ńà¸ļ
Ã¼ck en
Ġvers uchen
c ol
à´¸ à´±
ĠB il
sterreich ische
à¸Ļ à¹ĥà¸«
ĠJ es
ha fte
M S
àµ¾ à´ª
etz te
hin dern
ĠNach bar
is mo
Ġsch war
ĠDes halb
kun st
Ġvor aus
Ġnot wendig
ĠBe f
br uch
Ġnach dem
A ber
Ġb ein
Ã¤n den
Un ser
à´¸ à´«
Ã Ĺ
ig a
r Ã¶
ĠP op
ĠT re
po is
ĠB rÃ¼
am in
st eh
ober no
Ġerwar tet
ĠAn schluss
ĠSchn itt
à¹Ģà¸«à¸¡ à¸²à¸°
bet rieb
ĠHeim at
D es
Ġ reich
fÃ¼l len
Ġà´¶ à´¬
Ġà¹Ģà¸ ĭ
ĠSchl ag
p age
ĠÃľ b
12 5
X X
ĠMan agement
Ġà¸Ĥ à¸²à¸¢
Ġs iraj
Ġd Ãºas
ec ciÃ³n
Ġt rat
I V
Ã¤nd ler
fahr er
ĠBus iness
Ġà´ļ à´Łà´Ļ
ĠVerantwort lichen
à¸¡ à¸¡
à´® à´®
ĠWir kung
ĠSt unde
à´ª à´°à´®
à¹Ģà¸§ à¸ĵ
ĠW il
Ġ à¹ĥà¸Ĭ
ĠM oment
à¸Ļ à¹Ģà¸ķ
Ġk rit
h y
ĠG elegen
à´ ĥ
ĠOr iginal
Ġl oc
ĠBed ing
à´ª à´¨à´Ļ
ĠÐ ŀ
3 20
ĠBe zir
ĠfrÃ¼ h
B A
Ġserv iz
ien te
ĠM esse
ub ehÃ¶r
Ġer lau
Ġcont ra
H allo
ĠK reuz
Ġpor que
d ungen
p assen
um p
Ì Ī
ĠWe ge
T T
ĠChar akter
le gung
à´ ¢
Ġer a
ĠHinter grund
hal le
ĠM acht
à´ĺà´Łà´¨ à´¯
ĠK u
19 40
pp en
ĠAl b
a kti
à¸Ķ à¸Ħ
ĠK ann
Ġber uf
ag n
ĠE del
Ġà´® à´ķà´³
s se
aus o
ĠLie bl
à¸²à¸ į
à¹Ĥ à¸ĭ
Ġnun ha
ĠSch ne
ĠÎ ³
Ġbeg eister
ĠK ern
Ġa mer
Ġsei en
ill en
Ãºbl ica
Ġ che
ĠP ir
Ġun er
à´¤ à´°à´£
ĠBenutz er
198 6
ĠA v
ĠÃ¼ber ras
ĠÃº lti
Ġh al
Ġg uter
ĠBeweg ung
ĠG ottes
à¸ļ à¸Ń
Ġex tra
ĠRom an
à´ ı
ĠE sp
ĠGrÃ¼n den
ĠInf os
c al
ourn al
Ġver hindern
ĠM aschinen
ĠUm gang
p iel
ĠBetrieb s
Ġt anto
z as
mÃ¶ gen
à¸ģ à¸ŀ
à¸³ à¸ģ
mann s
Ã¤m pf
ĠH alb
à¸ĩ à¸ŀ
c n
àµ» à´±
Ġbe stellen
ell a
à¸Ń à¹Ģà¸£
ĠGeburt stag
à¹Ĥà¸£à¸ĩ à¹ģà¸£à¸¡
ĠB all
r ang
Ġwen igen
Ġwen ige
16 00
ĠFor schung
ĠAn zahl
enn e
Ġgr atis
Ġj Ã¤hr
ach tet
Ġan al
Ġes pa
h am
ro p
Ġgen er
ti ment
à¸ĺà¸£à¸£à¸¡ à¸Ĭà¸²à¸ķ
Ë Ĳ
Ġà´ķ à´ª
Ġverl assen
19 19
ĠAn trag
w Ã¤
ges ellschaft
ĠH unde
ĠÃĸff ent
Ġmehr eren
ĠKir chen
Ġ $
à¸Ń à¸Ĭ
ri en
à´¦ à´µ
l ager
ĠP resse
ĠDir ekt
ĠGesch ichten
ĠSe e
Ġo ffiz
tier te
ĠF a
ĠC ur
ĠVerbrauch er
ĠVert rieb
hol en
r ein
ĠM er
Ġdurch aus
ide os
Ġc ultur
stÃ¤n den
Ġi l
ĠL ib
c ess
il y
rie be
in kel
ĠBr and
à¸« à¸²à¸ģ
Ġà´ķ à´±
ĠAll gem
Ġe qu
Ġà¹Ĥ à¸£à¸ĩ
b i
áĥĲáĥłáĥ ¤
áĥĺáĥľ áĥĶáĥľáĥ¡
ĠáĥĻ áĥĲáĥľáĥĵ
ĠáĥĻ áĥ·áĥľ
áĥĿáĥł áĥĶáĥ¥
Ġáĥķ áĥĿáĥłáĥĶáĥ¥
áĥĲáĥĻ áĥĶáĥĵ
Ġáĥĺáĥľáĥ Ľ
áĥĲáĥ© áĥĲáĥļ
ĠáĥĴáĥ·áĥĽ áĥĺáĥŃáĥĲáĥľáĥ£
ĠáĥĽáĥ£áĥ¡ áĥĺáĥĻáĥĲ
ĠáĥĽáĥĶáĥ¢ áĥłáĥĿáĥŀ
ĠáĥĿáĥ¨áĥ¥ áĥĲáĥłáĥĺ
ĠáĥĲáĥļáĥĳáĥĿáĥĽ áĥĺáĥ¨
ĠáĥĽáĥĿáĥľáĥĲáĥ¡áĥ¢ áĥĶáĥłáĥĺáĥ¨
Ġáĥ¡áĥĲáĥ¥áĥķáĥĲáĥł áĥ£áĥĲáĥ¨
áĥĶáĥłáĥļ áĥĿáĥĻ
áĥľáĥĿáĥ¦ áĥĲáĥ¨
Ġáĥ¡áĥĲáĥļáĥķáĥĲáĥĵ áĥĿáĥłáĥĺ
ĠáĥĿáĥ© áĥĲáĥĽ
Ġáĥĺáĥ¡áĥłáĥĲáĥĶ áĥļáĥĺ
ĠáĥĽáĥĿáĥ¡áĥĻ áĥĿáĥķáĥĺáĥ¨
ĠáĥĽáĥĲáĥłáĥ«áĥĴ áĥķáĥĲáĥľáĥĺ
ĠáĥķáĥĺáĥĻáĥĺáĥĽáĥĶáĥĵ áĥĺáĥĲáĥ¨
ĠáĥĹáĥĺáĥľáĥ© áĥĲáĥļáĥĲáĥ¨
áĥ¡ áĥĿáĥľáĥĺáĥ¨
áĥĲáĥłáĥ¡ áĥĶáĥļ
Ġáĥ¢áĥĶáĥ¥áĥľ áĥĺáĥĻáĥ£áĥłáĥĺ
áĥĺáĥ¨ áĥĺáĥĹ
Ġáĥĵ áĥĲáĥ£áĥľáĥĺ
áĥĲáĥłáĥ °
áĥĽ áĥĲáĥľáĥĺ
ĠáĥĻ áĥĶáĥĹ
áĥĿáĥł áĥĲáĥĴáĥĲáĥĵ
áĥĻ áĥĲáĥĻ
áĥĶáĥł áĥĲáĥ¨
Ġáĥ£ áĥ¸
áĥĲáĥ¢ áĥĶáĥ¤áĥĺáĥ¨
áĥĺáĥ£ áĥĽáĥĺ
áĥĹ áĥĶáĥľáĥĲ
Ġáĥ¦ áĥĶáĥ¯
ĠáĥĽáĥ£áĥ¨ áĥ¸áĥ£áĥłáĥĶ
ĠáĥĿáĥĻ áĥ£áĥŀ
Ġáĥĳáĥł áĥ£áĥĿáĥ¨
áĥĲáĥ¸ áĥĿáĥĹ
áĥķáĥĲáĥĵ áĥĿáĥłáĥĺ
Ġáĥĳáĥ£áĥľ áĥĲáĥ¥
ĠáĥĶáĥł áĥĲáĥ§
ĠáĥĲáĥĽáĥĶáĥłáĥĺáĥĻ áĥ£áĥļ
Ġáĥ¡áĥ¢áĥĲáĥ¢ áĥ£áĥ¡
ĠáĥĴáĥĿáĥļ áĥĺáĥľáĥĲáĥĹ
ĠáĥĲáĥľáĥ¢ áĥĺáĥĻáĥ£áĥłáĥĺ
ĠáĥĶáĥŃáĥĿáĥ¤ áĥ·
ĠáĥĻáĥĲáĥ¢ áĥĲáĥ¡áĥ¢áĥł
ĠáĥĹáĥĲáĥ® áĥĽáĥĺ
áĥ·áĥłáĥ ©
Ġáĥ¡áĥĿáĥĽ áĥ®
Ġáĥłáĥĸ áĥĶáĥľáĥ¡
ĠáĥĻáĥĿáĥĽáĥŀáĥĺáĥ£áĥ¢ áĥĶáĥłáĥĶáĥ¤áĥĺ
áĥ£áĥ© áĥĲ
ĠáĥĴáĥ£áĥłáĥĲáĥ¤áĥ£áĥļ áĥĶáĥľáĥĵáĥ·
Ġáĥ£áĥĸ áĥ£áĥł
ĠáĥŀáĥĲáĥļ áĥĶáĥ¡áĥ¢
Ġáĥ¢áĥĿáĥĳ áĥĶáĥ¤áĥĺ
áĥ®áĥķáĥĲáĥĵ áĥ£áĥľáĥĲ
ĠáĥŀáĥĲáĥłáĥĺáĥĸ áĥĺ
ĠáĥŀáĥĲáĥłáĥĺáĥĸ áĥĺáĥ¨
Ġáĥ°áĥĺáĥĵ áĥłáĥĿ
ĠáĥĿáĥłáĥĵáĥĿáĥ¨ áĥĺáĥĲáĥľ
ĠáĥĴáĥĶáĥłáĥ ¡áĥ®áĥĺáĥļáĥĺ
ĠáĥĽáĥĲáĥ¡áĥ¥ áĥĶáĥłáĥĶáĥ¤áĥĺ
áĥ¡áĥ®áĥ£áĥľ áĥ£áĥĶáĥ¤áĥĺáĥ¨
Ġáĥĺáĥ¤áĥĲáĥ© áĥ£
ĠáĥĿáĥłáĥĶáĥ¬áĥ£ áĥĲáĥļáĥĶ
Ġáĥ¤áĥĲáĥłáĥĴ áĥĲáĥļáĥĶáĥ¤áĥ¡
ĠáĥĻáĥĲáĥ¢áĥĲáĥ¡áĥ¢áĥł áĥĿáĥ¤
áĥĲáĥľ áĥĶáĥ¨
áĥĶáĥ¤ áĥĶáĥĹ
áĥĶáĥł áĥĶáĥ¤áĥĺáĥĹ
Ġáĥĳ áĥĶáĥ¢
áĥľ áĥĲáĥĸ
áĥĿáĥ® áĥĺáĥ¡
áĥĺáĥłáĥ ¡áĥ®áĥ£
áĥĲáĥĴ áĥĿ
áĥĲáĥĳ áĥĺáĥ¯
áĥĸ áĥĺáĥ¡
áĥĳáĥŁ áĥĲáĥĶáĥĺáĥĿáĥļáĥĺ
ĠáĥĹáĥĲáĥľáĥ¯ áĥĶáĥ¤áĥ¡
ĠáĥĶáĥĴáĥķáĥĺáĥŀ áĥ¢áĥ£áĥł
ĠáĥĴáĥ·áĥĽáĥĿáĥ¡áĥĲáĥ® áĥĺáĥļáĥĺ
áĥ¨áĥ¢áĥĲáĥ¢ áĥĺáĥ¨
áĥĶáĥ¤áĥĶáĥĹ áĥĲ
áĥ Ńáĥ§
ĠáĥĽ áĥĺáĥ£
ĠáĥĽ áĥĲáĥĳ
áĥĺáĥľ áĥĶáĥ¤áĥ¡
ĠáĥĴ áĥĲáĥĵ
áĥĲáĥł áĥĺáĥĹ
áĥķ áĥĺáĥľáĥ¡
áĥĲáĥĽ áĥĵáĥ¦
Ġáĥ¡ áĥĶáĥĽ
ĠáĥĻ áĥĶáĥļ
áĥļ áĥĺáĥľáĥĺ
áĥĴ áĥķáĥĲáĥļ
áĥ£áĥļ áĥĺáĥĹ
áĥ£áĥĽ áĥĺáĥľ
áĥĲáĥĻ áĥķáĥĲáĥĹ
Ġáĥĸ áĥĺáĥ¡
áĥĿáĥķ áĥĺ
Ġáĥ£áĥĻ áĥļ
Ġáĥĺáĥľáĥĵ áĥĿáĥ¡áĥ¢
áĥĲáĥłáĥĵ áĥĺ
áĥĺáĥķ áĥĶ
ĠáĥĲáĥ¡ áĥĿáĥªáĥĺ
Ġáĥłáĥ£áĥ¡ áĥ£áĥļáĥĺ
Ġáĥ¨áĥ¢áĥĲáĥ¢ áĥĶáĥ¤áĥĺáĥ¨
áĥĺáĥ¦ áĥĶáĥ¡
ĠáĥĹáĥĲáĥł áĥĿáĥĳáĥĲáĥ¡
áĥĿáĥłáĥĿáĥªáĥ® áĥ£
ĠáĥĽáĥĺáĥļ áĥĲáĥłáĥĶ
ĠáĥľáĥĲáĥĽáĥ· áĥ¥
Ġáĥ¢áĥ§ áĥķ
ĠáĥŀáĥĲáĥ¢ áĥł
ĠáĥĲáĥĻáĥĿáĥ¥áĥĺáĥĽ áĥĺáĥľáĥĶáĥļáĥĺ
Ġáĥłáĥ¡áĥ® áĥ£áĥ¡
ĠáĥĺáĥĴ áĥĺáĥķáĥĶ
Ġáĥ¡áĥĲáĥĴ áĥłáĥĲáĥ¤
Ġáĥ¦áĥĿáĥĸ áĥĺáĥ¨
ĠáĥĻáĥĺáĥļáĥĿáĥĽáĥĶáĥ¢ áĥłáĥĺáĥ¡
áĥ¬áĥ§ áĥĲáĥłáĥĽ
ĠáĥĽáĥ£áĥĹáĥĽ áĥĿáĥ¤áĥ®áĥķáĥĲáĥĵ
Ġáĥĺáĥłáĥĵ áĥ£
Ġáĥ¥áĥĺáĥłáĥ¡áĥĺáĥĲáĥľ áĥĿáĥĳáĥĲáĥ¨
ĠáĥĳáĥĺáĥĸáĥĲáĥľáĥ¢ áĥĺáĥĲáĥ¨
ĠáĥĽáĥĶáĥ¨áĥ¥áĥĲáĥ¨ áĥĿáĥĳáĥĲáĥĹ
ĠáĥĻáĥĲáĥķáĥĻ áĥĲáĥªáĥĺáĥĲáĥ¨
ĠáĥĲáĥĻáĥĲáĥĵáĥĶáĥĽ áĥĺáĥĲáĥ¨
Ġáĥ®áĥĲáĥłáĥĺáĥ¡áĥ® áĥĺáĥ¨
ĠáĥĿáĥ¡áĥĻ áĥĲáĥłáĥĺáĥ¨
ĠáĥĽáĥĺáĥľáĥĺáĥ¡áĥ¢ áĥł
ĠáĥĲáĥļáĥĶáĥ¥áĥ¡áĥĲáĥľáĥĵ áĥłáĥĶ
ĠáĥĽáĥĿáĥľáĥĻ áĥĲ
ĠáĥĲáĥ¤áĥĶáĥĹ áĥ¥
Ġáĥ¥áĥł áĥĺáĥ¡áĥ¢
ĠáĥĴáĥĶáĥķáĥĺáĥĹ áĥĲáĥłáĥ·
Ġáĥĵáĥĺáĥ¥ áĥ¢áĥĲáĥ¢
ĠáĥĺáĥľáĥĵáĥĿáĥ¡áĥ¢ áĥĲáĥľáĥĺáĥ¨
áĥĲáĥł áĥĺáĥĲáĥ¨
áĥļ áĥĺáĥĳ
ĠáĥĽáĥ£áĥ łáĥ
à¸ª à¸ģ
áĥ£áĥľ áĥĺáĥ¨
ĠáĥĲáĥĻ áĥĿáĥª
Ġáĥª áĥĲáĥĵ
ĠáĥĴáĥķ áĥĺáĥľ
Ġáĥ¡áĥĺáĥĽ áĥĲáĥ¦áĥĲáĥļáĥĲ
ĠáĥĵáĥĶáĥĽáĥĿáĥĻáĥłáĥĲáĥ¢ áĥĺáĥ£áĥļ
áĥĿáĥĹáĥ® áĥĿáĥ¨
ĠáĥĳáĥłáĥĶáĥļ áĥĺáĥĹ
ĠáĥľáĥĲáĥĻáĥĿáĥł áĥĿáĥĳáĥĲ
ĠáĥĴáĥĺáĥ¤ áĥĲáĥ©áĥ·
Ġáĥĵ áĥĲáĥĹ
ĠáĥĴ áĥĿáĥŀ
áĥĻ áĥĺáĥłáĥ·
áĥĲáĥĹ áĥĺ
áĥĶáĥĳ áĥĲáĥ¨áĥĲ
áĥĶáĥ¡ áĥ·áĥľ
Ġáĥķ áĥĲáĥ¨
áĥĶáĥĹ áĥĺáĥ¬áĥĻáĥ·áĥĽáĥĲ
Ġáĥ® áĥ£áĥ¯áĥĺáĥ¨
áĥĲáĥĸ áĥ·áĥĽ
Ġáĥľáĥĺáĥľ áĥĶáĥ¤áĥ¨áĥĲ
ĠáĥĲáĥĽ áĥ£áĥĵ
Ġáĥ¢áĥĶáĥł áĥĿáĥł
áĥ£áĥłáĥĴ áĥĶ
ĠáĥĲáĥ¡ áĥłáĥ£áĥļ
áĥ£áĥ¯ áĥĺáĥľáĥĲáĥļáĥĿ
Ġáĥłáĥ£áĥ¡ áĥ£áĥļ
ĠáĥĽáĥĿáĥ® áĥ£áĥ¯
ĠáĥľáĥĲáĥĽáĥ£áĥĵ áĥĴáĥĲáĥ¨
ĠáĥĽáĥ£áĥ¡ áĥ·áĥĹ
ĠáĥľáĥĲáĥ®áĥĲáĥľáĥĵ áĥĶáĥ¤áĥĺ
ĠáĥĽáĥĺáĥĽ áĥĲáĥļáĥĺ
ĠáĥĽáĥĿ áĥĶáĥĵ
Ġáĥ¢áĥĺáĥĳ áĥĶáĥ¢
ĠáĥĽáĥĶáĥľ áĥĿáĥ¦áĥĲáĥļáĥĶ
ĠáĥĽáĥĺáĥĿáĥłáĥ ©áĥ¥
ĠáĥĲáĥķáĥ¦ áĥĲáĥľ
Ġáĥĳáĥ£áĥļ áĥĴáĥĲáĥł
áĥĴáĥĲáĥłáĥĵ áĥĺáĥĲ
áĥļ áĥĲáĥĵ
Ġáĥ° áĥĺáĥŀ
Ġáĥ¡áĥŀáĥĲáĥłáĥ¡ áĥĶáĥĹáĥĺáĥ¨
Ġáĥ¡áĥ£áĥļ áĥĹ
áĥĽ áĥ£áĥĻáĥĺ
áĥĵ áĥĺáĥ®
Ġáĥĳ áĥĿáĥ¨
Ġáĥĳ áĥĲáĥ¢áĥĺáĥ¡áĥ¢
ĠáĥĶ áĥ¡áĥ¢
áĥ¤ áĥĲáĥļ
ĠáĥĲáĥĻ áĥľ
áĥ© áĥĶ
ĠáĥĹáĥ® áĥĿáĥĸ
ĠáĥĻáĥ£áĥĳ áĥĲáĥ¡
ĠáĥŀáĥĶáĥłáĥ¡áĥĿáĥľ áĥĲáĥļáĥ£áĥłáĥĺ
ĠáĥĶáĥ¥áĥ¡áĥŀ áĥĶáĥĵáĥĺáĥª
ĠáĥĶáĥĻáĥļáĥĶáĥ¡ áĥĺáĥĲ
Ġáĥ¡áĥĺáĥĽáĥĳ áĥĿáĥļ
Ġáĥ©áĥĶáĥĽáĥŀ áĥĺáĥĿáĥľ
ĠáĥķáĥĲáĥ® áĥ¢áĥĲáĥľáĥĴ
áĥĺáĥľ áĥĶáĥľáĥ¢áĥĺáĥ¨
ĠáĥĿáĥĹ áĥĿáĥļ
Ġáĥ°áĥĶáĥĴ áĥĶáĥļáĥĺáĥ¨
st itu
Ġgef Ã¤hr
ä º
ĠgÃ¼nst ig
ĠRe c
Ï ĥ
à´¨ à´Ł
serv ice
Ġg ru
l i
ennt nisse
à¸ģà¸²à¸£ à¸ĵ
ger Ã¤t
ĠN a
Ġd rin
h ung
ge d
V on
Ġp ost
à¸Ĥà¸Ńà¸ĩ à¸Ĺ
dem ais
ur op
Ġà´ĩ à´Łà´¤
à¸ķ à¸ķ
ĠG as
ĠbenÃ¶ tigen
ont o
Ġà´Ń à´°
ĠGer Ã¤te
ĠL eit
stru ktur
rÃ¤ gen
à´± à´¡
ĠÐ¸ Ð·
à´ļ à´ķà´³
F l
Z um
ĠTrain ing
19 34
Ġbestimm te
ru cken
ĠZ eichen
à¸§ à¸¥
ver fahren
reu ung
ĠA p
Ġà¹Ģà¸ ļ
à¹ĥà¸Ļ à¸Ĺ
Ġbesch rieben
ĠZug riff
D E
à¸Ľà¸£à¸°à¹Ĥà¸¢ à¸Ĭà¸Ļ
g reifen
à¸²à¸£ à¸ĵ
ĠJ ust
kauf t
à¸Ħ à¹Ĥà¸Ļ
Ġn Ã¤her
ĠBi ografien
st Ã¤r
ĠGeb rauch
ĠL u
Ġà´ħà´ª à´ķ
àµį *
Ġm ass
ĠWer bung
st eigen
wer ks
194 2
O b
uni cip
A s
Ġl ag
Ġt yp
en ter
iv il
Ð¸ Ð½
ir n
à´Ł àµ¼
ktiv en
un kten
Ġher um
ĠP an
ant ie
ĠH al
ĠI N
Ã¶ ÃŁen
A B
Ã¡ s
ĠLiter atur
g as
Ġp ou
b ro
d lich
ĠC am
ĠP ri
if ic
Ġl og
ĠSer ie
rik a
à¸§à¸¢ à¸ģà¸²à¸£
p on
Ġb ar
pf el
yn am
ĠTrink wasser
wor tet
à¸¥ à¸²à¸¢
à¹Ĥà¸¥ à¸¢
Ġà´Ĩ à´Ń
Ġp reis
Ġdar um
ĠHaus halt
Ġrel ativ
d auer
ĠVer Ã¤nder
à´ķ à´ķ
ĠPic tures
ok rat
ĠKomment ar
Ġà´® à´®
ĠverfÃ¼ gt
ï¼ Į
ĠS ec
à¸Ħ à¸Ħà¸¥
à¸Ħà¹Ĥà¸Ļ à¹Ĥà¸¥à¸¢
ĠSch iff
ez a
Ġentsprechen de
Ø Ń
ach ung
Ġschw ier
zun ehmen
ĠPfl anzen
ĠB ook
ĠAller dings
ĠH und
Ġs al
ĠM el
Ġwir kt
S ystem
Ġm il
ĠAll es
ĠKo oper
Ġpor n
194 9
Ġà¸Ħ à¸Ļ
ĠSch aden
ĠC ons
olog ischen
Ñĥ ÑĢ
Ġfol gende
Ġc os
à¸Ķ à¸§à¸ģ
ĠSchl uss
Ġso fern
Ġs in
A P
ĠM obil
Ġt ief
ĠAuf enthalt
ĠD eine
ĠBild ung
à´¾ âĢĭâĢĭ
ĠT reffen
u ciÃ³n
ĠL ux
ĠEis en
à¸² à¹Ģà¸Ĥ
an se
for dert
ĠPro fil
A pp
Ġà´Ĩ à´ª
Ġ à¸£à¸²à¸Ħ
Ġw eder
ĠF ra
ĠS y
ĠH eute
Ġer gÃ¤n
V I
Ġlie ben
19 29
h Ã¶r
19 30
à¹Ģà¸ķ à¸£
ner stag
ĠDien ste
Ġkommen den
ob by
stÃ¤n digen
à¸§à¸¢ à¸ģ
er ei
Ġd einen
ĠL Ã¤ndern
Ġà´µ à´¯
Ġcas o
Ġelekt ron
h an
ĠM orgen
ĠH ilf
la v
18 21
ĠF an
ra b
Ġes pe
ĠEin kauf
ram pf
ra ucht
m aschinen
Ġr em
isch em
ĠP S
à¸ĩ à¹Ģà¸Ĺà¸ŀ
qu alitÃ¤t
Ġg u
O s
Ġ <
ĠL Ã¤nder
ĠAn ge
Ġintern ationalen
ĠV al
ĠSp an
Ġum fang
Ġgew innen
' '
Ġh alt
Ġ á
y le
à´ļ à´Ł
Ġde b
Ġent weder
Ġte Ã±en
ks hop
à¸Ļ à¹Ģà¸Ńà¸ĩ
Ġerwar ten
iz a
Ġdi fer
ĠK art
à¸²à¸ ł
ĠGrund stÃ¼ck
à´¶ à´ª
à¸²à¸Ħ à¸§
b s
ci o
Î¯ Î±
T S
ĠT anz
à´µà´¸ à´Ļ
ĠG i
Ġw enden
ĠP lay
au ert
k arten
Ġgen annt
Ġbet rÃ¤gt
tern ehmer
àµĩà´¾ âĢĭ
ĠMar ke
Ġf ehlen
ĠW echsel
Ġausge w
ĠD oppel
Ġat op
rÃ¼ck e
ĠKaff ee
os oph
Ġà´ħà´µ à´¯
ber atung
Ø ²
à¸² à¹Ģà¸¥
Ø ®
Ġschle cht
lin ik
ĠD orf
Ġa cht
Ġso cial
Ġc el
ĠØ ¨
ĠZ uf
er r
rÃ¤ ume
l eit
w esen
à¸«à¸Ļ à¸Ńà¸Ļ
ĠT iere
z on
Ġs ah
à¸¡ à¸ģ
à¸²à¸Ĺ à¸³
Ġr en
Ġm achte
Ġbes uchen
stra hl
ĠAl ters
Ġà´ĩ à´¯
ĠMo tiv
t eile
à¹ģ à¸ģà¸£à¸¡
wert ungen
à¸²à¸Ļ à¸ķ
ĠØ ¬
ul en
ĠK rit
ĠExper ten
ic al
ĠMedi zin
à¸ļ à¸²à¸¥
di f
Ã¼ ch
p ut
ĠA bt
ĠNetz werk
à¸Ľà¸£à¸° à¸ķ
ÐµÑģ Ð¿
Ġob ra
Ġwar ten
Ġmitt el
à¸ģ à¸Ńà¸¢
à¸¤ à¸Ķ
Ġkom bin
ĠKl ima
ommun ity
ĠRÃ¼ck en
à¸Ńà¸ļ à¸Ħà¸£
te c
à¸¢ à¸²
ĠRich ard
ĠG eist
ĠPro jekte
Ġlie f
ĠN et
r atz
Ã¼ ÃŁe
ners uche
14 2
ĠÃ¼ber prÃ¼
ĠKl asse
er o
ĠTr end
v o
áĥĲáĥľ áĥĿáĥķ
Ġáĥ¡ áĥ£áĥľáĥĶáĥļ
Ġáĥ¤ áĥĺáĥ£áĥłáĥĺ
ĠáĥĴáĥķ áĥĲáĥłáĥĿáĥĳáĥĲáĥ¨
áĥķáĥĶáĥļ áĥ£áĥłáĥĺ
áĥ£áĥĴ áĥĺáĥ¨
Ġáĥ¬áĥ§áĥĲáĥłáĥŀáĥĺáĥ¯ áĥĶáĥ¤áĥ¡
Ġáĥ¥áĥĲáĥłáĥĹ áĥĺáĥ¡
Ġáĥ¤áĥł áĥĶáĥ¡áĥĻ
ĠáĥĲáĥĳáĥĲáĥľ áĥĶáĥ¤áĥ¡
ĠáĥĲáĥķáĥ¡áĥ¢áĥł áĥĿáĥľáĥĶáĥĸ
áĥĿáĥ©áĥ® áĥĿáĥłáĥĺ
ĠáĥĲáĥ¢áĥĽáĥĿáĥ¡áĥ¤áĥĶáĥł áĥ£áĥļ
áĥ¡áĥĲáĥ¥áĥĿáĥłáĥĹáĥ£ áĥĿ
ĠáĥĳáĥŁáĥĲáĥĵ áĥĲáĥĲáĥļ
Ø¯ Ùħ
Ġáĥ¥áĥ·áĥľáĥĵáĥ· áĥłáĥĺáĥ¨
áĥĺáĥĿáĥŃ áĥĺáĥłáĥĺáĥľ
áĥĽáĥĶáĥ¢ áĥĶáĥĿáĥł
ĠáĥĶáĥļáĥĶáĥĽáĥĶáĥľáĥ¢ áĥĶáĥ¤áĥĺáĥ¨
Ġáĥ®áĥĿáĥļ áĥĿáĥ¨
áĥĴáĥĿ áĥĶáĥłáĥĿáĥ¨
ĠáĥĺáĥľáĥĻ áĥ£áĥĳ
Ġáĥªáĥ®áĥĶáĥľáĥ¬áĥ§ áĥĲáĥłáĥĺáĥ¨
ĠáĥĻáĥĲáĥľáĥĵ áĥĺáĥĵ
ĠáĥĿáĥ©áĥĲáĥĽ áĥ©
áĥĲáĥľ áĥ¬áĥĻáĥ·áĥĽáĥĲ
áĥĲáĥł áĥĺáĥĶ
áĥĶáĥĽ áĥĿ
ĠáĥĿáĥĴ áĥ£áĥłáĥĲáĥ¤áĥ£
Ġáĥ®áĥĶáĥļáĥ£áĥĲáĥľ áĥĿáĥĳáĥĲ
ĠáĥĲáĥĻáĥĲáĥĵáĥĶáĥĽ áĥĺáĥĲáĥ¡
áĥĲáĥľ áĥĲáĥ¤áĥĲ
Ġáĥĵ áĥĿáĥĽ
Ġáĥĺ áĥĿáĥ°
áĥĶáĥľáĥ ¨áĥĲ
áĥĵ áĥ£áĥĽáĥĲáĥĵáĥķáĥĲáĥļáĥ£
Ġáĥŀ áĥĶáĥľáĥ¡
Ġáĥ¤ áĥĲáĥłáĥ¡
Ġáĥ® áĥĲáĥľáĥĲ
Ġáĥ® áĥ£áĥĲáĥľ
áĥ¤ áĥļ
áĥ£áĥĲáĥ¤ áĥ£áĥľáĥĲ
Ġáĥ° áĥĲáĥĺ
Ġáĥĵáĥĺáĥĵ áĥĿ
áĥĺáĥĳ áĥĲáĥ¨
áĥ£áĥ¯ áĥĴáĥ£áĥ¨
ĠáĥĴáĥ·áĥ¨ áĥĶáĥĴáĥĿáĥłáĥ£
Ġáĥĳáĥ£áĥľ áĥĶáĥ¤áĥ¡
Ġáĥ¬áĥ·áĥĽáĥĲáĥłáĥĺáĥľáĥ£ áĥĲáĥľáĥĲ
ĠáĥĿáĥļáĥ¥ áĥĶáĥ¤áĥĺ
áĥĲáĥĿáĥ ľ
ĠáĥĴáĥĺáĥľáĥĿáĥŃáĥ§ áĥķáĥĺáĥĵáĥ·
áĥ£áĥłáĥĿáĥłáĥ¢ áĥĶ
Ġáĥĺáĥłáĥ¬ áĥĲáĥľáĥ£áĥłáĥĿ
ĠáĥĿáĥľáĥĺáĥ¨ áĥĿáĥļáĥĺ
ĠáĥĽáĥĿáĥ®áĥķ áĥĲáĥłáĥĲáĥ¨
ĠáĥĻáĥĲáĥĹáĥĿáĥļ áĥĺáĥĻ
áĥĽáĥĲáĥŁáĥĺáĥł áĥĲ
ĠáĥĽáĥ£áĥ¡áĥļ áĥĺáĥĽ
ĠáĥĻáĥĲáĥľáĥĿáĥľáĥĺáĥ¨ áĥĵáĥ£áĥĽáĥĲáĥĵáĥķáĥĲáĥļáĥ£
ĠáĥĽ áĥĺáĥł
ĠáĥĽ áĥĺáĥľáĥ
áĥĽ áĥĿáĥłáĥ©áĥĺáĥļáĥĺ
ĠáĥĴ áĥĿáĥ¸
Ġáĥł áĥĺáĥ¢áĥ£
Ġáĥ¡ áĥĲáĥłáĥĵ
Ġáĥ¥ áĥĲáĥĻáĥĲáĥĹ
Ġáĥļ áĥĶáĥķ
áĥĶáĥĸ áĥĲ
ĠáĥĴáĥķ áĥĲáĥłáĥĺáĥ¨
ĠáĥĿáĥĵ áĥ£áĥĵáĥĶáĥ¡
ĠáĥĽáĥĲáĥļ áĥĿáĥĳáĥĲáĥ¨
ĠáĥĽáĥĶáĥľáĥª áĥĲáĥłáĥĺ
ĠáĥĻáĥĲáĥĹ áĥĲáĥ¡
Ġáĥĺáĥ¨ áĥĺáĥľáĥ£áĥĲáĥ¤áĥ£
ĠáĥŀáĥłáĥĿáĥ¤áĥĶáĥ¡ áĥĿáĥłáĥĺ
Ġáĥ°áĥĿáĥļ áĥĲáĥľáĥĵ
ĠáĥľáĥĿáĥļáĥĶáĥ¥ áĥĶáĥ¤áĥĺáĥ¨
ĠáĥĽáĥĲáĥĵáĥłáĥĺáĥĵ áĥĺ
âĢİâĢİ ,
ĠáĥŀáĥĲáĥĻáĥĺáĥ¡áĥ¢ áĥĲáĥľáĥ¡
Ġáĥ¥áĥĿáĥ« áĥĺáĥłáĥĺáĥĹ
ĠáĥĽ áĥĲáĥłáĥĺ
áĥĲáĥļ áĥ¤
áĥĶáĥ¤ áĥ¨áĥĲáĥ®
áĥĲáĥłáĥ ©
áĥł áĥĶáĥ¤áĥĺ
áĥł áĥĺáĥ©áĥĲáĥłáĥĵ
ĠáĥĴ áĥ£
áĥķ áĥĶáĥĵ
Ġáĥł áĥĺáĥªáĥ®
Ġáĥł áĥĶáĥĸáĥĶáĥłáĥķ
Ġáĥľ áĥĶáĥĳ
áĥĻ áĥĿáĥĻ
áĥ¥ áĥĺáĥłáĥ¡
áĥĿáĥļ áĥĺáĥľáĥĲ
áĥĶáĥĳ áĥļ
áĥĶáĥļ áĥĲ
Ġáĥķ áĥĲáĥ¢
Ġáĥ¤ áĥĿáĥľ
Ġáĥ¤ áĥĲáĥĸ
Ġáĥ¤ áĥĿáĥľáĥĵ
áĥĶáĥłáĥ Ĺáĥ£
áĥĺáĥĽ áĥĶ
Ġáĥļ áĥĺáĥľáĥĴ
ĠáĥĲáĥĻ áĥĿáĥ¨áĥ¥
áĥĲáĥľáĥ¡ áĥĺáĥ¨
ĠáĥĿ áĥĲáĥķ
áĥĿáĥĴ áĥķ
Ġáĥŀáĥł áĥĶáĥ¡
ĠáĥĹáĥĺáĥľ áĥĲáĥ¥
áĥĶáĥĻ áĥĿáĥľáĥĿáĥĽ
ĠáĥĽáĥ£áĥ¨ áĥĿáĥĳáĥĲáĥ¨
Ġáĥ° áĥĲáĥł
Ġáĥ° áĥ£áĥĽ
Ġáĥ¡áĥĲáĥ® áĥĶáĥľáĥ¬
ĠáĥĽáĥĲáĥ®áĥĿáĥł áĥĿáĥĳáĥĲáĥ¥
áĥĺáĥľáĥĵ áĥ£áĥłáĥĺ
áĥĸ áĥ£áĥ¦
áĥ£áĥłáĥĹ áĥĺáĥ¨
ĠáĥĻáĥĺáĥľ áĥĿáĥ¤
ĠáĥĽáĥĶáĥ¢ áĥłáĥĲáĥ¨
ĠáĥĶáĥķáĥłáĥĿáĥŀ áĥ£áĥļ
ĠáĥĿáĥ®áĥĿáĥł áĥĲáĥľáĥĲ
Ġáĥ£áĥłáĥ ĵ
ĠáĥĴáĥĶáĥłáĥĽáĥĲáĥľ áĥĺáĥĲ
ĠáĥĴáĥķáĥĶáĥłáĥĵ áĥĺáĥ¡
áĥĲáĥ©áĥĲáĥĽ áĥĲáĥļáĥĺ
Ġáĥ£áĥľáĥ ¬áĥ§
Ġáĥ¢áĥĶáĥ¥áĥľ áĥĿáĥļáĥĿáĥĴáĥĺáĥĲáĥ¨
Ġáĥ¦áĥĿáĥĸ áĥĺ
ĠáĥĶáĥĹáĥľ áĥĺáĥĻáĥ£áĥłáĥĺ
ĠáĥĶáĥĹáĥľ áĥĿáĥĴáĥłáĥĲáĥ¤áĥĺáĥ£áĥļáĥĺ
áĥĺáĥ« áĥĺáĥľáĥ·
ĠáĥĲáĥłáĥĺáĥ¡áĥ¢ áĥĿáĥ¢
Ġáĥ¤áĥĿáĥļ áĥĻáĥļ
áĥ¢áĥĶáĥł áĥĺáĥ¢áĥĿáĥł
ĠáĥĴáĥ·áĥľáĥĿáĥŃáĥ§ áĥķáĥĺáĥĵ
Ġáĥ£áĥ¯áĥĿáĥ® áĥĿáĥľáĥĲ
Ġáĥ¯áĥĲáĥķ áĥĲáĥ®
Ġáĥ¡áĥ¢áĥłáĥĲáĥ¢ áĥĶáĥĴ
ĠáĥĽáĥ£áĥĹáĥĽáĥĿáĥ¤áĥ®áĥķáĥĲáĥĵ áĥ·áĥľáĥĲ
áĥĲáĥļ áĥĲáĥĴ
ĠáĥĴ áĥĲáĥ©
áĥĿáĥłáĥ ¨
Ġáĥĺáĥ «
Ġáĥ¦ áĥĺáĥĲ
ĠáĥĲáĥ® áĥĿáĥłáĥªáĥĺáĥĶáĥļ
áĥĲáĥŃ áĥĲáĥłáĥ·
Ġáĥ¤áĥĲáĥłáĥĹ áĥĲáĥ¡
Ġáĥ¢áĥ§ áĥĶáĥĳ
ĠáĥļáĥĲáĥ¸áĥĲáĥ¤ áĥĶáĥľáĥĵáĥ·
ĠáĥĽáĥĲáĥ¢ áĥĶáĥłáĥĺ
ĠáĥĺáĥĹ áĥĶáĥĳáĥ£
ĠáĥĲáĥľáĥ¯ áĥĲáĥłáĥĺáĥ¨
Ġáĥĺáĥľáĥ¬ áĥłáĥĿ
áĥ£áĥ Ńáĥ§
áĥĲáĥľ áĥĲáĥļáĥĺ
Ġáĥĵ áĥĺáĥłáĥĹáĥ·
áĥĲáĥļ áĥĿáĥľ
Ġáĥĺ áĥ£áĥł
áĥĻ áĥĺáĥª
áĥĺáĥł áĥĶáĥĳáĥ£
áĥĶáĥľ áĥĶáĥłáĥĴ
áĥĺáĥĶ áĥ¢
áĥĶáĥľáĥ¢ áĥĶáĥ¤áĥĺáĥ¨
áĥĲáĥª áĥĺáĥĶ
áĥĺáĥ¡áĥ¢ áĥĶáĥ¤áĥĺ
áĥĶáĥĻ áĥĺ
Ġáĥłáĥĵáĥ· áĥľ
ĠáĥŃ áĥĲáĥłáĥ·
Ġáĥ¸ áĥĿáĥłáĥĿáĥ¤
áĥĺáĥ® áĥĲáĥľáĥ¢
ĠáĥľáĥĿáĥłáĥĹ áĥĿ
Ġáĥĵáĥ£áĥĵ áĥĿ
ĠáĥĲáĥķ áĥ¡áĥ¢áĥłáĥĺ
ĠáĥĴáĥł áĥĲáĥ¤
Ġáĥĺáĥ¸ áĥĺ
ĠáĥĽáĥĺáĥĿáĥ ©áĥ¥
ĠáĥĲáĥĵáĥĲáĥĽáĥĺáĥĶáĥł áĥĶáĥ¤áĥĺáĥ¨
ĠáĥĽáĥĺáĥĽ áĥĲáĥļáĥ£
ĠáĥĽáĥ£áĥĻ áĥĺ
Ġáĥ¯áĥĺáĥĽ áĥ£
Ġáĥļáĥĺáĥ¢áĥĶáĥłáĥĲáĥ¢ áĥ£áĥłáĥ£áĥļáĥĺ
Ġáĥ¬áĥĿáĥł áĥĲáĥ¡
Ġáĥ£áĥĽáĥĻ áĥ£áĥ¯áĥĺáĥľáĥĲáĥļáĥĿ
áĥĲáĥ¨áĥ¥áĥ£áĥĽáĥĲáĥļ áĥĺáĥłáĥĺ
ĠáĥĿáĥľáĥĿáĥ¦ áĥĶ
ĠáĥĽáĥĺáĥĲáĥłáĥĶáĥ¤ áĥĶáĥłáĥ£
Ġáĥ¤áĥĿáĥłáĥ· áĥľáĥ¡
ĠáĥĶáĥ¨áĥĲáĥĴ áĥĿáĥłáĥĴáĥĿáĥĹ
áĥĶáĥ¤ áĥĺáĥľ
ĠáĥĻ áĥĿáĥłáĥĿáĥªáĥ®
Ġáĥķ áĥĲáĥĽ
áĥĿáĥ¡ áĥ¤áĥĶáĥł
áĥĺáĥĸ áĥĺ
ĠáĥĴáĥĿáĥłáĥ Ĵ
áĥĺáĥľáĥ« áĥĿáĥłáĥ·
ĠáĥĲáĥĻáĥĿáĥ® áĥķáĥĲáĥļáĥĲáĥĽ
áĥĲáĥļ áĥĲáĥĽáĥĺ
áĥĺáĥľ áĥĲáĥ¤áĥĲ
ĠáĥĴ áĥĿáĥłáĥĹáĥ£
áĥķ áĥĲáĥ¨
áĥĺáĥĵ áĥĶáĥ¤áĥĺ
Ġáĥ© áĥĶáĥ¥
áĥĲáĥķ áĥĲáĥĸ
áĥĶáĥ¢ áĥ£áĥłáĥĺ
áĥ£áĥ¯ áĥĺáĥ¡
ĠáĥŀáĥĶáĥł áĥ£
ĠáĥĲáĥłáĥĲáĥĳ áĥ£áĥļ
ĠáĥŀáĥłáĥĿáĥª áĥĶáĥ¡áĥĺ
áĥĶáĥĳáĥ£áĥĵáĥ· áĥĻáĥĿ
Ġáĥ¸áĥ£áĥ¯ áĥĺ
Ġáĥ¸áĥ£áĥ¯ áĥĺáĥ¡
Ġáĥ¡áĥĲáĥĽáĥĲáĥłáĥĹ áĥĲáĥļáĥĺáĥ¨
ĠáĥĽáĥĿáĥĻ áĥĲáĥĹ
Ġáĥ¡áĥ¡áĥłáĥ ł
ĠáĥľáĥĲáĥĽáĥ£áĥĶáĥ¤áĥ¥ áĥ·áĥĹ
¸ áĥĿáĥľ
Ġáĥĳ áĥĺáĥ°
ĠáĥĶáĥł áĥĺáĥ¡
ĠáĥĿáĥ¥áĥĺáĥĲáĥľ áĥ£áĥ¨
ĠAng st
Ġáĥĳ áĥĶáĥł
ĠáĥĿáĥłáĥ ¢áĥ§
à¸Ńà¸Ļ à¸Ķ
áĥĲáĥľáĥ¯ áĥĶ
áĥĶáĥľáĥĵáĥ· áĥľ
ĠáĥĿáĥļ áĥĺáĥĽáĥŀ
ĠáĥĲáĥ®áĥĲáĥļ áĥľ
ĠáĥŀáĥĲáĥłáĥ¢áĥĺáĥĸ áĥĲáĥľáĥ£áĥļáĥĺ
ĠáĥĲáĥĻáĥĿáĥĲáĥľáĥ¯áĥĲáĥł áĥĲáĥ¤áĥĺáĥļáĥĺ
G es
Ġb i
Ġdo c
H ome
ĠVeranst altungen
ĠA lex
ĠFrank reich
ĠGe fahr
will igung
Ġ à¸ī
Ġbis schen
Ġm undo
à¸ģ à¸²
rach ten
id ad
sl am
Ãº s
ris on
ĠAn der
Ġm a
194 7
ĠKon zept
ĠKombin ation
ĠAr zt
ĠH off
ie bt
Ġgel egen
sprÃ¼ che
k urs
ĠTÃ¼r k
Ġrei cht
à¸²à¸ĩ à¸Ķ
à¸Ķ à¸Ĥà¸Ńà¸ĩ
Ġverw ende
em pf
ver mittlung
ç ļ
à´¦ à´¯
ol den
Ġfer tig
cri pt
ag es
ĠLe der
ĠO hne
Ġprin cip
Ù ģ
Ġk amen
Ġver gessen
ĠMart in
13 1
ite ktur
Ġge grÃ¼n
Ġviel fÃ¤l
ĠM or
Ġl angen
). [
co unt
Ġen gl
Ġnos a
ĠFÃ¼hr ung
Ġà´ĩ à´±
Ġà´¬ à´²
ol o
te te
ar l
à¹Ĥ à¸ŀ
à¸Ŀ à¸£
ĠRep Ãºblica
Ġà´ħ à´Łà´ķ
C h
Ġ----- -
à¸²à¸Ļ à¸¡à¸²
Ġst e
Ġz eig
Ġà´İ à´«
Ġdurch gefÃ¼hrt
Ġk Ã¼r
an walt
ĠS emin
Ġ Ã¼
ĠhÃ¤t ten
à´µ à´¹
çļ Ħ
Ġge z
sp rach
Ġà´Ĵ à´¤
tier ung
à¸²à¸Īà¸° à¹Ģà¸Ľ
Ġà¹Ģà¸ ķ
Ġà¹Ĥ à¸£à¸Ħ
m aschine
Ġdi ent
ĠS ter
ĠConc ello
à¸Ĥ à¸łà¸²à¸ŀ
à¸ĩ à¸¥
ĠOp tion
ĠRei sen
ru he
on es
ber eit
ĠPart ei
ĠD ritt
ĠUnter such
à¹Ģà¸ķ à¸°
Ġà´ķ à´¸
à¸¥ à¸Ľ
Ġver n
Ġarb eitet
Ġf ach
ĠKategor ie
G en
ĠPap ier
à´¤ à´µà´°
Ġat tra
zei ge
Ġc ur
ĠGem Ã¼se
ei ge
Ġm uÃŁ
à¹Ģà¸ª à¸Ļà¸Ń
à¸² à¹ĥà¸«
Ġà¹Ģà¸ ¢
Î ³
à¸ĩ à¹Ģà¸£
196 3
Ġpriv ate
gl ieder
1 13
Ġbet eil
ĠSon g
Ġm obil
ces o
ack t
G er
Ġwissen schaft
z ieren
ĠL iste
om o
ĠS upp
à¸£à¸° à¸ļ
Ãº a
Ġtra v
Ã¼nf tig
ĠKomp on
ĠBe w
schlÃ¤ ge
ĠS im
à¹Ģà¸¥ à¸Ĥ
Ġent standen
ĠP et
Ġden ken
à´¯ àµ½
25 6
à¸ĩ à¸ĭ
Ġs org
à¸Ļ à¸²à¸¡
at ro
ĠZ ubehÃ¶r
f igur
Ġax ud
U M
ĠTran sport
à §
àµģ âĢĭâĢĭ
à¸Ļ à¸¡à¸²
ĠW ell
Ã¤ ger
ĠÃ¼ber nehmen
Ġl aufen
i que
kt or
à¸¡à¸²à¸ģ à¸Ĥ
Ġà¹Ĥ à¸Ľà¸£
à¸ĩ à¸ľ
Ġparti cip
ol z
res den
haus e
ĠCook ie
p asst
Ġun mittel
Ġt rifft
ect os
s Ã¤tze
Ġer hoben
de uten
ĠHig h
Ġgl Ã¼ck
sch rank
ĠVor stand
ĠFall s
fÃ¤l le
iz aciÃ³n
à¥ Ģ
Ġirgend wie
à´¥ à´¤
à¸£à¸²à¸° à¸«
à¸Ĥ à¸²à¸§
olog ische
ĠF C
Ġ ×
ĠD ein
fÃ¼l lung
195 8
ĠC ol
Ġfl ag
à´² à´ļ
ĠD o
Ġp obo
m und
Ð ¶
à¸ģ à¸¨
Ġà´ª à´´
Ġso dass
. /
Ġb ilden
ĠBe vÃ¶lker
fÃ¤h igkeit
à¸ķà¸¥ à¸Ńà¸Ķ
à¸ŀ à¸Ĺ
ro id
ĠÐ ±
à¹Ģà¸ł à¸Ĺ
ĠS eine
Ġde ste
à´¬ à´²
ĠFol gen
ĠS T
ĠGelegen heit
Ġgesetz lichen
ĠS ucht
ĠBeding ungen
Ġc u
Ġà´Ĩ à´´
Ġk ennt
Ġd auer
Â ´
Ġ @
ec e
stat tet
bar er
ei d
ĠM att
Ġbe zeichnet
à¹Ģà¸Ħ à¸£à¸²à¸°à¸«
ĠT ri
Ġp r
Ġen er
à¸Ļ à¹Ģà¸ģ
ost et
Ġà´¡à´¯à´± à´ķ
z um
Ġeinz ige
âĢ¢ âĢ¢
ber ger
Ġam b
ĠT ochter
b ad
utz ung
Ġber aten
à´°à´£ à´Ļ
à¸Ħà¸§à¸²à¸¡ à¸ª
ram m
ĠÐ Ĳ
alis iert
ĠT im
anz a
Ã¼ hm
ff er
t ell
Ġprimei ra
Ġs i
Â° -
G e
Ġ à¸ĩà¸²à¸Ļ
sp f
in es
à´·à´£ à´Ļ
P al
.... ....
19 17
s itz
Ġà´İ à´µ
Ã¤l fte
ĠB re
l Ã¶sung
à¸¡à¸²à¸ģ à¸¡à¸²à¸¢
Ġe gal
Ġf und
Ġà´® à´Ł
ri ge
Ġd ritten
à¸¡ à¸²à¸£
ĠH Ã¼t
Ġform a
y a
gesch rieben
ĠerhÃ¤lt lich
à´°à´® à´Ļ
in os
T ra
Ġex per
25 60
Ġs Ã¤m
Ġà´ī à´Łà´¨
Ġex ist
schein t
Ġà´µ à´¹
A ut
Ġh Ã¶ren
ĠS ign
ĠSt uttgart
Ġl Ã¤ng
ok al
M od
à¸¡à¸²à¸ģ à¸ģà¸§
u gend
à¹ģ à¸ļ
à´² à´£
schul en
ĠD aher
Ġd eix
N eu
ÑĤ Ð¾
ĠU ser
co Ã±
dien en
à´¬ à´±
ĠS amm
Ġp ublic
ĠM iet
ĠT ha
ĠFl Ã¤
à´§ à´Ļ
ĠW ild
D R
à´¾ .
sch ungs
ĠBed arf
ĠJ a
à¸¡ à¸ľ
Ġsozial en
19 01
à´Ł à´µà´°
Ġnach hal
Ñĩ Ð¸
ie sen
lich keiten
à¸ģ à¸Ń
zahl t
Ġgen auso
ive au
à´ŀ à´ª
ĠVer halten
geb racht
à¹ģ à¸Ļà¸°à¸Ļà¸³
Ġd einer
w ald
Ġelekt r
Ġent schieden
ĠØ ®
stell te
ĠJ av
forder ung
ĠXV III
ge ord
Ġbet reffen
à´µ à´µ
Ġout ros
m ie
Ġà´¯ à´¥
lie b
ĠLin ie
z we
om b
he ber
à¸ĩà¸Ħ à¸¡
Ġf ein
ĠWer be
0 180
ÙĬ Ø©
Ã¤ ck
ack e
di ciÃ³n
g ers
à¸Ļ à¸²
S P
ĠEurop Ã¤ischen
Ġ- -
ot os
ĠP rison
ĠA B
ĠIn c
si der
ĠL Ã¶sungen
Ġausge stattet
d urch
Ð¸ Ñħ
à¸Ļ à¹Ĥ
Ġh a
1 15
Ġe vent
Ġm ed
Ġdur ante
à¸³à¹ģ à¸«à¸Ļ
y er
Ġà´ħ à´¶
Ġp od
is o
Ļ áĥ·
Ġáĥľ áĥĺáĥĳ
Ġáĥ£ áĥĶáĥĺáĥĵ
Ġáĥ¥ áĥĲáĥłáĥĹáĥĺ
áĥĹ áĥĺáĥĶáĥł
áĥĿáĥĹ áĥĲáĥ¨
áĥĺáĥŃ áĥĿáĥ¤
ĠáĥĲáĥļáĥĳ áĥĺáĥľ
ĠáĥĽáĥĺáĥłáĥ Ļáĥ·
ĠáĥĲáĥ¨ áĥķ
áĥ¡áĥĲáĥĽ áĥĲáĥłáĥĴáĥĲáĥļáĥĿ
Ġáĥ¯áĥĲáĥ¡áĥ¢ áĥĺáĥľáĥ¥
ĠáĥĳáĥĲáĥ® áĥĺ
Ġáĥ¡áĥĲáĥĴ áĥĶáĥ¡
Ġáĥĳáĥĺáĥĳ áĥĶáĥłáĥĺ
ĠáĥĽáĥĶáĥ¢áĥĶáĥĿáĥł áĥĿáĥļáĥĿáĥĴáĥĺáĥĲ
áĥĿáĥĿáĥłáĥ£ áĥĶáĥ¨
ĠáĥĿáĥ¯ áĥĲáĥļ
ĠáĥĿáĥ¯ áĥĲáĥłáĥĲáĥļáĥ£
ĠáĥĽáĥĶáĥľáĥĵáĥĶáĥļáĥĶáĥĶáĥķ áĥ¥
ĠáĥĵáĥĲáĥļ áĥĺáĥ¥
ĠáĥĹáĥĶáĥŁáĥĲáĥĽ áĥ¡
ĠáĥłáĥĲáĥĵáĥĺáĥĿ áĥĲáĥ¥áĥ¢
ĠáĥĴáĥĶáĥ£áĥĻáĥ£áĥĽáĥĶáĥļ áĥĲáĥ¤áĥĲ
Ġáĥ¬áĥĶáĥ¡áĥĵáĥķáĥĲáĥļ áĥĲáĥ¨
Ð¾Ñģ Ð±Ñĥ
áĥĴáĥķ áĥĲáĥ¢áĥĶáĥĽ
Ġáĥ¥áĥĲáĥľáĥĹ áĥłáĥĺ
Ġáĥ¥áĥĲáĥľáĥĹ áĥłáĥĺáĥ¨
ÑĦ Ð¾ÑģÐ±Ñĥ
Ġáĥ©áĥĲáĥ© áĥľáĥĶáĥĹáĥĺáĥ¨
ĠÑģÐ¾ ÑĦÐ¾ÑģÐ±Ñĥ
Ø¯Ùħ Ø§Øª
Ġáĥľáĥĺáĥĳ áĥĹáĥĺáĥĶáĥł
ĠÑģÐ¾ÑĦÐ¾ÑģÐ±Ñĥ Ð²Ð¸ÑĢ
áĥĽ áĥĶáĥ¥áĥ¡
áĥĲáĥł áĥĲáĥ¥
Ġáĥ¡ áĥĿáĥľ
Ġáĥ¡ áĥ·áĥĽ
Ġáĥ¡ áĥĶáĥłáĥķ
Ġáĥ¡ áĥĲáĥ¬áĥĲáĥłáĥĽ
áĥ® áĥĲáĥ¡áĥ·áĥļ
Ġáĥ¬áĥĲáĥľ áĥĶáĥłáĥĺ
áĥĲáĥĵ áĥĿáĥ¨
áĥĲáĥłáĥĹ áĥĺáĥľáĥ£
Ġáĥ¨ áĥĿáĥ¨áĥĶ
Ġáĥķ áĥĿáĥĻ
Ġáĥ¤ áĥĲáĥľáĥ¢
áĥĺáĥĵ áĥ£áĥĵáĥ·
Ġáĥ¯ áĥĿáĥłáĥ¯
áĥĿáĥ¤ áĥ£áĥ¢
áĥĿáĥĴ áĥĿáĥļáĥĲáĥ¤áĥĺáĥłáĥĺ
ĠáĥĲáĥłáĥĹ áĥ£áĥł
ĠáĥĹáĥĺáĥľ áĥĺ
ĠáĥľáĥĿáĥ¦ áĥĲáĥ¥
ĠáĥĿáĥĻ áĥ£áĥļáĥ¢
Ġáĥĺáĥľáĥĵ áĥ£áĥ¡áĥ¢áĥł
áĥĺáĥķ áĥĲáĥļ
Ġáĥĵáĥ£áĥĵ áĥĲáĥļáĥĲáĥ¨
áĥ£áĥłáĥĴ áĥ£
áĥĿáĥĸ áĥĲ
ĠáĥĴáĥĺáĥĽ áĥĶáĥľ
áĥķáĥĺáĥļ áĥ¡
Ġáĥ¡áĥĿáĥĵ áĥĴáĥĲáĥĹ
ĠáĥĿáĥĹáĥ® áĥĺáĥļ
áĥ·áĥľáĥ «áĥĲ
Ļáĥķ áĥĺ
áĥĲáĥ« áĥĶáĥ¥
Ġáĥ¡áĥ¢áĥĲáĥ¢ áĥĺáĥĲáĥ¡
áĥĺáĥłáĥĺáĥľáĥ£ áĥĲáĥľáĥĲ
Ġáĥ¤áĥĶ áĥĿáĥĵ
Ġáĥ¡áĥĺáĥĴ áĥ·áĥľáĥ«áĥĲ
Ġáĥŀáĥĺáĥ¯ áĥĺ
ĠáĥĲáĥľáĥ¢ áĥĺáĥĻáĥ£áĥł
ĠáĥĿáĥŃ áĥĺáĥłáĥĺáĥľáĥ£
ĠáĥĲáĥ¢áĥĽáĥĿáĥ¡áĥ¤áĥĶáĥł áĥĿáĥ¡
ĠáĥĹáĥ¥ áĥķáĥĲáĥľ
ĠáĥĻáĥĺáĥļáĥĿáĥĽáĥĶáĥ¢ áĥłáĥĺáĥ¨
ĠáĥĵáĥĲáĥĻ áĥĿáĥ¢
ĠáĥĲáĥĻáĥĿáĥ¥áĥĺáĥĽáĥĺáĥľáĥ£ áĥĲ
ĠáĥĽáĥĺáĥĿáĥłáĥ ¡áĥ®áĥ£
ĠáĥĶáĥ¨áĥĽáĥĲáĥ¦áĥĲáĥļ áĥĲáĥłáĥĶáĥ¤áĥĺáĥ¨
ĠáĥļáĥĲáĥĺ áĥ¤áĥªáĥĺáĥĴ
ĠáĥĽáĥ£áĥ¬ áĥĽáĥĲáĥłáĥĺáĥľáĥ£
Ġáĥ¬áĥĿáĥ®áĥĿáĥļ áĥĶáĥľ
ĠáĥĿáĥ®áĥĿáĥłáĥĺáĥľ áĥĲáĥļáĥĺ
Ġáĥ¡áĥĲáĥĲáĥ¬áĥĽáĥĲáĥłáĥĶáĥľáĥ¯ áĥĿáĥĹ
ĠáĥĽáĥĿáĥ¥áĥĽ áĥĶáĥĵ
ĠáĥĽáĥĶáĥĵáĥĺáĥª áĥĺáĥľáĥĲáĥ¡
áĥĲáĥľ áĥĲáĥĹ
áĥĲáĥļ áĥĺáĥĶ
áĥĻ áĥĺáĥļ
áĥĿáĥļ áĥĺáĥľáĥĲáĥ¨
Ġáĥ¤ áĥĲáĥľáĥĺ
Ġáĥļ áĥĲáĥĵ
áĥ£áĥľ áĥĲáĥ¨
áĥĲáĥĳ áĥĲáĥľ
ĠáĥĲáĥłáĥĹ áĥĲáĥĽáĥĺ
ĠáĥŁ áĥĺáĥļ
Ġáĥĳáĥ£áĥľ áĥĲáĥ¨áĥĲ
ĠáĥĽáĥĿáĥ£ áĥ¦
Ġáĥ¢áĥ§ áĥĲáĥļáĥĶáĥ¤áĥĺáĥĹ
ĠáĥĽáĥĲáĥ¸ áĥĲáĥļ
Ġáĥ¥áĥķ áĥĶáĥłáĥ¡
ĠáĥĳáĥĺáĥłáĥĹ áĥķ
ĠáĥĽáĥ£áĥ¡áĥ£áĥļ áĥĽáĥĲáĥľ
áĥĲáĥľ áĥĸ
ĠáĥĽ áĥĲáĥķáĥł
Ġáĥĵ áĥĶáĥ¢
Ġáĥĵ áĥĺáĥĿáĥĵ
Ġáĥĵ áĥĿáĥĵáĥĴáĥĺáĥľ
áĥĲáĥļ áĥĶáĥļ
áĥĽ áĥĺáĥĻ
áĥĺáĥľ áĥĲáĥļáĥ£áĥłáĥĺ
ĠáĥĴ áĥĿáĥĹ
ĠáĥĹ áĥĶáĥłáĥĽ
ĠáĥĹ áĥĲáĥ¡áĥĺ
Ġáĥł áĥĺáĥĴ
Ġáĥľ áĥĲáĥľáĥĵ
áĥĲáĥ¤ áĥĲáĥ¨áĥĶ
áĥ® áĥĿáĥĸ
Ġáĥ¬áĥĲáĥľ áĥĶáĥ¤áĥ¨áĥĶ
áĥĲáĥĹ áĥ£áĥĹáĥĲ
áĥĿáĥĳ áĥ£áĥ¡
áĥĺáĥļ áĥĳ
áĥĶáĥļ áĥĽ
Ġáĥķ áĥĲáĥłáĥ©áĥ®áĥĺáĥļáĥĺáĥ¨
Ġáĥ¤ áĥĶáĥ¡áĥ¢áĥĺáĥķ
áĥĶáĥľ áĥĺáĥĲáĥ¨
áĥĺáĥĽ áĥĶáĥľáĥ¢
áĥ¦ áĥĲáĥłáĥĿ
áĥŀ áĥĿáĥļ
ĠáĥĽáĥĲ áĥĲáĥĽáĥ¨
Ġáĥļ áĥĲáĥĸ
Ġáĥļ áĥ£áĥĳ
áĥĿáĥľáĥ Ń
áĥ¯ áĥĿáĥľáĥĺ
áĥłáĥ ĵ
áĥĲáĥķ áĥ¡áĥ¢áĥł
©áĥ¥ áĥĺáĥľáĥĵáĥ·
ĠáĥľáĥĿáĥłáĥĹ áĥĺáĥ¥
áĥĺáĥľáĥĶáĥĳ áĥĲáĥ¨
ĠáĥĻáĥĿáĥĽ áĥĺáĥ¢áĥĶáĥ¢
Ġáĥ¡áĥĲáĥ®áĥĶáĥľáĥ¬áĥ·áĥ¤ áĥĿáĥ¡
Ġáĥ« áĥĶáĥĴ
áĥĶáĥłáĥĴ áĥĶáĥĸ
ĠáĥľáĥĲáĥĽáĥ£áĥ¡ áĥ£áĥĹ
ĠáĥĳáĥŁáĥĲáĥĶáĥĺáĥĿáĥļ áĥĺáĥ¨
áĥĲáĥ¬ áĥĶáĥ¡
Ġáĥ©áĥ¥ áĥĿáĥľáĥĺ
Ġáĥ£áĥłáĥ ĳ
Ġáĥľáĥ« áĥĲáĥļáĥĲ
Ġáĥĺáĥľ áĥĺáĥªáĥĺ
ĠáĥĽáĥĲáĥłáĥ ¨
ĠáĥŀáĥĲáĥł áĥĲáĥļáĥĶáĥļ
ĠáĥĲáĥ¬ áĥĽáĥĲáĥłáĥĶáĥľáĥ¯
Ġáĥ°áĥĲáĥķ áĥĲ
ĠáĥĽáĥĿáĥľáĥĲáĥ¡áĥ¢ áĥĶáĥłáĥĺ
Ġáĥ¡áĥĿáĥªáĥĺ áĥĲáĥļáĥ£áĥł
Ġáĥ£áĥłáĥĹ áĥĺáĥĶáĥłáĥ
Ġáĥ¬áĥĺáĥľáĥĴ áĥĺáĥ¨
ĠáĥŀáĥłáĥĿáĥ¤áĥĶáĥ¡ áĥĺáĥĿáĥľ
áĥĶáĥŃ áĥĲáĥľáĥ£
Ġáĥ¡áĥ£áĥŀ áĥĶáĥłáĥĴ
ĠáĥļáĥĲáĥ® áĥĲáĥłáĥĲ
ĠáĥŀáĥĲáĥķ áĥļáĥĶ
ĠáĥĶáĥ¤ áĥ¨áĥĲ
Ġáĥ£áĥľáĥ© áĥĲáĥ¨
áĥĽáĥĶáĥ® áĥķáĥĲáĥłáĥĲáĥĹ
ĠáĥĿáĥ¡áĥ£áĥłáĥ¦áĥĿáĥłáĥĿáĥľáĥĹ áĥĺ
ĠáĥĴáĥĶáĥľáĥ Ĺáĥ®
ĠáĥĽáĥĺáĥĿáĥ¦ áĥĶáĥĳáĥĶáĥļáĥĿ
Ġáĥ¢áĥłáĥĲáĥĴ áĥĶáĥĵ
ĠáĥĻáĥĿáĥľáĥ¡áĥ¢ áĥĲáĥľáĥ¢áĥĺáĥľáĥĿáĥŀ
Ġáĥ¨áĥĶáĥĴáĥĺáĥļáĥĶáĥĳ áĥ£áĥľáĥĲ
ĠáĥĽáĥĲáĥķáĥĺáĥĹ áĥĲ
ĠáĥĺáĥķáĥĺáĥĹáĥĲáĥł áĥĶáĥĳáĥ£
Ġáĥ¡áĥĺáĥĽáĥĲáĥ¦áĥĲáĥļ áĥĲáĥ¡
Ġáĥ¡áĥĲáĥĳáĥĿáĥļáĥĿ áĥĿáĥĹ
Ġáĥ£áĥĻáĥļ áĥĲáĥ¨áĥĺ
ĠáĥĵáĥĺáĥĿáĥĵ áĥ¦áĥĲáĥłáĥĿ
ĠáĥĽáĥĲáĥĲáĥĽáĥ¨ áĥķáĥĲ
Ġáĥ£áĥłáĥĹáĥĺáĥĶáĥłáĥ Ĺ
ĠáĥĴ áĥĲáĥłáĥ©áĥ¥
Ġáĥ¡ áĥĺáĥª
ĠáĥĻ áĥķáĥĲáĥĵ
Ġáĥĳ áĥĺáĥ¯áĥĴ
Ġáĥ¨ áĥĲáĥ§áĥĲáĥł
áĥĺáĥ£ áĥĽáĥĺáĥ¨
Ġáĥ®áĥĲáĥľ áĥĶáĥ¤áĥ¡
Ġáĥ¤áĥĶáĥĺáĥľáĥĽ áĥĲáĥľáĥĺáĥ¨
ĠáĥĴáĥĲáĥĸ áĥĺáĥ¨
ĠáĥĵáĥĺáĥŃáĥ§ áĥ£
ĠáĥĲáĥ« áĥķáĥĺáĥļ
ĠáĥĴáĥķáĥĺáĥľ áĥĶáĥ¢
ĠáĥĻáĥķáĥĲáĥĵ áĥłáĥĲáĥ¢
ĠáĥĽ áĥĺáĥĴ
ĠáĥĽ áĥĿáĥ¢
áĥ· áĥł
áĥĽ áĥĶáĥľáĥª
áĥĺáĥľ áĥĶáĥłáĥĺ
ĠáĥĴ áĥ£áĥľ
à´± à´¸
áĥ¡ áĥ¥
Ġáĥľ áĥĿáĥłáĥĽ
ĠáĥĻ áĥĶ
ĠáĥĻ áĥĿáĥ¡áĥ¢
ĠáĥĻ áĥ£áĥłáĥĿáĥłáĥ¢
áĥĶáĥł áĥĿáĥ¡
áĥĲáĥĵ áĥł
áĥĲáĥĵ áĥĲáĥĽ
Ġáĥ£ áĥĶáĥļáĥ¡
áĥľ áĥĲáĥ¨
Ġáĥŀ áĥĺáĥĶ
Ġáĥ¨ áĥ£áĥłáĥĵ
áĥĶáĥĳ áĥĲáĥ¨áĥĶ
áĥĴ áĥĺáĥ¨
Ġáĥ¤ áĥĲáĥ£
áĥĺáĥĽ áĥĺáĥľ
áĥĿáĥłáĥĹ áĥĲáĥ¨
áĥĶáĥĽ áĥ¡
ĠáĥĲáĥĻ áĥĲáĥĵáĥĴáĥĺáĥľ
Ġáĥĸ áĥĺáĥ¡áĥ®
ĠáĥĴáĥ·áĥĽ áĥĿáĥ©áĥĲáĥĽ
ĠáĥĿáĥĻ áĥĺáĥĵ
ĠáĥĽáĥĺáĥ¨ áĥĲáĥŃáĥĻáĥĺáĥł
Ġáĥľáĥ ¯
áĥĲáĥŃ áĥĲáĥłáĥĶáĥ¤áĥĺáĥ¨
ĠáĥĶáĥļ áĥĲáĥĸáĥ·áĥĽ
Ġáĥĺáĥľáĥ¢ áĥĶáĥļ
ĠáĥĽáĥĲáĥĵ áĥ£áĥĵ
ĠáĥĻáĥ£áĥļáĥ¢áĥ£áĥł áĥ£áĥļ
ĠáĥĴáĥĲáĥĽ áĥĲáĥĽ
Ġáĥŀáĥĺáĥ¯ áĥĺáĥ¨
áĥĲáĥĿáĥ ¨
Ġáĥ¸áĥĿáĥ¤ áĥĺáĥļ
Ġáĥ¤áĥĺáĥĸ áĥĺáĥĻáĥ£áĥłáĥĺ
ĠáĥłáĥĶáĥŁ áĥĺáĥ¡
áĥ¡áĥĲáĥĽ áĥĲáĥľáĥĴ
ĠáĥĲáĥ¡áĥĶ áĥĺáĥĲáĥľáĥĺ
ĠáĥĴáĥ·áĥĽáĥĲáĥĹ áĥ£áĥĹáĥĲáĥ¨
ĠáĥĻáĥĿáĥľáĥĻ áĥ£áĥłáĥ¡
ĠáĥŃáĥ§ áĥĿáĥļáĥĿáĥ¤
ĠáĥĽáĥĲáĥĹ áĥĶáĥĽáĥĲáĥ¢
Ġáĥ©áĥĶáĥ© áĥľ
Ġáĥĳáĥļ áĥĿáĥĻ
ĠáĥĴáĥĶáĥĴáĥ¨ áĥĲáĥĴáĥĿáĥł
Ġáĥļáĥĺáĥĵ áĥĶáĥłáĥĺ
ĠáĥĲáĥĻáĥĿáĥĴ áĥĲáĥ¤áĥĺáĥļáĥĺ
ĠáĥľáĥĲáĥķáĥĹáĥĿáĥĳ áĥĺáĥ¨
áĥĳáĥŁáĥĲáĥĵ áĥĲáĥļáĥĺ
ĠáĥĽ áĥĲáĥĸ
áĥĲáĥļ áĥ£áĥ¡
áĥĲáĥĽ áĥ£
áĥ£áĥł áĥĲáĥ¤áĥĲáĥļáĥĺ
áĥĲáĥ¤ áĥĺáĥ¨
ĠáĥĽáĥ£áĥ °
áĥ¬ áĥĿáĥł
áĥ£áĥĲáĥ¤ áĥ£áĥĵ
Ġáĥ¥áĥĺáĥĽ áĥĺáĥľáĥ£
ĠáĥĿáĥ¡áĥ® áĥĺáĥłáĥ¨áĥĲ
ĠáĥĿáĥ¢ áĥĶáĥļáĥĶáĥķáĥĺáĥĸ
Ġáĥ¨áĥĲáĥłáĥĲáĥļáĥ£ áĥĲ
ĠáĥĿáĥ¢áĥĶáĥļáĥĶáĥķáĥĺáĥĸ áĥĺáĥĶ
ĠáĥĽ áĥĺáĥĲáĥľ
Ġáĥľ áĥĶáĥłáĥķ
áĥĺáĥļ áĥĺáĥĻ
Ġáĥŀ áĥĲáĥļáĥĶ
áĥĺáĥĽ áĥĿáĥļáĥĶáĥľáĥĺ
áĥ£áĥĲáĥ¤ áĥ£áĥĵáĥĶáĥ¡
áĥĺáĥŀ áĥļ
áĥ£áĥ¦ áĥĶ
ªáĥ® áĥĲáĥĵ
ĠáĥĲáĥ¡ áĥ¤áĥĲáĥļ
ĠáĥĴáĥĿáĥķáĥĺáĥĹáĥĲáĥł áĥĲáĥ¤áĥĲ
ĠáĥĴáĥĶáĥĿáĥĴáĥłáĥĲáĥ¤ áĥĺáĥĲáĥ¡
ĠáĥĻáĥĿáĥ© áĥĺáĥ¨
ĠáĥĶáĥĻáĥĿáĥľáĥĿáĥĽ áĥĺáĥĻáĥ£áĥł
ĠáĥĴáĥĶáĥ¸ áĥķáĥĶáĥľáĥ¯
ĠáĥĻáĥĿáĥľáĥ¡áĥ¢áĥĺáĥ¢áĥ£áĥª áĥĺáĥĲáĥ¨
ĠáĥĴáĥĺáĥĹ áĥĽ
Ġáĥ¯áĥĺáĥļáĥĵ áĥĿ
ĠáĥĳáĥĿáĥľ áĥĲáĥŀ
ĠáĥĴ áĥĲáĥłáĥĻáĥķ
à´µ à´´
Ġáĥ© áĥĶáĥ¡
ĠáĥĽáĥĲáĥľáĥĴ áĥĺáĥĿáĥłáĥĿ
ĠáĥĶáĥłáĥĺáĥ¡ áĥĹáĥĲáĥķ
áĥ¨ áĥĲáĥ¤
Ġáĥ¦ áĥ£áĥłáĥĲáĥĹ
Ġáĥľáĥ« áĥĲáĥļáĥĶáĥ¤áĥĺáĥ¨
Ġáĥ¡áĥ¥áĥĺáĥłáĥĿáĥľ áĥĲáĥ¨
ĠKomment are
ĠáĥĽáĥĲáĥłáĥĻáĥķ áĥĺáĥĶáĥĳ
Ġáĥ¤áĥĺáĥĵ áĥĶáĥļ
ern t
Ġzahl reichen
Ġunter s
à¸Ńà¸Ķ à¸Ĥ
10 5
tre ter
ĠVerein s
ĠTra dition
ĠwÃ¼n schen
ĠF o
ĠChrist ian
Ġ à¹Ģà¸ģà¸¡à¸ª
ĠGesch enk
Ġzie ht
Ġà¸£ à¸ĸ
à¸¥à¸ĩ à¸Ĺ
Ġsch rift
ĠauÃŁer halb
à¸ģà¸£à¸° à¸Ķ
ĠR obert
ger Ã¤te
stÃ¤n dige
10 9
Ġd ienen
E G
ied ade
at oren
ĠVerk Ã¤ufer
ĠAn frage
Ġa ch
p ra
ĠM ig
ĠSch war
Ġà´ı à´°
Ġver schw
Ġtrav Ã©s
Ġwir ken
16 5
ĠR uhe
ben teuer
ĠH ein
tic as
Ġbeg innen
Ġà´İ à´³
à¸²à¸Ń à¸ģ
et o
Ġl etzt
ĠH ans
Ġge halten
à¸§à¸Ļ à¸ķ
à¸ĩ à¸ľà¸¥
ĠÃ¼ber tragen
Ã¶ scht
ru g
ĠFlug hafen
al mente
R eg
Ġà´¤ à´µà´£
ĠT witter
wir kungen
form ular
Ġpro xecto
ĠH immel
wind igkeit
Ġb lau
ĠM eine
Ġf ix
eu ten
Ã¼ re
ĠE v
à¸Ľà¸¥ à¸Ńà¸Ķ
Ġverpflich tet
ik ro
ur n
othe k
ĠKÃ¼ chen
w urf
à´¬ àµ¼
Ã¶r ter
ra ciÃ³n
zep te
le y
ĠSt ar
à¸Ľà¸£à¸°à¸ģ à¸²à¸¨
ĠEr de
Ġvoll stÃ¤ndig
Ġà´® à´Łà´Ļ
ichte te
Ġda gegen
Ġm ill
à¸§ à¸ª
ĠF leisch
à¹ģà¸ŀ à¸Ĺà¸¢
fil m
Ġà´° à´ľ
Ġin kl
Ġx eito
V ers
ou d
ci ais
ĠDetail s
b ilder
âĢľ ),
ĠC H
Ġgut es
à¹ģà¸Ķ à¸ĩ
ĠReg istr
Die ses
pl Ã¤tze
ĠS zen
à´¸ à´¸
à¸ĵà¸° à¸Ĺ
Ġkur ze
à´ķ à´Ļ
Ġer scheint
lin ie
ĠR oll
ĠM ir
p ublik
Ph one
ĠK och
ĠMaterial ien
ĠR unde
à´· à´¯à´¤
ĠBereich en
ĠCom ics
Ġin d
à¹ĥà¸Ļ à¸ª
id os
Ġv iv
s ser
à¸Ļ à¹Ģà¸ª
Ġre x
à´¸ à´£
à¸ªà¸³ à¸Ļ
Ġgeb oren
re chte
m ark
r and
Ġà´¨ à´°
ĠN ik
ĠAn lage
ĠgroÃŁ es
er weise
ĠOrganis ation
à´¤ à´±
ĠGro up
Ã¼ m
19 31
ĠPo wer
Ġt ut
cul o
an ke
Ġein gesch
di ent
hand el
à¸ĩ à¸ĩà¸²à¸Ļ
d or
ĠBest immungen
Ġr ies
à¸¸ à¹Ĭ
Ġpart ner
ĠWas ch
Ġr uss
ĠIn sel
à´° à´ľ
ĠD am
ĠT Ã¤tigkeit
ord s
à´ķà´°à´£ à´Ļ
Ġindividu ell
Ġopti m
24 0
ĠR icht
eh lt
) )
ĠHand y
p erson
Ġheu tigen
ĠN on
O P
Ġgel ungen
ch em
ĠE he
ĠK al
h et
m at
ĠF it
à¸ĩ à¸Ħà¸£
ĠzusÃ¤tz liche
L AN
ov e
Ġst Ã¤ndig
Ġdar unter
Ġw echs
fer nen
Ġzun ehmen
opp en
p unkte
Ġver f
S S
il a
V D
Ġfr anzÃ¶s
lich ten
ĠVer d
Ġ à¸Ľà¸£à¸ª
ĠH ard
ĠC ast
sch auen
ĠSch on
mer zen
194 8
ĠO ffen
à¹Ħà¸Ľ à¸Ķ
à¸ģ à¸«à¸Ļ
à¸Ķ à¸²à¸§
à´İ à´®
M en
à¸Ń à¸Ĥà¸²à¸¢
Ġhochwer tige
v i
ĠBet roffen
Ġges etzt
P ol
à´ľ à´ķ
c os
Ġre pres
à¸¡ à¸Ĭ
ĠDon nerstag
ec to
ĠBerlin er
ĠMann schaft
b ack
Ġh eim
à´Ĺ à´°
p rÃ¼fung
Ġt res
spiel en
Ġà´¸ à´²
r eit
Z ur
ĠÐ ļ
ĠÃ¼ber all
ĠFahr rad
Ġ à¸®
à¸Ķ à¸«
b il
à¸Ļ à¸«à¸¥
ti s
ĠMin ister
ĠF alle
Ġs ec
Ġzu k
ĠLand kreis
ĠL aut
Ġà´¶ à´¬à´°
Ġbe ob
ler nen
ĠH Ã¼
ĠA ma
à¸¥ à¸Ńà¸Ķ
z ut
ĠgrÃ¶ÃŁ te
14 7
ot or
à´°à´¶ à´¸
Ï Ģ
Ã¼ck sichtig
ĠB or
ĠWeiter lesen
# #
à´ķ àµ»
w art
ind o
uf f
ĠApp le
Ġf allen
ĠpersÃ¶n liche
sch te
Ġsp richt
à¸µ ,
Ġent decken
Ġe con
arm on
ĠEin fluss
Ð» Ðµ
Ð Ĵ
à¸² à¹ĥà¸Ĭ
eld et
à¸²à¸Ħà¸§ à¸²à¸¡
ĠD ritte
àµº à´²
Ġà´ķà´¥ à´¯
Ġp at
ĠUm fang
ĠDien stag
ĠKont o
ĠX unta
Ġsie ben
à¸ķ à¸ģ
à¸Ķ à¸ŀ
ĠVer gangen
ĠÐ °
Ġk ultur
Ġà´İ à´ª
ĠA R
in ar
Ġà´ī à´²
Ġx og
un s
ĠPar is
ĠCh em
à´ļ à´µà´°
ĠB aby
ĠN orm
ĠUn fall
ĠM ach
or ge
ĠSie g
Ġà´¸ à´ĸ
ĠAm ts
Ġfol gt
cl ub
ĠVort eile
à¸²à¸£ à¸¢
Ġj Ã¼n
Ġà¸ļ à¸²à¸ĩ
ol ox
ĠProdu kten
Ġm uller
i at
wer bung
Ġunterschied lich
Ã¶ff nen
ren z
ĠB rief
Ġc idade
àµģà´Ĥ ;
à¸² à¹Ħ
wor k
ta in
ĠF ein
s inn
åı °
ĠÐ ĺ
ĠO per
Ġmen sch
mos ph
ĠFr anz
ĠM ac
ĠJ apan
C D
ĠHo f
Ġ% -
I K
à¸Ľ à¸²à¸ģ
ĠW eiÃŁ
bild ungs
o ol
ĠDok ument
à¸Ńà¸ĩ à¸Ĥà¸Ńà¸ĩ
Ġl it
Ġklein es
h och
Ġin zwischen
ĠM os
Ġpass iert
Ġpersonenbezogen er
Ġtro cken
f lex
ĠH D
Ġher gestellt
ĠRe chnung
ĠS ein
Ġv en
à¸Ńà¸Ńà¸ģ à¹ģà¸ļà¸ļ
ot ten
± Ð¾ÑĤ
ĠG rad
Ġab gel
Ġs icht
à¹ Ĵ
ĠMod elle
Ġer stellt
Ġz eich
M L
à´§ à´¯
Ġsem pre
Ġw ann
ich ter
Ġle bt
Ġal tern
n t
à¸§à¸¢ à¸Ħà¸§à¸²à¸¡
k an
ot a
Ġschnell er
ĠUS B
ow eit
Ġim pl
ĠG eg
à´ĸ à´ª
C on
Ġan s
Ġeinfach e
âĢľ ).
Ġà¹ģ à¸Ĺ
Ġs k
ĠT rotz
à¸Ńà¸ĩ à¸Ĥ
ĠWar um
D en
à¹Ģà¸Ĺ à¸Ħà¹Ĥà¸Ļà¹Ĥà¸¥à¸¢
ĠW al
ĠAuf bau
Ġgel esen
à¸§ à¸Ńà¸¢
ele ucht
walt ungs
ĠBet eil
à´¶ à´µ
auf nahme
fer tigt
ĠW ol
c u
ĠHoch zeit
ĠL Ã¤nge
Ġáĥĵ áĥĲáĥļáĥĺ
áĥĲáĥļ áĥĿáĥĳáĥĲáĥ¡
áĥ· áĥłáĥĶ
áĥł áĥĶáĥĸáĥĺáĥĵ
áĥĽ áĥĲáĥĻáĥĶáĥĵ
ĠáĥĴ áĥĿáĥĴ
ĠáĥĿáĥ ŀáĥĺáĥ¯
Ġáĥĺ áĥĿáĥłáĥĵ
áĥĵ áĥĲáĥĵ
áĥĿáĥĳ áĥĶáĥ¤áĥĺáĥĹ
áĥĶáĥĳ áĥĲáĥ¤
ĠáĥĽáĥ£áĥ ¦
Ġáĥ¤ áĥ£áĥľáĥ¢
áĥ£áĥļ áĥĲáĥ¤áĥĲáĥ¨
áĥĺáĥłáĥ ¯
áĥĿáĥ¤ áĥĺáĥľáĥ£
áĥĲáĥľáĥĵ áĥĺáĥĴ
ĠáĥĲáĥłáĥĹ áĥĿáĥĳáĥ£áĥłáĥĿ
ĠáĥŁ áĥĺáĥłáĥĿ
ĠáĥĲáĥĽ áĥ¤
Ġáĥľáĥ ¬áĥ§
ĠáĥĽáĥ£áĥ¡ áĥĺáĥĻáĥĿáĥ¡
Ġáĥĺáĥ¸ áĥ£áĥĲáĥ¤áĥ£
ĠáĥĶáĥķáĥłáĥĿáĥŀ áĥĲ
Ġáĥ¡áĥŀ áĥĶáĥ¥áĥ¢
ĠáĥĶáĥĴ áĥĶáĥĿáĥ¡áĥĺáĥ¨
ĠáĥĴáĥĶáĥĴáĥľ áĥĿáĥłáĥĹáĥ·
ĠáĥĿáĥłáĥĴáĥĲáĥľáĥĿ áĥĶáĥ¤áĥĺ
ĠáĥĵáĥĿáĥĻ áĥķáĥĺáĥł
ĠáĥļáĥĶáĥ® áĥĶáĥłáĥĺ
áĥĿáĥłáĥľ áĥĺ
ĠáĥĻáĥĿáĥĽáĥŀáĥĺáĥ£áĥ¢ áĥĶáĥłáĥĶáĥ¤áĥ¡
ĠáĥĽáĥĶáĥĹ áĥĽ
ĠáĥĴáĥĲáĥĴ áĥ¨
ĠáĥĹáĥĶáĥľ áĥĶáĥ¤áĥĺáĥ¨
áĥ¬áĥ§ áĥĲáĥłáĥĺáĥ¨
ĠáĥĳáĥĺáĥĸáĥĲáĥľáĥ¢ áĥĺáĥĲáĥ¡
Ġáĥ¥áĥ·áĥľáĥĵáĥ· áĥłáĥ¡
ĠáĥĽáĥĺáĥłáĥ©áĥ¥áĥĺáĥľ áĥ£áĥĲáĥ¤áĥ£
ĠáĥľáĥĺáĥĻ áĥĲáĥłáĥĲáĥĴ
Ġáĥ¥áĥĺáĥĴ áĥĺ
Ġáĥ¢áĥĲáĥĺ áĥķ
ĠáĥĽáĥĲáĥ© áĥĺáĥĶáĥĳ
Ġáĥ¥áĥ£áĥĵ áĥĲáĥłáĥ¡áĥ®áĥ£
ĠáĥľáĥĿáĥłáĥķáĥĶáĥĴ áĥĺáĥĲáĥ¨
áĥĺáĥĽáĥĺáĥ¢ áĥłáĥĺ
Ġáĥ¦áĥķ áĥĺáĥľáĥĺ
Ġáĥĳáĥĺáĥĸáĥľ áĥĶáĥ¡
áĥĲáĥłáĥ° áĥĺ
áĥĲáĥľáĥĵáĥĺáĥĴ áĥĲáĥłáĥ°áĥĺ
Ġáĥĵ áĥĺáĥĸ
áĥĶáĥł áĥĶáĥĹ
áĥĵ áĥ£áĥĵáĥĺáĥ¨
áĥĺáĥł áĥĲáĥĹ
áĥĶáĥĳ áĥĶáĥļáĥĶ
áĥĶáĥľáĥ¢ áĥĶ
áĥłáĥ «
ĠáĥĴáĥĺáĥľ áĥĿáĥ©
Ġáĥĵáĥĺáĥĵ áĥĲ
áĥĺáĥĳ áĥĲ
Ġáĥ« áĥ£áĥ«
Ġáĥ¯áĥĿáĥ®áĥĿáĥĵáĥķáĥĲáĥļ áĥĲáĥĹ
ĠáĥĲáĥľáĥ¢ áĥĿáĥľ
áĥĽáĥĲáĥľ áĥĲáĥĹáĥļ
ĠáĥĽáĥĶáĥ¦ áĥĶáĥĳáĥĲ
ĠáĥĽáĥĲáĥľ áĥ°
ĠáĥŀáĥĶáĥľáĥ¯áĥĲáĥĳ áĥĺáĥ¨
áĥŀáĥłáĥĲáĥĵ áĥĶáĥ¨áĥĺ
ĠáĥĽáĥĶáĥłáĥ¡áĥ®áĥ£áĥĲáĥ¤ áĥĺáĥļáĥĺ
Ġ áĥĲáĥľáĥ¯áĥĲáĥł
áĥĲáĥľ áĥĺáĥĶ
áĥĲáĥľ áĥĿáĥĳáĥĲ
ĠáĥĽ áĥĲáĥłáĥ¡
Ġáĥĵ áĥĿáĥ¬
Ġáĥĵ áĥĺáĥľáĥľ
áĥĽ áĥĿáĥ¥
áĥĽ áĥĶáĥľáĥĺ
áĥĲáĥł áĥĶáĥľáĥ¡
áĥķ áĥĲáĥ¡
Ġáĥľ áĥĲáĥ¤
Ġáĥľ áĥĺáĥļ
áĥĲáĥĵ áĥĺáĥłáĥĺ
Ġáĥĳ áĥĲáĥłáĥ¢
áĥĺáĥł áĥĶáĥ¤áĥĺáĥ¨
Ġáĥ¨ áĥķáĥĲáĥľ
áĥĺáĥĻ áĥ£áĥļáĥĿ
áĥĶáĥłáĥ ¬
áĥŀ áĥĺáĥ¯
ĠáĥĲáĥĻ áĥĲáĥ¤áĥ¨
áĥĲáĥľáĥĵ áĥĶ
Ġáĥĺáĥľáĥ ľ
áĥĿáĥĹ áĥĲáĥľáĥĴ
ĠáĥĲáĥłáĥĹ áĥ£áĥļáĥĺ
áĥĶáĥľáĥĵ áĥĺáĥ¡
áĥ¯ áĥĿáĥľ
ĠáĥĹáĥĺáĥľ áĥĶáĥłáĥĺ
ĠáĥľáĥĲáĥĽáĥ£áĥ¨ áĥĶáĥĹ
áĥ·áĥĹ áĥĽ
áĥĶáĥķ áĥĲáĥ²
áĥª áĥĶáĥķáĥĲáĥ²
áĥĿáĥłáĥ£ áĥĲ
ĠáĥĴáĥ·áĥĽ áĥĿáĥŃáĥĲáĥľ
ĠáĥĳáĥĿáĥłáĥ¯ áĥĺáĥ¨áĥĶ
ĠáĥĻáĥĿáĥĽ áĥĳ
ĠáĥĲáĥ¤ áĥ®áĥķáĥĲáĥĵáĥ£áĥľáĥĲ
ĠáĥĴáĥĺáĥ¨ áĥľ
ĠáĥĴáĥĺáĥĽ áĥĿáĥłáĥ«áĥĴ
ĠáĥĴáĥ·áĥľ áĥĿáĥ¦áĥĲáĥļ
ĠáĥĲáĥľ áĥĲáĥļáĥĺáĥĸ
ĠáĥĺáĥľáĥĵáĥĿ áĥĲáĥłáĥĺ
ĠáĥĽáĥĶáĥ¢ áĥĲáĥļáĥĺáĥ¨
ĠáĥľáĥĲáĥľáĥĲáĥľáĥĿáĥ¦ áĥĲáĥĹ
Ġáĥ£áĥľ áĥĺáĥĻ
Ġáĥ¤áĥĲáĥłáĥĹáĥĿáĥĳ áĥĺáĥ¨
ĠáĥĽáĥĿáĥ£ áĥļáĥĲáĥ¨
ĠáĥĶáĥĴ áĥĸ
ĠáĥĲáĥĻáĥĿáĥĵáĥĴáĥĺáĥľ áĥĶáĥļáĥĺ
ĠáĥľáĥĲáĥ®áĥĲáĥľáĥĵ áĥĶáĥ¤áĥĺáĥ¨
ĠáĥĽáĥĲáĥĴ áĥ£áĥłáĥĲáĥ¤áĥ£
ĠáĥĶáĥĽ áĥĲáĥ¸áĥĿáĥľ
áĥ£áĥľáĥĵ áĥ£
áĥĺáĥªáĥ® áĥĲáĥĵáĥ·
ĠáĥĺáĥĴ áĥĺáĥľáĥ«áĥĿáĥł
ĠáĥļáĥĶáĥ® áĥĶáĥłáĥĺáĥ¨
ĠáĥĶáĥ¡ áĥĲáĥ®
Ġáĥłáĥĸ áĥĶáĥľáĥĺ
ĠáĥĻáĥ£áĥľáĥ¢ áĥĲáĥ®
ĠáĥĹáĥĶáĥľ áĥĶáĥłáĥĺ
Ġáĥ¡áĥ£áĥĳ áĥ¢áĥłáĥĿáĥŀ
áĥłáĥĶáĥ¡ áĥĺáĥĲáĥ¨
ĠáĥĻáĥĲáĥķáĥĻ áĥĲáĥªáĥĺáĥĲáĥ¡
Ġáĥ°áĥĿáĥļ áĥĺáĥķ
ĠáĥĽáĥĶáĥľ áĥĿáĥ¦áĥĲáĥļ
ĠáĥĲáĥłáĥ® áĥĿáĥ¡
ĠáĥłáĥĲáĥľáĥ¬ áĥĻáĥĺ
ĠSing le
Ġáĥ¥áĥ£áĥĽ áĥĽáĥĶáĥ®áĥķáĥĲáĥłáĥĲáĥĹ
Ġáĥ¡áĥĲáĥ¡ áĥĲáĥĽáĥĲáĥłáĥĹ
ĠáĥľáĥĲáĥ¬áĥĲáĥłáĥĽ áĥĶáĥĳáĥĶáĥ¤áĥĺ
ĠáĥĲáĥľáĥĹ áĥĲáĥ¡
Ġáĥ¢áĥ£áĥłáĥĺáĥ¡áĥ¢ áĥ£áĥļáĥĺ
áĥĲáĥŀáĥł áĥĺáĥļáĥĺ
ĠáĥĴáĥĲáĥľáĥ¬áĥ® áĥĲáĥľáĥ¡
Ġáĥ¥áĥĲáĥłáĥĹáĥļáĥĺáĥ¡ áĥĲáĥ²
áĥĹáĥĺáĥľ áĥĶáĥ¤
ĠáĥĻáĥĶáĥłáĥĸ áĥĿáĥĹ
ĠáĥĽáĥĲáĥ®áĥķáĥĲáĥł áĥĶáĥĳáĥ£
ĠáĥĲáĥłáĥĺáĥ¡áĥ¢áĥĿáĥ¢ áĥĶáĥļ
ĠáĥŀáĥĲáĥłáĥĲáĥļáĥĶáĥļ áĥ£áĥłáĥĿ
áĥĽáĥĿáĥ¥ áĥªáĥĶáĥķáĥĲáĥ²
ĠáĥľáĥĲáĥ¤ áĥĹáĥĿáĥĳ
ĠáĥĲáĥĻáĥĲáĥ¤áĥ¨ áĥĲáĥĹ
ĠáĥĽ áĥĲáĥĽáĥĲáĥłáĥĹ
áĥĲáĥĽ áĥĲáĥĻ
Ġáĥľ áĥĿáĥķ
ĠáĥĻ áĥ£áĥĽ
Ġáĥĳ áĥĿáĥľáĥĺ
áĥĺáĥł áĥĶáĥľ
Ġáĥ¤ áĥĶáĥłáĥĺ
áĥĿáĥ® áĥķáĥĲáĥĵáĥ·
áĥĹ áĥ¥
áĥĺáĥª áĥĶ
áĥ£áĥłáĥĹ áĥ£áĥĹ
áĥ« áĥ·
ĠáĥĽáĥĿáĥľáĥ ¦
áĥĺáĥĶáĥĳ áĥ£
ĠáĥŀáĥĿáĥļáĥĺáĥ¢ áĥĺáĥĻáĥĿáĥ¡áĥĺ
Ġáĥ£áĥĽáĥĶáĥľáĥ¢ áĥĲáĥ¨áĥĺ
ĠáĥĿáĥłáĥĹáĥĲáĥ¨ áĥĿáĥĳáĥ£áĥł
áĥĶáĥ¸ áĥ£áĥłáĥĶ
ĠáĥŁáĥĺáĥľáĥŀáĥĺáĥ¯ áĥĺáĥ¡
áĥ¯áĥĿáĥ® áĥĿ
ĠáĥĽáĥĿáĥľáĥĲáĥłáĥ¥ áĥĺáĥĲ
áĥĿ áĥĶáĥ¤áĥ¡
áĥĿ áĥĿáĥĹáĥ®
à´¤ à´¦
ĠáĥĽ áĥĲáĥĽ
áĥĺáĥ¨ áĥĺáĥ¨
Ġáĥĵ áĥĿáĥľáĥĹáĥ®
áĥĽ áĥĿ
áĥĺáĥľ áĥĲáĥĽ
áĥĲáĥĽ áĥĲáĥĹ
áĥĲáĥĽ áĥĶáĥ¢áĥł
ĠáĥĹ áĥĿáĥĽ
áĥ¢ áĥĲ
Ġáĥľ áĥĶáĥķ
áĥ® áĥ£áĥĹ
áĥĿáĥł áĥĺáĥĲáĥ¨
áĥĿáĥĳ áĥ£áĥľ
áĥĺáĥł áĥĶáĥľáĥ¡
áĥĺáĥļ áĥ£áĥł
Ġáĥ¨ áĥ£áĥłáĥĺ
Ġáĥ¤ áĥĲáĥ¨
áĥĺáĥĽ áĥĿáĥļáĥĿáĥĴáĥĺáĥĲ
áĥĺáĥĵ áĥĲáĥ¨
áĥĺáĥĵ áĥĺáĥ¨
áĥ£áĥľ áĥĲáĥľ
Ġáĥ© áĥĲáĥłáĥļ
ĠáĥĲáĥĻ áĥĿáĥ¨
áĥ£áĥ¨ áĥ£
áĥĺáĥĸ áĥĲáĥªáĥĺáĥĲáĥ¨
áĥĲáĥłáĥĻ áĥĺáĥ¡
Ġáĥ£áĥĻ áĥĺáĥľáĥĶáĥĳ
Ġáĥ£áĥĻ áĥĺáĥľáĥĶáĥĳáĥ£
Ġáĥ¡áĥĲáĥ® áĥĶ
ĠáĥĲáĥ¤ áĥ¡
ĠáĥĲáĥ¡ áĥĲáĥ®
áĥĿáĥ£ áĥ¨
Ġáĥ©áĥ® áĥĿáĥĽ
ĠáĥĹáĥĲáĥł áĥĿáĥĳáĥĲ
ĠáĥĴáĥĿáĥķáĥĺáĥĹáĥĲáĥł áĥĲáĥ¤áĥĺáĥļ
áĥĲáĥ¬ áĥ·
ĠáĥŃáĥĲáĥł áĥ£áĥľáĥĵáĥ·
ĠáĥĻáĥĲáĥľ áĥĿáĥľáĥĺ
ĠáĥĽáĥĶáĥłáĥ ªáĥ®áĥ£áĥĲáĥ¤áĥĺáĥļáĥĺ
ĠáĥĽáĥĲáĥĵ áĥĲáĥľáĥĺ
Ġáĥ¤áĥĿáĥłáĥĽ áĥĲáĥĹ
áĥĶáĥłáĥ¢ áĥĺ
Ġáĥ¬áĥ§áĥĲáĥłáĥŀáĥĺáĥ¯ áĥĺ
Ġáĥ¡áĥ¢áĥĲáĥ¢ áĥĺáĥĲáĥ¨
áĥĶáĥª áĥĺáĥĲáĥ¨
ĠáĥĽáĥ£áĥĵáĥĴ áĥĲáĥł
Ġáĥ¡áĥĺáĥĴ áĥĲáĥľáĥĲ
Ġáĥŀáĥĺáĥ¯ áĥĲáĥļáĥĶáĥ¤áĥĺáĥ¨
Ġáĥĺáĥľáĥ¤ áĥĶáĥ¥áĥª
Ġáĥ¯áĥĲáĥłáĥĲáĥļáĥ£ áĥĲáĥ¡
Ġáĥ®áĥ£áĥłáĥĴ áĥĲáĥ¨
Ġáĥ¨áĥĶáĥ£áĥļ áĥĶáĥĳáĥ£
áĥĺáĥ¥áĥĺáĥĽ áĥĺáĥľáĥ£
ĠáĥĽáĥ£ áĥĲáĥĽáĥ£áĥ¨
áĥĶáĥŃ áĥĻáĥĺáĥłáĥ·
ĠáĥĵáĥĿáĥłáĥĹáĥ£ áĥĲáĥļáĥĲáĥ¨
âĢİâĢİ )
Ġáĥ¡áĥĿ áĥĺáĥ¨áĥĲáĥ®
ĠáĥĿáĥ© áĥ£áĥ¥
ĠáĥĸáĥĿáĥĹáĥĿáĥľáĥ¯ áĥĺáĥ¨
áĥ¬áĥĻ áĥ·áĥĽ
ĠáĥĴáĥĶáĥĵ áĥķáĥĲáĥļ
ĠáĥĽáĥĶáĥŃáĥĶáĥĵ áĥĲáĥļáĥĲ
ĠáĥĿáĥ¤áĥĺáĥłáĥ© áĥĲáĥ¡
Ġáĥĺáĥ¢áĥĲáĥļ áĥĺáĥ£áĥłáĥĺ
ĠáĥĴáĥĿáĥľ áĥĲáĥĹ
ĠáĥĻáĥłáĥĺáĥ¡áĥ¢ áĥĿáĥ¤
ĠáĥĴáĥĶáĥŃáĥĿáĥ¤ áĥ£
ĠáĥĳáĥĲáĥĽáĥĳ áĥĶáĥ¨
ĠáĥĴáĥ£áĥ¯áĥĲáĥłáĥĲáĥĹ áĥĺáĥ¨
ĠáĥłáĥĿáĥĵ áĥłáĥĺáĥĴ
ĠáĥĴáĥĺáĥ¨áĥĶáĥĴáĥĿáĥł áĥ£áĥĲáĥ¤áĥ£
Ġáĥ¨áĥ£áĥłáĥĵ áĥĴáĥ·áĥĽ
Ġáĥĺáĥľáĥ¢áĥĶáĥļ áĥĶáĥ¥áĥ¢
áĥĿáĥĿáĥĹáĥ® áĥĺ
áĥ®áĥ£áĥĹ áĥĿáĥ¨
ĠáĥĴ áĥĶáĥĸ
áĥĿáĥłáĥ ¤
Ġáĥ¨ áĥĲáĥ¢
áĥĲáĥĸ áĥĺáĥł
ĠáĥĹáĥĺáĥ¨ áĥĶ
ĠáĥĴáĥ·áĥ¨ áĥĲáĥ¨áĥ¥
áĥŃ áĥ£
áĥ®áĥĺáĥł áĥĺáĥ¨
Ġáĥ£áĥľ áĥĲáĥłáĥ¦
ĠáĥĺáĥĽáĥŀáĥĶáĥł áĥĲáĥ¢
Ġáĥłáĥĵ áĥ£
Ġáĥĵáĥĺ áĥĲáĥĴ
ĠáĥĻáĥĿáĥľáĥĻ áĥłáĥĶáĥ¢
ĠáĥĸáĥĲáĥłáĥ® áĥ£áĥļáĥ¡
ĠáĥĻáĥĺáĥĵ áĥĲáĥľáĥ¯
ĠáĥĲáĥłáĥĴáĥĶáĥľáĥ¢ áĥĺáĥľáĥĲáĥ¡
ĠáĥŀáĥłáĥĿáĥĳáĥļ áĥĶáĥĽ
Ġáĥ£áĥľáĥĲáĥłáĥ¦ áĥĶáĥļ
ĠáĥĽ áĥĲáĥłáĥĵ
áĥł áĥĺáĥ¢
áĥ¡ áĥĲáĥľáĥ¡
Ġáĥł áĥ£áĥĻ
Ġáĥ¬ áĥĻ
ĠáĥĻ áĥĿáĥłáĥĵ
ĠáĥĿáĥ ¡áĥ®áĥĺáĥł
áĥĻ áĥĲáĥĹ
Ġáĥ¥ áĥĿáĥĳ
áĥĺáĥĶ áĥļáĥĺ
ĠáĥĹáĥĶ áĥĺáĥ¨áĥĲáĥ®
Ġáĥ¦ áĥĶáĥĳáĥ£áĥļ
Ġáĥ£áĥĽ áĥĲáĥĲáĥłáĥĹ
ĠáĥĽáĥĲáĥļ áĥ·áĥĽ
Ġáĥ©áĥ® áĥ£áĥŀ
ĠáĥĿáĥĽáĥĲáĥ¤ áĥĶáĥ¥
Ġáĥ®áĥĲáĥľáĥĵ áĥĲ
Ġáĥ¡áĥĲáĥ£ áĥĵáĥĺáĥ¨
ĠáĥĹáĥĲáĥłáĥĺáĥ¦ áĥĺ
Ġáĥ¡áĥĿáĥªáĥĺáĥĲáĥļ áĥĺáĥ¡áĥ¢áĥ£áĥłáĥĺ
Ġáĥĵáĥ·áĥĽáĥĲáĥ®áĥĲáĥ¡áĥĺáĥĲáĥĹ áĥĲáĥ¤áĥĲáĥļáĥĺ
áĥĺáĥł áĥĿáĥĹ
ant a
ĠáĥĴ áĥĲáĥ¡
áĥĻ áĥĲ
Ġáĥ© áĥĶáĥ¨
Ġáĥª áĥĺáĥłáĥ¤
ĠáĥĽáĥĲáĥłáĥ ¬áĥĻ
Ġáĥ¡áĥ£áĥĳ áĥĻáĥĿáĥľáĥ¢
ĠáĥľáĥĶáĥ« áĥĺáĥ¨
Ã ī
Ġnot wen
à¸¥ à¸²à¸Ķ
bl att
ĠD eb
Ġl auf
à¸ĩ à¸ļà¸Ńà¸¥
it an
Ġgest ern
ĠPl attform
à¸Ńà¸ĩ à¸§
Ġà´¸ à´¦
Ġge fallen
z esse
àµįâĢį âĢĮ
Ġin ici
Ã¼l tig
-------- --------
ĠKar ls
à´Ĺ à´¨
um n
Ġn in
à¹Ģà¸ģ à¸©
h Ã¤user
ĠBl ock
Ġpassen de
eich ern
r hein
ĠBe dien
ĠAb lauf
Ġp al
Ġgrund sÃ¤tzlich
men s
Ġà¸Ľà¸£à¸°à¸ģ à¸²à¸¨
Ġindividu elle
Ġge be
Ġ% .
st ahl
ort s
ah nen
à¹ģà¸Ľ à¸¥à¸ĩ
ĠFeuer wehr
Ġà´ĩ à´±à´ķ
Ã¶rder ung
ĠDie t
iert el
ĠGesundheit s
Ã¤m pfen
Ġmo ito
à´ķà´°à´£ à´¤
Â §
ĠK Ã¤
te gie
à´°à´® à´£
spl an
Ġe B
den burg
ĠThe ater
ĠPublik um
38 3
ĠM aschine
Ġà´ľà´¨ à´±à´²
à´ħ à´®
Ġdra uf
ĠBest e
Ġnos o
ĠVort eil
Ã¼r t
ĠW Ã¤r
à¸³ à¸Ĺ
ci en
qu era
ĠVerantwort ung
Ġprimei ro
à´µà´¸ à´¤
Ġver fol
ul a
Ġn ieder
frei en
ĠSpiel en
ar es
ĠK rÃ¤
ver standen
wer ben
ĠGr enzen
Ġà´¤ à´Łà´¯
ĠEin willigung
Ã¶r se
Ġà´ħ à´ľ
ĠLei p
Ġaus fÃ¼hr
Ġà¸Ļ à¸²à¸¢
amm t
ĠK a
à¸Ńà¸Ķà¸Ĥ à¸Ńà¸Ķ
ĠGer icht
Ġà¸ķ à¸²à¸¡
Ġirgend w
ond on
IN G
Ġur sprÃ¼n
ĠprÃ¤sen tiert
Ġwel chen
un a
ĠMitt woch
à´³ à´Ļ
à¹Ħ à¸£à¸ģ
mel den
ne y
ĠLebens mittel
E l
a at
ĠC ha
Ġpe qu
à¸ģà¸²à¸£ à¹ĥà¸Ĭ
Ġan t
ĠAr tik
ĠKil ometer
ĠEr lebnis
gr Ã¶ÃŁe
à¸ªà¸³ à¹Ģà¸£
ĠEro tik
à¸Ķ à¹Ģà¸Ķ
ze pti
id as
ff ekt
ir tu
ĠSp re
Ġda ily
eten z
ĠIntern ational
ĠDeutschland s
pos iciÃ³n
Ġ ital
ĠD ro
Ġdein em
inder t
Ġgem Ã¼t
à¸ŀ à¸ļ
Ġà´ĺ à´Ł
194 6
y e
10 8
Ġgel Ã¶scht
ĠM ed
ĠV og
Ġw or
Ġaut or
ĠWider spruch
à¸ķ à¸°
8 50
ste d
ar zt
Ġspez iell
ĠVergangen heit
ĠFahr t
gÃ¤n ge
reich end
Ġvor stellen
ĠZent rum
11 1
àµį -
ĠMÃ¶ bel
Ġf lex
ĠMar s
à¸ªà¸° à¸Ķà¸§à¸ģ
Ġver treten
10 4
ĠCh ina
ĠT herapie
ber n
àµį ..
Ġun gl
ĠÃ¼brigen s
ĠElekt ro
ĠausdrÃ¼ck lich
à¸Ļ à¸²à¸Ļ
à¸ªà¸Ļ à¹ĥà¸Ī
Ġm unicip
Ġher zlich
rÃ¤n kt
Ġh oxe
Å į
ha ften
à´ķ à´¥
Ġkl icken
Ã¶t zlich
Ġinform aciÃ³n
Ġmit einander
it ieren
ĠV ic
ĠLei der
à´¤ à´ķà´¤
Ġcun ha
Ġespe cial
Ġà¸«à¸¡ à¸§à¸ģ
Ġd ro
ĠInst all
kti k
Ġà´ª à´²à´ª
ĠÃ¤ uÃŁer
ĠFrei heit
d ungs
Ã ¨
à´ĺà´Łà´¨ à´ķà´³
à´ĺ à´¤
ĠDiskuss ion
tier ten
iz ieren
Ġnie mand
à¸Ļ à¸Īà¸²à¸ģ
ĠAnaly se
à¸ģà¸²à¸£ à¸¨
ĠR ett
ĠPart y
jen igen
ang t
ger ufen
à¹Ģà¸Ń à¸²
ĠA ward
k i
ĠK e
- /
ĠZ ul
à¸¡ à¸£
Ġbe weg
reu en
ĠUr s
Ġfinde st
Ġan schlieÃŁend
Ġà´ª à´ļ
ĠD ass
ter min
ahr ung
ĠC an
ĠP la
h ost
à¹Ģà¸ŀ à¸¥
Ġver mei
n ummer
à´ķà´£ à´ķ
ra h
19 32
ik i
à¹Ģà¸Ī à¸£
ĠS ens
à´Ĺ à´²
ĠÐ Ķ
ĠKl ass
Ġw Ã¤ren
ÑĤ Ð¸
est a
ist isch
à¸ļ à¸Ī
Ġer inner
ĠFlÃ¼cht linge
àµį )
Ã¼s sen
ĠNeu e
ĠL ad
ĠB a
Ġi so
Ġunterschied liche
Ġhab t
ĠRe zept
Ã¼ ten
ĠB io
à¸¢ à¸į
Ġsch auen
Ġà´¤ à´°à´¤
à´¶ à´°
ĠStand ort
st es
Ġdes pois
ĠGew icht
ĠTurn ier
ĠW ettbewerb
à¸ªà¸¡ à¸²à¸Ĭ
ec tiv
Ġfre e
ĠY ork
ĠInst itut
à¤ ¤
à¸Īà¸³ à¹Ģà¸Ľ
! âĢľ
ce pt
à¸Ńà¸ģà¸Īà¸²à¸ģ à¸Ļ
M W
ĠAr m
B itte
à¸Ńà¸¡ à¸£
ĠVerkehr s
ĠR u
ĠSon ne
Ġà´ľ à´¨à´¤
ge ht
Ġà´ľ à´¸
Î¹ Î
Ã¤n e
ĠVerb esser
Ġben utzt
15 2
gor a
Ġdir e
ĠÃ¶ffent liche
Ġmoder nen
ĠDa fÃ¼r
c ont
Ġre st
Ġnov a
Ġtod as
Ġperfe kte
p ert
k ultur
Ġglau be
en ze
Ġt rÃ¤gt
ief ert
ut sch
gew icht
ĠWel che
ĠR ab
Ġx orn
Ã¼r k
Ġqu er
à´ķà´¤ à´¯
197 6
O n
kl asse
rei f
ĠWeihnacht s
ĠT abl
Ġà´Ĩ à´¹
à¸² à¹Ģà¸Ķ
frei e
ĠC omm
ĠSt raf
Ġauf genommen
Ġqu en
ĠArbeit spl
Ġer weiter
Ġsp aren
ĠÃ Ĺ
Ġn ew
ter t
à¸²à¸ĩ à¸ķ
Ð°Ð ·
k rieg
angeb ote
ion ais
Ġvoll er
Ġs ign
Ã¤ umen
ĠF al
1 19
k le
Ġbe deuten
Ġd ÃŃas
ĠgrÃ¶ÃŁ er
Ġzu verlÃ¤ss
Ġerst mals
à¸²à¸¢ à¹Ģà¸Ľ
wei te
à¤ ¯
ak ten
c tion
Ġte x
bed arf
ĠIs rael
Ġz er
ĠRuss land
Ġà´® à´´
Ġà´ħà´µ àµ¾
ĠIn nov
à¸Ħà¸§ à¸ļà¸Ħ
Ġle v
à´² à´§
Ġà´ĵ à´£
wissen schaft
Ġà¹ģà¸¥à¸° à¸¡
Ã¤hl te
b ook
19 38
à¸ģà¸³ à¸«à¸Ļ
ĠJ eder
Ġab geschlossen
Ġcom ez
zÃ¼ gl
Ġdar aus
à¹ģà¸¥à¸° à¸ª
ĠM ore
Ġn utz
Ġcel eb
mosph Ã¤re
st ar
i kt
ĠâĢ ļ
ri ca
tur a
ĠS aun
Ġhin ten
us sen
ĠAll gemein
J Ã¤hr
ĠSt ad
Ġsch Ã¼tzen
ĠAma zon
ĠN atÃ¼rlich
Ã¼ h
Ġbeg ann
gl ied
gram me
kont akte
ĠAd resse
ĠØ ³
ĠâĢ ĭ
n etz
à¸ª à¸¥
M y
ĠAn zeige
à¸° à¸Ĺ
à´ľ à´¯à´¨
res sen
ĠÃĸffent lichkeit
ĠD adurch
emb ro
XV II
J a
gef Ã¤hr
à¸ķà¸£ à¸ĩ
à¸ģ à¸Ĭ
Ġequ ip
ĠL eiter
Ð¾ Ðµ
Ú ©
ĠT rum
ĠÐ² Ñĭ
Ġà´Ĵ à´³
ĠK Ã¼hl
àµ½ à´¹
ĠÃ¼ber w
t op
Ġbew usst
ell os
M ein
Ġalg Ãºn
à´¾ âĢĭâĢĭâĢĭ
ĠTrain er
ann er
ĠZ iele
Ġest ud
à´ħ à´¨
la uch
tig te
f angen
ĠØ ¯
n itten
ab t
ĠP DF
Ġaus w
ĠViel leicht
pf l
vers orgung
te g
Ġà´ª à´´à´¯
Ġz erst
à´¤ à´¸
Ġcon f
5 50
Ġe ffe
e f
ĠDienst leistungen
r ale
Ġà´ķ à´Łà´²
ehr t
ĠB aden
and eln
ent lich
rÃ¤n ke
ĠSti mm
Ġer geben
Ġerz Ã¤hlt
à¸Ħ à¸Ńà¸Ļ
Ã¼ st
Ġes sen
Ġv ai
à¸Ľà¸£à¸°à¸Ĭ à¸²à¸Ĭ
Ġà´µ à´£
Ġh aus
Ġf ragen
E M
à´ª à´¸
ĠVoraus setzungen
v oc
Ø¨ Ø§Ø
? âĢľ
Ġj ahr
Ġzu zÃ¼gl
à¹Ĥ à¸«à¸¥à¸Ķ
eld orf
Ġà´ĩ à´µà´¯
à´¦ à´Ĺ
Ġob xec
isch t
i qu
à¸Ĺà¸³ à¸ģà¸²à¸£
den schaft
di um
Ġvor ne
Ġout ras
à¸Ń à¸Ĥà¸Ńà¸ĩ
et isch
à¹Ĥà¸¡ à¸ªà¸£
ĠSt ahl
Ã¤d ag
à¸Ńà¸ĩ à¹ĥà¸Ĭ
Ġnoch mal
ĠRe al
ĠVor der
à¸¡ à¸Ĭà¸Ļ
athl y
Ġs amm
Ġhin ein
m achen
à¸²à¸ĩ à¸£
ĠHall ows
ĠDe athly
utt on
ĠG olf
ĠÐ³ Ð¾Ð´Ð°
à¸Ĭ à¸²
tell igen
Ġt elefon
zieh ungs
à¸ģà¸£à¸° à¸ļ
à¸Ħ à¸ĵà¸°
Ġein st
an cia
à´Ĺ à´ª
áĥĲáĥ¡ áĥĿ
áĥķ áĥĶáĥłáĥĺ
Ġáĥĺ áĥķáĥĲáĥľ
ĠF ans
ĠáĥĶ áĥĺáĥĿáĥŃ
áĥĲáĥ¢ áĥĺáĥĻáĥĲáĥ¨
áĥĲáĥĻ áĥļ
áĥĲáĥĴ áĥ£áĥľáĥĲ
áĥ¬áĥĲáĥľáĥ£áĥł áĥĲáĥ¡
áĥĶáĥ¢ áĥĲáĥĽ
áĥĶáĥĻ áĥĿáĥļáĥĿáĥĴáĥĺáĥĲ
áĥĲáĥ¨áĥĶ áĥĶáĥ¤áĥ¡
Ġáĥ« áĥĺáĥłáĥĲáĥ¤áĥĺáĥļáĥĺ
ĠáĥĴáĥĺáĥĽ áĥĺáĥłáĥĺáĥľáĥ£áĥĲáĥ¤áĥ£
ĠáĥĽáĥ£áĥ¡ áĥĺáĥĻáĥĲáĥ¡
Ġáĥ¥áĥĲáĥłáĥĹ áĥķáĥĶáĥļáĥ£áĥłáĥĺ
ĠáĥĴáĥĲáĥĽ áĥĿáĥłáĥ¡
ĠáĥĵáĥĿáĥ®áĥĿáĥł áĥĶáĥ¨
ĠáĥŀáĥĲáĥ¢ áĥĺáĥĽ
Ġáĥ¡áĥĲáĥĺ áĥ¢áĥĺáĥ¡
ĠáĥĽáĥĺáĥłáĥ ĵ
ĠáĥĴáĥĿáĥłáĥ Ļáĥķáĥĺ
áĥĻáĥĿáĥĽ áĥŀ
ĠáĥĽáĥ£áĥĻ áĥĿáĥ¥
áĥĶáĥłáĥķ áĥĲáĥ¢áĥĿáĥł
ĠáĥķáĥĶáĥłáĥ¡ áĥĺáĥĲáĥ¨
ĠáĥĹáĥĶáĥĲáĥ¢ áĥłáĥĺ
ĠáĥĿáĥľáĥ ¢áĥ§
Ġáĥ©áĥ®áĥĿáĥł áĥĺáĥĶáĥ¤áĥĺ
ĠáĥĽáĥĶáĥ¢áĥĶáĥĿáĥł áĥĿáĥļáĥĿáĥĴáĥĺáĥ£áĥłáĥĺ
ĠáĥłáĥĲáĥĺáĥĿáĥľ áĥĶáĥ¤áĥĺ
ĠáĥĽáĥĶáĥ£áĥłáĥľ áĥĿáĥĳáĥĲ
áĥĶáĥĺáĥ¨ áĥĶáĥļáĥĺáĥ¨
áĥĺáĥłáĥļáĥĲáĥľáĥĵ áĥĺáĥĲ
áĥĺáĥļáĥĿáĥ¨ áĥ¢áĥ§
ĠáĥĳáĥĲáĥľáĥĻ áĥĺ
ĠáĥľáĥŃáĥĲáĥ¤ áĥĺáĥĶáĥł
ĠáĥĲáĥĽáĥĵáĥ¦áĥĲáĥłáĥ¨ áĥĿ
ĠáĥĶáĥľáĥĶáĥłáĥĴ áĥĺáĥĲáĥ¨
ĠáĥĽáĥĲáĥłáĥĽáĥĲáĥł áĥĺáĥļáĥĿáĥ¨
ĠáĥĲáĥ¡áĥĲáĥĽáĥĳáĥļáĥĶ áĥĲ
ĠáĥĳáĥĿáĥ¡áĥ¤ áĥĿáĥłáĥĺáĥ¨
ĠáĥĶáĥĺáĥĿáĥŃ áĥĿáĥ¤
ĠáĥĿáĥľáĥ¢áĥ§ áĥĿáĥļ
áĥĺáĥļáĥĿáĥ¨áĥ¢áĥ§ áĥĶáĥĳ
à «
Ġáĥĵ áĥĲáĥ¯
áĥĽ áĥĲáĥ¬
Ġáĥ¬ áĥĲáĥļ
Ġáĥĳ áĥĲáĥłáĥ¡áĥĶáĥļ
áĥ£áĥ¨ áĥĽáĥĲáĥ¬
Ġáĥ¬áĥ§áĥĲáĥłáĥ ĳ
Ġáĥ¢áĥĲáĥł áĥĿáĥ¡áĥĺáĥ¨
ĠáĥļáĥĶáĥĴáĥĶáĥľáĥĵ áĥĲáĥ¨
Ġáĥļáĥĺáĥª áĥĶáĥľáĥĸ
Ġáĥ¥áĥķáĥĶáĥłáĥ¡ áĥĶáĥĽáĥĺ
Ġáĥĵáĥĺáĥĸ áĥĲáĥĺáĥľ
Ġáĥ«áĥ£áĥ« áĥ£áĥ¨áĥĽáĥĲáĥ¬
Ġáĥ«áĥ£áĥ«áĥ£áĥ¨áĥĽáĥĲáĥ¬ áĥ£
¢ áĥĺáĥ¨
¬ áĥ£áĥĽáĥĶ
Ġ àª
ĠáĥĽ áĥĺáĥľáĥ¯
áĥĲáĥļ áĥĽáĥĲáĥ®
áĥĽ áĥ£áĥĽ
áĥĽ áĥ£áĥłáĥ¡
ĠáĥĴ áĥĲáĥĺ
ĠáĥĴ áĥĶáĥ®
ĠáĥĹ áĥĶáĥ®
áĥ¢ áĥĿáĥľáĥĺ
áĥ¢ áĥĲáĥ£áĥľáĥĺ
Ġáĥľ áĥĿ
Ġáĥľ áĥĲáĥĸ
Ġáĥ¡ áĥĲáĥľáĥĵ
áĥ¥ áĥ£áĥĽáĥĲáĥļ
áĥĶáĥł áĥ£áĥĲáĥľ
Ġáĥĳ áĥĺáĥ£áĥ¯
Ġáĥŀ áĥĶáĥ£áĥļ
Ġáĥ¨ áĥ®áĥĺáĥłáĥĺ
áĥĿáĥľ áĥĶáĥ¤áĥ¡
áĥĶáĥļ áĥĿáĥĳáĥĲáĥ¨
Ġáĥķ áĥĲáĥĹ
Ġáĥķ áĥĲáĥĺ
áĥĲáĥ® áĥķáĥĲáĥĽ
áĥĲáĥ® áĥķáĥĺáĥļ
áĥ£áĥļ áĥĲáĥ¡
áĥ£áĥļ áĥĲáĥĽáĥĺ
áĥĶáĥľ áĥĶáĥ¤áĥ¡
Ġáĥ¥ áĥĲáĥłáĥ®
Ġáĥ¥ áĥĿáĥłáĥ¬
áĥĺáĥĶ áĥľáĥ¡
Ġáĥ¢ áĥĲáĥ¢
áĥĿáĥĽ áĥĶáĥ£áĥłáĥľ
Ġáĥĺáĥ ¬
Ġáĥ® áĥĿáĥ¡áĥĶ
áĥĺáĥĽ áĥĶáĥł
áĥĹ áĥĺ
áĥĹ áĥ£
áĥĳ áĥĲáĥļ
áĥĶáĥĽ áĥĶáĥļáĥĿ
áĥĿáĥ¦ áĥĲáĥļáĥĺ
Ġáĥ© áĥĶáĥĻ
áĥĲáĥĻ áĥĺáĥ¡
áĥĲáĥĴ áĥĺ
Ġáĥŀáĥł áĥĶáĥ¤
áĥĲáĥķ áĥ¨
ĠáĥĹáĥĺáĥľ áĥĲáĥ¡
áĥĿáĥ¬ áĥ§
ĠáĥĴáĥĺáĥľ áĥĺáĥļáĥ·
ĠáĥĴáĥĺáĥľ áĥĿáĥ¥áĥĺáĥĽáĥĺáĥľáĥ£
©áĥ¥ áĥĺáĥļ
ĠáĥĿáĥ® áĥķáĥĲáĥł
ĠáĥĽáĥĺáĥ¨ áĥĲáĥłáĥĹáĥ·
áĥĺáĥľáĥ¯ áĥĲáĥļáĥĲ
áĥĶáĥ© áĥĺ
áĥĿáĥłáĥĺáĥľ áĥĶáĥļáĥĺ
Ġáĥ¢áĥĶáĥłáĥĺáĥ¢áĥĿáĥł áĥĺáĥĲáĥ¨áĥĶ
áĥĿáĥļáĥĿáĥĴ áĥĺ
ĠáĥĲáĥĳ áĥĲáĥľáĥ£áĥłáĥĺ
ĠáĥĽáĥ£áĥľ áĥĶáĥłáĥĶáĥ¤áĥĺáĥĹ
áĥĲáĥľáĥĻ áĥĿ
Ġáĥľáĥ Ĺáĥ®
áĥ£áĥĻ áĥĺáĥ¡
ĠáĥĻáĥĺáĥľ áĥĶáĥĽáĥĲáĥ¢
ĠáĥŃáĥĲáĥł áĥĲáĥļáĥ£áĥĲáĥ¨
Ġáĥ¡áĥĲáĥ¤ áĥłáĥĹáĥ®
ĠáĥĵáĥĿáĥľ áĥĶáĥ¨áĥĲ
Ġáĥļáĥĺ áĥĲáĥ¡
ĠáĥĻáĥł áĥĺáĥ¡
ĠáĥķáĥĺáĥĻ áĥĺáĥ
Ġáĥ«áĥĲáĥļ áĥĺáĥĶáĥłáĥĺ
Ġáĥ«áĥĲáĥļ áĥĲáĥĽáĥĿ
ĠáĥłáĥĶáĥļ áĥĺáĥĶáĥ¤
ĠáĥĽáĥĺáĥłáĥ ĵáĥ·
ĠáĥĽáĥĲáĥ¸ áĥĿáĥľ
Ġáĥ¬áĥĲáĥłáĥĽ áĥĶáĥĳáĥĲ
Ġáĥ£áĥľáĥĺáĥķáĥĶáĥłáĥ¡áĥĺáĥ¢áĥĶáĥ¢ áĥĶáĥ¤áĥĺáĥ¨
Ġáĥ¯áĥķáĥĶáĥ¨ áĥĶáĥĴáĥķáĥĺáĥŀ
ĠáĥĹáĥĶáĥĿáĥł áĥĺáĥ£áĥļáĥĺ
ĠáĥĺáĥľáĥĵáĥĿáĥľáĥĶáĥĸ áĥĺáĥĲáĥ¡
ĠáĥĽáĥĿáĥ¸ áĥĿáĥľ
Ġáĥ¡áĥĺáĥł áĥĺáĥĲáĥ¡
ĠáĥĽáĥĲáĥ«áĥĺáĥł áĥĲáĥ¤áĥĲáĥļáĥĺ
Ġáĥ¦áĥĲáĥľáĥ© áĥĿ
áĥĽáĥ£áĥ ŁáĥĲáĥĽ
áĥ¤áĥĺáĥļ áĥĽáĥĺáĥ¨
áĥľáĥ¢ áĥĶáĥłáĥĶáĥ¡
ĠáĥĲáĥłáĥĺáĥ¡áĥ¢ áĥĿáĥĻáĥłáĥĲáĥ¢
Ġáĥĺáĥ£áĥľáĥĶáĥ¡áĥĻ áĥĿáĥ¥
áĥĽáĥĲáĥ®áĥĿáĥł áĥĿáĥĳáĥĲáĥ¨
Ġáĥĺáĥľáĥĵáĥĺ áĥĲáĥłáĥĶáĥ¤áĥĺáĥ¨
Ġáĥ£áĥ¨áĥĲáĥľáĥ£áĥļ áĥĲáĥĽáĥĲáĥ¨
ĠáĥĴáĥ£áĥĳ áĥĶáĥłáĥľ
Ġáĥ¡áĥŀáĥĿáĥłáĥ¢ áĥ£áĥļáĥĺ
ĠáĥĻáĥĿáĥĽáĥŀáĥĿáĥĸáĥĺáĥ¢áĥĿáĥł áĥĺ
áĥ¡áĥĲáĥ¤áĥłáĥĲáĥľáĥĴ áĥĶáĥĹáĥĺáĥ¨
áĥłáĥĻ áĥĺáĥľáĥĲáĥ¨
ĠáĥĵáĥĲáĥ¡áĥĲáĥĳ áĥĲáĥ¦
ĠáĥķáĥĺáĥĿáĥļ áĥĺáĥľáĥĿáĥ¨
áĥ¬áĥ§áĥĲáĥłáĥĽ áĥĲáĥļáĥ£
áĥ¢áĥĶáĥłáĥĺáĥ¢áĥĿáĥł áĥĺáĥ£áĥļáĥĺ
Ġáĥ¡áĥ£áĥŀáĥĶáĥłáĥĴ áĥĶáĥłáĥĴáĥĶáĥĸ
Ġáĥľáĥĺáĥļ áĥĿáĥ¡áĥĺáĥ¨
áĥĲáĥļ áĥĲáĥ¤áĥĲáĥ¨
áĥł áĥĲáĥĽáĥĺ
áĥł áĥĲáĥªáĥĺáĥĲáĥ¨
Ġáĥĳ áĥĺáĥľ
áĥ¨ áĥĶáĥľ
áĥĺáĥļ áĥĲ
Ġáĥ¨ áĥĲáĥłáĥĶáĥ¤áĥĺáĥ¨
áĥĿáĥ¡ áĥĿ
áĥĳ áĥĲáĥĺ
Ġáĥľáĥĺáĥľ áĥĲáĥ¨áĥĶ
áĥĿáĥļáĥĿáĥĴ áĥĺáĥ£áĥłáĥĿ
áĥ° áĥĲáĥłáĥĺ
Ġáĥ¡áĥĲáĥĽ áĥĲáĥłáĥĴáĥĲáĥļáĥĿ
áĥ£áĥĲáĥļ áĥĺáĥłáĥĺ
Ġáĥ¡áĥĶáĥł áĥĺáĥĲ
Ġáĥ¥áĥ·áĥĽ áĥĿáĥ®áĥķáĥĲáĥĵáĥ·
áĥŀáĥł áĥĿáĥķáĥĺáĥľáĥª
ĠáĥĽáĥĶáĥ¨áĥ¥áĥĲáĥ¨ áĥĲáĥļáĥĲ
ĠáĥľáĥĶ áĥĺáĥ¢áĥł
ĠáĥĲáĥĽáĥĵáĥ¦áĥĲáĥłáĥ¨ áĥĲáĥ®
ĠáĥłáĥĲáĥ¯ áĥĲáĥ¡áĥ¢
áĥĲáĥŀáĥĲáĥ¢ áĥĺáĥĿ
Ġáĥĵ áĥĿáĥ¤
Ġáĥĵ áĥ°
Ġáĥĵ áĥ£áĥĹáĥĽ
áĥĲáĥļ áĥĺáĥĶáĥł
áĥĲáĥłáĥ ķ
áĥĽ áĥĲáĥļáĥĺ
áĥĺáĥľ áĥĲáĥľáĥĵáĥ·
ĠáĥĴ áĥĿáĥ¨áĥ®áĥķ
áĥĲáĥł áĥĲáĥ¢
áĥĲáĥł áĥĺáĥ¡áĥ®
áĥķ áĥĺáĥ¡áĥ¢
áĥ¡ áĥĶáĥļ
Ġáĥľ áĥĿáĥ¡áĥ¥áĥĺáĥļáĥĶáĥĵ
Ġáĥ¡ áĥĲáĥĵ
áĥĿáĥłáĥ ĴáĥĲáĥľ
áĥļ áĥ£áĥĽ
Ġáĥĳ áĥĺáĥĿáĥĴáĥłáĥĲáĥ¤
áĥĺáĥł áĥĺáĥĶ
áĥĺáĥł áĥĲáĥ¤áĥĲáĥ¡
áĥĿáĥļ áĥĺáĥł
áĥĺáĥĹ áĥ®áĥ£
Ġáĥķ áĥĲáĥ¡
áĥĺáĥľáĥ ¬áĥ§
áĥĺáĥĲáĥľ áĥ¡
áĥĺáĥ¢ áĥ£áĥłáĥĺ
áĥĺáĥ¢ áĥĶáĥ¤áĥĺ
Ġáĥ¯ áĥĶáĥĻ
Ġáĥ¯ áĥĲáĥłáĥĶáĥ¤áĥĺ
áĥ¬ áĥĽ
áĥĳ áĥĺáĥłáĥĽ
áĥĳ áĥ£áĥłáĥĹáĥĺáĥ¨
áĥ¤ áĥĶ
áĥ¤ áĥĿáĥłáĥĵ
áĥĶáĥĽ áĥĲáĥľáĥ¯áĥ¦áĥķ
áĥĿáĥ¤ áĥĺáĥļ
ĠáĥĲáĥĻ áĥĲáĥĹáĥ·
áĥĲáĥĻ áĥĲ
áĥĲáĥĻ áĥĲáĥľ
áĥĿáĥĻ áĥĿáĥ¨
áĥĿáĥĻ áĥķáĥĲáĥĹ
Ġáĥ¦ áĥ£áĥłáĥ·
ĠáĥŁ áĥĺáĥļáĥĶ
áĥĶáĥķ áĥĺáĥ¨
ĠáĥĴáĥĺáĥľ áĥĿáĥ¸
ĠáĥĿáĥĻ áĥł
Ġáĥ¸ áĥĺáĥľáĥ£
ĠáĥĽáĥĲáĥ Ł
áĥ£áĥłáĥĴ áĥĲ
ĠáĥĲáĥ¡ áĥ¡áĥł
áĥĸ áĥĿáĥ®
áĥ£áĥ¯ áĥĺ
ĠáĥĴáĥ·áĥ¨ áĥĲáĥłáĥĹáĥ·
áĥĲáĥ¸ áĥ£áĥłáĥĶ
Ġáĥ¡áĥĲáĥ®áĥĶáĥľáĥ¬áĥ·áĥ¤áĥĿ áĥĶáĥ¤áĥĺ
ĠáĥĽáĥ£áĥĹ áĥ£áĥľáĥĺ
Ġáĥ¨áĥĲáĥľáĥ£áĥļ áĥĿáĥĳáĥĲáĥ¨
Ġáĥ¤áĥĲáĥłáĥĹ áĥĿáĥĹ
Ġáĥ£áĥ© áĥĺáĥľáĥĶáĥĳáĥ£
Ġáĥ¡áĥĲáĥĳ áĥĲáĥĵáĥĿ
Ġáĥĵáĥ£áĥĵáĥĺáĥ¨ áĥ£áĥļ
ĠáĥĽáĥ£áĥĽ áĥĲáĥļ
ĠáĥĽáĥ£áĥĵáĥĴ áĥĲáĥĹ
Ġáĥŀáĥĺáĥł áĥĶáĥļ
ĠáĥĽáĥĿáĥļ áĥĺáĥľáĥĲ
ĠáĥŀáĥĲáĥ¢ áĥĺáĥĿáĥ
Ġáĥ¡áĥĻáĥĿáĥļ áĥĲáĥ¨
Ġáĥ®áĥĲáĥľ áĥĺáĥĹ
ĠáĥĽáĥĲáĥłáĥĹ áĥ£áĥĲáĥļáĥĲáĥ¨
ĠáĥĿáĥĴ áĥ£áĥłáĥĲáĥ¤
áĥĿáĥłáĥ· áĥľáĥĲ
áĥłáĥ£áĥļ áĥĶáĥĳ
Ġáĥ¦áĥĿáĥĸ áĥĺáĥ¡
ĠáĥĻáĥļáĥĺáĥĽ áĥĲáĥ¢áĥĺáĥ¨
ĠáĥĿáĥ¬ áĥĲáĥ¬áĥ·
áĥĲáĥĽáĥ¨ áĥĿáĥ¨
áĥ£áĥ¡áĥ¢ áĥłáĥĺ
Ġáĥ¬áĥ§áĥĲáĥłáĥĽáĥĲáĥļ áĥ£áĥ¡
ĠáĥľáĥŃ áĥ£áĥĲáĥ¤
Ġáĥ¡áĥĺáĥľ áĥĲáĥľáĥĵ
ĠáĥĲáĥĹáĥĶáĥ¨ áĥĶáĥľ
ĠáĥĺáĥĲáĥŀ áĥĿáĥľáĥĺáĥĲáĥ¨
Ġáĥ¨áĥĺáĥļ áĥĲ
Ġáĥĺáĥľáĥĵáĥ£ áĥĺáĥĸáĥĽáĥĺáĥ¨
ĠáĥĿáĥ¡áĥĻ áĥĲáĥłáĥĺ
ĠáĥĽáĥĲáĥłáĥ«áĥĴ áĥķáĥĲáĥľ
ĠáĥĸáĥĿáĥĴ áĥĲáĥĵáĥĺ
Ġerhe b
ĠáĥĳáĥĶáĥłáĥļ áĥĺáĥľáĥĺáĥ¨
un n
áĥĶáĥļ áĥĲáĥ¡
áĥĶáĥłáĥ ŀ
áĥĹ áĥĲ
áĥĲáĥĻ áĥĲáĥ¨
áĥĶáĥľáĥ¢ áĥĿ
Ġáĥ¬áĥĲáĥľáĥĽáĥĿáĥ¬ áĥĲáĥľáĥĲáĥ¡
ĠáĥĶáĥĻ áĥķ
ĠáĥĴáĥķ áĥĲáĥł
áĥĺáĥ¤ áĥĺ
ĠáĥĲáĥłáĥ¢ áĥĲáĥľ
Ġáĥ¡áĥĲáĥĳ áĥĶáĥłáĥ«áĥľ
Ġáĥłáĥ©áĥ¥ áĥĺáĥľáĥĲ
ĠáĥĲáĥ¤áĥł áĥĺáĥĻ
ĠáĥĲáĥĻáĥĿáĥĵáĥĴáĥĺáĥľáĥĲáĥļáĥ£ áĥĲáĥ¡
Ġáĥĺáĥ¤ áĥĿáĥłáĥĽ
áĥĺáĥ¡áĥĻ áĥĿáĥŀ
ĠáĥĴáĥ·áĥĹáĥĽ áĥĿáĥĹáĥĲáĥľáĥ¯
áĥĲáĥľáĥ¬áĥ§ áĥ£
áĥĲáĥļ áĥĺáĥ¤
áĥĺáĥľ áĥĲáĥ¤áĥĲáĥ¨
Ġáĥľ áĥĺáĥ¨
Ġáĥľ áĥĿáĥŃ
Ġáĥľ áĥĿáĥ£áĥĹáĥĳáĥ£áĥ¥
Ġáĥ¡ áĥĿáĥļ
Ġáĥ¡ áĥ£áĥĵ
Ġáĥ¡ áĥļáĥĿáĥķ
ĠáĥĻ áĥ·áĥľáĥĶ
áĥĶáĥľ áĥĶ
áĥĺáĥĶ áĥľáĥ¢
áĥĹ áĥ®
Ġáĥļ áĥĺáĥ¢
áĥĿáĥľáĥ ¨áĥĶ
áĥĶáĥĵ áĥĶáĥ¡
áĥ·áĥľ áĥĺ
ĠáĥĿáĥĻ áĥĶ
Ġáĥ¯áĥĿáĥ® áĥĿáĥľ
Ġáĥĺáĥłáĥ ĸ
ĠáĥĿáĥ¤ áĥĺáĥª
áĥĿáĥłáĥĿáĥªáĥ® áĥ£áĥĲáĥ¨
Ġáĥ¤áĥĲáĥłáĥĹáĥĿáĥĳ áĥĺáĥĹ
áĥĿáĥľáĥĵ áĥĺáĥ¨
Ġáĥ¡áĥĺáĥĴ áĥĺáĥľáĥ«
ĠáĥĲáĥ¤áĥ®áĥĲáĥĸ áĥ£áĥłáĥĺ
ĠáĥĿáĥĳáĥĺáĥĶáĥ¥áĥ¢ áĥĶáĥ¤áĥĺ
ĠáĥŀáĥłáĥĿ áĥĶáĥ¥áĥ¢áĥĺ
ĠáĥĿáĥ¡áĥ® áĥĺáĥłáĥ¡
áĥ£áĥ® áĥĲáĥł
ĠáĥĽáĥĲáĥ¢ áĥ©
ĠáĥĻáĥĲáĥŀ áĥĺáĥ¢áĥĲáĥļ
áĥĿáĥłáĥ© áĥĺáĥļ
ĠáĥĵáĥķáĥĲáĥļ áĥĺáĥł
Ġáĥ¡áĥ¤áĥĶáĥł áĥĿáĥ¡
ĠáĥŀáĥłáĥĿáĥĵáĥ£áĥ¥ áĥ¢
ĠáĥĲáĥłáĥĳ áĥĶáĥľáĥ¡
áĥĶáĥĺáĥĽ áĥĸ
ĠáĥĻáĥĿáĥłáĥ¡ áĥĲáĥľáĥ¢áĥĶáĥ¤áĥĺ
ĠáĥĿáĥ¡áĥ¥áĥķáĥĶáĥĳ áĥ£áĥłáĥĿ
ĠáĥĲáĥĽáĥ£áĥĵ áĥ¦
áĥĺáĥļ áĥĶáĥ¤áĥĺáĥ¨
Ġáĥ© áĥĶáĥ®
áĥĲáĥĺ áĥ¡
áĥĲáĥªáĥ® áĥĲáĥĵ
ĠáĥľáĥĲáĥĽáĥ£áĥ¥ áĥĺáĥĹ
áĥ£áĥ ¬
áĥĽ áĥ£áĥłáĥ¢
áĥķ áĥĲáĥłáĥĵ
áĥ¡ áĥĿáĥļ
áĥ¢ áĥĿáĥļ
Ġáĥ¡ áĥ£áĥķ
ĠáĥĻ áĥĿáĥłáĥĶ
áĥĿáĥł áĥĲáĥľáĥ¯áĥĶ
áĥĶáĥł áĥĶáĥľ
áĥĿáĥĳ áĥĺáĥĶáĥł
áĥĶáĥ¤áĥĺáĥ¨ áĥĶ
áĥŁ áĥĺáĥľáĥ£
áĥłáĥ ©áĥ¥
ĠáĥĳáĥĿáĥłáĥ¯ áĥĺ
ĠáĥĶáĥŃ áĥĲáĥłáĥ·
áĥĽáĥĲáĥł áĥĶáĥľáĥ¯áĥĺ
ĠáĥŀáĥĲáĥ¢ áĥłáĥĺáĥĲáĥłáĥ¥
ĠáĥĴáĥĶáĥľ áĥĶáĥł
Ġáĥķáĥ£áĥļáĥĻ áĥĲáĥľáĥĺ
ĠáĥĺáĥĵáĥĶ áĥĲ
ĠáĥĻáĥĲáĥ¡áĥ¢áĥł áĥĿáĥ¨
ĠáĥĶáĥ¡áĥ¢ áĥĿáĥľ
ĠáĥĿáĥĹáĥĿáĥļ áĥĿáĥłáĥĲáĥľáĥ¯áĥĶ
Ġtechn ische
ti do
an ischen
d ach
ĠÃ¼ber zeugt
Ġmodern e
à¸Ķ à¸Īà¸²à¸ģ
ĠKar l
Ã¤ ische
Ġx u
ĠVersand Nr
Ġtechn ischen
Ġf rem
à¸Ĺ à¸£à¸ĩ
ĠT al
18 00
amp ag
ul ation
ĠT rau
Ġinform iert
ĠFil me
lauf en
w ay
o ster
ĠGeh eim
ĠEin en
sei tig
Pro du
36 5
à¹Ģà¸ĺ à¸Ń
l iste
Ġde sta
um or
Ġnov o
wer den
pl atte
v ed
un ha
Ġà´ī à´°
à¸Ľà¸¥à¸Ńà¸Ķ à¸ł
G M
Ġviel es
Ġverkauf en
ĠIS O
Ä «
à¸¡ à¸Ķ
ĠAus stellung
b ett
Ã¡ b
ĠSP D
Ġre ag
b art
ĠB ir
à´Ł à´£
ĠVor sitzen
s Ã¤
Ġver arbeitet
âĢľ ;
Ġan bieten
ĠÃ¤hn lich
Ġs uche
ich ert
f rau
ĠDar Ã¼ber
ĠAus gang
ĠSchl Ã¼ssel
Ġmus sten
Ġà¹ģ à¸ļà¸ļ
Ġsch reibt
ĠHin weis
Ġeng ag
kt uren
ĠRel ig
Ġ----- ---
sp ol
in ing
Ġà´ıà´ķ à´¦
ĠSh ow
ÃŃ o
ĠWirtschaft s
Ġs auber
Ġst immen
hel m
Ġa ust
ĠPaul sen
ã ģ
ĠK ais
rit z
ĠKolle gen
ĠZ w
Ġà´¨ à´¶
Ġà´¤ à´ķ
Ġkur zen
ĠBevÃ¶lker ung
Ġverantwort lich
à´ķà´¯ à´±
ĠK ab
ĠUm setzung
ĠEmpf eh
at ch
ĠUn ion
à¸ģ à¸¢
ĠF Ã¤h
ĠT ats
Ġerw Ã¤hn
c le
rei g
sp h
ic an
Ġmo tiv
s wert
à¹ĥà¸Ļ à¸£
or ie
Ġf icken
Ġgaleg a
ĠKooper ation
ĠB ach
ĠF und
àµ¼ à´·
Ġk g
ĠEin fÃ¼hrung
ĠEin fach
à¹ģ à¸«à¸¥
ĠDan iel
ver waltung
Ġt ollen
Ġentsp richt
Ġà´ī àµ¾à´ª
ograf ie
ĠK enntnis
lei sten
ĠS ehr
rei tet
ĠSt Ã¤r
à¸Īà¸° à¹Ħà¸¡
Ġgew onnen
ei ern
à¸Ńà¸¡ à¸Ĺ
à¸Ńà¸ĩ à¸ļ
ĠAb satz
ĠF isch
if est
ĠCor por
re ut
Ġmen os
ĠN av
ĠT her
ĠBru st
l Ã¤nd
Ġf rom
ci dade
stell ungs
ĠSek unden
Ġrepres ent
w an
ĠFahr schule
à¹Ĥà¸£à¸ĩ à¹Ģà¸£
u elle
mitt ag
ĠBesch Ã¤f
à¸§à¸¢ à¹ĥà¸«
kam pf
Ġbegeister t
zeich nis
it ive
à¸ģà¸£à¸° à¸Ī
ĠD resden
le ger
Ġi Phone
Ġ à¹Ģà¸ģà¸¡
Ġm ater
ĠHome page
isch ung
fil me
Sp iel
hl ight
G esch
à´ª à´Ļ
Ġp oten
à¸Ĥ à¸§
Ġa chten
17 50
sch irm
Ġl eist
ĠGest altung
Ġà¹Ģà¸« à¸¡
Ġdisk u
! )
hl en
weis ung
18 01
Ġber ichtet
à¹ ĳ
à¸¨ à¸Ļ
or ben
à¸§ à¸Ħà¸£
à¸§ à¸ķ
s ich
ĠfÃ¼hr te
at isch
Ġà¸Ĥ à¸Ļà¸²à¸Ķ
Ġdat ing
ĠWer ke
ĠBesonder s
se qu
Ġzahl en
à´¨ à´¦
ĠEing ang
Ġerlau bt
bet rag
ement os
son sten
à¸Ļ à¸Ħà¸§à¸²à¸¡
di ciÃ³ns
an er
eite te
à´£ à´µ
Ġt an
à¸ģ à¸Ľ
Ġe hr
à¹Ģà¸« à¸£
Ġweiter lesen
ĠBer icht
sor ge
ĠA qu
ĠInter view
2 20
Ð½Ñĭ Ðµ
ĠR uhr
ĠB ur
ĠU pd
Ġwichtig er
à¸Ļ à¸Ł
à´³ à´¨à´¤
g ro
S V
à¸ķ à¸Ĺ
b eit
Ġcon se
ĠH istor
Ġv eci
a dern
à¸¡ à¸Ĭà¸²à¸ķ
ĠPers Ã¶n
ĠPl us
ĠFrÃ¼h stÃ¼ck
à¸ļà¸ģà¸²à¸£ à¸ĵ
ĠFried rich
à¹Ĥ à¸ļ
ver arbeitung
ĠZ it
ĠIn ner
à¸Ħà¸§ à¸¢
Ġwahr scheinlich
ap er
Ġp sych
Ġe f
Ġst arten
ĠGe org
si denten
à´°à´ķ à´Łà´¨
Ġge zeigt
ĠTex te
r Ã¼n
ren nen
à¸ľà¸¥ à¸ĩà¸²à¸Ļ
S erv
Ġgl ob
k u
à´® à´ª
ĠMa ster
ar ÃŃa
à¸ģ à¹Ģà¸ģ
ĠH Ã¤lfte
sch reiben
Ġà´° à´®
à´¸ à´Ńà´¯
... ]
ĠM uster
Ġein verstanden
ĠL ern
ĠBet reiber
pol itik
à¸Ń à¹Ģà¸¡
ĠBild ungs
Ġbr eit
åħ ¬
Ġst eigen
reg ierung
Ġtod a
k ret
hal ter
ĠPro t
ĠEngl isch
à´ª à´ķà´°
ĠH art
Ġgaran tiert
ĠWell ness
à¸Ń à¸²à¸Ķ
ĠViel zahl
S tra
ĠBe ziehung
il ler
Ġeinzel ne
Ġco as
à¸¢ à¸Ĺ
vol ution
à¸Ķ à¸ĸ
iert es
M o
ĠKostenlos e
ĠS Ã¤
à´°à´® à´¤
lÃ¤ uter
O T
al o
B ild
å Ń
ĠK laus
ĠL ine
Ġc amp
Ġb auen
Ġw achsen
Ġs up
ie fe
ĠFil ter
à ¯
à¸Ń à¹Ģà¸Ļ
195 6
Ġfrei en
19 07
ĠÐ¿ÑĢ Ð¾
it is
ub il
à´¸ à´ķ
s au
ĠÃľber blick
Ġl on
ĠÐ Ŀ
à¸³ à¹Ģà¸ł
usst sein
ĠEind ruck
Ġver urs
ĠD C
ĠHann over
ĠF rieden
k at
wer tet
ĠSchul en
ĠAnd roid
Ġall eine
Ġun ge
b eln
ac t
ĠFreund in
à¸ģ à¸Ī
Ġcom pl
à¸Īà¸³ à¸«à¸Ļ
je kten
ĠÐ ł
Ġa re
à¸ª à¸²à¸¡
ĠK ol
ond s
b is
ĠBon us
Ġl ust
al idade
Ġent fernen
à¸ļ à¸ªà¸Ļ
g elt
Ġbek annte
Ġpol os
om ento
o ben
Ð ł
ĠGrÃ¼n de
Ï ī
ĠJ ournal
Ġn ing
M ehr
ĠSta aten
Ġan ti
ĠF le
hol t
Ġo p
pp e
Ġpo den
ĠP a
on ym
Ġamer ikan
ĠDe ck
à¸¢ à¸²à¸ģ
à¸Ĭà¸¡ à¸Ľ
à¸Ķ à¸«à¸Ļ
Ġl Ã¶
3 16
D aten
ĠEn ter
Ġk ommun
ĠGemein schaft
ĠOp en
ĠMil ch
si Ã³n
ĠBÃ¼rger meister
Ġ rot
scha ffen
ĠRis iko
à¸ģà¸© à¸ĵà¸°
Ġgemein samen
Ġlie ÃŁ
à¸ģ à¹Ģà¸ķà¸°
Ġge kauft
à¸Ń à¸²à¸ģà¸²à¸£
ĠO t
ĠZ eu
ĠUnter richt
ĠL ondon
ĠVer waltung
Ġout ra
sch m
ber icht
à¸²à¸£ à¸²
à¸ģà¸²à¸£ à¸ŀ
Ñĥ Ð¿
ĠHa ftung
Ġcont a
Ġhistor ia
zie ht
c y
ĠÐ¾ ÑĤ
ĠgegrÃ¼n det
j ob
w enden
ĠVerl ag
à¸ĩ à¹ĥà¸Ī
Ġh alb
Ġumf asst
pr et
Ġà¸Ī à¸³à¸ģ
Ġan zeigen
á Ł
Ġbelieb te
ĠK eine
à¸ª à¸§
ĠWeb seiten
ymn as
à¸Ńà¸Ļ à¸£
Ġf as
ĠEigen schaften
à¸ģ à¸ľ
Ġwich tigen
Ġg eist
ĠG lau
Ġà´µ à´§
az ine
à´¥ à´²
ĠGer man
ĠEin richtungen
Ġl iter
Ġged acht
Ð¾Ð ±
vers ammlung
à¸Ļ à¹ģà¸ļà¸ļ
à´· à´ķà´³
Ġnah m
Ġin klusive
17 23
Ġgen Ã¼
Ã± os
à¹ģ à¸Ľà¸¥
Ġà¸Ń à¸²à¸Ī
ĠB ier
S hop
ĠI ll
à´·à´£ à´²
ĠO pti
ĠRei fen
ĠInform ations
og a
ĠEr gÃ¤n
ĠE ss
Ġsicher lich
à´¯à´® à´²
è ´
Ġent steht
ĠStudi os
à´ķà´° à´¨
Ġpriv aten
Ġcom a
u Ã±a
ĠR ou
be weg
ĠWor kshop
ĠprÃ¤sen tieren
à¸ ¿
ei ras
à¸ķ à¸ĸ
ĠU TC
Ġersch einen
Ġ ÑĢÐ°Ð
ti um
à¸ķà¸£à¸§à¸Ī à¸ªà¸Ńà¸ļ
Ġgew Ã¤hlt
à¸Ńà¸¢ à¹Ĩ
ste chnik
à¹Ģà¸ŀ à¸¨
à¸²à¸Ļ à¸Ļ
Ġn Ãº
Ġiden tif
ĠMa ik
ĠAltern ative
ĠTechn ologie
à´Ĺ à´³
rit or
ĠWÃ¼n sche
à¹ĥà¸Ļ à¸Ľ
Ġmedi zin
r el
ĠÑģ Ð²
Ġà´± à´£
19 27
ar Ã¡n
ĠIm mer
ĠO pfer
Ġà¸ª à¸£
ĠNutz ungs
Î± Î½
F or
ĠHerr n
S E
h i
Ġso b
geb nisse
à¸Ļ à¸Ńà¸Ńà¸ģ
à¸Ħà¸£ à¸Ńà¸ļà¸Ħà¸£
à¸ĩà¹ģ à¸£à¸ģ
Ð ĵ
he bung
aus piel
ÐµÑĢ Ñģ
ĠMin dest
ar o
à¸¥ à¸ļ
ip edia
ĠMin i
Ð¸ Ð¸
ĠSmart phone
ĠM ak
ĠT elef
p al
àµº à´¸
ĠF rem
Ġex empl
ĠTeil nahme
áŀ ¶
Ðº Ñĥ
Ġà´ľ à´²
ĠKam era
Ġgef Ã¤llt
Ġgesch Ã¼tzt
te chn
Ġaus gel
schei det
m esser
f ra
sp ekt
àµģ ..
ĠAn al
ĠPoten z
à¹Ħ à¸Ń
ack te
à´ļ à´µ
2 10
ĠE P
ĠAr ten
Ġbeg rÃ¼
Ġl es
b us
K W
ĠP ul
Ã¤dag og
Ġpolit ischen
à¸Ķ à¹ĥà¸«
zÃ¼ ge
ire ann
à¦ ¯
Ġà¹Ģà¸ ĺ
ei tern
à¸Ħà¸£ à¸ļ
Ġb us
Ġteil en
áĥ¡ áĥĺáĥł
ĠáĥĹ áĥĿáĥłáĥĺ
Ġáĥł áĥĺáĥĲáĥļáĥĺ
ĠáĥĻ áĥĲáĥĵáĥĺáĥł
ĠáĥĿáĥ ĴáĥĲáĥľ
áĥ® áĥĺáĥľáĥĹ
áĥļ áĥĲáĥļáĥĲ
áĥ¨ áĥĿáĥĹáĥĲ
Ġáĥ¤ áĥ£áĥĴ
Ã¼r n
Ġáĥ® áĥĿáĥĳ
Ġáĥ® áĥĺáĥľáĥ¯áĥĺ
Ġáĥ© áĥĿáĥĽ
áĥłáĥĺ áĥĲáĥ¢áĥĺáĥĻáĥĲáĥ¨
Ġáĥ° áĥ£áĥŀ
áĥĿáĥłáĥ£ áĥĶ
ĠáĥĲáĥĵ áĥłáĥĺáĥĲáĥ¢áĥĺáĥĻáĥĲáĥ¨
Ñģ Ð²Ð¸ÑĢ
ĠáĥĲáĥ¡ áĥĲáĥĽ
áĥĲáĥļáĥĶ áĥĶáĥ¤áĥĺ
Ġáĥłáĥ£áĥ¡ áĥĹ
áĥķáĥĲáĥĽ áĥĶ
ĠáĥĲáĥł áĥĲáĥļáĥĺáĥ¨
ĠáĥĲáĥľ áĥ£áĥĳ
ĠáĥĻáĥĲáĥľ áĥĺáĥĿáĥľáĥĺáĥ¨
Ġáĥ¤áĥĿáĥłáĥĽ áĥĲáĥļáĥ£áĥłáĥĺ
Ġáĥļáĥĺ áĥĲáĥľáĥĵ
ĠáĥĿáĥ¨áĥ¥ áĥĲáĥłáĥ£áĥļáĥĺ
ĠáĥĲáĥľáĥ¢ áĥĺáĥļáĥĺáĥ¨
Ġáĥ¡áĥĲáĥĺ áĥ¢áĥĺáĥ¨
ĠáĥĲáĥ¨ áĥĶáĥłáĥ¬áĥĻáĥ·áĥĽáĥĲ
ĠáĥĲáĥĽáĥĵáĥ¦ áĥĲáĥłáĥĺ
ĠáĥĴáĥ£áĥĽ áĥĿáĥ©áĥ®áĥĿáĥłáĥĺ
ĠáĥĳáĥĲáĥ® áĥ¢
áĥĻáĥĲáĥł áĥ£
Ġáĥ¢áĥĺáĥĽ áĥĿáĥłáĥĺ
Ġáĥ¢áĥĺáĥĽ áĥĿáĥłáĥ¡
ĠáĥĽáĥĶáĥ¢áĥĶáĥĿáĥł áĥĿáĥļáĥĿáĥĴáĥĺáĥ£áĥł
ĠáĥļáĥĿáĥĻ áĥĺáĥ¨
Ġáĥ¨áĥĿáĥľ áĥ£áĥłáĥĿ
Ġáĥ¡áĥĲáĥļáĥķáĥĲáĥĵ áĥĿáĥłáĥĺáĥ¨
ĠÙħ ÛĮ
ĠáĥĴáĥĶáĥ£áĥĻáĥ£áĥĽáĥĶáĥļ áĥĲáĥ¤áĥĲáĥ¨
ĠáĥĻáĥĲáĥľáĥ¢ áĥĲáĥ¢áĥĲ
ĠáĥĽáĥ£áĥłáĥĺáĥªáĥ® áĥĺ
ĠáĥĿáĥľáĥĿáĥ¦ áĥ£áĥłáĥĺ
Ġáĥ£áĥĺáĥļáĥĺáĥĲáĥĽ áĥ¡áĥĺ
áĥ°áĥĲáĥķ áĥĲáĥľáĥĲ
Ġáĥĵáĥķ áĥĺáĥľáĥĲ
Ġáĥ¢áĥĶáĥ¡áĥĶáĥł áĥĲáĥ¥áĥ¢áĥĺáĥ¨
ĠÐ¼ÐµÑģÑıÑĨ ÐµÐ²
Ġáĥĳáĥ£áĥłáĥĴ áĥĲáĥ¡áĥĺáĥ¨
Ġáĥ¢áĥĶáĥ® áĥĲáĥ¡áĥĺáĥ¨
ĠáĥĿáĥłáĥ¦ áĥĲáĥľ
ĠáĥĴáĥĿáĥļáĥĴ áĥĿáĥĹáĥĲ
ĠáĥĶáĥ®áĥĲáĥłáĥĴ áĥĺáĥļáĥĺ
ĠáĥłáĥĿáĥ¯áĥĶáĥłáĥ¡ áĥĺ
ĠáĥĹáĥĶáĥĲáĥ¢áĥł áĥĲáĥļáĥ£áĥłáĥĺ
ĠáĥĳáĥĶáĥłáĥľ áĥĶáĥłáĥ¡
ĠØ® Ø¯ÙħØ§Øª
ĠáĥłáĥĲáĥĵáĥĺáĥĿáĥĲáĥ¥áĥ¢ áĥĺáĥķ
ĠáĥĺáĥĿáĥłáĥĵ áĥĲáĥľáĥĺáĥĲ
áĥĻáĥĿáĥĽáĥŀ áĥĺáĥ£áĥ¢
áĥĺáĥ¡ áĥĶáĥ¤áĥ¡
Ġt Ã¤tig
áĥĺáĥ£áĥł áĥĶ
ĠáĥĴáĥĿáĥ¤áĥĲáĥ© áĥĺáĥļáĥĺáĥĶ
ĠáĥĲáĥĽáĥ¨ áĥķ
ĠáĥĴáĥĿáĥĵáĥ£áĥĵáĥĺáĥ¨ áĥ£áĥļ
d essen
ĠáĥĽ áĥĶáĥłáĥĺ
ĠáĥĽ áĥĲáĥľáĥ¯áĥ¦áĥķ
ĠáĥĽ áĥĿáĥłáĥĹáĥĶáĥ¡
áĥĲáĥ¨ áĥĶáĥľ
áĥĲáĥļ áĥ£áĥ¨
áĥĽ áĥĶáĥ¤áĥĶáĥĹáĥĲ
áĥĺáĥľ áĥĲáĥ¤áĥĺáĥļ
áĥķ áĥĲáĥłáĥĲ
áĥķ áĥĲáĥĺáĥ¨
áĥĲáĥĽ áĥĲáĥľáĥĺáĥ¨
áĥ¡ áĥĻ
áĥ¡ áĥĳ
áĥ¡ áĥĶáĥ¥áĥ¢
Ġáĥľ áĥĶáĥ¨
Ġáĥľ áĥĿáĥ¨áĥ¥
Ġáĥ¬ áĥ£áĥĹ
áĥĲáĥ¤ áĥ£áĥł
áĥĿáĥł áĥĺáĥĲ
Ġáĥĺ áĥłáĥĺáĥ¨
Ġáĥĳ áĥ¬
Ġáĥŀ áĥĲáĥľáĥĵ
áĥĶáĥĹ áĥľ
Ġáĥ¢ áĥĿáĥĻ
áĥĲáĥ¥ áĥ¡áĥĺ
áĥŀ áĥ£áĥłáĥĺ
Ġáĥ¯ áĥĿáĥľáĥĺ
áĥĺáĥłáĥ ĵáĥ·
ĠáĥĲáĥłáĥ Ļ
ĠáĥĲáĥłáĥĹ áĥĲáĥĽ
áĥ¯ áĥķáĥĶáĥ¨
áĥĶáĥķ áĥĲáĥļáĥĺ
Ġáĥľáĥĺáĥľ áĥĲáĥ¥
ĠáĥĴáĥ·áĥĽ áĥĺáĥłáĥĺáĥľ
ĠáĥĴáĥĺáĥľ áĥĺáĥ¦áĥ·
áĥĲáĥ£ áĥĸ
Ġáĥ¯áĥĿáĥ® áĥĿáĥĴáĥĿáĥļáĥĲáĥ¤áĥĺáĥłáĥĺ
áĥĺáĥłáĥĹ áĥ£áĥľáĥĲ
ĠáĥĽáĥĺáĥ¨ áĥĶáĥ¦
áĥĺáĥľáĥĵ áĥ£áĥł
áĥĿáĥ£ áĥłáĥĺ
ĠáĥĴáĥķ áĥĲáĥłáĥĺ
Ġáĥĺáĥłáĥ ¡
Ġáĥ¡áĥĲáĥ®áĥĶáĥľáĥ¬áĥ·áĥ¤ áĥĿáĥĹ
áĥĿáĥĸ áĥĺáĥ¢
ĠáĥĴáĥ·áĥ¨ áĥĶáĥŃáĥĲáĥľáĥ£
áĥĺáĥ¤ áĥĺáĥª
ĠáĥĴáĥĺáĥĽ áĥĺáĥłáĥĺáĥľáĥ£áĥĲáĥľáĥĲ
Ġáĥ¡áĥ¢ áĥĲáĥłáĥĻáĥĺáĥ¨
Ġáĥĸáĥ£áĥ¦áĥĲáĥ¨ áĥĽáĥĶáĥļ
Ġáĥ¢áĥł áĥĲáĥ¥
ĠáĥĲáĥĽáĥĶáĥłáĥĺáĥĻ áĥĲáĥļ
ĠáĥłáĥĲáĥĺ áĥĿáĥľáĥ¡
ĠáĥķáĥĺáĥĻ áĥĺ
ĠáĥĻáĥĺáĥļ áĥĲáĥ«
áĥĳáĥŁáĥĲáĥĶáĥĺáĥĿáĥļ áĥ¡
ĠáĥĹáĥĶáĥ ¸
Ġáĥŀáĥĺáĥ¯ áĥĲáĥļ
ĠáĥĵáĥĿáĥ®áĥĿáĥł áĥĶáĥļ
ĠáĥĽáĥĺáĥľ áĥĶáĥłáĥĲáĥļáĥ£áĥłáĥĺ
Ġáĥ¬áĥĺáĥĽ áĥĺ
ĠáĥĶáĥŃáĥĿáĥ¤ áĥ£áĥľáĥ¡
áĥĲáĥ©áĥĲáĥĽ áĥĲáĥļáĥĿ
ĠáĥĶáĥŃáĥĲáĥł áĥ£áĥĲáĥĹ
ĠáĥĿáĥ¡áĥ® áĥĺáĥłáĥĿ
Ġáĥłáĥĸ áĥĶáĥľáĥĺáĥ¨
ĠáĥĲáĥłáĥĹáĥĺáĥĲáĥľ áĥĺáĥ¨
áĥ¥áĥķ áĥ·
Ġáĥļáĥĺáĥĳ áĥĶáĥł
Ġáĥ¨áĥĶáĥ£áĥļ áĥĶáĥĳáĥ£áĥľáĥĲ
ĠáĥŁáĥĲáĥłáĥľáĥĶáĥ©áĥĵáĥĿáĥķáĥĺáĥĹ áĥĿáĥĳáĥłáĥ£áĥĿ
ĠáĥĴáĥ·áĥĽáĥĺáĥłáĥĺáĥľáĥ£ áĥĲáĥľáĥ¡
Ġáĥ¤áĥ£áĥľáĥ¥áĥª áĥĺáĥĲ
Ġáĥ¤áĥĲáĥł áĥĲáĥĿáĥľ
Ġáĥŀáĥ£áĥľáĥ¥ áĥ¢
Ġáĥĳáĥłáĥĺáĥ¢áĥĲáĥľ áĥĶáĥĹáĥĺáĥ¡
ĠáĥĹáĥĲáĥľáĥĴ áĥĺ
ĠáĥļáĥĲáĥķ áĥĲ
ĠáĥĲáĥłáĥ® áĥĿ
Ġáĥ¡áĥĲáĥĳáĥĿáĥļ áĥĿáĥĹ
ĠáĥĲáĥĵáĥĲáĥĽáĥĺáĥĶáĥłáĥ ¨áĥĶ
ĠáĥĵáĥĿáĥ¸ áĥķáĥĺáĥļ
ĠáĥĺáĥĲáĥŀ áĥĿáĥľáĥĺáĥĲáĥ¡
Ġáĥ®áĥĲáĥłáĥĺáĥ¡áĥ® áĥĺ
áĥ¤áĥł áĥĶáĥķáĥĲáĥļáĥĺ
Ġáĥĺáĥ¡áĥłáĥĲáĥĶ áĥļáĥĺáĥ¨
ĠáĥĳáĥłáĥĲáĥĸáĥĺáĥļáĥĺ áĥĲáĥ¨
áĥĿáĥ¡áĥĻ áĥĿáĥŀ
áĥĿáĥĽáĥŀ áĥĲáĥľ
Ġáĥ®áĥĶáĥļáĥ£ áĥĲáĥľáĥ£áĥł
ĠáĥĳáĥĿáĥ¢ áĥĲáĥľ
ĠáĥĽáĥĶáĥĽ áĥĲáĥłáĥĹ
Ġáĥ¢áĥ£áĥłáĥĺáĥ¡áĥ¢ áĥ£áĥļ
ĠáĥĽáĥĶáĥĳ áĥ£áĥľáĥĲáĥ¤áĥĺáĥļáĥĺ
Ġáĥķáĥĺáĥļ áĥ°
ĠáĥĵáĥĲáĥĽáĥ£áĥ¨ áĥĶáĥĳáĥĲ
Ġáĥ°áĥĿáĥľáĥĵ áĥ£áĥłáĥĲáĥ¡
ĠáĥĽáĥĺáĥ® áĥĶ
ĠáĥĻáĥĲáĥļáĥĲáĥŀ áĥĿáĥ¢áĥĺ
ĠáĥĿáĥ¡áĥĽáĥĲáĥļ áĥĶáĥĹáĥĺáĥ¨
Ġáĥ¤áĥļáĥĿáĥł áĥĲáĥ¨
Ġáĥ¬áĥ§áĥĲáĥłáĥĴáĥĶáĥļ áĥĲáĥ¤áĥ£
Ġáĥ°áĥ£áĥĽ áĥĲáĥľ
ĠáĥĿáĥĻáĥ£áĥļáĥ¢ áĥĶ
ĠáĥĿáĥĹáĥ®áĥĺáĥļ áĥĲáĥłáĥĿ
ĠáĥĻáĥĿáĥĽáĥĳ áĥĺáĥľ
ĠáĥĻáĥĺáĥľáĥĶáĥĽáĥĲáĥ¢ áĥĿáĥĴáĥłáĥĲáĥ¤
ĠáĥķáĥĺáĥĻáĥĺáĥ ¬áĥ§
áĥľáĥ¢áĥĶáĥłáĥĶáĥ¡ áĥĿ
áĥ¡áĥĶáĥ¥áĥ¢ áĥĶáĥĽáĥĳáĥĶáĥłáĥĺ
Ġáĥĳáĥ¬ áĥĻáĥĲáĥł
ĠáĥĽ áĥĿáĥŀ
áĥĽ áĥĲáĥĴáĥĿáĥł
ĠáĥĴ áĥĲáĥ¤
Ġáĥł áĥĺáĥľáĥĶáĥļáĥĺ
Ġáĥľ áĥĲáĥĳ
áĥĿáĥļ áĥĶáĥľ
áĥľ áĥĲáĥ¡
áĥĶáĥļ áĥĶáĥľáĥ¯
Ġáĥķ áĥĶáĥĻ
áĥĺáĥĶ áĥ¨
Ġáĥ¢ áĥĲáĥļ
áĥĺáĥĲáĥľ áĥĶáĥ¤áĥĺ
Ġge fÃ¼hrt
áĥĶáĥĴ áĥł
¡áĥ® áĥĺ
Ġáĥ° áĥĺáĥľáĥĵáĥĺ
Ġáĥľáĥĺáĥľ áĥĲáĥĹ
áĥ© áĥĶáĥļáĥĶáĥľáĥ¯
áĥĺáĥ® áĥĿáĥłáĥ·
Ġáĥĵáĥ£áĥĵ áĥĶáĥľáĥĵáĥ·
áĥ¢áĥĿáĥł áĥĺáĥ¨
ĠáĥĴáĥĺáĥĽ áĥĶáĥľáĥĳ
Ġáĥ¥áĥĺáĥĽ áĥĺáĥľáĥ·
Ġáĥ¡áĥĺáĥĽ áĥŀ
Ġáĥ¢áĥ§ áĥĲáĥ¨
Ġáĥŀáĥĺáĥ¯ áĥĲáĥļáĥĶáĥ¤áĥ¡
áĥĻáĥļ áĥĲáĥķ
áĥĲáĥŃáĥĲáĥł áĥ£
ĠáĥĴáĥĺáĥľáĥĽ áĥ£áĥłáĥ¡
ĠáĥĺáĥĴ áĥ·áĥľáĥ«
ĠáĥĶáĥ©áĥĵ áĥĿáĥ©áĥ®áĥĿáĥłáĥĿ
Ġáĥ®áĥ£áĥłáĥĴ áĥĲ
àª ¾
ĠáĥŀáĥĿáĥ¢ áĥĶáĥłáĥĺáĥ¨
ĠáĥĲáĥĻáĥĿáĥ¥áĥĺáĥĽáĥĺáĥľáĥ£ áĥĲáĥ¨
ĠáĥĵáĥĺáĥľáĥĲáĥ¡áĥ¢ áĥĺáĥĲ
ĠáĥĽáĥĿáĥ¯ áĥĴ
áĥĻáĥĺáĥĵ áĥĲáĥľáĥ¯
Ġáĥ¯áĥĿ áĥĲáĥľ
Ġáĥ¦áĥĿáĥļáĥĲáĥĽ áĥĺáĥłáĥĺ
áĥ©áĥĶáĥļáĥĶáĥľáĥ¯ áĥĶáĥłáĥĺáĥ¨
" âĢĵ
áĥ£ áĥĲáĥļáĥ£áĥł
ĠáĥĽ áĥĶ
ĠáĥĽ áĥĲáĥľáĥ¯
Ġáĥĵ áĥ£áĥª
áĥ· áĥ¨
áĥĲáĥłáĥ ¬áĥ£áĥĽ
áĥĽ áĥĶ
áĥĽ áĥĲáĥĹ
ĠáĥĴ áĥĿáĥł
ĠáĥĴ áĥĿáĥľáĥ¡
ĠáĥĴ áĥĺáĥĿáĥĵáĥķáĥĶáĥ¡
áĥĲáĥ¡ áĥ·áĥĹ
áĥķ áĥĲáĥĽáĥĺ
áĥ¢ áĥĲáĥ¨
Ġáĥľ áĥĺáĥĴ
Ġáĥľ áĥĲáĥŃáĥĲáĥłáĥĲ
Ġáĥ¡ áĥ£
Ġáĥ¡ áĥĶáĥŀ
Ġáĥ¡ áĥĲáĥ¯
áĥĲáĥ¤ áĥĶáĥ¤áĥ¥
áĥĲáĥ¤ áĥĲáĥļáĥĺáĥ¨
Ġáĥĺ áĥ£áĥĵ
áĥ¥ áĥĺáĥłáĥĿáĥľáĥĶ
áĥĿáĥĳ áĥĶ
Ġáĥĳ áĥĸ
áĥ¨ áĥĺ
áĥĺáĥļ áĥĺáĥĻáĥĲ
áĥĶáĥĳ áĥ·áĥľáĥĲ
áĥĶáĥĳ áĥĺáĥĶáĥĹ
áĥĴ áĥĺáĥľáĥľ
Ġáĥķ áĥĺáĥ¥áĥ¢áĥĿáĥł
Ġáĥ¤ áĥ¨
áĥĺáĥľáĥ ¨áĥĶ
áĥĺáĥľáĥ ¡áĥ¢
Ġáĥ¥ áĥ£áĥĲáĥ¨
áĥĶáĥĹ áĥ¬áĥĻáĥ·áĥĽáĥĲ
áĥĿáĥĽ áĥĲáĥĴáĥľ
áĥĲáĥ¥ áĥ·áĥĹ
áĥ¦ áĥĿáĥłáĥĿáĥľáĥĹ
áĥŀ áĥĺáĥĲáĥ¨
áĥĺáĥłáĥ ©áĥ¥áĥĺáĥľ
áĥ£áĥĽ áĥĲáĥļáĥĲáĥ¨
áĥ£áĥĵ áĥĲáĥ¡
ĠáĥĽáĥĶáĥ Ńáĥ§
ĠáĥĿ áĥĺáĥłáĥĻ
áĥĿáĥĹ áĥĶ
ĠáĥĿáĥ¨ áĥ¬áĥĲáĥľ
áĥĲáĥĴ áĥķ
áĥ®áĥķ áĥĲáĥľáĥĶáĥł
áĥĲáĥķ áĥĲ
áĥĿáĥĻ áĥĿ
Ġj ung
áĥĿáĥķ áĥĺáĥĹáĥĿáĥ¨
áĥĶáĥĵ áĥĺáĥ¨
áĥĶáĥĵ áĥĿáĥĽáĥ£áĥ¨
Ġáĥ£áĥĽ áĥ£áĥ¨
ĠáĥĽáĥ£áĥ¨ áĥĿ
ĠáĥľáĥĲáĥĽáĥ£áĥ¨ áĥĲáĥĹ
áĥĿáĥŀ áĥĿáĥļ
áĥĲáĥ© áĥ£áĥ¡
Ġáĥ¥áĥĺáĥĲáĥľ áĥĲáĥ¨áĥĲ
áĥĿáĥ¢ áĥĺáĥ¡
áĥĲáĥ£ áĥļáĥĺ
Ġáĥ¸ áĥ£áĥľáĥĵáĥ·
Ġáĥĺáĥľáĥĵ áĥ£áĥ¡áĥ¢áĥłáĥĺ
ĠáĥĴáĥł áĥĲáĥĽ
áĥ£áĥĲáĥ¨ áĥĿ
Ġáĥĺáĥłáĥ Ļ
Ġáĥ« áĥĴ
Ġáĥ« áĥĺáĥłáĥĲáĥ¤áĥĲ
áĥĲáĥŃ áĥĲáĥľ
áĥĲáĥŃ áĥĲáĥłáĥĲáĥ¨
ĠáĥĻáĥĺáĥľ áĥĿáĥ¡
ĠáĥĿáĥ¡ áĥ¥áĥĺáĥłáĥĿáĥľáĥĶ
ĠáĥĽáĥĲáĥ¡ áĥĲáĥ©áĥ£áĥ¡
Ġáĥ¥áĥĺáĥĽ áĥĶáĥ©
ĠáĥĹáĥĲáĥł áĥĿáĥĳáĥĲáĥ¥
áĥĶáĥĳáĥ£áĥļ áĥĿ
ĠáĥĲáĥ¢ áĥĿáĥĽ
ĠáĥĶáĥ¨ áĥĲáĥ©
Ġáĥĺáĥł áĥĺáĥľáĥ£áĥĲáĥľáĥ¡
áĥ¸ áĥĿáĥľ
ĠáĥĶáĥĴ áĥĲáĥ¤áĥĺáĥļáĥĺ
ĠáĥŀáĥĿáĥļáĥĺáĥ¢ áĥĺáĥĻáĥĲáĥ¨
áĥĵáĥ¦ áĥĲáĥĽáĥĺ
Ġáĥ¯áĥĺáĥľáĥ¯ áĥĺáĥĶáĥł
ĠáĥĽáĥĲáĥłáĥ ķ
ĠáĥĶáĥ¥ áĥ¡áĥ¢áĥł
Ġáĥ¤áĥĶáĥĵáĥĶáĥł áĥĲáĥªáĥĺáĥ£áĥļáĥĺ
ĠáĥĴáĥĺáĥ¨áĥĽ áĥ£áĥłáĥ¡
Ġáĥ£áĥĴ áĥľ
Ġáĥ®áĥĲáĥľáĥĵ áĥĲáĥ¡
ĠáĥĴáĥĶáĥĴáĥĽ áĥĲáĥ¨
ĠáĥĲáĥłáĥ¡áĥĶáĥĳ áĥĶáĥľáĥĵáĥ·
ĠáĥļáĥĲáĥ¸áĥĲáĥ¤ áĥĺ
ĠáĥĹáĥĶáĥĿáĥł áĥĺáĥĲáĥ¨
Ġáĥĳáĥĺáĥĳ áĥļ
ĠáĥĹáĥĶáĥľ áĥĶáĥ¤áĥĺ
Ġáĥ¡áĥŀáĥĶáĥªáĥĺ áĥĲáĥļáĥĺáĥĸ
Ġáĥ¯áĥĺáĥ® áĥĲáĥĸ
Ġáĥĺáĥľáĥ¤áĥĿáĥłáĥĽ áĥĲáĥªáĥĺáĥĲ
ĠáĥĽáĥĲáĥ¢ áĥĲáĥ¥
Ġáĥłáĥĺáĥ©áĥĲáĥłáĥĵ áĥĺáĥ¥
ĠáĥĵáĥĲáĥ¡ áĥĲáĥ¤áĥ£áĥļ
Ġáĥ¢áĥĶáĥļ áĥĶáĥ¤
ĠáĥĵáĥłáĥĲáĥĽ áĥĲáĥ¢
ĠáĥĵáĥĲáĥłáĥ¡áĥ®áĥ£ áĥĶáĥ¡
Ġáĥĵáĥĺáĥł áĥĶáĥ¥áĥ¢áĥĿáĥł
ĠáĥľáĥĿáĥĽáĥĺáĥľ áĥĺáĥłáĥĲáĥ¤áĥĺáĥļáĥĺ
ĠáĥŁáĥĺáĥľáĥŀáĥĺáĥ¯ áĥĺáĥ¨
ĠáĥĽáĥ£áĥ® áĥ£áĥłáĥĺ
ĠáĥĽáĥĲáĥľáĥ¥ áĥĲáĥľáĥĲ
Øª Ø§ÙĨ
ĠáĥĲáĥķáĥ¢áĥĿáĥĽ áĥĿáĥĳáĥĺáĥļáĥĺ
ĠáĥĻáĥĲáĥľáĥĿáĥľáĥ ĸ
ĠáĥĽáĥĲáĥłáĥĹáĥļáĥĽáĥĲáĥĵáĥĺáĥĵ áĥĶáĥĳáĥļ
ĠáĥĻáĥĲáĥļáĥĺáĥ¤áĥĿáĥłáĥľ áĥĺáĥĲáĥ¨
ĠáĥļáĥĲáĥ¢ áĥķ
ĠáĥĲáĥĻáĥĽáĥĿáĥ¥áĥĺáĥĽáĥĺáĥľ áĥ£áĥľáĥ¡
ĠáĥĽáĥĲáĥŃ áĥĲáĥłáĥ·
áĥ¡áĥĲáĥ®áĥĶáĥľáĥ¬áĥ·áĥ¤ áĥĿ
ĠáĥĲáĥĻáĥĿáĥ¨ áĥĲáĥ§áĥĲáĥł
áĥĺáĥľáĥ¬áĥ§ áĥ·
áĥ¤áĥĶ áĥĺáĥľáĥĽ
áĥĴáĥĺáĥľáĥľ áĥĲáĥķ
ĠáĥĿáĥĺáĥłáĥĻ áĥĿáĥ©
áĥĿáĥķáĥĺáĥĹáĥĿáĥ¨ áĥĻáĥķáĥĺáĥĹáĥĺ
áĥĶáĥ ŁáĥĲáĥĽ
ĠáĥĻ áĥ£áĥłáĥ¡
Ġáĥĺ áĥ®áĥķ
áĥĶáĥ¨ áĥĿ
Ġáĥķ áĥĶáĥ¨
áĥĺáĥĿáĥ ŀ
áĥ§ áĥĲáĥł
áĥĶáĥľáĥª áĥĺáĥĲ
áĥĿáĥ£ áĥĵ
áĥķáĥĲáĥł áĥĺáĥļáĥĺ
ĠáĥĿáĥ¡ áĥ£áĥłáĥĺáĥ¨
Ġange zeigt
ĠáĥĿáĥ¨áĥ¥ áĥ£áĥłáĥĲáĥľáĥ¯
Ġáĥ®áĥĲáĥľ áĥĲáĥ¡
Ġáĥ£áĥĻáĥ£áĥļ áĥĺáĥĹ
ĠáĥłáĥĲáĥĴáĥĲáĥĵ áĥĲáĥľáĥĲ
Ġáĥļáĥĺáĥ¢áĥĶáĥłáĥĲáĥ¢ áĥ£áĥłáĥĲ
ĠáĥĻáĥĿáĥľáĥ¡áĥ¢áĥĺáĥ¢áĥ£áĥª áĥĺáĥ£áĥłáĥĺ
áĥĺáĥĿáĥļáĥĿáĥĴ áĥĺáĥĲ
ĠáĥļáĥĶ áĥĺáĥ¢
Ġáĥĺáĥ¡áĥļ áĥĲáĥĽ
ĠáĥĻáĥĿ áĥĿáĥłáĥĵ
Ġáĥ¡áĥĶáĥĸ áĥĿáĥľáĥ¡
Ġáĥ¡áĥĲáĥ° áĥĲáĥłáĥĲáĥ¨
ĠáĥĴáĥ·áĥĹáĥĽáĥĿáĥĹáĥĲáĥľáĥ¯ áĥ£áĥľáĥ¡
áĥ£ áĥĶáĥ¤áĥĺáĥĹ
áĥł áĥĺáĥĹ
áĥł áĥĶáĥķáĥĿáĥļáĥ£áĥª
áĥĽ áĥĶáĥľ
ĠáĥĴ áĥĿáĥ¡áĥĿáĥ¤
ĠáĥĻ áĥĲáĥłáĥĹ
áĥĶáĥľáĥ ł
áĥĵ áĥ·
áĥĵ áĥĲáĥ¦
áĥĿáĥĳ áĥ£áĥĲáĥ¨
Ġáĥĳ áĥĲáĥľáĥĴ
Ġáĥ¯ áĥĲ
Ġáĥļ áĥĶáĥ¢
áĥĲáĥľáĥĵ áĥĺ
áĥĲáĥĻ áĥĶáĥłáĥĸ
áĥ£áĥ¡ áĥĺáĥ¡
áĥª áĥĺáĥĲ
áĥ© áĥĺáĥľ
ĠáĥĲáĥĽ áĥĲáĥĸ
ĠáĥĴáĥ·áĥĽ áĥĲáĥĳ
áĥĶáĥ£ áĥļáĥĺ
ĠáĥľáĥĲáĥĽáĥ£áĥ¡ áĥĺáĥĹ
ĠáĥĽáĥĶáĥľáĥªáĥĲáĥł áĥĿáĥĳáĥĲáĥ¡
Ġáĥĺáĥľáĥ¢ áĥĶáĥľáĥ¡
áĥ¦áĥķ áĥĶáĥł
áĥĲáĥ§ áĥĲáĥłáĥ£
ĠáĥŀáĥłáĥĿáĥª áĥĶáĥ¡áĥĺáĥ¡
ĠáĥĶáĥŃáĥĿáĥ¤ áĥ£áĥĲ
ĠáĥłáĥĶáĥĴáĥĺáĥĿáĥľ áĥĶáĥ¤áĥ¡
ĠáĥĴáĥĺáĥľáĥĽ áĥĺáĥłáĥĹáĥ£
Ġáĥ©áĥĺáĥľ áĥĶáĥĹáĥĺáĥ¡
ĠáĥĻáĥĿáĥĽáĥŀáĥĺáĥ£áĥ¢ áĥĶáĥłáĥĺ
ĠáĥĽáĥĿáĥ¦ áĥĲáĥļáĥ£
Ġáĥ¤áĥ£áĥľáĥ¥áĥª áĥĺáĥĿáĥľ
ĠáĥĵáĥĴáĥ·áĥĽ áĥĺáĥļáĥ¡
ĠáĥĽáĥĺáĥĿáĥŃ áĥĺáĥłáĥĺáĥľáĥ£
Ġáĥ¦áĥĲáĥľáĥ© áĥĿáĥ¨
ĠáĥĲáĥĻáĥĿáĥĲáĥľáĥ¯áĥĲáĥł áĥĲáĥ¤áĥĺáĥļ
ĠáĥķáĥĺáĥĹáĥĿáĥ¨áĥ¬áĥĲáĥľáĥ£áĥł áĥĲáĥ¨
ĠáĥĽáĥĿáĥłáĥĲáĥĴáĥĲáĥĵ áĥĶáĥĶáĥ¤áĥĺáĥ¨
ĠáĥļáĥĶáĥłáĥ¡áĥĺáĥĻ áĥĿáĥľáĥĺ
ĠáĥľáĥĲáĥĽáĥĵ áĥĴ
ĠáĥĽáĥĶáĥ¬ áĥ£áĥł
Ġáĥĵáĥ· áĥĻáĥĺ
ĠáĥĻáĥĿáĥľáĥ¬ áĥĲáĥłáĥĺ
Ġáĥ¡áĥĺáĥ¢áĥĿáĥĽáĥĳ áĥĲ
áĥĲáĥĵáĥĲáĥĽ áĥĺáĥĶáĥł
ĠáĥĴáĥĶáĥĴáĥ¨áĥĲáĥĴáĥĿáĥł áĥĶáĥ¡
ĠáĥĳáĥĿáĥľáĥĲáĥŀ áĥĲáĥłáĥ¢
Ġáĥĵ áĥĿáĥ¡
áĥĲáĥļ áĥĺáĥ¡
áĥĿáĥľ áĥĿ
Ġáĥłáĥ ©áĥ¥áĥĺáĥľ
áĥĲáĥ¸ áĥĲáĥļ
Ġáĥĺáĥ¡áĥ¢áĥĿáĥł áĥĺáĥĻáĥĿáĥ¡
ĠáĥĺáĥľáĥĴáĥļáĥĺáĥ¡ áĥĺáĥ¨
ĠáĥłáĥĿáĥļ áĥĺáĥ¨
ĠáĥĻáĥĿáĥľáĥª áĥĶáĥ¤áĥª
ĵ áĥĶáĥ¡
ķ áĥĶáĥłáĥ¡
áĥĲáĥľ áĥĺáĥĳ
áĥķ áĥĲáĥľáĥ¯
áĥľ áĥĺáĥĵ
áĥĴ áĥĺáĥľáĥ·
Ġáĥ¤ áĥĺáĥĿáĥ¨
Ġáĥ© áĥĲáĥŀ
Ġáĥ£áĥĽ áĥ£áĥ¨áĥĿ
Ġáĥ©áĥ¥ áĥĺ
ĠáĥĻáĥ£áĥĳ áĥĲáĥł
Ġáĥ¸áĥĿáĥ¤ áĥĺáĥļáĥĺ
Ġáĥ£áĥľáĥ ķáĥĶáĥłáĥ¡
Ġáĥ¡áĥĲáĥł áĥĿáĥ¢áĥĺ
ĠáĥĸáĥĲáĥłáĥ® áĥ£áĥļáĥĺáĥ¨
áĥĲáĥ¤áĥ®áĥĲáĥĸ áĥ£áĥłáĥĺ
ĠáĥļáĥĲáĥľáĥĵ áĥ¨áĥĲáĥ¤
ĠáĥĶáĥ¢áĥĲáĥŀ áĥĺáĥ¡
áĥ¢áĥĿáĥļ áĥĶáĥĽ
Ġf u
ĠGeb iet
lieÃŁ t
O r
Ġg eile
ver anst
ĠB rot
aly se
Ġcon sider
ition en
Ġm y
à¹Ĥ à¸Ķà¸Ļ
ig ungs
ĠGut schein
il and
Ġco us
ay er
Ġ: )
ĠArch iv
le cht
à¹ ķ
ĠE reig
Ġkon zentr
Ġà´ªà´ł à´¨
ĠAnt worten
Ġpro b
Ã¼hl en
Ġb ill
ĠÃĦnder ungen
à´£ à´ª
wie gend
Ġbeh andelt
à´£ à´°
à¸Ńà¸ª à¸£
ĠAn lagen
oll ar
à¸ªà¸Ļ à¸²à¸¡
Ġà¸Ń à¸Ńà¸ģ
S te
Ġfor on
Ġl and
f uhr
ĠL eg
ĠKont akte
end a
Ġein schlieÃŁlich
ĠW under
Ġlei sten
ĠB ig
ĠKont rolle
Ġauf s
Ï ħ
ĠSch Ã¤den
Ã¼l ler
13 5
Ġzu erst
kti ver
à¸²à¸ĩ à¸ª
l ige
ver kauf
Ġein deu
alt ungs
àµĩ .
à¸ĩ à¹ģà¸¥à¸°
Ġm ont
Ġz Ã¤hlt
Ġà´® à´¸
ĠR Ã©
18 69
Ġk o
eit os
Ã© r
à¸ģà¸²à¸£ à¸Ħ
à¸Ļ à¹ģà¸¥
à¹ĥà¸Ļ à¸ķ
à¹Ĥà¸Ľà¸£ à¹ģà¸ģà¸£à¸¡
à¹Ħ à¸«à¸¥
Ġsogen annten
ag el
ĠSt amm
etz ten
ĠKar te
à¹ģ à¸ĸ
ĠN ation
ĠUn ited
à¸²à¸ļ à¸²à¸¥
Ġdis c
à´ķ àµ¼
nis sen
Ġr elev
D C
Ġz Ã¤hlen
Ã¡ x
Ġschn eiden
em m
Ġs ize
à¸Ļ à¹Ģà¸¡
ĠG ab
à¸ķ à¸Ńà¸ļ
à´§ à´ķà´°
ĠF inger
à´¡ à´±
ĠRein igung
ĠProf ess
ĠIn iti
Ġallgem einen
Ġver lie
I A
ĠZu sch
ĠCh ancen
ĠK Ã¤ufer
à¸²à¸Ļ à¸ģ
ĠAut oren
à¸Ńà¸ĩ à¸ĸ
à¸Ń à¹Ħà¸Ķ
I hr
heit s
id s
bl ieben
ax es
ĠSp itzen
ĠZus atz
Ġp op
upp en
k Ã¼
eleucht ung
à¹Ģà¸¢ à¸Ńà¸°
Ġà´ĵ à´ª
Ġkor re
Ġein geb
ĠSchn ell
ĠAktiv itÃ¤ten
ĠTeam s
k ul
Ġhier zu
ĠInter ess
i fe
1 200
Ġg o
ĠMuse um
al z
à¸¥à¸° à¸Ħà¸£
ĠReg eln
Ġger ing
t r
ul o
Ġkomp eten
à´° à´ļà´°
Ã¤n n
ĠMot to
ĠSch lei
à´¯à´® à´¤
U T
w ander
à¸¥ à¸¢
Ġactiv idades
alt h
ĠlÃ¤ng st
tex t
E C
eu ern
ĠArbeit geber
sf Ã¤h
au ben
I X
av e
Ġl abor
Ġvermei den
Ġre ci
3 50
ĠEn gel
27 2
ĠGer ade
frist ig
ÃŃ f
à¸Ī à¸²à¸£à¸ĵ
Ġd ic
az z
ĠFÃ¶rder ung
Ã¶r ung
Ġà¹ģ à¸«
ĠP rÃ¼fung
ĠAl ten
g f
ĠGeg ner
ir en
Ġre coÃ±
ĠAn wendungen
ĠAng riff
3 60
ei se
Ġhoff e
alis ieren
ĠKrit ik
iz enz
w eich
ĠN ote
ĠK Ã¶r
ab o
bo den
Ġs or
B et
à¸° à¹Ģà¸ļ
me ter
Ġerst mal
ĠCl ass
à´µ à´Ń
ik ations
T ube
spart ner
Ġt ras
Ġseg undo
I ON
Ġr Ã¼ck
à¹ĥà¸Ļ à¸§
Ġfal sch
d re
Ġper man
fass ungs
ĠRich ter
Ġà´İ àµ»
ĠunabhÃ¤ng ig
ĠKonz ert
à¹ģà¸ķ à¸ģà¸ķ
Ġm or
à¸Ľ à¸Ķ
ma ÃŁen
ĠVer waltungs
ĠTechn olog
à´¸ à´°à´Ļ
ĠM ulti
ĠLehr er
Ġsch m
Ġmus ikal
Ġw eich
Ġà´İ à´¡
wir ken
;;;; ;;;;
Ġv an
à¸Ķ à¸ķà¸²à¸¡
à¸Ń à¸²à¸¢
ĠK op
ĠRad io
ĠT ick
Ġindividu ellen
Ġschn elle
ĠverfÃ¼ gen
Î µ
Ġzu gleich
umin ium
ĠN R
ĠMo de
Ġer fÃ¼llen
amp e
Ġf rag
Ġs eiten
à¸Ļà¸Ĺ à¸³
en ke
en der
po ol
ĠS ub
à¸¡ à¸§
Ã¶ffent lich
Ġsogen annte
Ġau ÃŁen
ĠE p
Ġn ennen
ir o
ĠFor men
ĠGar antie
Ã¶ffent licht
um ente
ĠAus gabe
ĠPol y
ig ner
ĠZahl en
Ġne un
Ġc amb
ar tige
Ġsp rach
gesch Ã¤ft
à¸Ļ à¸Ħà¸Ļ
Ġà´ĩ à´®
Ġwir st
ĠKar r
ĠVic tor
à¸Ļà¸Ń à¸Ńà¸Ļà¹Ħà¸¥à¸Ļ
à¸Ļ à¹Ģà¸Ĭ
________ ________
à´ķ à´¸à´¨
ĠB atter
Ġf ur
Ġà´¤ à´²à´¯
O ne
Ġs l
ĠA ch
Ġpassen den
Ġmo itos
ĠDa vid
à¸ģ à¸Ĥà¸Ńà¸ĩ
ĠDurch fÃ¼hrung
L and
ĠS ind
T echn
ĠS C
ĠErn Ã¤hrung
Ġf alls
Ġin nen
Ġhor as
à¸¥ à¸³
19 36
à¸ļ à¸Ľ
ber eitet
ĠBer eit
ez if
Ġaus reichend
ĠFor schungs
I R
z ellen
eh me
ĠHoch schule
ĠAm t
Ġehemal igen
r ÃŃ
Ã¡ l
gest altung
ĠSt iefel
in as
à¸¡à¸²à¸ģ à¸Ĺ
lie gt
rÃ¼ st
Ġern st
y d
ĠZ ut
ten d
ĠOr ts
N un
B ET
ĠL ast
our cen
ĠGen eral
b aum
nah m
Ġeur os
ĠS yn
B E
Ġl ohnt
rÃ¤ umen
ĠD igit
àµº à´Ĺ
Ġwoll ten
Ã¤hl ten
isten z
Ġwesent lich
Ġm aÃŁ
à¸´ à¹Ĭ
Ġs Ã©
Ġgleich e
ko hol
à¸²à¸ĩ à¹Ħà¸£
ĠStudi um
Ġcol abor
ĠPlan ung
d ar
p ers
ĠF ett
ock er
rampf adern
ĠL iber
ĠgrÃ¶ÃŁ ere
S U
ann ter
à¹Ģà¸Ľ à¸Ńà¸£
ol er
maÃŁ nahmen
ĠSor timent
Ġreg ul
Ġprakti sch
Ġver k
Ġf ehlt
Ġ% )
ĠLeip zig
ĠK ant
ĠÐ Ĵ
ĠHei z
achst um
Î¿ Î½
Ġcon stru
ĠEin richtung
Ġweiter er
Ġn ome
Ġleich ter
minister ium
k omp
ĠI hn
ĠC y
à¦ ¾
Ġa par
ĠPf arr
f amil
ex t
k unden
ĠDan ach
à¸Ń à¸³à¸Ļ
os a
ĠD ial
ĠA gen
ĠT reff
Ġà¹Ĥà¸Ķà¸¢ à¸¡
Ġverst Ã¤r
ĠbeschÃ¤f tigt
zeich nen
ĠAus nahme
à¸²à¸ĩ à¸¡
h ab
ĠKom pl
ir urg
Ġselbst verstÃ¤ndlich
ĠdÃ¼r fte
Ġre fer
à´ªà´± à´ŀ
à¸²à¸Ļ à¸Ħ
k ap
Ð ¢
ĠD ra
Ġinteress ante
Ġá ¼
Ġges ellschaft
à´ĸ à´²à´ķà´³
M et
Â ¼
hren amt
l ament
ge fÃ¼hl
au p
W ar
à¸Ĭà¸Ļ à¸°
ĠMedi k
ie fen
ĠEng agement
à¸§ à¸§
ĠLim ited
Ġà´ļ àµ¼à´ļ
k unde
Ġh ilf
à¸²à¸ŀ à¸£
Ġber Ã¼hm
ĠAut os
ĠH at
ĠN och
Ġcal quera
Ġent lang
à´µ à´Ļ
un e
Ġak zepti
àµįâĢį ...
13 6
Ġer fÃ¼llt
ĠErwachsen e
ĠS ehen
à¸ļ à¸«à¸Ļ
Ð² Ð°
ĠIm pl
Ġà¸Ń à¸²à¸«à¸²à¸£
ĠA benteuer
ic en
ro ss
ĠOp tionen
Ġin dust
ĠÐ ¢
ĠÃľber sicht
18 90
hÃ¶ he
ĠS et
Ġs ist
i oren
Ġp es
Ġben utzen
ĠInst rum
ĠJ ose
à´® à´µ
àµģ ...
Ġwieder um
ĠFahr er
Ġst ud
à¸ĩ à¹Ģà¸Ķ
z auber
on str
à¸¢ à¸²à¸Ļ
.. ...
à¸Ł à¸Ńà¸£
Ġn ame
k al
Ġx xx
Ġstell te
Ñģ Ñı
Ðµ Ð»
ĠS au
ĠAu ge
ĠÃ¶ffent lich
Ã¼ mer
ĠPay Pal
à¸Ľà¸£à¸°à¸ª à¸ļà¸ģà¸²à¸£à¸ĵ
à¹Ĥà¸Ĺ à¸©
ĠT ime
v al
ĠVersand kosten
Ġc ara
Ñģ Ðº
Ġide al
à¸ģà¸£à¸£à¸¡ à¸ģà¸²à¸£
w n
l Ã¤nder
ĠFit ness
Gr und
Ð Ŀ
ĠD igital
ĠNach richt
wei ÃŁ
ĠEx pl
à¸²à¸ķà¸£ à¸Ĳà¸²à¸Ļ
Ġn utzt
ĠO f
ĠAn teil
ĠZeit raum
ĠHin weise
ĠMo dern
à¹Ħ à¸ķà¸¥
ĠKategor ien
Ġà´¶ à´®
ÑģÐºÐ¸ Ð¹
à¸£à¸²à¸¢ à¸¥à¸°à¹Ģà¸Ń
Ġra um
ĠRe de
ĠV it
tre ffen
àµĩ ?
Ġerfol gen
É Ľ
as i
à¸Ńà¸Ļ à¸Ĥ
Ġst at
' .
Ġtran sp
, -
ĠG rie
iar dia
ĠStud ie
Ã¤d t
Ġangem essen
ÑģÑĤ Ð¸
Ð¼ Ð¸
à¸ªà¸ĸà¸²à¸Ļ à¸Ĺ
Ġm ore
Ġor ix
à¸Ļ à¸ļà¸Ńà¸¥
à¸« à¸²à¸§
we den
Ġdifer entes
à¹Ģà¸ģà¸© à¸ķà¸£
Ã¤te stens
gemein schaft
sch ten
Ã¼ss eldorf
ĠPrÃ¤ sident
ĠVer hÃ¤ltnis
Ġpou co
ĠC ity
ĠWÃ¤r me
à¸Ńà¸ĩ à¸Ī
ras ch
Ġein iger
k ommt
Ġ Ñĩ
K E
ĠB ord
Ġà¸ª à¸²à¸§
h or
ĠJugend liche
G o
Ġlie b
Ġà´İ à´¯à´°
Ġ ÙĨ
rem e
inder ung
P o
àµģ âĢĭâĢĭâĢĭ
Ġà¸Ĺ à¸²à¸ĩ
Ġlie fern
Ġmedi o
ĠRestaurant s
Ġbes itzt
à¸²à¸ģ à¸«à¸¥à¸²à¸¢
ĠR ollen
Ġdurch schnitt
ik ationen
Ġf rau
Ã¤ use
g Ã¼nst
19 04
mod ell
à¸Ńà¸¡ à¸ŀ
Ġk Ã¶rper
p ost
ĠPrin zip
Ġg eil
19 39
à¸Ń à¸²à¸£
! "
eu ert
N eben
Ġth is
à¸Ľ à¸ģà¸ķ
recht s
ĠP rÃ¼f
ap ier
Ġs il
à¸Ń à¸Ł
ari as
ĠBeh Ã¶rden
Ġà¤ ħ
ig ungen
ĠEsp aÃ±a
ĠAus druck
Ġà¸Ļ à¸²à¸Ĺ
ch a
ĠB urg
bo ard
ig in
ĠMin ute
ĠF eder
ad s
ĠPol en
ĠFor der
Ġch am
ĠnÃ¶ tig
verb ind
iv a
ĠPer spe
àµįâĢ Ļ
bre chen
Ġf ar
lie genden
le hr
à¸£à¸© à¸Ĳ
Ð°Ð»ÑĮ Ð½ÑĭÑħ
ĠB auch
Ð¾Ð² Ð¸Ñĩ
ĠÐ´ Ð°Ð½
ĠSch reib
usÃ¤tz lich
Ġe ure
Ġpl Ã¶tzlich
à ½
łáĥ ¥
ĠáĥĽ áĥĺáĥ¦
áĥĽ áĥĺáĥĴ
áĥĺáĥľ áĥĶáĥľáĥĲ
áĥĲáĥł áĥĺáĥ¡áĥ¢áĥĺ
áĥĲáĥĽ áĥĶáĥ¤áĥĺ
áĥĲáĥĽ áĥĿáĥ¡áĥĶ
Ġáĥł áĥ£
Ġáĥľ áĥĶáĥł
Ġáĥ¬ áĥĿáĥ®
Ġáĥ¬ áĥľáĥĶáĥķ
Ġáĥ¡ áĥĺáĥĳ
Ġáĥ¡ áĥĺáĥľáĥĴáĥļ
Ġáĥ¡ áĥĺáĥŃ
Ġáĥĺ áĥĲáĥĽ
áĥĻ áĥĿáĥľáĥ¡
áĥĻ áĥĽáĥĲ
Ġáĥĳ áĥĲáĥ¥
Ġáĥĳ áĥĲáĥ°
Ġáĥ£ áĥ£áĥ¯áĥĴáĥ£áĥ¨
à¸¥ à¸Ńà¸ĩ
áĥľ áĥĺáĥĲ
áĥĺáĥļ áĥĶáĥłáĥĺ
Ġáĥŀ áĥĺáĥľ
Ġáĥ¨ áĥĶáĥł
Ġáĥ¨ áĥĶáĥłáĥļáĥĿáĥĻ
áĥĶáĥĳ áĥĶáĥĵáĥ·
áĥĶáĥ¨ áĥĲáĥ®
áĥĴ áĥ£áĥ¡áĥ¢
Ġáĥ¤ áĥĿáĥľáĥ¡
Ġáĥ¤ áĥĶáĥłáĥĶáĥ¤áĥĺáĥ¨
áĥ·áĥĽ áĥ£
Ġáĥ¥ áĥĲáĥ¦
Ġáĥ¢ áĥĶáĥ¡áĥ¢
áĥĹ áĥĺáĥ¥
áĥĹ áĥĺáĥľáĥĲ
áĥĿáĥľáĥ Ľ
Ġáĥ© áĥĺáĥ¢
Ġáĥ© áĥĲáĥľáĥĵáĥĺáĥĴáĥĲáĥłáĥ°áĥĺ
áĥĲáĥª áĥĺáĥĶáĥ¤áĥĺáĥĹ
áĥĺáĥ¡áĥ¢ áĥĿ
áĥ®áĥķ áĥĲáĥł
áĥĶáĥĵ áĥłáĥĶ
Ġáĥ° áĥĿáĥĴáĥķ
áĥĲáĥ¦ áĥĺáĥľáĥĲáĥ¤áĥĲáĥļáĥĿ
áĥ© áĥĶáĥ©
Ġáĥ¸ áĥ£áĥĵáĥĶáĥ¡
Ġáĥĳáĥł áĥĺáĥ¯
ĠáĥĲáĥķ áĥĴáĥ£áĥ¡áĥ¢
Ġáĥĸáĥ£áĥ¦ áĥĲáĥĹ
ĠáĥĴáĥł áĥĿáĥĸ
áĥĺáĥľáĥĶáĥĳ áĥĲ
ĠáĥĲáĥ¡ áĥĲ
áĥ£áĥ¯ áĥĲ
Ġáĥ« áĥĲáĥļáĥĶáĥ¤áĥĺáĥ¨
ĠáĥĴáĥ·áĥ¨ áĥĲáĥ¨áĥ¥áĥ·
Ġáĥ¡áĥĲáĥ¥áĥĿáĥłáĥĹáĥ£ áĥĿáĥ¥
áĥ£áĥĲáĥľ áĥª
ĠáĥĶáĥķ áĥłáĥĿ
Ġáĥ¡áĥ¥ áĥ£áĥĲáĥ¡
Ġáĥ¥áĥĺáĥĽ áĥĺáĥ£áĥłáĥĺ
ĠáĥĽáĥĿáĥłáĥ ¬áĥ£áĥĽáĥĶ
ĠáĥĻáĥĲáĥĹ áĥĶáĥ¤áĥĺ
Ġáĥļáĥ·áĥĽ áĥĶáĥ¤áĥĺ
ĠáĥĶáĥĴ áĥłáĥĺáĥ¡
Ġáĥľáĥ« áĥĲáĥļáĥĲáĥ¨
ĠáĥĿáĥł áĥĶáĥľáĥĺáĥ¨
ĠáĥĽáĥĿáĥļ áĥĺáĥľáĥĶáĥ¤áĥĺ
ĠáĥĽáĥĿáĥļ áĥĶáĥľáĥĻ
Ġáĥ¡áĥĲáĥĺ áĥľáĥ¢áĥĶáĥłáĥĶáĥ¡áĥĿ
ĠáĥĴáĥķáĥĶáĥłáĥĵ áĥĺáĥ¨
Ġáĥĳáĥĺáĥł áĥĲáĥĹ
ĠáĥĽáĥĺáĥĽ áĥĿáĥ£áĥļ
ĠáĥĺáĥłáĥļáĥĲáĥľáĥĵ áĥĺáĥĲ
ĠáĥķáĥĶáĥłáĥ¡ áĥĺáĥĶáĥ¤áĥĺ
Ġáĥłáĥĸ áĥĶáĥľáĥĶáĥ¤áĥĺ
ĠáĥĽáĥĶáĥĴ áĥĲáĥĽáĥĲ
ĠáĥĿáĥĻáĥĲáĥĹ áĥĶáĥĵáĥłáĥĶ
ĠáĥĴáĥķáĥĲáĥ¢áĥĶáĥĽ áĥĲáĥļáĥĲáĥ¨áĥĲ
áĥĿáĥłáĥ¥ áĥĿáĥ¨
ĠáĥŀáĥłáĥĿáĥªáĥĶáĥ¡ áĥĶáĥ¤áĥĺáĥ¨
ĠáĥĽáĥĶáĥ¥ áĥĲáĥľ
áĥĿáĥłáĥĿáĥ¤ áĥĶ
Ġáĥ¥áĥĺáĥłáĥ¡áĥĺáĥĲáĥľ áĥĿáĥĳáĥĲ
Ġáĥ¥áĥĿáĥĽ áĥĿáĥľáĥ¯
Ġáĥ®áĥĶáĥ¨áĥ£áĥ£áĥļ áĥĿáĥĳáĥĲáĥ¨
ĠáĥĿáĥª áĥĲáĥĵáĥ·
Ġáĥ¡áĥªáĥĶáĥľ áĥĲáĥłáĥĺáĥ¨
ĠáĥĵáĥłáĥĲáĥĽ áĥĲáĥ¢áĥ£áĥļáĥĺ
ĠáĥķáĥĲáĥłáĥĹ áĥ¤áĥĶáĥłáĥĺ
ĠáĥĵáĥĿáĥĹ áĥĲáĥłáĥĺáĥ¦
ĠáĥĴáĥ·áĥĹáĥĽ áĥĲáĥŃáĥ§
Ġáĥ¡áĥĿáĥĽáĥĶáĥ® áĥĶáĥ¤áĥĺ
Ġáĥ¡áĥĿ áĥĺáĥ¨áĥĶ
Ġáĥ©áĥ®áĥĿáĥļ áĥĲáĥłáĥĶáĥ¤áĥ¡
ĠáĥĵáĥĲáĥ¦ áĥĶáĥ¡áĥ¢
ĠáĥĴáĥĶáĥĽáĥ¨ áĥĶáĥ¦áĥ·
Ġáĥĵáĥĺáĥ®áĥĲáĥ¨áĥľáĥ¬ áĥĲáĥļáĥ£áĥĲ
Ġáĥļáĥ£ áĥĺáĥ¡
ĠáĥĺáĥľáĥĴáĥ£áĥ¨ áĥĶáĥĹáĥĺáĥ¨
Ġáĥ£áĥ¨áĥ¥áĥ£áĥłáĥĲáĥľáĥ¯ áĥĿáĥĳáĥĲáĥ¨
ĠáĥķáĥĲáĥŃáĥĲáĥł áĥ£áĥĲáĥ¨
ĠáĥķáĥĶáĥľáĥĶáĥª áĥĺáĥĲáĥ¡
ĠáĥŀáĥĲáĥļáĥĲáĥ¢ áĥĲáĥ¡
ĠáĥĲáĥĻáĥĿáĥłáĥ ¦áĥķ
ĠáĥªáĥĺáĥłáĥĲáĥ¡áĥ¥ áĥ£áĥĲ
ĠáĥŁáĥĺáĥľ áĥĿáĥ¡áĥ¥
áĥ£áĥłáĥĺáĥĶ áĥļáĥĶ
ĠáĥĽáĥĶáĥ£áĥ¯áĥ¦ áĥ£áĥľáĥ·
ĠáĥĵáĥĿáĥ¸áĥ£áĥľ áĥĲáĥļáĥĲáĥ¨
Ġáĥĺáĥ«áĥĺáĥł áĥĶáĥĳáĥĶáĥĵáĥ·
ĠáĥĽáĥĶáĥ¢áĥłáĥĿáĥŀ áĥĿáĥļáĥĺáĥ¢
Ġáĥ¤áĥĿáĥľáĥĵ áĥĺ
ĠáĥĻáĥĺáĥľáĥĿáĥ¤ áĥĶáĥ¡áĥ¢áĥĺáĥķ
ĠáĥĽáĥĺáĥĿáĥłáĥ¡áĥ®áĥ£ áĥĲáĥľáĥ¡
áĥĻáĥĺáĥļ áĥ¨áĥĲ
ĠáĥĽáĥĲáĥķáĥĺáĥĹáĥĲ áĥĲáĥłáĥĹáĥĲ
ĠáĥĴáĥ·áĥĽáĥĿáĥŃáĥĲáĥľ áĥĲáĥ¤áĥĺáĥļáĥĺ
áĥĽáĥ£áĥŁáĥĲáĥĽ áĥ¡
ĠáĥĽáĥĺáĥ¨áĥĶáĥ¦ áĥĶáĥ¡
ĠáĥĹáĥĶáĥ¸ áĥ£áĥłáĥĶáĥ¨áĥĶ
Ġáĥ°áĥĿáĥĴáĥķ áĥĿáĥłáĥ¢
ĠáĥĽáĥĿáĥļáĥĶáĥľáĥĻ áĥĲáĥķáĥĻ
áĥĺáĥľáĥ ¨áĥĲ
áĥĲáĥ¥ áĥ¢áĥĺ
áĥ£áĥľ áĥĲáĥ¡
ĠáĥĲáĥłáĥĹ áĥĺáĥ¨áĥĲ
áĥ®áĥķ áĥĲáĥĵáĥ·
ĠáĥĹáĥĺáĥľ áĥĶáĥ¤áĥ¨áĥĿ
Ġáĥ° áĥĶáĥļ
ĠáĥĲáĥļ áĥĴ
Ġáĥ£áĥ¦ áĥ·áĥľáĥĲ
áĥ®áĥ£áĥľ áĥ£
ĠáĥĺáĥĻ áĥĲáĥĹ
ĠáĥŀáĥłáĥĿáĥķáĥĺáĥľáĥª áĥĺáĥĶáĥ¤áĥĺáĥĹ
ĠáĥĻáĥĲáĥľ áĥĿáĥľ
ĠáĥĵáĥĿáĥľ áĥĶáĥ¡
ĠáĥĲáĥļáĥĳ áĥĶáĥłáĥ¢
Ġáĥĺáĥ¢ áĥĲáĥļáĥĺáĥĲáĥłáĥĺ
ĠáĥĽáĥĲáĥ¦ áĥĲáĥĸ
ĠáĥķáĥĺáĥĹ áĥĿáĥ®áĥ£áĥĹáĥĺ
ĠáĥĴáĥķáĥĶáĥłáĥĵ áĥĺáĥ¨áĥĶ
Ġáĥ¸áĥĿáĥ¤ áĥĶ
Ġáĥ¡áĥĲáĥ¥áĥķáĥĲáĥł áĥ£áĥĲ
ĠáĥĻáĥĿáĥľáĥ¢áĥł áĥĿáĥļáĥĺ
Ġáĥªáĥ®áĥĿáĥķáĥł áĥĶáĥĳáĥĲáĥ¨
Ġáĥªáĥ®áĥĿáĥķáĥł áĥĶáĥĳáĥĲ
ĠáĥĲáĥłáĥ¥áĥĺáĥŀáĥĶáĥļáĥĲáĥĴ áĥĺáĥ¡
ĠáĥľáĥĲáĥĹ áĥĲáĥľáĥĴ
áĥĹáĥ¥ áĥķáĥĲ
áĥĿ áĥĲáĥĽáĥ¨áĥķáĥĺ
áĥ£ áĥĲáĥļáĥĶáĥ¤áĥĺ
áĥĲáĥľ áĥĶáĥłáĥĿ
ĠáĥĽ áĥĺáĥĿáĥĵ
Ġáĥĵ áĥ£
áĥĶáĥ¤ áĥĺáĥ¡
áĥł áĥĿáĥļ
áĥĽ áĥĲáĥ¢
áĥĽ áĥĺáĥĽ
áĥĺáĥľ áĥĲáĥļáĥ£
ĠáĥĴ áĥĲáĥķ
áĥĲáĥ¡ áĥ®áĥ£áĥľ
áĥ£áĥł áĥ£áĥĽ
ĠáĥĹ áĥĿáĥ¸
Ġáĥľ áĥĿáĥ®
Ġáĥľ áĥĿáĥ¬
Ġáĥľ áĥĶáĥĳáĥĲáĥ¨
Ġáĥ¡ áĥĺáĥ¤
ĠáĥĻ áĥĲáĥłáĥĺáĥ¨
ĠáĥĻ áĥĲáĥĸ
ĠáĥĻ áĥĿáĥŀ
áĥĲáĥ¤ áĥĲáĥļáĥĶáĥ¤áĥĺ
ĠáĥĿáĥ °
áĥ® áĥĲáĥľ
áĥ® áĥ£áĥł
áĥ® áĥĲáĥŀ
áĥĿáĥł áĥĺáĥĹ
Ġáĥĺ áĥĶáĥ¡
Ġáĥĺ áĥĿáĥ¡áĥĶ
áĥĶáĥł áĥĶáĥĽáĥĺ
áĥĵ áĥĶáĥĻ
áĥļ áĥĲáĥł
áĥļ áĥĺáĥłáĥĺ
áĥĿáĥĳ áĥĶáĥļáĥĺ
áĥĿáĥļ áĥĲáĥ¨
áĥ¨ áĥķáĥĶáĥĵ
áĥľ áĥĲáĥ¢
Ġáĥ¤ áĥĶáĥłáĥĺáĥ¨
áĥĶáĥľ áĥĺáĥĲáĥ¡
Ġáĥ¥ áĥ£áĥĲáĥľ
Ġáĥ¢ áĥ£áĥļ
Ġáĥ¢ áĥĿáĥŀ
Ġáĥ® áĥĶáĥĹ
áĥĺáĥĽ áĥ¡
áĥĹ áĥĺáĥĲáĥł
Ġáĥļ áĥĺáĥľáĥ¯áĥĺáĥ¨
áĥ£áĥĵ áĥĺáĥ¡
ĠáĥĿ áĥĶáĥĴ
Ġáĥĸ áĥĿáĥĽ
áĥĲáĥª áĥĺáĥ£áĥļ
áĥĺáĥ¡áĥ¢ áĥ£áĥļ
áĥĲáĥĴ áĥĿáĥĴ
áĥĲáĥĳ áĥĺáĥ¨
áĥłáĥ ¨áĥĶ
áĥĶáĥ¢ áĥĲáĥ¨
áĥĶáĥ¢ áĥĺáĥĽáĥĿáĥļáĥĿáĥĴáĥĺáĥĲ
áĥĿáĥĳáĥĲáĥ¨ áĥĿ
áĥĲáĥľáĥĴ áĥ£
áĥĶáĥĻ áĥĲ
áĥĶáĥĻ áĥĺáĥ¨
Ġáĥª áĥĶáĥł
Ġáĥ° áĥĶáĥĽ
ĠáĥĴáĥ·áĥĽ áĥĿáĥĳáĥŁ
ĠáĥĴáĥ·áĥĽ áĥĿáĥ¥áĥĺáĥĽáĥĺáĥľáĥ£
ĠáĥĳáĥŁ áĥĶ
Ġáĥ¬áĥĲáĥľáĥĽáĥĿáĥ¬ áĥĲáĥľáĥ£áĥłáĥĺ
áĥĺáĥķ áĥĺ
ĠáĥĵáĥĶáĥĻ áĥļáĥĲáĥł
ĠáĥľáĥĿáĥłáĥĹ áĥĺáĥ¨áĥĶ
ĠáĥĽáĥĺáĥ¨ áĥĺáĥľáĥ£
ĠáĥĽáĥĺáĥ¨ áĥĲáĥ¸áĥĿáĥľ
ĠáĥĻáĥĿáĥĽ áĥĺáĥ¡
Ġáĥ¢áĥĶáĥłáĥĺáĥ¢áĥĿáĥł áĥĺáĥ£áĥļ
ĠáĥĴáĥĺáĥ¨ áĥĲáĥłáĥ©áĥ¥
ĠáĥĲáĥĻáĥĽ áĥĿáĥ®
ĠáĥĲáĥĻáĥĽ áĥĲáĥ¥áĥĺáĥĽ
ĠáĥĽáĥ£áĥľ áĥĲáĥĻáĥķáĥĲáĥĹ
Ġáĥľáĥ ¬
Ġáĥľáĥ ¯áĥĲáĥłáĥĺáĥ¨
áĥĲáĥłáĥ¡ áĥĶáĥĳáĥĶáĥľáĥ¡
ĠáĥªáĥĶáĥľáĥ¢ áĥłáĥĺáĥ¨
Ġáĥ¡áĥ¢ áĥĺáĥļáĥĺáĥ¨
áĥĶáĥłáĥĴ áĥĺ
ĠáĥĽáĥ£áĥĹ áĥ£áĥľ
Ġáĥ¨áĥĲáĥľáĥ£áĥļ áĥĿáĥĳáĥĲáĥĹ
áĥĿáĥ¡áĥ¥ áĥĺáĥĵáĥ·
Ġáĥ¯áĥĿáĥ®áĥĿ áĥĶáĥ¤áĥĺ
ĠáĥłáĥĿáĥĽ áĥĲáĥ£áĥļ
ĠáĥĳáĥŁáĥĲáĥĶáĥĺáĥĿáĥļ áĥ¡
ĠáĥŃáĥĲáĥł áĥĺáĥļ
ĠáĥĽáĥĶáĥłáĥ ¡áĥ®
áĥĲáĥŃáĥ§ áĥĲáĥ¤áĥ£
áĥĿáĥ©áĥĲáĥĽ áĥĲáĥĹ
áĥĳáĥŁáĥĲáĥĵáĥĲáĥļ áĥ£áĥ¨áĥĶ
ĠáĥĲáĥĵáĥĲáĥĽáĥĺáĥĶáĥł áĥĶáĥ¤áĥĺ
ĠáĥĽáĥ£áĥĵáĥĴ áĥĲáĥ¥áĥ·áĥĹ
ĠáĥŀáĥĲáĥ¢ áĥ·áĥľ
ĠáĥĽáĥĺáĥľ áĥ£áĥ¨
ĠáĥĴáĥĶáĥłáĥĴ áĥĶáĥĸ
ĠáĥĲáĥ¥ áĥª
ĠáĥľáĥĲáĥ®áĥĲáĥľáĥĵ áĥĶáĥ¤áĥ¡
áĥĽáĥĲ áĥĲáĥłáĥĹ
ĠáĥķáĥĺáĥĹ áĥĺ
Ġáĥ¸áĥĿáĥ¤ áĥĺáĥĶáĥł
ĠáĥĲáĥķáĥ¡áĥ¢áĥł áĥĲáĥļáĥĺáĥĲáĥ¡
ĠáĥĶáĥŃáĥĿáĥ¤ áĥ£áĥĲáĥ¨
Ġáĥ©áĥĲáĥľ áĥĲáĥłáĥĺáĥ¨
ĠáĥłáĥĶáĥĴáĥĺáĥĿáĥľ áĥĿ
áĥĲáĥŁ áĥĺ
Ġáĥ¢áĥĶáĥłáĥĺáĥ¢áĥĿáĥłáĥĺáĥĲáĥ¨ áĥĲ
áĥĻáĥĲáĥł áĥĺáĥĳáĥĺáĥ¨
ĠáĥĺáĥŃáĥ§ áĥĲáĥľáĥ¡
ĠáĥŀáĥĲáĥłáĥ¢ áĥĺáĥĲáĥ¨
ĠáĥĽáĥĶáĥĵ áĥĺáĥľáĥ·
Ġáĥ£áĥ«áĥĲáĥ® áĥ£áĥĵáĥĶáĥ¡
Ġáĥ¡áĥĲ áĥĲáĥĽ
ĠáĥĲáĥĺ áĥ¬
ĠáĥĴáĥĲáĥĴ áĥĽ
ĠáĥĳáĥĲáĥĸ áĥĺáĥļáĥĺáĥĻáĥĲ
ĠáĥĶáĥļáĥĶáĥ¥áĥ¢áĥł áĥĿáĥĽáĥĲáĥĴáĥľ
Ġáĥ£áĥł áĥ£áĥĴ
ĠáĥĲáĥľáĥĴ áĥĲáĥłáĥĺáĥ¨
ĠáĥĽáĥĶáĥ¨áĥ¥áĥĲáĥ¨ áĥĲáĥļáĥĲáĥĹ
Ġáĥ¤áĥĲáĥł áĥĲáĥľáĥ¡
ĠáĥľáĥĿáĥļáĥĶáĥ¥ áĥĶáĥ¤áĥĺ
ĠáĥļáĥĲáĥķ áĥĲáĥ¨
ĠáĥŀáĥłáĥĿáĥ¢ áĥĶ
áĥĲáĥłáĥ¡áĥ®áĥ£áĥĲáĥ¤ áĥĲáĥļáĥĺ
ĠáĥļáĥĺáĥĴ áĥĲáĥ¨
ĠáĥĻáĥĿáĥĽáĥ£áĥľ áĥĺáĥĻ
ĠáĥĴáĥĿáĥ®áĥĿáĥļ áĥ£áĥĲáĥ¨
ĠáĥĴáĥļáĥĿáĥĳ áĥ£áĥ¡áĥĺ
ĠáĥĿáĥ¡áĥ£áĥł áĥĶáĥ¤áĥĺáĥ¨
ĠáĥĹáĥĺáĥĹ áĥĿ
Ġáĥ¤áĥĲáĥ¥áĥ¢ áĥĿáĥĳáĥ£áĥłáĥĿ
ĠáĥĶáĥŀáĥĿáĥ¥ áĥĲáĥ¡
ĠáĥĻáĥĶáĥłáĥ« áĥĿáĥĹ
áĥĺáĥľáĥĵáĥĿ áĥĶáĥĹáĥĺ
ĠáĥĶáĥļáĥĲáĥ® áĥ¨áĥĶ
ĠáĥŀáĥĿáĥ¡áĥ¢ áĥĺáĥ¡
áĥĽáĥĲáĥ®áĥĿáĥł áĥĿáĥĳáĥĲ
ĠáĥĽáĥĺáĥĿáĥ¬ áĥ£áĥłáĥ£
©áĥ¥áĥĺáĥľáĥĶáĥļ áĥĺáĥĶ
ĠáĥļáĥĺáĥľáĥĴ áĥķ
ĠáĥĲáĥĻáĥĿáĥ¨áĥ¥ áĥ£áĥĽáĥĲáĥļ
Ġáĥ£áĥłáĥĵ áĥ£
áĥĶáĥľáĥĶáĥłáĥĴ áĥĺáĥĲ
ĠáĥĳáĥļáĥĿáĥĻ áĥĺáĥ¨
áĥĲáĥłáĥĺáĥ¡áĥ® áĥĲáĥĽáĥĺ
ĠáĥŀáĥĲáĥ¢áĥĺáĥĿáĥ ª
Ġáĥĳáĥĺáĥĳáĥļ áĥĺáĥĿáĥĹ
ĠáĥĵáĥĲáĥ¡áĥĲáĥ¤áĥ£áĥļ áĥĶáĥĳáĥ£áĥłáĥĺ
Ġáĥ¥áĥ£áĥĲáĥľ áĥĿáĥ¨áĥ¥
ĠáĥĿáĥĶáĥĴ áĥĶáĥĳáĥĺáĥĶáĥĹ
áĥĺ áĥĲáĥ¢
áĥĺáĥľ áĥĶáĥĹ
ĠáĥĴ áĥĿáĥļáĥĺ
áĥĲáĥĽ áĥĶ
ĠáĥĹ áĥ®áĥ£
Ġáĥľ áĥĲáĥĴ
Ġáĥ£ áĥ¡áĥĲáĥ¤
áĥĺáĥł áĥĺáĥľáĥĵáĥ£
Ġáĥ¨ áĥĲáĥ°
áĥĶáĥĳ áĥĶáĥļáĥĺáĥ¨
áĥĶáĥļ áĥĲáĥľáĥĵ
áĥĲáĥ® áĥĺ
áĥĶáĥľ áĥĲáĥ¡
áĥĿáĥĵ áĥĺ
áĥĿáĥĵ áĥĺáĥłáĥĹáĥ·
Ġáĥ° áĥĶáĥłáĥĽ
áĥĺáĥĶáĥ¤ áĥ¨áĥĶ
áĥĲáĥłáĥĴ áĥĶáĥľáĥ¢
Ġáĥĵáĥ£áĥĵ áĥĺáĥ¡
ĠáĥĽáĥĿáĥ® áĥķáĥĲáĥł
Ġáĥ¡áĥĻ áĥĲáĥľ
áĥĲáĥĺáĥľ áĥĺ
Ġáĥ¬áĥ·áĥĽáĥĿáĥ« áĥĺáĥľáĥĶáĥļáĥĺ
áĥĲáĥ¢áĥĿáĥł áĥ£áĥļáĥĺ
ĠáĥĲáĥľáĥĵ áĥĲáĥļáĥ£áĥ¡
áĥĻáĥķáĥĺáĥĹ áĥĲ
ĠáĥĵáĥĺáĥľáĥĲáĥ¡áĥ¢ áĥĺáĥĲáĥ¥
ĠáĥĴáĥĺáĥľáĥĿáĥŃáĥ§ áĥķáĥĲáĥĵ
ĠáĥĽáĥĺáĥľáĥĺáĥĽ áĥ£áĥĽ
ĠáĥĽáĥĿáĥľáĥ¦ áĥĿáĥļ
Ġáĥ£áĥľáĥĲáĥłáĥ¦áĥĶáĥļ áĥ¸áĥĿáĥ¤
Ġáĥ¡áĥĲáĥĳáĥĶáĥłáĥ«áĥľ áĥĶáĥĹáĥĺáĥ¡
Ġáĥ£áĥ¡áĥĲáĥ¤ áĥłáĥĹáĥ®
áĥ£ áĥĲáĥ¨áĥĲ
áĥĲáĥľ áĥĺáĥĲáĥ¡
Ġáĥĵ áĥĲáĥľ
Ġáĥĺ áĥĲáĥķ
áĥĻ áĥ·
áĥĻ áĥĲáĥĳ
Ġáĥĳ áĥĺáĥłáĥªáĥ®
áĥĺáĥł áĥĲáĥ¤áĥĺáĥļ
áĥĿáĥļ áĥ¬áĥĿáĥľ
áĥĺáĥļ áĥĶáĥ¡
Ġáĥ¨ áĥĶáĥĽ
áĥĲáĥ® áĥĿáĥļ
áĥĺáĥĽ áĥĺáĥľáĥĵ
áĥĲáĥ¥ áĥ£áĥľ
Ġáĥļ áĥĶáĥ¥
áĥ£áĥĲáĥ¤ áĥĲáĥ¨
áĥĶáĥĵ áĥĺ
Ġáĥ¬áĥ§ áĥ£áĥ¨
Ġáĥ° áĥĿáĥĻ
ĠáĥŃ áĥ£áĥłáĥŃ
Ġáĥĺáĥľáĥĵ áĥĶáĥ¥áĥ¡
áĥ£áĥ¦ áĥ·
Ġáĥĳáĥł áĥĺáĥ£áĥ¡
ĠáĥĲáĥ¡ áĥŀ
Ġáĥ¢áĥĶáĥłáĥĺáĥ¢áĥĿáĥł áĥĺáĥ£áĥļáĥĺ
ĠáĥĴáĥĺáĥ¨ áĥĲáĥĴáĥĿáĥłáĥĺáĥļáĥĺ
Ġáĥ£áĥ¦ áĥ£áĥľáĥĲ
ĠáĥĽáĥĿáĥ® áĥķáĥĲáĥłáĥĲáĥĹ
Ġáĥ¡áĥ¢ áĥĺáĥķ
ĠáĥŃáĥĲáĥł áĥĲáĥļáĥ£áĥĲ
ĠáĥĿáĥĽáĥĲáĥ¤ áĥĶáĥ¡
Ġáĥ©áĥ¥ áĥĺáĥĽ
áĥĺáĥ© áĥĺáĥ¨
ĠáĥĺáĥľáĥĴáĥļáĥĺáĥ¡ áĥĺáĥ¡
ĠáĥĶáĥľáĥ ĵ
ĠáĥĽáĥĲáĥłáĥ ªáĥ®
áĥĲáĥªáĥĺáĥĿáĥľ áĥĲáĥļáĥ£áĥł
ĠáĥĽáĥĲáĥĴ áĥĲáĥļáĥĺáĥĹ
ĠáĥĶáĥ¥ áĥĺáĥĽ
Ġáĥ¤áĥĺáĥĸ áĥĺáĥĻáĥ£áĥł
ipp en
ĠáĥĶáĥ¡áĥŀáĥĲáĥľ áĥĶáĥĹáĥĺ
ĠáĥŁáĥĺáĥłáĥ ¨áĥĲ
ĠáĥĹáĥ£áĥłáĥ¥ áĥĶáĥĹáĥĺáĥ¡
ĠáĥłáĥĶáĥļáĥĺáĥĴ áĥĺáĥĲáĥ¨
ĠáĥĻáĥĿáĥĽáĥŀáĥĺáĥ£áĥ¢ áĥĶáĥłáĥ£áĥļáĥĺ
ĠáĥĵáĥĿáĥłáĥ¡áĥ®áĥ£áĥĲáĥ¤ áĥĺáĥļáĥĺ
ĠáĥĶáĥļáĥĶáĥ¥áĥ¢áĥł áĥĿ
ĠáĥĽáĥĿáĥĳ áĥ£áĥłáĥĹáĥĶ
Ġáĥ¬áĥĺáĥľáĥĴ áĥĺ
ĠáĥļáĥĿáĥľáĥĵ áĥĿáĥľáĥ¡
áĥľáĥĿáĥ¦ áĥĲ
Ġáĥ£áĥłáĥĹáĥĺáĥĲáĥłáĥĹ áĥ¥áĥĺáĥĽáĥĺáĥľáĥ¯
ĠáĥĿáĥ¥áĥĺáĥĲáĥľ áĥ£
ĠáĥĳáĥĲáĥļ áĥ¢
áĥĶáĥĵáĥĺáĥª áĥĺáĥľáĥĶ
Ġáĥ£áĥĹáĥĲáĥłáĥĲáĥ¨ áĥĺ
ĠáĥĸáĥĿáĥĴ áĥĲáĥĵáĥĿ
Ġáĥĺáĥ£áĥľáĥĶáĥ¡áĥĻ áĥĿáĥ¨
Ġáĥ®áĥĲáĥ¡áĥĺáĥĲáĥĹ áĥĺáĥ¨
Ġáĥĵáĥ·áĥĽáĥĲáĥłáĥ¡áĥ®áĥ£áĥĲáĥ¤ áĥĲáĥļáĥĺ
áĥĺáĥ¡áĥ¢áĥĿáĥł áĥĺáĥ£áĥļáĥĺ
ĠáĥłáĥĶáĥĵ áĥĲáĥ¥áĥ¢
ĠáĥŀáĥĿáĥĸáĥĺáĥª áĥĺáĥĲáĥ¡
ĠáĥĲáĥŃ áĥĲáĥłáĥĲáĥ¨
Ġáĥĺáĥľáĥĵáĥĺáĥķ áĥĺáĥĵáĥ£
áĥ¡áĥĲáĥĽáĥĲáĥľáĥĴ áĥĲáĥĹ
ĠáĥĿáĥ©áĥ£áĥ¥ áĥĶáĥłáĥĶáĥ¤áĥĺ
ĠáĥĲáĥĽáĥ£áĥĵáĥ¦ áĥĲáĥłáĥ¨
áĥĿáĥ ©áĥ¥
áĥ¡ áĥĻáĥĺáĥ¨
áĥĲáĥ¤ áĥĶáĥ¤áĥ¡
áĥĿáĥł áĥĿáĥ¨
Ġáĥ¬áĥĲáĥľ áĥĲáĥĹ
áĥĿáĥļ áĥĲ
Ġáĥ¤ áĥĺáĥłáĥ¥
Ġáĥª áĥĺáĥļ
ĠCh at
Ġáĥłáĥ¡áĥ® áĥ£áĥļáĥĺ
áĥ©áĥ® áĥĿáĥłáĥĿáĥ¨
ĠáĥĽáĥĲáĥĸ áĥĿáĥ¯
ĠáĥĻ áĥĺáĥł
áĥ¨ áĥĺáĥłáĥĲáĥ¡
Ġáĥŀ áĥĿáĥ¡
Ġáĥŀ áĥĺáĥ¥áĥ¡
Ġáĥŀ áĥ¢áĥĿáĥļáĥĶáĥĽ
Ġáĥ® áĥ¨áĥĺáĥłáĥĲáĥ¡
ĠáĥĲáĥłáĥĹ áĥ¨áĥĲ
áĥĺáĥĸ áĥĿáĥľáĥ¢
áĥĲáĥĺ áĥĲáĥ¨
áĥĲáĥĺ áĥ¢
Ġáĥ¡áĥĲáĥ® áĥĶáĥ¨
áĥĶáĥľáĥª áĥĺáĥĻáĥļáĥĿáĥŀáĥĶáĥĵ
áĥĲáĥłáĥ¢ áĥ¤
áĥ£áĥĲáĥľ áĥĿáĥĳáĥĲ
ĠáĥŀáĥĶáĥł áĥ£áĥ¡
ĠáĥĶáĥĵ áĥĺáĥľáĥĳ
ĠáĥĻáĥ£áĥĳ áĥĲáĥ¨áĥĲ
ĠáĥłáĥĲáĥĴáĥĲáĥĵ áĥĲáĥľáĥĵáĥ·
ĠáĥĶáĥľáĥªáĥĺáĥĻáĥļáĥĿáĥŀáĥĶáĥĵ áĥĺáĥ£áĥłáĥĺ
ĠáĥĻáĥĿáĥľáĥ¤ áĥĶáĥĵáĥĶáĥł
Ġáĥ¡áĥĲáĥĽáĥĲáĥłáĥĹ áĥĲáĥļáĥĺ
Ġáĥ£áĥĵ áĥĽáĥ£áĥłáĥ¢
Ġáĥ¨áĥĶáĥ¥áĥ¡áĥŀ áĥĺáĥłáĥĺáĥ¨
áĥĻáĥļáĥĲáĥłáĥ¯ áĥĶáĥĹáĥĺáĥ¨
ĠáĥłáĥĶáĥ¤áĥĿáĥłáĥĽ áĥĲáĥ¨
Ġáĥ©áĥ®áĥķ áĥĺáĥľáĥĵáĥĺáĥ¨
ĠáĥĳáĥĲáĥ¢áĥĺáĥ¡áĥ¢ áĥĲáĥ¨
Ġáĥ¡áĥ£áĥķ áĥĶáĥłáĥĶáĥľ
Ġáĥ£áĥľáĥķáĥĶáĥłáĥ¡ áĥ¢
Ġy ou
ĠJ er
à¸¸ à¹Į
à¸° à¸Ļ
Ã¶r ungen
ien z
Ġges ucht
d y
à¸Ńà¸Ńà¸ģ à¸¡à¸²
ĠfÃ¼hl en
Ġsinn voll
Ã¤uf e
à¸ģà¸²à¸£ à¹Ģà¸¥
ĠChe f
ĠTrum p
à´´ à´ª
ĠWer te
Ġkomp lex
ĠWik i
b indung
ĠSp iegel
en kt
Ġs ystem
Ġv e
o cken
ag d
Ġein iges
Ġinteress iert
ĠO bst
ĠSp r
akt or
D ien
i cial
wend ungs
à´¹ à´Ļ
Ã¡n s
ĠZ Ã¼r
Ġbeein fl
à¸ģ à¹ģà¸¥à¸°
ĠM und
à¹Ģà¸ŀ à¸Ĭà¸£
ĠS achsen
Ġx est
rau ben
à¸Ļà¸ª à¸¡
Ġ {
ĠÃ¼bern immt
18 99
ĠK ein
ĠAuf nahme
Ġà´Ĳ à´ķ
r ut
E E
M a
à¸Ķ à¸ļ
à¸ŀà¸£à¸° à¸£à¸²à¸Ĭ
àµįâĢį âĢĭ
Ġà´ī à´Łà´®
189 4
Ġs ehe
Ġu til
Ġstar ke
ĠOrd nung
ĠB ol
7 50
ĠDre h
ert o
Ġbek annten
à´³ à´°
à´¯ à´Ł
ber ech
ĠBlu es
à¹Ģà¸ĭ à¸Ńà¸£
st eiger
Ġm ark
Ġà´Ĭ à´°
Ġesp ec
ĠJahr zehn
ĠF rist
à¸²à¸Ħ à¸£
ĠUnter schied
Ġwunder schÃ¶n
à¸¢ à¸²à¸§
à¸¡ à¸Ħ
ĠSt ruktur
ĠUn ternehmer
ĠKarls ruhe
ĠgewÃ¤hr leisten
à´§ à´¨à´¯
Ġver arbeiten
à´¸ à´ª
g Ã¤nger
à¸Ļ à¹Ģà¸Ĥ
ick s
Ġor den
Ġfrei will
Ġl aden
Ġaus geb
ĠKom fort
Ġaus ges
ĠJ ungen
à¸£ à¸ª
ar tet
em en
ĠSp e
[...]
