{
  "version": "1.0",
  "truncation": null,
  "padding": null,
  "added_tokens": [
    {
      "id": 0,
      "content": "[UNK]",
      "single_word": false,
      "lstrip": false,
      "rstrip": false,
      "normalized": false,
      "special": true
    }
  ],
  "normalizer": null,
  "pre_tokenizer": {
    "type": "Sequence",
    "pretokenizers": [
      {
        "type": "Digits",
        "individual_digits": false
      },
      {
        "type": "ByteLevel",
        "add_prefix_space": false,
        "trim_offsets": true,
        "use_regex": true
      }
    ]
  },
  "post_processor": null,
  "decoder": null,
  "model": {
    "type": "BPE",
    "dropout": null,
    "unk_token": "[UNK]",
    "continuing_subword_prefix": null,
    "end_of_word_suffix": null,
    "fuse_unk": false,
    "byte_fallback": false,
    "vocab": {
      "[UNK]": 0,
      "!": 1,
      "\"": 2,
      "#": 3,
      "$": 4,
      "%": 5,
      "&": 6,
      "'": 7,
      "(": 8,
      ")": 9,
      "*": 10,
      "+": 11,
      ",": 12,
      "-": 13,
      ".": 14,
      "/": 15,
      "0": 16,
      "1": 17,
      "2": 18,
      "3": 19,
      "4": 20,
      "5": 21,
      "6": 22,
      "7": 23,
      "8": 24,
      "9": 25,
      ":": 26,
      ";": 27,
      "<": 28,
      "=": 29,
      ">": 30,
      "?": 31,
      "@": 32,
      "A": 33,
      "B": 34,
      "C": 35,
      "D": 36,
      "E": 37,
      "F": 38,
      "G": 39,
      "H": 40,
      "I": 41,
      "J": 42,
      "K": 43,
      "L": 44,
      "M": 45,
      "N": 46,
      "O": 47,
      "P": 48,
      "Q": 49,
      "R": 50,
      "S": 51,
      "T": 52,
      "U": 53,
      "V": 54,
      "W": 55,
      "X": 56,
      "Y": 57,
      "Z": 58,
      "[": 59,
      "\\": 60,
      "]": 61,
      "^": 62,
      "_": 63,
      "`": 64,
      "a": 65,
      "b": 66,
      "c": 67,
      "d": 68,
      "e": 69,
      "f": 70,
      "g": 71,
      "h": 72,
      "i": 73,
      "j": 74,
      "k": 75,
      "l": 76,
      "m": 77,
      "n": 78,
      "o": 79,
      "p": 80,
      "q": 81,
      "r": 82,
      "s": 83,
      "t": 84,
      "u": 85,
      "v": 86,
      "w": 87,
      "x": 88,
      "y": 89,
      "z": 90,
      "{": 91,
      "|": 92,
      "}": 93,
      "~": 94,
      "¡": 95,
      "¢": 96,
      "£": 97,
      "¤": 98,
      "¥": 99,
      "¦": 100,
      "§": 101,
      "¨": 102,
      "©": 103,
      "ª": 104,
      "«": 105,
      "¬": 106,
      "®": 107,
      "¯": 108,
      "°": 109,
      "±": 110,
      "²": 111,
      "³": 112,
      "´": 113,
      "µ": 114,
      "¶": 115,
      "·": 116,
      "¸": 117,
      "¹": 118,
      "º": 119,
      "»": 120,
      "¼": 121,
      "½": 122,
      "¾": 123,
      "¿": 124,
      "Â": 125,
      "Ã": 126,
      "Ä": 127,
      "Å": 128,
      "Æ": 129,
      "Ç": 130,
      "È": 131,
      "É": 132,
      "Ê": 133,
      "Ë": 134,
      "Ì": 135,
      "Í": 136,
      "Î": 137,
      "Ï": 138,
      "Ð": 139,
      "Ñ": 140,
      "Ò": 141,
      "Ó": 142,
      "Ô": 143,
      "Õ": 144,
      "Ö": 145,
      "×": 146,
      "Ø": 147,
      "Ù": 148,
      "Ú": 149,
      "Û": 150,
      "Ü": 151,
      "à": 152,
      "á": 153,
      "â": 154,
      "ã": 155,
      "ä": 156,
      "å": 157,
      "æ": 158,
      "ç": 159,
      "è": 160,
      "é": 161,
      "ê": 162,
      "ë": 163,
      "ì": 164,
      "í": 165,
      "î": 166,
      "ï": 167,
      "ð": 168,
      "Ā": 169,
      "Ă": 170,
      "ă": 171,
      "ą": 172,
      "Ć": 173,
      "ć": 174,
      "Ĉ": 175,
      "ĉ": 176,
      "Ċ": 177,
      "ċ": 178,
      "Č": 179,
      "Đ": 180,
      "Ĝ": 181,
      "ĝ": 182,
      "Ğ": 183,
      "ğ": 184,
      "Ġ": 185,
      "ġ": 186,
      "Ģ": 187,
      "ģ": 188,
      "Ĥ": 189,
      "ĥ": 190,
      "Ħ": 191,
      "ħ": 192,
      "Ĩ": 193,
      "ĩ": 194,
      "Ī": 195,
      "ī": 196,
      "Ĭ": 197,
      "ĭ": 198,
      "Į": 199,
      "į": 200,
      "İ": 201,
      "ı": 202,
      "Ĳ": 203,
      "ĳ": 204,
      "Ĵ": 205,
      "ĵ": 206,
      "Ķ": 207,
      "ķ": 208,
      "ĸ": 209,
      "Ĺ": 210,
      "ĺ": 211,
      "Ļ": 212,
      "ļ": 213,
      "Ľ": 214,
      "ľ": 215,
      "Ŀ": 216,
      "ŀ": 217,
      "Ł": 218,
      "ł": 219,
      "Ń": 220,
      "áĥ": 221,
      "à´": 222,
      "áĥĲ": 223,
      "à¸": 224,
      "Ġáĥ": 225,
      "áĥĲáĥ": 226,
      "àµ": 227,
      "áĥĺ": 228,
      "áĥĺáĥ": 229,
      "àµį": 230,
      "áĥĶ": 231,
      "áĥĿ": 232,
      "áĥĶáĥ": 233,
      "en": 234,
      "áĥĿáĥ": 235,
      "Ġà´": 236,
      "áĥ£": 237,
      "er": 238,
      "áĥ£áĥ": 239,
      "à¹": 240,
      "à´¿": 241,
      "ch": 242,
      "łáĥ": 243,
      "Ġd": 244,
      "à´¨": 245,
      "àµģ": 246,
      "ei": 247,
      "áĥĲáĥľ": 248,
      "âĢ": 249,
      "à´ķ": 250,
      "à´¤": 251,
      "à´¾": 252,
      "un": 253,
      "ĠáĥĽ": 254,
      "áĥĲáĥ¨": 255,
      "ie": 256,
      "áĥĺáĥ¨": 257,
      "à´°": 258,
      "à´¯": 259,
      "st": 260,
      "Ġáĥĵ": 261,
      "áĥĲáĥļ": 262,
      "à´Ł": 263,
      "in": 264,
      "ľáĥ": 265,
      "an": 266,
      "à¸²": 267,
      "à´²": 268,
      "áĥĶáĥ¤": 269,
      "áĥ·": 270,
      "àµĨ": 271,
      "àµįâĢ": 272,
      "à¸²à¸": 273,
      "áĥĲáĥłáĥ": 274,
      "áĥł": 275,
      "Ġa": 276,
      "es": 277,
      "Ġs": 278,
      "áĥĽ": 279,
      "à´Ĥ": 280,
      "áĥĺáĥľ": 281,
      "ĠáĥĴ": 282,
      "à¸Ļ": 283,
      "àµįâĢį": 284,
      "áĥĲáĥł": 285,
      "on": 286,
      "Ŀáĥ": 287,
      "ein": 288,
      "áĥĲáĥ¡": 289,
      "ich": 290,
      "áĥķ": 291,
      "ĠS": 292,
      "Ġun": 293,
      "áĥĲáĥĽ": 294,
      "áĥ£áĥł": 295,
      "Ã¼": 296,
      "à´±": 297,
      "à¹Ī": 298,
      "à´ª": 299,
      "áĥ¡": 300,
      "à¸Ń": 301,
      "ar": 302,
      "à´®": 303,
      "Ġw": 304,
      "ĠáĥĹ": 305,
      "el": 306,
      "Ġáĥł": 307,
      "áĥ¢": 308,
      "à¸£": 309,
      "à¹Ģ": 310,
      "Ġáĥľ": 311,
      "as": 312,
      "ļáĥĺ": 313,
      "à´³": 314,
      "Ġáĥ¬": 315,
      "Ġm": 316,
      "à´µ": 317,
      "Ġáĥ¡": 318,
      "or": 319,
      "ĠáĥĻ": 320,
      "à´£": 321,
      "áĥĲáĥ¤": 322,
      "te": 323,
      "à¸ģ": 324,
      "al": 325,
      "ĠáĥĿáĥ": 326,
      "à¹ī": 327,
      "ung": 328,
      "it": 329,
      "Ã¤": 330,
      "ge": 331,
      "Ġund": 332,
      "Ġdie": 333,
      "Ġ(": 334,
      "áĥ®": 335,
      "ĠâĢ": 336,
      "ĠáĥĵáĥĿ": 337,
      "Ġv": 338,
      "at": 339,
      "ĠA": 340,
      "áĥĿáĥł": 341,
      "sch": 342,
      "à¸±": 343,
      "Ġb": 344,
      "à¸ĩ": 345,
      "à´ļ": 346,
      "Ġn": 347,
      "Ġáĥĺ": 348,
      "à¹Ģà¸": 349,
      "Ġein": 350,
      "áĥĺáĥ¡": 351,
      "Ġà´ª": 352,
      "Ġder": 353,
      "áĥĻ": 354,
      "ĠB": 355,
      "ĠD": 356,
      "à¸¡": 357,
      "à¸µ": 358,
      "àµĭ": 359,
      "áĥĶáĥľáĥ": 360,
      "à´¸": 361,
      "à´Ļ": 362,
      "Ġà´ķ": 363,
      "ur": 364,
      "Ġi": 365,
      "áĥ¥": 366,
      "àµĩ": 367,
      "hr": 368,
      "ten": 369,
      "Ġz": 370,
      "Ġáĥ¬áĥĲáĥľ": 371,
      "áĥĶáĥł": 372,
      "em": 373,
      "us": 374,
      "áĥĲáĥĹ": 375,
      "ĠM": 376,
      "áĥĲáĥĵ": 377,
      "áĥĵ": 378,
      "áĥĿáĥłáĥ": 379,
      "Ġf": 380,
      "der": 381,
      "áĥļ": 382,
      "gen": 383,
      "ĠáĥłáĥĶ": 384,
      "àµģà´Ĥ": 385,
      "à¸§": 386,
      "áĥĿáĥĳ": 387,
      "Ġin": 388,
      "ter": 389,
      "Ġáĥĳ": 390,
      "à¸Ķ": 391,
      "Ġáĥ£": 392,
      "à¸¥": 393,
      "áĥĺáĥł": 394,
      "áĥĿáĥļ": 395,
      "Ġh": 396,
      "ĠE": 397,
      "ĠF": 398,
      "Ġà´µ": 399,
      "áĥĲáĥłáĥĹ": 400,
      "à¸¢": 401,
      "den": 402,
      "ĠP": 403,
      "et": 404,
      "ĠG": 405,
      "áĥĺáĥĹ": 406,
      "uf": 407,
      "ĠK": 408,
      "ra": 409,
      "áĥ¨": 410,
      "ĠáĥĲáĥ": 411,
      "áĥľ": 412,
      "áĥĺáĥļ": 413,
      "à¸´": 414,
      "Ġà´¸": 415,
      "Ġáĥŀ": 416,
      "ti": 417,
      "Ġáĥ¨": 418,
      "ol": 419,
      "Ã¶": 420,
      "ĠW": 421,
      "áĥĶáĥĳ": 422,
      "à¸Ĺ": 423,
      "Ġk": 424,
      "áĥĶáĥ¨": 425,
      "áĥĶáĥ¤áĥĺáĥ¨": 426,
      "ĠI": 427,
      "ĠáĥĶ": 428,
      "áĥĴ": 429,
      "Ġà´ħ": 430,
      "à¸ļ": 431,
      "Ġà´®": 432,
      "ĠáĥĽáĥ£áĥ": 433,
      "ir": 434,
      "áĥĿáĥľ": 435,
      "Ġà´¨": 436,
      "à¸ª": 437,
      "de": 438,
      "áĥĺáĥĻ": 439,
      "Ġg": 440,
      "áĥĶáĥļ": 441,
      "áĥĶáĥ¡": 442,
      "Ġp": 443,
      "áĥ£áĥłáĥĺ": 444,
      "áĥ£áĥļáĥĺ": 445,
      "le": 446,
      "ro": 447,
      "lich": 448,
      "ber": 449,
      "ĠT": 450,
      "ĠáĥľáĥĲáĥĽ": 451,
      "Ġáĥķ": 452,
      "à¸ķ": 453,
      "áĥĲáĥ®": 454,
      "Ġáĥ¤": 455,
      "um": 456,
      "à¸°": 457,
      "áĥĶáĥ¤áĥĺ": 458,
      "ĠH": 459,
      "à¸«": 460,
      "is": 461,
      "áĥĿáĥ¡": 462,
      "áĥ·áĥĽ": 463,
      "à¸Ħ": 464,
      "re": 465,
      "áĥĺáĥľáĥ": 466,
      "áĥĶáĥłáĥ": 467,
      "os": 468,
      "Ã¼r": 469,
      "ĠV": 470,
      "àµĢ": 471,
      "ĠâĢĶ": 472,
      "om": 473,
      "áĥ£áĥļ": 474,
      "áĥĶáĥľ": 475,
      "à¹ģ": 476,
      "ach": 477,
      "Ġáĥ¥": 478,
      "ĠR": 479,
      "am": 480,
      "eit": 481,
      "áĥĶáĥĹ": 482,
      "Ġo": 483,
      "ck": 484,
      "à´¦": 485,
      "áĥĺáĥĶ": 486,
      "ĠL": 487,
      "Ġáĥ¢": 488,
      "áĥĿáĥ¨": 489,
      "uch": 490,
      "ut": 491,
      "il": 492,
      "áĥĺáĥĿáĥ": 493,
      "áĥĿáĥĽ": 494,
      "áĥ§": 495,
      "Ġdas": 496,
      "20": 497,
      "à´·": 498,
      "áĥĲáĥ¢": 499,
      "ier": 500,
      "Ġáĥĺáĥ": 501,
      "Ġáĥ®": 502,
      "áĥĺáĥ£": 503,
      "Ġzu": 504,
      "Ġden": 505,
      "Ġan": 506,
      "áĥĺáĥĽ": 507,
      "áĥĺáĥĲáĥľ": 508,
      "19": 509,
      "ĠáĥľáĥĲáĥĽáĥ£áĥ": 510,
      "ben": 511,
      "áĥĶáĥ¤áĥ¡": 512,
      "Ġmit": 513,
      "Ġà´¤": 514,
      "à¹Ħ": 515,
      "ĵáĥ·": 516,
      "áĥĿáĥ®": 517,
      "Ġer": 518,
      "áĥĲáĥ¥": 519,
      "áĥ¦": 520,
      "àµĤ": 521,
      "áĥĺáĥĲáĥ¨": 522,
      "áĥŀ": 523,
      "Ġge": 524,
      "áĥĺáĥĵ": 525,
      "ig": 526,
      "áĥĹ": 527,
      "ent": 528,
      "áĥĺáĥ¢": 529,
      "Ġà´İ": 530,
      "icht": 531,
      "Ġc": 532,
      "à¸Ī": 533,
      "and": 534,
      "Ġáĥ¯": 535,
      "ĠN": 536,
      "Ġvon": 537,
      "à¸Ľ": 538,
      "âĢĭ": 539,
      "Ġauf": 540,
      "Ġist": 541,
      "à¹ĥ": 542,
      "ĠáĥĽáĥĲ": 543,
      "Ġe": 544,
      "Ġal": 545,
      "áĥ¬": 546,
      "Ġáĥłáĥ": 547,
      "..": 548,
      "Ġl": 549,
      "à¸·": 550,
      "Ġáĥļ": 551,
      "ÃŁ": 552,
      "isch": 553,
      "ĠC": 554,
      "Ġver": 555,
      "à¸²à¸£": 556,
      "áĥĺáĥĲ": 557,
      "áĥĳ": 558,
      "âĢľ": 559,
      "à¸¸": 560,
      "áĥ£áĥłáĥ": 561,
      "ĠfÃ¼r": 562,
      "à´ŀ": 563,
      "áĥĺáĥļáĥĺ": 564,
      "áĥĺáĥłáĥ": 565,
      "se": 566,
      "áĥ¤": 567,
      "à¸Ńà¸ĩ": 568,
      "ell": 569,
      "áĥĿáĥľáĥ": 570,
      "Ġde": 571,
      "sen": 572,
      "rei": 573,
      "à¸µà¹Ī": 574,
      "ann": 575,
      "Ġim": 576,
      "eh": 577,
      "Ġ-": 578,
      "ion": 579,
      "à´§": 580,
      "ĠâĢŀ": 581,
      "à¹Į": 582,
      "áĥĿáĥłáĥĹ": 583,
      "00": 584,
      "áĥŁ": 585,
      "à´¶": 586,
      "ĠU": 587,
      "Ġà´ļ": 588,
      "à¸¹": 589,
      "áĥĶáĥĽ": 590,
      "à¹ĩ": 591,
      "Ġt": 592,
      "áĥ£áĥĽ": 593,
      "à¸Ĥ": 594,
      "à´ķà´³": 595,
      "ĠZ": 596,
      "Ġà´ĩ": 597,
      "ĠáĥĹáĥĶ": 598,
      "à´Ĺ": 599,
      "áĥĲáĥļáĥĺ": 600,
      "ser": 601,
      "áĥ£áĥľ": 602,
      "ad": 603,
      "nen": 604,
      "áĥĿáĥ¦": 605,
      "ab": 606,
      "àµįâĢĮ": 607,
      "áĥĿáĥ¤": 608,
      "Ġà´Ĩ": 609,
      "Ġáĥ©": 610,
      "àµ½": 611,
      "ĠSt": 612,
      "Ġáĥ¬áĥĲáĥľáĥĲ": 613,
      "àµĬ": 614,
      "Ġwir": 615,
      "à¸ŀ": 616,
      "àµį.": 617,
      "ĠáĥĲáĥłáĥ": 618,
      "ĠVer": 619,
      "Ġsich": 620,
      "men": 621,
      "ĠáĥĲáĥĻ": 622,
      "au": 623,
      "ĠJ": 624,
      "Ġdes": 625,
      "à¸Ĭ": 626,
      "Ġbe": 627,
      "áĥĲáĥľáĥĵ": 628,
      "áĥķáĥĲáĥļ": 629,
      "Ġnicht": 630,
      "áĥĲáĥľáĥ¡": 631,
      "áĥ£áĥĵ": 632,
      "àµ¼": 633,
      "ĠáĥĽáĥĶáĥ": 634,
      "ĠSch": 635,
      "à´´": 636,
      "ind": 637,
      "och": 638,
      "ci": 639,
      "à¹Ĥ": 640,
      "ag": 641,
      "ĠáĥĿ": 642,
      "ff": 643,
      "áĥĲáĥĻ": 644,
      "à´¹": 645,
      "à¸³": 646,
      "Ġes": 647,
      "qu": 648,
      "Ġaus": 649,
      "à´¨à´¤": 650,
      "Ġsch": 651,
      "áĥłáĥĺ": 652,
      "ĠSie": 653,
      "ĠIn": 654,
      "áĥĺáĥ¥": 655,
      "áĥĶáĥľáĥ¢": 656,
      "iel": 657,
      "Ġeine": 658,
      "Ġáĥĺáĥľáĥ": 659,
      "kt": 660,
      "ahr": 661,
      "ing": 662,
      "áĥĿáĥĴ": 663,
      "áĥĿáĥĹ": 664,
      "áĥĿáĥĵ": 665,
      "áĥ£áĥĹ": 666,
      "à´Ļà´³": 667,
      "Ġáĥ¬áĥĲáĥľáĥĲáĥ¨": 668,
      "ĠáĥĿáĥ¨": 669,
      "Ġáĥĸ": 670,
      "àµģ.": 671,
      "sp": 672,
      "áĥĲáĥª": 673,
      "ĠO": 674,
      "ft": 675,
      "áĥĺáĥ¡áĥ¢": 676,
      "Ġdem": 677,
      "ĠAn": 678,
      "Ġáĥĵáĥ¦": 679,
      "áĥĶáĥ¥": 680,
      "eu": 681,
      "áĥĲáĥľáĥ£áĥł": 682,
      "sten": 683,
      "ungen": 684,
      "áĥĲáĥĴ": 685,
      "201": 686,
      "à¸²à¸Ļ": 687,
      "áĥĲáĥĳ": 688,
      "à´ľ": 689,
      "ver": 690,
      "Ġso": 691,
      "Ã³": 692,
      "ah": 693,
      "ri": 694,
      "Ġauch": 695,
      "à¸ģà¸²à¸£": 696,
      "Ġà´İà´¨": 697,
      "ehr": 698,
      "áĥ£áĥ¡": 699,
      "Ġáĥŀáĥł": 700,
      "áĥ£áĥ¨": 701,
      "Ã¼ber": 702,
      "Ã¤n": 703,
      "Ġbei": 704,
      "ĠáĥĲáĥłáĥĹ": 705,
      "ot": 706,
      "áĥĶáĥľáĥĵ": 707,
      "ul": 708,
      ").": 709,
      "áĥĲáĥłáĥĺ": 710,
      "áĥ®áĥķ": 711,
      "à¸²à¸¢": 712,
      "áĥĺáĥĸ": 713,
      "eg": 714,
      "áĥ¬áĥĲáĥľáĥ£áĥł": 715,
      "áĥĲáĥłáĥĺáĥ¨": 716,
      "áĥ¯": 717,
      "áĥ£áĥĲáĥ¤": 718,
      "áĥłáĥ": 719,
      "áĥĲáĥķ": 720,
      "áĥĿáĥĻ": 721,
      "áĥĶáĥ¢": 722,
      "áĥĶáĥĴ": 723,
      "ĠáĥĹáĥĺáĥľ": 724,
      "di": 725,
      "áĥĿáĥĳáĥĲáĥ¨": 726,
      "áĥĲáĥĺ": 727,
      "Ġst": 728,
      "à¸²à¸ĩ": 729,
      "Ġáĥ¬áĥĲáĥľáĥĲáĥ¡": 730,
      "áĥ¨áĥĶ": 731,
      "áĥĺáĥĲáĥ¡": 732,
      "Ġwer": 733,
      "),": 734,
      "ĠDie": 735,
      "Ġj": 736,
      "oll": 737,
      "ern": 738,
      "áĥĿáĥķ": 739,
      "áĥĶáĥļáĥĺ": 740,
      "Ġoder": 741,
      "áĥĲáĥľáĥĴ": 742,
      "Ġà´Ĵ": 743,
      "Ġáĥĵáĥ¦áĥĲ": 744,
      "ĠÐ": 745,
      "à¸£à¸°": 746,
      "eich": 747,
      "ĠáĥĿáĥ¨áĥ¬áĥĲáĥľáĥ£áĥł": 748,
      "est": 749,
      "à¸²à¸¡": 750,
      "ik": 751,
      "à¸²à¸ģ": 752,
      "à´¬": 753,
      "ation": 754,
      "áĥĲáĥłáĥĻ": 755,
      "áĥĲáĥľáĥĲ": 756,
      "ic": 757,
      "ĠáĥĽáĥĲáĥĲáĥłáĥĹ": 758,
      "áĥĺáĥĴ": 759,
      "áĥĶáĥĵ": 760,
      "und": 761,
      "etz": 762,
      "Ġà´ī": 763,
      "Ġà´°": 764,
      "áĥ·áĥĽáĥĲ": 765,
      "ĠÃ¼ber": 766,
      "Ã³n": 767,
      "Ġwie": 768,
      "esch": 769,
      "Ġáĥ¦": 770,
      "à´µà´°": 771,
      "áĥĶáĥĻ": 772,
      "im": 773,
      "ort": 774,
      "Ġáĥłáĥĵáĥ·": 775,
      "Ã¶n": 776,
      "Ġqu": 777,
      "¡áĥ®": 778,
      "Ġ\"": 779,
      "ĠáĥĻáĥĲáĥļ": 780,
      "áĥĶáĥĹáĥĺáĥ¨": 781,
      "à´¡": 782,
      "wei": 783,
      "Ġwerden": 784,
      "Ġals": 785,
      "áĥĲáĥĸ": 786,
      "Ġda": 787,
      "18": 788,
      "Ġáĥ¬áĥ§": 789,
      "ĠáĥĿáĥłáĥ": 790,
      "à´Ń": 791,
      "áĥ·áĥľ": 792,
      "ungs": 793,
      "be": 794,
      "à¹ģà¸¥": 795,
      "àµ»": 796,
      "ĠáĥĽáĥĲáĥĲáĥłáĥĹáĥĲ": 797,
      "Ġà´¬": 798,
      "Ġáĥ£áĥĽ": 799,
      "Ġáĥª": 800,
      "mer": 801,
      "ĠÃ": 802,
      "áĥĻáĥ·áĥĽáĥĲ": 803,
      "Ġáĥ£áĥĻ": 804,
      "áĥĲáĥĽáĥĺ": 805,
      "àµ¾": 806,
      "áĥ£áĥľáĥ": 807,
      "ĠáĥľáĥĿáĥ¦": 808,
      "ĠáĥĹáĥĺáĥ¨": 809,
      "ĠáĥŁ": 810,
      "Ġich": 811,
      "áĥĲáĥļáĥ£": 812,
      "à´¥": 813,
      "10": 814,
      "ĠáĥľáĥĲáĥĽáĥ£áĥĹ": 815,
      "Ġsind": 816,
      "áĥĶáĥ¨áĥĶ": 817,
      "la": 818,
      "Ġà¹Ģà¸": 819,
      "ĠáĥĽáĥ£áĥ¨": 820,
      "enn": 821,
      "hn": 822,
      "Ġà´ľ": 823,
      "àµĪ": 824,
      "à´¯à´¤": 825,
      "Ġáĥ°": 826,
      "ĠEr": 827,
      "ĠUn": 828,
      "ien": 829,
      "áĥĺáĥľáĥ£": 830,
      "all": 831,
      "ĠáĥľáĥĲáĥĽáĥ£áĥ¨": 832,
      "áĥĲáĥ¨áĥĶ": 833,
      "áĥ·áĥĹ": 834,
      "áĥĺáĥłáĥĺ": 835,
      "he": 836,
      "Ġque": 837,
      "end": 838,
      "tig": 839,
      "ha": 840,
      "Ńáĥ§": 841,
      "áĥĶáĥķ": 842,
      "áĥĿáĥĳáĥĲ": 843,
      "áĥĿáĥŀ": 844,
      "áĥª": 845,
      "à¸ĸ": 846,
      "Ġhat": 847,
      "op": 848,
      "ĠâĢĵ": 849,
      "áĥĲáĥ¦": 850,
      "eil": 851,
      "ĠEin": 852,
      "à¸ľ": 853,
      "áĥĲáĥļáĥ£áĥłáĥĺ": 854,
      "Ġr": 855,
      "Ġum": 856,
      "à¸·à¹Ī": 857,
      "áĥĶáĥłáĥĺ": 858,
      "áĥľáĥ": 859,
      "ĠSp": 860,
      "à¸¶": 861,
      "urch": 862,
      "Ġvor": 863,
      "200": 864,
      "Ð°": 865,
      "eine": 866,
      "áĥĿáĥłáĥ£": 867,
      "áĥĿáĥ¬": 868,
      "áĥĺáĥª": 869,
      "áĥĲáĥłáĥĻáĥĺ": 870,
      "áĥļáĥĺ": 871,
      "áĥĲáĥ©": 872,
      "Ġáĥľáĥĺáĥľ": 873,
      "áĥ©": 874,
      "ĠáĥĻáĥĲáĥļáĥĶáĥľáĥĵ": 875,
      "chen": 876,
      "áĥĶáĥľáĥ¡": 877,
      "áĥĲáĥľáĥ¢": 878,
      "Ġnach": 879,
      "ĠáĥĲáĥĽ": 880,
      "à¹ĥà¸Ļ": 881,
      "ĠáĥĴáĥ·áĥĽ": 882,
      "...": 883,
      "áĥ£áĥĳ": 884,
      "ist": 885,
      "ĠáĥĿáĥĳ": 886,
      "Ġsie": 887,
      "hal": 888,
      "ang": 889,
      "Ġà´¶": 890,
      "ischen": 891,
      "à¸Ńà¸Ļ": 892,
      "Ã¼n": 893,
      "ĠáĥĴáĥĺáĥľ": 894,
      "ĠáĥĿáĥ¨áĥ¬áĥĲáĥľáĥ£áĥłáĥĲáĥ¨": 895,
      "ers": 896,
      "og": 897,
      "Ġáĥ¥áĥĺáĥĲáĥľ": 898,
      "ĠX": 899,
      "Ġáĥ¨áĥ®áĥķ": 900,
      "à´°à´¤": 901,
      "ĠPro": 902,
      "ciÃ³n": 903,
      "à¹Ģà¸Ľ": 904,
      "orm": 905,
      "anz": 906,
      "ÃŃ": 907,
      "Ã¤t": 908,
      "áĥĲáĥłáĥĽ": 909,
      "Ð¾": 910,
      "Ġdass": 911,
      "Ðµ": 912,
      "iv": 913,
      "Ġwird": 914,
      "©áĥ¥": 915,
      "ĠáĥĳáĥŁ": 916,
      "ĠáĥĿáĥĻ": 917,
      "wer": 918,
      "ĠáĥŃ": 919,
      "Ġre": 920,
      "id": 921,
      "à´¿.": 922,
      "aben": 923,
      "áĥĲáĥ¨áĥĲ": 924,
      "tern": 925,
      "hl": 926,
      "Ð¸": 927,
      "cht": 928,
      "áĥĲáĥ¤áĥĺáĥļáĥĺ": 929,
      "ru": 930,
      "à¹ĥà¸«": 931,
      "à¹ģà¸¥à¸°": 932,
      "kti": 933,
      "Ġihr": 934,
      "art": 935,
      "áĥĲáĥľáĥ£áĥłáĥĺ": 936,
      "áĥĶáĥ¤áĥĺáĥĹ": 937,
      "áĥĿáĥ¢": 938,
      "à¹Ħà¸Ķ": 939,
      "áĥĲáĥ£": 940,
      "à´ķà´°": 941,
      "Ã¡": 942,
      "à¸Ńà¸¢": 943,
      "Ġent": 944,
      "eb": 945,
      "áĥĺáĥŀ": 946,
      "Ġà´Ĵà´°": 947,
      "aus": 948,
      "ger": 949,
      "áĥ¢áĥł": 950,
      "áĥĲáĥłáĥĲ": 951,
      "Ġeinen": 952,
      "stell": 953,
      "ĠáĥĲáĥļ": 954,
      "ĠáĥĽáĥĲáĥ®": 955,
      "áĥ£áĥĲáĥ¤áĥ£": 956,
      "áĥĿáĥļáĥĿ": 957,
      "ste": 958,
      "Ġeiner": 959,
      "Ġsein": 960,
      "auf": 961,
      "tet": 962,
      "áĥ®áĥĲ": 963,
      "áĥĲáĥľáĥĺ": 964,
      "áĥĽáĥĿáĥ¬": 965,
      "Ġáĥ¬áĥĲáĥľáĥĽáĥĿáĥ¬": 966,
      "ĠkÃ¶n": 967,
      "ĠAr": 968,
      "pp": 969,
      "áĥĿáĥłáĥĹáĥ£": 970,
      "ĠáĥĲáĥĵ": 971,
      "ed": 972,
      "ick": 973,
      "à¹Ģà¸£": 974,
      "áĥĺáĥ£áĥļáĥĺ": 975,
      "Ġab": 976,
      "à¸±à¹ī": 977,
      "Ġáĥ¸": 978,
      "Ġà´²": 979,
      "áĥĺáĥ¯": 980,
      "Ġam": 981,
      "áĥĺáĥ£áĥłáĥĺ": 982,
      "áĥĺáĥĿáĥľ": 983,
      "Ġzur": 984,
      "utz": 985,
      "scha": 986,
      "Ã¼ck": 987,
      "bl": 988,
      "Ã¶r": 989,
      "áĥĿáĥ©": 990,
      "Ġzum": 991,
      "Ġwar": 992,
      "ĠáĥĲáĥłáĥ«": 993,
      "aten": 994,
      "áĥ¨áĥĲ": 995,
      "eiter": 996,
      "Ġkann": 997,
      "áĥĿáĥłáĥ¯": 998,
      "ĠÂ": 999,
      "ĠAl": 1000,
      "Ġáĥ¯áĥĿáĥ®": 1001,
      "áĥĲáĥĶ": 1002,
      "zu": 1003,
      "áĥĺáĥĶáĥ¤": 1004,
      "Ġáĥ¨áĥ¥": 1005,
      "itt": 1006,
      "ler": 1007,
      "Ġman": 1008,
      "Ġáĥ¬áĥĲáĥľáĥĽáĥĿáĥ¬áĥĲáĥľáĥĲ": 1009,
      "Ġáĥĺáĥľáĥĵ": 1010,
      "Ġdurch": 1011,
      "Ġáĥĵáĥĺáĥĵ": 1012,
      "17": 1013,
      "áĥĲáĥłáĥĵ": 1014,
      "à¸ĭ": 1015,
      "à´°à´®": 1016,
      "ner": 1017,
      "rÃ¤": 1018,
      "ĠáĥĻáĥĲáĥļáĥĶáĥľáĥĵáĥĲáĥłáĥĺáĥ¨": 1019,
      "áĥĺáĥķ": 1020,
      "Ġeinem": 1021,
      "ĠIhr": 1022,
      "áĥ£áĥ¦": 1023,
      "à´Łà´¤": 1024,
      "rie": 1025,
      "che": 1026,
      "lichen": 1027,
      "à¸Ĥà¸Ńà¸ĩ": 1028,
      "à´¯à´®": 1029,
      "15": 1030,
      "áĥĲáĥĵáĥĲáĥ¨": 1031,
      "áĥĿáĥ¥": 1032,
      "ĠáĥĽáĥ£áĥŃ": 1033,
      "à¸ĵ": 1034,
      "gt": 1035,
      "áĥĺáĥľáĥĴ": 1036,
      "Ã¤r": 1037,
      "Ġunter": 1038,
      "à¸«à¸Ļ": 1039,
      "áĥĶáĥļáĥĺáĥ¨": 1040,
      "áĥĲáĥļáĥĲáĥ¨": 1041,
      "Ġáĥ¡áĥĲáĥ®": 1042,
      "12": 1043,
      "ĠáĥĻáĥĿáĥľáĥ": 1044,
      "ran": 1045,
      "à´ķà´¯": 1046,
      "lin": 1047,
      "áĥĿáĥ¡áĥĿáĥ¤": 1048,
      "eiten": 1049,
      "áĥĺáĥĶáĥł": 1050,
      "áĥ£áĥĵáĥ·": 1051,
      "Ġáĥ£áĥĻáĥ£áĥļáĥĺ": 1052,
      "elt": 1053,
      "Ġunser": 1054,
      "fÃ¼": 1055,
      "Ġnoch": 1056,
      "ont": 1057,
      "uss": 1058,
      "Ġà´¦": 1059,
      "ĠáĥĵáĥĶáĥĻ": 1060,
      "áĥĶáĥłáĥ¡": 1061,
      "ĠáĥĹáĥĺáĥľáĥĲ": 1062,
      "iert": 1063,
      "áĥĲáĥĹáĥĶ": 1064,
      "áĥĲáĥŀ": 1065,
      "bt": 1066,
      "áĥĺáĥ®": 1067,
      "ische": 1068,
      "ĠáĥĿáĥ®": 1069,
      "ĠRe": 1070,
      "Ġhaben": 1071,
      "pf": 1072,
      "ant": 1073,
      "ÑĤ": 1074,
      "áĥĲáĥłáĥĴ": 1075,
      "áĥĲáĥľáĥ¯": 1076,
      "Ġà´ħà´¤": 1077,
      "áĥĲáĥ¤áĥĲ": 1078,
      "ĠJahr": 1079,
      "schl": 1080,
      "Ñģ": 1081,
      "à¹Ħà¸¡": 1082,
      "geb": 1083,
      "Ġáĥ¬áĥ·áĥĽ": 1084,
      "ĠáĥĹáĥĲáĥ¨": 1085,
      "ªáĥ®": 1086,
      "áĥ¢áĥĲáĥ¢": 1087,
      "à¹Ģà¸ģ": 1088,
      "Die": 1089,
      "Ġáĥ¤áĥĺáĥļ": 1090,
      "áĥĲáĥ¤áĥĲáĥ¨": 1091,
      "áĥĶáĥ¨áĥĲ": 1092,
      "áĥĺáĥłáĥĹ": 1093,
      "ĠáĥľáĥĿáĥłáĥĹ": 1094,
      "Ġáĥ£áĥĽáĥĿáĥ¡": 1095,
      "¬áĥĻáĥ·áĥĽáĥĲ": 1096,
      "iz": 1097,
      "áĥĺáĥĻáĥĲáĥ¨": 1098,
      "âĢĭâĢĭ": 1099,
      "ĠAus": 1100,
      "áĥĶáĥľáĥ¬": 1101,
      "àµĥ": 1102,
      "à¹Ģà¸¥": 1103,
      "Ġnur": 1104,
      "ĠáĥĶáĥĻ": 1105,
      "ess": 1106,
      "ĠáĥĽáĥ£áĥŃáĥĿáĥĹ": 1107,
      "her": 1108,
      "Ġà´ªà´±": 1109,
      "Ġáĥĵáĥ£áĥĵ": 1110,
      "ĠáĥĵáĥĶáĥĻáĥĲáĥĵáĥĲáĥ¨": 1111,
      "áĥĶáĥĸ": 1112,
      "ĠkÃ¶nnen": 1113,
      "II": 1114,
      "ĠáĥĽáĥĺáĥ¨": 1115,
      "à´¾à´Ĥ": 1116,
      "áĥĺáĥĳ": 1117,
      "Ġáĥĳáĥł": 1118,
      "áĥĺáĥĹáĥĿáĥ¨": 1119,
      "Ġáĥĺáĥĵ": 1120,
      "liche": 1121,
      "à¸Ńà¸ģ": 1122,
      "áĥ¢áĥĿáĥł": 1123,
      "hen": 1124,
      "16": 1125,
      "áĥĺáĥ¢áĥĿáĥł": 1126,
      "áĥĶáĥ¤áĥ¥": 1127,
      "à¸¨": 1128,
      "à¸Ħà¸§": 1129,
      "ieren": 1130,
      "ĠEn": 1131,
      "Ð½": 1132,
      "Ġen": 1133,
      "à¸Ħà¸£": 1134,
      "ster": 1135,
      "Ġáĥ¡áĥĲáĥ¥": 1136,
      "ĠáĥĽáĥĲáĥ®áĥĿáĥł": 1137,
      "od": 1138,
      "ĠBe": 1139,
      "ĠáĥĲáĥķ": 1140,
      "Ġaber": 1141,
      "à´ĸ": 1142,
      "Ġà´Ń": 1143,
      "Ġáĥ¢áĥĶáĥł": 1144,
      "Ġsp": 1145,
      "áĥĺáĥĿáĥļ": 1146,
      "13": 1147,
      "ĠáĥĳáĥĿáĥłáĥ¯": 1148,
      "ĠáĥĿáĥĳáĥŁ": 1149,
      "à¸Ľà¸£à¸°": 1150,
      "schaft": 1151,
      "áĥĲáĥłáĥĶ": 1152,
      "Ġmehr": 1153,
      "ĠáĥķáĥĲáĥľ": 1154,
      "arb": 1155,
      "igen": 1156,
      "zen": 1157,
      "ĠáĥĹáĥĲáĥ¨áĥľ": 1158,
      "áĥĶáĥľáĥĺ": 1159,
      "Ġà´ħà´µ": 1160,
      "ok": 1161,
      "Ġáĥĸáĥ£áĥ¦": 1162,
      "ahl": 1163,
      "14": 1164,
      "áĥĺáĥľáĥ¯": 1165,
      "ĠáĥĴáĥł": 1166,
      "à´İ": 1167,
      "ĠDe": 1168,
      "Ġbis": 1169,
      "Ġwur": 1170,
      "ken": 1171,
      "bar": 1172,
      "Ġáĥ¨áĥ¥áĥĲáĥ¡": 1173,
      "ĠáĥĹáĥĲáĥ¨áĥľáĥĶáĥ¨áĥĶ": 1174,
      "ĠáĥĿáĥĽ": 1175,
      "pl": 1176,
      "à¸²à¸§": 1177,
      "áĥĶáĥ©": 1178,
      "ĠáĥĽáĥĲáĥ": 1179,
      "ĠáĥķáĥĲáĥľáĥĲáĥłáĥĻáĥĺ": 1180,
      "áĥ£áĥĲáĥ¨": 1181,
      "à¸ł": 1182,
      "Ġáĥĺáĥ£áĥļáĥĺ": 1183,
      "áĥ£áĥłáĥĴ": 1184,
      "Ġáĥĺáĥ£áĥļáĥĺáĥĲáĥľáĥ£áĥłáĥĺ": 1185,
      "áĥĺáĥľáĥĶáĥĳ": 1186,
      "ill": 1187,
      "à´«": 1188,
      "ĠáĥľáĥĿáĥ¦áĥĲ": 1189,
      "Ġáĥ®áĥĿáĥļáĥĿ": 1190,
      "ĠáĥĻáĥĿáĥĽ": 1191,
      "Ġdo": 1192,
      "ec": 1193,
      "áĥĿáĥķáĥĺáĥĹ": 1194,
      "à¸į": 1195,
      "ht": 1196,
      "ap": 1197,
      "Ġ|": 1198,
      "atz": 1199,
      "áĥ£áĥĲ": 1200,
      "à¸Īà¸°": 1201,
      "199": 1202,
      "ass": 1203,
      "ĠáĥĴáĥ·": 1204,
      "gel": 1205,
      "à¸§à¸¢": 1206,
      "ert": 1207,
      "Ã¤l": 1208,
      "ĠáĥĿáĥĿáĥłáĥ£": 1209,
      "ob": 1210,
      "dern": 1211,
      "áĥĲáĥłáĥĲáĥ¨": 1212,
      "áĥĵáĥĲ": 1213,
      "ÑĢ": 1214,
      "schen": 1215,
      ".[": 1216,
      "ĠáĥĲáĥ¤": 1217,
      "Ġall": 1218,
      "áĥĿáĥłáĥĺáĥľ": 1219,
      "aciÃ³n": 1220,
      "Ġà¸ª": 1221,
      "áĥĺáĥľáĥĵ": 1222,
      "à¸µà¹ī": 1223,
      "ex": 1224,
      "Ġpro": 1225,
      "Ġà´Ĺ": 1226,
      "me": 1227,
      "tra": 1228,
      "áĥ·áĥ¤": 1229,
      "áĥĶáĥľáĥª": 1230,
      "áĥĶáĥľáĥ¬áĥ·áĥ¤": 1231,
      "ige": 1232,
      "ĠáĥĲáĥ¡": 1233,
      "ĠBer": 1234,
      "keit": 1235,
      "ade": 1236,
      "áĥĿáĥ£": 1237,
      "Ġáĥ¢áĥĶáĥłáĥĺáĥ¢áĥĿáĥł": 1238,
      "gl": 1239,
      "ĠáĥĴáĥĺáĥ¨": 1240,
      "áĥĶáĥ¡áĥŀ": 1241,
      "form": 1242,
      "à¸Ļà¸Ĺ": 1243,
      "áĥĲáĥ¨áĥ®áĥĲ": 1244,
      "Ġuns": 1245,
      "ĠáĥĲáĥĽáĥĶáĥł": 1246,
      "Ġáĥ¨áĥ®áĥķáĥĲ": 1247,
      "25": 1248,
      "000": 1249,
      "áĥĿáĥľáĥĺ": 1250,
      "Ġdies": 1251,
      "áĥĴáĥĺáĥľ": 1252,
      "ĠAb": 1253,
      "ĠAuf": 1254,
      "ommen": 1255,
      "à¸©": 1256,
      "áĥĿáĥļáĥĿáĥĴ": 1257,
      "Ġander": 1258,
      "--": 1259,
      "áĥĶáĥľáĥĲ": 1260,
      "ĠáĥĴáĥķ": 1261,
      "áĥĸ": 1262,
      "à¸ĺ": 1263,
      "Ġáĥĺáĥłáĥ": 1264,
      "Ġà´¯": 1265,
      "ĠGr": 1266,
      "Ġáĥ¡áĥĲáĥ®áĥĶáĥľáĥ¬áĥ·áĥ¤": 1267,
      "áĥĿáĥ®áĥĿáĥļ": 1268,
      "áĥĲáĥ¤áĥĺáĥļ": 1269,
      "Ġà´ªà´°": 1270,
      "du": 1271,
      "Ġáĥ¨áĥĲáĥľ": 1272,
      "Ã©": 1273,
      "ug": 1274,
      "assen": 1275,
      "alt": 1276,
      "áĥĲáĥļáĥĲ": 1277,
      "ĠDas": 1278,
      "heit": 1279,
      "à¸Ł": 1280,
      "lei": 1281,
      "ac": 1282,
      "à¸Ħà¸§à¸²à¸¡": 1283,
      "fen": 1284,
      "áĥĲáĥłáĥ¢": 1285,
      "ffen": 1286,
      "acht": 1287,
      "ĠáĥĻáĥļ": 1288,
      "áĥ£áĥ¯": 1289,
      "à¸«à¸¥": 1290,
      "áĥłáĥĿáĥŀ": 1291,
      "glich": 1292,
      "áĥĲáĥľáĥĺáĥ¨": 1293,
      "30": 1294,
      "áĥ°": 1295,
      "Ġà´±": 1296,
      "à¹Ħà¸Ľ": 1297,
      "Ġáĥĺáĥ¡": 1298,
      "áĥĿáĥłáĥĽ": 1299,
      "ehen": 1300,
      "ast": 1301,
      "à´°à´£": 1302,
      "áĥĿáĥĸ": 1303,
      "ĠGe": 1304,
      "Ĺáĥ®": 1305,
      "à¸¹à¹ī": 1306,
      "Ġà´ĩà´¤": 1307,
      "áĥĺáĥľáĥĲáĥĹ": 1308,
      "Ġà´µà´°": 1309,
      "Ġáĥ¬áĥ§áĥĲáĥłáĥĽ": 1310,
      "ĠáĥĽáĥĿáĥ¡áĥĿáĥ¤": 1311,
      "Ð¾Ð": 1312,
      "Ġneu": 1313,
      "áĥĲáĥļáĥ£áĥł": 1314,
      "Ġcon": 1315,
      "à´Ĥ.": 1316,
      "Ã±": 1317,
      "Ġáĥ«": 1318,
      "ĠáĥĲáĥĵáĥĲáĥĽ": 1319,
      "ĠáĥĺáĥĵáĥķáĥĲáĥļ": 1320,
      "ĠáĥĴáĥĶáĥ¨áĥĲ": 1321,
      "abe": 1322,
      "áĥĶáĥľáĥ¯": 1323,
      "áĥłáĥĲáĥ¤": 1324,
      "omm": 1325,
      "ĠáĥĻáĥĿáĥĻ": 1326,
      "áĥ£áĥ¢": 1327,
      "ĠáĥĲáĥ®": 1328,
      "Ġà¸Ĺ": 1329,
      "rÃ¼": 1330,
      "ne": 1331,
      "ĠDer": 1332,
      "Ġpar": 1333,
      "Ãº": 1334,
      "Ġà´«": 1335,
      "áĥ£áĥłáĥ¡": 1336,
      "Ã¤hr": 1337,
      "áĥĲáĥĵáĥĲáĥļ": 1338,
      "ĠáĥĴáĥ·áĥ¨": 1339,
      "per": 1340,
      "ĠáĥĹáĥĺáĥ¨áĥĺ": 1341,
      "ĠVor": 1342,
      "áĥĶáĥĳáĥĲáĥ¨": 1343,
      "unden": 1344,
      "áĥ£áĥľáĥĲ": 1345,
      "Ġáĥ¡áĥĲáĥ¥áĥĿáĥłáĥĹáĥ£": 1346,
      "Ġà´ħà´¨": 1347,
      "ĠáĥĲáĥĳ": 1348,
      "áĥĲáĥĶáĥĺáĥĿáĥļ": 1349,
      "Ġáĥĵáĥĺáĥĵáĥĺ": 1350,
      "ÃŁen": 1351,
      "ĠMit": 1352,
      "ĴáĥĲáĥľ": 1353,
      "Ġà¹ģ": 1354,
      "Ġáĥ¯áĥķ": 1355,
      "Ġáĥ¤áĥĺáĥļáĥĽ": 1356,
      "áĥĺáĥ£áĥļ": 1357,
      "áĥĲáĥ¨áĥĺ": 1358,
      "áĥ£áĥĲáĥľ": 1359,
      "fer": 1360,
      "Ġber": 1361,
      "eigen": 1362,
      "ia": 1363,
      "áĥĲáĥļáĥĶ": 1364,
      "etzt": 1365,
      "à¤": 1366,
      "áĥ¬áĥĻáĥ·áĥĽáĥĲ": 1367,
      "Ġáĥ£áĥ¦": 1368,
      "50": 1369,
      "fahr": 1370,
      "áĥĺáĥľáĥĲáĥ¨": 1371,
      "à´µà´¨": 1372,
      "ĠáĥĿáĥ¤": 1373,
      "áĥ£áĥłáĥĹ": 1374,
      "ktion": 1375,
      "Ġà´ĩà´¨": 1376,
      "Ġje": 1377,
      "ĠâĢ¢": 1378,
      "Ġáĥ¬áĥĲáĥľáĥĶáĥ¤áĥ¡": 1379,
      "áĥ¢áĥ£áĥł": 1380,
      "ĠáĥĲáĥĻáĥĽ": 1381,
      "ĠáĥĽáĥ£áĥľ": 1382,
      "los": 1383,
      "Ġwenn": 1384,
      "Ġà¸ģ": 1385,
      "à´²à´¯": 1386,
      "ĠáĥŀáĥĶáĥł": 1387,
      "ss": 1388,
      "Ġà´¸à´®": 1389,
      "áĥ£áĥĳáĥļ": 1390,
      "ech": 1391,
      "áĥĲáĥľáĥĻ": 1392,
      "ild": 1393,
      "Ġáĥľáĥ": 1394,
      "áĥĶáĥĹáĥĺáĥ¡": 1395,
      "ekt": 1396,
      "mal": 1397,
      "ak": 1398,
      "à¸£à¸²à¸": 1399,
      "ges": 1400,
      "áĥĿáĥłáĥ¢": 1401,
      "áĥĶáĥĳáĥ£": 1402,
      "wie": 1403,
      "ust": 1404,
      "áĥĶáĥłáĥ«": 1405,
      "à¹Ģà¸ŀ": 1406,
      "Ġáĥłáĥ£áĥ¡": 1407,
      "áĥ£áĥĹáĥĲ": 1408,
      "áĥĲáĥłáĥ¡": 1409,
      "ĠáĥªáĥĶáĥľáĥ¢": 1410,
      "àµģà´Ĥ.": 1411,
      "à´Łà´¨": 1412,
      "ze": 1413,
      "res": 1414,
      "áĥłáĥĲáĥľáĥĴ": 1415,
      "ĠáĥĽáĥ£áĥ¨áĥĺ": 1416,
      "eln": 1417,
      "ĠáĥľáĥĲáĥĽáĥ£": 1418,
      "Ġviel": 1419,
      "Ġà´Ī": 1420,
      "áĥĶáĥ®": 1421,
      "Ġsoll": 1422,
      "Ġges": 1423,
      "Ġà´¹": 1424,
      "áĥĲáĥłáĥĹáĥĺ": 1425,
      "áĥĺáĥĻáĥ£áĥłáĥĺ": 1426,
      "ĠáĥĺáĥĵáĥķáĥĲáĥļáĥ£áĥĲáĥ¤áĥ£": 1427,
      "ehmen": 1428,
      "áĥĲáĥ¸": 1429,
      "war": 1430,
      "à¹Ģà¸Ĺ": 1431,
      "Ġweiter": 1432,
      "áĥĳáĥŁ": 1433,
      "ĠáĥłáĥĶáĥ¡áĥŀ": 1434,
      "nis": 1435,
      "à¹Ĩ": 1436,
      "age": 1437,
      "áĥĿáĥĳáĥĲáĥ¡": 1438,
      "rau": 1439,
      "à¸Ńà¸£": 1440,
      "áĥĶáĥłáĥĽ": 1441,
      "Ġcom": 1442,
      "áĥĺáĥĿ": 1443,
      "à¹Ģà¸Ķ": 1444,
      "eben": 1445,
      "áĥķáĥĲáĥĵ": 1446,
      "ĠáĥłáĥĶáĥ¡áĥŀáĥ£áĥĳáĥļ": 1447,
      "áĥŃ": 1448,
      "Ġà´Ł": 1449,
      "bst": 1450,
      "à¸«à¸£": 1451,
      "Ġdar": 1452,
      "âĢĿ": 1453,
      "áĥĲáĥŃ": 1454,
      "ĠáĥĿáĥĳáĥŁáĥĲáĥĹáĥĶ": 1455,
      "11": 1456,
      "gr": 1457,
      "áĥĺáĥĿáĥĵ": 1458,
      "Ġkl": 1459,
      "áĥĶáĥ¤áĥ¨áĥĶ": 1460,
      "áĥłáĥĺáĥ¨": 1461,
      "áĥĶáĥľáĥĵáĥ·": 1462,
      "à¸Ńà¸¡": 1463,
      "áĥĿáĥĳáĥĲáĥĹ": 1464,
      "áĥĺáĥĻáĥĲ": 1465,
      "âĢĵ": 1466,
      "Ġà´ı": 1467,
      "kl": 1468,
      "áĥĺáĥ¤": 1469,
      "ĠMar": 1470,
      "Ġgen": 1471,
      "ĠáĥĽáĥĿáĥ®": 1472,
      "ĠáĥĻáĥĽ": 1473,
      "Ġdann": 1474,
      "ov": 1475,
      "Ġx": 1476,
      "Ġà´¡": 1477,
      "Ġà¹ģà¸¥à¸°": 1478,
      "áĥ£áĥĻ": 1479,
      "à¸Ńà¸ļ": 1480,
      "áĥĲáĥ¡áĥ¢": 1481,
      "¬áĥ§": 1482,
      "ĠÂ·": 1483,
      "Ġà´¤à´¨": 1484,
      "Ġbes": 1485,
      "à¹Ģà¸Ĥ": 1486,
      "Ġwurde": 1487,
      "Ġhier": 1488,
      "ĠáĥĿáĥłáĥĴáĥĲáĥľ": 1489,
      "ĠáĥĽáĥ£áĥĵ": 1490,
      "ĠáĥĴáĥĶáĥķ": 1491,
      "Ġwieder": 1492,
      "elle": 1493,
      "áĥĿáĥĴáĥłáĥĲáĥ¤": 1494,
      "à´°à´ķ": 1495,
      "ĠDaten": 1496,
      "áĥķáĥĺáĥĹáĥĿáĥ¨": 1497,
      "ĠáĥĶáĥķ": 1498,
      "ohn": 1499,
      "Ġà´ĵ": 1500,
      "à¸Īà¸²à¸ģ": 1501,
      "áĥĶáĥ£": 1502,
      "áĥĲáĥļáĥĿ": 1503,
      "¡áĥ®áĥ£": 1504,
      "Ġáĥ¬áĥ§áĥĲáĥłáĥĽáĥĲáĥļáĥ£": 1505,
      "áĥĺáĥ£áĥł": 1506,
      "ĠáĥĳáĥĿáĥłáĥ¯áĥĺáĥ¡": 1507,
      "Ñĥ": 1508,
      "áĥĺáĥľáĥĺ": 1509,
      "ay": 1510,
      "áĥĺáĥľáĥª": 1511,
      "Ġsehr": 1512,
      "àµĩà´¾": 1513,
      "ÃŁe": 1514,
      "Ġáĥ¨áĥ¢áĥĲáĥ¢": 1515,
      "áĥĲáĥ¤áĥ£": 1516,
      "ĠáĥĽáĥĺ": 1517,
      "Ġdiese": 1518,
      "Ġáĥ¡áĥĲáĥĽ": 1519,
      "ĠáĥĻáĥĺáĥľ": 1520,
      "à´ķàµ¾": 1521,
      "Ġà¸¡": 1522,
      "áĥĺáĥľáĥĴáĥļ": 1523,
      "Ġet": 1524,
      "ack": 1525,
      "áĥĿáĥłáĥĺ": 1526,
      "ĠáĥĿáĥļ": 1527,
      "Ġáĥ©áĥĺáĥľáĥĶáĥĳ": 1528,
      "à¸ģà¸£": 1529,
      "Ġwas": 1530,
      "ĠWir": 1531,
      "att": 1532,
      "à¸²à¸Ĺ": 1533,
      "áĥĵáĥĺáĥĵ": 1534,
      "ow": 1535,
      "ĠáĥĴáĥĺáĥĽ": 1536,
      "Ġáĥ¥áĥĺáĥĲáĥľáĥĲáĥ¨": 1537,
      "áĥĿáĥľáĥĺáĥ¨": 1538,
      "196": 1539,
      "à´¯à´¨": 1540,
      "Ã¶glich": 1541,
      "fl": 1542,
      "à´°à´¸": 1543,
      "ĠHer": 1544,
      "áĥĲáĥľáĥĵáĥ·": 1545,
      "à¹Ģà¸«": 1546,
      "Ð»": 1547,
      "áĥĲáĥªáĥĺáĥĲáĥ¨": 1548,
      "ial": 1549,
      "hnen": 1550,
      "imm": 1551,
      "à´Łà´ķ": 1552,
      "áĥĶáĥ©áĥĵ": 1553,
      "áĥ¡áĥŀ": 1554,
      "à¸¹à¹Ī": 1555,
      "áĥĺáĥĿáĥĸ": 1556,
      "áĥĺáĥłáĥĿ": 1557,
      "à¸²à¸ª": 1558,
      "âĢľ,": 1559,
      "ibt": 1560,
      "Ġáĥ¡áĥĲáĥ®áĥĶáĥľáĥ¬áĥ·áĥ¤áĥĿ": 1561,
      "Ã¼t": 1562,
      "ĠáĥĺáĥĽ": 1563,
      "ord": 1564,
      "áĥķáĥĲáĥĽ": 1565,
      "Ġáĥ¡áĥ£áĥĽ": 1566,
      "áĥķáĥĺáĥļ": 1567,
      "ĠáĥĶáĥļ": 1568,
      "áĥķáĥĲáĥł": 1569,
      "Ġáĥ¡áĥ¥": 1570,
      "ke": 1571,
      "eld": 1572,
      "ĠáĥĿáĥ¡": 1573,
      "ĠáĥľáĥĲáĥĽáĥ£áĥĵ": 1574,
      "osten": 1575,
      "ĠáĥĽáĥ£áĥ¡": 1576,
      "erson": 1577,
      "à´¯à´ķ": 1578,
      "Ġimmer": 1579,
      "eite": 1580,
      "à¹Ģà¸ª": 1581,
      "à´°à´µ": 1582,
      "Ġher": 1583,
      "áĥĶáĥĳáĥĲ": 1584,
      "Ġáĥĵáĥĺáĥ®": 1585,
      "Ġ%": 1586,
      "Ġáĥ¡áĥ¢": 1587,
      "rin": 1588,
      "ĠáĥĶáĥĵ": 1589,
      "24": 1590,
      "áĥĺáĥĶáĥłáĥĺ": 1591,
      "ĠáĥĿáĥĿáĥłáĥ£áĥĶ": 1592,
      "ate": 1593,
      "à¸ģà¸¥": 1594,
      "fach": 1595,
      "Ġfin": 1596,
      "Ġhin": 1597,
      "fe": 1598,
      "áĥĶáĥłáĥĴ": 1599,
      "áĥĿáĥĽáĥ£áĥ¨": 1600,
      "Ġà´ķà´£": 1601,
      "ost": 1602,
      "Ġschon": 1603,
      "ĠáĥĹáĥĶáĥ¨": 1604,
      "Ġà¸Ħ": 1605,
      "Ġ,": 1606,
      "itÃ¤t": 1607,
      "ĠSo": 1608,
      "ĠZeit": 1609,
      "áĥĺáĥĲáĥľáĥ£áĥļáĥĺ": 1610,
      "áĥ£áĥľáĥ¡": 1611,
      "ĠáĥĴáĥ·áĥľ": 1612,
      "Ġáĥĺáĥ¸": 1613,
      "Ġlie": 1614,
      "rit": 1615,
      "ĠáĥľáĥĲáĥľ": 1616,
      "áĥĿáĥª": 1617,
      "áĥĺáĥĲáĥľáĥĺ": 1618,
      "ellen": 1619,
      "ĠEs": 1620,
      "à¸ļà¸£": 1621,
      "io": 1622,
      "à¸ĩà¸²à¸Ļ": 1623,
      "áĥĺáĥĻáĥĲáĥ¡": 1624,
      "ĠBl": 1625,
      "ĠáĥĲáĥłáĥ«áĥĲáĥ¨áĥĶ": 1626,
      "áĥ®áĥ£áĥľ": 1627,
      "Ġà¸£": 1628,
      "Ġle": 1629,
      "Ġgew": 1630,
      "fol": 1631,
      "à´¤à´®": 1632,
      "ĠáĥĴáĥłáĥĺáĥĴ": 1633,
      "ĠáĥĽáĥĿáĥ¡áĥĿáĥ¤áĥĶáĥļáĥĺáĥ¨": 1634,
      "ĠFl": 1635,
      "dem": 1636,
      "pt": 1637,
      "à¸´à¹Ī": 1638,
      "Ġáĥ¡áĥĿáĥĵ": 1639,
      "áĥĺáĥłáĥ¡": 1640,
      "lung": 1641,
      "Ġgro": 1642,
      "áĥĿáĥľáĥĿáĥĽ": 1643,
      "ĠáĥĽáĥĶáĥ¯": 1644,
      "à¸ķà¸£": 1645,
      "áĥĶáĥłáĥĺáĥ¨": 1646,
      "einen": 1647,
      "Ġà¹Ĥ": 1648,
      "ĠáĥĽáĥĲáĥ¡": 1649,
      "áĥĺáĥľáĥĲ": 1650,
      "ĠáĥĲ": 1651,
      "áĥ¢áĥĺ": 1652,
      "ĠáĥłáĥĶáĥĴ": 1653,
      "à¸§à¸Ļ": 1654,
      "ŀáĥĺáĥ¯": 1655,
      "áĥ£áĥłáĥĿ": 1656,
      "iele": 1657,
      "à¸¢à¸Ļ": 1658,
      "ĠáĥĴáĥķáĥĲáĥļ": 1659,
      "ĠáĥŀáĥĶáĥłáĥĺáĥĿáĥĵ": 1660,
      "áĥĶáĥĹáĥĺ": 1661,
      "Ã¤ch": 1662,
      "reis": 1663,
      "ou": 1664,
      "ĠUm": 1665,
      "à´ĺ": 1666,
      "ĠáĥĿáĥĵ": 1667,
      "ĠáĥĽáĥ£áĥĹ": 1668,
      "eits": 1669,
      "was": 1670,
      "leich": 1671,
      "schie": 1672,
      "ĠáĥĲáĥł": 1673,
      "ĠáĥĴáĥĶ": 1674,
      "Ġà´ŀ": 1675,
      "uÃŁ": 1676,
      "Ġgibt": 1677,
      "Ġvom": 1678,
      "Ġà´®à´¨": 1679,
      "ine": 1680,
      "ĠMa": 1681,
      "áĥĺáĥľáĥ·": 1682,
      "áĥĺáĥłáĥĹáĥ·": 1683,
      "Ġas": 1684,
      "Ġdieser": 1685,
      "Ġganz": 1686,
      "gend": 1687,
      "à´Ļàµ¾": 1688,
      "à¸Ńà¸Ķ": 1689,
      "Łáĥĺáĥł": 1690,
      "ĠáĥĴáĥłáĥĺáĥĴáĥĿáĥł": 1691,
      "ĠáĥľáĥĲáĥĽáĥ£áĥĵáĥĲ": 1692,
      "In": 1693,
      "à´Łà´Ļ": 1694,
      "à¸±à¹Ī": 1695,
      "âĢ¦": 1696,
      "Ġsel": 1697,
      "Ġse": 1698,
      "Ġà´ªà´±à´ŀ": 1699,
      "ĠâĢľ": 1700,
      "Ġáĥ¥áĥĺáĥĽ": 1701,
      "ĠáĥĹáĥĺáĥ¥": 1702,
      "áĥ£áĥĲáĥ¡": 1703,
      "áĥ£áĥ¥": 1704,
      "Ø§": 1705,
      "ĠMen": 1706,
      "Ġalle": 1707,
      "Ġáĥ¨áĥĲáĥľáĥ£áĥļ": 1708,
      "áĥĿáĥłáĥĿ": 1709,
      "áĥĲáĥļáĥĺáĥ¨": 1710,
      "áĥĺáĥĲáĥĹ": 1711,
      "ĠáĥĲáĥľ": 1712,
      "197": 1713,
      "Ġex": 1714,
      "ucht": 1715,
      "Ġáĥ¤áĥĲáĥłáĥĹ": 1716,
      "fÃ¼hr": 1717,
      "ĠáĥĺáĥľáĥĵáĥĿ": 1718,
      "ationen": 1719,
      "ĠIm": 1720,
      "zeit": 1721,
      "Ġáĥ¢áĥĺáĥĿáĥĸ": 1722,
      "22": 1723,
      "dig": 1724,
      "Ġà´¨à´²": 1725,
      "tem": 1726,
      "ĠCh": 1727,
      "ĠáĥĽáĥĶáĥ¢": 1728,
      "áĥĿáĥķáĥĺáĥľáĥª": 1729,
      "ĠáĥĻáĥĿáĥĽáĥŀ": 1730,
      "inder": 1731,
      "ativ": 1732,
      "ĠáĥĴáĥłáĥĺáĥĴáĥĿáĥłáĥĺáĥĲáĥľáĥ£áĥļáĥĺ": 1733,
      "áĥĲáĥľáĥĿáĥ¦": 1734,
      "onder": 1735,
      "áĥķáĥĶáĥļ": 1736,
      "ĠáĥĹáĥĺáĥ¡": 1737,
      "halten": 1738,
      "ĠGes": 1739,
      "Ġunha": 1740,
      "à¸·à¹ī": 1741,
      "Ġ/": 1742,
      "ĠáĥĿáĥĹáĥ®": 1743,
      "à´ļà´¤": 1744,
      "à´³à´¤": 1745,
      "Ġper": 1746,
      "Ġà´ķà´´": 1747,
      "ĠáĥĺáĥĻ": 1748,
      "ĠáĥľáĥĲáĥľáĥĲáĥľáĥĿáĥ¦": 1749,
      "ĠáĥĽáĥĲáĥļ": 1750,
      "áĥĺáĥľáĥĺáĥ¡áĥ¢": 1751,
      "Ġà¸Ļ": 1752,
      "ĠáĥĴáĥĶáĥĴ": 1753,
      "áĥĲáĥ¬áĥĻáĥ·áĥĽáĥĲ": 1754,
      "ĠáĥķáĥĲáĥłáĥĵ": 1755,
      "áĥ«": 1756,
      "hne": 1757,
      "Ġson": 1758,
      "ĠáĥĲáĥłáĥĹáĥĿ": 1759,
      "ub": 1760,
      "ĠGesch": 1761,
      "Ġ:": 1762,
      "áĥĿáĥ¡áĥ¥": 1763,
      "à¸²à¸Ī": 1764,
      "à´ªà´¤": 1765,
      "Ġà¸Ń": 1766,
      "à¹ĥà¸Ĭ": 1767,
      "ett": 1768,
      "ĠáĥĽáĥĶáĥ¯áĥĺáĥľáĥĲáĥĹ": 1769,
      "áĥķáĥĲáĥļáĥĶ": 1770,
      "ĠáĥĽáĥĲáĥłáĥĲ": 1771,
      "ĠáĥľáĥĲáĥĽáĥ£áĥ¡": 1772,
      "len": 1773,
      "Ġ[": 1774,
      "ma": 1775,
      "Ġáĥ£áĥĽáĥĿáĥ¡áĥĺ": 1776,
      "ĠáĥĺáĥľáĥĴ": 1777,
      "Ġáĥĺáĥ¡áĥ¢áĥĿáĥł": 1778,
      "áĥŀáĥĶáĥł": 1779,
      "à¸Ĺà¸³": 1780,
      "Ġhabe": 1781,
      "reich": 1782,
      "à´¿âĢĭ": 1783,
      "à¸²à¸Ķ": 1784,
      "edi": 1785,
      "ŁáĥĲáĥĽ": 1786,
      "ĠáĥĽáĥĶáĥľáĥª": 1787,
      "ĠáĥľáĥĲáĥĽáĥĵáĥĲ": 1788,
      "amen": 1789,
      "Ġbest": 1790,
      "ĠEnt": 1791,
      "Ġgel": 1792,
      "].": 1793,
      "so": 1794,
      "ĠOr": 1795,
      "Ġà´Ĩà´°": 1796,
      "à¸²à¸Ħ": 1797,
      "à´¨à´Ļ": 1798,
      "áĥĺáĥ¦": 1799,
      "ĠáĥĶáĥĵáĥĿáĥĽáĥ£áĥ¨": 1800,
      "achen": 1801,
      "áĥĶáĥ¨áĥĺ": 1802,
      "Ġáĥ©áĥ®": 1803,
      "Ġáĥ¡áĥĲáĥ¥áĥĿáĥłáĥĹáĥ£áĥĿáĥ¨": 1804,
      "ĠáĥŀáĥłáĥĿáĥķáĥĺáĥľáĥª": 1805,
      "Ġest": 1806,
      "lie": 1807,
      "ook": 1808,
      "Ġzwei": 1809,
      "vor": 1810,
      "áĥłáĥ¡": 1811,
      "à´¤à´°": 1812,
      "ĠáĥĽáĥĲáĥ®áĥĿáĥłáĥĿáĥĳáĥĲáĥ¨": 1813,
      "à¸²à¸ķ": 1814,
      "áĥĶáĥ¥áĥ¢": 1815,
      "áĥĲáĥłáĥĺáĥľáĥ£": 1816,
      "áĥĺáĥĸáĥĽ": 1817,
      "àµį,": 1818,
      "ĠKl": 1819,
      "21": 1820,
      "tigen": 1821,
      "Ġáĥ¯áĥĿáĥ®áĥĿ": 1822,
      "áĥĿáĥ¥áĥĺáĥĽ": 1823,
      "áĥĿáĥªáĥ®": 1824,
      "ĠáĥķáĥĲáĥłáĥĵáĥĲ": 1825,
      "ĠáĥłáĥĿáĥĽ": 1826,
      "à¸ļà¸ļ": 1827,
      "kte": 1828,
      "à¸²à¸ŀ": 1829,
      "áĥĲáĥĻáĥĲáĥĹ": 1830,
      "ĠPl": 1831,
      "ĠBei": 1832,
      "ĠáĥĲáĥĲáĥ¨": 1833,
      "©áĥ¥áĥĺáĥľ": 1834,
      "Ġmir": 1835,
      "40": 1836,
      "ais": 1837,
      "fall": 1838,
      "ĠáĥĶáĥķáĥłáĥĿáĥŀ": 1839,
      "à´¯à´ª": 1840,
      "Ġà¸ŀ": 1841,
      "ÃŃa": 1842,
      "ce": 1843,
      "co": 1844,
      "si": 1845,
      "ĠNach": 1846,
      "à¹Ģà¸¡": 1847,
      "Ġgegen": 1848,
      "for": 1849,
      "ew": 1850,
      "ĠÃľ": 1851,
      "Ġáĥĳáĥ£áĥľ": 1852,
      "áĥĿáĥ¸": 1853,
      "ĠáĥľáĥĺáĥľáĥĲ": 1854,
      "ĠáĥĴáĥĶáĥ": 1855,
      "Ġ&": 1856,
      "gesch": 1857,
      "Ġpara": 1858,
      "ez": 1859,
      "à´ħ": 1860,
      "àµĹ": 1861,
      "atur": 1862,
      "ĠáĥĳáĥŁáĥĲáĥĶáĥĺáĥĿáĥļ": 1863,
      "áĥĲáĥłáĥĶáĥ¤áĥĺáĥ¨": 1864,
      "Ġáĥ£áĥĵáĥĺáĥĵ": 1865,
      "áĥłáĥĿ": 1866,
      "ĠDeut": 1867,
      "100": 1868,
      "ĠáĥĹáĥĲáĥł": 1869,
      "Ġáĥ®áĥķáĥĲáĥļáĥĶ": 1870,
      "áĥĶáĥ¥áĥ¡": 1871,
      "áĥĲáĥłáĥ¯": 1872,
      "198": 1873,
      "ierung": 1874,
      "Ġáĥ¢áĥĺáĥĿáĥĸáĥĺ": 1875,
      "áĥĶáĥĳáĥ£áĥļáĥĺ": 1876,
      "Ġdu": 1877,
      "adt": 1878,
      "à¹Ģà¸§": 1879,
      "áĥ·áĥľáĥ": 1880,
      "áĥĿáĥķáĥĺáĥĹáĥĲáĥł": 1881,
      "ĠáĥĽáĥĿáĥľáĥ": 1882,
      "áĥ·áĥĵ": 1883,
      "à¹Ģà¸Ħ": 1884,
      "ichtig": 1885,
      "ard": 1886,
      "Ġáĥĸáĥ£áĥ¦áĥĲáĥ¨": 1887,
      "áĥĺáĥŃáĥ§": 1888,
      "áĥ£áĥłáĥĺáĥ¨": 1889,
      "áĥĶáĥĳáĥ£áĥļ": 1890,
      "©áĥ®": 1891,
      "Ġà´®à´±": 1892,
      "à¸¢à¸§": 1893,
      "sche": 1894,
      "Ġsowie": 1895,
      "gan": 1896,
      "vers": 1897,
      "Ġáĥ£áĥ©": 1898,
      "áĥĿáĥ¨áĥ®áĥķ": 1899,
      "cken": 1900,
      "à´µà´¸": 1901,
      "ram": 1902,
      "pro": 1903,
      "ammen": 1904,
      "ĠáĥĴáĥĿáĥķáĥĺáĥĹáĥĲáĥł": 1905,
      "áĥĺáĥ¨áĥĶ": 1906,
      "áĥ£áĥĹáĥĲáĥ¡": 1907,
      "áĥĿáĥ«": 1908,
      "ale": 1909,
      "Ġgem": 1910,
      "mitt": 1911,
      "ĠáĥĴáĥĿ": 1912,
      "Ġáĥ¢áĥł": 1913,
      "Ðº": 1914,
      "23": 1915,
      "à´·à´£": 1916,
      "icher": 1917,
      "à¸¸à¹Ī": 1918,
      "à¸£à¸¡": 1919,
      "Ġáĥ¬áĥĲáĥľáĥĲáĥ¨áĥĶ": 1920,
      "ĠáĥĲáĥłáĥ¢": 1921,
      "à¹Ģà¸ķ": 1922,
      "Ġkeine": 1923,
      "ater": 1924,
      "à¸²à¸«": 1925,
      "Ã¼hr": 1926,
      "ĠáĥĹáĥĺ": 1927,
      "ĠáĥŀáĥĿáĥļ": 1928,
      "áĥĶáĥļáĥ¡": 1929,
      "ĠáĥĶáĥł": 1930,
      "ks": 1931,
      "Ġob": 1932,
      "ĠArb": 1933,
      "Ġbet": 1934,
      "ies": 1935,
      "ĠUnter": 1936,
      "spiel": 1937,
      "ĠáĥĻáĥķ": 1938,
      "à¸Ľà¸£": 1939,
      "Ġco": 1940,
      "à¸¶à¹Ī": 1941,
      "Qu": 1942,
      "ÂŃ": 1943,
      "áĥĺáĥľáĥĽ": 1944,
      "à¸Ĺà¸¢": 1945,
      "onn": 1946,
      "Ġmich": 1947,
      "ho": 1948,
      "áĥĿáĥĵáĥķáĥĲáĥļ": 1949,
      "áĥĲáĥ¬": 1950,
      "ĠáĥĶáĥŃ": 1951,
      "à¸«à¸¡": 1952,
      "urg": 1953,
      "Ġà¸ķ": 1954,
      "60": 1955,
      "itz": 1956,
      "áĥĲáĥļáĥĶáĥ¤áĥĺ": 1957,
      "áĥĲáĥļáĥĶáĥ¤áĥĺáĥ¨": 1958,
      "à¹Ģà¸Ļ": 1959,
      "ĠIch": 1960,
      "à´°à´¨": 1961,
      "agen": 1962,
      "Ġ.": 1963,
      "Ġà´ħà´±": 1964,
      "Ġeigen": 1965,
      "Ã¶ch": 1966,
      "à´¤à´²": 1967,
      "ĠáĥĽáĥĲáĥŁáĥĺáĥł": 1968,
      "áĥĺáĥ¡áĥ¢áĥĺ": 1969,
      "Ġeinfach": 1970,
      "27": 1971,
      "tion": 1972,
      "inn": 1973,
      "ĠáĥĳáĥŁáĥĲáĥĵáĥĲáĥļ": 1974,
      "ĠXV": 1975,
      "olle": 1976,
      "net": 1977,
      "áĥĺáĥŃ": 1978,
      "ĠáĥĻáĥ£áĥļ": 1979,
      "ĠáĥĽáĥĺáĥĿáĥ": 1980,
      "ĠáĥĹáĥĲáĥłáĥĺ": 1981,
      "áĥĲáĥªáĥĺáĥĲ": 1982,
      "áĥ£áĥª": 1983,
      "wick": 1984,
      "Ġos": 1985,
      "Ġpol": 1986,
      "tur": 1987,
      "ĠáĥĲáĥ¢": 1988,
      "ĠáĥĽáĥĿáĥłáĥ": 1989,
      "ĠáĥĻáĥĲáĥĹ": 1990,
      "à´ķà´£": 1991,
      "ļáĥĲáĥľáĥĵ": 1992,
      "ĠáĥľáĥĲáĥľáĥĲáĥľáĥĿáĥ¦áĥĲ": 1993,
      "áĥĲáĥ¨áĥ¥": 1994,
      "áĥĺáĥļáĥĶáĥĳ": 1995,
      "áĥĺáĥľáĥĺáĥ¨": 1996,
      "Ġáĥ¡áĥ®áĥ£áĥľ": 1997,
      "ĠWas": 1998,
      "ib": 1999,
      "ado": 2000,
      "enden": 2001,
      "ohl": 2002,
      "28": 2003,
      "àµįâĢį,": 2004,
      "Ġeines": 2005,
      "usammen": 2006,
      "eist": 2007,
      "áĥĲáĥĵáĥĿáĥ¨áĥ®áĥķ": 2008,
      "ĠáĥľáĥĲáĥĽáĥ£áĥ¡áĥ·áĥĹ": 2009,
      "wend": 2010,
      "à¸Ķà¸¢": 2011,
      "à´¤à´¨": 2012,
      "hem": 2013,
      "Ġmal": 2014,
      "ĠáĥĲáĥĽáĥĶáĥłáĥĺáĥĻ": 2015,
      "ĠáĥĶáĥ¨": 2016,
      "ĠáĥľáĥĿáĥłáĥĹáĥĺ": 2017,
      "àµ¼à´¤": 2018,
      "à´¤à´¤": 2019,
      "ren": 2020,
      "Ġáĥ¥áĥĿáĥłáĥĹ": 2021,
      "áĥĶáĥ¡áĥ¢": 2022,
      "áĥ£áĥĴ": 2023,
      "issen": 2024,
      "à´¯à´Ļ": 2025,
      "ele": 2026,
      "ĠZu": 2027,
      "áĥĺáĥĶáĥ¤áĥĺ": 2028,
      "áĥĶáĥŀ": 2029,
      "eren": 2030,
      "we": 2031,
      "Der": 2032,
      "tige": 2033,
      "2018": 2034,
      "aut": 2035,
      "Ġgut": 2036,
      "áĥĺáĥĲáĥ¥": 2037,
      "Ġpor": 2038,
      "ark": 2039,
      "nah": 2040,
      "ud": 2041,
      "ank": 2042,
      "ĠEur": 2043,
      "áĥĿáĥŃáĥ§": 2044,
      "ĠáĥķáĥĲ": 2045,
      "Ã¼s": 2046,
      "ĠReg": 2047,
      "Ġdir": 2048,
      "à´¯à´°": 2049,
      "ĠáĥĴáĥĿáĥ¤": 2050,
      "áĥĽáĥĲáĥł": 2051,
      "Ġáĥ©áĥĺáĥľáĥĶáĥĳáĥ£áĥļáĥĺ": 2052,
      "ĠáĥŃáĥĲáĥł": 2053,
      "Ļáĥķ": 2054,
      "unde": 2055,
      "eht": 2056,
      "omp": 2057,
      "ĠáĥĸáĥĿáĥ®": 2058,
      "ĠáĥªáĥĶáĥľáĥ¢áĥł": 2059,
      "áĥĿáĥľáĥĹ": 2060,
      "áĥĺáĥĶáĥĳ": 2061,
      "amit": 2062,
      "ĠLand": 2063,
      "áĥĺáĥ¡áĥ¢áĥĶáĥĽ": 2064,
      "Ġáĥ¨áĥ®áĥķáĥĲáĥĵáĥĿáĥ¨áĥ®áĥķ": 2065,
      "ĠáĥĽáĥĶáĥľáĥªáĥĲáĥł": 2066,
      "Ġáĥ¡áĥŀ": 2067,
      "Ġáĥĵáĥĺáĥľ": 2068,
      "áĥĶáĥľáĥ¯áĥĺ": 2069,
      "Ġáĥļáĥ·áĥĽ": 2070,
      "à´Łà´ª": 2071,
      "ĠÃľber": 2072,
      "yst": 2073,
      "trag": 2074,
      "âĢľ.": 2075,
      "Ġno": 2076,
      "áĥĲáĥ¤áĥĲáĥĹ": 2077,
      "ĠáĥĿáĥĽáĥĲáĥ¤": 2078,
      "Ġgr": 2079,
      "ĠKon": 2080,
      "ĠSe": 2081,
      "Ġger": 2082,
      "Ġmein": 2083,
      "ĠWer": 2084,
      "reu": 2085,
      "ĠáĥľáĥĿáĥłáĥĹáĥĺáĥ¡": 2086,
      "áĥĿáĥłáĥĿáĥªáĥ®": 2087,
      "áĥĿáĥłáĥĿáĥľáĥĹ": 2088,
      "áĥĲáĥ«": 2089,
      "arbeit": 2090,
      "Ġà´īà´£": 2091,
      "ĠWeb": 2092,
      "esen": 2093,
      "ĠáĥĻáĥĲáĥľ": 2094,
      "ktiv": 2095,
      "iger": 2096,
      "ĠáĥľáĥĿáĥ¦áĥĲáĥ¨": 2097,
      "ĠáĥĵáĥĿáĥ®": 2098,
      "ĠáĥĻáĥĿáĥļ": 2099,
      "Ġáĥ¬áĥ·áĥĽáĥĲáĥłáĥĺáĥľáĥ£": 2100,
      "ĠáĥĴáĥĶáĥĿáĥĴáĥłáĥĲáĥ¤": 2101,
      "geben": 2102,
      "à¹Ģà¸Ń": 2103,
      "ĠBet": 2104,
      "à¹Ģà¸Ĭ": 2105,
      "Ã¶ff": 2106,
      "áĥĲáĥ¥áĥ¢": 2107,
      "áĥĽáĥĺáĥľáĥĺáĥ¡áĥ¢": 2108,
      "Ġohne": 2109,
      "kommen": 2110,
      "sb": 2111,
      "off": 2112,
      "Ġgesch": 2113,
      "áĥĿáĥŃ": 2114,
      "ĠáĥĻáĥĿáĥ©": 2115,
      "áĥĲáĥ¦áĥĲáĥļ": 2116,
      "line": 2117,
      "Ġáĥ¡áĥĻ": 2118,
      "ĠQu": 2119,
      "ĠLeben": 2120,
      "Ã¤hl": 2121,
      "áĥĿáĥ¡áĥ¥áĥĺáĥļ": 2122,
      "Ġáĥ¡áĥĺáĥ¡áĥ¢áĥĶáĥĽ": 2123,
      "Ġáĥĺáĥ¸áĥ£": 2124,
      "à´Ĺà´¤": 2125,
      "ĠHand": 2126,
      "à´·à´¨": 2127,
      "ari": 2128,
      "195": 2129,
      "à¸Ļà¸ª": 2130,
      "weise": 2131,
      "uchen": 2132,
      "áĥĲáĥļáĥ¡": 2133,
      "Ġáĥĺáĥľáĥ¢": 2134,
      "áĥ¨áĥĿ": 2135,
      "eute": 2136,
      "à´°à´Ļ": 2137,
      "Ġtra": 2138,
      "à¸ģà¸©": 2139,
      "gem": 2140,
      "wischen": 2141,
      "ĠIhre": 2142,
      "áĥĿáĥłáĥĺáĥ¨": 2143,
      "áĥ¤áĥĶáĥł": 2144,
      "Ġáĥ¬áĥ§áĥĲáĥłáĥ": 2145,
      "áĥĺáĥªáĥĺ": 2146,
      "ĠáĥĽáĥĶáĥłáĥ": 2147,
      "ĠUnd": 2148,
      "Ð²": 2149,
      "Ġà´¨à´Łà´¤": 2150,
      "Ġna": 2151,
      "à¹ĥà¸Ī": 2152,
      "194": 2153,
      "áĥĺáĥłáĥĺáĥľ": 2154,
      "ĠáĥĽáĥĺáĥļ": 2155,
      "Ġáĥ¥áĥĺáĥłáĥ¡": 2156,
      "ĠáĥĵáĥĿáĥłáĥ": 2157,
      "áĥ®áĥĺáĥł": 2158,
      "Ġáĥ§": 2159,
      "ip": 2160,
      "Ġà´ħà´Ł": 2161,
      "zeu": 2162,
      "zo": 2163,
      "to": 2164,
      "áĥĶáĥ©áĥĵáĥĿáĥķáĥĺáĥĹ": 2165,
      "ĠáĥĽáĥĲáĥĵ": 2166,
      "ĠáĥĲáĥĸ": 2167,
      "ĠáĥĿáĥĻáĥĿ": 2168,
      "áĥĺáĥĿáĥľáĥĺ": 2169,
      "áĥĺáĥĻáĥĿáĥ¡": 2170,
      "eim": 2171,
      "à´²à´¤": 2172,
      "ada": 2173,
      "ix": 2174,
      "alen": 2175,
      "áĥĶáĥłáĥľ": 2176,
      "ĠáĥĿáĥļáĥ¥": 2177,
      "áĥķáĥĲáĥľ": 2178,
      "Ġà´ªà´±à´¯": 2179,
      "ĠSpiel": 2180,
      "Ġar": 2181,
      "abei": 2182,
      "à¸¡à¸²à¸ģ": 2183,
      "tik": 2184,
      "arten": 2185,
      "ĠáĥĽáĥ£áĥĵáĥĲáĥľ": 2186,
      "Ġáĥ¤áĥĿáĥłáĥĽ": 2187,
      "áĥĿáĥľáĥ¡": 2188,
      "ystem": 2189,
      "Ġwel": 2190,
      "Ġnun": 2191,
      "stÃ¤n": 2192,
      "Das": 2193,
      "teil": 2194,
      "à´¨à´®": 2195,
      "Ġihre": 2196,
      "áĥ·áĥľáĥĲ": 2197,
      "áĥłáĥĲáĥ¢": 2198,
      "áĥĲáĥĵáĥĴáĥĺáĥľ": 2199,
      "Ġáĥ¨áĥ®áĥķáĥĲáĥĵáĥĿáĥ¨áĥ®áĥķáĥĲ": 2200,
      "ĠáĥĽáĥĲáĥŁáĥĺáĥłáĥĲ": 2201,
      "sk": 2202,
      "Ġbeim": 2203,
      "ften": 2204,
      "à¹ģà¸ķ": 2205,
      "aum": 2206,
      "min": 2207,
      "ĠáĥĻáĥ£áĥļáĥ¢áĥ£áĥł": 2208,
      "áĥĲáĥ¤áĥĲáĥ¡": 2209,
      "Ġáĥĺáĥł": 2210,
      "áĥĿáĥłáĥĵ": 2211,
      "áĥĿáĥĳáĥ£áĥłáĥĺ": 2212,
      "áĥļáĥĺáĥ¡": 2213,
      "Ġmo": 2214,
      "ĠII": 2215,
      "26": 2216,
      "tiv": 2217,
      "Ġdiesem": 2218,
      "à¸§à¸ĩ": 2219,
      "ĠIhnen": 2220,
      "Ġáĥ¯áĥĿáĥ®áĥĿáĥĵáĥķáĥĲáĥļ": 2221,
      "Ġáĥ£áĥľ": 2222,
      "ĠáĥĽáĥĲáĥľáĥĴ": 2223,
      "áĥ¸": 2224,
      "ras": 2225,
      "halt": 2226,
      "ĠáĥĶáĥ¡áĥŀ": 2227,
      "áĥĶáĥłáĥ¢": 2228,
      "®áĥķáĥĶáĥļ": 2229,
      "Ñı": 2230,
      "Ġselbst": 2231,
      "lau": 2232,
      "dien": 2233,
      "Ġjed": 2234,
      "áĥĿáĥĵáĥĴáĥĺáĥľ": 2235,
      "Ġáĥ¡áĥĿáĥĵáĥĶáĥĹ": 2236,
      "ĠáĥĹáĥ£áĥĹ": 2237,
      "ĠÃ¡": 2238,
      "80": 2239,
      "ta": 2240,
      "ll": 2241,
      "áĥĲáĥŃáĥ§": 2242,
      "áĥ£áĥłáĥĲ": 2243,
      "ĠáĥĲáĥķáĥ¢": 2244,
      "Ġáĥ©áĥ¥": 2245,
      "ĠÃ©": 2246,
      "âĢĻ": 2247,
      "ĠInform": 2248,
      "Ġà¸Ī": 2249,
      "cia": 2250,
      "ĠáĥĴáĥĿáĥ¤áĥĲáĥ©": 2251,
      "Ġáĥ¤áĥĲáĥłáĥĹáĥĿáĥĳ": 2252,
      "satz": 2253,
      "Ġà´īà´ª": 2254,
      "rem": 2255,
      "à¸ĩà¸ª": 2256,
      "¨áĥĲ": 2257,
      "áĥĲáĥĵáĥ·": 2258,
      "Ġáĥ¡áĥĲáĥ¤": 2259,
      "à¹Ģà¸Ī": 2260,
      "oren": 2261,
      "à´°à´¯": 2262,
      "Â²": 2263,
      "ĠØ": 2264,
      "à¸§à¸¡": 2265,
      "à¸Ļà¸Ļ": 2266,
      "à´µà´¤": 2267,
      "áĥĲáĥ¤áĥĲáĥļáĥĺ": 2268,
      "à´ķà´²": 2269,
      "haus": 2270,
      "Ġbie": 2271,
      "ĠProdu": 2272,
      "Ġte": 2273,
      "à´Łà´°": 2274,
      "à´¯à´¯": 2275,
      "els": 2276,
      "ĠáĥĽáĥĿáĥ£": 2277,
      "ĠáĥĶáĥĴ": 2278,
      "ĠáĥĿáĥ®áĥĿáĥł": 2279,
      "áĥķáĥĲ": 2280,
      "áĥĺáĥ©": 2281,
      "áĥĲáĥ©áĥĶáĥĽ": 2282,
      "áĥĶáĥ¡áĥĺ": 2283,
      "áĥĺáĥŃáĥ§áĥ·": 2284,
      "áĥĲáĥłáĥ·": 2285,
      "Ġà´µà´¨": 2286,
      "Ġà´İà´¤": 2287,
      "ide": 2288,
      "bau": 2289,
      "35": 2290,
      "áĥĶáĥľáĥ¢áĥĺ": 2291,
      "Ġetwas": 2292,
      "po": 2293,
      "à´®à´¯": 2294,
      "Ġmuss": 2295,
      "áĥĲáĥ¤áĥĺáĥłáĥĿ": 2296,
      "Ġáĥ¢áĥĿáĥĽ": 2297,
      "áĥĺáĥľáĥĶ": 2298,
      "ĠFrau": 2299,
      "Ġac": 2300,
      "Ġanderen": 2301,
      "chn": 2302,
      "29": 2303,
      "à¸²à¸¥": 2304,
      "à´¿à´Ĥ": 2305,
      "ĠáĥĽáĥĺáĥĲáĥłáĥĶ": 2306,
      "áĥĶáĥĸáĥĺáĥĵ": 2307,
      "áĥĶáĥ¤áĥ¬áĥĻáĥ·áĥĽáĥĲ": 2308,
      "erv": 2309,
      "ĠPerson": 2310,
      "ĠmÃ¡": 2311,
      "à¸¢à¸ĩ": 2312,
      "à´ķà´¤": 2313,
      "Ġà¸Ķ": 2314,
      "ding": 2315,
      "ĠMenschen": 2316,
      "áĥ®áĥ£": 2317,
      "ĠáĥĽáĥĶáĥ£": 2318,
      "áĥĺáĥ¢áĥĶáĥ¢": 2319,
      "ĠáĥĽáĥĲáĥ®áĥĿáĥłáĥĿáĥĳáĥĲ": 2320,
      "áĥĿáĥļáĥĺ": 2321,
      "áĥ¡áĥ¢áĥł": 2322,
      "Ġáĥ¡áĥĲáĥĳ": 2323,
      "¡áĥ®áĥ£áĥĲáĥ¤": 2324,
      "ph": 2325,
      "Ġwen": 2326,
      "ĠsÃº": 2327,
      "70": 2328,
      "ron": 2329,
      "ĠáĥķáĥĺáĥĹáĥĿáĥ¨": 2330,
      "áĥĺáĥĿáĥľáĥ": 2331,
      "¥áĥ·áĥĹ": 2332,
      "Ġáĥ¬áĥ§áĥĲáĥłáĥŀáĥĺáĥ¯": 2333,
      "Ġáĥ¨áĥĺáĥļáĥĶáĥĳ": 2334,
      "ĠáĥĽáĥĺáĥ¨áĥĽ": 2335,
      "áĥĺáĥĶáĥ¥": 2336,
      "Ġof": 2337,
      "Ġà´°à´£": 2338,
      "ĠAut": 2339,
      "ĠáĥĵáĥĿáĥľ": 2340,
      "ĠáĥĵáĥĿáĥ®áĥĿáĥļ": 2341,
      "Ġáĥ¡áĥ¢áĥĲáĥ¢": 2342,
      "our": 2343,
      "ollen": 2344,
      "richt": 2345,
      "áĥĿáĥ¡áĥ¥áĥĺáĥļáĥĲáĥĵ": 2346,
      "ĠáĥĹáĥĲáĥ¥": 2347,
      "ĠáĥĽáĥĲáĥĻáĥĲáĥĹ": 2348,
      "áĥĲáĥłáĥľ": 2349,
      "áĥĶáĥª": 2350,
      "Ġfinden": 2351,
      "ĠLie": 2352,
      "ĠXI": 2353,
      "áĥĿáĥ¦áĥĲáĥļ": 2354,
      "ĠáĥĲáĥļáĥĽ": 2355,
      "áĥĶáĥ¤áĥ¨áĥĲ": 2356,
      "ĠáĥĽáĥĿáĥľ": 2357,
      "ĠáĥĲáĥ®áĥĲáĥļáĥĺ": 2358,
      "áĥĲáĥłáĥ¥": 2359,
      "stellen": 2360,
      "Ð°Ð": 2361,
      "zt": 2362,
      "à¸ľà¸¥": 2363,
      "à¸ªà¸¡": 2364,
      "à¸Ħà¸Ļ": 2365,
      "ĠáĥĴáĥĿáĥļ": 2366,
      "áĥłáĥĲáĥª": 2367,
      "ĠáĥĽáĥĺáĥĹ": 2368,
      "ĠHaus": 2369,
      "orn": 2370,
      "Ã¤uf": 2371,
      "schland": 2372,
      "Ġdeut": 2373,
      "ruck": 2374,
      "Ġà¸ĭ": 2375,
      "à´ķà´¨": 2376,
      "Ġáĥĵáĥ£áĥĵáĥĺáĥ¨": 2377,
      "Ġáĥ£áĥĵáĥĺáĥĵáĥĲáĥ¨áĥĺ": 2378,
      "áĥĿáĥĳáĥ£áĥł": 2379,
      "à¸łà¸²à¸ŀ": 2380,
      "rat": 2381,
      "Ġem": 2382,
      "ĠTag": 2383,
      "ĠBest": 2384,
      "ĠGrund": 2385,
      "ition": 2386,
      "àµįâĢį.": 2387,
      "ĠáĥĽáĥ£áĥŁáĥĲáĥĽ": 2388,
      "ÑĮ": 2389,
      "áĥĲáĥĴáĥĲáĥĵ": 2390,
      "áĥ®áĥĲáĥĸ": 2391,
      "ĠáĥĿáĥłáĥĹ": 2392,
      "à¸¶à¹ī": 2393,
      "eiÃŁ": 2394,
      "da": 2395,
      "Ġon": 2396,
      "land": 2397,
      "amm": 2398,
      "ragen": 2399,
      "ĠáĥĿáĥłáĥĴáĥĲáĥľáĥĺáĥĸ": 2400,
      "áĥłáĥĶ": 2401,
      "ĠáĥľáĥĲáĥĽáĥ£áĥĶáĥ¤áĥĺáĥĹ": 2402,
      "ĠáĥĳáĥĿáĥļ": 2403,
      "ichte": 2404,
      "ternehmen": 2405,
      "Ġseine": 2406,
      "Ġà´ħà´µà´°": 2407,
      "Ġ...": 2408,
      "Ġverb": 2409,
      "2011": 2410,
      "âĢŀ": 2411,
      "Ġáĥļáĥĺ": 2412,
      "ĠáĥłáĥĲáĥĺ": 2413,
      "áĥĲáĥ°": 2414,
      "áĥķáĥĺáĥĹ": 2415,
      "áĥĲáĥĹáĥ£": 2416,
      "Ã¤lt": 2417,
      "ĠKinder": 2418,
      "à´±à´¤": 2419,
      "2017": 2420,
      "ens": 2421,
      "ahn": 2422,
      "à¸£à¸ĩ": 2423,
      "Ġáĥ¤áĥĲáĥľ": 2424,
      "Ġà¹Ģà¸ŀ": 2425,
      "àµ¼à´ķ": 2426,
      "¨áĥĶ": 2427,
      "¡áĥ®áĥĺáĥł": 2428,
      "áĥĿáĥ¯": 2429,
      "Ġáĥłáĥ©áĥ¥": 2430,
      "ĠáĥŀáĥĿáĥļáĥĺáĥ¢": 2431,
      "Ġgeht": 2432,
      "olog": 2433,
      "ail": 2434,
      "schutz": 2435,
      "Ġdamit": 2436,
      "ĠVers": 2437,
      "Ġà¸§": 2438,
      "gung": 2439,
      "ĠIntern": 2440,
      "ĠDu": 2441,
      "ĠmÃ¡is": 2442,
      "if": 2443,
      "áĥĲáĥļáĥĶáĥ¤áĥ¡": 2444,
      "áĥĿáĥľáĥĵ": 2445,
      "áĥķáĥĶáĥľ": 2446,
      "uten": 2447,
      "sst": 2448,
      "ĠáĥĲáĥĻáĥĽáĥĲáĥĵáĥĴáĥĺáĥľ": 2449,
      "áĥĿáĥ©áĥĲáĥĽ": 2450,
      "áĥĻáĥĿ": 2451,
      "ĠáĥĺáĥĽáĥŀáĥĶáĥł": 2452,
      "ierte": 2453,
      "halb": 2454,
      "Ġà¸ļ": 2455,
      "ommt": 2456,
      "Ġunserer": 2457,
      "idade": 2458,
      "áĥĲáĥľáĥĹ": 2459,
      "áĥĳáĥŁáĥĲáĥĵáĥĲáĥļ": 2460,
      "Ġáĥłáĥĵ": 2461,
      "áĥ£áĥłáĥĶ": 2462,
      "áĥĺáĥĶáĥ¤áĥĺáĥ¨": 2463,
      "áĥĲáĥłáĥĲáĥļáĥ£": 2464,
      "áĥ£áĥĵáĥĶáĥ¡": 2465,
      "¡áĥ¢": 2466,
      "à´²à´ª": 2467,
      "__": 2468,
      "stellt": 2469,
      "à´®à´¤": 2470,
      "ĠUhr": 2471,
      "à´¾âĢĭ": 2472,
      "ĠTeil": 2473,
      "weg": 2474,
      "ĠRei": 2475,
      "Ġnon": 2476,
      "ĠAm": 2477,
      "áĥĽáĥĿáĥ¡": 2478,
      "ĠGer": 2479,
      "ĠáĥĽáĥ£áĥľáĥĲáĥ©áĥĶáĥĽ": 2480,
      "ĠáĥĿáĥ¤áĥĺáĥªáĥĺ": 2481,
      "áĥĺáĥłáĥĺáĥľáĥ£": 2482,
      "Ġáĥ£áĥłáĥ": 2483,
      "ĠáĥĻáĥł": 2484,
      "à´ĩ": 2485,
      "à´ķà´®": 2486,
      "lage": 2487,
      "Ġà´İà´²": 2488,
      "à¸ģà¸§": 2489,
      "ante": 2490,
      "Ġschn": 2491,
      "ĠáĥĻáĥĲáĥł": 2492,
      "áĥĶáĥŁ": 2493,
      "Ġáĥľáĥ«": 2494,
      "ĠáĥĹáĥĺáĥľáĥĶáĥ¤áĥĺáĥ¨": 2495,
      "ĠEx": 2496,
      "St": 2497,
      "innen": 2498,
      "Ġà´ħà´ª": 2499,
      "Ġunsere": 2500,
      "à¸Ńà¸¥": 2501,
      "ĠMin": 2502,
      "rank": 2503,
      "à¸ªà¸³": 2504,
      "ĠáĥķáĥĺáĥĻ": 2505,
      "áĥĲáĥ¢áĥĺ": 2506,
      "ĠáĥĴáĥ£áĥł": 2507,
      "ĠáĥĿáĥł": 2508,
      "Un": 2509,
      "ai": 2510,
      "rieb": 2511,
      "amil": 2512,
      "rag": 2513,
      "à´Ĥ,": 2514,
      "à¸Ļà¸ķ": 2515,
      "Ġáĥ«áĥĲáĥļ": 2516,
      "ĠáĥŀáĥĶáĥłáĥĺáĥĿáĥĵáĥĺáĥ¡": 2517,
      "ĠáĥĲáĥĵáĥĽáĥĺáĥľáĥĺáĥ¡áĥ¢": 2518,
      "áĥĲáĥ¯": 2519,
      "Ġáĥ¡áĥĺáĥĽ": 2520,
      "à´Łà´¯": 2521,
      "ca": 2522,
      "Ġà´ķà´°": 2523,
      "Ġgleich": 2524,
      "ieder": 2525,
      "Ñĭ": 2526,
      "Ġáĥ¥áĥĲáĥłáĥĹ": 2527,
      "áĥĵáĥ¦": 2528,
      "áĥĴáĥ·áĥĽ": 2529,
      "Ġáĥ£áĥ¦áĥ£": 2530,
      "Ġáĥ£áĥ¯": 2531,
      "ĠáĥĲáĥłáĥ¢áĥĺáĥ¡áĥ¢áĥĺ": 2532,
      "áĥ£áĥĶáĥ¤áĥĺáĥ¨": 2533,
      "do": 2534,
      "Ġerst": 2535,
      "à´ªà´¨": 2536,
      "Ġor": 2537,
      "ĠBes": 2538,
      "Ġange": 2539,
      "34": 2540,
      "ĠFahr": 2541,
      "ĠPol": 2542,
      "à¹Ģà¸ĩ": 2543,
      "ĠáĥĲáĥĻáĥĿáĥĵáĥĴáĥĺáĥľ": 2544,
      "ĠáĥľáĥĲáĥ®": 2545,
      "áĥĺáĥłáĥĹáĥ£": 2546,
      "áĥĺáĥĻáĥ£áĥł": 2547,
      "Ġmachen": 2548,
      "Ã¶s": 2549,
      "ichten": 2550,
      "ĠPart": 2551,
      "90": 2552,
      "Ġneue": 2553,
      "ĠmÃ¼s": 2554,
      "ica": 2555,
      "38": 2556,
      "áĥĺáĥľáĥĲáĥ¡": 2557,
      "Ġáĥ£áĥĽáĥĿáĥ¡áĥĿ": 2558,
      "Ġáĥ¨áĥĺáĥļáĥĶáĥĳáĥĶ": 2559,
      "ĠáĥĶáĥłáĥ": 2560,
      "áĥĲáĥ¤áĥĺáĥļáĥĿ": 2561,
      "unktion": 2562,
      "à´µà´¶": 2563,
      "ĠMon": 2564,
      "ĠGeb": 2565,
      "ER": 2566,
      "schieden": 2567,
      "ĠJahren": 2568,
      "az": 2569,
      "oten": 2570,
      "ĠáĥĸáĥĿáĥ®áĥĿáĥłáĥĺáĥľ": 2571,
      "áĥĲáĥłáĥĶáĥ¤áĥĺ": 2572,
      "ĠáĥĴáĥĲáĥĽ": 2573,
      "ĠáĥĴáĥĺáĥľáĥĿáĥłáĥĹ": 2574,
      "ase": 2575,
      "Ġáĥ¦áĥĿáĥłáĥĿáĥľáĥĹ": 2576,
      "ĠáĥĲáĥĵáĥĲáĥĽáĥĺáĥĶáĥł": 2577,
      "Ġà´ħà´¦": 2578,
      "ment": 2579,
      "tes": 2580,
      "ww": 2581,
      "Ġhatte": 2582,
      "keiten": 2583,
      "ĠDeutschland": 2584,
      "ende": 2585,
      "à´¿,": 2586,
      "à¸¥à¸ĩ": 2587,
      "Ġwurden": 2588,
      "ĠáĥĲáĥļáĥĳ": 2589,
      "ĠáĥĵáĥĿáĥ¡áĥ¥áĥĺáĥļáĥĲáĥĵ": 2590,
      "áĥ£áĥĲáĥĹ": 2591,
      "áĥĲáĥľáĥĶáĥĹáĥĺáĥ¨": 2592,
      "hm": 2593,
      "aar": 2594,
      "ive": 2595,
      "ĠTra": 2596,
      "Ġà´¨à´®": 2597,
      "An": 2598,
      "ĠáĥĻáĥĺáĥļ": 2599,
      "ĠáĥĿáĥĳáĥŁáĥĲáĥĹ": 2600,
      "áĥĶáĥłáĥĵ": 2601,
      "áĥĶáĥļáĥĿ": 2602,
      "ĠáĥĲáĥĹ": 2603,
      "Ġáĥĺáĥ¢": 2604,
      "rupp": 2605,
      "aden": 2606,
      "Ġà´ħà´®": 2607,
      "zeich": 2608,
      "Ġcomo": 2609,
      "zahl": 2610,
      "Ġà¸Ľ": 2611,
      "ĠStadt": 2612,
      "à´¯à´±": 2613,
      "áĥĶáĥłáĥĿ": 2614,
      "áĥĿáĥ¨áĥĶ": 2615,
      "ĠáĥĽáĥ£áĥ¡áĥ®áĥĺáĥł": 2616,
      "ĠáĥłáĥĶáĥ¡áĥŀáĥ£áĥĳáĥļáĥĺáĥĻáĥĲ": 2617,
      "Ġáĥĵáĥĺ": 2618,
      "áĥĲáĥļáĥĲáĥ¡": 2619,
      "ĠáĥĺáĥľáĥĴáĥļáĥĺáĥ¡": 2620,
      "ald": 2621,
      "ute": 2622,
      "fahren": 2623,
      "ock": 2624,
      "ischer": 2625,
      "ĠDa": 2626,
      "Ġà´¸à´°": 2627,
      "Ġausge": 2628,
      "Ġjetzt": 2629,
      "----": 2630,
      "ere": 2631,
      "áĥĲáĥĳáĥĲáĥĵ": 2632,
      "ĠáĥĲáĥłáĥ¥": 2633,
      "áĥĲáĥļáĥĲáĥĹ": 2634,
      "ĠáĥľáĥĲáĥĽáĥ·": 2635,
      "Ġáĥ¢áĥĶáĥłáĥĺáĥ¢áĥĿáĥłáĥĺáĥĲáĥ¡": 2636,
      "man": 2637,
      "ĠáĥĶáĥĹ": 2638,
      "Ġà´ķà´®": 2639,
      "ĠY": 2640,
      "Ġà´ħà´²": 2641,
      "Ġà´ıà´±": 2642,
      "kauf": 2643,
      "ente": 2644,
      "sam": 2645,
      "Ġbek": 2646,
      "Ġáĥ£áĥ©áĥĲ": 2647,
      "áĥłáĥĲáĥĽ": 2648,
      "áĥĶáĥłáĥĽáĥĲáĥľ": 2649,
      "Ġáĥ¤áĥĲáĥłáĥĹáĥĿáĥĳáĥĺ": 2650,
      "ĠáĥķáĥĲáĥłáĥĲ": 2651,
      "Ġà´Ĵà´¨": 2652,
      "spre": 2653,
      "áĥĲáĥłáĥļ": 2654,
      "ĠáĥĹáĥ®": 2655,
      "áĥĺáĥĻáĥļ": 2656,
      "àµģà´Ĥ,": 2657,
      "Ġdoch": 2658,
      "Ġkein": 2659,
      "à´ªà´°": 2660,
      "wir": 2661,
      "eig": 2662,
      "à¸ģà¸£à¸°": 2663,
      "à¸¡à¸²": 2664,
      "ĠSex": 2665,
      "burg": 2666,
      "ĠKont": 2667,
      "Ã¤d": 2668,
      "Ġviele": 2669,
      "Ġdos": 2670,
      "Ġlassen": 2671,
      "ĠWelt": 2672,
      "áĥĲáĥĽáĥĿ": 2673,
      "áĥĳáĥŁáĥĲáĥĶáĥĺáĥĿáĥļ": 2674,
      "áĥĶáĥľáĥĺáĥ¨": 2675,
      "áĥĲáĥľáĥ¬": 2676,
      "ĠáĥĽáĥĺáĥĻ": 2677,
      "ĠáĥĲáĥłáĥ¡": 2678,
      "ĠáĥĺáĥľáĥĵáĥĿáĥĶáĥĹáĥĺáĥ¨": 2679,
      "ĠáĥĶáĥłáĥ£áĥĲáĥľ": 2680,
      "2016": 2681,
      "ĠBo": 2682,
      "31": 2683,
      "alten": 2684,
      "schei": 2685,
      "à´¨à´¯": 2686,
      "Ġja": 2687,
      "ĠáĥĻáĥĲáĥļáĥĶáĥľáĥĵáĥĲáĥł": 2688,
      "áĥ£áĥŀ": 2689,
      "Ġáĥ¥áĥĺáĥĲáĥľáĥĲ": 2690,
      "áĥĲáĥłáĥĿ": 2691,
      "ĠáĥĶáĥĵáĥĿáĥĽáĥ£áĥ¨áĥĲáĥĽáĥĺ": 2692,
      "áĥĶáĥ¤áĥª": 2693,
      "ĠáĥĽáĥ£áĥĽ": 2694,
      "ĠMan": 2695,
      "Ġdenn": 2696,
      "inter": 2697,
      "ĠMus": 2698,
      "à¸²à¸£à¸ĸ": 2699,
      "Ġalles": 2700,
      "ews": 2701,
      "Ġel": 2702,
      "Ġzwischen": 2703,
      "dert": 2704,
      "à¸²à¸Ń": 2705,
      "ĠáĥľáĥĲáĥĽáĥ£áĥ¥áĥ·áĥĹ": 2706,
      "áĥĺáĥĲáĥ¨áĥĶ": 2707,
      "ĠáĥĲáĥĵáĥĽáĥĺáĥľáĥĺáĥ¡áĥ¢áĥłáĥĲáĥª": 2708,
      "ĠáĥĿáĥ¨áĥ¥": 2709,
      "áĥ£áĥłáĥĵ": 2710,
      "zent": 2711,
      "ange": 2712,
      "Ã¡n": 2713,
      "2012": 2714,
      "fÃ¼r": 2715,
      "bild": 2716,
      "akt": 2717,
      "ĠNutz": 2718,
      "Ġgeh": 2719,
      "ĠFor": 2720,
      "à´²à´ķ": 2721,
      "áĥĹáĥĲáĥķ": 2722,
      "ĠáĥĿáĥ®áĥķáĥĲáĥĽ": 2723,
      "ĠáĥĲáĥłáĥ«áĥĲ": 2724,
      "Ġáĥĺáĥľ": 2725,
      "Ġáĥ¤áĥĶ": 2726,
      "ĠáĥłáĥĻ": 2727,
      "áĥĺáĥľáĥĶáĥļáĥĺ": 2728,
      "áĥĲáĥĻáĥĶáĥłáĥ«": 2729,
      "à¹ģà¸ļà¸ļ": 2730,
      "à¹Ħà¸Ĺà¸¢": 2731,
      "cher": 2732,
      "Ġseit": 2733,
      "Ġà´ªà´¤": 2734,
      "ĠVerb": 2735,
      "ostenlos": 2736,
      "III": 2737,
      "undes": 2738,
      "à´ł": 2739,
      "Ich": 2740,
      "nung": 2741,
      "Ġà¸Ĭ": 2742,
      "amt": 2743,
      "zogen": 2744,
      "Ġáĥ¥áĥĺáĥĲáĥľáĥĲáĥ¡": 2745,
      "ĠáĥĽáĥ£áĥĵáĥĴ": 2746,
      "blem": 2747,
      "ats": 2748,
      "setz": 2749,
      "ĠmÃ¶ch": 2750,
      "uÃŁer": 2751,
      "Ġ'": 2752,
      "Ġà´¸à´¹": 2753,
      "itu": 2754,
      "Ġins": 2755,
      "Ġâ": 2756,
      "áĥ£áĥłáĥĹáĥ£áĥĹáĥĲ": 2757,
      "ĠáĥĹáĥĶáĥ": 2758,
      "ĠáĥĹáĥĶáĥľáĥĲ": 2759,
      "áĥ£áĥłáĥĲáĥ¨": 2760,
      "ĠáĥĿáĥĳáĥĺáĥĶáĥ¥": 2761,
      "ĠáĥĲáĥ¤áĥł": 2762,
      "ĠáĥĻáĥ£áĥĳ": 2763,
      "ax": 2764,
      "ento": 2765,
      "zie": 2766,
      "licher": 2767,
      "com": 2768,
      "áĥĶáĥłáĥ«áĥĶáĥľ": 2769,
      "ĠáĥĻáĥĿáĥĻáĥĶáĥ¤áĥĺ": 2770,
      "Ġáĥ¡áĥĺáĥĴ": 2771,
      "Ġáĥ®áĥĶáĥļ": 2772,
      "áĥĲáĥ¡áĥĺáĥĲáĥĹ": 2773,
      "áĥ¨áĥĲáĥ®": 2774,
      "ĠáĥĲáĥłáĥĹáĥĺ": 2775,
      "Ġsondern": 2776,
      "Ġben": 2777,
      "Ã¶l": 2778,
      "klÃ¤r": 2779,
      "ander": 2780,
      "pr": 2781,
      "Ã¤m": 2782,
      "à´°à´¦": 2783,
      "ĠLe": 2784,
      "ĠWar": 2785,
      "sel": 2786,
      "\",": 2787,
      "ĠAll": 2788,
      "ĠáĥľáĥĺáĥľáĥĲáĥ¨áĥĲ": 2789,
      "ĠáĥĵáĥĿáĥ®áĥĿáĥļáĥĲáĥ¤áĥĺáĥłáĥĿ": 2790,
      "ĠáĥĵáĥĿáĥ¡áĥ¥áĥĺáĥļáĥĲáĥĵáĥĺáĥłáĥĺ": 2791,
      "Ġáĥŀáĥĺáĥł": 2792,
      "ĠáĥŁáĥĺáĥłáĥĺ": 2793,
      "ĠáĥľáĥĲáĥłáĥĻáĥĺ": 2794,
      "áĥķáĥĶ": 2795,
      "Ġch": 2796,
      "ĠRecht": 2797,
      "Ñħ": 2798,
      "ros": 2799,
      "ritt": 2800,
      "alitÃ¤t": 2801,
      "atÃ¼r": 2802,
      "à´Ļà´¨": 2803,
      "Ġgef": 2804,
      "Ø§Ø": 2805,
      "stand": 2806,
      "Ġdieses": 2807,
      "«áĥĴ": 2808,
      "áĥĺáĥ¢áĥ§": 2809,
      "ĠáĥĲáĥłáĥĲáĥĳ": 2810,
      "ĠáĥĶáĥľáĥ": 2811,
      "ĠáĥĻáĥļáĥĲáĥłáĥ¯": 2812,
      "Ġthe": 2813,
      "à¸Ħà¸¥": 2814,
      "à¸²à¸¡à¸²à¸£à¸ĸ": 2815,
      "ice": 2816,
      "ĠTe": 2817,
      "mo": 2818,
      "45": 2819,
      "stag": 2820,
      "Wir": 2821,
      "Ġpo": 2822,
      "ite": 2823,
      "áĥĽáĥĺ": 2824,
      "Ġáĥ¢áĥ§": 2825,
      "áĥ£áĥłáĥ¥": 2826,
      "ign": 2827,
      "âĢĭâĢĭâĢĭ": 2828,
      "Ġà´Ĩà´¦": 2829,
      "stellung": 2830,
      "Sch": 2831,
      "àµĨ.": 2832,
      "à´¯à´µ": 2833,
      "Ġbesonder": 2834,
      "ĠsÃºa": 2835,
      "urz": 2836,
      "lagen": 2837,
      "ĠGl": 2838,
      "ĠáĥĽáĥĿáĥłáĥ©": 2839,
      "áĥĶáĥĵáĥĶáĥł": 2840,
      "áĥĺáĥ¨áĥĲ": 2841,
      "à´±à´µ": 2842,
      "ktu": 2843,
      "Ġandere": 2844,
      "Ġà¹Ģà¸Ľ": 2845,
      "ĠInformationen": 2846,
      "Ġeinz": 2847,
      "Ã¤re": 2848,
      "immer": 2849,
      "Ġinter": 2850,
      "Ġà¸Ĥ": 2851,
      "gang": 2852,
      "amp": 2853,
      "Ġpers": 2854,
      "fte": 2855,
      "ĠwÃ¼r": 2856,
      "ĠÑģ": 2857,
      "Ġdi": 2858,
      "Ġdabei": 2859,
      "ĠáĥŁáĥĲáĥłáĥľ": 2860,
      "ĠáĥĽáĥĶáĥļ": 2861,
      "áĥ¦áĥķ": 2862,
      "ĠáĥĻáĥĿáĥľáĥ¢": 2863,
      "ule": 2864,
      "Ġà¹ģà¸ķ": 2865,
      "berg": 2866,
      "eile": 2867,
      "Ġsol": 2868,
      "Ġà´ħà´Ń": 2869,
      "anden": 2870,
      "Ġbin": 2871,
      "Ġbesch": 2872,
      "ĠXX": 2873,
      "áĥ£áĥ¡áĥĺ": 2874,
      "áĥĲáĥľáĥ¥": 2875,
      "ĠáĥĳáĥĿáĥłáĥ¯áĥĺáĥ¨": 2876,
      "ĠáĥªáĥĶáĥľáĥ¢áĥłáĥĺ": 2877,
      "Ġáĥŀáĥĺáĥ¯": 2878,
      "ĠáĥĲáĥ®áĥĲáĥļ": 2879,
      "ĠáĥŀáĥłáĥĶáĥĸáĥĺáĥĵ": 2880,
      "ĠáĥĽáĥĲáĥ¦": 2881,
      "aupt": 2882,
      "ĠmÃ¶glich": 2883,
      "ĠMal": 2884,
      "ied": 2885,
      "ĠOn": 2886,
      "riff": 2887,
      "up": 2888,
      "à¹Ĭ": 2889,
      "indet": 2890,
      "rot": 2891,
      "Ġà´·": 2892,
      "Ã¤ÃŁ": 2893,
      "ĠUnternehmen": 2894,
      "....": 2895,
      "Ġáĥ£áĥ®": 2896,
      "ĠáĥĵáĥĿáĥ®áĥĿáĥł": 2897,
      "ĠáĥĴáĥĶáĥłáĥĽáĥĲáĥľ": 2898,
      "Ġáĥ¬áĥ·áĥĽáĥĲáĥłáĥĺáĥľáĥ£áĥĲáĥľáĥ¡": 2899,
      "ĠáĥłáĥĿáĥļ": 2900,
      "áĥĺáĥľáĥ¡": 2901,
      "Ġáĥ¯áĥĺáĥľáĥ¯": 2902,
      "ĠáĥĽáĥĶáĥ®": 2903,
      "Ġbeg": 2904,
      "à¸²à¸Ĭ": 2905,
      "ultur": 2906,
      "ĠFÃ¼r": 2907,
      "itte": 2908,
      "à¸ĩà¸Ĺ": 2909,
      "gram": 2910,
      "Ġà´µà´²": 2911,
      "Ġeben": 2912,
      "ĠEl": 2913,
      "annt": 2914,
      "àµº": 2915,
      "asch": 2916,
      "recht": 2917,
      "igkeit": 2918,
      "ĠJahre": 2919,
      "Ġáĥ¤áĥłáĥĲáĥľáĥĴ": 2920,
      "áĥĲáĥ¨áĥĿ": 2921,
      "áĥĲáĥ§": 2922,
      "Ġgest": 2923,
      "enz": 2924,
      "riv": 2925,
      "ĠInternet": 2926,
      "wort": 2927,
      "Ġbereits": 2928,
      "raf": 2929,
      "à´£à´®": 2930,
      "Ġersten": 2931,
      "à¸«à¸§": 2932,
      "Ġletz": 2933,
      "ĠáĥĽáĥĿáĥļ": 2934,
      "áĥļáĥĶ": 2935,
      "áĥķáĥĺ": 2936,
      "Ġáĥ¨áĥĲáĥľáĥ£áĥļáĥĲáĥĽáĥĺ": 2937,
      "ĠáĥłáĥĶáĥļ": 2938,
      "áĥ£áĥľáĥ¥": 2939,
      "ĠáĥĿáĥłáĥĵ": 2940,
      "ĠáĥĿáĥĵáĥĿ": 2941,
      "ker": 2942,
      "Ñĩ": 2943,
      "Ġao": 2944,
      "à´¹à´¤": 2945,
      "kun": 2946,
      "Ġwaren": 2947,
      "rum": 2948,
      "ober": 2949,
      "ĠDes": 2950,
      "Ġwill": 2951,
      "ĠWasser": 2952,
      "ĠThem": 2953,
      "Ã¶ffent": 2954,
      "Ġgeb": 2955,
      "ĠFre": 2956,
      "ĠáĥĽáĥĲáĥłáĥĴ": 2957,
      "áĥĿáĥłáĥ¡": 2958,
      "áĥĲáĥłáĥĹáĥĿ": 2959,
      "ĠáĥŀáĥĲáĥ¢": 2960,
      "áĥĺáĥłáĥĿáĥľ": 2961,
      "Ġverl": 2962,
      "à¹Ģà¸¢": 2963,
      "ĠáĥĴáĥĶáĥķáĥĲáĥł": 2964,
      "erne": 2965,
      "zw": 2966,
      "uche": 2967,
      "à¸Ńà¸ª": 2968,
      "Ġaller": 2969,
      "Ġkommen": 2970,
      "ierten": 2971,
      "Ã¤tz": 2972,
      "Ġà´®à´¤": 2973,
      "hol": 2974,
      "ĠáĥĽáĥĺáĥľ": 2975,
      "ĠáĥĲáĥľáĥ¢": 2976,
      "ĠáĥĲáĥĵáĥĲáĥĽáĥĺáĥĶáĥłáĥĺ": 2977,
      "Ġáĥ£áĥĽáĥĶáĥľáĥ¢": 2978,
      "áĥĲáĥĿáĥ": 2979,
      "ĠáĥĿáĥłáĥ®áĥķáĥĶáĥļ": 2980,
      "ĠáĥĿáĥĻáĥĺáĥĲáĥľ": 2981,
      "áĥĲáĥ¸áĥĲáĥ¤": 2982,
      "iÃ³n": 2983,
      "à¸Ńà¸Ńà¸ģ": 2984,
      "ĠPf": 2985,
      "ember": 2986,
      "ĠÃĸ": 2987,
      "ĠNeu": 2988,
      "ĠzurÃ¼ck": 2989,
      "auer": 2990,
      "ĠWoch": 2991,
      "ĠmÃ¼ssen": 2992,
      "tschaft": 2993,
      "mei": 2994,
      "à´İà´¸": 2995,
      "unter": 2996,
      "Ġsollte": 2997,
      "ry": 2998,
      "áĥĶáĥļáĥĶ": 2999,
      "áĥĲáĥĽáĥĳ": 3000,
      "ĠáĥĲáĥĽáĥĶáĥłáĥĺáĥĻáĥĲáĥ¨": 3001,
      "Ġáĥĵáĥĺáĥłáĥ": 3002,
      "áĥ£áĥļáĥĿ": 3003,
      "Ġáĥ¤áĥł": 3004,
      "Ġáĥ¡áĥĲáĥ¤áĥłáĥĲáĥľáĥĴ": 3005,
      "Ġzusammen": 3006,
      "ĠGew": 3007,
      "av": 3008,
      "Ein": 3009,
      "Ġseiner": 3010,
      "ts": 3011,
      "ĠArbeit": 3012,
      "ando": 3013,
      "ĠFil": 3014,
      "à¸Ĺà¸²à¸ĩ": 3015,
      "99": 3016,
      "àµģâĢĭ": 3017,
      "àµįâĢĮ.": 3018,
      "ian": 3019,
      "fin": 3020,
      "Ġáĥ¡áĥĲáĥĺ": 3021,
      "ĠáĥĲáĥĻáĥĿáĥĵáĥĴáĥĺáĥľáĥĲáĥļáĥ£": 3022,
      "ĠáĥĵáĥĶáĥĽ": 3023,
      "ĠáĥĲáĥĹáĥĶ": 3024,
      "Ġáĥ£áĥ¨": 3025,
      "ĠAu": 3026,
      "Ġáĥ¥áĥ·áĥĵ": 3027,
      "oc": 3028,
      "ome": 3029,
      "36": 3030,
      "âĢİ": 3031,
      "Ġkonn": 3032,
      "Ġà´ħà´§": 3033,
      "gar": 3034,
      "Ùħ": 3035,
      "essen": 3036,
      "ĠInter": 3037,
      "ĠKunden": 3038,
      "à´ķà´ª": 3039,
      "Ġà´²à´Ń": 3040,
      "hin": 3041,
      "áĥĶáĥłáĥĳ": 3042,
      "áĥĺáĥ¦áĥ·": 3043,
      "ĠáĥĽáĥĺáĥłáĥ": 3044,
      "ĠáĥĶáĥĻáĥĿáĥľáĥĿáĥĽ": 3045,
      "ĠáĥĲáĥĽáĥĶáĥłáĥĺáĥĻáĥĲáĥļáĥĺ": 3046,
      "áĥĶáĥ¤áĥ¨áĥĿ": 3047,
      "áĥ¡áĥ¢": 3048,
      "ĠáĥĽáĥĲáĥłáĥ": 3049,
      "à´Ńà´µ": 3050,
      "kten": 3051,
      "iss": 3052,
      "ĠWenn": 3053,
      "ubl": 3054,
      "ym": 3055,
      "à¸§à¸ģ": 3056,
      "Ġverschieden": 3057,
      "ÐµÐ": 3058,
      "chte": 3059,
      "Ġwo": 3060,
      "à¸Ĳ": 3061,
      "ĠSchw": 3062,
      "Ġà¸ģà¸²à¸£": 3063,
      "à´µà´¯": 3064,
      "folg": 3065,
      "áĥĿáĥľáĥĶáĥ©áĥĵáĥĿáĥķáĥĺáĥĹ": 3066,
      "áĥľáĥĲáĥłáĥĻáĥĺ": 3067,
      "ĠáĥĴáĥĿáĥłáĥ": 3068,
      "ĠáĥĴáĥĶáĥłáĥĴ": 3069,
      "áĥĺáĥĶáĥ¤áĥ¡": 3070,
      "áĥĶáĥ£áĥļ": 3071,
      "áĥĿáĥĳáĥĲáĥ¥": 3072,
      "ĠáĥĲáĥ¥": 3073,
      "¡áĥ¢áĥĺáĥ¢": 3074,
      "Ġáĥļáĥ·áĥĽáĥĲáĥ¨": 3075,
      "gleich": 3076,
      "2010": 3077,
      "Ġdiesen": 3078,
      "Ġà¸¥": 3079,
      "ĠGem": 3080,
      "à¸Ŀ": 3081,
      "Ð½Ð¸": 3082,
      "Ġdazu": 3083,
      "Ġjeder": 3084,
      "Ġneuen": 3085,
      "!!": 3086,
      "mann": 3087,
      "Ġáĥ¡áĥĻáĥĿáĥļ": 3088,
      "áĥĲáĥłáĥ£áĥļáĥĺ": 3089,
      "ĠáĥĿáĥ¤áĥ£áĥ¢": 3090,
      "ĠáĥľáĥĲáĥ®áĥĲáĥľáĥĵ": 3091,
      "Ġáĥ¯áĥķáĥĶáĥ¨áĥĺ": 3092,
      "áĥķáĥĶáĥľáĥ¯áĥĺ": 3093,
      "hÃ¤lt": 3094,
      "à¸ŀà¸£": 3095,
      "Ã¼nst": 3096,
      "à¸¢à¸¡": 3097,
      "ox": 3098,
      "à´Ĩ": 3099,
      "à´¸à´°": 3100,
      "Ã©n": 3101,
      "ĠMedi": 3102,
      "ĠArt": 3103,
      "spr": 3104,
      "Ġáĥ¥áĥĿáĥłáĥĹáĥ£áĥļáĥĺ": 3105,
      "áĥ·áĥļ": 3106,
      "ĠáĥĲáĥĻáĥĿáĥ¥áĥĺáĥĽ": 3107,
      "áĥĲáĥªáĥĺáĥĿáĥľ": 3108,
      "áĥ£áĥĽáĥĺ": 3109,
      "ĠáĥļáĥĺáĥĲáĥ¨áĥĲ": 3110,
      "áĥĶáĥłáĥĶáĥ¤áĥĺ": 3111,
      "áĥ£áĥľáĥ¢": 3112,
      "áĥĽáĥĲ": 3113,
      "áĥĺáĥŃáĥĶ": 3114,
      "áĥĿáĥ¡áĥ¢": 3115,
      "áĥĲáĥĺáĥľ": 3116,
      "ĠáĥĿáĥ¨áĥ¬áĥĲáĥľáĥ£áĥłáĥĲáĥ¡": 3117,
      "áĥĲáĥ£áĥ©": 3118,
      "ĠáĥĲáĥ¤áĥ®áĥĲáĥĸ": 3119,
      "ĠBild": 3120,
      "ĠMitt": 3121,
      "Ġà´ľà´¨": 3122,
      "tag": 3123,
      "à¸Ļà¸Ķ": 3124,
      "rage": 3125,
      "Ġheute": 3126,
      "ider": 3127,
      "ĠMo": 3128,
      "unkt": 3129,
      "isten": 3130,
      "áĥĿáĥĻáĥłáĥĲáĥ¢": 3131,
      "ĠáĥĽáĥĲáĥĴ": 3132,
      "ĠáĥĻáĥĲáĥľáĥĻ": 3133,
      "áĥĺáĥĲáĥł": 3134,
      "ĠáĥĵáĥĶ": 3135,
      "Ġà´īà´³": 3136,
      "angen": 3137,
      "ĠDiese": 3138,
      "zei": 3139,
      "\".": 3140,
      "à¹Ģà¸ļ": 3141,
      "Ġsei": 3142,
      "Ġsteht": 3143,
      "áĥĺáĥŀáĥĺáĥ¨": 3144,
      "áĥĻáĥĿáĥĽ": 3145,
      "áĥĶáĥ¤áĥĿ": 3146,
      "Ġáĥĳáĥłáĥĺáĥ¢": 3147,
      "áĥĲáĥ¨áĥ£áĥłáĥĺ": 3148,
      "ĠáĥķáĥĺáĥĹ": 3149,
      "Ġáĥĺáĥ¨": 3150,
      "ĠáĥķáĥĲáĥł": 3151,
      "ose": 3152,
      "Ġvers": 3153,
      "Ġà¹ĥà¸Ļ": 3154,
      "Ġihrer": 3155,
      "schlie": 3156,
      "ls": 3157,
      "Ġsex": 3158,
      "uer": 3159,
      "rÃ¼ck": 3160,
      "sicht": 3161,
      "ĠÐ²": 3162,
      "2015": 3163,
      "rad": 3164,
      "ĠáĥŀáĥłáĥĶáĥĽ": 3165,
      "áĥĲáĥ¡áĥĺ": 3166,
      "ĠáĥŀáĥĿáĥŀ": 3167,
      "áĥĺáĥķáĥĶáĥłáĥ¡": 3168,
      "áĥĺáĥłáĥĺáĥ¨": 3169,
      "ĠáĥĴáĥĲáĥľ": 3170,
      "ĠáĥĶáĥ¥": 3171,
      "ĠáĥĿáĥłáĥĹáĥĲáĥ¨": 3172,
      "áĥĿáĥļáĥ£áĥª": 3173,
      "wert": 3174,
      "ven": 3175,
      "ĠfÃ¼hr": 3176,
      "à´°à´µà´°": 3177,
      "altung": 3178,
      "Ã¤ng": 3179,
      "Ġà´Ĩà´¯": 3180,
      "à¹Ĥà¸¥": 3181,
      "Ġou": 3182,
      "ĠkÃ¶nn": 3183,
      "Ġ#": 3184,
      "à¸Ļà¸ģ": 3185,
      "ĠWei": 3186,
      "ĠáĥĿáĥ¤áĥĺáĥªáĥĺáĥĲáĥļáĥ£áĥłáĥĺ": 3187,
      "ĠáĥĴáĥķáĥĶáĥłáĥĵ": 3188,
      "ĠáĥĻáĥĿáĥ©áĥĺ": 3189,
      "áĥĺáĥłáĥĶ": 3190,
      "áĥ£áĥĹáĥĺ": 3191,
      "Ġáĥ®áĥĲáĥľ": 3192,
      "áĥĿáĥľáĥĺáĥĲ": 3193,
      "áĥĺáĥľáĥ«": 3194,
      "ÑģÑĤ": 3195,
      "Ġdrei": 3196,
      "orden": 3197,
      "stÃ¼t": 3198,
      "ĠFrei": 3199,
      "ĠSeite": 3200,
      "Ġkommt": 3201,
      "à¸£à¸Ħ": 3202,
      "à´²à´µ": 3203,
      "Ġfol": 3204,
      "par": 3205,
      "Ġáĥĳáĥĺáĥł": 3206,
      "2009": 3207,
      "Ġáĥ¨áĥ¢áĥĲáĥ¢áĥĺáĥ¨": 3208,
      "áĥ¢áĥĿáĥłáĥĺ": 3209,
      "ĠáĥĻáĥĿáĥĻáĥĺ": 3210,
      "áĥķáĥĺáĥŀ": 3211,
      "áĥĺáĥļáĥĺáĥ¨": 3212,
      "ĠáĥĶáĥ©": 3213,
      "ĠáĥĿáĥŃ": 3214,
      "áĥĶáĥĳáĥĲáĥĹ": 3215,
      "áĥĴáĥ£áĥ¨": 3216,
      "ĠáĥļáĥĲáĥĹ": 3217,
      "áĥĿáĥ®áĥĿáĥļáĥĶ": 3218,
      "Ġáĥ¸áĥĿáĥ¤": 3219,
      "ĠáĥĲáĥķáĥ¢áĥĿáĥľáĥĿáĥĽ": 3220,
      "Ã¤hrend": 3221,
      "Ġà´µà´³": 3222,
      "à¸Ļà¸Ħ": 3223,
      "àµ½à´ķ": 3224,
      "à¸Īà¸³": 3225,
      "seite": 3226,
      "à´±à´ķ": 3227,
      "licht": 3228,
      "ĠThe": 3229,
      "dung": 3230,
      "Ġschnell": 3231,
      "áĥĿáĥ¡áĥĺáĥ¨": 3232,
      "ĠáĥĳáĥĲáĥ¦": 3233,
      "Ġáĥªáĥ®": 3234,
      "ĠáĥĿáĥĿáĥłáĥ£áĥĶáĥ¨áĥĶ": 3235,
      "áĥĿáĥ¨áĥ¥": 3236,
      "áĥĲáĥłáĥĹáĥ·": 3237,
      "ĠáĥĽáĥĺáĥĽ": 3238,
      "Ġáĥĸáĥĺáĥ¢áĥ§": 3239,
      "áĥ£áĥĲáĥļ": 3240,
      "áĥ£áĥĽáĥĶ": 3241,
      "ĠáĥĲáĥłáĥĸ": 3242,
      "ect": 3243,
      "ote": 3244,
      "ĠÐ¿": 3245,
      "ĠSte": 3246,
      "ore": 3247,
      "à¸Ļà¸§": 3248,
      "cl": 3249,
      "euer": 3250,
      "rom": 3251,
      "Ġfest": 3252,
      "fern": 3253,
      "ĠSchl": 3254,
      "werk": 3255,
      "nahme": 3256,
      "grund": 3257,
      "ĠGen": 3258,
      "bung": 3259,
      "ĠAd": 3260,
      "áĥĿáĥłáĥª": 3261,
      "Ġáĥ¤áĥĶáĥĵáĥĶáĥł": 3262,
      "ĠáĥĽáĥ£áĥŁáĥĲáĥĽáĥ¡": 3263,
      "ĠáĥŀáĥĲáĥł": 3264,
      "ĠáĥĽáĥĲáĥłáĥĲáĥ¨": 3265,
      "ĠáĥŀáĥłáĥĿáĥª": 3266,
      "Ġáĥłáĥ£áĥ¡áĥĶáĥĹáĥĺáĥ¨": 3267,
      "Ġáĥ¦áĥĲáĥľáĥĻ": 3268,
      "ilder": 3269,
      "frei": 3270,
      "ĠÎ": 3271,
      "EN": 3272,
      "ĠEine": 3273,
      "ĠGro": 3274,
      "à¸£à¸ģ": 3275,
      "kehr": 3276,
      "ĠFall": 3277,
      "à¸ĩà¸Ħ": 3278,
      "à¸²à¸Ĥ": 3279,
      "nisse": 3280,
      "Ġeinmal": 3281,
      "Ġà¸ľ": 3282,
      "à´®à´¨": 3283,
      "à¸ŀà¸£à¸°": 3284,
      "ball": 3285,
      "ĠáĥĲáĥ¨": 3286,
      "Ġà¸«": 3287,
      "ĠáĥĵáĥĺáĥŃáĥ§áĥ·": 3288,
      "ĠáĥĽáĥĲáĥ¸": 3289,
      "ĠáĥłáĥĻáĥĺáĥľáĥĲáĥ¨": 3290,
      "Ġáĥ¬áĥĺáĥĽ": 3291,
      "áĥĻáĥļ": 3292,
      "asse": 3293,
      "yp": 3294,
      "Ã¶ÃŁ": 3295,
      "à´¯à´²": 3296,
      "ons": 3297,
      "à´·à´¤": 3298,
      "ĠUr": 3299,
      "à¸Ļà¸¡": 3300,
      "Ĥ¬": 3301,
      "Ġà´Ĩà´ķ": 3302,
      "ĠPar": 3303,
      "Ġalso": 3304,
      "Ġaut": 3305,
      "ĠPh": 3306,
      "ĠKomm": 3307,
      "fil": 3308,
      "ĠáĥĲáĥĳáĥĲáĥľ": 3309,
      "áĥĺáĥĻáĥ£áĥļáĥĺ": 3310,
      "áĥĺáĥ£áĥ¢": 3311,
      "áĥĺáĥĿáĥłáĥ": 3312,
      "ĠáĥĲáĥķáĥ¡áĥ¢áĥł": 3313,
      "ĠáĥľáĥĺáĥľáĥĲáĥ¨": 3314,
      "ĠáĥĴáĥĿáĥ¤áĥĲáĥ©áĥĺáĥļáĥĺ": 3315,
      "Ġà¹Ĥà¸Ķà¸¢": 3316,
      "2013": 3317,
      "lo": 3318,
      "Ġnos": 3319,
      "eitet": 3320,
      "arbeitung": 3321,
      "Ø§Ù": 3322,
      "Â»": 3323,
      "Ġcont": 3324,
      "ĠLin": 3325,
      "ĠnatÃ¼r": 3326,
      "alis": 3327,
      "à¦": 3328,
      "forder": 3329,
      "à¸£à¸²à¸°": 3330,
      "ĠStra": 3331,
      "áĥĲáĥłáĥĴáĥĲáĥļ": 3332,
      "Ġà¸¢": 3333,
      "ĠáĥĲáĥĽáĥĵáĥ¦": 3334,
      "Ġáĥ¡áĥĶáĥł": 3335,
      "Ġáĥ¬áĥĲáĥłáĥĽ": 3336,
      "áĥĺáĥĿáĥľáĥ¡": 3337,
      "áĥĺáĥ£áĥ¡": 3338,
      "ĠáĥĽáĥ£áĥĻ": 3339,
      "áĥĺáĥłáĥĻáĥķ": 3340,
      "ĠáĥĶáĥŃáĥĿáĥ¤": 3341,
      "Ġáĥ¤áĥĺáĥĸ": 3342,
      "áĥĶáĥĶáĥ¤áĥĺáĥ¨": 3343,
      "Ġáĥ®áĥĶáĥ¨": 3344,
      "ĠáĥĶáĥłáĥ£áĥĲáĥľáĥ£áĥļáĥĺ": 3345,
      "áĥĶáĥķáĥĿáĥļáĥ£áĥª": 3346,
      "ĠAuch": 3347,
      "ĠBundes": 3348,
      "à¸£à¸²à¸Ħ": 3349,
      "Ġverw": 3350,
      "mus": 3351,
      "Ġvoll": 3352,
      "à¸Ļà¸Ń": 3353,
      "à¸ĩà¸ģ": 3354,
      "one": 3355,
      "Ġmeine": 3356,
      "32": 3357,
      "Ġ=": 3358,
      "br": 3359,
      "áĥĲáĥłáĥĹáĥĿáĥĺáĥĲáĥľ": 3360,
      "áĥĲáĥ¤áĥ£áĥļ": 3361,
      "ĠáĥĽáĥĲáĥłáĥĹ": 3362,
      "ĠáĥŃáĥĺáĥŃáĥĶ": 3363,
      "ĠáĥĲáĥĵáĥĽáĥĺáĥľáĥĺáĥ¡áĥ¢áĥłáĥĲáĥªáĥĺáĥ£áĥļáĥĺ": 3364,
      "ĠáĥĻáĥĲáĥ¢": 3365,
      "Ġáĥłáĥ¡áĥ®": 3366,
      "ĠáĥĴáĥĶáĥ¸": 3367,
      "wor": 3368,
      "¥áĥĺáĥĲáĥľ": 3369,
      "reichen": 3370,
      "Ã¤nger": 3371,
      "Ġfrei": 3372,
      "aufen": 3373,
      "ĠWohn": 3374,
      "à¹Ģà¸Ħà¸£": 3375,
      "cke": 3376,
      "Ġà´®à´£": 3377,
      "à¸²à¸ļ": 3378,
      "ĠschÃ¶n": 3379,
      "à¸´à¹ī": 3380,
      "ĠFamil": 3381,
      "schein": 3382,
      "iet": 3383,
      "ĠAber": 3384,
      "áĥĽáĥĿáĥ¡áĥ¤áĥĶáĥł": 3385,
      "ĠáĥĺáĥłáĥļáĥĲáĥľáĥĵ": 3386,
      "Ġáĥ¯áĥĿáĥ®áĥĿáĥĵáĥķáĥĲáĥļáĥĲ": 3387,
      "ĠáĥĴáĥĺáĥľáĥĺáĥłáĥĹáĥ·": 3388,
      "áĥĶáĥłáĥ¥": 3389,
      "áĥĺáĥłáĥĺáĥľáĥ£áĥĲáĥ¤áĥ£": 3390,
      "ĠáĥĴáĥĿáĥķáĥĺáĥĹáĥĲáĥłáĥĲáĥ¤áĥĲáĥ¨": 3391,
      "Ĺáĥ£": 3392,
      "áĥĲáĥªáĥĺáĥĲáĥ¡": 3393,
      "Ġáĥ¥áĥ·áĥĽ": 3394,
      "Ġáĥĵáĥĺáĥ®áĥĲáĥ£áĥ©": 3395,
      "áĥ£áĥ©áĥ®": 3396,
      "ĠDurch": 3397,
      "ĠâĢĺ": 3398,
      "ĠAngeb": 3399,
      "2014": 3400,
      "ringen": 3401,
      "ina": 3402,
      "à¸ķà¸²à¸¡": 3403,
      "ĠSti": 3404,
      "à´ļà´¯": 3405,
      "Ġhoch": 3406,
      "Ġgar": 3407,
      "Ġweil": 3408,
      "ium": 3409,
      "falls": 3410,
      "2008": 3411,
      "ĠáĥĹáĥĲáĥ®": 3412,
      "Ġáĥ©áĥĲáĥľ": 3413,
      "ĠáĥĿáĥľ": 3414,
      "áĥĺáĥķáĥĶáĥłáĥ¡áĥĺáĥ¢áĥĶáĥ¢": 3415,
      "Ġáĥ¯áĥĺáĥĽ": 3416,
      "Ã¤h": 3417,
      "cial": 3418,
      "zug": 3419,
      "Ġà´Ĩà´£": 3420,
      "prÃ¤": 3421,
      "Ġdun": 3422,
      "Ġkom": 3423,
      "Ġihren": 3424,
      "ĠUS": 3425,
      "à¸Ľà¸¥": 3426,
      "gie": 3427,
      "immt": 3428,
      "ĠBuch": 3429,
      "ĠHier": 3430,
      "aff": 3431,
      "enk": 3432,
      "lÃ¤": 3433,
      "ĠIV": 3434,
      "ĠBau": 3435,
      "Ġwelche": 3436,
      "ĠGo": 3437,
      "Ġblei": 3438,
      "pti": 3439,
      "áĥĶáĥĿáĥł": 3440,
      "Ġáĥ¥áĥķ": 3441,
      "Ġáĥłáĥ¡": 3442,
      "ĠáĥĲáĥĵáĥĲáĥĽáĥĺáĥĶ": 3443,
      "ĠáĥĵáĥĲáĥŃáĥ§": 3444,
      "áĥĲáĥļáĥĺáĥĲáĥ¨": 3445,
      "Ġáĥŀáĥļ": 3446,
      "ĠáĥĴáĥĶáĥĴáĥľ": 3447,
      "ans": 3448,
      "Ver": 3449,
      "Ġlang": 3450,
      "stra": 3451,
      "ĠWie": 3452,
      "ĠFr": 3453,
      "ations": 3454,
      "ĠForm": 3455,
      "ĠRÃ¼ck": 3456,
      "à¹Ģà¸Ĺà¸¨": 3457,
      "Ġà´¸à´¨": 3458,
      "Ġrecht": 3459,
      "Ġho": 3460,
      "Ð¾Ð²": 3461,
      "fang": 3462,
      "lauf": 3463,
      "Ġfor": 3464,
      "ĠFot": 3465,
      "37": 3466,
      "Ġà¸«à¸£": 3467,
      "à¸ī": 3468,
      "ĠSh": 3469,
      "áĥĿáĥ©áĥ®": 3470,
      "áĥłáĥľ": 3471,
      "ĠáĥŀáĥĿáĥłáĥ¢": 3472,
      "áĥĲáĥĽáĥĺáĥ¨": 3473,
      "ĠáĥĶáĥĽ": 3474,
      "ĠáĥĹáĥ£áĥĹáĥĲáĥ¨áĥ®áĥĲ": 3475,
      "áĥĲáĥ©áĥĲáĥĽ": 3476,
      "ĠáĥĿáĥĽáĥĲáĥ¤áĥĶ": 3477,
      "áĥĶáĥ¥áĥľ": 3478,
      "áĥ¢áĥĺáĥ¨": 3479,
      "Ġáĥ¤áĥĶáĥĺáĥľáĥĽ": 3480,
      "Ġà´§": 3481,
      "ĠáĥłáĥĶáĥĴáĥĺáĥĿáĥľ": 3482,
      "ĠáĥĽáĥĿáĥľáĥ«": 3483,
      "áĥ£áĥĽáĥĲ": 3484,
      "kunft": 3485,
      "2007": 3486,
      "tre": 3487,
      "Ġlei": 3488,
      "Ġjedoch": 3489,
      "klich": 3490,
      "Ġerhalten": 3491,
      "à´±à´Ļ": 3492,
      "ionen": 3493,
      "ity": 3494,
      "à¸²à¸¨": 3495,
      "Ġsicher": 3496,
      "01": 3497,
      "agt": 3498,
      "áĥ£áĥĿ": 3499,
      "áĥĿáĥĽáĥĶáĥ¢": 3500,
      "áĥĶáĥľáĥĲáĥĵ": 3501,
      "Ġáĥ¢áĥĶáĥłáĥĺáĥ¢áĥĿáĥłáĥĺáĥĲ": 3502,
      "ĠáĥĴáĥĺáĥ¨áĥĽ": 3503,
      "áĥĶáĥłáĥķ": 3504,
      "ĠáĥłáĥĶáĥ¡áĥŀáĥ£áĥĳáĥļáĥĺáĥĻáĥĲáĥ¨": 3505,
      "ĠáĥłáĥĶáĥŁ": 3506,
      "áĥĶáĥĳáĥ£áĥĵáĥ·": 3507,
      "áĥĲáĥ¦áĥĲáĥļáĥĲáĥ¨": 3508,
      "reiben": 3509,
      "ennt": 3510,
      "gew": 3511,
      "th": 3512,
      "wicklung": 3513,
      "à¹Ģà¸ĭ": 3514,
      "tt": 3515,
      "à¸ĩà¸Ļ": 3516,
      "egen": 3517,
      "zial": 3518,
      "anst": 3519,
      "à¹Ģà¸ģà¸¡": 3520,
      "ame": 3521,
      "Im": 3522,
      "Ġihn": 3523,
      "ĠSchul": 3524,
      "Ġaktu": 3525,
      "aciÃ³ns": 3526,
      "áĥĲáĥŃáĥĲáĥł": 3527,
      "áĥĿáĥľáĥĶáĥĸ": 3528,
      "ĠáĥĴáĥĿáĥĲáĥłáĥĹáĥĿáĥĺáĥĲáĥľ": 3529,
      "áĥĲáĥ¡áĥ¥": 3530,
      "ĠáĥĿáĥĴ": 3531,
      "ĠáĥĽáĥĿáĥłáĥĿ": 3532,
      "áĥĿáĥĳáĥĶáĥ¤áĥĺáĥ¨": 3533,
      "Ġáĥĵáĥĺáĥłáĥ¡áĥ®áĥ£": 3534,
      "ĠáĥĶáĥŀ": 3535,
      "ĠáĥĻáĥķáĥĺáĥłáĥĻáĥķ": 3536,
      "«áĥĺáĥł": 3537,
      "áĥĲáĥłáĥ¡áĥ®áĥ£": 3538,
      "Ġáĥ¡áĥ¥áĥĺáĥłáĥĿáĥľ": 3539,
      "Ġperson": 3540,
      "rauch": 3541,
      "à´°à´³": 3542,
      "ĠStand": 3543,
      "ĠPreis": 3544,
      "à´¯à´¸": 3545,
      "ĠBr": 3546,
      "à´ķà´±": 3547,
      "Ġdort": 3548,
      "etter": 3549,
      "jekt": 3550,
      "ĠÃĦ": 3551,
      "Ø±": 3552,
      "ados": 3553,
      "ĠDien": 3554,
      "à¸²à¸°": 3555,
      "Ð¿": 3556,
      "à´¨à´²": 3557,
      "Ġà´Ĩà´µà´¶": 3558,
      "ĠáĥĲáĥ¢áĥĽáĥĿáĥ¡áĥ¤áĥĶáĥł": 3559,
      "ĠáĥĿáĥłáĥĴáĥĲáĥľáĥĿ": 3560,
      "áĥ¡áĥĲáĥĽ": 3561,
      "ĠáĥłáĥĲáĥĵ": 3562,
      "Ġáĥ¡áĥĲáĥ¥áĥĿáĥłáĥĹáĥ£áĥĿáĥ¡": 3563,
      "ĠáĥĹáĥ¥": 3564,
      "áĥĶáĥ¥áĥ¢áĥł": 3565,
      "ĠáĥĽáĥĿáĥĴ": 3566,
      "áĥĺáĥłáĥĲáĥ¤áĥĺáĥļáĥĺ": 3567,
      "Ġáĥĺáĥľáĥ¤": 3568,
      "Ġáĥĸáĥ£áĥ¦áĥĲ": 3569,
      "áĥĲáĥľáĥª": 3570,
      "ĠáĥĽáĥĿáĥ¡áĥĿáĥ¤áĥĶáĥļáĥ¡": 3571,
      "áĥĶáĥĳáĥĲáĥ¡": 3572,
      "Ġseinen": 3573,
      "ĠJu": 3574,
      "à¸Ĭà¸Ļ": 3575,
      "port": 3576,
      "lex": 3577,
      "ys": 3578,
      "rieben": 3579,
      "Ġà´¬à´¨": 3580,
      "Ġkostenlos": 3581,
      "ĠWeiter": 3582,
      "ĠGal": 3583,
      "Ã¼l": 3584,
      "Ġà´Ĩà´¶": 3585,
      "ĠMÃ¶glich": 3586,
      "uper": 3587,
      "gabe": 3588,
      "à¹ĥà¸«à¸į": 3589,
      "mar": 3590,
      "à´ªà´ķ": 3591,
      "áĥĶáĥłáĥĿáĥ¨": 3592,
      "ĠáĥķáĥĶáĥłáĥ¡": 3593,
      "ĠáĥŀáĥĿ": 3594,
      "Ġà´īà´ªà´¯": 3595,
      "ĠáĥĺáĥĻáĥĿáĥłáĥĿáĥªáĥ®": 3596,
      "áĥĶáĥĵáĥ·": 3597,
      "áĥ£áĥĽáĥĲáĥļ": 3598,
      "áĥĶáĥ¢áĥĺáĥ¨": 3599,
      "à´Łà´±": 3600,
      "ĠáĥĲáĥĴ": 3601,
      "áĥĶáĥłáĥĲáĥ¢": 3602,
      "Ġáĥ£áĥ«": 3603,
      "áĥ£áĥľáĥĵ": 3604,
      "áĥĲáĥļáĥ£áĥłáĥĿ": 3605,
      "Ġáĥ¡áĥ¢áĥł": 3606,
      "Ġáĥ¤áĥĺáĥļáĥĿáĥ¡áĥĿáĥ¤": 3607,
      "áĥĿáĥľáĥ¢": 3608,
      "à¹ģà¸ģ": 3609,
      "ĠáĥĴáĥĶáĥķáĥĲáĥłáĥĲ": 3610,
      "ipp": 3611,
      "gramm": 3612,
      "à¸ªà¸°": 3613,
      "à´¾à´Ĥ.": 3614,
      "ĠCook": 3615,
      "tikel": 3616,
      "ĠKar": 3617,
      "als": 3618,
      "ĠOnline": 3619,
      "ĠBerlin": 3620,
      "à¹Ħà¸¥": 3621,
      "schluss": 3622,
      "schn": 3623,
      "à¸¥à¸°": 3624,
      "Ġtod": 3625,
      "à´°à´¶": 3626,
      "mittel": 3627,
      "Ġà´®à´¨à´¸": 3628,
      "Ġbietet": 3629,
      "à¹ģà¸¡": 3630,
      "55": 3631,
      "ico": 3632,
      "urt": 3633,
      ".âĢľ": 3634,
      "Ġà´ķà´³": 3635,
      "fort": 3636,
      "ĠStu": 3637,
      "reg": 3638,
      "Ġáĥ¥áĥĿáĥłáĥĹáĥ£": 3639,
      "áĥĺáĥªáĥ®": 3640,
      "ĠáĥªáĥĲáĥ¨áĥ®áĥĲ": 3641,
      "áĥŀáĥł": 3642,
      "áĥĶáĥ¢áĥĺ": 3643,
      "ĠáĥĺáĥĻáĥĲáĥĹáĥ£": 3644,
      "rach": 3645,
      "Ġáĥ¨áĥķ": 3646,
      "áĥĿáĥłáĥ·": 3647,
      "à¸ªà¸£": 3648,
      "Ġbzw": 3649,
      "Ġ%,": 3650,
      "unt": 3651,
      "wa": 3652,
      "Ã¶rt": 3653,
      "ĠEuro": 3654,
      "ĠEurop": 3655,
      "ingen": 3656,
      "ivers": 3657,
      "Ġà´¨à´Łà´¨": 3658,
      "icherheit": 3659,
      "ĠBeg": 3660,
      "Ġstehen": 3661,
      "eitung": 3662,
      "Ġáĥ¯áĥĲáĥ¡áĥ¢": 3663,
      "ĠáĥĿáĥ®áĥĿáĥłáĥĲáĥľáĥ¡": 3664,
      "ĠáĥĶáĥ¡áĥŀáĥĲáĥľ": 3665,
      "Ġáĥĺáĥĳ": 3666,
      "ĠáĥĽáĥĶáĥ¨": 3667,
      "ĠáĥĵáĥĲáĥĽ": 3668,
      "ĠáĥŁáĥĲáĥ¨áĥ®áĥĲ": 3669,
      "ĠáĥĵáĥĶáĥŀ": 3670,
      "Ġáĥ®áĥĲáĥ¨áĥ£áĥłáĥĺ": 3671,
      "áĥ£áĥľáĥĵáĥ·": 3672,
      "áĥĿáĥªáĥĺ": 3673,
      "áĥĺáĥ¬áĥĻáĥ·áĥĽáĥĲ": 3674,
      "áĥķáĥĶáĥ¨": 3675,
      "ĠáĥŁáĥĺáĥł": 3676,
      "áĥĲáĥĴáĥĿáĥł": 3677,
      "ĠgroÃŁ": 3678,
      "Ġbeh": 3679,
      "à´ķà´°à´£": 3680,
      "yn": 3681,
      "Ġallem": 3682,
      "ĠFrauen": 3683,
      "kon": 3684,
      "Ġà´ĩà´ª": 3685,
      "Ġmacht": 3686,
      "uft": 3687,
      "ĠBereich": 3688,
      "à¸ªà¸Ļ": 3689,
      "urs": 3690,
      "Ġser": 3691,
      "asst": 3692,
      "ĠSon": 3693,
      "von": 3694,
      "igung": 3695,
      "uter": 3696,
      "isk": 3697,
      "Ã±a": 3698,
      "à¸Ĺà¸£": 3699,
      "áĥĲáĥ¡áĥ·áĥļ": 3700,
      "áĥĲáĥ¡áĥĺáĥ¨": 3701,
      "Ġáĥ¬áĥ§áĥĲáĥłáĥĺáĥ¨": 3702,
      "ĠáĥķáĥĺáĥĹáĥĿáĥ¨áĥĺ": 3703,
      "áĥ·áĥłáĥ": 3704,
      "Ġáĥ£áĥľáĥĺáĥķáĥĶáĥłáĥ¡áĥĺáĥ¢áĥĶáĥ¢": 3705,
      "ĠáĥĴáĥĺáĥľáĥĽ": 3706,
      "áĥĻáĥĺ": 3707,
      "ĠáĥŁáĥĺáĥłáĥ": 3708,
      "áĥĲáĥŁ": 3709,
      "ĠáĥĺáĥĴ": 3710,
      "Ġáĥ¸áĥ£áĥ¯": 3711,
      "ĠáĥĴáĥĿáĥ«": 3712,
      "Ġáĥ©áĥĺáĥľ": 3713,
      "ores": 3714,
      "bezogen": 3715,
      "esse": 3716,
      "Ġspiel": 3717,
      "75": 3718,
      "Ġà´ªà´ķ": 3719,
      "roffen": 3720,
      "Ġmus": 3721,
      "rist": 3722,
      "orgen": 3723,
      "44": 3724,
      "à¸®": 3725,
      "Ġand": 3726,
      "Ġà¹Ħà¸¡": 3727,
      "ĠÐ´": 3728,
      "Mit": 3729,
      "à¹ĥà¸«à¸¡": 3730,
      "ĠáĥĽáĥĲáĥ¤áĥĲ": 3731,
      "ĠáĥĵáĥĿáĥĻ": 3732,
      "Ġáĥ¡áĥĲáĥľ": 3733,
      "ĠáĥļáĥĶáĥ®": 3734,
      "ĠáĥĶáĥłáĥĻ": 3735,
      "ĠáĥĽáĥ£áĥľáĥĲáĥ©áĥĶáĥĽáĥĶáĥ¤áĥĺáĥĹ": 3736,
      "áĥĲáĥłáĥ®": 3737,
      "ĠáĥĹáĥ£áĥłáĥ¥": 3738,
      "ĠáĥĲáĥ¡áĥĶ": 3739,
      "under": 3740,
      "ogle": 3741,
      "à´¨à´µ": 3742,
      "ĠÐ¸": 3743,
      "tigt": 3744,
      "Ġà´ĩà´°": 3745,
      "ĠIhrer": 3746,
      "ĠMann": 3747,
      "bel": 3748,
      "Ġstatt": 3749,
      "rÃ¤n": 3750,
      "vid": 3751,
      "Ġà¹Ģà¸£": 3752,
      "aterial": 3753,
      "ino": 3754,
      "Es": 3755,
      "raft": 3756,
      "500": 3757,
      "bie": 3758,
      "are": 3759,
      ".)": 3760,
      "ĠHoch": 3761,
      "ÛĮ": 3762,
      "49": 3763,
      "Ġallen": 3764,
      "à¹Ĥà¸Ķà¸¢": 3765,
      "gaben": 3766,
      "ĠÂ«": 3767,
      "fÃ¤l": 3768,
      "ational": 3769,
      "áĥĲáĥ¢áĥĶáĥĽ": 3770,
      "ĠáĥĲáĥļáĥĳáĥĿáĥĽ": 3771,
      "áĥ¡áĥĲáĥ¥": 3772,
      "ĠáĥĹáĥĲáĥľáĥ¯": 3773,
      "Ġáĥ¢áĥĶáĥłáĥĺáĥ¢áĥĿáĥłáĥĺáĥĲáĥ¨": 3774,
      "ĠáĥĹáĥĶáĥ¥": 3775,
      "áĥĽáĥĲáĥĵ": 3776,
      "ĠáĥĴáĥĶáĥłáĥĴáĥĿáĥĳáĥĲáĥĹ": 3777,
      "áĥĺáĥ¡áĥĺ": 3778,
      "ĠáĥĿáĥĳáĥŁáĥĲáĥĹáĥĶáĥ¨áĥĶ": 3779,
      "ĠáĥłáĥĶáĥļáĥĺáĥĴ": 3780,
      "áĥĿáĥłáĥľ": 3781,
      "ĠáĥĽáĥĿáĥłáĥ©áĥĺáĥļáĥĺ": 3782,
      "ĠáĥĳáĥłáĥĶáĥļáĥĺ": 3783,
      "áĥĺáĥľáĥĲáĥļáĥĺ": 3784,
      "áĥĿáĥļáĥĿáĥĴáĥĺáĥĲ": 3785,
      "Ġáĥ¨áĥ£áĥłáĥĺáĥ¨": 3786,
      "ĠáĥĶáĥŃáĥĲáĥł": 3787,
      "ĠáĥĿáĥĳáĥĺáĥĶáĥ¥áĥ¢": 3788,
      "áĥĶáĥľáĥ¢áĥĺáĥ¨": 3789,
      "ĠáĥĴáĥĿáĥ«áĥķáĥĶáĥľ": 3790,
      "ĠáĥĴáĥ·áĥĽáĥĲáĥĹ": 3791,
      "ĠáĥłáĥĶáĥķáĥĿáĥļáĥ£áĥª": 3792,
      "ĉĊ": 3793,
      "à´°à´§": 3794,
      "Ġà¸ĸ": 3795,
      "à´²à´®": 3796,
      "Ġra": 3797,
      "ĠDies": 3798,
      "Ġà´īà´¦": 3799,
      "orf": 3800,
      "mb": 3801,
      "Ġkon": 3802,
      "unst": 3803,
      "à´§à´¤": 3804,
      "Ġpl": 3805,
      "tiert": 3806,
      "ief": 3807,
      "Ġà´Ĳ": 3808,
      "stens": 3809,
      "à´²à´¨": 3810,
      "ĠProblem": 3811,
      "ĠáĥĽáĥĿáĥ£áĥłáĥ¡": 3812,
      "áĥĲáĥłáĥĳ": 3813,
      "ĠáĥĳáĥŁáĥĲáĥĶáĥĺáĥĿáĥļáĥ¨áĥĶ": 3814,
      "áĥ¡áĥĺ": 3815,
      "ĠáĥľáĥĿáĥ¦áĥĲáĥ¡": 3816,
      "áĥĿáĥ¤áĥĶáĥ¡": 3817,
      "©áĥ¥áĥĺáĥľáĥĶáĥļáĥĺ": 3818,
      "ĠáĥĶáĥ©áĥĵ": 3819,
      "ĠáĥĴáĥ£áĥĽ": 3820,
      "ĠáĥĲáĥĳáĥĲáĥľáĥĺ": 3821,
      "áĥ£áĥłáĥ£": 3822,
      "Ġáĥ£áĥĴ": 3823,
      "áĥĿáĥŀáĥĶáĥĵ": 3824,
      "tier": 3825,
      "à´ľà´¨": 3826,
      "à´ªà´±": 3827,
      "ĠNov": 3828,
      "ĠCo": 3829,
      "Ġgerne": 3830,
      "Ġbel": 3831,
      "ĠHot": 3832,
      "IN": 3833,
      "Ġà¹Ģà¸¡": 3834,
      "schaften": 3835,
      "à´¬à´¨": 3836,
      "uni": 3837,
      "à´¤à´ª": 3838,
      "schied": 3839,
      "ette": 3840,
      "Ġwichtig": 3841,
      "ĠLebens": 3842,
      "à¸²à¸Īà¸°": 3843,
      "hÃ¶": 3844,
      "weit": 3845,
      "ĠáĥĳáĥĲáĥ®": 3846,
      "Ã¤nder": 3847,
      "áĥĿáĥĽáĥĺáĥľ": 3848,
      "Ġáĥľáĥĺáĥ£": 3849,
      "Ġáĥ£áĥ®áĥ£áĥłáĥĴ": 3850,
      "áĥĶáĥļáĥ¥": 3851,
      "Ġáĥ¥áĥĺáĥłáĥ¡áĥĶáĥĹ": 3852,
      "áĥĺáĥľáĥĲáĥ¤": 3853,
      "áĥĲáĥķáĥĻ": 3854,
      "ĠáĥŀáĥĿáĥŀáĥ£áĥļ": 3855,
      "Ġáĥ®áĥĲáĥľáĥĵ": 3856,
      "áĥĺáĥĻáĥĿáĥ¡áĥĺ": 3857,
      "áĥ£áĥłáĥĲáĥĹ": 3858,
      "áĥĲáĥĻáĥĶáĥłáĥ«áĥĲáĥ¤áĥĺáĥļáĥĿ": 3859,
      "ĠáĥŀáĥłáĥĿ": 3860,
      "ĠáĥĿáĥłáĥ®áĥķáĥĶáĥļáĥ·": 3861,
      "ĠBeh": 3862,
      "bei": 3863,
      "Ġweitere": 3864,
      "Ã¤ft": 3865,
      "Ġà´®à´²à´¯": 3866,
      "ager": 3867,
      "uren": 3868,
      "rich": 3869,
      "Ġres": 3870,
      "erk": 3871,
      "à¸ªà¸²à¸¡à¸²à¸£à¸ĸ": 3872,
      "Ġà´¨à´Łà´ª": 3873,
      "uhe": 3874,
      "Ġwollen": 3875,
      "ĠEnde": 3876,
      "áĥ¡áĥĲáĥ¥áĥĿáĥłáĥĹáĥ£": 3877,
      "áĥĻáĥĲáĥł": 3878,
      "ĠáĥĽáĥ£áĥŁáĥĲáĥĽáĥ¡áĥ·áĥĹ": 3879,
      "ĠáĥĲáĥĽáĥ¨": 3880,
      "Ġáĥľáĥ«áĥĲáĥļ": 3881,
      "Ġáĥ¯áĥĲáĥłáĥĲáĥļáĥ£": 3882,
      "ĠáĥĴáĥĺáĥľáĥĿáĥłáĥĹáĥĲ": 3883,
      "Ġáĥ¡áĥĿáĥĽ": 3884,
      "áĥĲáĥľáĥĲáĥ¨": 3885,
      "ĠáĥĴáĥĶáĥĽ": 3886,
      "Ġáĥ£áĥľáĥ": 3887,
      "âĢĮ": 3888,
      "áĥĶáĥ¡áĥĺáĥ¡": 3889,
      "ĠáĥĽáĥĺáĥ¨áĥĽáĥ£áĥłáĥ¡": 3890,
      "ĠáĥĴáĥĿáĥ«áĥķáĥĶáĥľáĥĲáĥ¡": 3891,
      "áĥĺáĥĸáĥĽáĥĺáĥ¨": 3892,
      "echn": 3893,
      "áĥĺáĥĻáĥļáĥĿáĥŀáĥĶáĥĵ": 3894,
      "utzen": 3895,
      "ĠâĢ¦": 3896,
      "ÙĪ": 3897,
      "Ġà´īà´¤": 3898,
      "08": 3899,
      "ĠBÃ¼": 3900,
      "CH": 3901,
      "Ġà´®à´°": 3902,
      "neh": 3903,
      "Ġca": 3904,
      "Ġà´ķà´²": 3905,
      "Ġsehen": 3906,
      "ĠmÃ¶chte": 3907,
      "Ġà´ħà´µà´¸": 3908,
      "Ġletzten": 3909,
      "zeug": 3910,
      "áĥĿáĥļáĥĺáĥ¨": 3911,
      "Ġáĥ¨áĥĶáĥĵ": 3912,
      "áĥ¤áĥłáĥĲáĥľáĥĴ": 3913,
      "ĠáĥĶáĥĴáĥķáĥĺáĥŀ": 3914,
      "ĠáĥĶáĥ¡": 3915,
      "ĠáĥĺáĥŃáĥ§": 3916,
      "áĥ£áĥĵáĥĶ": 3917,
      "áĥĺáĥ¢áĥĶáĥłáĥĲáĥ¢": 3918,
      "Ġáĥ¡áĥŀáĥĶáĥª": 3919,
      "áĥľáĥ¡": 3920,
      "áĥĶáĥĴáĥĿáĥł": 3921,
      "Ġáĥĵáĥĺáĥ®áĥĲáĥ£áĥ©áĥĲáĥ¨": 3922,
      "site": 3923,
      "à¹Ģà¸¥à¸¢": 3924,
      "Ġà´²à´ķ": 3925,
      "ilfe": 3926,
      "Ġbesser": 3927,
      "à¹Ģà¸Ńà¸ĩ": 3928,
      "gestellt": 3929,
      "Ġir": 3930,
      "65": 3931,
      "ĠIII": 3932,
      "2006": 3933,
      "Ġà¸Ľà¸£à¸°": 3934,
      "ĠwÃ¼rde": 3935,
      "hand": 3936,
      "à¸ĩà¸¡": 3937,
      "//": 3938,
      "ital": 3939,
      "bet": 3940,
      "à¹ĥà¸Ļà¸ģà¸²à¸£": 3941,
      "bo": 3942,
      "old": 3943,
      "à¸Ķà¸ª": 3944,
      "Ġdirekt": 3945,
      "Ġliegt": 3946,
      "áĥĲáĥªáĥĺáĥĿáĥľáĥĲáĥļáĥ£áĥłáĥĺ": 3947,
      "áĥĿáĥĳáĥ£áĥłáĥĿ": 3948,
      "ĠáĥłáĥĵáĥĶáĥ¡": 3949,
      "ĠáĥłáĥĶáĥĴáĥĺáĥĿáĥľáĥ¡": 3950,
      "ĠáĥŀáĥłáĥĿáĥķáĥĺáĥľáĥªáĥĺáĥĲ": 3951,
      "ĠáĥĿáĥŀ": 3952,
      "Ġáĥ¢áĥĶáĥ¥áĥľ": 3953,
      "ĠáĥĻáĥĲáĥļáĥĶáĥľáĥĲáĥĵ": 3954,
      "ĠáĥĻáĥĲáĥļáĥĶáĥľáĥĵáĥĲáĥłáĥĶáĥ¤áĥ¡": 3955,
      "ĠáĥĻáĥĲáĥļáĥĶáĥľáĥĲáĥĵáĥłáĥĺáĥ¨": 3956,
      "áĥľáĥĲ": 3957,
      "ĠáĥĲáĥĵáĥĲáĥĽáĥĺáĥĶáĥłáĥĺáĥ¨": 3958,
      "áĥĲáĥľáĥĺáĥĲ": 3959,
      "Ġáĥ¯áĥ£áĥĽ": 3960,
      "áĥ£áĥļáĥ¡": 3961,
      "áĥĿáĥĵáĥĺáĥłáĥĹáĥ£": 3962,
      "ahmen": 3963,
      "Ġáĥ¨áĥ¢áĥĲáĥ¢áĥĺ": 3964,
      "ĠáĥĿáĥ¡áĥ®": 3965,
      "Ġáĥ£áĥĽáĥĲáĥ¦áĥĲáĥļáĥĲáĥ¨": 3966,
      "à¸Ĺà¸ĺ": 3967,
      "áĥ£áĥłáĥľ": 3968,
      "à´¤à´¯": 3969,
      "ciÃ³ns": 3970,
      "ond": 3971,
      "Ġgeben": 3972,
      "Ã¼hl": 3973,
      "sta": 3974,
      "Ġteil": 3975,
      "Ġà´ĩà´µ": 3976,
      "à¸ļà¸ģà¸²à¸£": 3977,
      "opp": 3978,
      "stehen": 3979,
      "je": 3980,
      "à´°à´ŀ": 3981,
      "61": 3982,
      "Ð¼": 3983,
      "39": 3984,
      "à¸Īà¸£": 3985,
      "les": 3986,
      "ĠZusammen": 3987,
      "ĠBesch": 3988,
      "Ġunseren": 3989,
      ".:": 3990,
      "inde": 3991,
      "obil": 3992,
      "Ġgemein": 3993,
      "gangen": 3994,
      "à¸Ļà¸³": 3995,
      "Ġáĥłáĥ£áĥ¡áĥĹáĥĲáĥķ": 3996,
      "ĠMe": 3997,
      "ĠáĥĳáĥŁáĥĲáĥ¨": 3998,
      "Ġáĥ£áĥ®áĥ£áĥłáĥĴáĥĲáĥľáĥ¡": 3999,
      "Ġáĥĳáĥĺáĥĸ": 4000,
      "Ġáĥłáĥĸ": 4001,
      "Ġáĥ¯áĥķáĥĶáĥ¨": 4002,
      "áĥ·áĥľáĥ¡": 4003,
      "áĥłáĥ£áĥļ": 4004,
      "Ġáĥ¡áĥĲáĥł": 4005,
      "áĥĴáĥ£áĥłáĥĲ": 4006,
      "ĠáĥĻáĥĿáĥĽáĥŀáĥĺáĥ£áĥ¢": 4007,
      "áĥĺáĥ¨áĥ®áĥĲ": 4008,
      "ĠáĥĿáĥĳáĥĺáĥ¨áĥ®áĥĲ": 4009,
      "Ġáĥ¯áĥĴ": 4010,
      "ĠáĥĽáĥĿáĥł": 4011,
      "áĥĺáĥĹáĥ®": 4012,
      "ĠáĥĲáĥ¬": 4013,
      "ĠáĥŀáĥĲáĥłáĥ¢": 4014,
      "icken": 4015,
      "ĠáĥĴáĥĶáĥĿáĥĴáĥłáĥĲáĥ¤áĥĺáĥ£áĥļáĥĺ": 4016,
      "einer": 4017,
      "Ã¤u": 4018,
      "zer": 4019,
      "tlich": 4020,
      "à¸¤": 4021,
      "à´Ĺà´Ļ": 4022,
      "lt": 4023,
      "Ġat": 4024,
      "à´Łà´®": 4025,
      "schlieÃŁ": 4026,
      "Ġwirklich": 4027,
      "ĠFol": 4028,
      "ĠgrÃ¶ÃŁ": 4029,
      "âĢĶ": 4030,
      "achsen": 4031,
      "://": 4032,
      "achten": 4033,
      "resse": 4034,
      "Ġhand": 4035,
      "à¹ģà¸Ĺ": 4036,
      "Pro": 4037,
      "à´±à´ª": 4038,
      "à´µà´²": 4039,
      "ĠÂ»": 4040,
      "ĠdafÃ¼r": 4041,
      "Ã¼nf": 4042,
      "enbezogen": 4043,
      "ĠáĥĵáĥĶáĥĽáĥĿáĥĻáĥłáĥĲáĥ¢": 4044,
      "ĠáĥĽáĥĶáĥĵ": 4045,
      "ĠáĥĶáĥķáĥłáĥĿáĥŀáĥĲáĥ¡": 4046,
      "ĠáĥĲáĥłáĥĹáĥĺáĥĲáĥľ": 4047,
      "ĠáĥĻáĥĿáĥľáĥĻ": 4048,
      "Ġáĥ£áĥ«áĥĲáĥ®": 4049,
      "ĠáĥĹáĥĺáĥľáĥĶáĥ¤áĥ¡": 4050,
      "ĠáĥĽáĥĶáĥļáĥĲáĥ®": 4051,
      "ĠáĥĽáĥĲáĥłáĥĲáĥ¨áĥĺáĥľáĥĲáĥĹ": 4052,
      "Ġáĥ¨áĥ£áĥłáĥĺáĥ¨áĥ®áĥĲ": 4053,
      "à´¨à´µà´°": 4054,
      "Ġáĥ¡áĥĲ": 4055,
      "áĥĺáĥ¡áĥ®": 4056,
      "áĥĲáĥľáĥ¯áĥ¦áĥķ": 4057,
      "áĥĿáĥļáĥĿáĥĴáĥĺáĥ£áĥłáĥĺ": 4058,
      "áĥĹáĥĶ": 4059,
      "ĠáĥĵáĥĿáĥłáĥ¡áĥ®áĥ£áĥĲáĥ¤": 4060,
      "áĥĲáĥķáĥĺáĥĹ": 4061,
      "Ġáĥ§áĥĲáĥł": 4062,
      "Ġleich": 4063,
      "ĠnÃ¤ch": 4064,
      "Ġà´İà´´": 4065,
      "ĠáĥĴáĥĶáĥķáĥĲáĥłáĥĲáĥ¨": 4066,
      "ruf": 4067,
      "à¸Ķà¸Ļ": 4068,
      "ĠMod": 4069,
      "opf": 4070,
      "Ġkonnte": 4071,
      "bre": 4072,
      "ĠGemein": 4073,
      "Ġgenau": 4074,
      "à¹Ħà¸£": 4075,
      "Ġnichts": 4076,
      "Ġà´İà´¸": 4077,
      "Ġu": 4078,
      "ister": 4079,
      "Ġà´ħà´¯": 4080,
      "itzen": 4081,
      "mit": 4082,
      "à´ļà´°": 4083,
      "Ġinform": 4084,
      "Ġà´ĵà´°": 4085,
      "ĠSeiten": 4086,
      "à¹Ģà¸ĺ": 4087,
      "ache": 4088,
      "ĠMusik": 4089,
      "à¸ģà¸ķ": 4090,
      "áĥĿáĥ°": 4091,
      "áĥĺáĥĿáĥļáĥĺ": 4092,
      "ĠáĥĹáĥĺáĥĽ": 4093,
      "áĥĽáĥĲáĥľ": 4094,
      "ĠáĥĴáĥĲáĥļ": 4095,
      "ĠáĥĽáĥĲáĥĻáĥĲáĥĹáĥ£áĥłáĥĺ": 4096,
      "áĥĲáĥłáĥĲáĥĹ": 4097,
      "ĠáĥłáĥĶáĥľáĥĲ": 4098,
      "ĠáĥĴáĥ·áĥĽáĥĿáĥłáĥĺáĥľ": 4099,
      "áĥĲáĥłáĥ©áĥ®": 4100,
      "áĥĲáĥĵáĥĺáĥª": 4101,
      "ĠáĥĴáĥ·áĥľáĥĺáĥłáĥĹáĥ·": 4102,
      "ĠáĥĶáĥĻáĥĶáĥľ": 4103,
      "áĥĺáĥľáĥ£áĥĿ": 4104,
      "áĥĺáĥĸáĥĽáĥĺ": 4105,
      "ĠáĥļáĥĲáĥĹáĥĺáĥľ": 4106,
      "ĠáĥĲáĥķáĥ¢áĥĿáĥľáĥĿáĥĽáĥĺáĥ£áĥłáĥĺ": 4107,
      "áĥĲáĥ¡áĥ¢áĥł": 4108,
      "ĠnatÃ¼rlich": 4109,
      "Ġbef": 4110,
      "app": 4111,
      "arm": 4112,
      "Mail": 4113,
      "voll": 4114,
      "ganis": 4115,
      "à´±à´¨": 4116,
      "inen": 4117,
      "Ġà´µà´³à´°": 4118,
      "ĠWeg": 4119,
      "à¥": 4120,
      "dings": 4121,
      "inger": 4122,
      "cker": 4123,
      "omat": 4124,
      "ĠSchn": 4125,
      "à´İà´¨": 4126,
      "à¸Ļà¸¢": 4127,
      "Ġbra": 4128,
      "Ġdenen": 4129,
      "Ð·": 4130,
      "à¸Ķà¸ķ": 4131,
      "2005": 4132,
      "ĠTh": 4133,
      "áĥ£áĥĶáĥ¤áĥ¡": 4134,
      "áĥŀáĥĿáĥłáĥ¢": 4135,
      "áĥĲáĥĶáĥĺáĥĿáĥļáĥĺ": 4136,
      "ĠáĥķáĥĲáĥļ": 4137,
      "ĠáĥĴáĥ·áĥĹ": 4138,
      "Ġáĥ°áĥĲáĥķ": 4139,
      "áĥķáĥĲáĥĵáĥ·": 4140,
      "ĠáĥĲáĥ¦": 4141,
      "áĥĲáĥľáĥĵáĥĶáĥ¡": 4142,
      "áĥĺáĥ¥áĥ¡": 4143,
      "Ġáĥ¬áĥĺáĥĽáĥĺáĥľáĥĵ": 4144,
      "áĥĿáĥľáĥĺáĥĲáĥ¨": 4145,
      "ĠáĥĽáĥĶáĥĴ": 4146,
      "áĥ¥áĥķ": 4147,
      "ĠáĥĲáĥĺ": 4148,
      "ĠOber": 4149,
      "àµ¼à´¨": 4150,
      "à¸ģà¸£à¸£à¸¡": 4151,
      "druck": 4152,
      "à¹Ģà¸§à¸¥": 4153,
      "ĠFach": 4154,
      "genden": 4155,
      "esser": 4156,
      "ÃŃn": 4157,
      "ckt": 4158,
      "Ġà¸«à¸Ļ": 4159,
      "nehmen": 4160,
      "Ġjeden": 4161,
      "stoff": 4162,
      "ĠFin": 4163,
      "det": 4164,
      "Ġà´µà´´": 4165,
      "antwort": 4166,
      "ĠChr": 4167,
      "ĠCon": 4168,
      "ĠIhren": 4169,
      "ĠCl": 4170,
      "Ġvielen": 4171,
      "Ġseinem": 4172,
      "Ġpersonenbezogen": 4173,
      "ĠPlatz": 4174,
      "âĢľ.[": 4175,
      "org": 4176,
      "ruppe": 4177,
      "à´·à´®": 4178,
      "Ġáĥ¢áĥĺáĥĽ": 4179,
      "Ġáĥĺáĥľáĥ¢áĥĶáĥłáĥľ": 4180,
      "áĥĺáĥĲáĥľáĥĲáĥ¨": 4181,
      "Ġáĥ¡áĥĿáĥĵáĥĶ": 4182,
      "Ġáĥ¡áĥĲáĥĴ": 4183,
      "ĠáĥĴáĥĶáĥ¨": 4184,
      "áĥĲáĥ¤áĥĲáĥ¥": 4185,
      "áĥĿáĥľáĥĲ": 4186,
      "ĠáĥĽáĥĿáĥ¡": 4187,
      "Ġáĥ¨áĥĲáĥľáĥĶáĥľáĥ¡": 4188,
      "ĠáĥĴáĥĶáĥĴáĥĽ": 4189,
      "áĥĺáĥľáĥĲáĥļ": 4190,
      "Ġáĥ¢áĥĶáĥłáĥĽ": 4191,
      "áĥĺáĥļáĥĿ": 4192,
      "áĥ£áĥ¯áĥĺáĥľáĥ£áĥĿ": 4193,
      "áĥĶáĥĶáĥ¤áĥĺ": 4194,
      "áĥĺáĥĶáĥļ": 4195,
      "rift": 4196,
      "âĢľ)": 4197,
      "Ð±": 4198,
      "Î¿": 4199,
      "weis": 4200,
      "Ġnie": 4201,
      "AN": 4202,
      "Ã¤ter": 4203,
      "Ġihm": 4204,
      "ĠVide": 4205,
      "Ġà´ªà´²": 4206,
      "ĠSport": 4207,
      "zin": 4208,
      "Ġarb": 4209,
      "feld": 4210,
      "Ġschw": 4211,
      "verb": 4212,
      "mÃ¶glich": 4213,
      "Ã¶rper": 4214,
      "à´Ĳ": 4215,
      "por": 4216,
      "Ġà´İà´Ł": 4217,
      "à¸ļà¸Ļ": 4218,
      "Ġrund": 4219,
      "Ġà´ķà´¥": 4220,
      "ĠFer": 4221,
      "ĠáĥĴáĥĿáĥĶáĥłáĥĿáĥ¨": 4222,
      "ĠáĥĹáĥĲáĥ®áĥĲáĥ¨áĥ®áĥĲ": 4223,
      "Ġáĥ¨áĥĶáĥĵáĥĶáĥĴ": 4224,
      "ĠáĥĳáĥĶáĥłáĥ«áĥĶáĥľ": 4225,
      "ĠáĥľáĥĺáĥľáĥĶáĥ¤áĥĺáĥ¨": 4226,
      "ĠáĥĽáĥ£áĥĵáĥĲáĥľáĥĿáĥĳáĥĲ": 4227,
      "ĠáĥĽáĥĶáĥĹ": 4228,
      "ĠáĥĴáĥ·áĥĽáĥĺáĥłáĥĺáĥľáĥ£áĥĲáĥ¤áĥ£": 4229,
      "ĠáĥĲáĥłáĥ¡áĥĶáĥĳ": 4230,
      "ĠáĥĴáĥĶáĥľ": 4231,
      "ĠáĥĻáĥ£áĥľáĥ¢": 4232,
      "ĠáĥĳáĥŁáĥĲáĥĵ": 4233,
      "ĠáĥĴáĥĲáĥĴ": 4234,
      "ĠáĥŀáĥłáĥĿáĥĵ": 4235,
      "ĠáĥĽáĥĿáĥ¦": 4236,
      "iere": 4237,
      "Ġáĥ£áĥĻáĥ£áĥļ": 4238,
      "Ġáĥ¡áĥĲáĥ£": 4239,
      "ĠáĥĽáĥĺáĥĲáĥł": 4240,
      "ĠáĥĿáĥ£áĥłáĥĵ": 4241,
      "Ġáĥ¤áĥĺáĥļáĥĽáĥĺáĥ¡": 4242,
      "ĠáĥĿáĥ£áĥłáĥĵáĥ£áĥĽáĥĶ": 4243,
      "áĥĺáĥłáĥ£": 4244,
      "Ġáĥ¡áĥ®áĥ£áĥľáĥ£áĥĶáĥ¤áĥĺáĥ¨": 4245,
      "ĠáĥłáĥĿáĥĽáĥĺáĥ¨": 4246,
      "à´ļà´¨": 4247,
      "ĠáĥĴáĥĶáĥķáĥĲáĥłáĥĲáĥ¥": 4248,
      "utter": 4249,
      "à¸ģà¸Ĺ": 4250,
      "ĠZahl": 4251,
      "heim": 4252,
      "etten": 4253,
      "à´¸à´®": 4254,
      "ire": 4255,
      "ĠTer": 4256,
      "vent": 4257,
      "reffen": 4258,
      "à¸ªà¸³à¸«à¸£": 4259,
      "à´°à´¹": 4260,
      "ĠSer": 4261,
      "anten": 4262,
      "ennen": 4263,
      "leist": 4264,
      "Ġeinge": 4265,
      "ings": 4266,
      "à´ªà´£": 4267,
      "ĠwÃ¤hrend": 4268,
      "ilt": 4269,
      "ative": 4270,
      "Ġdarauf": 4271,
      "à´¯à´®à´¨": 4272,
      "aÃŁ": 4273,
      "ĠáĥĹáĥĶáĥĲáĥ¢": 4274,
      "ĠáĥĿáĥľáĥ": 4275,
      "ĠáĥĿáĥ¢": 4276,
      "ĠáĥĵáĥĲ": 4277,
      "áĥĶáĥĳáĥĲáĥĵáĥ·": 4278,
      "áĥ¥áĥĲáĥ¨": 4279,
      "ĠáĥªáĥĶáĥľáĥ¢áĥłáĥĲáĥļáĥ£áĥłáĥĺ": 4280,
      "ĠáĥĿáĥĻáĥĲáĥĹ": 4281,
      "ĠáĥĲáĥ¥áĥ¢": 4282,
      "ĠáĥĴáĥĶáĥ¸áĥķáĥĶáĥľáĥ¯áĥĺ": 4283,
      "ĠáĥĺáĥĻáĥĲáĥĹáĥ£áĥĲáĥľáĥ¡": 4284,
      "ĠáĥĶáĥķáĥłáĥĿáĥŀáĥĲáĥ¨": 4285,
      "áĥĺáĥ¸": 4286,
      "áĥĺáĥłáĥ·": 4287,
      "ĠFar": 4288,
      "ure": 4289,
      "ware": 4290,
      "ĠKn": 4291,
      "sprechen": 4292,
      "lichkeit": 4293,
      "à¸ªà¸Ķ": 4294,
      "07": 4295,
      "à´Łà´²": 4296,
      "à¸²à¸ģà¸²à¸£": 4297,
      "wohl": 4298,
      "ĠPer": 4299,
      "Ġà´¶à´°": 4300,
      "Ġrei": 4301,
      "à´¤à´ķ": 4302,
      "à¸ĵà¸°": 4303,
      "Ġbieten": 4304,
      "à¸¡à¸ŀ": 4305,
      "Ã¼ss": 4306,
      "ĠLeist": 4307,
      "zimmer": 4308,
      "ĠAug": 4309,
      "à´°à´³à´¤": 4310,
      "dienst": 4311,
      "ĠDatenschutz": 4312,
      "ĠWebsite": 4313,
      "leb": 4314,
      "ular": 4315,
      "ĠArtikel": 4316,
      "ĠGeld": 4317,
      "lege": 4318,
      "ĠCookies": 4319,
      "des": 4320,
      "gor": 4321,
      "adas": 4322,
      "digen": 4323,
      "ellschaft": 4324,
      "Ġseu": 4325,
      "Ġeigenen": 4326,
      "Ġjewei": 4327,
      "Er": 4328,
      "Ġáĥ¡áĥĲáĥĽáĥĲáĥłáĥĴáĥĲáĥļ": 4329,
      "ĠáĥĲáĥĸáĥĺáĥĲáĥ¡": 4330,
      "Ġáĥ®áĥĲáĥ¡áĥ·áĥļ": 4331,
      "áĥĿáĥ©áĥ®áĥĿáĥłáĥĿ": 4332,
      "ĠáĥĽáĥĲáĥł": 4333,
      "ĠáĥĵáĥĲáĥłáĥĴ": 4334,
      "ĠáĥĳáĥŁáĥĲáĥĵáĥĲáĥļáĥ¨áĥĶ": 4335,
      "áĥĶáĥ¯": 4336,
      "áĥĶáĥłáĥĶáĥ¤áĥĺáĥ¨": 4337,
      "Ġáĥ¦áĥĿáĥĸ": 4338,
      "Ġáĥ¬áĥ·áĥĽáĥĿáĥ«": 4339,
      "Ġáĥĵáĥĺáĥ®áĥĲáĥ¨": 4340,
      "Ġáĥ¦áĥ£áĥłáĥĲáĥ¨": 4341,
      "áĥ«áĥ¦": 4342,
      "áĥłáĥĺáĥ¡": 4343,
      "Ġáĥ¯áĥ£áĥĽáĥĲáĥ¨áĥ®áĥĲ": 4344,
      "áĥĲáĥļáĥĺáĥĸ": 4345,
      "ĠáĥłáĥĲáĥĴáĥĲáĥĵ": 4346,
      "Ġáĥ®áĥ£áĥłáĥĴ": 4347,
      "ĠáĥĳáĥĿáĥļáĥĺáĥķ": 4348,
      "ĠgroÃŁe": 4349,
      "punkt": 4350,
      "Ġ+": 4351,
      "à¸ĩà¸Ĥ": 4352,
      "ĠGoogle": 4353,
      "zung": 4354,
      "ĠSel": 4355,
      "Ġeinige": 4356,
      "ator": 4357,
      "ĠJan": 4358,
      "pe": 4359,
      "Ġà¹Ħà¸Ķ": 4360,
      "Al": 4361,
      "Ġà´¨à´Łà´ķ": 4362,
      "tic": 4363,
      "ingt": 4364,
      "use": 4365,
      "umen": 4366,
      "ĠGrÃ¼n": 4367,
      "Ġáĥ©áĥ®áĥĿáĥł": 4368,
      "Ġáĥ¡áĥĲáĥļ": 4369,
      "Ġáĥ¬áĥ·áĥĽáĥĽáĥĲáĥł": 4370,
      "ĠáĥĳáĥĲáĥĸ": 4371,
      "ĠáĥĲáĥļáĥĽáĥĲáĥ®": 4372,
      "áĥ£áĥĸ": 4373,
      "ĠáĥĵáĥĿáĥŃáĥ§": 4374,
      "ĠáĥĲáĥĻáĥĿáĥĵáĥĴáĥĺáĥľáĥĲáĥļáĥ£áĥĲáĥ¨áĥĲ": 4375,
      "ĠMot": 4376,
      "Ġáĥ¢áĥĶáĥĽ": 4377,
      "áĥĺáĥ©áĥĲáĥłáĥĵ": 4378,
      "ĠáĥĽáĥĿáĥĴáĥķ": 4379,
      "ĠáĥĹáĥĺáĥľáĥĶáĥ¤": 4380,
      "ĠáĥĶáĥļáĥĶáĥ¥áĥ¢áĥł": 4381,
      "ĠáĥĽáĥĿáĥľáĥĲáĥ¡áĥ¢": 4382,
      "ĠáĥĻáĥļáĥĺáĥĽ": 4383,
      "ĠáĥĻáĥĲáĥľáĥĻáĥĲáĥļáĥĶ": 4384,
      "áĥ£áĥłáĥ·": 4385,
      "áĥĲáĥľáĥ¢áĥĺáĥ¨": 4386,
      "ĠáĥĽáĥ£áĥľáĥĶáĥ¤áĥĺáĥ¨": 4387,
      "áĥ®áĥĺáĥłáĥĲáĥ¡": 4388,
      "ĠáĥļáĥĲáĥ¸áĥĲáĥ¤": 4389,
      "ĠáĥĲáĥłáĥĽ": 4390,
      "áĥĿáĥļáĥĶ": 4391,
      "ªáĥĺáĥĻáĥļáĥĿáĥŀáĥĶáĥĵ": 4392,
      "ĠáĥĶáĥľáĥªáĥĺáĥĻáĥļáĥĿáĥŀáĥĶáĥĵ": 4393,
      "à¹Ħà¸§": 4394,
      "ĠEm": 4395,
      "Ġgerade": 4396,
      "Ġkurz": 4397,
      "ĠXIX": 4398,
      "inner": 4399,
      "ux": 4400,
      "33": 4401,
      "ĠweiÃŁ": 4402,
      "Ġpre": 4403,
      "Ð¾Ð´": 4404,
      "à¸ģà¸³": 4405,
      "ĠgroÃŁen": 4406,
      "ehn": 4407,
      "que": 4408,
      "à¸£à¸£à¸¡": 4409,
      "à´Ĺà´®": 4410,
      "Ġwenig": 4411,
      "zÃ¼": 4412,
      "Ġwohl": 4413,
      "][": 4414,
      "Ġà´ªà´Ļ": 4415,
      "à¸«à¸¥à¸²à¸¢": 4416,
      "ĠÐ¼": 4417,
      "Ġintern": 4418,
      "à¹Ģà¸«à¸¥": 4419,
      "ĠMitgl": 4420,
      "ĠSta": 4421,
      "ÐµÑĤ": 4422,
      "à¸¡à¸Ļ": 4423,
      "ĠRahmen": 4424,
      "à´®à´°": 4425,
      "Ġà´ªà´ł": 4426,
      "ommer": 4427,
      "ĠThema": 4428,
      "à´·à´¯": 4429,
      "reise": 4430,
      "lossen": 4431,
      "Ġáĥ¤áĥ£áĥłáĥĹáĥ£áĥĹáĥĲ": 4432,
      "Ġáĥļáĥĺáĥĳ": 4433,
      "ĠáĥĻáĥļáĥĲáĥ¡": 4434,
      "àª": 4435,
      "Ġáĥ¬áĥ·áĥĽáĥĿáĥłáĥĺáĥľ": 4436,
      "áĥĿáĥĳáĥł": 4437,
      "Ġáĥ¬áĥ§áĥĲáĥłáĥŀáĥĺáĥ¯áĥĺáĥ¡": 4438,
      "ĠáĥĵáĥĺáĥĿ": 4439,
      "ĠáĥĹáĥĶáĥĿáĥł": 4440,
      "ĠáĥĲáĥĽáĥĶáĥłáĥĺáĥĻáĥĲáĥ¡": 4441,
      "ĠáĥĲáĥĻáĥĽáĥĲáĥĵáĥĴáĥĺáĥľáĥĲáĥľáĥ¡": 4442,
      "áĥ£áĥĲáĥļáĥĲáĥ¨": 4443,
      "áĥ£áĥ©": 4444,
      "áĥĲáĥ¢áĥĺáĥ¨": 4445,
      "áĥĲáĥĵáĥĺ": 4446,
      "ĠáĥĲáĥĻáĥĿ": 4447,
      "áĥ£áĥłáĥĹáĥ£áĥĹáĥĲáĥ¡": 4448,
      "Ġáĥ¨áĥĶáĥ£áĥļ": 4449,
      "áĥĲáĥĻáĥĺ": 4450,
      "ĠáĥĵáĥĲáĥ®": 4451,
      "áĥ£áĥĲáĥ¤áĥ£áĥĵáĥ·": 4452,
      "ĠáĥĹáĥĺáĥľáĥĶáĥ¤áĥĺ": 4453,
      "ris": 4454,
      "Ġmedi": 4455,
      "platz": 4456,
      "ĠHa": 4457,
      "ĠArbeits": 4458,
      "46": 4459,
      "amÃ©n": 4460,
      "sol": 4461,
      "ile": 4462,
      "Ġà´ªà´£": 4463,
      "ĠWochen": 4464,
      "bereich": 4465,
      "à¸Ńà¸§": 4466,
      "ĠServ": 4467,
      "istor": 4468,
      "Ġfindet": 4469,
      "Ġter": 4470,
      "Ġ)": 4471,
      "78": 4472,
      "ÑĨ": 4473,
      "eller": 4474,
      ".-": 4475,
      "Ġà´ħà´¸": 4476,
      "wahl": 4477,
      "sterreich": 4478,
      "Ġgehen": 4479,
      "180": 4480,
      "à´¦à´°": 4481,
      "à¸Ľà¸£à¸°à¹Ģà¸Ĺà¸¨": 4482,
      "ĠáĥĻáĥĺáĥłáĥ": 4483,
      "ĠáĥĿáĥłáĥĴáĥĲáĥľáĥĺáĥĸáĥĲáĥªáĥĺáĥĲáĥ¨": 4484,
      "áĥłáĥĶáĥ¨": 4485,
      "Ġáĥĳáĥĺáĥĳ": 4486,
      "elef": 4487,
      "Ġoft": 4488,
      "Ġáĥ®áĥĶ": 4489,
      "áĥ£áĥĽáĥĶáĥľáĥ¢": 4490,
      "Ġáĥ¬áĥ§áĥĲáĥł": 4491,
      "Ġáĥ¡áĥĲáĥ¥áĥķáĥĲáĥł": 4492,
      "ĠáĥĹáĥĶáĥľ": 4493,
      "áĥĽáĥĲáĥ®": 4494,
      "ĠáĥĽáĥĶáĥ¦": 4495,
      "Ġáĥ¦áĥĿáĥłáĥĿáĥľáĥĹáĥĺ": 4496,
      "Ġáĥ¡áĥĿáĥªáĥĺ": 4497,
      "Ġáĥ¢áĥłáĥĲáĥĵáĥĺáĥª": 4498,
      "ĠSk": 4499,
      "ĠáĥªáĥĶáĥľáĥ¢áĥłáĥĲáĥļáĥ£áĥł": 4500,
      "áĥ£áĥ®": 4501,
      "Ġáĥ£áĥłáĥĹ": 4502,
      "ĠáĥĶáĥĻáĥĿáĥľáĥĺáĥĲ": 4503,
      "ĠáĥŀáĥĶáĥłáĥ¡": 4504,
      "Ġáĥĸáĥĺáĥ¢áĥ§áĥķ": 4505,
      "áĥĺáĥĿáĥ¨": 4506,
      "Ġáĥ¡áĥ£áĥĳ": 4507,
      "Ġáĥĺáĥļ": 4508,
      "Ġà´ļà´°": 4509,
      "Ġhab": 4510,
      "Ġro": 4511,
      "Ġà´ĩà´²": 4512,
      "Ġout": 4513,
      "à¸²à¸Ľ": 4514,
      "ĠSicherheit": 4515,
      "ĠWor": 4516,
      "bend": 4517,
      "Ġempf": 4518,
      "Ġunserem": 4519,
      "Ġmitt": 4520,
      "ĠApp": 4521,
      "aher": 4522,
      "arbeiter": 4523,
      "Ġeuch": 4524,
      "Ġform": 4525,
      "ĠXVI": 4526,
      "usÃ¤tz": 4527,
      "wendung": 4528,
      "ĠBeit": 4529,
      "Ġbesten": 4530,
      "Ġindi": 4531,
      ".,": 4532,
      "echs": 4533,
      "àµĨà´¾": 4534,
      "à´ķà´£à´®": 4535,
      "à´µà´ķ": 4536,
      "à¸²à¸«à¸²à¸£": 4537,
      "Ġsen": 4538,
      "ĠwÃ¤re": 4539,
      "à¸Ķà¸Ĺ": 4540,
      "à¸ļà¸Ńà¸¥": 4541,
      "ĠMet": 4542,
      "dit": 4543,
      "part": 4544,
      "mm": 4545,
      "ĠTex": 4546,
      "eral": 4547,
      "ĠpersÃ¶n": 4548,
      "Ġdich": 4549,
      "Ð¹": 4550,
      "Ġoffen": 4551,
      "à´µà´¦": 4552,
      "tragen": 4553,
      "ĠáĥĽáĥĶáĥ¢áĥĶáĥĿáĥł": 4554,
      "áĥĶáĥ°": 4555,
      "Ġáĥ¤áĥĺáĥļáĥĽáĥĺáĥ¨": 4556,
      "ĠáĥłáĥĲáĥĺáĥĿáĥľ": 4557,
      "áĥļáĥĲáĥľáĥĵ": 4558,
      "ĠáĥĻáĥĺáĥļáĥĿáĥĽáĥĶáĥ¢": 4559,
      "áĥĲáĥ¤áĥĺáĥłáĥĺ": 4560,
      "Ġáĥ®áĥĶáĥļáĥ£áĥĲáĥľ": 4561,
      "áĥłáĥĶáĥ¡": 4562,
      "ĠáĥĵáĥĲáĥŃáĥ§áĥĲáĥ¤": 4563,
      "Ġáĥ£áĥł": 4564,
      "áĥľáĥĺ": 4565,
      "áĥĺáĥļáĥ¡": 4566,
      "Ġáĥļáĥĺáĥ¢áĥĶáĥłáĥĲáĥ¢": 4567,
      "áĥĶáĥłáĥļ": 4568,
      "Ġáĥ®áĥĶáĥĽ": 4569,
      "áĥĶáĥ¤áĥ¡áĥ·áĥĹ": 4570,
      "áĥ£áĥļáĥĺáĥ¨": 4571,
      "áĥĳáĥł": 4572,
      "Ġáĥ¬áĥĿáĥł": 4573,
      "áĥ£áĥļáĥĻ": 4574,
      "mÃ¤ÃŁ": 4575,
      "ĠHol": 4576,
      "stadt": 4577,
      "à¹ģà¸Ĥ": 4578,
      "ĠMÃ¤r": 4579,
      "à´¸à´¨": 4580,
      "racht": 4581,
      "ĠlÃ¤": 4582,
      "Ġà¹Ĩ": 4583,
      "ue": 4584,
      "Ġbesonders": 4585,
      "Ġbeiden": 4586,
      "Ġfr": 4587,
      "à´±à´¯": 4588,
      "ĠLei": 4589,
      "ĠCas": 4590,
      "stru": 4591,
      "hof": 4592,
      "ĠauÃŁer": 4593,
      "Ã¶ren": 4594,
      "ades": 4595,
      "Ġinner": 4596,
      "tieren": 4597,
      "ĠRo": 4598,
      "Ã¼rger": 4599,
      "ĠJugend": 4600,
      "%-": 4601,
      "ologie": 4602,
      "ĠMehr": 4603,
      "anken": 4604,
      "fÃ¼hrt": 4605,
      "leicht": 4606,
      "Ã¤hlen": 4607,
      "uar": 4608,
      "ĠáĥĽáĥĶáĥľáĥĵ": 4609,
      "ĠáĥĴáĥķáĥĲáĥ¢áĥĶáĥĽ": 4610,
      "Ġáĥ¢áĥĺáĥŀáĥĺáĥ¨": 4611,
      "ĠáĥĴáĥĺáĥľáĥĿáĥ¦áĥĲáĥļ": 4612,
      "ĠáĥĴáĥĿáĥĲáĥłáĥĹáĥĿáĥĺáĥĲáĥľáĥĲáĥ¤áĥĺáĥļáĥĺ": 4613,
      "Ġáĥ¬áĥĶáĥ¡": 4614,
      "áĥĺáĥĿáĥłáĥĻ": 4615,
      "áĥ¬áĥ§": 4616,
      "Ġáĥĸáĥ£áĥ¦áĥĲáĥ¡": 4617,
      "áĥĲáĥľáĥ£": 4618,
      "ĠáĥŁáĥĲáĥłáĥľáĥĶáĥ©áĥĵáĥĿáĥķáĥĺáĥĹ": 4619,
      "ĠáĥĶáĥłáĥĻáĥĶáĥĳáĥ£áĥļ": 4620,
      "Ġáĥ¡áĥ£áĥĽáĥĺ": 4621,
      "áĥ£áĥ¤": 4622,
      "áĥĺáĥľáĥĹ": 4623,
      "áĥ£áĥļáĥĲ": 4624,
      "áĥĺáĥ¥áĥĺáĥĽ": 4625,
      "áĥĲáĥłáĥĿáĥĳáĥĲ": 4626,
      "ĠáĥĺáĥłáĥĹáĥ£": 4627,
      "Ġáĥ¡áĥĲáĥ®áĥĶáĥľáĥ¬áĥ·áĥ¤áĥĿáĥ¨": 4628,
      "áĥļáĥĺáĥ¨": 4629,
      "ĠáĥŀáĥĿáĥļáĥĺáĥ¢áĥĺáĥĻáĥ£áĥłáĥĺ": 4630,
      "áĥĶáĥłáĥĶáĥ¡": 4631,
      "Ġgilt": 4632,
      "ĠáĥĴáĥļ": 4633,
      "ĠáĥĲáĥĻáĥĽáĥĿáĥĵáĥĺáĥłáĥĹáĥ£": 4634,
      "ĠáĥĴáĥĿáĥĽ": 4635,
      "Ġbr": 4636,
      "pos": 4637,
      "ĠTechn": 4638,
      "à¹ģà¸«": 4639,
      "ÑĤÐµ": 4640,
      "ĠPat": 4641,
      "Ġreg": 4642,
      "Ð½Ñĭ": 4643,
      "Ġgl": 4644,
      "ult": 4645,
      "eigt": 4646,
      "ĠVerfÃ¼": 4647,
      "Ġà´ĵà´«": 4648,
      "jÃ¤hr": 4649,
      "ida": 4650,
      "Ġà´ħà´°": 4651,
      "ĠVerarbeitung": 4652,
      "upp": 4653,
      "à´§à´¨": 4654,
      "Ġfl": 4655,
      "à¸Ļà¸°": 4656,
      "98": 4657,
      "Ġà´ħà´Ļ": 4658,
      "ĠGegen": 4659,
      "bildung": 4660,
      "ĠNews": 4661,
      "ĠZiel": 4662,
      "à¸ļà¸Ĺ": 4663,
      "à´¬à´°": 4664,
      "leben": 4665,
      "glichen": 4666,
      "ograf": 4667,
      "à´®à´¸": 4668,
      "ĠSystem": 4669,
      "Sie": 4670,
      "ĠHaupt": 4671,
      "etzen": 4672,
      "76": 4673,
      "ĠVerein": 4674,
      "Ġerste": 4675,
      "ĠBesuch": 4676,
      "ĠáĥĴáĥĶáĥ£": 4677,
      "Ġáĥ¤áĥĺáĥļáĥĽáĥĺ": 4678,
      "áĥĿáĥłáĥ¥": 4679,
      "áĥĲáĥĽáĥ¡": 4680,
      "Ġáĥ¢áĥ£áĥł": 4681,
      "ĠáĥĽáĥ£áĥ¡áĥ®áĥĺáĥłáĥĶáĥľ": 4682,
      "áĥĿáĥĳáĥĶáĥļ": 4683,
      "áĥĺáĥĵáĥ·": 4684,
      "ĠáĥĲáĥ¢áĥļ": 4685,
      "Ġáĥĺáĥ¤": 4686,
      "ĠáĥĵáĥĺáĥĲáĥļ": 4687,
      "Ġáĥ¡áĥŀáĥĶáĥªáĥĺ": 4688,
      "Ġáĥĵáĥ¦áĥĲáĥ¡": 4689,
      "Ġáĥ£áĥĻáĥķáĥĶ": 4690,
      "raum": 4691,
      "stÃ¼ck": 4692,
      "tember": 4693,
      "Ã¼b": 4694,
      "annten": 4695,
      "Ġgemacht": 4696,
      "Ġzahl": 4697,
      "Ġgute": 4698,
      "à¸Ĭà¸²à¸ķ": 4699,
      "à¸Ńà¸°": 4700,
      "Ġetwa": 4701,
      "ĠNatur": 4702,
      "iff": 4703,
      "Ġà´ħà´µà´³": 4704,
      "àµ¼à´®": 4705,
      "indung": 4706,
      "2001": 4707,
      "Ġtem": 4708,
      "ĠFest": 4709,
      "ĠTeam": 4710,
      "09": 4711,
      "laub": 4712,
      "einander": 4713,
      "nahmen": 4714,
      "Ġà´¤à´®": 4715,
      "ĠViel": 4716,
      "dent": 4717,
      "à¸Ļà¸ģà¸²à¸£": 4718,
      "vidu": 4719,
      "____": 4720,
      "ĠAls": 4721,
      "ĠStÃ¼ck": 4722,
      "Ġsogar": 4723,
      "ĠFragen": 4724,
      "à¸Ĵ": 4725,
      "ĠÃ¤": 4726,
      "vest": 4727,
      "ĠKÃ¼": 4728,
      "rotz": 4729,
      "Ġstell": 4730,
      "Ġprof": 4731,
      "Ġáĥ¢áĥĶáĥ¡": 4732,
      "áĥĿáĥĹáĥĲ": 4733,
      "Ġáĥ£áĥĵáĥĺáĥĵáĥĲáĥ¨": 4734,
      "ĠáĥľáĥĿáĥłáĥ": 4735,
      "ĠáĥĿáĥĹáĥ®áĥĿáĥľáĥĶáĥ©áĥĵáĥĿáĥķáĥĺáĥĹ": 4736,
      "áĥ·áĥľáĥĵáĥ·": 4737,
      "ĠáĥĲáĥľáĥĴ": 4738,
      "ĠáĥĽáĥĲáĥ¤": 4739,
      "ĠáĥĽáĥĲáĥļáĥĲáĥ¡": 4740,
      "Ġáĥĳáĥ£áĥľáĥĲáĥ¡": 4741,
      "ĠáĥĶáĥ¨áĥĽ": 4742,
      "áĥĳáĥŁáĥĲáĥĵáĥĲáĥļáĥ¨áĥĶ": 4743,
      "áĥĳáĥŁáĥĲáĥĶáĥĺáĥĿáĥļáĥ¨áĥĶ": 4744,
      "Ġáĥ«áĥĲáĥļáĥĲáĥĽáĥĺ": 4745,
      "ĠáĥĺáĥľáĥĵáĥĿáĥľáĥĶáĥĸ": 4746,
      "Ġáĥ¯áĥĺáĥľáĥ¯áĥĺáĥĶáĥłáĥĺ": 4747,
      "ĠáĥŀáĥłáĥĿáĥªáĥĶáĥ¡": 4748,
      "áĥķáĥĺáĥļáĥĺ": 4749,
      "Ġáĥ¯áĥĺáĥ®": 4750,
      "Ġáĥĺáĥľáĥ¤áĥĿáĥłáĥĽ": 4751,
      "ĠáĥĲáĥłáĥ«áĥĿ": 4752,
      "ĠáĥĽáĥĲáĥłáĥĻ": 4753,
      "áĥĲáĥ¢áĥĿáĥł": 4754,
      "ĠáĥĽáĥĺáĥĵ": 4755,
      "ĠáĥĽáĥ£áĥ¡áĥ®áĥĺáĥłáĥĶáĥľáĥĺ": 4756,
      "ĠáĥŃáĥ§": 4757,
      "56": 4758,
      "fÃ¼hrung": 4759,
      "ps": 4760,
      "à´±à´°": 4761,
      "itter": 4762,
      "Ġà¤": 4763,
      "ĠKunst": 4764,
      "tif": 4765,
      "ĠFilm": 4766,
      "ĠIde": 4767,
      "ĠOrt": 4768,
      "ktur": 4769,
      "zieh": 4770,
      "ĠFac": 4771,
      "ĠHÃ¶": 4772,
      "gÃ¤n": 4773,
      "Ã¤ten": 4774,
      "wand": 4775,
      "ĠAc": 4776,
      "ĠMÃ¼n": 4777,
      "à¸ŀà¸¥": 4778,
      "ĠKir": 4779,
      "Ġlange": 4780,
      "ĠSan": 4781,
      "rÃ¤ge": 4782,
      "Ġwissen": 4783,
      "ebook": 4784,
      "ets": 4785,
      "amente": 4786,
      "ĠIhrem": 4787,
      "liches": 4788,
      "Ð°Ð»": 4789,
      "auen": 4790,
      "ĠKam": 4791,
      "Ġonline": 4792,
      "ĠáĥĻáĥĶáĥ¨áĥĺ": 4793,
      "áĥłáĥĺáĥĵ": 4794,
      "áĥĺáĥ¡áĥĿáĥłáĥĺ": 4795,
      "ĠáĥĶáĥĴáĥķáĥĺáĥŀáĥ¢": 4796,
      "ĠáĥĽáĥĶáĥ¥": 4797,
      "ĠáĥĿáĥłáĥ¥": 4798,
      "ĠáĥĻáĥĲáĥłáĥĺáĥĶáĥł": 4799,
      "ĠáĥĽáĥĲáĥ®áĥĿáĥłáĥ£": 4800,
      "áĥĲáĥłáĥ¨": 4801,
      "ĠáĥĿáĥ¬": 4802,
      "ĠáĥĽáĥĿáĥĴáĥķáĥĺáĥĲáĥľ": 4803,
      "áĥĲáĥĽáĥ¨": 4804,
      "áĥ£áĥľáĥ¥áĥª": 4805,
      "ĠáĥŀáĥłáĥĿáĥĶáĥ¥áĥ¢": 4806,
      "ĠáĥĲáĥłáĥĴ": 4807,
      "Ġdavon": 4808,
      "cen": 4809,
      "ĠBi": 4810,
      "eister": 4811,
      "ĠkÃ¶nnte": 4812,
      "go": 4813,
      "ĠBen": 4814,
      "ĠDir": 4815,
      "à¹Ħà¸¥à¸Ļ": 4816,
      "Ġà´ħà´ķ": 4817,
      "ĠSal": 4818,
      "iges": 4819,
      "Ã¤tig": 4820,
      "ĠBeispiel": 4821,
      "ret": 4822,
      "ĠfrÃ¼": 4823,
      "à´Ĵ": 4824,
      "à¸ĩà¸ķ": 4825,
      "zept": 4826,
      "gehen": 4827,
      "à´±à´±": 4828,
      "ĠKontakt": 4829,
      "ana": 4830,
      "Wenn": 4831,
      "Ġà´¤à´Ł": 4832,
      "ĠBed": 4833,
      "Bei": 4834,
      "ara": 4835,
      "rik": 4836,
      "isches": 4837,
      "Ġà´ĩà´Ł": 4838,
      "ĠCom": 4839,
      "à¸£à¸²à¸Ĭ": 4840,
      "ĠErfahr": 4841,
      "ĠEner": 4842,
      "Ġgesp": 4843,
      "tu": 4844,
      "schule": 4845,
      "à¸£à¸²à¸¢": 4846,
      "kel": 4847,
      "ĠáĥĽáĥ£áĥ¡áĥĺáĥĻ": 4848,
      "áĥĿáĥļáĥ¡": 4849,
      "ĠáĥĲáĥĳáĥĲáĥľáĥ¡": 4850,
      "ĠáĥĻáĥ£áĥļáĥ¢áĥ£áĥłáĥ£áĥļáĥĺ": 4851,
      "ĠáĥĻáĥĿáĥľáĥª": 4852,
      "áĥ£áĥĹáĥĲáĥ¨": 4853,
      "áĥĺáĥ£áĥłáĥĿ": 4854,
      "áĥĿáĥłáĥĿáĥ¤": 4855,
      "áĥĿáĥĹáĥ®": 4856,
      "áĥ£áĥłáĥĲáĥ¤": 4857,
      "Ġáĥ¤áĥļ": 4858,
      "áĥĺáĥľáĥĶáĥ¤áĥĺ": 4859,
      "Ġáĥ¨áĥĶáĥļ": 4860,
      "Ġáĥĵáĥ·áĥĽ": 4861,
      "ĠáĥĿáĥ¨áĥ¥áĥĲáĥ¨áĥĶ": 4862,
      "áĥ£áĥķ": 4863,
      "áĥĿáĥľáĥ¥": 4864,
      "ĠáĥĻáĥĿáĥľáĥĴ": 4865,
      "áĥĲáĥŀáĥĿáĥļáĥĶ": 4866,
      "ĠDar": 4867,
      "welt": 4868,
      "alter": 4869,
      "à´ŀà´¤": 4870,
      "Sp": 4871,
      "Ġpos": 4872,
      "ĠXVII": 4873,
      "ĠEU": 4874,
      "Ġrel": 4875,
      "Ġnov": 4876,
      "Ġaufge": 4877,
      "ĠAnt": 4878,
      "Ġrichtig": 4879,
      "Ġentwick": 4880,
      "Ġad": 4881,
      "ĠhÃ¤t": 4882,
      "ĠFunktion": 4883,
      "arte": 4884,
      "Ġderen": 4885,
      "gemein": 4886,
      "eder": 4887,
      "itik": 4888,
      "wendet": 4889,
      "Ġnehmen": 4890,
      "Ġzie": 4891,
      "undheit": 4892,
      "cip": 4893,
      "à´ªà´¯": 4894,
      "85": 4895,
      "ĠKom": 4896,
      "ĠHin": 4897,
      "à¹Ģà¸«à¸¡": 4898,
      "ĠlÃ¤sst": 4899,
      "scht": 4900,
      "ĠPrÃ¤": 4901,
      "áĥĺáĥ¤áĥĺáĥĻ": 4902,
      "áĥķáĥĲáĥĵáĥ£": 4903,
      "Ġáĥ¨áĥ¢": 4904,
      "ĠáĥĵáĥĶáĥĳáĥĲáĥĵáĥ·": 4905,
      "áĥĺáĥĽáĥĺáĥ¨": 4906,
      "áĥĶáĥ¡áĥĻ": 4907,
      "ĠáĥĴáĥĿáĥłáĥ©áĥ¥": 4908,
      "ĠáĥĺáĥĻáĥĿáĥłáĥĿáĥªáĥ®áĥ£": 4909,
      "áĥĲáĥľáĥĹáĥ®": 4910,
      "áĥĿáĥļáĥĿáĥĴáĥĺáĥĲáĥ¨": 4911,
      "áĥĺáĥŀáĥĶáĥĵ": 4912,
      "Ġáĥ¬áĥĺáĥĽáĥĺáĥľáĥĵáĥĶ": 4913,
      "ĠáĥĽáĥĿáĥĳ": 4914,
      "ĠáĥĽáĥĲáĥ¢": 4915,
      "Ġà´°à´ķ": 4916,
      "áĥĺáĥ£áĥļáĥĿ": 4917,
      "áĥĿáĥłáĥ¯áĥĺáĥ¡": 4918,
      "áĥķáĥĶáĥľáĥ¯": 4919,
      "áĥ£áĥĻáĥĿ": 4920,
      "mÃ¶": 4921,
      "ĠáĥĲáĥľáĥĵ": 4922,
      "Ġáĥ£áĥ¦áĥ£áĥĵáĥ·": 4923,
      "áĥĺáĥłáĥ¥": 4924,
      "à¸ĺà¸£à¸£à¸¡": 4925,
      "ĠAs": 4926,
      "beh": 4927,
      "gegen": 4928,
      "flÃ¤": 4929,
      "à¸£à¸ĸ": 4930,
      "ĠJul": 4931,
      "ott": 4932,
      "à¸§à¸Ķ": 4933,
      "rans": 4934,
      "no": 4935,
      "ĠAngebot": 4936,
      "af": 4937,
      "ÑĪ": 4938,
      "ĠOkt": 4939,
      "chten": 4940,
      "ĠHe": 4941,
      "à´ľà´¯": 4942,
      "ĠOb": 4943,
      "1991": 4944,
      "olf": 4945,
      "ĠInst": 4946,
      "ĠGeschÃ¤ft": 4947,
      "row": 4948,
      "):": 4949,
      "à¹Ĥà¸£à¸Ħ": 4950,
      "ĠBilder": 4951,
      "à¸Ĥà¸²à¸¢": 4952,
      "à´¡à´¨": 4953,
      "Ġhinter": 4954,
      "ĠEinsatz": 4955,
      "ĠÐ¾": 4956,
      "ance": 4957,
      "à¸²à¸ĵ": 4958,
      "ias": 4959,
      "ĠBar": 4960,
      "ĠMarkt": 4961,
      "ional": 4962,
      "ral": 4963,
      "ĠNovember": 4964,
      "Ġmes": 4965,
      "áĥľáĥĶáĥĹáĥĺáĥ¨": 4966,
      "áĥ¥áĥĿáĥłáĥĹ": 4967,
      "áĥĶáĥĽáĥĺ": 4968,
      "ĠáĥĽáĥĶáĥ£áĥłáĥľ": 4969,
      "ĠáĥĲáĥĻáĥĽáĥĲáĥĵáĥĴáĥĺáĥľáĥĲáĥľáĥĵáĥ·": 4970,
      "ĠáĥĿáĥķ": 4971,
      "Ġáĥ¦áĥ£áĥłáĥĹáĥ£áĥĹáĥĲ": 4972,
      "ĠáĥĿáĥļáĥ¥áĥĺáĥ¨": 4973,
      "áĥĲáĥĵáĥĿ": 4974,
      "áĥ£áĥĶáĥ¤áĥĺ": 4975,
      "áĥĽáĥĺáĥ¨": 4976,
      "Ġáĥ¡áĥ¥áĥĺáĥłáĥĿáĥľáĥĲáĥ¨áĥ¥": 4977,
      "ĠáĥĽáĥĲáĥĹ": 4978,
      "áĥĺáĥ¨áĥĲáĥ®": 4979,
      "Ġáĥ£áĥ¦áĥ·": 4980,
      "áĥĺáĥ¢áĥĲáĥļ": 4981,
      "áĥķáĥĲáĥĹ": 4982,
      "Ġáĥ¬áĥĺáĥľáĥĴ": 4983,
      "Ġáĥ¨áĥ®áĥĺáĥłáĥĲáĥ¡": 4984,
      "áĥ£áĥłáĥĹáĥĶ": 4985,
      "ĠáĥĽáĥĲáĥ¦áĥĲáĥļáĥĺ": 4986,
      "áĥłáĥĲ": 4987,
      "ĠáĥĻáĥĿáĥľáĥ¤": 4988,
      "ĠCar": 4989,
      "Ġáĥ§áĥĲáĥłáĥĲáĥ¤": 4990,
      "Ġáĥķáĥ£áĥļáĥĻ": 4991,
      "Ġáĥ©áĥĶ": 4992,
      "ĠDoch": 4993,
      "ptember": 4994,
      "Ġhtt": 4995,
      "Ġà´ŀà´Ļ": 4996,
      "300": 4997,
      "Ġà´ıà´¤": 4998,
      "ÐµÑģ": 4999,
      "beding": 5000,
      "Ñİ": 5001,
      "57": 5002,
      "egt": 5003,
      "Ġseg": 5004,
      "ĠSchwei": 5005,
      "Ġvier": 5006,
      "ĠQualitÃ¤t": 5007,
      "ĠMill": 5008,
      "à¸Ńà¸ķ": 5009,
      "04": 5010,
      "agement": 5011,
      "Ã¤tze": 5012,
      "59": 5013,
      "ight": 5014,
      "dia": 5015,
      "Ã¶rder": 5016,
      "à¸§à¸£": 5017,
      "heiten": 5018,
      "],": 5019,
      "mente": 5020,
      "Ġmeiner": 5021,
      "Ġinteress": 5022,
      "bin": 5023,
      "schw": 5024,
      "ĠFir": 5025,
      "Ð´": 5026,
      "ĠFrank": 5027,
      "«áĥĲ": 5028,
      "áĥĲáĥľáĥĿ": 5029,
      "ĠáĥĽáĥ£áĥ¥": 5030,
      "Ġáĥĺáĥ©": 5031,
      "ĠáĥĽáĥĲáĥĻ": 5032,
      "Ġáĥ£áĥĽáĥĻ": 5033,
      "áĥĺáĥľáĥĵáĥ·": 5034,
      "ĠáĥĽáĥĶáĥŃ": 5035,
      "áĥ£áĥ¡áĥ¢": 5036,
      "ĠáĥĶáĥĹáĥľ": 5037,
      "ĠáĥĽáĥ£áĥĹáĥĽ": 5038,
      "áĥĿáĥłáĥ«áĥĴ": 5039,
      "ĠáĥĴáĥĶáĥ«": 5040,
      "ĠáĥĹáĥ£áĥĵ": 5041,
      "áĥĶáĥĳáĥĶáĥļáĥĺ": 5042,
      "ĠáĥĴáĥ·áĥĽáĥĺáĥłáĥĺáĥľáĥ£": 5043,
      "ĠáĥĽáĥ£": 5044,
      "Ġáĥ¬áĥĲáĥľáĥĶáĥ¤áĥĺáĥ¨": 5045,
      "ĠáĥĿáĥĻáĥ£áĥ©áĥ®": 5046,
      "ĠáĥĺáĥĹ": 5047,
      "ĠNutzung": 5048,
      "ĠFrage": 5049,
      "à¸ľà¸¡": 5050,
      "ĠAugust": 5051,
      "pres": 5052,
      "ĠOp": 5053,
      "ĠUnivers": 5054,
      "ĠXIV": 5055,
      "à¹Ħà¸Ł": 5056,
      "ĠEigen": 5057,
      "Ġà´ĸ": 5058,
      "ĠPo": 5059,
      "blick": 5060,
      "Ġpra": 5061,
      "Ġà´ªà´¦": 5062,
      "erst": 5063,
      "iter": 5064,
      "Ġopti": 5065,
      "out": 5066,
      "Ġrich": 5067,
      "ĠVerfÃ¼gung": 5068,
      "ĠTage": 5069,
      "68": 5070,
      "ÙĦ": 5071,
      "à¸Ļà¹ģ": 5072,
      "ĠRechts": 5073,
      "à¹Ģà¸ķà¸Ńà¸£": 5074,
      "à¸Ńà¸Ļà¹Ħà¸¥à¸Ļ": 5075,
      "ios": 5076,
      "ĠtamÃ©n": 5077,
      "vol": 5078,
      "Ġà´ªà´Ł": 5079,
      "ehlen": 5080,
      "ĠunterstÃ¼t": 5081,
      "à¹Ģà¸£à¸²": 5082,
      "sehen": 5083,
      "ĠverfÃ¼": 5084,
      "ĠÐ½": 5085,
      "hle": 5086,
      "áĥĺáĥłáĥĲáĥ¤áĥĲáĥ¨": 5087,
      "ĠáĥĲáĥĻáĥĲáĥĵ": 5088,
      "áĥķáĥĲáĥļáĥ£": 5089,
      "áĥĺáĥľáĥĲáĥľáĥ¡": 5090,
      "áĥķáĥĺáĥĵ": 5091,
      "Ġáĥ®áĥķáĥĲáĥĽ": 5092,
      "áĥ£áĥĽáĥĺáĥ¨": 5093,
      "áĥ£áĥĵáĥĺáĥ¨": 5094,
      "áĥĶáĥĳáĥ·": 5095,
      "áĥĲáĥľáĥ£áĥļ": 5096,
      "áĥ¡áĥĺáĥ¨": 5097,
      "ĠáĥĽáĥĲáĥĲáĥłáĥĹáĥĲáĥĹ": 5098,
      "ĠáĥĲáĥłáĥ«áĥĿáĥ¨áĥĶ": 5099,
      "Ġáĥ¢áĥĶáĥĽáĥŀáĥĶáĥł": 5100,
      "ĠáĥłáĥĿáĥĳ": 5101,
      "áĥĿáĥľáĥ¯": 5102,
      "ĠáĥĹáĥ®áĥĺáĥļ": 5103,
      "áĥĻáĥķáĥĺáĥĹ": 5104,
      "áĥĺáĥľáĥ¢": 5105,
      "áĥĺáĥĶáĥłáĥĿ": 5106,
      "áĥĺáĥ¬": 5107,
      "áĥĺáĥļáĥĵ": 5108,
      "ĠáĥĹáĥĺáĥł": 5109,
      "ĠáĥłáĥĶáĥĴáĥĺáĥĿáĥľáĥĺ": 5110,
      "ĠáĥŀáĥłáĥĶáĥĸáĥĺáĥĵáĥĶáĥľáĥ¢": 5111,
      "áĥĻáĥĿáĥ©": 5112,
      "áĥĲáĥłáĥļáĥĲáĥĽ": 5113,
      "áĥ·áĥĵáĥ·": 5114,
      "¡áĥ¢áĥĺáĥ¢áĥ£áĥª": 5115,
      "ĠáĥĺáĥĵáĥĶ": 5116,
      "ĠáĥľáĥĲáĥŀáĥĿáĥļáĥĶ": 5117,
      "En": 5118,
      "à´ķàµ¾à´ķ": 5119,
      "ester": 5120,
      "à´£à´¤": 5121,
      "à´ªà´Ł": 5122,
      "Auf": 5123,
      "Ġà¸Īà¸°": 5124,
      "ĠProdukt": 5125,
      "ĠBetrieb": 5126,
      "58": 5127,
      "Ġfast": 5128,
      "à¸ļà¸ª": 5129,
      "ĠKre": 5130,
      "ĠDenn": 5131,
      "Ġpaar": 5132,
      "Ġpri": 5133,
      "à¸ģà¸ª": 5134,
      "Ġzwar": 5135,
      "ST": 5136,
      "ici": 5137,
      "ĠFlug": 5138,
      "Ã¤ndern": 5139,
      "wasser": 5140,
      "à¸ģà¸©à¸²": 5141,
      "ĠPe": 5142,
      "ĠOktober": 5143,
      "stÃ¤nd": 5144,
      "ĠVerl": 5145,
      "Ġerfolg": 5146,
      "à¸Ńà¸Ĺ": 5147,
      "Ġwei": 5148,
      "à´¨à´¨": 5149,
      "ĠDr": 5150,
      "àµ¼à´Ł": 5151,
      "ĠNicht": 5152,
      "Nach": 5153,
      "ĠAt": 5154,
      "Ġto": 5155,
      "Ġkleine": 5156,
      "ament": 5157,
      "legen": 5158,
      "Ã¼d": 5159,
      "ĠVertrag": 5160,
      "bes": 5161,
      "áĥĶáĥļáĥĶáĥĶáĥķ": 5162,
      "ĠáĥĳáĥŁáĥĲáĥĶáĥĺáĥĿáĥļáĥĺ": 5163,
      "ĠáĥĳáĥĲáĥł": 5164,
      "ĠáĥĳáĥĿáĥłáĥ¯áĥĺáĥ¨áĥĿ": 5165,
      "áĥĿáĥĳáĥłáĥ£áĥĿ": 5166,
      "Ġáĥĺáĥłáĥĵ": 5167,
      "Ġáĥ¥áĥĺáĥłáĥ¡áĥĺáĥĲáĥľ": 5168,
      "ĠáĥĽáĥĲáĥľáĥĴáĥĺ": 5169,
      "ĠáĥĳáĥĺáĥĸáĥĲáĥľáĥ¢": 5170,
      "áĥĲáĥłáĥ¢áĥĲáĥĽ": 5171,
      "áĥĿáĥ¡áĥĺ": 5172,
      "ĠáĥĻáĥĺáĥľáĥĶ": 5173,
      "ĠáĥĽáĥĶáĥ¨áĥ¥áĥĲáĥ¨": 5174,
      "Ġáĥ¡áĥ¥áĥĺáĥłáĥĿáĥľáĥĲáĥ¨áĥ¥áĥĲ": 5175,
      "áĥ£áĥ¨áĥĶ": 5176,
      "áĥ¸áĥ£áĥłáĥĶ": 5177,
      "Ġáĥ¤áĥ£áĥľáĥ¥áĥª": 5178,
      "Ġáĥĺáĥ¡áĥ¢áĥĿáĥłáĥĺáĥ£áĥļáĥĺ": 5179,
      "áĥĶáĥłáĥĶ": 5180,
      "ĠáĥļáĥĿáĥľáĥĵ": 5181,
      "áĥĺáĥľáĥĿ": 5182,
      "ĠáĥłáĥĶáĥľ": 5183,
      "áĥķáĥĲáĥļáĥĲáĥĽ": 5184,
      "áĥĲáĥĳáĥĿáĥłáĥ¯áĥĺáĥ¡": 5185,
      "Ġáĥ£áĥª": 5186,
      "ĠáĥĲáĥ¤áĥ®áĥĲáĥĸáĥĶáĥĹáĥĺáĥ¨": 5187,
      "spruch": 5188,
      "ube": 5189,
      "ĠHo": 5190,
      "48": 5191,
      "à¹Ĥà¸¡": 5192,
      "ain": 5193,
      "Ġbetroffen": 5194,
      "ĠJuni": 5195,
      "à¸Ĵà¸Ļ": 5196,
      "Ã¶ÃŁe": 5197,
      "ĠMÃ¶glichkeit": 5198,
      "ĠStr": 5199,
      "vel": 5200,
      "ĠMai": 5201,
      "à¸ĩà¹ģ": 5202,
      "Ġgal": 5203,
      "AR": 5204,
      "ĠNe": 5205,
      "ĠdÃ¼r": 5206,
      "spro": 5207,
      "1990": 5208,
      "ĠerklÃ¤r": 5209,
      "jahr": 5210,
      "halte": 5211,
      "hren": 5212,
      "ĠGeschichte": 5213,
      "aur": 5214,
      "Ġà¸Ĥà¸Ńà¸ĩ": 5215,
      "Ġà´Ĵà´´": 5216,
      "à´®à´²": 5217,
      "Ã±o": 5218,
      "Ø¯": 5219,
      "amos": 5220,
      "reifen": 5221,
      "à¸Ńà¸ĩà¸ģà¸²à¸£": 5222,
      "annte": 5223,
      "ĠPartner": 5224,
      "Ã¤um": 5225,
      "ĠKosten": 5226,
      "ĠprÃ¤": 5227,
      "Ġfac": 5228,
      "Ġus": 5229,
      "ĠProzent": 5230,
      "Ġà´¨àµ½à´ķ": 5231,
      "ĠZug": 5232,
      "dust": 5233,
      "à¸Ńà¸ĩà¸Ħ": 5234,
      "scher": 5235,
      "atten": 5236,
      "Ġrec": 5237,
      "ĠáĥļáĥĿáĥĻ": 5238,
      "Ġáĥ¥áĥ·áĥľáĥĵáĥ·": 5239,
      "ĠáĥĶáĥľ": 5240,
      "áĥĿáĥĿáĥłáĥ£": 5241,
      "áĥĿáĥļáĥĶáĥ¥": 5242,
      "Ġáĥ¡áĥ£áĥĽáĥĿáĥ¨": 5243,
      "Ġáĥ¬áĥ§áĥĲáĥłáĥĽáĥĲáĥļ": 5244,
      "ĠáĥĵáĥĶáĥŀáĥĲáĥłáĥ¢áĥĲáĥĽ": 5245,
      "áĥĲáĥ¬áĥĲáĥłáĥĽ": 5246,
      "áĥłáĥĲáĥ¨": 5247,
      "áĥĺáĥļáĥĺáĥĶ": 5248,
      "áĥĿáĥ¢áĥĺ": 5249,
      "áĥĶáĥ¦": 5250,
      "ĠáĥĲáĥĶ": 5251,
      "áĥłáĥĿáĥŀáĥĿáĥłáĥ¢": 5252,
      "ĠáĥĽáĥĿáĥĵ": 5253,
      "ĠáĥĴáĥĿáĥ®": 5254,
      "áĥĲáĥłáĥ£": 5255,
      "áĥĺáĥ¢áĥ£": 5256,
      "Ġáĥ¨áĥ¥áĥĲ": 5257,
      "Ġáĥ£áĥ¯áĥķáĥĶáĥ¨": 5258,
      "ĠáĥĽáĥĲáĥĺ": 5259,
      "áĥĶáĥĳáĥĶáĥ¤áĥĺáĥ¨": 5260,
      "áĥĺáĥĵáĥ£": 5261,
      "áĥĲáĥªáĥ®": 5262,
      "ĠáĥŀáĥĶáĥłáĥ¡áĥĿáĥľ": 5263,
      "áĥ¯áĥķ": 5264,
      "áĥļáĥĶáĥ¡": 5265,
      "ement": 5266,
      "Ġmei": 5267,
      "ĠVeranst": 5268,
      "icherung": 5269,
      "Ġwoll": 5270,
      "Ġcas": 5271,
      "ĠspÃ¤ter": 5272,
      "Ġihrem": 5273,
      "ĠMittel": 5274,
      "ĠSeptember": 5275,
      "hop": 5276,
      "Ġverst": 5277,
      "ters": 5278,
      "ï¿": 5279,
      "schul": 5280,
      "Ġspez": 5281,
      "Ġheraus": 5282,
      "à¸¸à¹ī": 5283,
      "ĠProjekt": 5284,
      "ï¿½": 5285,
      "ĠBel": 5286,
      "uh": 5287,
      "oi": 5288,
      "à¸¢à¸ģ": 5289,
      "ruppen": 5290,
      "Ġbitte": 5291,
      "fÃ¼hl": 5292,
      "ĠGroÃŁ": 5293,
      "mel": 5294,
      "eira": 5295,
      "2000": 5296,
      "ĠÐº": 5297,
      "ĠVol": 5298,
      "Ġleben": 5299,
      "kung": 5300,
      "ried": 5301,
      "Ġ(âĢŀ": 5302,
      "à¹Ģà¸Ľà¸¥": 5303,
      "Ġti": 5304,
      "Ġstellen": 5305,
      "ĠWissen": 5306,
      "Ġnutzen": 5307,
      "fre": 5308,
      "Ġirgend": 5309,
      "best": 5310,
      "67": 5311,
      "Ġget": 5312,
      "wohn": 5313,
      "ĠSelbst": 5314,
      "auber": 5315,
      "Ġbl": 5316,
      "à¸Ľà¸£à¸°à¸ģ": 5317,
      "ĠáĥĽáĥĶáĥ¸": 5318,
      "Ġáĥ¨áĥ®áĥ£": 5319,
      "áĥĳáĥĶáĥłáĥ«áĥĶáĥľ": 5320,
      "Ġáĥ¨áĥĶáĥĵáĥĶáĥĴáĥĿ": 5321,
      "Ġáĥ¥áĥĿáĥłáĥĹáĥ£áĥļ": 5322,
      "Ġáĥĳáĥ£áĥľáĥĲ": 5323,
      "áĥªáĥĶáĥľ": 5324,
      "áĥ£áĥłáĥĺáĥľáĥ¯": 5325,
      "áĥĲáĥłáĥĹáĥĲ": 5326,
      "ĠáĥĽáĥĺáĥļáĥĺáĥĿáĥľáĥĺ": 5327,
      "¡áĥ¢áĥĺáĥ¢áĥ£áĥ¢": 5328,
      "áĥ£áĥ£áĥļ": 5329,
      "Ġáĥ®áĥ£áĥĹ": 5330,
      "ĠáĥĽáĥĲáĥ¡áĥ£áĥĽáĥĲ": 5331,
      "áĥĺáĥľáĥ©": 5332,
      "ĠáĥĽáĥĿáĥ¸": 5333,
      "Ġáĥ¥áĥĿáĥĽ": 5334,
      "ĠáĥĴáĥ·áĥľáĥ": 5335,
      "áĥĲáĥľáĥ©": 5336,
      "áĥĺáĥ¡áĥĻ": 5337,
      "ĠáĥĹáĥĺáĥ¨áĥĶáĥľ": 5338,
      "Ġáĥ¤áĥĲáĥł": 5339,
      "áĥĺáĥ¢áĥĺ": 5340,
      "Ġáĥĳáĥłáĥĺáĥ¢áĥĲáĥľáĥĶáĥĹáĥĺáĥ¨": 5341,
      "ĠáĥĴáĥķáĥĲáĥļáĥĿ": 5342,
      "ĠáĥĻáĥĲáĥŀ": 5343,
      "ĠáĥĺáĥľáĥĵáĥĿáĥĶáĥĹáĥĺáĥ¡": 5344,
      "áĥĲáĥłáĥĸ": 5345,
      "ĠáĥŀáĥĲáĥłáĥĻáĥĺ": 5346,
      "áĥĲáĥľáĥĲáĥ¡": 5347,
      "ĠWahl": 5348,
      "áĥĺáĥ¡áĥ¢áĥ£áĥłáĥĺ": 5349,
      "ĠáĥĻáĥĿáĥľáĥ¡áĥ¢áĥĺáĥ¢áĥ£áĥª": 5350,
      "genommen": 5351,
      "1960": 5352,
      "mals": 5353,
      "ĠBeruf": 5354,
      "Ġkaufen": 5355,
      "able": 5356,
      "Ġkleinen": 5357,
      "à¸Ļà¸Ĺà¸²à¸ĩ": 5358,
      "ĠDienst": 5359,
      "sl": 5360,
      "à¸Ļà¸²à¸Ķ": 5361,
      ".\"": 5362,
      "áŀ": 5363,
      "Ġerfol": 5364,
      "arf": 5365,
      "Ã¤hlt": 5366,
      "utzt": 5367,
      "à´±à´²": 5368,
      "ĠAnd": 5369,
      "Ġà´¨à´Łà´ªà´Ł": 5370,
      "ĠâĤ¬": 5371,
      "Ġpres": 5372,
      "utt": 5373,
      "Ġsollten": 5374,
      "Ġfre": 5375,
      "Ġunterschied": 5376,
      "Ġ?": 5377,
      "Ġgab": 5378,
      "2002": 5379,
      "à¸Ĺà¸³à¹ĥà¸«": 5380,
      "à¸³à¸Ļ": 5381,
      "Ïģ": 5382,
      "Ġhatten": 5383,
      "mbH": 5384,
      "à´°à´Ł": 5385,
      "Ã¤te": 5386,
      "áĥľáĥĿáĥ¦": 5387,
      "ĠáĥĽáĥĶáĥłáĥĻ": 5388,
      "ĠáĥŀáĥłáĥĿáĥ¤áĥĶáĥ¡": 5389,
      "áĥĶáĥĺáĥ¨": 5390,
      "áĥĺáĥ¡áĥ¢áĥĶáĥ¤áĥĺáĥ¨": 5391,
      "áĥ£áĥ«": 5392,
      "áĥĺáĥĿáĥļáĥĿáĥĴ": 5393,
      "ĠáĥĶáĥĵáĥĿáĥĽáĥ£áĥ¨áĥĲáĥĽáĥĿ": 5394,
      "Ġáĥłáĥĺáĥ©áĥĲáĥłáĥĵ": 5395,
      "Ġáĥ®áĥĲáĥł": 5396,
      "ĠáĥĽáĥĿ": 5397,
      "ĠáĥĽáĥĿáĥ¦áĥĲáĥļ": 5398,
      "ĠáĥĻáĥĲáĥĽ": 5399,
      "áĥĺáĥĿáĥĴ": 5400,
      "Ġáĥļáĥ·áĥĽáĥĲ": 5401,
      "áĥĶáĥľáĥĵáĥĶáĥ¡": 5402,
      "ĠáĥŁáĥĲáĥľ": 5403,
      "ĠáĥŀáĥłáĥĶáĥĸáĥĺáĥĵáĥĶáĥľáĥ¢áĥĺ": 5404,
      "ĠáĥĲáĥĵáĥĲáĥĽáĥĺáĥĶáĥłáĥ¡": 5405,
      "áĥĿáĥŁ": 5406,
      "áĥĶáĥĳáĥĶáĥļáĥĿ": 5407,
      "ĠáĥĵáĥĲáĥĳ": 5408,
      "Ġáĥ£áĥĽáĥĶáĥľáĥ¢áĥĲáĥ¨": 5409,
      "áĥĺáĥĲáĥłáĥĹ": 5410,
      "Ġáĥ£áĥļ": 5411,
      "Ġáĥ£áĥĽáĥĲáĥ¦áĥĲáĥļáĥĲáĥ¨áĥĺ": 5412,
      "ĠzusÃ¤tz": 5413,
      "ummer": 5414,
      "à¸ĩà¸ģà¸²à¸£": 5415,
      "ĠGÃ¤": 5416,
      "FÃ¼r": 5417,
      "à´µà´£": 5418,
      "Ġtun": 5419,
      "Ġà¹Ģà¸ŀà¸£à¸²à¸°": 5420,
      "Î±": 5421,
      "dition": 5422,
      "ĠHam": 5423,
      "ĠVI": 5424,
      "à¸ı": 5425,
      "bach": 5426,
      "Ġneben": 5427,
      "schnitt": 5428,
      "ita": 5429,
      "Ġweit": 5430,
      "ĠSam": 5431,
      "ĠÃ¶ffent": 5432,
      "alle": 5433,
      "ĠDez": 5434,
      "Ġworden": 5435,
      "rÃ¼f": 5436,
      "ĠPorn": 5437,
      "Ã¤nde": 5438,
      "ĠRaum": 5439,
      "à´²à´Ļ": 5440,
      "sport": 5441,
      "ielt": 5442,
      "deut": 5443,
      "pol": 5444,
      "àµ»à´¸": 5445,
      "ĠMÃ¤rz": 5446,
      "XI": 5447,
      "Ġeur": 5448,
      "41": 5449,
      "rigen": 5450,
      "Ġindividu": 5451,
      "sweise": 5452,
      "ath": 5453,
      "à´ķà´Ł": 5454,
      "sprech": 5455,
      "affen": 5456,
      "Ġschwer": 5457,
      "ĠComp": 5458,
      "ĠDi": 5459,
      "met": 5460,
      "Ġallerdings": 5461,
      "Ð²Ð¸": 5462,
      "Ġwahr": 5463,
      "arbeiten": 5464,
      "à¸ģà¸Ķ": 5465,
      "189": 5466,
      "à¸¯": 5467,
      "à¸ģà¸Ħ": 5468,
      "89": 5469,
      "Ġáĥŀáĥ£áĥľáĥ¥": 5470,
      "áĥĿáĥĳáĥŁ": 5471,
      "ĠáĥĽáĥĶáĥ©": 5472,
      "ĠáĥĲáĥ£": 5473,
      "ĠáĥĶáĥļáĥĶáĥĽ": 5474,
      "ĠáĥĴáĥ£áĥłáĥĲáĥ¤áĥ£áĥļ": 5475,
      "ĠáĥĽáĥĶáĥ¡áĥĺ": 5476,
      "áĥ¥áĥĺáĥĲáĥľáĥĲáĥ¨": 5477,
      "ĠáĥĿáĥĵáĥĲáĥĳáĥĲáĥĵ": 5478,
      "Ġáĥ£áĥĸ": 5479,
      "áĥĶáĥłáĥĺáĥĲáĥ¨": 5480,
      "Ġáĥ£áĥĹ": 5481,
      "áĥĺáĥĵáĥĶ": 5482,
      "áĥĿáĥľáĥ¬áĥ§": 5483,
      "ĠáĥŀáĥłáĥĿáĥĴ": 5484,
      "áĥĺáĥĳáĥĺáĥ¨": 5485,
      "áĥĲáĥļáĥĺáĥĹ": 5486,
      "ĠáĥĳáĥłáĥĶáĥļ": 5487,
      "ĠáĥĽáĥĺáĥłáĥ©áĥ¥áĥĺáĥľ": 5488,
      "ĠáĥĲáĥ¢áĥļáĥĲáĥľáĥ¢áĥĺáĥ¨": 5489,
      "ĠáĥĲáĥĶáĥłáĥĿáĥŀáĥĿáĥłáĥ¢": 5490,
      "ĠáĥĻáĥĲáĥķáĥĻ": 5491,
      "Ġáĥ¢áĥĺáĥĳ": 5492,
      "ĠáĥĵáĥĲáĥ®áĥĶ": 5493,
      "ĠáĥĴáĥ·áĥ¨áĥĽ": 5494,
      "áĥĿáĥľáĥ·": 5495,
      "ĠáĥĽáĥĶáĥ®áĥ·": 5496,
      "ĠáĥĶáĥ¥áĥ¡áĥŀ": 5497,
      "ession": 5498,
      "ĠBas": 5499,
      "ĠEle": 5500,
      ";;": 5501,
      "elefon": 5502,
      "Ð¾Ð»": 5503,
      "Ġverwendet": 5504,
      "ows": 5505,
      "Ġcm": 5506,
      "àµģ,": 5507,
      "à¸£à¸°à¸ļà¸ļ": 5508,
      "Ġà´İà´Ļ": 5509,
      "à´ĺà´Łà´¨": 5510,
      "steller": 5511,
      "62": 5512,
      "itten": 5513,
      "ÐµÐ½": 5514,
      "ĠMÃ¤n": 5515,
      "ĠWind": 5516,
      "ĠLes": 5517,
      "bare": 5518,
      "Ġmar": 5519,
      "eten": 5520,
      "esonder": 5521,
      "baren": 5522,
      "akte": 5523,
      "ĠJahres": 5524,
      "pa": 5525,
      "werb": 5526,
      "à´¹à´®": 5527,
      "2004": 5528,
      "tegr": 5529,
      "ĠGeh": 5530,
      "ĠWider": 5531,
      "grÃ¼n": 5532,
      "sf": 5533,
      "Ãľ": 5534,
      "ĠVon": 5535,
      "ĠDesign": 5536,
      "zel": 5537,
      "1992": 5538,
      "ĠLuft": 5539,
      "lungen": 5540,
      "1999": 5541,
      "Ġihnen": 5542,
      "aly": 5543,
      "Ġfreu": 5544,
      "ĠGmbH": 5545,
      "Ġà¸«à¸¥": 5546,
      "à¤°": 5547,
      "Ġpriv": 5548,
      "à´Ļàµ¾à´ķ": 5549,
      "ĠProdukte": 5550,
      "ces": 5551,
      "geber": 5552,
      "à¸¢à¸§à¸ģ": 5553,
      "IT": 5554,
      "Ad": 5555,
      "áĥĵáĥķáĥĲáĥļ": 5556,
      "Ġáĥ¨áĥĿáĥľ": 5557,
      "Ġáĥ°áĥĿáĥļ": 5558,
      "áĥĺáĥĿáĥŃ": 5559,
      "áĥĿáĥ£áĥļ": 5560,
      "ĠáĥĻáĥĿáĥľáĥ¢áĥł": 5561,
      "ĠáĥĽáĥĺáĥĿáĥĴ": 5562,
      "ĠáĥĽáĥĶáĥľ": 5563,
      "ĠáĥŀáĥĲáĥļ": 5564,
      "ĠáĥĲáĥĻáĥĲáĥľáĥ¡": 5565,
      "áĥłáĥ£áĥ¡": 5566,
      "áĥĺáĥļáĥ£": 5567,
      "Ġáĥ®áĥĶáĥ¨áĥ£áĥ£áĥļ": 5568,
      "áĥĲáĥłáĥ©áĥ¥": 5569,
      "ĠáĥĿáĥª": 5570,
      "ĠáĥļáĥĶ": 5571,
      "áĥĿáĥļáĥĿáĥĴáĥĺáĥĲáĥ¡": 5572,
      "ĠáĥĵáĥĴáĥ·áĥĽ": 5573,
      "ĠáĥŀáĥĿáĥ¢": 5574,
      "áĥĶáĥłáĥļáĥĲáĥľáĥĵ": 5575,
      "ĠáĥĴáĥ·áĥľáĥĽ": 5576,
      "Ġáĥ¢áĥĶáĥĽáĥŀáĥĶáĥłáĥĲáĥ¢": 5577,
      "ĠáĥĵáĥĲáĥ¡": 5578,
      "áĥĲáĥĽáĥĲ": 5579,
      "áĥ¯áĥĴáĥ£áĥ¨": 5580,
      "áĥĶáĥ¸": 5581,
      "áĥĲáĥľáĥĺáĥĲáĥ¨": 5582,
      "ĠáĥĽáĥĿáĥľáĥ¬áĥ§": 5583,
      "áĥĶáĥĳáĥĶáĥļ": 5584,
      "áĥłáĥ¥áĥĺáĥĲáĥľ": 5585,
      "áĥłáĥ¥áĥĺáĥĲáĥľáĥĿ": 5586,
      "áĥĺáĥľáĥĶáĥľáĥ¢": 5587,
      "áĥ·áĥľáĥĶ": 5588,
      "Ġáĥ¡áĥĲáĥĽáĥĲáĥłáĥĹ": 5589,
      "stein": 5590,
      "ĠáĥĻáĥļáĥĲáĥłáĥ¯áĥĶáĥĹáĥĺáĥ¨": 5591,
      "Ġdis": 5592,
      "ĠVort": 5593,
      "atte": 5594,
      "ĠRegel": 5595,
      "ĠAuto": 5596,
      "reiche": 5597,
      "Ã¤chst": 5598,
      "ĠKomp": 5599,
      "ĠErgeb": 5600,
      "à´µàµ¼": 5601,
      "Ġide": 5602,
      "à¸ķà¸¥": 5603,
      "spl": 5604,
      "omit": 5605,
      "iste": 5606,
      "ĠProf": 5607,
      "ĠGut": 5608,
      "nehmer": 5609,
      "à¸Ļà¹Ħà¸Ľ": 5610,
      "Ġnot": 5611,
      "ranken": 5612,
      "ĠDat": 5613,
      "klÃ¤rung": 5614,
      "ĠChrist": 5615,
      "ĠLandes": 5616,
      "uck": 5617,
      "Ġverschiedenen": 5618,
      "Ġkannst": 5619,
      "ĠPersonen": 5620,
      "ĠDen": 5621,
      "buch": 5622,
      "Ġkeinen": 5623,
      "Ð³": 5624,
      "gesetzt": 5625,
      "Ġà¹Ģà¸Ĭ": 5626,
      "own": 5627,
      "ĠDann": 5628,
      "02": 5629,
      "Ġbekommen": 5630,
      "sere": 5631,
      "Ġverm": 5632,
      "ĠHei": 5633,
      "à¹Ģà¸¨": 5634,
      "à¸ŀà¸¢": 5635,
      "Ġsobre": 5636,
      "àµĨâĢĭ": 5637,
      "06": 5638,
      "à¸ļà¸Ħ": 5639,
      "à¹Ĥà¸£à¸ĩ": 5640,
      "Ġgemeinsam": 5641,
      "Ġebenfalls": 5642,
      "Ġinnerhalb": 5643,
      "Am": 5644,
      "à´ķà´µ": 5645,
      "03": 5646,
      "Ġzeigt": 5647,
      "ĠApr": 5648,
      "ĠHar": 5649,
      "eint": 5650,
      "ela": 5651,
      "Ã¼ler": 5652,
      "schung": 5653,
      "ĠMitarbeiter": 5654,
      "Ġpolo": 5655,
      "ĠáĥĻáĥĲáĥļáĥĶáĥľáĥĵáĥĲáĥłáĥĺáĥĹ": 5656,
      "áĥĺáĥľáĥĺáĥĹ": 5657,
      "Ġáĥ¢áĥĿáĥĳ": 5658,
      "ĠáĥĿáĥ®áĥķáĥĺáĥļ": 5659,
      "ĠáĥľáĥĲáĥĽáĥ£áĥĶáĥ¤": 5660,
      "ĠáĥĻáĥĿáĥļáĥĿáĥľ": 5661,
      "Ġáĥ¡áĥªáĥĶáĥľ": 5662,
      "áĥ£áĥĲáĥ¤áĥ·": 5663,
      "Ġáĥ¬áĥ§áĥĲáĥłáĥĽáĥĲáĥļáĥ£áĥĶáĥ¤áĥĺáĥ¨": 5664,
      "Ġáĥĳáĥłáĥĺáĥ¢áĥĲáĥľ": 5665,
      "áĥĶáĥłáĥª": 5666,
      "Ġáĥĺáĥľáĥ¡áĥ¢áĥĺáĥ¢áĥ£áĥ¢": 5667,
      "ĠáĥĽáĥĺáĥ¦áĥ·": 5668,
      "ĠáĥĺáĥŃáĥ§áĥĲáĥ¤áĥ£": 5669,
      "ĠáĥĳáĥĿáĥļáĥĿ": 5670,
      "ĠáĥłáĥĴ": 5671,
      "áĥĲáĥ¨áĥ¥áĥ£áĥĽáĥĲáĥļ": 5672,
      "ĠáĥĵáĥĿáĥľáĥĶ": 5673,
      "Ġáĥ¡áĥ¢áĥĲáĥ¢áĥ£áĥ¡áĥĺ": 5674,
      "Ġáĥĵáĥ¦áĥĲáĥ¨": 5675,
      "ĠáĥĿáĥĽáĥĲáĥ¤áĥĶáĥ¨": 5676,
      "ĠáĥĹáĥĲáĥľáĥĴ": 5677,
      "áĥ®áĥķáĥĲáĥĵ": 5678,
      "áĥĲáĥļáĥĲáĥ¥": 5679,
      "ĠáĥĳáĥĶáĥļ": 5680,
      "ĠáĥĿáĥĽáĥ«áĥ¦": 5681,
      "ĠáĥłáĥĶáĥ¡áĥŀáĥ£áĥĳáĥļáĥĺáĥĻ": 5682,
      "ĠáĥĽáĥĿáĥľáĥ«áĥĲáĥļáĥĲáĥ¨": 5683,
      "áĥĿáĥłáĥ©": 5684,
      "áĥĲáĥ£áĥļ": 5685,
      "áĥĶáĥŃ": 5686,
      "à´¤àµ½": 5687,
      "ĠáĥŀáĥĲáĥłáĥļáĥĲáĥĽ": 5688,
      "áĥĺáĥĲáĥ¨áĥĲ": 5689,
      "Ġáĥ¡áĥĲáĥ¤áĥłáĥĲáĥľáĥĴáĥĶáĥĹáĥĺáĥ¨": 5690,
      "Ġabge": 5691,
      "áĥĻáĥĺáĥł": 5692,
      "Ġáĥ¢áĥĶáĥļ": 5693,
      "áĥ£áĥĽáĥĳ": 5694,
      "Ġáĥ¨áĥĲáĥłáĥĲáĥļáĥ£": 5695,
      "ÑĢÐ¸": 5696,
      "hÃ¤ng": 5697,
      "anzen": 5698,
      "à¹ĭ": 5699,
      "lieÃŁ": 5700,
      "ĠDezember": 5701,
      "ĠBus": 5702,
      "à´¸à´¤": 5703,
      "ftware": 5704,
      "Ġperso": 5705,
      "ÐºÐ¸": 5706,
      "Ġà¸Ĺà¸³": 5707,
      "lay": 5708,
      "ÙĬ": 5709,
      "Ġmag": 5710,
      "à´£à´¨": 5711,
      "Ġweniger": 5712,
      "Ġend": 5713,
      "ieg": 5714,
      "Ġangeb": 5715,
      "1921": 5716,
      "à´¶à´¨": 5717,
      "ĠAlle": 5718,
      "meld": 5719,
      "ĠHotel": 5720,
      "ee": 5721,
      "Ġà¸Ħà¸£": 5722,
      "ĠKo": 5723,
      "Ã¤nd": 5724,
      "ĠGast": 5725,
      "ĠGel": 5726,
      "ategor": 5727,
      "Ġalt": 5728,
      "à´®à´±": 5729,
      "ufen": 5730,
      "ĠJanuar": 5731,
      "Ġten": 5732,
      "assung": 5733,
      "ĠBlick": 5734,
      "Ġinst": 5735,
      "Ġà´Ĩà´¨": 5736,
      "Ġnah": 5737,
      "ĠFrÃ¼": 5738,
      "istr": 5739,
      "ĠSil": 5740,
      "ĠDabei": 5741,
      "ĠKÃ¶rper": 5742,
      "setzung": 5743,
      "ĠAbs": 5744,
      "ĠSommer": 5745,
      "à¸²à¹ģ": 5746,
      "ĠFuÃŁ": 5747,
      "ĠRest": 5748,
      "Ġnews": 5749,
      "ĠMinuten": 5750,
      "à¸¢à¸ļ": 5751,
      "Ġáĥ¡áĥĲáĥĽáĥĲáĥłáĥĴáĥĲáĥļáĥĿáĥ¨": 5752,
      "Ġáĥ¡áĥĲáĥļáĥķáĥĲáĥĵ": 5753,
      "áĥĺáĥĿáĥľáĥĺáĥ¨": 5754,
      "ĠáĥľáĥĿáĥļáĥĶáĥ¥": 5755,
      "ĠáĥļáĥĲáĥķ": 5756,
      "Ġáĥĺáĥ¡áĥļ": 5757,
      "ĠáĥĲáĥłáĥ®": 5758,
      "áĥ¢áĥĺáĥ¡": 5759,
      "ĠáĥŀáĥłáĥĿáĥ¢": 5760,
      "Ġà¸Ńà¸¢": 5761,
      "ĠáĥĹáĥĶáĥļ": 5762,
      "ĠáĥľáĥĺáĥĻ": 5763,
      "ĠáĥķáĥĲáĥ£": 5764,
      "ĠáĥĿáĥ¤áĥ£áĥ¢áĥĶ": 5765,
      "áĥĿáĥ®áĥ£áĥĹáĥĺ": 5766,
      "ĠáĥĴáĥĶáĥŃ": 5767,
      "Ġáĥĵáĥ£áĥĵáĥĺáĥ¨áĥ£áĥļáĥĺ": 5768,
      "ĠáĥŀáĥĺáĥłáĥĶáĥļáĥĺ": 5769,
      "áĥĺáĥĹáĥ®áĥĺáĥł": 5770,
      "ĠáĥĴáĥĺáĥĹ": 5771,
      "áĥ£áĥłáĥĶáĥ¨áĥĶ": 5772,
      "ĠáĥĿáĥĽáĥ«áĥ¦áĥ·": 5773,
      "ĠáĥķáĥĲáĥłáĥĶ": 5774,
      "áĥĶáĥĹáĥĺáĥ¥": 5775,
      "Ġáĥ¡áĥĲáĥ®áĥĶáĥĹ": 5776,
      "ĠáĥĴáĥ·áĥ¨áĥĲáĥĻáĥĶáĥłáĥ«áĥĲáĥ¤áĥĺáĥļáĥĿ": 5777,
      "Ġáĥ¡áĥĺáĥ¡áĥ¢áĥĶáĥĽáĥĲ": 5778,
      "áĥĲáĥľáĥ¯áĥĲáĥł": 5779,
      "áĥĲáĥłáĥªáĥ®": 5780,
      "áĥĿáĥĽáĥĳ": 5781,
      "ĠáĥĺáĥĽáĥŀáĥĶáĥłáĥĺáĥĲ": 5782,
      "ĠáĥĻáĥ£áĥĳáĥĲáĥ¨": 5783,
      "ĠáĥĿáĥĹ": 5784,
      "Ġkam": 5785,
      "Ġà¹Ģà¸¥": 5786,
      "herap": 5787,
      "47": 5788,
      "à´²à´°": 5789,
      "Ġesc": 5790,
      "Ã¤dchen": 5791,
      "Ġkompl": 5792,
      "ublik": 5793,
      "à´³à´³": 5794,
      "ĠRad": 5795,
      "ichtung": 5796,
      "mos": 5797,
      "Ġà´ķà´¯à´±": 5798,
      "ĠMein": 5799,
      "à¸²à¸ĸ": 5800,
      "Ġà´¨à´¨": 5801,
      "treten": 5802,
      "Ġklein": 5803,
      "ych": 5804,
      "Ġbleibt": 5805,
      "Ġpola": 5806,
      "gn": 5807,
      "Ġpassen": 5808,
      "ĠJuli": 5809,
      "ito": 5810,
      "ĠGarten": 5811,
      "ĠPark": 5812,
      "pfen": 5813,
      "Ġbew": 5814,
      "ins": 5815,
      "gal": 5816,
      "à¸Łà¸£": 5817,
      "à´¯àµ»": 5818,
      "Ġsagen": 5819,
      "ĠNetz": 5820,
      "ora": 5821,
      "Ġkont": 5822,
      "à¸Ļà¸ĺ": 5823,
      "ches": 5824,
      "ĠMaterial": 5825,
      "deu": 5826,
      "aun": 5827,
      "lig": 5828,
      "lungs": 5829,
      "à¸Ńà¸Ħ": 5830,
      "ĠBÃ¼rger": 5831,
      "à´§à´®": 5832,
      "Ġpersonenbezogenen": 5833,
      "umm": 5834,
      "ĠBad": 5835,
      "Î½": 5836,
      "à¸ĩà¹Ģà¸Ľ": 5837,
      "So": 5838,
      "zess": 5839,
      "ĠFacebook": 5840,
      "Ġzun": 5841,
      "ĠáĥĽáĥĲáĥĵáĥłáĥĺáĥĵ": 5842,
      "ĠáĥĵáĥłáĥĲáĥĽ": 5843,
      "ĠáĥĿáĥ¯": 5844,
      "Ġáĥ£áĥĽáĥĶáĥľáĥ¢áĥĲáĥ¨áĥĿ": 5845,
      "ĠáĥĶáĥĻáĥĿáĥľáĥĿáĥĽáĥĺáĥĻáĥ£áĥłáĥĺ": 5846,
      "áĥķáĥĶáĥļáĥĺ": 5847,
      "áĥĶáĥłáĥĶáĥ¤": 5848,
      "Ġáĥ¤áĥĲáĥľáĥĺáĥĲáĥ¡": 5849,
      "ĠáĥĲáĥĻáĥĲáĥĵáĥĶáĥĽ": 5850,
      "áĥĶáĥ¨áĥĺáĥ¡": 5851,
      "áĥĺáĥľáĥ£áĥĲáĥľáĥ¡": 5852,
      "ĠáĥĵáĥĲáĥĻ": 5853,
      "ĠáĥĲáĥļáĥĲáĥĸ": 5854,
      "ĠáĥĽáĥ£áĥĸ": 5855,
      "ĠáĥĵáĥĲáĥĵ": 5856,
      "áĥľáĥĶáĥłáĥĺ": 5857,
      "áĥĶáĥ¨áĥ·": 5858,
      "áĥĲáĥĴáĥĿáĥłáĥ£": 5859,
      "áĥ¥áĥĺáĥĽ": 5860,
      "ĠáĥłáĥĲáĥľáĥ¬": 5861,
      "áĥĺáĥļáĥ¥": 5862,
      "áĥĲáĥłáĥĲáĥĳ": 5863,
      "áĥĺáĥłáĥĲáĥ¤áĥĲ": 5864,
      "ĠáĥĶáĥĹáĥĽ": 5865,
      "ko": 5866,
      "áĥĺáĥľáĥĶáĥļ": 5867,
      "áĥĲáĥłáĥĲáĥ¡": 5868,
      "à¹Ĥà¸Ļ": 5869,
      "ĠLiefer": 5870,
      "abel": 5871,
      "Ġgaleg": 5872,
      "Ġeigentlich": 5873,
      "Ġbesteht": 5874,
      "ĠApril": 5875,
      "Ġsonst": 5876,
      "ĠWert": 5877,
      "eiro": 5878,
      "unge": 5879,
      "à¸Ńà¸²à¸«à¸²à¸£": 5880,
      "scheiden": 5881,
      "à¸§à¸Ī": 5882,
      "1994": 5883,
      "agte": 5884,
      "àµĨ,": 5885,
      "AT": 5886,
      "Ġentsprechen": 5887,
      "à´±à´ļ": 5888,
      "ve": 5889,
      "à¸Ľà¸£à¸°à¸ª": 5890,
      "ĠmÃ¶chten": 5891,
      "del": 5892,
      "schlag": 5893,
      "Ġà´¶à´ķ": 5894,
      "aren": 5895,
      "42": 5896,
      "ĠPlan": 5897,
      "rache": 5898,
      "Ġà´ħà´µà´¨": 5899,
      "abor": 5900,
      "ĠLehr": 5901,
      "Ø³": 5902,
      "ilf": 5903,
      "ĠSing": 5904,
      "à¸«à¸¡à¸²à¸¢": 5905,
      "Ġsollen": 5906,
      "88": 5907,
      "ĠRep": 5908,
      "Ã¤ren": 5909,
      "era": 5910,
      "à¸Ķà¹Ģà¸ĩ": 5911,
      "ĠTem": 5912,
      "xx": 5913,
      "ordnung": 5914,
      "ĠReise": 5915,
      "ĠWirtschaft": 5916,
      "ĠKauf": 5917,
      "Ġeinzel": 5918,
      "à´¿:": 5919,
      "ument": 5920,
      "à´Ĥ:": 5921,
      "Ġcoa": 5922,
      "ĠVersand": 5923,
      "05": 5924,
      "zeitig": 5925,
      "ĠPriv": 5926,
      "Ġleicht": 5927,
      "ĠInf": 5928,
      "warz": 5929,
      "ON": 5930,
      "82": 5931,
      "XV": 5932,
      "ĠáĥĽáĥĶáĥľáĥĵáĥĶáĥļáĥĶáĥĶáĥķ": 5933,
      "ĠáĥĵáĥĲáĥļ": 5934,
      "áĥĺáĥłáĥĶáĥ¡": 5935,
      "Ġà¸ŀà¸£": 5936,
      "áĥĲáĥ¡áĥĻ": 5937,
      "Ġà´ķà´Ł": 5938,
      "ĠáĥķáĥĶáĥľ": 5939,
      "ĠáĥŀáĥłáĥĶáĥĽáĥĺáĥĶáĥł": 5940,
      "Ġáĥ¡áĥ£áĥĽáĥĿáĥľáĥĶáĥ©áĥĵáĥĿáĥķáĥĺáĥĹ": 5941,
      "ĠáĥĵáĥĿáĥłáĥĹáĥ£": 5942,
      "áĥĿáĥľáĥĶáĥ¤áĥĺáĥ¨": 5943,
      "Ġáĥ©áĥĶáĥ©": 5944,
      "ĠáĥľáĥŃ": 5945,
      "ĠáĥĽáĥ£áĥĵáĥĴáĥĲáĥ¨": 5946,
      "ĠáĥŀáĥĲáĥłáĥĺáĥĸ": 5947,
      "ĠáĥĵáĥĿáĥļ": 5948,
      "áĥĲáĥłáĥ¡áĥ®áĥ£áĥĲáĥ¤": 5949,
      "áĥĺáĥĵáĥĶáĥłáĥļáĥĲáĥľáĥĵ": 5950,
      "Ġáĥ¬áĥĿáĥ®áĥĿáĥļáĥĶ": 5951,
      "Ġáĥ¤áĥĿáĥłáĥĽáĥĲ": 5952,
      "âĢİâĢİ": 5953,
      "áĥĺáĥľáĥĶáĥ¡": 5954,
      "áĥ£áĥ¡áĥĺáĥ¨": 5955,
      "Ġáĥ¡áĥĲáĥĽáĥĲáĥľáĥĴ": 5956,
      "Ġáĥ¡áĥĺáĥ¡áĥ¢áĥĶáĥĽáĥĲáĥ¨": 5957,
      "Ġáĥ¡áĥĲáĥĳáĥĿáĥļ": 5958,
      "Ġáĥ®áĥĶáĥĽáĥĲáĥľáĥ¯áĥ¦áĥķ": 5959,
      "áĥĿáĥŁáĥĺáĥłáĥĺ": 5960,
      "ĠáĥĽáĥĶáĥł": 5961,
      "Ġáĥ¡áĥĲáĥĹ": 5962,
      "ĠáĥłáĥĹ": 5963,
      "ĠáĥĽáĥĶáĥľáĥªáĥĲáĥłáĥĿáĥĳáĥĲáĥ¨": 5964,
      "áĥ£áĥĲáĥļáĥĲ": 5965,
      "Ġà´ħà´ŀ": 5966,
      "ĠáĥĹáĥĿáĥļ": 5967,
      "Ġáĥ¡áĥĲáĥĺáĥłáĥ¥áĥĺáĥĲáĥľáĥĿ": 5968,
      "Ġáĥ£áĥłáĥĹáĥĺáĥĲáĥłáĥĹ": 5969,
      "ĠáĥŀáĥĲáĥŀ": 5970,
      "àµįâĢĭ": 5971,
      "will": 5972,
      "à´¦à´¨": 5973,
      "itel": 5974,
      "ĠGesundheit": 5975,
      "ĠAbend": 5976,
      "à¸Ńà¸ĩà¸Ĺ": 5977,
      "ĠdaÃŁ": 5978,
      "Ġdaher": 5979,
      "Ġmin": 5980,
      "ĠPap": 5981,
      "ĠEntwicklung": 5982,
      "ieb": 5983,
      "âĤ¬": 5984,
      "à¸²à¸ĩà¸ģ": 5985,
      "ĠMark": 5986,
      "à¸²à¸¢à¸Ļ": 5987,
      "Ġwww": 5988,
      "Ġà´Ĩà´³": 5989,
      "ĠZwe": 5990,
      "Ġà´¤à´¯": 5991,
      "Ġmeinen": 5992,
      "rauen": 5993,
      "Ġà¸ģà¸¥": 5994,
      "à¸Ļà¸Ńà¸¢": 5995,
      "aliz": 5996,
      "ritten": 5997,
      "ĠAugen": 5998,
      "iar": 5999,
      "69": 6000,
      "ÑĤÐ°": 6001,
      "53": 6002,
      "ĠNamen": 6003,
      "statt": 6004,
      "esondere": 6005,
      "dige": 6006,
      "chnik": 6007,
      "ĠDan": 6008,
      "ĠTest": 6009,
      "elfen": 6010,
      "sver": 6011,
      "atung": 6012,
      "à´°à´ª": 6013,
      "ismus": 6014,
      "à´Ĺà´¸": 6015,
      "ĠRes": 6016,
      "Ġentre": 6017,
      "à´¶à´¤": 6018,
      "Ġerz": 6019,
      "à¸ªà¸°à¹Ģà¸ģ": 6020,
      "à¸Ļà¹Ħà¸Ķ": 6021,
      "ĠFe": 6022,
      "sor": 6023,
      "ffiz": 6024,
      "ĠÃ¡s": 6025,
      "ĠStunden": 6026,
      "Ġà¹Ģà¸§": 6027,
      "ĠTo": 6028,
      "ED": 6029,
      "Ġà´ĩà´µà´°": 6030,
      "antes": 6031,
      "itiv": 6032,
      "ĠChar": 6033,
      "ĠProgramm": 6034,
      "Â«": 6035,
      "ĠFamilie": 6036,
      "à´¹à´¨": 6037,
      "Ġy": 6038,
      "ichtet": 6039,
      "ĠEnergie": 6040,
      "à¸Ļà¹ĥà¸Ļ": 6041,
      "áĥ£áĥĽáĥĶáĥļ": 6042,
      "ĠáĥłáĥĶáĥĻ": 6043,
      "áĥĶáĥľáĥ¬áĥ§": 6044,
      "Ġáĥ®áĥĲáĥ¡áĥ·áĥļáĥĲáĥ¡": 6045,
      "áĥĽáĥĶáĥ¢": 6046,
      "ĠáĥŀáĥĿáĥłáĥ¢áĥ£áĥĴ": 6047,
      "áĥĶáĥľáĥĻ": 6048,
      "áĥķáĥĺáĥľáĥĺáĥ¨": 6049,
      "áĥ¡áĥ£áĥĽ": 6050,
      "áĥĹáĥĿáĥĳ": 6051,
      "àµĭ.": 6052,
      "áĥĺáĥ¢áĥł": 6053,
      "Ġáĥĺáĥ©áĥĺáĥĶáĥĳ": 6054,
      "Ġáĥłáĥ¨": 6055,
      "ĠáĥķáĥĲáĥłáĥĹ": 6056,
      "ĠáĥĿáĥ¨áĥ¬áĥĲáĥľáĥ£áĥłáĥĲáĥ¨áĥĶ": 6057,
      "ĠáĥĲáĥ¤áĥłáĥĺáĥĻáĥĲáĥ¡": 6058,
      "gende": 6059,
      "áĥĺáĥŀáĥĲáĥļ": 6060,
      "ĠáĥĵáĥĿáĥĹ": 6061,
      "ĠáĥĵáĥĲáĥłáĥ¡áĥ®áĥ£": 6062,
      "áĥĲáĥ¥áĥ¡": 6063,
      "ĠáĥĽáĥĲáĥ¦áĥĲáĥļ": 6064,
      "áĥĺáĥ¨áĥĿ": 6065,
      "áĥ®áĥ£áĥĲáĥ¨": 6066,
      "ĠáĥĶáĥĵáĥĿáĥĽáĥ£áĥ¨áĥĲáĥĽ": 6067,
      "ĠáĥĺáĥĽáĥŀáĥĶáĥłáĥĺáĥĲáĥ¨": 6068,
      "Ġáĥ£áĥ¨áĥ®áĥ£áĥĲáĥ¨": 6069,
      "ĠáĥĵáĥĺáĥĲáĥļáĥĶáĥ¥áĥ¢": 6070,
      "ĠáĥĴáĥĲáĥĸ": 6071,
      "ĠáĥĸáĥĲáĥłáĥ®": 6072,
      "Ġáĥ¡áĥ¡": 6073,
      "áĥĶáĥľáĥªáĥĲáĥłáĥĶ": 6074,
      "áĥ£áĥĵáĥ£áĥĻáĥĿ": 6075,
      "áĥ£áĥ¨áĥĲ": 6076,
      "ĠáĥĿáĥ¥áĥĺáĥĲáĥľ": 6077,
      "áĥĶáĥķáĥĺáĥĸ": 6078,
      "à´¶à´Ļ": 6079,
      "à´ħà´¤": 6080,
      "à¸ĳ": 6081,
      "ello": 6082,
      "ĠKultur": 6083,
      "ĠKap": 6084,
      "straÃŁe": 6085,
      "Ġmen": 6086,
      "rieden": 6087,
      "ĠNacht": 6088,
      "ĠWinter": 6089,
      "eignet": 6090,
      "Ġà´¨à´Ł": 6091,
      "Ġeher": 6092,
      "ĠTrain": 6093,
      "ĠbenÃ¶": 6094,
      "zlich": 6095,
      "Aus": 6096,
      "sbesondere": 6097,
      "pfer": 6098,
      "à¸³à¸«à¸£": 6099,
      "Ġleider": 6100,
      "ĠZukunft": 6101,
      "ĠFern": 6102,
      "ĠWoche": 6103,
      "inge": 6104,
      "ira": 6105,
      "à´ķà´ļ": 6106,
      "à´±à´ŀ": 6107,
      "sh": 6108,
      "ĠgehÃ¶rt": 6109,
      "amento": 6110,
      "Ġbekannt": 6111,
      "OR": 6112,
      "ĠFeb": 6113,
      "Ġà´¸à´¤": 6114,
      "Ġsieht": 6115,
      "ĠFamilien": 6116,
      "Ã¶sung": 6117,
      "Ġà¸Ħà¸¥": 6118,
      "ĠKind": 6119,
      "ient": 6120,
      "echsel": 6121,
      "à´µà´¨à´¨": 6122,
      "Ġhistor": 6123,
      "ËĪ": 6124,
      "à¹ĥà¸ª": 6125,
      "ĠDem": 6126,
      "ots": 6127,
      "www": 6128,
      "Ġbisher": 6129,
      "Ġwunder": 6130,
      "à¹Ģà¸ªà¸£": 6131,
      "Ġ*": 6132,
      "à´§à´ª": 6133,
      "Ġjedem": 6134,
      "Ġxa": 6135,
      "este": 6136,
      "à¸²à¸ĺ": 6137,
      "Ġnorm": 6138,
      "ÐµÑĢ": 6139,
      "à¸ĸà¸²à¸Ļ": 6140,
      "ĠáĥĽáĥ£áĥł": 6141,
      "ĠáĥĺáĥĶáĥł": 6142,
      "áĥĶáĥłáĥĲáĥļáĥ£áĥłáĥĺ": 6143,
      "ĠáĥĹáĥĶáĥŁáĥĲáĥĽ": 6144,
      "áĥĲáĥłáĥ£áĥļ": 6145,
      "áĥ£áĥļáĥ¢": 6146,
      "áĥ£áĥłáĥĲáĥ¡": 6147,
      "áĥĵáĥĶ": 6148,
      "ĠáĥĽáĥĲáĥĻáĥĲáĥĹáĥ£áĥł": 6149,
      "ĠáĥŁáĥĲáĥłáĥľáĥĶáĥ©áĥĵ": 6150,
      "áĥĻáĥķ": 6151,
      "áĥĲáĥ®áĥĲáĥļ": 6152,
      "áĥĺáĥ¥áĥĺáĥĽáĥĺáĥľáĥ·": 6153,
      "ĠáĥĻáĥĿáĥ¡": 6154,
      "áĥĲáĥĵáĥĲ": 6155,
      "áĥĺáĥĲáĥľáĥĺáĥ¨": 6156,
      "áĥĺáĥ«": 6157,
      "ĠáĥĵáĥĿáĥłáĥĹ": 6158,
      "ĠáĥĴáĥĿáĥ£": 6159,
      "ĠáĥĿáĥļáĥ¥áĥĺ": 6160,
      "ĠáĥķáĥĺáĥĻáĥĺáĥŀáĥĶáĥĵ": 6161,
      "Ġáĥ¦áĥĿáĥłáĥĿáĥľáĥĹáĥĺáĥ¨": 6162,
      "ĠáĥĵáĥķáĥĲáĥļ": 6163,
      "áĥĺáĥłáĥ©": 6164,
      "Ġáĥŀáĥłáĥĺáĥľáĥª": 6165,
      "áĥĿáĥĹáĥĿáĥľáĥ¯": 6166,
      "Ġáĥ¸áĥķáĥĺáĥļ": 6167,
      "Ġáĥ¥áĥĺáĥĽáĥĺáĥľáĥ¯": 6168,
      "áĥĿáĥłáĥĶ": 6169,
      "áĥĿáĥļáĥ·": 6170,
      "ĠáĥľáĥĲáĥĽáĥ£áĥĶáĥ¤áĥ¡áĥ·áĥĹ": 6171,
      "ĠáĥĳáĥĲáĥļ": 6172,
      "ĠáĥĿáĥłáĥĹáĥĲáĥ¨áĥĿáĥĳáĥ£áĥłáĥĺ": 6173,
      "ĠáĥĿáĥ¨áĥ¬áĥĲáĥľáĥ£áĥłáĥĲ": 6174,
      "ĠáĥĵáĥĺáĥľáĥĿáĥ®áĥĿáĥļ": 6175,
      "ĠLauf": 6176,
      "ĠnÃ¤chsten": 6177,
      "tisch": 6178,
      "Ġsuper": 6179,
      "ĠTÃ¼r": 6180,
      "Ġtraball": 6181,
      "abil": 6182,
      "aul": 6183,
      "Ġwegen": 6184,
      "àµĢà´Ĥ": 6185,
      "63": 6186,
      "auch": 6187,
      "ĠdarÃ¼ber": 6188,
      "à´¨à´ª": 6189,
      "roh": 6190,
      "ĠWerk": 6191,
      "lÃ¤ss": 6192,
      "à´´à´¯": 6193,
      "Ð»Ñı": 6194,
      "ĠGed": 6195,
      "ĠÙħ": 6196,
      "test": 6197,
      "Â°": 6198,
      "immen": 6199,
      "Ã¤us": 6200,
      "ĠSol": 6201,
      "ĠWe": 6202,
      "til": 6203,
      "à¸²à¸Ħà¸¡": 6204,
      "à´¨à´ķ": 6205,
      "à¸Ķà¸³": 6206,
      "haft": 6207,
      "system": 6208,
      "pen": 6209,
      "à¸Ľà¸£à¸ª": 6210,
      "à¹Ģà¸ī": 6211,
      "Ġà´Ńà´°à´£": 6212,
      "ĠMotor": 6213,
      "Ãºbl": 6214,
      "Ġautomat": 6215,
      "fallen": 6216,
      "ktionen": 6217,
      "itar": 6218,
      "ĠMaÃŁ": 6219,
      "Ġlin": 6220,
      "ĠKommun": 6221,
      "Ġbestimm": 6222,
      "ĠMag": 6223,
      "meister": 6224,
      "serv": 6225,
      "enten": 6226,
      "ÏĤ": 6227,
      "Eine": 6228,
      "ĠPra": 6229,
      "weisen": 6230,
      "Ġà´Ńà´ķ": 6231,
      "ruar": 6232,
      "sw": 6233,
      "hein": 6234,
      "AL": 6235,
      "stÃ¤ndig": 6236,
      "Ġvielleicht": 6237,
      "ommun": 6238,
      "unkte": 6239,
      "à¹Ĥà¸¥à¸ģ": 6240,
      "ĠáĥĿáĥ®áĥķáĥĲáĥĽáĥĶ": 6241,
      "ĠáĥłáĥĲáĥĵáĥĺáĥĿ": 6242,
      "ĠáĥĽáĥĽ": 6243,
      "áĥłáĥĲáĥľáĥ¡": 6244,
      "áĥĶáĥ¥áĥ¢áĥĿáĥłáĥĺ": 6245,
      "áĥĺáĥŀáĥĺ": 6246,
      "ĠáĥĲáĥķáĥ¢áĥĿáĥłáĥĺ": 6247,
      "ĠáĥĴáĥĿáĥļáĥĺáĥľáĥĲ": 6248,
      "áĥ¡áĥĲáĥ¥áĥĿáĥłáĥĹáĥ£áĥĿáĥ¨": 6249,
      "áĥķáĥĲáĥľáĥ¡": 6250,
      "ĠáĥĿáĥĶáĥłáĥĶáĥ¤": 6251,
      "ĠáĥľáĥĲáĥĽáĥ£áĥĶáĥ¤áĥĺáĥ¨": 6252,
      "ĠáĥĽáĥĲáĥļáĥĿáĥĳáĥĲáĥ¡": 6253,
      "áĥĶáĥĺáĥĵ": 6254,
      "áĥļáĥĿ": 6255,
      "Ġáĥ¬áĥ·áĥĽáĥĽáĥĲáĥłáĥĺáĥľáĥĲáĥ¤": 6256,
      "ĠáĥĹáĥĶáĥļáĥĺ": 6257,
      "Ġáĥ¡áĥĺáĥľ": 6258,
      "Ġáĥ¥áĥ£áĥĽ": 6259,
      "áĥĲáĥ¤áĥĺáĥļáĥ¥": 6260,
      "ĠáĥĿáĥĹáĥ®áĥĿáĥ¨": 6261,
      "áĥ£áĥľáĥĲáĥ¤áĥĺáĥļáĥĺ": 6262,
      "Ġáĥ¬áĥĲáĥľáĥĲáĥ¨áĥĲáĥ®": 6263,
      "ĠáĥĴáĥķáĥĲáĥļáĥĲáĥ¨": 6264,
      "ĠáĥĴáĥ·áĥĹáĥĽ": 6265,
      "áĥĺáĥĿáĥ¡": 6266,
      "Ġáĥĵáĥ£áĥĵáĥ¨áĥĶ": 6267,
      "ĠáĥĹáĥĲáĥłáĥĿáĥĳáĥĲáĥ¨": 6268,
      "áĥĿáĥ¡áĥĲáĥ®": 6269,
      "áĥĲáĥ£áĥł": 6270,
      "ES": 6271,
      "áĥĲáĥłáĥ¦": 6272,
      "ĠáĥĿáĥĸ": 6273,
      "¡áĥ®áĥĺáĥļáĥĺ": 6274,
      "ĠáĥłáĥĶáĥ¡áĥŀáĥ£áĥĳáĥļáĥĺáĥĻáĥĲáĥ¡": 6275,
      "ĠáĥĽáĥ£áĥŁáĥĲáĥĽáĥª": 6276,
      "áĥĿáĥľáĥĲáĥł": 6277,
      "áĥĴáĥĶ": 6278,
      "áĥĺáĥĶáĥĹ": 6279,
      "ernen": 6280,
      "Ġáĥ¡áĥ¤áĥĶáĥł": 6281,
      "Ġáĥ¡áĥŀáĥĲáĥłáĥ¡": 6282,
      "ĠáĥĿáĥĻáĥĺáĥĲáĥľáĥĶáĥ¨": 6283,
      "ĠáĥĽáĥĶáĥĴáĥĿáĥł": 6284,
      "ĠáĥĲáĥ¤áĥłáĥĺáĥĻáĥĲáĥ¨": 6285,
      "ĠáĥĶáĥĻáĥļáĥĶáĥ¡": 6286,
      "vin": 6287,
      "ĠVerantwort": 6288,
      "Ġcl": 6289,
      "à¸Ļà¸Ĭ": 6290,
      "Ġfunktion": 6291,
      "ĠHolz": 6292,
      "à¸¢à¸£": 6293,
      "ld": 6294,
      "undert": 6295,
      "Ġà¸Īà¸²à¸ģ": 6296,
      "Ġkn": 6297,
      "Re": 6298,
      "Ġparti": 6299,
      "Ġaktiv": 6300,
      "âĢ¦]": 6301,
      "walt": 6302,
      "à¸«à¸¡à¸Ķ": 6303,
      "ĠheiÃŁ": 6304,
      "Ġdein": 6305,
      "tens": 6306,
      "ĠEltern": 6307,
      "Ar": 6308,
      "Ð½Ð¾Ð": 6309,
      "-,": 6310,
      "ido": 6311,
      "ĠÐ½Ð°": 6312,
      "ĠHilfe": 6313,
      ");": 6314,
      "Ġpas": 6315,
      "Ġà´¤à´Ļ": 6316,
      "eichen": 6317,
      "Ã©s": 6318,
      "âĢĺ": 6319,
      "Ġne": 6320,
      "ĠBay": 6321,
      "sto": 6322,
      "icia": 6323,
      "Ø§ÙĨ": 6324,
      "ielle": 6325,
      "geh": 6326,
      "Ġà¹ĥà¸«": 6327,
      "à¹Ħà¸ĭ": 6328,
      "Ã¤nge": 6329,
      "à´Ľ": 6330,
      "ĠErfolg": 6331,
      "ĠĠ": 6332,
      "richten": 6333,
      "à¸«à¸²à¸£": 6334,
      "ĠTour": 6335,
      "Ġfal": 6336,
      "Ġtechn": 6337,
      "'s": 6338,
      "stellungen": 6339,
      "ĠKat": 6340,
      "Ġbleiben": 6341,
      "ĠNeben": 6342,
      "Ġfoi": 6343,
      "uhr": 6344,
      "achte": 6345,
      "eien": 6346,
      "zeichnet": 6347,
      "ĠSchutz": 6348,
      "usst": 6349,
      "Ġsofort": 6350,
      "das": 6351,
      "rowser": 6352,
      "à´³à´µà´°": 6353,
      "áĥ¥áĥ·": 6354,
      "Ġáĥ©áĥ®áĥĿáĥłáĥĿáĥ¨": 6355,
      "Ġáĥ¥áĥĺáĥĴ": 6356,
      "Ġáĥ¡áĥĺáĥĴáĥ·áĥłáĥ": 6357,
      "Ġáĥ¥áĥĺáĥłáĥ¡áĥĶáĥĹáĥ£áĥĹáĥĲ": 6358,
      "ĠáĥĵáĥĶáĥĽáĥĿáĥĻáĥłáĥĲáĥ¢áĥĺáĥ£áĥļáĥĺ": 6359,
      "ĠáĥĶáĥļáĥĶáĥĽáĥĶáĥľáĥ¢": 6360,
      "áĥ£áĥĿáĥ¨": 6361,
      "áĥļáĥĲáĥĹ": 6362,
      "Ġáĥ¡áĥĶáĥłáĥĺ": 6363,
      "áĥĶáĥľáĥĴ": 6364,
      "áĥĺáĥĹáĥĺ": 6365,
      "ĠáĥĽáĥĿáĥ®áĥķáĥĲáĥĵáĥ·": 6366,
      "ĠáĥŀáĥłáĥĿáĥķáĥĺáĥľáĥªáĥĺáĥĲáĥ¡": 6367,
      "áĥĺáĥľáĥ«áĥĿáĥł": 6368,
      "áĥĲáĥ©áĥ·": 6369,
      "ĠáĥĽáĥĶáĥ¡": 6370,
      "ĠáĥľáĥĺáĥĵáĥĶáĥłáĥļáĥĲáĥľáĥĵ": 6371,
      "áĥĺáĥŀáĥĲáĥļáĥ£": 6372,
      "ĠáĥĶáĥ¡áĥŀáĥĲáĥľáĥĶáĥĹáĥĺáĥ¨": 6373,
      "ĠáĥļáĥĲáĥĹáĥĺáĥľáĥ£áĥłáĥĺ": 6374,
      "ĠáĥĽáĥĲáĥľ": 6375,
      "Ġáĥĺáĥ£áĥľ": 6376,
      "ĠáĥĲáĥĹáĥĶáĥ¨": 6377,
      "Ġáĥ¡áĥĽ": 6378,
      "áĥĺáĥļáĥĶ": 6379,
      "áĥĿáĥ®áĥĲáĥľáĥ¢": 6380,
      "áĥĳáĥ£áĥłáĥĹáĥĶ": 6381,
      "áĥĲáĥĺáĥ¨": 6382,
      "áĥĿáĥĴáĥłáĥĲáĥ¤áĥĺáĥ£áĥļáĥĺ": 6383,
      "Ġáĥ¡áĥĿáĥĽáĥĶáĥ®": 6384,
      "Ġáĥ¡áĥĲáĥ£áĥ¯áĥĴáĥ£áĥ¨": 6385,
      "áĥłáĥĿáĥĽ": 6386,
      "Ġáĥ¡áĥĺáĥĵ": 6387,
      "ĠáĥĲáĥĻáĥĿáĥ®": 6388,
      "áĥĶáĥ¥áĥª": 6389,
      "ĠáĥĹáĥĲáĥłáĥĿ": 6390,
      "áĥĺáĥĽáĥĺ": 6391,
      "ĠáĥłáĥĶáĥķáĥĿáĥļáĥ£áĥªáĥĺáĥĲáĥ¨": 6392,
      "ĠáĥŀáĥłáĥĿáĥĵáĥ£áĥ¥": 6393,
      "Ġáĥ£áĥĵ": 6394,
      "áĥĶáĥ¥áĥ¡áĥŀ": 6395,
      "à¹Ĥà¸Ľ": 6396,
      "ura": 6397,
      "Ð»Ð°": 6398,
      "aschinen": 6399,
      "ĠFebruar": 6400,
      "bieter": 6401,
      "alb": 6402,
      "ĠFlÃ¼": 6403,
      "64": 6404,
      "à´®à´¦": 6405,
      "ĠVert": 6406,
      "ĠJe": 6407,
      "Ġwerde": 6408,
      "ayal": 6409,
      "à¸²à¸©": 6410,
      "Ġsagt": 6411,
      "adurch": 6412,
      "gu": 6413,
      "Ġbereit": 6414,
      "ĠService": 6415,
      "à¹Ĥà¸Ľà¸£": 6416,
      "ande": 6417,
      "Ġà¹Ģà¸Ħ": 6418,
      "Ġà´īà´¯à´°": 6419,
      "vis": 6420,
      "à¸Ļà¸£": 6421,
      "inal": 6422,
      "iker": 6423,
      "Ã¤f": 6424,
      "à¸ĩà¸«à¸§": 6425,
      "à¸Ķà¸ģ": 6426,
      "ĠhÃ¤tte": 6427,
      "Ġà´µà´ķ": 6428,
      "ĠGar": 6429,
      "à´Ńà´¯": 6430,
      "ĠJo": 6431,
      "1000": 6432,
      "andlung": 6433,
      "âĢĿ,": 6434,
      "Ġprop": 6435,
      "ĠStart": 6436,
      "Ġkomp": 6437,
      "ÙĨ": 6438,
      "Ġfinde": 6439,
      "Ġà´Ĩà´¤": 6440,
      "atis": 6441,
      "à¸Ĳà¸²à¸Ļ": 6442,
      "itÃ¤ten": 6443,
      "à¸įà¸į": 6444,
      "à¸ªà¸²à¸£": 6445,
      "ungsk": 6446,
      "à¹Ĥà¸ķ": 6447,
      "à¸²à¸Ĥà¸Ńà¸ĩ": 6448,
      "idades": 6449,
      "Ġgesam": 6450,
      "emos": 6451,
      "die": 6452,
      "à´³à´µ": 6453,
      "ðŁ": 6454,
      "leitung": 6455,
      "ĠDruck": 6456,
      "ĠTur": 6457,
      "Ġdeine": 6458,
      "allen": 6459,
      "à¸²à¹Ģà¸Ľ": 6460,
      "zip": 6461,
      "aba": 6462,
      "Ġoben": 6463,
      "2003": 6464,
      "Ġdarf": 6465,
      "à¹Ĥà¸Ń": 6466,
      "à¹ģà¸ŀ": 6467,
      "ĠáĥĹáĥĲáĥľáĥ¯áĥĲ": 6468,
      "áĥĶáĥ¨áĥĺáĥ¨": 6469,
      "ĠáĥĽáĥĲáĥłáĥĴáĥĲáĥļáĥ£áĥłáĥĺ": 6470,
      "ĠáĥĴáĥĺáĥľáĥĿáĥ¦áĥĲáĥļáĥĺáĥłáĥĺ": 6471,
      "áĥĲáĥľáĥĶáĥ¢": 6472,
      "ĠáĥļáĥĲáĥĻ": 6473,
      "áĥĲáĥľáĥ£áĥłáĥĿ": 6474,
      "áĥĲáĥĺáĥļ": 6475,
      "Ġáĥ¡áĥ®áĥ£áĥľáĥ£": 6476,
      "Ġáĥ£áĥ«áĥĲáĥ®áĥ·áĥľáĥĲ": 6477,
      "áĥĿáĥļáĥĿáĥĴáĥĺáĥ£áĥł": 6478,
      "ĠáĥĲáĥĻáĥĿáĥ¥áĥĺáĥĽáĥĺáĥľáĥ£": 6479,
      "ĠáĥļáĥĺáĥĴ": 6480,
      "ĠáĥľáĥĿáĥ¦áĥĶáĥ¤áĥ¡": 6481,
      "ĠáĥĲáĥĵáĥĲáĥĽáĥĺáĥĶáĥłáĥ": 6482,
      "áĥ¡áĥ£áĥĽáĥĿáĥ¨": 6483,
      "®áĥĿáĥļáĥĿ": 6484,
      "Ġáĥ¯áĥĿáĥ®áĥĿáĥĵáĥķáĥĲáĥļáĥĲáĥ¨": 6485,
      "ĠáĥĵáĥĿáĥ®áĥĿáĥłáĥĶáĥļáĥĺ": 6486,
      "ĠáĥĿáĥ¤áĥ£áĥ¢áĥĶáĥ¨": 6487,
      "ĠáĥĶáĥ©áĥĵáĥĿáĥķáĥĺáĥĹ": 6488,
      "Ġáĥ£áĥĽáĥĻáĥ£áĥ¯áĥĺáĥľáĥ£áĥĿ": 6489,
      "Ġáĥĵáĥĺáĥł": 6490,
      "ĠáĥĵáĥĿáĥĴ": 6491,
      "Ġáĥ¡áĥĲáĥ¡": 6492,
      "áĥĿáĥ¡áĥ£áĥĽáĥĺ": 6493,
      "áĥĶáĥłáĥĹ": 6494,
      "Ġáĥĺáĥ¦": 6495,
      "Ġáĥ¨áĥ¢áĥĲáĥ¢áĥĺáĥ¡": 6496,
      "Ġáĥ¯áĥĴáĥĺáĥłáĥĿ": 6497,
      "áĥ£áĥłáĥĲáĥľáĥ¯": 6498,
      "ĠáĥĺáĥłáĥĿ": 6499,
      "áĥĺáĥ¡áĥĺáĥ¨": 6500,
      "áĥĲáĥĵáĥĺáĥ¨": 6501,
      "áĥĶáĥĳáĥ£áĥłáĥĺ": 6502,
      "áĥĺáĥĻáĥ£áĥļ": 6503,
      "áĥ£áĥľáĥ·": 6504,
      "áĥĲáĥľáĥĶáĥ¤áĥĺáĥ¨": 6505,
      "ĠáĥľáĥĿáĥĳ": 6506,
      "Ġáĥ¡áĥĿ": 6507,
      "áĥĲáĥ¤áĥĲáĥļáĥĿ": 6508,
      "Ġáĥ®áĥ£áĥĹáĥĺ": 6509,
      "Ġáĥĸáĥ·áĥĽ": 6510,
      "áĥĲáĥ¸áĥĿáĥľ": 6511,
      "ĠáĥĶáĥłáĥĻáĥĶáĥĳáĥ£áĥļáĥ¨áĥĲ": 6512,
      "áĥĹáĥĺáĥ¨": 6513,
      "ĠáĥŁáĥĺáĥľáĥ": 6514,
      "áĥĲáĥľáĥ¬áĥ§": 6515,
      "áĥĿáĥĳáĥĲáĥ¨áĥĶ": 6516,
      "áĥķáĥĲáĥľáĥĶáĥļ": 6517,
      "áĥĶáĥ¬": 6518,
      "áĥĲáĥľáĥĶ": 6519,
      "áĥĺáĥĿáĥł": 6520,
      "Ġáĥ¡áĥĺáĥĽáĥĳ": 6521,
      "ĠáĥĻáĥĲáĥ¢áĥĶáĥĴáĥĿáĥł": 6522,
      "ĠáĥĿáĥĽáĥĶáĥľáĥªáĥĲáĥłáĥĶ": 6523,
      "ĠáĥĻáĥĲáĥ¡áĥ¢áĥł": 6524,
      "Ġà´µàµ¼": 6525,
      "1996": 6526,
      "lesen": 6527,
      "AS": 6528,
      "rieg": 6529,
      "ID": 6530,
      "Ġregel": 6531,
      "Ġpero": 6532,
      "Ġganze": 6533,
      "ĠHerr": 6534,
      "Ġerforder": 6535,
      "abl": 6536,
      "Ġtrotz": 6537,
      "rib": 6538,
      "ziehen": 6539,
      "ĠPoliz": 6540,
      "ĠPort": 6541,
      "yl": 6542,
      "ritte": 6543,
      "ĠSchÃ¼ler": 6544,
      "str": 6545,
      "lack": 6546,
      "ĠNord": 6547,
      "à´¦à´®": 6548,
      "ÐµÐ½Ð¸": 6549,
      "Ġdat": 6550,
      "Ġjede": 6551,
      "Ġmeinem": 6552,
      "Diese": 6553,
      "Ġdeutschen": 6554,
      "ĠEntschei": 6555,
      "Ġdeutlich": 6556,
      "tische": 6557,
      "Ã¤ufer": 6558,
      "finden": 6559,
      "à¸Ńà¸²à¸Ī": 6560,
      "à´·à´ª": 6561,
      "Ġguten": 6562,
      "ĠWebseite": 6563,
      "ĠBlog": 6564,
      "ime": 6565,
      "Ġprodu": 6566,
      "Ġà¸ļà¸£": 6567,
      "à¸Ļà¹Ģà¸Ľ": 6568,
      "ichts": 6569,
      "ĠZum": 6570,
      "à´·à´Ļ": 6571,
      "ĠÂ§": 6572,
      "Ġmeisten": 6573,
      "1997": 6574,
      "gesetz": 6575,
      "150": 6576,
      "à¸ģà¸£à¸ĵ": 6577,
      "GV": 6578,
      "Ġverwenden": 6579,
      "Ġà´ħà´¬": 6580,
      "Ġstellt": 6581,
      "ĠhÃ¶": 6582,
      "ĠgegenÃ¼ber": 6583,
      "dio": 6584,
      "mart": 6585,
      "Ġcomp": 6586,
      "oper": 6587,
      "Ġerwar": 6588,
      "ĠThemen": 6589,
      "ehler": 6590,
      "Ġerfahren": 6591,
      "ĠHerz": 6592,
      "Ġà¹Ģà¸Ĥ": 6593,
      "Ġmm": 6594,
      "ochen": 6595,
      "Ġur": 6596,
      "ese": 6597,
      "à¸²à¹Ħà¸Ľ": 6598,
      "à¸ļà¸ķ": 6599,
      "à¸¥à¸Ķ": 6600,
      "à¸Ļà¸ŀ": 6601,
      "1970": 6602,
      "richtung": 6603,
      "ĠáĥĴáĥĿáĥķáĥĺáĥĹáĥĲáĥłáĥĲáĥ¤áĥĲáĥ¡": 6604,
      "áĥłáĥĲáĥĶ": 6605,
      "ĠáĥĻáĥĿáĥĵ": 6606,
      "Ġáĥ¢áĥłáĥĿáĥŀ": 6607,
      "áĥĲáĥ£áĥłáĥĶ": 6608,
      "ĠáĥĻáĥ£áĥļáĥ¢áĥ£áĥłáĥĲáĥ¨": 6609,
      "áĥĿáĥ¡áĥĶ": 6610,
      "áĥŁáĥĺáĥł": 6611,
      "ĠZust": 6612,
      "áĥĲáĥĳáĥł": 6613,
      "áĥĲáĥļáĥĶáĥ¤áĥĺáĥĹ": 6614,
      "áĥĶáĥ®áĥĲáĥľáĥ£áĥłáĥĺ": 6615,
      "ĠáĥĵáĥĿáĥ¸": 6616,
      "ĠáĥľáĥĿáĥĽáĥĺáĥľ": 6617,
      "ĠáĥĽáĥ£áĥ¨áĥĺáĥĹ": 6618,
      "ĠáĥĽáĥ£áĥĵáĥĲáĥľáĥĿáĥĳáĥĲáĥĹ": 6619,
      "áĥĿáĥ©áĥĲáĥĽáĥĺáĥļáĥĺ": 6620,
      "ĠáĥĲáĥłáĥ¥áĥĺáĥ¢": 6621,
      "Ġáĥ¢áĥĶáĥłáĥĽáĥĺáĥľáĥĺ": 6622,
      "áĥĲáĥĽáĥĲáĥłáĥĹ": 6623,
      "áĥ·áĥľáĥ«": 6624,
      "ĠáĥĿáĥĳáĥĺáĥĶáĥ¥áĥ¢áĥĶáĥ¤áĥĺáĥ¨": 6625,
      "ĠáĥĴáĥĺáĥļ": 6626,
      "ĠáĥĺáĥĲáĥŀ": 6627,
      "Ġáĥ£áĥ¬": 6628,
      "ĠáĥŀáĥĶáĥ¢": 6629,
      "áĥĶáĥĽáĥĳ": 6630,
      "áĥķáĥĺáĥļáĥĺáĥ¨": 6631,
      "ĠáĥĲáĥĽáĥ¨áĥĿáĥ¨": 6632,
      "ĠáĥĻáĥĺáĥľáĥĿ": 6633,
      "Ġáĥ©áĥ®áĥĿáĥļ": 6634,
      "ĠáĥĵáĥĺáĥľáĥĲáĥ¡áĥ¢": 6635,
      "Ġáĥ¨áĥĺáĥļ": 6636,
      "Ġáĥ¤áĥĲáĥ¡": 6637,
      "áĥĶáĥ¢áĥĺáĥ¡": 6638,
      "ĠUSA": 6639,
      "ĠáĥĽáĥĲáĥłáĥĲáĥ¨áĥĺáĥľáĥĲáĥĹáĥ£áĥĹáĥĲ": 6640,
      "Ġáĥ¡áĥĲáĥ£áĥ¯áĥĴáĥ£áĥ¨áĥĿ": 6641,
      "ĠáĥłáĥĺáĥľáĥĲáĥ¨": 6642,
      "ĠáĥĽáĥĶáĥ«": 6643,
      "Ġáĥ¡áĥ¢áĥĲáĥĵ": 6644,
      "áĥ£áĥ¥áĥ¢áĥ£áĥł": 6645,
      "ĠáĥĽáĥĺáĥĹáĥĽ": 6646,
      "áĥĶáĥļáĥĶáĥ¤áĥĺáĥ¨": 6647,
      "ĠáĥĻáĥĿáĥĽáĥ£áĥľ": 6648,
      "ĠáĥĽáĥĶáĥĻ": 6649,
      "ĠáĥĲáĥŀ": 6650,
      "ja": 6651,
      "Ġweiteren": 6652,
      "Ġà´®à´¹": 6653,
      "Ġcol": 6654,
      "Ġdan": 6655,
      "ĠHÃ¶he": 6656,
      "tigkeit": 6657,
      "enzen": 6658,
      "wirtschaft": 6659,
      "orte": 6660,
      "iew": 6661,
      "Ġspielen": 6662,
      "unsch": 6663,
      "Ġbringen": 6664,
      "ums": 6665,
      "%,": 6666,
      "igt": 6667,
      "Ġcal": 6668,
      "ikation": 6669,
      "entes": 6670,
      "à´¨à´±": 6671,
      "Ġklar": 6672,
      "ĠBestell": 6673,
      "à¸Ńà¸ĩà¸ģ": 6674,
      "ĠâĢĿ": 6675,
      "ĠTr": 6676,
      "arbeitet": 6677,
      "Ã¤chlich": 6678,
      "ct": 6679,
      "onnen": 6680,
      "con": 6681,
      "Ġà´ħà´ļ": 6682,
      "ĠDank": 6683,
      "à¸Ļà¸Ńà¸Ļ": 6684,
      "43": 6685,
      "Ġverschiedene": 6686,
      "ĠAuswahl": 6687,
      "à´³à´¯": 6688,
      "ates": 6689,
      "à´°à´µàµ¼à´¤": 6690,
      "à¸Ħà¸§à¸²à¸¡à¸£": 6691,
      "1959": 6692,
      "}}": 6693,
      "cul": 6694,
      "Ġgek": 6695,
      "Ġà¹Ģà¸Ķ": 6696,
      "Ġ>": 6697,
      "meldung": 6698,
      "wegen": 6699,
      "à´¥à´¯": 6700,
      "à¹Ģà¸«à¸ķ": 6701,
      "ario": 6702,
      "Ġhast": 6703,
      "schlieÃŁlich": 6704,
      "à´³à´ķ": 6705,
      "ĠIs": 6706,
      "Ġnas": 6707,
      "ĠFreund": 6708,
      "ĠZwei": 6709,
      "{{": 6710,
      "à¸Ķà¸Ĥ": 6711,
      "Ġà¹Ģà¸ª": 6712,
      "Ġà´¨à´·": 6713,
      "Ġdessen": 6714,
      "UN": 6715,
      "ĠÃ¼b": 6716,
      "ong": 6717,
      "ĠKopf": 6718,
      "ĠfÃ¼hren": 6719,
      "eicher": 6720,
      "pre": 6721,
      "à¸¡à¸Ĺ": 6722,
      "à¸²à¸ĩà¹Ĩ": 6723,
      "Ġcar": 6724,
      "à¤¾": 6725,
      "Ġfer": 6726,
      "ek": 6727,
      "ĠNieder": 6728,
      "ĠIndust": 6729,
      "ĠKreis": 6730,
      "Ġerf": 6731,
      "Ġersch": 6732,
      "Ġhinaus": 6733,
      "Ġerfolgt": 6734,
      "ET": 6735,
      "ĠáĥĲáĥ©": 6736,
      "áĥĲáĥłáĥĺáĥĲáĥľ": 6737,
      "Ġáĥ®áĥĿáĥļ": 6738,
      "áĥĴáĥĿ": 6739,
      "Ġáĥ¢áĥĲáĥĺ": 6740,
      "áĥĿáĥłáĥĹáĥ·": 6741,
      "ĠáĥĹáĥ¥áĥķáĥĲ": 6742,
      "ĠáĥĹáĥĺáĥ¨áĥĲ": 6743,
      "ĠáĥĿáĥĶáĥłáĥĶáĥ¤áĥĿáĥ¨áĥ¥": 6744,
      "Ġáĥ£áĥĺáĥļáĥĺ": 6745,
      "áĥĲáĥªáĥĺáĥĲáĥ¥": 6746,
      "ista": 6747,
      "Ġáĥĵáĥ£áĥĵáĥĺ": 6748,
      "áĥ£áĥłáĥĴáĥĺáĥ¨": 6749,
      "ĠáĥĵáĥĿáĥľáĥĶáĥ¨áĥĶ": 6750,
      "áĥķáĥĶáĥĽ": 6751,
      "Ġáĥ¡áĥĲáĥĻ": 6752,
      "Ġáĥĺáĥľáĥĵáĥ£": 6753,
      "ĠáĥĵáĥĿáĥłáĥ®áĥķáĥĶáĥļ": 6754,
      "ĠáĥĽáĥĶáĥļáĥĲáĥ®áĥĺ": 6755,
      "ĠáĥĵáĥĲáĥŃáĥ§áĥĲáĥ¤áĥ£áĥ¡": 6756,
      "áĥĺáĥŀáĥĲáĥļáĥĺáĥ¢áĥĶáĥ¢": 6757,
      "áĥĲáĥĽáĥĲáĥ¨": 6758,
      "áĥľáĥĲáĥ¦": 6759,
      "Ġáĥ¢áĥĿáĥĳáĥĲ": 6760,
      "Ġáĥ®áĥĲáĥľáĥ¢": 6761,
      "áĥĶáĥľáĥĵáĥĺ": 6762,
      "ĠáĥĴáĥĺáĥľáĥĿáĥŃáĥ§": 6763,
      "ĠáĥĲáĥķáĥ¢áĥĿáĥł": 6764,
      "ĠáĥĲáĥĻáĥĽáĥĿáĥ¥áĥĺáĥĽ": 6765,
      "ĠáĥĽáĥĺáĥĿáĥłáĥ": 6766,
      "áĥĲáĥľáĥĶáĥ¤áĥĺ": 6767,
      "áĥĲáĥłáĥĶáĥ¤áĥ¡": 6768,
      "áĥ¢áĥĲáĥĳ": 6769,
      "áĥ¨áĥ¢áĥĲáĥĳ": 6770,
      "áĥĺáĥļáĥ·": 6771,
      "ĠáĥĽáĥ£áĥľáĥĺáĥª": 6772,
      "áĥĲáĥ§áĥĲáĥł": 6773,
      "Ġáĥ®áĥĲáĥłáĥĺáĥ¡áĥ®": 6774,
      "áĥĿáĥłáĥĲ": 6775,
      "áĥĶáĥłáĥĸ": 6776,
      "ĠáĥĿáĥłáĥ¥áĥĿáĥ¨": 6777,
      "frage": 6778,
      "áĥĲáĥļáĥĺáĥĲ": 6779,
      "áĥķáĥĶáĥ¡": 6780,
      "áĥĿáĥĹáĥĲáĥľáĥ¯": 6781,
      "mÃ¤ÃŁig": 6782,
      "áĥĶáĥĹáĥ¨áĥĲ": 6783,
      "áĥĲáĥļáĥ£áĥĲ": 6784,
      "ĠáĥĿáĥĻáĥ£áĥ©áĥ®áĥĳáĥ£áĥłáĥĹáĥĶ": 6785,
      "áĥĽáĥĲáĥłáĥ": 6786,
      "áĥĲáĥĻáĥĺáĥ¡áĥ¢": 6787,
      "áĥĲáĥľáĥ£áĥļáĥĺ": 6788,
      "áĥĺáĥłáĥ¤": 6789,
      "à´¹à´°": 6790,
      "à´ªà´®": 6791,
      "za": 6792,
      "emento": 6793,
      "ĠKlein": 6794,
      "aler": 6795,
      "ĠBand": 6796,
      "Ġsozial": 6797,
      "Ġwelt": 6798,
      "ĠHinter": 6799,
      "ĠEinzel": 6800,
      "Ġà¸ªà¸¡": 6801,
      "à¸£à¸°à¸Ķ": 6802,
      "Ġkennen": 6803,
      "ĠBoden": 6804,
      "ativen": 6805,
      "à¸ĩà¹Ħà¸¡": 6806,
      "à¸ĵà¸ĳ": 6807,
      "dade": 6808,
      "amb": 6809,
      "à¸ĩà¹ĥà¸Ļ": 6810,
      "51": 6811,
      "Ġzeigen": 6812,
      "xec": 6813,
      "drÃ¼ck": 6814,
      "Ġgesetz": 6815,
      "ĠBeitrag": 6816,
      "Ġà¹ģà¸¥": 6817,
      "fest": 6818,
      "ehm": 6819,
      "uk": 6820,
      "à¸¡à¸«": 6821,
      "angeb": 6822,
      "ĠTages": 6823,
      "ĠFinanz": 6824,
      "ĠLicht": 6825,
      "bahn": 6826,
      "nach": 6827,
      "à¸Ļà¸«": 6828,
      "ĠEuropa": 6829,
      "Ã¶t": 6830,
      "Ġsagte": 6831,
      "Ġging": 6832,
      "ith": 6833,
      "ĠGalicia": 6834,
      "à¸Ļà¸ļ": 6835,
      "à´ļà´ª": 6836,
      "ĠPost": 6837,
      "klus": 6838,
      "itze": 6839,
      "Wer": 6840,
      "Ber": 6841,
      "à¸Ļà¸Ĥà¸Ńà¸ĩ": 6842,
      "iken": 6843,
      "int": 6844,
      "EL": 6845,
      "ĠGra": 6846,
      "ĠVideo": 6847,
      "zuf": 6848,
      "à¸łà¸²à¸¢": 6849,
      "Ð°Ð¹": 6850,
      "Ã¤ufig": 6851,
      "ĠSuche": 6852,
      "Ġà´ĩà´ķ": 6853,
      "Um": 6854,
      "Ã¶hn": 6855,
      "fahrt": 6856,
      "à¥į": 6857,
      "Ġsuchen": 6858,
      "Ġjem": 6859,
      "à¹Ħà¸Ĥ": 6860,
      "Ġeigene": 6861,
      "Ġdur": 6862,
      "1918": 6863,
      "asen": 6864,
      "à¸Ĭà¸¡": 6865,
      "ĠMont": 6866,
      "gesamt": 6867,
      "ÑĢÐ°": 6868,
      "haupt": 6869,
      "ĠPflege": 6870,
      "54": 6871,
      "setzen": 6872,
      "Ġabsol": 6873,
      "Ġanos": 6874,
      "Ġhalten": 6875,
      "Ġhelfen": 6876,
      "Ġserv": 6877,
      "Ġerk": 6878,
      "Ġáĥ¬áĥ§áĥĲáĥłáĥĺ": 6879,
      "ĠáĥĿáĥ®áĥĺáĥĵ": 6880,
      "ĠáĥĽáĥĶáĥ¸áĥ£áĥľáĥ¡": 6881,
      "Ġáĥĺáĥľáĥ¡": 6882,
      "Ġáĥ¬áĥ§áĥĲáĥłáĥĴ": 6883,
      "áĥĺáĥªáĥ®áĥ£": 6884,
      "ĠáĥĸáĥĿáĥ®áĥĿ": 6885,
      "ĠáĥĻáĥļáĥĲáĥ¡áĥĺáĥ¤áĥĺáĥĻ": 6886,
      "ĠáĥĿáĥŃáĥĻáĥĿáĥĽ": 6887,
      "ĠáĥľáĥĲáĥĵ": 6888,
      "áĥĿáĥķáĥĺáĥ¨": 6889,
      "ĠáĥĿáĥ¨áĥ¬áĥĲáĥľáĥ£áĥłáĥĶáĥ¤áĥĺáĥ¨": 6890,
      "ĠáĥĵáĥĿáĥ®áĥĿáĥłáĥĺáĥľ": 6891,
      "áĥĶáĥłáĥĶáĥ¤áĥ¡": 6892,
      "ĠáĥĹáĥĺáĥ¯": 6893,
      "Ġáĥ¡áĥĺáĥł": 6894,
      "Ġáĥ¡áĥ£áĥŀ": 6895,
      "ĠáĥĿáĥ©": 6896,
      "Ġáĥĳáĥļ": 6897,
      "áĥĶáĥĳáĥĲáĥ¥": 6898,
      "Ġáĥ¨áĥĲáĥľáĥ£áĥļáĥĿáĥĳáĥĲ": 6899,
      "ĠáĥłáĥĶáĥŁáĥĺáĥ¡áĥĿáĥłáĥĺ": 6900,
      "ĠáĥĹáĥĺáĥ¯áĥĴáĥ£áĥłáĥĲ": 6901,
      "®áĥķáĥĶáĥļáĥĺ": 6902,
      "áĥĶáĥ¤áĥĺáĥĶ": 6903,
      "ĠáĥľáĥĺáĥľáĥĶáĥ¤áĥĺ": 6904,
      "Ġáĥĺáĥ¡áĥ¢áĥĿáĥłáĥĺáĥ£áĥļ": 6905,
      "áĥķáĥĺáĥł": 6906,
      "ĠáĥłáĥĶáĥ¡": 6907,
      "ĠáĥĲáĥŀáĥĺáĥ¯": 6908,
      "ĠáĥķáĥĺáĥĵáĥĶ": 6909,
      "áĥ¤áĥł": 6910,
      "ĠáĥĲáĥķáĥ¦": 6911,
      "ĠáĥĲáĥ¤áĥ£": 6912,
      "áĥĲáĥ¤áĥĺáĥļáĥĺáĥĶ": 6913,
      "ĠáĥĻáĥļáĥ£áĥĳ": 6914,
      "ĠáĥĹáĥĶáĥ¬áĥĻáĥ·áĥĽáĥĲ": 6915,
      "ĠáĥĶáĥĻáĥĶáĥľáĥĺáĥĲ": 6916,
      "áĥĲáĥŁáĥĺáĥł": 6917,
      "ĠáĥĻáĥĺáĥĵ": 6918,
      "ĠáĥĿáĥ¨áĥ¬áĥĲáĥľáĥ£áĥłáĥĶáĥ¤áĥ¡": 6919,
      "ĠáĥŁáĥĺáĥľáĥŀáĥĺáĥ¯": 6920,
      "ĠáĥĽáĥĺáĥŀáĥĲáĥļáĥ£": 6921,
      "ĠáĥľáĥĲáĥ¬áĥĲáĥłáĥĽ": 6922,
      "Ġáĥ¡áĥ£áĥłáĥĲáĥĹ": 6923,
      "ĠáĥļáĥĲáĥ®": 6924,
      "áĥĶáĥ¥áĥ¢áĥ£áĥł": 6925,
      "ªáĥ®áĥ£áĥĲáĥ¤": 6926,
      "Ġáĥ¤áĥĺáĥļáĥĽáĥĶáĥ¤áĥ¡": 6927,
      "ĠáĥĻáĥĲáĥĹáĥĲáĥ¨": 6928,
      "ĠáĥĽáĥ£áĥĵáĥĲáĥľáĥĿáĥĳáĥĲáĥ¨": 6929,
      "ĠáĥĽáĥĶáĥ¥áĥ¡": 6930,
      "áĥĲáĥłáĥ«": 6931,
      "ĠáĥĽáĥĺáĥ¨áĥĲáĥ¦áĥĲáĥļ": 6932,
      "ĠáĥĴáĥĿáĥ®áĥ£áĥłáĥĴ": 6933,
      "ĠáĥĴáĥĿáĥ®áĥĿáĥļ": 6934,
      "ĠáĥŀáĥłáĥĿáĥķáĥĺáĥľáĥªáĥĺáĥĲáĥ¨": 6935,
      "ĠáĥĽáĥĺáĥ¡": 6936,
      "Ġáĥĺáĥ¢áĥĲáĥļáĥĺáĥĲáĥ¨": 6937,
      "ĠáĥĲáĥĻáĥĲ": 6938,
      "áĥĳáĥ£áĥ¥": 6939,
      "ĠáĥŀáĥĶáĥłáĥ£áĥ¨": 6940,
      "Ġà¹Ģà¸Ń": 6941,
      "ĠVIII": 6942,
      "daten": 6943,
      "à¹Ĥà¸Ķ": 6944,
      "fel": 6945,
      "ĠerhÃ¤lt": 6946,
      "oph": 6947,
      "ĠDis": 6948,
      "ĠgÃ¼nst": 6949,
      "ienen": 6950,
      "Ġlesen": 6951,
      "kont": 6952,
      "Ãºn": 6953,
      "Ġà¹Ģà¸Ļ": 6954,
      "83": 6955,
      "zus": 6956,
      "ĠHeim": 6957,
      "ey": 6958,
      "plan": 6959,
      "Ġprimei": 6960,
      "ĠInnen": 6961,
      "ossen": 6962,
      "Ġunver": 6963,
      "Ġrein": 6964,
      "Ġag": 6965,
      "Ġerw": 6966,
      "ĠWaren": 6967,
      "xis": 6968,
      "à¸£à¸ĵ": 6969,
      "ahren": 6970,
      "à´·àµ»": 6971,
      "Ġà´ķà´£à´ķ": 6972,
      "ierungs": 6973,
      "--------": 6974,
      "Wie": 6975,
      "eilen": 6976,
      "Ġà´ĩà´¸": 6977,
      "Ġconc": 6978,
      "ĠGesellschaft": 6979,
      "àµĭ?": 6980,
      "ĠNÃ¤": 6981,
      "à¸ĩà¸Īà¸²à¸ģ": 6982,
      "ĠGu": 6983,
      "flÃ¤che": 6984,
      "ĠMedien": 6985,
      "iegel": 6986,
      "ĠStandard": 6987,
      "ĠEis": 6988,
      "Ġschl": 6989,
      "ĠInhalte": 6990,
      "ĠAnfang": 6991,
      "Ab": 6992,
      "gef": 6993,
      "ĠAk": 6994,
      "Ġstar": 6995,
      "cri": 6996,
      "sych": 6997,
      "à¸Ļà¹ĥà¸Ī": 6998,
      "tica": 6999,
      "ĠFÃ¼hr": 7000,
      "Ð¾Ð´Ð°": 7001,
      "ĠSchm": 7002,
      "ĠCor": 7003,
      "áĥĻáĥ£áĥĽáĥĶáĥļ": 7004,
      "ĠáĥĴáĥĶáĥ£áĥĻáĥ£áĥĽáĥĶáĥļ": 7005,
      "Ġáĥĺáĥľáĥ¢áĥĶáĥłáĥľáĥĲáĥªáĥĺáĥĿáĥľáĥĲáĥļáĥ£áĥłáĥĺ": 7006,
      "Ġáĥ¢áĥĿáĥĳáĥĲáĥ¨": 7007,
      "¯áĥĲáĥłáĥĺáĥ¨": 7008,
      "áĥĺáĥĽáĥĶáĥĵ": 7009,
      "Ġáĥĺáĥ¡áĥłáĥĲáĥĶ": 7010,
      "ĠáĥļáĥĲáĥ£áĥłáĥĶ": 7011,
      "ĠáĥĻáĥĿáĥĽáĥĺáĥ¥áĥ¡": 7012,
      "áĥĽáĥĲáĥłáĥĶáĥľáĥ¯": 7013,
      "áĥĿáĥŃáĥĲáĥľ": 7014,
      "Ġáĥ¤áĥłáĥĲáĥľáĥĴáĥ£áĥļáĥĺ": 7015,
      "áĥĲáĥłáĥĿáĥĳáĥĲáĥ¨": 7016,
      "Ġáĥĺáĥ®": 7017,
      "áĥ¥áĥĲáĥłáĥĹ": 7018,
      "ĠáĥĵáĥĿáĥłáĥ®áĥķáĥĶáĥļáĥĺ": 7019,
      "ĠáĥĴáĥĶáĥłáĥĴáĥĿáĥĳáĥĲáĥĹáĥ£áĥĹáĥĲ": 7020,
      "ĠáĥĵáĥĲáĥ¦": 7021,
      "áĥ£áĥłáĥĿáĥłáĥ¢": 7022,
      "áĥĶáĥłáĥ£": 7023,
      "Ġáĥ®áĥĶáĥ¡": 7024,
      "ĠáĥľáĥĺáĥľáĥĲáĥ¡": 7025,
      "áĥĲáĥ£áĥľáĥĺ": 7026,
      "Ġáĥ¯áĥĿáĥ®áĥĿáĥĹ": 7027,
      "ĠáĥĲáĥĽáĥĶáĥłáĥĺáĥĻáĥ£áĥļáĥĺ": 7028,
      "Ġáĥ¢áĥĿáĥĽáĥĳ": 7029,
      "Ġáĥ¤áĥĲáĥľáĥĺáĥĲáĥ¨": 7030,
      "Ġáĥ¸áĥ£áĥ¯áĥĺáĥ¨": 7031,
      "ĠáĥĲáĥ¦áĥĺáĥĲáĥł": 7032,
      "áĥĿáĥłáĥĺáĥļáĥĺ": 7033,
      "ĠáĥĽáĥ£áĥ®": 7034,
      "áĥĺáĥľáĥĵáĥ£": 7035,
      "Ġáĥ¤áĥĶáĥĺáĥľáĥĽáĥĲáĥľáĥĺ": 7036,
      "áĥĲáĥĽáĥĶáĥł": 7037,
      "Ġcor": 7038,
      "Ġáĥ¤áĥĺáĥļáĥĽáĥĶáĥ¤áĥĺáĥ¨": 7039,
      "Ġáĥĺáĥ¡áĥ¢áĥĿáĥłáĥĺáĥĲ": 7040,
      "Ġáĥĳáĥ£áĥľáĥĲáĥ¨": 7041,
      "ĠáĥĲáĥłáĥ¥áĥĶ": 7042,
      "áĥĲáĥļáĥĺáĥĲáĥ¡": 7043,
      "áĥĻáĥĺáĥ¨": 7044,
      "áĥĿáĥľáĥĶáĥ©áĥĵ": 7045,
      "ĠáĥĸáĥĿáĥĹáĥĿáĥľáĥ¯": 7046,
      "ĠáĥĿáĥĹáĥ®áĥĺ": 7047,
      "ĠáĥĺáĥľáĥĴáĥļáĥĺáĥ¡áĥĲáĥłáĥĺ": 7048,
      "áĥĻáĥķáĥĺáĥĹáĥĺ": 7049,
      "ĠáĥĳáĥŁáĥĲáĥĵáĥĲáĥļáĥĺ": 7050,
      "ĠáĥŀáĥĲáĥĻáĥĺáĥ¡áĥ¢": 7051,
      "áĥ£áĥľáĥĺ": 7052,
      "ĠáĥłáĥĿáĥļáĥ¡": 7053,
      "Ġáĥ¡áĥ¢áĥłáĥ£áĥ¥áĥ¢áĥ£áĥł": 7054,
      "ĠáĥĲáĥľáĥ£": 7055,
      "Ġwich": 7056,
      "à¸£à¸²à¸Ħà¸²": 7057,
      "Ġstark": 7058,
      "iell": 7059,
      "lang": 7060,
      "ligen": 7061,
      "ĠTagen": 7062,
      "ÐºÐ°": 7063,
      "ama": 7064,
      "ĠAng": 7065,
      "Ġkaum": 7066,
      "ĠGest": 7067,
      "ĠÃ¶": 7068,
      "aron": 7069,
      "Ġhandelt": 7070,
      "à´¨à´¸": 7071,
      "àµĩâĢĭ": 7072,
      "ĠÐ³": 7073,
      "ĠfÃ¼nf": 7074,
      "à´ĺà´Ł": 7075,
      "inne": 7076,
      "à´¤à´µ": 7077,
      "ÃŃas": 7078,
      "Ġà´ĵà´Ł": 7079,
      "à´±à´®": 7080,
      "Ġelekt": 7081,
      "ĠKomment": 7082,
      "à¸Ľà¸£à¸°à¸Ĭ": 7083,
      "ĠSitz": 7084,
      "osition": 7085,
      "eichert": 7086,
      "hei": 7087,
      "ĠKÃ¶n": 7088,
      "ima": 7089,
      "79": 7090,
      "ĠErw": 7091,
      "ĠcoÃ±": 7092,
      "Ã¶nen": 7093,
      "ĠGeschÃ¤fts": 7094,
      "ikan": 7095,
      "àµ¼à´µ": 7096,
      "**": 7097,
      "ĠGÃ¤ste": 7098,
      "last": 7099,
      "Ġweg": 7100,
      "ĠMich": 7101,
      "fÃ¤h": 7102,
      "àµį:": 7103,
      "ĠIst": 7104,
      "emb": 7105,
      "wen": 7106,
      "à¸Ńà¸Ńà¸Ļà¹Ħà¸¥à¸Ļ": 7107,
      "Ġbeispiel": 7108,
      "ienten": 7109,
      "ĠÑĥ": 7110,
      "ĠverÃ¶ffent": 7111,
      "son": 7112,
      "Ġschle": 7113,
      "arch": 7114,
      "ĠKraft": 7115,
      "unk": 7116,
      "ĠdÃ¼rfen": 7117,
      "uen": 7118,
      "ĠUnterstÃ¼t": 7119,
      "stelle": 7120,
      "osen": 7121,
      "àµĤ.": 7122,
      "ĠDach": 7123,
      "Ġmehrere": 7124,
      "81": 7125,
      "àµ¼à´ļ": 7126,
      "Ġà´Ĩà´¸": 7127,
      "à¸ģà¸¥à¸²à¸ĩ": 7128,
      "ĠestÃ¡": 7129,
      "wo": 7130,
      "Vor": 7131,
      "à¸´à¹Į": 7132,
      "Ġáĥ¯áĥķáĥĲáĥłáĥĺáĥ¨": 7133,
      "Ġáĥłáĥ£áĥ¡áĥĹáĥĲáĥķáĥĶáĥļáĥĺáĥ¨": 7134,
      "ĠáĥĽáĥ£áĥ¡áĥĺáĥĻáĥĲáĥ¨": 7135,
      "ĠáĥĴáĥĶáĥ¨áĥĲáĥĹ": 7136,
      "ĠáĥľáĥĲáĥłáĥĻ": 7137,
      "áĥĲáĥ¤áĥĲáĥ¨áĥĲ": 7138,
      "ĠáĥĽáĥĶáĥ¢áĥĺ": 7139,
      "ĠáĥĶáĥ¨áĥĽáĥĲáĥ¦áĥĲáĥļ": 7140,
      "áĥ£áĥłáĥĲáĥ¤áĥ£": 7141,
      "Ġáĥ¨áĥĲáĥłáĥĲ": 7142,
      "Ġáĥ¡áĥĺáĥļ": 7143,
      "áĥĿáĥ¢áĥĺáĥ¨": 7144,
      "áĥĶáĥłáĥĴáĥĺáĥ¨": 7145,
      "Ġáĥ¡áĥĲáĥķ": 7146,
      "áĥĶáĥľáĥ¯áĥĲáĥĳ": 7147,
      "ĠáĥĸáĥĿáĥ®áĥĿáĥłáĥĺáĥľáĥĶáĥļáĥĺ": 7148,
      "áĥ£áĥłáĥ£áĥļáĥĺ": 7149,
      "áĥĺáĥĻáĥĺ": 7150,
      "Ġáĥ®áĥĲáĥľáĥ¡": 7151,
      "Ġáĥ°áĥĺáĥĵ": 7152,
      "áĥĺáĥĶáĥ¤áĥĺáĥĹ": 7153,
      "ĠáĥĳáĥłáĥĲáĥĸ": 7154,
      "áĥĿáĥ¥áĥĺáĥĽáĥĺáĥľáĥ£": 7155,
      "Ġáĥ¡áĥĺáĥ¡áĥ¢áĥĶáĥĽáĥĲáĥ¡": 7156,
      "ĠáĥĿáĥłáĥĵáĥĿáĥ¨": 7157,
      "áĥĽáĥĿáĥ¡áĥĿáĥ¤": 7158,
      "ĠáĥľáĥĶ": 7159,
      "áĥĲáĥ¤áĥĶáĥ¤áĥĺáĥ¨": 7160,
      "áĥļáĥĿáĥķ": 7161,
      "áĥ£áĥłáĥ¦": 7162,
      "Ġáĥ©áĥĺáĥľáĥĶáĥĳáĥ£áĥļ": 7163,
      "ĠáĥĺáĥľáĥĴáĥļáĥĺáĥ¡áĥ£áĥłáĥĺ": 7164,
      "Ġáĥ®áĥĶáĥĽáĥĲáĥľáĥ¯áĥ¦áĥķáĥĶáĥł": 7165,
      "ĠáĥĽáĥļ": 7166,
      "áĥĲáĥłáĥĶáĥ¤áĥ¥": 7167,
      "Ġáĥ¡áĥĶáĥľ": 7168,
      "áĥ¥áĥĺáĥļ": 7169,
      "áĥĲáĥ¢áĥĿáĥłáĥĺ": 7170,
      "áĥĹáĥĺáĥľáĥĶ": 7171,
      "áĥĶáĥĽáĥĲáĥ¢": 7172,
      "ĠáĥŃáĥĻ": 7173,
      "ĠáĥĿáĥ¡áĥĻ": 7174,
      "Ġáĥłáĥ©áĥ¥áĥķáĥĲáĥľáĥĶáĥļ": 7175,
      "Ġáĥ£áĥ¯áĥĴáĥ£áĥ¨": 7176,
      "ĠáĥĴáĥĶáĥłáĥĴáĥĿáĥĳáĥĲáĥĹáĥ£áĥĹáĥĲáĥ¡": 7177,
      "ĠáĥĽáĥ£áĥĸáĥĶáĥ£": 7178,
      "Ġáĥ£áĥ¨áĥ®áĥ£áĥĲáĥ¨áĥĺ": 7179,
      "ĠáĥĽáĥĿáĥ¯": 7180,
      "áĥ¯áĥĿáĥ®": 7181,
      "Ġáĥ°áĥĲáĥłáĥĺ": 7182,
      "Ġáĥ©áĥ¥áĥĿáĥľáĥĺáĥ¨": 7183,
      "ĠáĥĶáĥŃáĥĲáĥłáĥ£áĥĲáĥ¨": 7184,
      "ĠáĥĽáĥĺáĥľáĥĺáĥ¡áĥ¢": 7185,
      "áĥĲáĥłáĥĺáĥĲ": 7186,
      "áĥĻáĥĽ": 7187,
      "áĥĿáĥľáĥĶáĥ¤áĥĺ": 7188,
      "ĠáĥłáĥĶáĥĴáĥĺáĥĿáĥľáĥĺáĥ¨": 7189,
      "ĠáĥľáĥĲáĥĻ": 7190,
      "áĥ£áĥ¯áĥĺáĥ¨": 7191,
      "ĠáĥĽáĥĶáĥ¡áĥĺáĥ¡": 7192,
      "ĻáĥķáĥĺáĥĶáĥĳ": 7193,
      "Ġáĥ¬áĥ§áĥĲáĥłáĥŀáĥĺáĥ¯áĥĺáĥ¨": 7194,
      "ĠáĥĳáĥĿáĥļáĥĿáĥ¡": 7195,
      "áĥĲáĥ¤áĥ®áĥĲáĥĸ": 7196,
      "áĥĿáĥ¨áĥĲ": 7197,
      "áĥĶáĥĵáĥĺáĥª": 7198,
      "Ġáĥĳáĥ£áĥĵ": 7199,
      "ĠáĥĻáĥĿáĥľáĥ¢áĥĺáĥľáĥĶáĥľáĥ¢": 7200,
      "Ġáĥ¨áĥķáĥĲáĥľáĥ¡": 7201,
      "ĠáĥĲáĥłáĥĴáĥĶáĥľáĥ¢": 7202,
      "Ġáĥļáĥ·áĥĽáĥĲáĥ¡": 7203,
      "ĠáĥĴáĥĶáĥķáĥĲáĥłáĥĲáĥ¡": 7204,
      "ĠRom": 7205,
      "Ð»Ð¸": 7206,
      "à´ķà´´": 7207,
      "à¸ļà¸²à¸ĩ": 7208,
      "undo": 7209,
      "Ġeste": 7210,
      "à´°à´ļ": 7211,
      "ses": 7212,
      "ĠDS": 7213,
      "ausch": 7214,
      "à´°à´ĸ": 7215,
      "Ġhervor": 7216,
      "ĠSteuer": 7217,
      "altet": 7218,
      "Ġumf": 7219,
      "ublic": 7220,
      "ĠTop": 7221,
      "à´°à´£à´®": 7222,
      "1945": 7223,
      "ĠDamen": 7224,
      "ĠMil": 7225,
      "markt": 7226,
      "Ġinsbesondere": 7227,
      "gelegt": 7228,
      "à´¿âĢĭâĢĭ": 7229,
      "à¸ĩà¸§": 7230,
      "Ġ[âĢ¦]": 7231,
      "laf": 7232,
      "âĢ¢": 7233,
      "à¸Ķà¸ģà¸²à¸£": 7234,
      "aschine": 7235,
      "geschlossen": 7236,
      "Ġà´ķà´¤": 7237,
      "by": 7238,
      "rig": 7239,
      "ĠImm": 7240,
      "ĠMat": 7241,
      "US": 7242,
      "à¸İ": 7243,
      "ĠKostenlos": 7244,
      "Ġà¹Ģà¸«": 7245,
      "tritt": 7246,
      "Ġschreiben": 7247,
      "à¸ĩà¸Ķ": 7248,
      "ĠsÃºas": 7249,
      "ieÃŁen": 7250,
      "Ġetc": 7251,
      "ĠtÃ¤": 7252,
      "ĠInhalt": 7253,
      "à´ĩà´¨": 7254,
      "Ġfreuen": 7255,
      "ĠBeweg": 7256,
      "eito": 7257,
      "ona": 7258,
      "acken": 7259,
      "Ġsowohl": 7260,
      "à¸Īà¸°à¸¡": 7261,
      "tal": 7262,
      "ĠfÃ¼hrt": 7263,
      "à¸Ļà¸Ĥ": 7264,
      "nov": 7265,
      "Ġgelten": 7266,
      "weiter": 7267,
      "Ġà´¨à´Ĺ": 7268,
      "à¸ģà¸³à¸¥": 7269,
      "iden": 7270,
      "Ġ..": 7271,
      "othe": 7272,
      "fÃ¼l": 7273,
      "Ġwollte": 7274,
      "à¸¡à¸²à¸ĵ": 7275,
      "Ð¾ÑĢ": 7276,
      "à¸Ńà¹ĥà¸«": 7277,
      "iellen": 7278,
      "ĠEmpf": 7279,
      "ickt": 7280,
      "Ġmon": 7281,
      "ĠVerwendung": 7282,
      "Ġkonnten": 7283,
      "standen": 7284,
      "à¸ªà¸ķ": 7285,
      "à´İà´²": 7286,
      "Ġà´¤à´°": 7287,
      "Ã¶sen": 7288,
      "à´µà´®": 7289,
      "Ġáĥ¬áĥĶáĥ¡áĥĵáĥķáĥĲáĥļ": 7290,
      "ĠáĥĻáĥĿáĥľáĥªáĥĶáĥłáĥ¢": 7291,
      "áĥľáĥ¬": 7292,
      "áĥĲáĥ²": 7293,
      "Ġáĥłáĥ©áĥ¥áĥĺáĥľáĥĶáĥļáĥĺ": 7294,
      "Ġáĥ¤áĥłáĥĲáĥľáĥĴáĥĺ": 7295,
      "ĠáĥĽáĥĲáĥ©": 7296,
      "ĠáĥĽáĥĿáĥłáĥ©áĥĺáĥļ": 7297,
      "ĠáĥĽáĥĶáĥ£áĥłáĥľáĥĿáĥĳáĥĲáĥ¨": 7298,
      "áĥĲáĥĲáĥľáĥĹáĥ®": 7299,
      "áĥĽáĥĲáĥ¨": 7300,
      "áĥĺáĥľáĥĲáĥ¤áĥĲáĥļáĥĺ": 7301,
      "áĥĶáĥľáĥ¨": 7302,
      "ĠáĥŀáĥĲáĥķ": 7303,
      "áĥĺáĥľáĥ¥": 7304,
      "áĥĺáĥłáĥ¨áĥĲ": 7305,
      "áĥĲáĥļáĥ£áĥĲáĥ¨": 7306,
      "¬áĥ§áĥ£": 7307,
      "ĠáĥĴáĥĶáĥĴáĥ¨": 7308,
      "ĠáĥĻáĥĲáĥłáĥĺáĥĳáĥĺáĥ¨": 7309,
      "Ġáĥ¡áĥĻáĥĿáĥļáĥĲ": 7310,
      "Ġáĥĸáĥĺáĥ¢áĥ§áĥķáĥĲ": 7311,
      "ĠáĥĺáĥĳáĥĶáĥłáĥĺáĥĲáĥ¨": 7312,
      "ĠáĥĳáĥłáĥĲáĥĸáĥĺáĥļáĥĺ": 7313,
      "Ġáĥ¤áĥ¡": 7314,
      "áĥ£áĥľáĥĶáĥļ": 7315,
      "ĠáĥĺáĥľáĥĻ": 7316,
      "áĥĿáĥłáĥªáĥĺáĥĶáĥļ": 7317,
      "ĠáĥŁáĥĺáĥłáĥ®áĥĿáĥļáĥĿ": 7318,
      "ĠáĥĶáĥļáĥĶáĥ¥áĥ¢áĥłáĥĿáĥľ": 7319,
      "ĠáĥĴáĥĲáĥļáĥĶ": 7320,
      "áĥĿáĥłáĥĶáĥ¡": 7321,
      "áĥ£áĥļáĥĲáĥ¨": 7322,
      "áĥĸáĥĺ": 7323,
      "ĠáĥĽáĥĶáĥ£áĥłáĥ¡": 7324,
      "ĠáĥĽáĥ£áĥĽáĥĲ": 7325,
      "áĥĶáĥľáĥĳ": 7326,
      "ĠáĥĶáĥ¤": 7327,
      "áĥĶáĥľáĥĿ": 7328,
      "áĥĺáĥĶáĥłáĥ": 7329,
      "Ġáĥĳáĥ£áĥļ": 7330,
      "áĥĶáĥĳáĥĶáĥ¤áĥĺ": 7331,
      "Ġáĥļáĥĺáĥĵ": 7332,
      "Ġáĥ©áĥĺáĥļ": 7333,
      "áĥĺáĥľáĥĶáĥĳáĥ£": 7334,
      "áĥĺáĥľáĥĵáĥĺáĥ¨": 7335,
      "ĠáĥĴáĥļáĥĿáĥĳ": 7336,
      "ĠáĥĽáĥĿáĥĴáĥķáĥĺáĥĲáĥľáĥĲáĥ¤áĥĺáĥļáĥĿ": 7337,
      "áĥ¬áĥĻ": 7338,
      "ĠáĥļáĥĶáĥĴ": 7339,
      "ĠáĥŁáĥĺáĥĵ": 7340,
      "ĠáĥĴáĥ·áĥĽáĥĺáĥłáĥĺáĥľáĥ£áĥĲáĥľáĥĲ": 7341,
      "ĠáĥĵáĥĲáĥķáĥĺáĥĹ": 7342,
      "Ġáĥ¤áĥĿáĥ¢": 7343,
      "ĠáĥļáĥĿáĥ¡": 7344,
      "ĠáĥĿáĥ«áĥĺáĥł": 7345,
      "ĠáĥĳáĥĲáĥ«": 7346,
      "ĠáĥĽáĥĺáĥĿáĥŃ": 7347,
      "áĥ¸áĥĿáĥ¤": 7348,
      "ĠáĥłáĥĶáĥ¤": 7349,
      "ĠáĥļáĥĶáĥłáĥ¡": 7350,
      "ĠáĥłáĥĿáĥļáĥĺ": 7351,
      "Ġáĥ°áĥĶáĥĴ": 7352,
      "ĠLiebe": 7353,
      "ano": 7354,
      "rÃ¤gt": 7355,
      "ics": 7356,
      "Ġarbeiten": 7357,
      "à´²à´ķà´³": 7358,
      "ĠElekt": 7359,
      "à¸¢à¸Ķ": 7360,
      "wehr": 7361,
      "kosten": 7362,
      "Ġpart": 7363,
      "ĠGlÃ¼ck": 7364,
      "besch": 7365,
      "à¹ĥà¸Ħà¸£": 7366,
      "ĠWeise": 7367,
      "Ġjederzeit": 7368,
      "ĠRein": 7369,
      "ftung": 7370,
      "ĠXIII": 7371,
      "Ġ%),": 7372,
      "ĠEnd": 7373,
      "1965": 7374,
      "ĠRich": 7375,
      "tionen": 7376,
      "ehl": 7377,
      "kreis": 7378,
      "Ġà´¤à´²": 7379,
      "Ġtodo": 7380,
      "à¹Ģà¸Ĥà¸²": 7381,
      "à¸Ħà¸³": 7382,
      "anto": 7383,
      "ĠNo": 7384,
      "gebung": 7385,
      "ĠSen": 7386,
      "Ġà´µà´ļ": 7387,
      "aria": 7388,
      "schuhe": 7389,
      "dorf": 7390,
      "ĠWein": 7391,
      "à¸Ńà¸Ļà¸Ĺ": 7392,
      "à¹Ĥà¸Ħà¸£": 7393,
      "ĠArch": 7394,
      "ĠMÃ¤dchen": 7395,
      "forderungen": 7396,
      "ua": 7397,
      "à¸²à¸Ħà¸²à¸£": 7398,
      "52": 7399,
      "à¸ĩà¸£": 7400,
      "ĠMÃ¼nchen": 7401,
      "ĠKin": 7402,
      "à´¡à´²": 7403,
      "à´İà´«": 7404,
      "Ġbevor": 7405,
      "Ð¾ÑĤ": 7406,
      "Ġalten": 7407,
      "ĠVerkehr": 7408,
      "ĠKur": 7409,
      "link": 7410,
      "ĠHel": 7411,
      "akter": 7412,
      "ĠBenutz": 7413,
      "Ġbed": 7414,
      "Ġhei": 7415,
      "Ġliegen": 7416,
      "à¸ļà¸ģ": 7417,
      "ĠÐ´Ð»Ñı": 7418,
      "Ġsetzen": 7419,
      "Ġzuf": 7420,
      "ĠErinner": 7421,
      "ĠAuÃŁer": 7422,
      "ogo": 7423,
      "ĠGesetz": 7424,
      "à¸Ļà¸ľ": 7425,
      "ĠSonn": 7426,
      "à´¯à´®à´Ļ": 7427,
      "Ġaos": 7428,
      "600": 7429,
      "ĠVerbindung": 7430,
      "à¸¡à¸ķ": 7431,
      "riften": 7432,
      "alte": 7433,
      "à¸Ńà¸Ľ": 7434,
      "preis": 7435,
      "Ġgegeben": 7436,
      "ĠlÃ¤nger": 7437,
      "Ġdaran": 7438,
      "Ġvari": 7439,
      "ĠFerien": 7440,
      "ĠPor": 7441,
      "Als": 7442,
      "ress": 7443,
      "Was": 7444,
      "àµ¼à´¡": 7445,
      "isse": 7446,
      "rid": 7447,
      "Ġsem": 7448,
      "produ": 7449,
      "áĥĺáĥłáĥļáĥĲáĥľáĥĵ": 7450,
      "Ġáĥ¬áĥĲáĥľáĥĲáĥ¨áĥĿ": 7451,
      "áĥ£áĥ¡áĥĲáĥļ": 7452,
      "áĥĺáĥļáĥĿáĥ¨": 7453,
      "aison": 7454,
      "ĠáĥĲáĥļáĥĳáĥĿáĥĽáĥĺ": 7455,
      "ĠáĥĽáĥ£áĥ¡áĥĺáĥĻáĥĲáĥļáĥ£áĥłáĥĺ": 7456,
      "ĠáĥĻáĥĲáĥłáĥ¢": 7457,
      "ĠáĥĳáĥĲáĥľáĥĻ": 7458,
      "áĥĿáĥ¥áĥĽ": 7459,
      "Ġáĥĺáĥłáĥ¬": 7460,
      "ĠáĥĻáĥĿáĥĻáĥĶáĥ¤áĥĺáĥ¨": 7461,
      "ĠáĥĸáĥĿáĥ®áĥĿáĥłáĥĺáĥľáĥĲáĥļáĥĲáĥ¨": 7462,
      "áĥĲáĥļáĥĶáĥ¨áĥĲ": 7463,
      "áĥ¡áĥĲáĥ¤": 7464,
      "ĠáĥŀáĥĶáĥľáĥ¯áĥĲáĥĳ": 7465,
      "ĠáĥĽáĥĿáĥľáĥĲáĥłáĥ¥": 7466,
      "ĠáĥĽáĥĲáĥľáĥ¥": 7467,
      "áĥĶáĥłáĥĺáĥĹ": 7468,
      "áĥĿáĥ¡áĥĻ": 7469,
      "áĥĿáĥķáĥł": 7470,
      "ĠáĥĿáĥ¡áĥ£áĥł": 7471,
      "ĠáĥĽáĥĶáĥłáĥ©áĥ¥áĥĺáĥľáĥĶáĥļáĥĺ": 7472,
      "Ġáĥ£áĥ¨áĥ¥": 7473,
      "Ġáĥłáĥ¡áĥ£áĥļ": 7474,
      "ĠáĥĽáĥĶáĥłáĥĻáĥĶ": 7475,
      "Ġáĥĵáĥ£áĥĽ": 7476,
      "ĠáĥŀáĥĺáĥłáĥĶáĥļáĥ¡": 7477,
      "ĠáĥĻáĥķáĥĺáĥłáĥĻáĥķáĥĶ": 7478,
      "Ġáĥ£áĥľáĥ©": 7479,
      "ĠáĥłáĥĿáĥĳáĥĶáĥłáĥ¢": 7480,
      "áĥĺáĥľáĥĲáĥĽáĥĺ": 7481,
      "ĠáĥĴáĥĶáĥłáĥ": 7482,
      "áĥĲáĥĹáĥ®": 7483,
      "áĥĿáĥĽáĥŀ": 7484,
      "áĥĸáĥĺáĥ¨": 7485,
      "Ġáĥ¨áĥķáĥĶáĥĵ": 7486,
      "ĠáĥĴáĥĶáĥĽáĥ¨": 7487,
      "Ġáĥ®áĥĶáĥļáĥ£áĥĲáĥľáĥĿáĥĳáĥĲáĥ¨": 7488,
      "áĥĽáĥĲáĥļ": 7489,
      "áĥĺáĥłáĥĺáĥĹ": 7490,
      "ĠáĥķáĥĲáĥĵ": 7491,
      "Ġáĥĸáĥ£áĥĴ": 7492,
      "ĠáĥĽáĥĲáĥ¡áĥ¨áĥ¢áĥĲáĥĳ": 7493,
      "ĠáĥĻáĥĿáĥ©áĥĺáĥ¡": 7494,
      "Ġáĥ¡áĥĲáĥľáĥ¢": 7495,
      "áĥĿáĥłáĥĻ": 7496,
      "áĥĿáĥļáĥĲáĥĽ": 7497,
      "ĠáĥĲáĥľáĥĹ": 7498,
      "ĠáĥŀáĥłáĥĿáĥĴáĥłáĥĲáĥĽ": 7499,
      "áĥļáĥĿáĥĽ": 7500,
      "Ġáĥłáĥ¡áĥ®áĥ£": 7501,
      "ĠáĥĹáĥĺáĥľáĥĶáĥ¤áĥ¨áĥĶ": 7502,
      "áĥĿáĥĸáĥĺáĥª": 7503,
      "ĠáĥĳáĥĲáĥ«áĥĲáĥ«": 7504,
      "Ġáĥ¡áĥĲáĥ¨": 7505,
      "áĥĿáĥłáĥĴ": 7506,
      "Ġáĥ¯áĥĺáĥ¨": 7507,
      "ĠáĥļáĥĲ": 7508,
      "áĥ£áĥľáĥĹáĥ®": 7509,
      "ĠáĥĴáĥ·áĥĽáĥĲáĥĹáĥ£áĥĹáĥĲáĥ¡": 7510,
      "ĠáĥĿáĥĳáĥĺáĥĶáĥ¥áĥ¢áĥĺ": 7511,
      "âĢĮàµį": 7512,
      "Ã¼hren": 7513,
      "ika": 7514,
      "orgt": 7515,
      "oment": 7516,
      "Ġern": 7517,
      "get": 7518,
      "à¸Ńà¸ģà¸²à¸£": 7519,
      "mehr": 7520,
      "Ġkm": 7521,
      "à´Ī": 7522,
      "Ġà´ĩà´Ļ": 7523,
      "ĠDon": 7524,
      "ĠWill": 7525,
      "eier": 7526,
      "Ġentsp": 7527,
      "ĠTV": 7528,
      "ĠMillionen": 7529,
      "ĠAG": 7530,
      "à¸ĩà¹ģà¸ķ": 7531,
      "à¸¨à¸²à¸ª": 7532,
      "lapp": 7533,
      "oss": 7534,
      "tivo": 7535,
      "Ġà´ķà´µ": 7536,
      "ador": 7537,
      "Ġsolche": 7538,
      "beg": 7539,
      "Ġmoi": 7540,
      "à¹Ĥà¸£": 7541,
      "reicht": 7542,
      "84": 7543,
      "icas": 7544,
      "schrift": 7545,
      "ĠWeihn": 7546,
      "Ġsucht": 7547,
      "Ð¾Ñģ": 7548,
      "àµ½à´ª": 7549,
      "ĠNew": 7550,
      "ĠPolizei": 7551,
      "ĠTier": 7552,
      "ĠGold": 7553,
      "à¹ģà¸Ħ": 7554,
      "73": 7555,
      "etail": 7556,
      "à¸ģà¸ģ": 7557,
      "dic": 7558,
      "à´ĩà´¤": 7559,
      "urger": 7560,
      "Ġhochwer": 7561,
      "ĠErn": 7562,
      "spe": 7563,
      "ĠPolitik": 7564,
      "ume": 7565,
      "ĠBrowser": 7566,
      "gest": 7567,
      "Ġdunha": 7568,
      "zeiten": 7569,
      "sprechend": 7570,
      "aktiv": 7571,
      "ÉĻ": 7572,
      "reiber": 7573,
      "digung": 7574,
      "Ġano": 7575,
      "rÃ¼fung": 7576,
      "inden": 7577,
      "aub": 7578,
      "à¸Ńà¸ĩà¹Ģà¸Ĺ": 7579,
      "ĠSor": 7580,
      "ĠRegion": 7581,
      "alk": 7582,
      "à¸Īà¸Ļ": 7583,
      "à´£à´¯": 7584,
      "Ġhttp": 7585,
      "ise": 7586,
      "à´ķà´°à´®": 7587,
      "iber": 7588,
      "Ġaufgrund": 7589,
      "Ġà¹Ģà¸ģ": 7590,
      "à¸Ńà¸ĩà¸£": 7591,
      "tigung": 7592,
      "à´ļà´ķ": 7593,
      "à´ļà´±": 7594,
      "kam": 7595,
      "ĠGrÃ¶ÃŁe": 7596,
      "ĠheiÃŁt": 7597,
      "mod": 7598,
      "ĠSpaÃŁ": 7599,
      "omas": 7600,
      "à¸Ĥà¸Ļà¸²à¸Ķ": 7601,
      "oder": 7602,
      "eting": 7603,
      "Ã¤llt": 7604,
      "Ġzeit": 7605,
      "à¹Ĥà¸£à¸Ħà¸ªà¸°à¹Ģà¸ģ": 7606,
      "jekte": 7607,
      "1950": 7608,
      "Ġjeweils": 7609,
      "Ġáĥ¨áĥĿáĥĹáĥĲ": 7610,
      "Ġ;": 7611,
      "Ġáĥ¡áĥĲáĥĿáĥ": 7612,
      "áĥĳáĥĶáĥĻ": 7613,
      "ĠáĥĺáĥłáĥļáĥĲáĥľáĥĵáĥĺáĥĲáĥ¨": 7614,
      "Ġáĥĺáĥľáĥ¡áĥ¢áĥł": 7615,
      "Ġà´¸à´®à´°": 7616,
      "ĠáĥĲáĥ¢áĥĽáĥĿáĥ¡áĥ¤áĥĶáĥłáĥĿáĥ¨": 7617,
      "ĠáĥĻáĥĲáĥľáĥ¢": 7618,
      "Ġáĥ¤áĥĶáĥĵáĥĶáĥłáĥĲáĥļáĥ£áĥłáĥĺ": 7619,
      "ĠáĥĲáĥłáĥĹáĥĺáĥĲáĥľáĥ¡": 7620,
      "ĠáĥĲáĥĻáĥĿáĥĲáĥłáĥĹ": 7621,
      "Ġáĥ®áĥĶáĥļáĥ£": 7622,
      "áĥĴáĥķ": 7623,
      "áĥĿáĥľáĥ£áĥłáĥĺ": 7624,
      "áĥĲáĥľáĥĵáĥĲáĥłáĥ¢": 7625,
      "áĥĺáĥľáĥ¯áĥĺáĥ¨": 7626,
      "ĠáĥĲáĥ¡áĥ¢áĥł": 7627,
      "áĥĺáĥĿáĥłáĥĻáĥĺáĥ¡": 7628,
      "áĥĲáĥ¬áĥ§": 7629,
      "ĠáĥĴáĥĿáĥĵ": 7630,
      "ĠáĥŃáĥķáĥĶáĥĽ": 7631,
      "Ġáĥ¬áĥ·áĥĽáĥĿáĥłáĥĺáĥľáĥĲáĥ¤áĥĺáĥļáĥĺ": 7632,
      "ĠáĥĴáĥĶáĥĵ": 7633,
      "áĥľáĥĶ": 7634,
      "ĠáĥķáĥĶáĥĽ": 7635,
      "ĠáĥļáĥĲáĥĽ": 7636,
      "áĥĲáĥĻáĥĺáĥ¨": 7637,
      "Ġáĥ¸áĥ£áĥłáĥĶ": 7638,
      "ĠáĥĻáĥĺáĥľáĥĿáĥ®": 7639,
      "Ġáĥĺáĥľáĥ¤áĥĿáĥłáĥĽáĥĲáĥªáĥĺáĥĲáĥ¨": 7640,
      "Ġáĥ®áĥ£áĥĹáĥĿáĥ¨": 7641,
      "áĥĴáĥĿáĥĽ": 7642,
      "ĠáĥĽáĥĲáĥ«áĥĺáĥł": 7643,
      "ĠáĥĹáĥĶáĥĲáĥ¢áĥłáĥĺáĥ¨": 7644,
      "Ġáĥ¡áĥŀáĥĶáĥªáĥĺáĥĲáĥļáĥ£áĥłáĥĺ": 7645,
      "ĠáĥĽáĥ£áĥľáĥĺáĥªáĥĺáĥŀáĥĲáĥļáĥĺáĥ¢áĥĶáĥ¢": 7646,
      "áĥĶáĥļáĥĲáĥ¨": 7647,
      "ĠáĥľáĥĲáĥĽáĥĹáĥĺáĥľáĥĶ": 7648,
      "ĠáĥłáĥĵáĥĲáĥ¡": 7649,
      "ĠáĥĽáĥĶáĥ¦áĥĶáĥĳáĥ£áĥļáĥĺ": 7650,
      "ĠáĥĹáĥĺáĥĹ": 7651,
      "áĥĶáĥłáĥ£áĥļáĥĺ": 7652,
      "áĥĿáĥľáĥĴ": 7653,
      "Ġáĥ¦áĥĲáĥľáĥ©": 7654,
      "¢áĥ§": 7655,
      "áĥĻáĥł": 7656,
      "Ġáĥ¦áĥ£áĥłáĥĹáĥ£áĥĹáĥĲáĥ¡": 7657,
      "áĥĺáĥľáĥ¯áĥĶ": 7658,
      "áĥĺáĥ¤áĥĿáĥłáĥľ": 7659,
      "ĠáĥĹáĥ£áĥĹáĥĲáĥ¨": 7660,
      "ĠáĥļáĥĶáĥ®áĥĶáĥłáĥ¡": 7661,
      "ĠáĥĹáĥ£áĥĵáĥĿ": 7662,
      "áĥĶáĥ¬áĥĻáĥ·áĥĽáĥĲ": 7663,
      "áĥĲáĥļáĥĲáĥĽ": 7664,
      "ĠáĥĵáĥĲáĥĳáĥĲáĥļáĥĺ": 7665,
      "áĥĴáĥĲáĥ¨": 7666,
      "áĥĶáĥ«": 7667,
      "ĠáĥŀáĥĲáĥłáĥ¢áĥĺáĥĸ": 7668,
      "ĠÐ¿ÑĢ": 7669,
      "gra": 7670,
      "à¸²à¸¢à¸Ĺ": 7671,
      "93": 7672,
      "GVO": 7673,
      "à¸ªà¸§à¸¢": 7674,
      "ayalam": 7675,
      "mittlung": 7676,
      "peratur": 7677,
      "à´Ĵà´°": 7678,
      "Ġkosten": 7679,
      "ĠAnti": 7680,
      "Ġzweiten": 7681,
      "ĠTelefon": 7682,
      "Ġà´ĺ": 7683,
      "Ġà´Ĵà´Ł": 7684,
      "à´¤à´°à´µ": 7685,
      "Ã¼nstler": 7686,
      "Ġkur": 7687,
      "kÃ¼n": 7688,
      "eitag": 7689,
      "reibt": 7690,
      "Ġà´µà´¸": 7691,
      "Ã¶st": 7692,
      "Ġbeispielsweise": 7693,
      "eles": 7694,
      "ĠWien": 7695,
      "Ġsomit": 7696,
      "prÃ¼": 7697,
      "ĠÂ°": 7698,
      "Ġà´ľà´¯": 7699,
      "900": 7700,
      "ĠEing": 7701,
      "Ġis": 7702,
      "Ġà´ªà´ŀ": 7703,
      "ling": 7704,
      "ĠText": 7705,
      "Ġpolit": 7706,
      "ĠPrin": 7707,
      "Ġanders": 7708,
      "ĠStre": 7709,
      "ĠBra": 7710,
      "Ġpass": 7711,
      "Ġincl": 7712,
      "ĠBank": 7713,
      "icos": 7714,
      "Und": 7715,
      "à¸Ńà¸Ń": 7716,
      "ĠprÃ¤sen": 7717,
      "igkeiten": 7718,
      "Øª": 7719,
      "Ġà´¹à´°": 7720,
      "ata": 7721,
      "ĠStelle": 7722,
      "load": 7723,
      "ĠHerren": 7724,
      "allo": 7725,
      "lassen": 7726,
      "à¤¿": 7727,
      "Ġdam": 7728,
      "Ġjedes": 7729,
      "ĠBerg": 7730,
      "Ġcre": 7731,
      "Ġà¸Ħà¸§à¸²à¸¡": 7732,
      "abhÃ¤ng": 7733,
      "âĢĿ.": 7734,
      "ĠKranken": 7735,
      "à¹Į,": 7736,
      "ĠAuftrag": 7737,
      "à´¯à´ķà´¨": 7738,
      "ĠNur": 7739,
      "ĠhÃ¶ch": 7740,
      "ĠDamit": 7741,
      "roll": 7742,
      "à¸Ļà¹Ĩ": 7743,
      "Ġseus": 7744,
      "à¸łà¸²à¸©": 7745,
      "Ġresp": 7746,
      "96": 7747,
      "fÃ¼ll": 7748,
      "wÃ¼r": 7749,
      "Ġà´®à´²": 7750,
      "ĠStrom": 7751,
      "ĠLa": 7752,
      "ake": 7753,
      "deck": 7754,
      "mon": 7755,
      "ĠDisk": 7756,
      "Ġfort": 7757,
      "ĠWand": 7758,
      "Ġà´®à´°à´£": 7759,
      "ĠOl": 7760,
      "Ġverbesser": 7761,
      "furt": 7762,
      "esent": 7763,
      "ness": 7764,
      "igit": 7765,
      "ĠAlt": 7766,
      "ĠmÃ¶": 7767,
      "à¸¢à¸°": 7768,
      "ĠXII": 7769,
      "ĠWahr": 7770,
      "ull": 7771,
      "à¸Ļà¸Ĺà¸£": 7772,
      "trem": 7773,
      "ilden": 7774,
      "Ġà´Ĩà´±": 7775,
      "Ġmodern": 7776,
      "ace": 7777,
      "áĥĶáĥ¨áĥĺáĥ¥": 7778,
      "iti": 7779,
      "ĠáĥĽáĥ£áĥłáĥĺáĥªáĥ®": 7780,
      "ĠFeuer": 7781,
      "ĠáĥĳáĥĿáĥ¢": 7782,
      "ĠáĥĽáĥĲáĥ¯": 7783,
      "Ġáĥ¨áĥĲáĥľáĥ£áĥļáĥĲáĥĽ": 7784,
      "ĠáĥĽáĥĿáĥ¡áĥĻ": 7785,
      "Ġáĥ¢áĥłáĥĿáĥŀáĥĺáĥĻáĥ£áĥļáĥĺ": 7786,
      "áĥĺáĥľáĥ£áĥĲáĥ¤áĥ£": 7787,
      "áĥĲáĥĽáĥĶáĥ¤áĥĺáĥ¨": 7788,
      "Ġáĥ¡áĥ¢áĥ£áĥĵ": 7789,
      "Ġáĥ¨áĥĶáĥļáĥĶáĥĳáĥ£": 7790,
      "Ġáĥ¡áĥĺáĥĴáĥ·áĥłáĥ«áĥĲ": 7791,
      "har": 7792,
      "áĥĶáĥĳáĥĶáĥľáĥ¡": 7793,
      "Ġáĥ¥áĥĿáĥ«": 7794,
      "áĥĲáĥľáĥĵáĥĲáĥ¨": 7795,
      "áĥ£áĥ¡áĥ¢áĥł": 7796,
      "áĥĶáĥĴáĥĿáĥłáĥ£": 7797,
      "ĠáĥĽáĥĲáĥłáĥĴáĥĲáĥļáĥ£áĥł": 7798,
      "áĥĲáĥĺáĥĵ": 7799,
      "ĠáĥĿáĥĻáĥĲáĥĹáĥ£áĥĵáĥ·": 7800,
      "ĠáĥĿáĥĶáĥłáĥĶáĥ¤áĥĿáĥ¨áĥ¥áĥĲáĥ¨áĥĶ": 7801,
      "ĠáĥĵáĥĿáĥŃ": 7802,
      "ĠáĥľáĥĲáĥķ": 7803,
      "áĥĶáĥļáĥ·": 7804,
      "áĥĲáĥªáĥĺáĥĲáĥĹ": 7805,
      "ĠáĥĹáĥĺáĥľáĥĶáĥ¤áĥ¥": 7806,
      "ĠáĥĶáĥķáĥł": 7807,
      "ĠáĥĺáĥľáĥĵáĥĿáĥľáĥĶáĥĸáĥĺáĥĲáĥ¨": 7808,
      "¯áĥĴáĥ£áĥłáĥĲ": 7809,
      "ĠáĥĲáĥ°": 7810,
      "ĠáĥĴáĥ·áĥĽáĥĿáĥ¡áĥĲáĥ®": 7811,
      "áĥĽáĥ£áĥ": 7812,
      "áĥļáĥĲ": 7813,
      "áĥĶáĥ¨áĥĶáĥ¡": 7814,
      "áĥ£áĥĹáĥĽ": 7815,
      "áĥĺáĥĶáĥ¤áĥ¥": 7816,
      "áĥ£áĥ¯áĥĲáĥłáĥĲáĥĹ": 7817,
      "ĠáĥĺáĥľáĥĴáĥļ": 7818,
      "ĠáĥĻáĥļáĥĺáĥĽáĥĲáĥ¢": 7819,
      "áĥĲáĥĽáĥ¨áĥķáĥĺ": 7820,
      "Ġáĥ®áĥķáĥĲáĥĽáĥĲáĥłáĥĵ": 7821,
      "Ġáĥ£áĥĹáĥĲáĥłáĥĲáĥ¨": 7822,
      "ĠáĥĿáĥªáĥĲáĥĵ": 7823,
      "ĠáĥĻáĥĿáĥ¡áĥĽáĥĿáĥ¡": 7824,
      "ĠáĥĽáĥļáĥľ": 7825,
      "áĥĲáĥłáĥ§": 7826,
      "áĥĿáĥĳáĥĶáĥ¤áĥĺ": 7827,
      "ĠáĥĺáĥŃ": 7828,
      "ĠáĥĲáĥķáĥ¢áĥĿáĥĽ": 7829,
      "ĠáĥĽáĥĿáĥ¨": 7830,
      "áĥ¢áĥ£áĥłáĥĺ": 7831,
      "áĥĲáĥ¤áĥĲáĥļ": 7832,
      "Ġáĥĺáĥłáĥĺ": 7833,
      "áĥļáĥĲáĥķ": 7834,
      "ĠáĥķáĥĲáĥĴ": 7835,
      "Ġáĥ¢áĥĶáĥ¥áĥ¡": 7836,
      "ĠáĥĲáĥļáĥĶáĥ¥áĥ¡": 7837,
      "ĠáĥĿáĥĹáĥ®áĥĿáĥľáĥĶáĥ©áĥĵ": 7838,
      "áĥĺáĥłáĥĽ": 7839,
      "ĠáĥŀáĥĿáĥļáĥĺáĥ¢áĥĺáĥĻáĥ£áĥł": 7840,
      "ĠáĥĴáĥ·áĥĽáĥĲáĥĹáĥ£áĥĹáĥĲ": 7841,
      "ĠáĥĵáĥĺáĥľáĥĿáĥ®áĥĿáĥļáĥĶáĥľáĥĺ": 7842,
      "áĥĲáĥ¤áĥĿáĥľáĥĺ": 7843,
      "áĥĶáĥ¡áĥĺáĥ¨": 7844,
      "ĠáĥĻáĥĿáĥļáĥ£áĥĽáĥĳ": 7845,
      "ĠáĥĳáĥĿáĥł": 7846,
      "áĥĺáĥ¢áĥĲáĥĽ": 7847,
      "Ġáĥªáĥľ": 7848,
      "Ġáĥ¨áĥĶáĥ¥áĥ¡áĥŀ": 7849,
      "ĠáĥĳáĥĿáĥļáĥĺáĥķáĥĺáĥĲáĥ¨": 7850,
      "gruppe": 7851,
      "à¸²à¸ľ": 7852,
      "ĠFotos": 7853,
      "Ġgefunden": 7854,
      "400": 7855,
      "uchten": 7856,
      "ĠAust": 7857,
      "Ġà´İà´ķ": 7858,
      "De": 7859,
      "igar": 7860,
      "1964": 7861,
      "ĠSoftware": 7862,
      "Ġverkauf": 7863,
      "icro": 7864,
      "à¸¢à¸Ļà¸ķ": 7865,
      "Ġentscheiden": 7866,
      "Ġtats": 7867,
      "ĠPhil": 7868,
      "Ã¤ndig": 7869,
      "Ġaktuellen": 7870,
      "angel": 7871,
      "ĠRolle": 7872,
      "ksam": 7873,
      "Â»,": 7874,
      "liegen": 7875,
      "ĠÃ¤hn": 7876,
      "aschen": 7877,
      "ĠSl": 7878,
      "IS": 7879,
      "ĠIX": 7880,
      "ĠBru": 7881,
      "barkeit": 7882,
      "sex": 7883,
      "66": 7884,
      "Ġberech": 7885,
      "ĠRat": 7886,
      "ĠSozial": 7887,
      "Ġvorh": 7888,
      "1988": 7889,
      "Auch": 7890,
      "à¸ģà¸ĩà¸²à¸Ļ": 7891,
      "Ġwelches": 7892,
      "ĠhÃ¶her": 7893,
      "kor": 7894,
      "ĠLeute": 7895,
      "uster": 7896,
      "ĠDort": 7897,
      "ĠBaum": 7898,
      "à´®à´£": 7899,
      "à¸łà¸²à¸Ħ": 7900,
      "Ã¶ll": 7901,
      "ĠHamburg": 7902,
      "ĠGemeinde": 7903,
      "à´¨à´°": 7904,
      "ior": 7905,
      "à¹Ģà¸ł": 7906,
      "ĠZur": 7907,
      "pflich": 7908,
      "Ġà´ľà´¨à´Ļ": 7909,
      "ĠForum": 7910,
      "Adresse": 7911,
      "à´¹à´ļà´°": 7912,
      "ungsver": 7913,
      "ĠNot": 7914,
      "Ġà´Ĩà´Ĺ": 7915,
      "AM": 7916,
      "Ġsing": 7917,
      "à¸ĩà¸«": 7918,
      "eci": 7919,
      "Ġà´Ĵà´ķ": 7920,
      "ĠDeutschen": 7921,
      "âĨ": 7922,
      "teilt": 7923,
      "Ð½Ð°": 7924,
      "ĠLage": 7925,
      "ĠGesamt": 7926,
      "rick": 7927,
      "ÃŃnda": 7928,
      "rechen": 7929,
      "ĠExper": 7930,
      "Ġversch": 7931,
      "ĠÑĤ": 7932,
      "120": 7933,
      "à¹Ĥà¸¢": 7934,
      "à¸įà¸«": 7935,
      "ĠgewÃ¤hr": 7936,
      "ĠØ§Ù": 7937,
      "ĠFoto": 7938,
      "ĠSÃ¼d": 7939,
      "Ã¼nd": 7940,
      "fa": 7941,
      "åı": 7942,
      "à¸Ńà¸ĩà¸Ļ": 7943,
      "zeugen": 7944,
      "Ġerreichen": 7945,
      "hel": 7946,
      "à¸Ļà¹Ģà¸¥": 7947,
      "gebiet": 7948,
      "ĠØª": 7949,
      "ĠErfahrung": 7950,
      "ĠVergleich": 7951,
      "eces": 7952,
      "reff": 7953,
      "Ġesta": 7954,
      "ĠMitglied": 7955,
      "ĠOrganis": 7956,
      "ission": 7957,
      "Ġà´İà´£": 7958,
      "rol": 7959,
      "à¸¤à¸©": 7960,
      "wiesen": 7961,
      "àµģàµį": 7962,
      "ĠIS": 7963,
      "àµĪà´Ĥ": 7964,
      "ĠMÃ¤nner": 7965,
      "Ġerforderlich": 7966,
      "à´¯àµ¼": 7967,
      "ÐµÐ²": 7968,
      "hang": 7969,
      "ĠWh": 7970,
      "à´¤à´ķà´°": 7971,
      "ogen": 7972,
      "à¸ļà¸¥": 7973,
      "ĠModell": 7974,
      "Ġoptimal": 7975,
      "Man": 7976,
      "ĠTisch": 7977,
      "ĠRis": 7978,
      "Ġtot": 7979,
      "haltung": 7980,
      "ka": 7981,
      "ĠTod": 7982,
      "Da": 7983,
      "ĠHeil": 7984,
      "Ġverein": 7985,
      "bed": 7986,
      "Ġáĥ¥áĥĲáĥľáĥĹ": 7987,
      "ĠáĥĻáĥĺáĥłáĥªáĥ®": 7988,
      "áĥłáĥĶáĥ¨áĥ£áĥĽáĥĺáĥ¨": 7989,
      "ĠáĥŀáĥĿáĥłáĥ¢áĥ£áĥĴáĥĲáĥļáĥĺáĥĲáĥ¨": 7990,
      "ĠáĥĺáĥĶáĥłáĥ£áĥ¡áĥĲáĥļ": 7991,
      "ĠáĥļáĥĲáĥĺ": 7992,
      "ĠáĥĲáĥļáĥĽáĥĲáĥ¨": 7993,
      "Ġáĥĵáĥĺáĥ®áĥĲáĥ¨áĥľáĥ¬": 7994,
      "áĥĿáĥĳáĥŁáĥĲáĥĹáĥĶ": 7995,
      "ĠáĥŀáĥļáĥĲáĥľáĥĶáĥ¢": 7996,
      "áĥłáĥĺáĥĴ": 7997,
      "áĥĺáĥłáĥĲ": 7998,
      "áĥĿáĥļáĥĲáĥ¤áĥĺáĥłáĥĿ": 7999,
      "áĥĲáĥłáĥĹáĥ£": 8000,
      "ĠTran": 8001,
      "ĠáĥĽáĥĲáĥłáĥ«áĥĴ": 8002,
      "ĠáĥĲáĥĻáĥĿáĥ¥áĥĺáĥĽáĥĺáĥľáĥ·": 8003,
      "Ġáĥ¬áĥĲáĥłáĥĽáĥĶáĥĳáĥĲáĥ¨": 8004,
      "ĠáĥĴáĥĺ": 8005,
      "áĥĲáĥĳáĥĲáĥĵáĥĺ": 8006,
      "áĥ£áĥłáĥ¦áĥĿáĥłáĥĿáĥľáĥĹ": 8007,
      "ĠáĥĵáĥĿáĥĵ": 8008,
      "ĠáĥĳáĥĶáĥľ": 8009,
      "áĥĿáĥľáĥĲáĥ¨": 8010,
      "áĥ¤áĥĺáĥļ": 8011,
      "áĥĶáĥ¥áĥ¢áĥĺ": 8012,
      "ĠáĥĲáĥ¤áĥ·": 8013,
      "ĠáĥĴáĥĺáĥ¨áĥĲáĥłáĥĹáĥ·": 8014,
      "áĥĿáĥĸáĥĺáĥľáĥĵ": 8015,
      "Ġáĥĺáĥ¡áĥ¢áĥĿáĥłáĥĺáĥĲáĥ¡": 8016,
      "ĠáĥĽáĥĲáĥĵáĥ£áĥĵáĥĶ": 8017,
      "Ġáĥªáĥ®áĥĿáĥķáĥł": 8018,
      "ĠáĥĻáĥ£áĥľáĥ¢áĥĲ": 8019,
      "ĠáĥĴáĥĿáĥłáĥ©áĥ¥áĥĺáĥľáĥĵáĥ·": 8020,
      "áĥĲáĥĲáĥľáĥĹáĥ®áĥĺ": 8021,
      "ĠáĥĵáĥĿáĥ¦": 8022,
      "áĥĲáĥ¡áĥ£áĥł": 8023,
      "Ġáĥ¡áĥ¥áĥ£áĥĲ": 8024,
      "Ġáĥĵáĥĺáĥ®áĥĲáĥ¡": 8025,
      "ĠáĥĽáĥ£áĥľáĥĲáĥ©áĥĶáĥĽáĥĶáĥ¤áĥĺ": 8026,
      "ĠáĥĹáĥĶáĥ¯áĥĴáĥ£áĥłáĥĲ": 8027,
      "ĠáĥĲáĥĽáĥĵáĥ¦áĥĲ": 8028,
      "ĠáĥĽáĥĶáĥļáĥĲáĥ®áĥĺáĥ¡": 8029,
      "ĠáĥĽáĥĶáĥĹáĥĿáĥĵ": 8030,
      "ĠáĥĽáĥĶáĥŃáĥĶáĥĵ": 8031,
      "áĥĿáĥĿáĥłáĥ£áĥĶ": 8032,
      "áĥĺáĥļáĥĿáĥĳáĥĲ": 8033,
      "Ġáĥ¨áĥ£áĥł": 8034,
      "Ġáĥ¤áĥĲáĥ¥áĥ¢": 8035,
      "Ġáĥ¢áĥĺáĥ¢": 8036,
      "áĥľáĥ¢": 8037,
      "ĠáĥĿáĥĻáĥĺáĥĹáĥ®": 8038,
      "ĠáĥŃáĥĺáĥĹ": 8039,
      "ĠáĥĴáĥĺáĥ¨áĥĲáĥĻáĥĶáĥłáĥ«áĥĲáĥ¤áĥĺáĥļáĥĿ": 8040,
      "Ġáĥ¤áĥĶáĥĺáĥľáĥĽáĥĲáĥľáĥ¥": 8041,
      "áĥĺáĥĹáĥ®áĥĺáĥłáĥĺáĥ¨": 8042,
      "ĠáĥľáĥĿáĥĳáĥĶáĥļáĥĺáĥ¨": 8043,
      "áĥĿáĥĵáĥ·": 8044,
      "ĠáĥĵáĥĶáĥľ": 8045,
      "Ġáĥ¡áĥĲáĥĶ": 8046,
      "áĥĲáĥ®áĥĲáĥļáĥĺ": 8047,
      "ĠáĥĻáĥĿáĥĽáĥŀáĥĲáĥľáĥĺáĥĲ": 8048,
      "ĠáĥĽáĥĶáĥĽ": 8049,
      "ĠáĥľáĥĲáĥªáĥĺáĥĿáĥľáĥĲáĥļáĥ£áĥłáĥĺ": 8050,
      "áĥĲáĥ¢áĥĺáĥ¡áĥ¢": 8051,
      "ĠáĥĿáĥ¤áĥĺáĥłáĥ©": 8052,
      "ĠáĥŀáĥļáĥĲáĥ¢": 8053,
      "áĥ£áĥĲáĥ¥": 8054,
      "áĥĺáĥľáĥĶáĥ¤áĥĺáĥ¨": 8055,
      "áĥĲáĥľáĥ¢áĥĶáĥ¤áĥĺ": 8056,
      "ĠáĥľáĥĲáĥĻáĥĿáĥł": 8057,
      "ĠáĥłáĥĲáĥ®": 8058,
      "ĠáĥĸáĥĿáĥĴ": 8059,
      "ĠáĥĲáĥĽáĥĳ": 8060,
      "áĥ£áĥłáĥª": 8061,
      "ĠáĥĹáĥĲáĥłáĥĺáĥ¦": 8062,
      "áĥĺáĥļáĥĺáĥĸ": 8063,
      "Ġáĥ£áĥªáĥĺáĥĿ": 8064,
      "ĠáĥĲáĥĻáĥĿáĥĲáĥľáĥ¯áĥĲáĥł": 8065,
      "ael": 8066,
      "à´´à´ķ": 8067,
      "Ġstand": 8068,
      "iziert": 8069,
      "ĠEssen": 8070,
      "anlage": 8071,
      "ĠBitte": 8072,
      "fÃ¼hrer": 8073,
      "innt": 8074,
      "Î¹": 8075,
      "emin": 8076,
      "ited": 8077,
      "ĠHaar": 8078,
      "oo": 8079,
      "à¸Ĺà¸³à¸ĩà¸²à¸Ļ": 8080,
      "ĠJahrh": 8081,
      "Ġwider": 8082,
      "à¹ģà¸ªà¸Ķ": 8083,
      "à´°à´µà´§": 8084,
      "cias": 8085,
      "Ġzw": 8086,
      "250": 8087,
      "Ã¤uft": 8088,
      "rÃ¡": 8089,
      "frist": 8090,
      "Ġentwickelt": 8091,
      "Ġmeist": 8092,
      "Ġà´Ĭ": 8093,
      "ĠZoll": 8094,
      "Ġà´¤à´³": 8095,
      "ĠHaut": 8096,
      "à¸Ńà¸ĩà¸¡": 8097,
      "Ġgra": 8098,
      "à¸ŀà¸§à¸ģ": 8099,
      "Ġà´ħà´£": 8100,
      "ĠPass": 8101,
      "Ġbem": 8102,
      "Ġdeshalb": 8103,
      "àµ»à´¡": 8104,
      "Ġenthalten": 8105,
      "Ġprakti": 8106,
      "ĠDieser": 8107,
      "fekt": 8108,
      "ĠProduktion": 8109,
      "à¹ģà¸ľ": 8110,
      "Ġbefindet": 8111,
      "Ġà´ıà´ķ": 8112,
      "herapie": 8113,
      "Ġvorher": 8114,
      "hre": 8115,
      "à¸²à¸Ńà¸¢": 8116,
      "Ã¤ndert": 8117,
      "ĠTipp": 8118,
      "Ġanderem": 8119,
      "Ã¼tzen": 8120,
      "ĠÃĸff": 8121,
      "ĠfrÃ¼her": 8122,
      "usch": 8123,
      "arr": 8124,
      "Ġdeutsche": 8125,
      "ĠZimmer": 8126,
      "pack": 8127,
      "ane": 8128,
      "iÃ³ns": 8129,
      "wÃ¤r": 8130,
      "Ġglau": 8131,
      "aÃ±": 8132,
      "uell": 8133,
      "ĠÃº": 8134,
      "à´ī": 8135,
      "ĠzunÃ¤chst": 8136,
      "ĠIndustrie": 8137,
      "95": 8138,
      "ÐµÐ´": 8139,
      "110": 8140,
      "schriften": 8141,
      "ĠProbleme": 8142,
      "âĢľ-": 8143,
      "ÃŃs": 8144,
      "ĠÐ·": 8145,
      "à¹Ģà¸§à¸¥à¸²": 8146,
      "ĠInteresse": 8147,
      "volle": 8148,
      "àµĭ,": 8149,
      "gien": 8150,
      "Ã¤ude": 8151,
      "Ã¼gen": 8152,
      "ĠPorno": 8153,
      "Ġmusste": 8154,
      "omin": 8155,
      "Ġerfolgreich": 8156,
      "Ġindem": 8157,
      "ĠKÃ¼che": 8158,
      "bew": 8159,
      "bank": 8160,
      "à´Ĺà´£": 8161,
      "ĠSpieler": 8162,
      "ĠVoll": 8163,
      "ĠKlei": 8164,
      "ĠwÃ¼n": 8165,
      "ille": 8166,
      "Ġvergangen": 8167,
      "ĠSeit": 8168,
      ")[": 8169,
      "wertung": 8170,
      "elte": 8171,
      "nete": 8172,
      "à¸ĩà¸Ń": 8173,
      "ĠGruppe": 8174,
      "ĠÃĸsterreich": 8175,
      "à¸ĩà¸Ĥà¸Ńà¸ĩ": 8176,
      "Ġà´īà´±à´ª": 8177,
      "ĠBon": 8178,
      "à¸Ļà¸Ī": 8179,
      "ĠPaul": 8180,
      "Ġph": 8181,
      "ĠGesprÃ¤": 8182,
      "ĠUnterstÃ¼tzung": 8183,
      "ĠMitglieder": 8184,
      "tiger": 8185,
      "Ġhohe": 8186,
      "ĠMutter": 8187,
      "ÑĥÑİ": 8188,
      "à¸ªà¸²à¸§": 8189,
      "reisen": 8190,
      "72": 8191,
      "Ġáĥ¢áĥĺáĥĽáĥĿáĥłáĥĺáĥ¨": 8192,
      "ĠáĥłáĥĶáĥĻáĥĿáĥłáĥĵ": 8193,
      "áĥ£áĥ¬áĥĻáĥ·áĥĽáĥĲ": 8194,
      "ĠáĥĽáĥĲáĥłáĥĽ": 8195,
      "Ġáĥłáĥĺáĥªáĥ®áĥ£": 8196,
      "áĥĴáĥĲáĥ¡": 8197,
      "Ġáĥ©áĥĲáĥľáĥĲáĥłáĥĺ": 8198,
      "áĥłáĥĲáĥľáĥ¡áĥŀáĥĿáĥłáĥ¢": 8199,
      "áĥĲáĥĲáĥłáĥĹáĥĺ": 8200,
      "áĥ£áĥļáĥĺáĥłáĥĺ": 8201,
      "áĥ°áĥĺ": 8202,
      "ĠáĥĿáĥłáĥĴáĥĲáĥľáĥĺáĥĸáĥĽ": 8203,
      "áĥĺáĥĿáĥľáĥ¨áĥĶ": 8204,
      "áĥĲáĥłáĥ¨áĥĲ": 8205,
      "Ġáĥ¡áĥĶáĥľáĥ¢": 8206,
      "reite": 8207,
      "áĥĶáĥľáĥĵáĥĺáĥ¨": 8208,
      "áĥĲáĥľáĥĴáĥĺ": 8209,
      "Ġáĥ¸áĥ£áĥĵ": 8210,
      "ĠáĥĵáĥĺáĥĵáĥĲáĥłáĥĺ": 8211,
      "ĠáĥĽáĥĺáĥ¨áĥ·": 8212,
      "áĥĶáĥ¡áĥ¢áĥĺáĥķ": 8213,
      "ĠáĥĸáĥĿáĥ®áĥĿáĥłáĥĺáĥľáĥĶáĥļ": 8214,
      "Ġáĥ¢áĥ£áĥłáĥĺáĥ¡áĥ¢": 8215,
      "ĠRestaur": 8216,
      "ĠáĥĽáĥ£áĥľáĥ": 8217,
      "Ġáĥ©áĥ®áĥĿáĥłáĥĿ": 8218,
      "ĠáĥĽáĥĶáĥľáĥªáĥĲáĥłáĥĿáĥĳáĥĲ": 8219,
      "ĠáĥĿáĥłáĥĴáĥĲáĥľáĥĺáĥĸáĥĲáĥªáĥĺáĥĲ": 8220,
      "Ġáĥ¤áĥĲáĥľáĥĺáĥĲáĥ¨áĥĶ": 8221,
      "ĠáĥĲáĥĳáĥĲáĥľáĥĿáĥĳáĥ£áĥłáĥĺ": 8222,
      "áĥĽáĥĶáĥ®": 8223,
      "ĠáĥĴáĥĲáĥł": 8224,
      "ĠáĥĺáĥĿ": 8225,
      "áĥĿáĥľáĥĲáĥ¡": 8226,
      "áĥĺáĥľáĥľ": 8227,
      "áĥĶáĥľáĥĶáĥ¤áĥĺ": 8228,
      "Ġáĥļáĥ£": 8229,
      "ĠáĥŀáĥłáĥĲáĥ¥áĥ¢": 8230,
      "ĠáĥĴáĥĺáĥľáĥĿáĥĸáĥĺáĥľáĥĵ": 8231,
      "áĥĺáĥľáĥ¯áĥĺ": 8232,
      "ĠáĥĴáĥķáĥĲáĥļáĥĲ": 8233,
      "ĠáĥĲáĥłáĥĺáĥ¡áĥ¢": 8234,
      "ĠáĥĿáĥľáĥĿáĥ¦": 8235,
      "áĥĶáĥĽáĥĳáĥĶáĥłáĥĺ": 8236,
      "ĠáĥĴáĥĺáĥľáĥĿáĥĸáĥĺáĥľáĥĵáĥĺáĥļáĥĺ": 8237,
      "áĥĲáĥłáĥĹáĥĶ": 8238,
      "áĥĶáĥļáĥĲáĥĴ": 8239,
      "Ġáĥ¢áĥĲáĥł": 8240,
      "ĠáĥĲáĥĻáĥĲáĥľáĥĺ": 8241,
      "áĥĺáĥŀáĥĶáĥļáĥĲáĥĴ": 8242,
      "áĥĺáĥ¯áĥĴ": 8243,
      "Ġáĥ¢áĥłáĥĲáĥľáĥ¡": 8244,
      "ĠáĥĽáĥ£áĥĵáĥĴáĥĲáĥĸ": 8245,
      "áĥ®áĥĶáĥĹáĥĺáĥ¨": 8246,
      "áĥĻáĥĲáĥļ": 8247,
      "áĥļáĥĶáĥ¥áĥ¡": 8248,
      "Ġáĥ¤áĥĿáĥļ": 8249,
      "Ġáĥ¤áĥ£áĥłáĥĹáĥ£áĥĹáĥĲáĥ¡": 8250,
      "áĥĺáĥ¢áĥĺáĥ¨": 8251,
      "áĥĿáĥ¢áĥļáĥĲáĥľáĥĵ": 8252,
      "ĠáĥĲáĥ®áĥĲáĥ¡áĥĺáĥĲáĥĹ": 8253,
      "áĥĲáĥŃáĥĲáĥłáĥĲ": 8254,
      "ĠáĥĻáĥĿáĥĽáĥŀáĥļáĥĶáĥ¥áĥ¡": 8255,
      "ĠáĥĿáĥĻáĥĺáĥĲáĥľáĥĶ": 8256,
      "áĥĽáĥĲáĥĲáĥłáĥĹáĥĲ": 8257,
      "áĥĲáĥ¦áĥĲáĥļáĥĲ": 8258,
      "ĠáĥĹáĥ£": 8259,
      "áĥĶáĥļáĥĶáĥ¤áĥĺ": 8260,
      "áĥĶáĥ¢áĥł": 8261,
      "Ġáĥ¥áĥĺáĥĲáĥľáĥĶáĥ¤áĥ¡": 8262,
      "ĠáĥĴáĥķáĥĺáĥľáĥĶ": 8263,
      "áĥ£áĥĻáĥĺ": 8264,
      "ĠáĥĿáĥ¤áĥĺáĥªáĥĺáĥĲáĥļáĥ£áĥłáĥĿ": 8265,
      "Ġáĥĺáĥ¢áĥĲáĥļ": 8266,
      "ĠáĥĴáĥ£áĥłáĥĲáĥ¤áĥĲ": 8267,
      "Ġáĥ¦áĥĲáĥľáĥĻáĥĺáĥĹ": 8268,
      "áĥĲáĥľáĥĶáĥł": 8269,
      "áĥĺáĥĽáĥŀ": 8270,
      "Ġáĥ¯áĥĿáĥľ": 8271,
      "Ġ-----": 8272,
      "ĠáĥĲáĥłáĥĳ": 8273,
      "Ġáĥĺáĥ¡áĥ¢áĥĿáĥłáĥĺáĥĲáĥ¨": 8274,
      "ĠáĥĴáĥĿáĥĽáĥĿáĥłáĥ«áĥĴ": 8275,
      "ĠáĥĻáĥĿáĥľáĥĴáĥĿáĥ¨": 8276,
      "ĠáĥĲáĥľáĥ¯": 8277,
      "áĥĲáĥĲáĥłáĥĹ": 8278,
      "áĥĺáĥĲáĥ¬áĥĻáĥ·áĥĽáĥĲ": 8279,
      "¬áĥ£áĥĽ": 8280,
      "áĥĺáĥľáĥĲáĥļáĥĿ": 8281,
      "ĠáĥĴáĥĺáĥĿáĥ": 8282,
      "ĠáĥĻáĥļáĥĲáĥłáĥ¯áĥĶáĥĹáĥĺáĥ¡": 8283,
      "Ġáĥ£áĥ¯áĥķáĥĶáĥ¨áĥĲáĥ¨áĥĺ": 8284,
      "ĠMensch": 8285,
      "sei": 8286,
      "Ġjeweiligen": 8287,
      "indestens": 8288,
      "ĠErk": 8289,
      "minister": 8290,
      "Ġverz": 8291,
      "ĠSuper": 8292,
      "Ġganzen": 8293,
      "ĠNutzer": 8294,
      "à¹ģà¸Ļ": 8295,
      "laden": 8296,
      "sident": 8297,
      "wissen": 8298,
      "à¸ļà¸¡": 8299,
      "à¸Ħà¸§à¸£": 8300,
      "Ġanzu": 8301,
      "ĠEst": 8302,
      "lass": 8303,
      "deutet": 8304,
      "immung": 8305,
      "kom": 8306,
      "unta": 8307,
      "digt": 8308,
      "neten": 8309,
      "Ġà¸«à¸¡": 8310,
      "ĠUrlaub": 8311,
      "mitteln": 8312,
      "à¸Ļà¹Ģà¸Ķ": 8313,
      "à¨": 8314,
      "hilfe": 8315,
      "71": 8316,
      "bedingungen": 8317,
      "IE": 8318,
      "ĠWel": 8319,
      "ĠMalayalam": 8320,
      "ituation": 8321,
      "Ġcun": 8322,
      "ĠMÃ¶glichkeiten": 8323,
      "ĠFÃ¤l": 8324,
      "à¸Ļà¸Ħà¸£": 8325,
      "%.": 8326,
      "à¹Ģà¸¨à¸©": 8327,
      "andes": 8328,
      "à´¶à´¯": 8329,
      "ĠBlack": 8330,
      "à¹ĥà¸ķ": 8331,
      "ibl": 8332,
      "kennen": 8333,
      "Ġbestehen": 8334,
      "ĠSP": 8335,
      "Ġà´Ĩà´µ": 8336,
      "à¹Ģà¸ģà¸¡à¸ª": 8337,
      "à¸Ļà¸«à¸Ļ": 8338,
      "fr": 8339,
      "decken": 8340,
      "ars": 8341,
      "Ġbelieb": 8342,
      "zeigt": 8343,
      "ĠHause": 8344,
      "Ġà´ªà´ķà´°": 8345,
      "eisen": 8346,
      "wegs": 8347,
      "verstÃ¤nd": 8348,
      "gliche": 8349,
      "ĠTor": 8350,
      "uz": 8351,
      "Ġà¸¨": 8352,
      "obo": 8353,
      "ĠPrivat": 8354,
      "à¸ĩà¸Ĭ": 8355,
      "Ã¤tzen": 8356,
      "Ġeinigen": 8357,
      "Ã¶lker": 8358,
      "à´·à´£à´¤": 8359,
      "ĠSmart": 8360,
      "va": 8361,
      "reiten": 8362,
      ".).": 8363,
[...]
