#version: 0.2
Ã ª
Ã ®
Ġ d
a n
Ġ b
e r
Ã »
i n
Ġ Ø
Ġ k
Ø §
i r
a r
Ãª n
Ġ h
Å Ł
Û Į
Ġ Ã»
Ġd i
Ġ Ù
Ġb i
e k
Ġ j
i y
Ø ±
Ġ n
Ġd e
Ġ l
Ġ m
Ù Ī
Ù Ĩ
Ġ p
w e
Ġ s
Ù ĩ
Ġ r
Ġ t
Ġk u
s t
Ã® n
Ġ e
Ġ x
Ġ y
Ġ w
e t
Ø ¯
e y
a l
Ġ g
Ġl i
a t
Ġ Ã
Ġj i
e n
Ø ª
e m
Ġx we
e l
Ù ħ
a v
Ġ v
a y
â Ģ
Ù Ħ
Ú ©
ĠØ §
u r
ir in
Ġ c
Ġ a
ĠÃ §
Ġ K
ĠØ ¯
Ø ³
e s
e v
ĠØ ¨
Ġ z
iy a
Ġj Ã®
Ġs er
o r
ĠÙ ħ
i l
Ã® y
a m
an Ãª
o n
Ã» n
i m
Ġ E
Ø§ ÙĨ
Ġb er
Ġ D
e w
ÅŁ t
e h
e b
iy Ãª
an d
e d
Ã® r
Ġ ÅŁ
i st
Ġ B
Ġ S
Ø ²
ĠÙ Ī
a s
Ġ Ú©
ur d
Ø ¨
Ġp Ãª
Ø ´
Ġy a
Ġdi k
Ġ H
Ã §
ĠK urd
Ù Ĭ
Ġ M
Ġm e
i k
o k
i v
Ġn av
a k
i h
Ġ q
Ġr e
Ġ A
Ġd a
Ãª r
a z
Ã® k
Ġh er
Ġ T
ek e
Ġd er
a d
t in
Ø§ Ø±
Ġbi k
ek Ã®
Ġb o
i ÅŁt
o l
Ġw Ãª
Ø§ ÛĮ
Ġ f
Ġh at
Ġn e
o j
Ġ P
u n
ĠØ ª
Ú ¯
o m
d Ã®
Ġku r
ar Ãª
Ġk ir
i s
Ãª k
an Ã®
Ġv Ãª
Û Ĳ
Ġw an
Ã® s
Ġ L
ĠÙ ¾
. .
Ã» r
ay Ãª
Ġe w
Ġb Ã»
ĠÙ Ĩ
Ġ we
Ġ âĢ
Ġ R
Ġg el
b e
Ġy e
Ġr a
Ġde st
Ù ģ
ey a
Ġ (
e z
e ÅŁ
Ġh em
Ø³ Øª
d e
et a
ĠÙ ĩ
k irin
Ãª j
ĠØ ³
o t
an a
ĠØ ±
iy e
Ã ©
Ġb a
b er
and in
âĢ Ļ
Ġy Ãªn
ĠØ ´
i t
Ãª z
Ġv e
a h
Ġ N
ir k
Ø ¹
Ġ Ú
g er
o v
i b
ÛĮ ÙĨ
en d
Ġ al
d ar
Ġg ir
Ġde m
Ġw Ã®
ek Ãª
ĠKurd ist
ey Ãª
Ġk irin
Ġb Ãª
Ġh ev
Ø Į
Å ŀ
Ġm in
ĠØ¯ Ø±
Ġp ir
Ø ®
g ir
Ġ G
Ġt Ãª
Ã® ÅŁ
m an
iy Ãªn
Ù Ĥ
ĠØ ®
y a
ĠÃ İ
ÙĨ Ø¯
Ġe m
Ġ C
Ġl Ãª
a b
Ġs al
Ġr oj
Ã®n a
Ġe v
Ã® l
Ã®n e
ĠpÃª ÅŁ
Ø§ ÙĦ
Ġkur d
ÙĪ Ø±
Ġdi b
Ġ J
Ø§ Ùħ
ĠØ ¢
Ã® t
er Ãª
Ã®y a
âĢ Į
Ġd in
Ġb in
Ġk es
ĠØ¨ Ùĩ
Ġr Ãª
x w
âĢ Ŀ
Ã® st
a ÅŁ
Ġ Ãª
i z
ar a
Ġy Ãª
Ø ¬
ÙĪ Ø¯
r a
ĠKurdist anÃª
Ø§ Ø¯
ih a
i ÅŁ
en g
e f
Ġe n
g eh
Ġ Y
d a
x we
u s
Ã® m
iy an
ĠD i
ey Ãªn
Ã®n in
Ø Ń
Ġ Åŀ
r o
ĠâĢ ľ
Ãª m
ĠØ¨ Ø§
ar t
u l
Ġdik e
i j
iÅŁt Ã®
Ġb ir
ĠT irk
Ġ an
ÙĪ ÙĨ
ÛĮ Ø¯
in a
Ġ X
r e
Ġ W
Ġz im
Ġ F
Ġ av
Ġbik in
ĠÙ Ħ
Ġy ek
en t
u h
Ġdi j
y ar
Ġde w
b Ã»n
er d
a f
Ã®y Ãª
et Ãª
iv Ã®s
ĠØ§ Ø²
ĠJ i
xw az
ir ov
Ġ in
Ã®n Ãª
Ġk ar
an Ãªn
ĠÙ ģ
z in
ĠÚ Ĩ
ĠØ ¬
2 0
Ġm al
a w
Ãª d
Ù ¾
Ġb Ã»n
ĠØ¨ Ø±
ÛĮ Ø±
Ġg ot
Ø µ
in e
ay Ã®
ar an
c h
e q
Ġd u
ĠÙħ ÛĮ
en Ãª
Ãª ÅŁ
Ġ ÛĮ
o z
Ġdik in
e st
n d
Ġe z
y Ãª
l at
Ġh in
Ø§ Øª
Ġbik e
ĠØ ¹
ÙĪ ÙĦ
Ġh ey
e x
ar Ã®
Ġme zin
Ġt ev
Ã® d
Ġdew l
x ist
Ġbi b
Ġgel ek
Ġm irov
er Ã®
ĠØ± Ø§
.. .
Ã® h
er m
Ġw ek
Ġra st
Ġhem Ã»
Ġc iv
ĠØ§ Ø³Øª
Ø ·
o tin
ĠpÃª k
y Ã®
ĠL i
Ú ĵ
ĠØ§ ÙĪ
ar Ãªn
em a
ĠØ Ń
e c
Ġ o
Ġd Ãª
Ġ Ú¯
Ġd an
s a
y on
t ir
1 9
er Ãªn
Ġwe lat
Ġ I
Ø± Ø¯
Ø º
Ã® z
ĠÃ ĩ
ĠÙ¾ Ùĩ
u t
ĠÚ© Ùĩ
kirin a
Ø§ Ùĩ
Ġ Z
Ġk om
Ã» m
a x
v Ãª
Ġ -
un d
Ġh Ãª
Ġb e
Ġg or
Ġder b
Ġ Q
ĠÙ Ĥ
Ã» k
Ø§ Ø¨
Ġn ivÃ®s
Ġp ey
ĠÃ§ i
Ġp er
Ġt u
s Ã®
Ġ Ãªn
Ġv an
at a
Ġ O
m er
t Ã®
p er
l e
ĠØ ²
ĠE w
Ġ "
Ġh Ãªz
Ġb el
Ġdi be
l a
i on
Ġt Ãªk
Ġnav Ãª
ĠE v
ay a
Ġn Ã»
Ġba j
Ä ±
d in
y e
u m
Ġz an
ĠL Ãª
ew l
Ġt iÅŁt
Ø± ÛĮ
b et
o s
ar e
ÙĦ ÛĮ
Ġw er
ĠB i
Ġp ar
e j
ĠÃ§ ar
h il
en e
e we
ĠØ§ ÛĮÙĨ
ĠÅŁ er
m a
Ø± ÙĪ
r an
Ġkur dÃ®
z ad
Ġj in
Ã®r ok
n am
i c
irin a
k et
al a
ew ÅŁ
Ġk e
a p
y an
o g
D i
n g
r at
ĠR oj
ĠÙĩ Ùħ
Ġx w
er ok
Ġt e
Ġdem a
ar in
ĠS Ã»r
Ø§ Ø³
Ġh il
Ġs iya
Ġhey e
Ġda w
ÛĮ Ùħ
l Ã®
Ġh eb
Ġg otin
in d
ib Ã»
b Ã»
l Ãª
Ġdib Ãªj
Ġl a
Ġdi vÃª
g ih
Ġdij Ã®
Ø§ Ø²
av a
ĠE r
Ġhat iye
i w
an e
ÙĪ ÛĮ
Ġw iha
Ġba ÅŁ
i q
Ġe t
Ġher Ãªm
Ġc ih
Ġa m
Ġm a
Ġs ed
er a
ar ok
Ġx eb
v e
o ÅŁ
20 1
Ġdi yar
Ġa x
tin a
Ġr ewÅŁ
Ġal iyÃª
Ġ Ãªr
Ġs t
xist in
Ġa w
Ã»n a
o p
Ġd Ã®
k Ã®
Ġl e
as Ã®
Øª Ø±
ir s
i d
0 0
Ġher Ã®
i f
Ã®y e
w er
Ġt enÃª
Ġy ekÃª
an t
Ġq u
at Ãª
Ġb eÅŁ
Ġgel Ãª
man c
Ġd ay
Ġv Ã®
Ġsal a
ay bet
Ġm il
Ġh ez
h at
Ġh Ã»n
Ġt Ãªn
ÙĪ Ùħ
L i
k er
ey an
Ġbi be
Ġzim anÃª
Ø¯ Ùĩ
a j
ra q
Ġa zad
Ġh eta
Øª Ùĩ
Ġciv ak
av Ãª
m ed
am Ãª
Ġ Â
Ġp iÅŁt
Ġ Ã®r
Ġh el
Ġhat in
ĠE m
Ã®ÅŁ an
bÃ»n a
Ġn et
d Ãª
Ġdi xwaz
Ġh ene
Ø ¶
t e
mer Ã®k
ir Ã®
Ġt aybet
Ġw ekÃ®
an an
a c
o ur
y ayÃª
Ġn iha
on t
Ø± Ùĩ
ey Ã®
Ġp r
Ġj iy
Ġp art
Ã®n g
Ġz arok
Ġp iÅŁtÃ®
ay Ãªn
ÙĪ Ø²
k ar
ol Ãª
Ã» s
Ġk et
Ġ V
Ġnav a
andin a
Ġpir s
et Ãªn
Ġ un
Ġn a
ev e
ĠH er
r anÃª
Ġ ar
Ã®r Ãª
ĠØ§ Ùħ
Ġ ...
Ã İ
Ġc Ã®h
Ġ Ã®
Ġen c
Ġkurd an
ÙĨ Ú¯
k Ãª
Ãª de
am a
Ùĩ Ø§ÛĮ
ÙĪ Ø§ÙĨ
geh a
or a
b i
Ġde ng
Ã®y Ãªn
or Ãª
Ġg und
Ã® v
a g
al Ãª
Ġber d
Ø§ Ø´
Ġhem ber
Ġd ir
Ġj Ãª
Ġde s
ĠÃ ł
Ġzim an
Ġn as
Ġx el
. âĢĿ
ĠÃ§ end
Ġn Ãªz
Ġd Ã®rok
Ã ¨
Ġhat ine
ek irin
ĠÃªr Ã®ÅŁ
Ġnav ber
Ġber Ãª
ÛĮ Øª
Ġr Ã»
ĠÚĨ ÛĲ
ĠbÃ» ye
ÙĦ Ùĩ
Ġ Ã®n
n a
Ø³ ÛĮ
Ãª v
Ã®y an
Ġt irk
Ġz Ãªde
Ġn eb
ĠØ µ
el Ãª
Ġn ik
t a
p Ãªk
Ġt em
Ġ er
Ġt er
Ġg uh
Ġde v
ĠØ¯ Ø§ÙĨ
ĠÚ© ÛĲ
Ġw eke
Ùħ Ø§ÙĨ
i x
Ã» l
o st
ĠÙĩ Ø§ÛĮ
ĠKurd an
ok rat
ek a
ĠÃ§ av
Ã®n Ã®
i g
Ġk o
ĠØ¢ ÙĨ
Ø§Ø± ÛĮ
n e
Ġser ok
en c
Ú Ĩ
Ã§ e
Ġkir iye
en a
al ak
l am
Ġdi g
f r
ĠÃ®r o
Ġxwe nd
Ġkes Ãªn
Ã®s a
Ġdi de
ĠØ§ ÙĨ
ÙĦ Ø§
Ġnavber a
as yon
Ġdi l
e p
is a
Ġm er
Ú© ÛĮ
Ø± Ø§
Ùĩ Ø§
ĠX we
in g
em Ã®n
Ùģ Øª
raq Ãª
t Ãª
Ġk Ãªm
ĠhÃªz Ãªn
Ġl eÅŁ
ĠÃ§ Ãª
Ġm ij
âĢ ¦
d an
b ij
Ġser Ãª
Ã»r Ãª
ĠÃİ ranÃª
aw a
Ġdem Ãª
K K
Ġhat e
h a
Ġy an
x an
Øª ÛĮ
Ġm af
ĠKurd Ã®
u x
iy eyÃª
Ġl es
o ya
al an
ĠA merÃ®k
z an
ĠÙħ ÙĨ
Ġt un
Ġb Ã®r
in Ãª
Ġc ar
Ú «
Ġh ew
Ġbib in
ĠÙħ ÙĪ
xwe ÅŁ
es er
Ġdest Ãª
ĠØ ·
Ġgir tin
Ġbi de
ĠK om
Ġm eh
m et
al Ãªn
an s
Ġder ket
Ġsiya sÃ®
ev in
ĠÃ§ alak
ĠE z
em ent
Ġe s
Ġn ak
an g
Ġku ÅŁt
t er
Ġb al
Ġbi h
Ø ¸
u e
Ġx o
ir Ãª
Ġ ,
J i
az Ã®
be st
o b
Ġdaw Ã®
t Ã»k
Ġn ed
ĠØ® ÙĪ
ĠØª Ø±
ar iya
Ġal Ã®k
ĠS erok
ĠØ¨Ø± Ø§ÛĮ
dar Ã®
ĠP KK
ĠâĢ ĺ
Ġxwe dÃ®
Ġp ro
Ø °
p irs
Ġgor Ã®
h em
Ġba wer
at Ãªn
ĠA l
ĠE l
ar tin
Ġn ek
on a
Ã ¤
Ã» b
a q
u k
Ġzan Ã®n
or Ã®
Ø ¦
or eÅŁ
an iya
Ġroj a
Ġder d
Ġgir Ã®ng
ĠØ§ ÙĦ
ĠØª Ùĩ
ĠÚ© ÙĨ
Ġhil bij
Ø§Ø± Ùĩ
ger a
Ġp ol
s er
ad e
we st
d ana
Ġdest pÃªk
Ø§ÙĨ ÛĮ
Ġp aÅŁ
ĠdibÃªj e
ĠÚ© Ø§Ø±
Ġn eh
ĠâĢ ĵ
i e
ĠÃ§ ek
Ġbi l
et Ã®
o u
ĠØ§ Ùģ
o us
Ġg er
ara st
r Ãª
f ir
ĠØ º
am Ãªn
ĠÙĦ Ùĩ
Ġda x
p Ãª
Ġjiy ana
ĠN av
Ġberd ew
m Ãª
ĠD em
Ø§ Ú©
Ġen d
Ø® Øª
Ġbaj arÃª
u da
Ġdib in
ew Ã®
ĠTirk iyÃª
Ġz Ãªd
Ġv ir
Ġb Ãªn
ay e
ĠtÃªk il
arÃª z
Ġd ar
1 0
at ion
Ġdewl eta
em Ãª
Ġw isa
ĠÃİ s
Ġra gih
Ġda xwaz
Ġdik are
ak irin
gir Ãªk
Ġa g
r Ã®
ak ur
Ġmal b
Ġs Ãª
ib Ã»n
u d
ĠÚ© Ø±Ø¯
ir e
ĠÙħ ØŃ
Ġbi din
ĠØ¯ ÛĮ
Ġav a
u yan
iy eke
Ø§Ø¯ Ùĩ
Ġz Ã®
o yÃª
ik Ã»m
Ú¯ Ø±
ÙĪ Ùĩ
Ġh un
ĠÃ§ar eser
ĠÃ§ Ãªk
Ġdik arin
ÛĮ ÙĦ
k ÃªÅŁ
Ġderb arÃª
Ø «
ah Ã®
Ã®k Ã®
Ġa st
ĠrewÅŁ a
Ġpir tÃ»k
Ã®n Ãªn
ĠÃ§ awa
Ø´ ÙĨ
Ø³Øª Ø§ÙĨ
Ġe ÅŁ
) ,
f er
c e
or t
g r
w Ã®st
Ġh es
Ġgir Ãªd
Ġ U
ÛĮ Ø§
Ø§Ùħ Ùĩ
Ġk on
Ú ĺ
ĠÃ Ĭ
D P
Ġderb as
Ġhem an
er s
ĠE fr
Ġwer e
Ø² ÛĮ
Ġsiya s
iv Ãª
Ġkirin e
ĠÅŁ erÃª
Ġxwe st
Ġhin ek
Ã ¼
eh Ã®d
ir x
Ġp Ã®r
ol a
Ġp l
n et
ĠS t
ĠØª ÙĪ
Ġbel av
Ġx ist
Ġ .
Ġe st
ĠI raqÃª
Ø§ÙĨ Ùĩ
i be
ĠB ar
Ġberdew am
Ø¨ Ø±
ĠØ¯ Ø§Ø±
ĠY ek
y Ãªn
ewe yÃ®
z anÃ®
Ø± Ùħ
Ġe l
okrat Ã®k
iy ar
ej m
Ġr eng
h ev
d u
ĠØ§ Ø³
ik Ãª
Ġbik ar
ĠÙ Ĭ
m e
Ġsal an
Ġs Ã®n
t iya
ĠÙĨ Ùħ
Ġrast Ã®
Ġd Ã»r
ĠØ¢ Ùħ
ÙĦ ÙĪØ¯
Ġwe ÅŁ
geh Ãª
ĠpÃª v
Ġpirs girÃªk
Ãª b
ĠØ® ÙĪØ¯
ĠØ± ÙĪ
im a
iz g
ĠD A
ro p
ĠB er
Ġq ed
ĠbÃ»n e
en Ã®
Ġv ek
Ġxwe ÅŁ
ĠA r
ĠrÃª xistin
hil at
Ġdik ir
i p
et ir
Ġ :
ĠKurdist an
ĠdÃ® tin
o d
k a
ef t
ĠE n
ÙĪ ÙĬ
Ġp our
Ġk Ãª
el a
ĠleÅŁ k
Ġb eh
Ġq et
ĠÙ¾ Ø±
Ø§ÛĮ ÛĮ
Ġdixwaz in
ĠÙĪ Ø±
u z
Ġgir t
Ġr ad
Ã» d
ĠG el
Ġn Ã®ÅŁan
Ãªk ol
ĠÃ§ and
Ġdewl et
de st
al Ã®
Ġr Ãªz
ĠÃ ©
1 2
ÙĨ ÛĮ
s an
en dÃ®
Ġaw ay
w erd
Ġda g
Û ±
ĠÙ ĥ
Ġar manc
ĠtÃªk oÅŁ
end a
ĠÃª dÃ®
ĠSÃ»r iyÃª
ĠØ Į
ĠÂ «
b d
Ø² Ø§Ø±
ĠÙĨ ÛĮ
ĠcÃ®h anÃª
Ú ļ
ĠbÃ» y
ĠÛĮ Ú©
q as
ĠB aÅŁ
Ã® j
âĢ ľ
ĠH erÃª
ĠpÃªv aj
ĠÚ ħ
Ġdi din
ÛĮ Ø´
Ú¯ Ø§Ùĩ
Ġh ewl
m in
Ùħ Ø§
1 5
Ãªj e
Ġbil ind
s Ãª
ol oj
u b
ĠÃ§ ap
iy ek
Ġp arast
Ġbi g
en b
ĠpÃª wÃ®st
ĠÙħ Ø¹
g e
Ãª x
v eb
Ã© s
Ã® f
Ġt ek
Ġd Ã®sa
ĠÅŁ oreÅŁ
en o
k u
Ġ |
ĠÙĨ Ùĩ
Ġdi hat
Ġq eb
ĠTirk iyeyÃª
Ġnav Ã§
ĠdibÃªj in
Ġc iw
Ġber hem
ĠS er
ĠÙħ Ø´
Ġdi lÃª
Ġdi m
ĠØ¨ ÙĪØ¯
ĠÃ§ Ã»
Ú ĸ
Ġroj nam
Ġk ev
Ġhember Ã®
Ġf erm
Ġs az
Ġ anÃ®
r es
D K
20 0
Ø§ ÙĬ
ĠØ¯ ÙĪ
bÃ»n Ãª
Ġn am
v an
Ġm es
Ġdax uyan
Ġdir Ãªj
Ã®n dar
ĠÙħ Ø±
B i
Ã®k a
Ġf er
ÙĪÙĨ Ùĩ
Ø± Ùģ
Ãªj in
ĠØ¯ Ùĩ
ĠpiÅŁt gir
ĠÃ Ľ
. "
Ãªr Ãª
xist ina
ĠâĢ Ŀ
Ġc aran
Ú ģ
Ã»n Ãª
il Ãª
Ø¨ Ùĩ
p l
o c
Ġh Ã®n
Ġne xweÅŁ
Ġtaybet Ã®
ĠÙħ Ø¯
eb Ã®
Ġf ir
Ġsal Ãªn
ist anÃª
Ġh ikÃ»m
Ġbi Ã§
Ã®k Ãª
Ġdi x
ur t
ĠherÃªm Ãª
Ġh ejm
Ġa b
ĠR Ãª
ĠkuÅŁt in
kirin Ãª
ĠP art
Ġw at
Ġg iÅŁtÃ®
Ġcih Ãª
ĠEr d
Ġhel best
ÙĦ ÙĪ
ĠEfr Ã®nÃª
m end
ĠØ¯Ø§ÙĨ ÙĦÙĪØ¯
Ú© Ùĩ
Ġbik aran
Ġhilbij artin
Ġa s
Ù ĥ
ĠÚ© Úĵ
ik a
n Ã®
or m
Ġme ÅŁ
Ġbin geh
ber Ãª
ĠHerÃª ma
Ġs ur
1 8
ah iya
Ġv ed
Ġb and
E m
Ġh iÅŁ
Ġgir an
k an
Û °
Ø¨ ÛĮ
on s
ĠrÃª veb
Ġk arÃª
Ġav Ãª
Ġdag irk
Ġg r
Ã®m a
e ger
ĠØª Ø§
Ġcivak Ã®
Ġm Ã®na
med Ãª
Ġx iz
Ġbir yar
Ġw ir
ĠØ¯ Ø§
Ø§ÙĨ Ø¯
ÙĬ ÙĨ
ĠP iÅŁtÃ®
ĠO c
ĠzÃªd etir
Ġguh er
on Ãª
n Ã®ÅŁan
ĠhÃª v
u y
Ù ī
ĠØ´ Ø¯
Ġdi h
Ġn Ãª
Â »
ĠBar zanÃ®
gir e
ĠÙħ Øª
Ġag ah
l i
ĠØ§ ÛĮ
Ã® q
ĠÙĩ Ø§
) .
ĠM in
Ġp Ãªn
1 3
Ġ im
ĠØ´ Ø¯Ùĩ
Ġc uda
Ú© ÙĨ
Øº Ùĩ
Ġ erd
ĠÅŁ ehÃ®d
og an
ĠD ema
ib in
Ġt i
Ġwelat Ãª
Ã®n im
I Åŀ
Ġl Ãªkol
Ġt es
p ey
E v
e g
Ġd Ã©
ĠØ¨Ø§ Ø´
ey eke
Ġb az
andin Ãª
y al
Ġh olÃª
ĠÙĨ ÙĪ
l ah
ÙĦ Ø§Ùħ
Ã ĩ
Ġbi m
Ġs p
Ġe d
Ġd Ã®t
Ġc om
ĠD er
ÃªÅŁ a
Ġser k
Ġo per
ĠÚ ģ
o y
Ġqeb Ã»l
Ġk ol
Ġc h
Ù ¼
ĠpÃ®r oz
a st
Ġn irx
ĠherÃªm a
av ayÃª
Ġqu e
av Ãªn
Ġ art
Ø§ÙĨ ÙĪ
u st
Ġper werd
Ġaway ekÃ®
ey ek
Ġb ang
.. ..
ĠÙħ Ø³
s e
it e
Ġbi x
ĠÛĮ Ø§
Ġbel Ãª
Ġtun e
Ġd oz
ĠÙĪ ÛĮ
ĠDA IÅŀ
Ġdewl etÃª
Ġxwe d
an Ã®n
Ġp as
Ġs a
ÙĪÙĨ ÙĪ
ĠA K
ĠÙħ Ùĩ
or Ãªn
Ġdest nÃ®ÅŁan
Û į
Ġg ih
ĠOc alan
P G
em al
Ġt o
l ek
Ġ Ã®s
ĠD ivÃª
Ġser Ã®
Ø ¢
Ġz il
1 1
Ġun e
ĠrÃª ya
Ġzarok Ãªn
Ġh Ãªj
Ġhez ar
Ġm Ãªr
b ar
ĠR Ã»s
Ġl Ã®st
ÙĦ ÙĬ
Ġhat ibÃ»
ez ar
Ø¯ Ø±
ĠÅŁ Ãª
Ġke Ã§
is ch
Ġb ona
ĠØ³ Ø±
Ã® ÅŁt
Ġ u
Ġmirov an
Ġdixwaz e
d i
am Ã®
Ġber xwe
er an
Ùĩ ÙĨÚ¯
Ġxel kÃª
Ġdem okratÃ®k
ĠÚ ī
Ãªv eb
Ġ Ã®m
hil ata
ĠEw rop
Ùħ ÛĮ
Ġy ekÃ®
Ġb Ã®nin
Ã®n an
Ø¯ ÛĮ
ĠØ³ Ø§ÙĦ
er iya
Ġre j
Ġbir y
Ġber pirs
ĠD ewl
3 0
Ø§ Ùģ
ĠK er
ĠØ§ ÛĮØ±
Ġragih and
ĠØ§ Ø±
ĠH em
ĠXwe dÃª
Ġpey v
Ġdan s
Ġdik im
ker e
eh met
g o
g el
Ú¯ ÛĮ
ĠhÃª la
ak irina
ĠP ar
Ã© r
Ġoper asyon
ĠbÃª h
an Ã®na
ÙĪ Ø§
Ġa u
u man
Ġgir tÃ®
ek irina
Ġm ed
ĠgirÃªd ayÃ®
Ġwelat Ãªn
ÙĨØ¯ Ùĩ
ĠÃ§ et
ik e
Ġt el
Ãªr Ã®
Ġd Ã»
Ġn im
Ġve ger
ĠAmerÃ®k a
Ġs Ã®y
er e
Ġs e
n Ãª
Ġber Ã®
ist an
Ġmaf Ãª
Ġf ik
Ø± Ø§ÙĨ
ĠÙ ¼
Ġbi la
Ã© e
Ġm et
Ġenc ama
Ġday e
Ġn iz
ir a
ĠAK P
Ġt im
Ø§ÛĮ Ø¯
q u
bd ul
Ġq ad
Ġt eq
Ġdi Ã§
ex t
Ġhev dÃ®
Ġbir Ã®ndar
ĠP DK
at Ã®
Ġder Ãª
ĠÅŁ ev
Ġk iÅŁ
Ġal Ã®
Ġam ade
ay et
Ġkes Ã®
ar d
ak Ã®
b az
ĠA n
k irÃ®
ÙĪØ± Ø¯
ĠH ev
ĠRoj ava
ont r
p a
ĠÅŁ Ã®r
Ø± ÙĬ
Ġxeb atÃªn
Û± Û
Ġgund Ãª
Ġy ew
ĠF ran
f a
ĠØ¯ Ø³Øª
ĠÃ§ Ã®rok
Ã§ Ã®
Ġaw ayÃ®
Ġve g
ĠÙĩ Ø±
Ú© Øª
Ġk erd
d em
ay Ã®ÅŁ
akur Ãª
ar iyÃª
ĠÚ© Ø´
Ġdeng Ãª
p ar
Ġneh at
Ġde h
ĠH el
Ġber s
1 6
d arÃª
Ġm an
ab in
Ġa ÅŁ
ÙĤ ÛĮ
Ġb avÃª
Ġn ayÃª
Ġ [
em ed
Ùħ Ùĩ
ĠhÃªz a
ĠÙħ Ø¬
Ġh eq
Ġbi d
Ġheb Ã»
we nd
Ġx urt
Ġwe x
d Ãªr
ĠØ³ Ø±Ùĩ
ĠtiÅŁt ekÃ®
Ġkes an
Ġz iw
Ø¹ Ùĩ
Ãª l
Ġdij min
el al
ĠpÃªÅŁ kÃªÅŁ
Ġhel west
Ġqu i
Ġw arÃª
ĠØ´ Ùĩ
p r
Ø§ÙĦ ÛĮ
ĠdÃ®rok a
Ø§ÛĮ Øª
Ġs iv
ĠÅŁ ik
Ġa ÅŁt
ĠH DP
Ø¨ Øª
ĠP ÃªÅŁ
Ã§ ov
E z
ĠØ¢ ÙĩÙĨÚ¯
ĠleÅŁk erÃ®
Ġwe z
Ġxeb at
d anÃª
Ġh est
Ġk a
Ġz or
H er
ÛĮ Ú©
ĠA medÃª
ok r
Ø¯ ÛĮØ¯
Ġr izg
u ya
Ġdi d
Ġv a
Ġc em
Ġdest hilat
Ġbeh sa
Ø¬ Ùĩ
tin Ãª
iv Ã®
Ġs Ã®st
Ġr om
ÙĪ Ø´
19 9
1 4
ir g
r Ã»
Ġnav net
Ġr am
ay an
ĠAmerÃ®k ayÃª
l es
ek in
geh Ãªn
Ġb ar
Ã»n e
Ġda d
ĠM a
Ġmal a
Ã»r Ã®
Ġn em
ĠØ± Ø³
ĠY ekÃ®
p an
Ø® Ùĩ
ĠÙģ Ø±
Ġax af
ĠTirk iye
Ġbik im
ur e
Ġk am
g Ãª
ik Ãªn
Ġw Ãªn
ĠO s
ÙĪØ² Ø´
Ġder v
Ġk er
Ġc on
bÃ» yÃ®
Ġnet ewe
m anÃ®
Ġm i
per a
Ġder k
Ġam ad
Ø¯ Ø§
nam eya
lam ent
ax a
Ġn Ã®ÅŁ
Ã ¶
Ġtirk Ã®
Â Ĵ
ĠØ¹ Ùħ
Ùħ ÙĨ
Ø§Ø¯ ÛĮ
Ġdi Ã§e
am ost
Ġr on
j Ã®
Ġgel ekÃ®
ĠtiÅŁt Ãªn
ĠÙħ ÙĤ
iq ue
Ġkurd Ãªn
at iya
v anÃªn
Ã§ av
Ãªr e
Ġdik irin
eh Ãª
Ġq ir
Øº Ø§ÙĨ
w ar
ĠErd ogan
Ġd am
Ġa k
o h
k Ãªn
lam Ã®
Ã» t
ed er
ĠpÃªÅŁ n
ew a
u c
Ġ or
Ġjin an
Ã» ÅŁ
Ø¹ ÛĮ
Ġt r
ax Ãª
ĠØ® Ù¾
ĠÙĤ Ø±
1 7
ÙĪØ± ÛĮ
u ÅŁt
Ġpol Ã®t
Ġpr oj
Ġq ey
Ġdan e
ĠSerok Ãª
dar iya
ĠKurdist ana
Ãªr a
w iha
ĠØ¨ ÛĮ
Ġf a
Ġder h
Ġsal Ã®
ĠÙĨ Ø¸
ĠØ³ Ø§
Ġdi zan
en s
ĠS w
Ġkir ibÃ»
ĠB r
Ùħ Ø¯
ĠÃ§Ãªk irin
ĠØ¢ Ø²
Ġp arÃªz
P iÅŁtÃ®
we z
ĠN et
em b
ĠL ew
l o
Ġdi ÅŁ
Ġk Ã»
ĠØ¯ ÙĬ
Ġs eb
Ġbiry ara
Ã®r a
Ġe ger
Ġday Ã®n
Ã®y ar
Ġan Ã®n
Ġhev alÃªn
Û ²
Ġend amÃªn
Ġe y
Ġxiz m
Ú ī
Ġra p
em en
ĠM e
K urd
Ġhem Ã®
Ùħ Øª
Ġk it
Ġre x
i Ã§
h e
Ġbikaran Ã®n
ev an
ber Ã®
ÙĨ Ùĩ
Ġko Ã§
Ġberhem Ãªn
ĠT ev
Ġj iyan
Ġdi z
ik in
Ä °
ek t
j i
Ä Ł
iÅŁ Ãª
Ġm is
m en
Ġnik are
Ġmal Ãª
ir Ãªn
Ġdik eve
Ġh eft
ĠG er
Ġ /
b Ãª
i er
el e
Ø§Ø± Ø¯
ĠÃªrÃ®ÅŁ Ãªn
Ã§ eyÃªn
ab Ãª
Ġme c
Ã®r Ãªn
ĠØ² ÛĮ
Ġyek em
ĠnÃªz Ã®k
ĠØ´ Ø±
N K
dar Ãªn
Ä± n
2 5
S erok
Ã®s Ãª
ĠKurd Ãªn
ĠÃ§i qas
Ġhin d
Ġji b
2 4
Ġser eke
Ġt ir
ĠØ¢Ùħ ÙĪØ²Ø´
ĠÅŀ Ãªx
Ġwe ha
p arÃªz
Ġc Ã®
ĠÚ «
ĠØ¨ Ø¯
o x
ÙĪ Øª
ĠA m
i a
ĠM es
ĠpÃªÅŁ ket
ĠØ§Ùģ ØºØ§ÙĨ
ul t
k arÃªn
Ġroj an
Ã®n ak
Ġr Ã©
or e
Ġbers iv
ur s
Ġku l
Ã®l an
Ġder ve
ĠEr eb
Ġhem a
ĠM is
iy ekÃ®
om a
Ġserok Ãª
ĠtÃªkoÅŁ Ã®na
ĠØ§ÛĮØ± Ø§ÙĨ
Ø¨ Ø§
f f
el s
A R
Ġk Ã®
Ġh im
Ġqed ex
ĠA zad
ey e
Ø³Øª Ùĩ
Ġ '
Ø§Ø´ Øª
Ġmer iv
Ġparast ina
Ġkev n
ĠK ar
Ġb Ã®ne
Ġjin Ãªn
Ġserk ef
im an
t ion
Ġre ÅŁ
as Ãª
Ø§ÛĮ Ø´
ĠØ´ ÙĪØ¯
ĠØ§ ÙĨØ¯
Ø´ Øª
ĠM eh
Ġdi xwe
ib Ãª
ĠH es
Ġx ir
Ãªz Ãªn
ĠÛĮ ÛĲ
Ġmaf Ãªn
Ġdam ez
ĠM ih
ar ed
Ġg ul
ur k
Ġheb e
Ġhev al
Ġrizg ar
ĠS el
k ir
Ġderd ik
ĠdÃ®rok Ã®
ĠtÃªn e
ĠlÃª ger
Ġh et
Ø§ ÙĤ
Ġdewl etÃªn
ĠÂ »
Ġbi ÅŁ
Ġna be
ĠØ¯ ÛĲ
ĠÃİ ran
Ġm uz
Ġhez aran
Ø¹ Øª
Ġtev lÃ®
ĠØ´ ÙĪ
ÛĮ Ø³
Ġh eya
ĠB ed
Ã»r a
Ġk ontr
201 8
Ġe x
we ÅŁ
ĠleÅŁ ker
ĠÙħ Ø§
Ġx er
at e
Ġb ed
Ġn Ãªr
Ġdin yayÃª
iy ekÃª
Ġnik arin
Ġsed em
ad Ãª
Ġx ey
ĠeÅŁ kere
Ġxw arin
Ġr Ã»n
ĠØ± ÙĪØ²
Ù Ģ
Ġbib Ã®nin
Ġferm Ã®
w Ãª
Ġan go
Ú© Úĵ
gir tin
Ġ ot
Ġnak e
ĠØ³ ÛĮ
ĠpÃªvaj oya
Ã®s an
Ġav akirin
im Ãª
Ġcivak Ãª
ĠB il
ĠS e
Ġart ÃªÅŁa
Ø§Ø² ÛĮ
ĠNav Ã®n
Ġkur manc
Ġheb Ã»n
ĠÃ§ar Ã§ov
Ġq an
Ġbi c
ĠÚ ļ
hil atÃª
eng Ãª
ĠN e
Ġp ay
s i
Ġx em
Ġv ous
Ġdagirk er
Ġ ol
ĠÚ© Ùħ
ÅŁt ir
ÙĦ Ø³
ÙĪ Ø§ÙĦ
y aya
ÙĪØ± Øª
ĠØ§ Øµ
Ġser xwe
Ġh uk
Ġmal pera
Ã Ĭ
l u
Ġper g
Ã§ Ã»n
al e
Ġnet eweyÃ®
fir eh
d ir
ĠØ§ Ø¯
l an
gir t
Ġbo m
ÙĪ Ø¨
Ġpl us
ĠbiÃ§ Ã»k
r et
Ġv o
Ġg erm
Ġm irin
Ã®m Ãª
ĠÛĮ ÙĪ
Ġdib Ã®nin
u v
ĠbÃª tir
uh er
ĠS ur
w az
Ġjiy anÃª
Ġr Ãªj
Ġ il
ĠØ§ Ø¬
Ġroj Ãª
Ø® Øµ
Ġmij arÃª
Ġz Ã»
Ġf il
Ġdij Ã®n
it Ã©
È Ļ
Ġarmanc a
ĠØ¨Ø§Ø´ Ø¯
Ġderh eq
ĠØ´ ÙħØ§
b ek
ĠA bdul
ĠE s
ĠPart iya
Ġc ez
ĠalÃ®k ar
Ġr iya
Ġs ey
t re
ĠnavÃ§ eya
Ġtev Ã®
Ġra west
Ġnek ir
Ġn Ã®ne
ĠE h
Ġsed ema
Ġg ava
yon a
ok a
Ġder f
Ġber j
ix abin
Ġ isch
ef a
Ġdaxwaz a
Ġh und
Ġf Ã®l
in c
Ġb av
Ġa j
ĠG iÅŁtÃ®
et an
l em
tir Ã®n
Ġa c
Ġj e
Ġp is
ĠRoj hilata
Ġy o
Ġk el
Ġbi j
Ġa gir
k e
Ã» da
ad Ã®
Ġt Ã®ne
ĠM al
b r
Ġxwe z
an iyÃª
u p
Ġt ec
Ġq asÃ®
ĠØª ØŃ
Ġv eÅŁ
Ġc ur
ĠØ¨Ø§ Ø²ÛĮ
Ġer eb
ĠSw Ãªd
ĠT u
Ġtev ger
ĠA s
ĠØ´ Ùħ
Ġd or
er n
be ÅŁ
ĠB ir
ĠhikÃ»m eta
s ch
ĠpolÃ®t Ã®k
Ġzan ist
ĠØ¹ ÙĦ
Ġter or
Ġd om
at t
Ú¯ Ø§ÙĨ
s p
Ø² Ø´
Ġ ?
19 7
Ġdem okr
per est
ÙĪÙĦ ÙĪ
Ġnet ewÃ®
Ġsiyas eta
Ġbi lÃ®
f ik
Ġr ev
d ayÃª
19 8
ĠK on
xwaz in
5 0
p el
Ã» c
Ġher du
Ġast a
ĠÚ© ÛĮ
Ġd ost
ÙĨ Ø§ÙħÙĩ
m Ãªn
Ø¹ Ø¯
ĠX el
Ú© Ø±
Ġxeb ata
Ġwat eya
erm end
Ġwer in
ĠÅŁ aÅŁ
Ø Ł
Ø§Ùħ ÙĦ
Ġm ir
Ġbingeh Ã®n
Ġc e
ĠY PG
ĠØ¬ Ø¯ÛĮØ¯
Ġr Ãªk
ĠW Ãª
ek ar
and iye
Ãªr s
Ġz af
Ġ Ãªz
ger in
Ġyek emÃ®n
ew s
Ġg un
ĠnÃªz Ã®
Ġav ec
L Ãª
Ġm amost
Ġb u
Ġdu y
ah iyÃª
Ġn er
Ġenc am
il Ã®
ĠÅŁ erm
Ġjin Ãª
Ġn Ã®v
Ġc ara
ĠDewl eta
ĠâĢ ¢
ĠSÃ»r iyeyÃª
Ã¨ s
ĠÚĨ Ùĩ
Ġk ov
Ġd r
ĠD est
Ġheb Ã»na
ĠÚ© Øª
ĠÃ§av Ãªn
ĠG ul
Ġber fireh
ra f
Ġast eng
ĠÙĩ Ø³Øª
ĠKer k
Ã» st
ter n
Ġberj ewe
Ġm od
Ġl ew
eb Ãª
ĠSt enb
ĠÅŁ ew
ĠÃ§ Ãªd
ÛĮØ± ÛĮ
Ġtek n
Ùģ Ø±
we ha
Ġazad iya
ĠP er
ĠÙ¾ ÛĮ
l amÃª
Ãªr in
Ã®t eya
ĠEwrop ayÃª
ĠRoj avayÃª
bi xwe
ĠÙĨ Ø´
A K
ĠÚ© ÙĦ
ĠK ob
Ā Ā
Ġz ar
Ġh ed
c a
ĠP ir
d er
ĠAl man
ĠØ¨ Ø§ÛĮØ¯
Ġsed s
c om
ĠbÃ®r a
at or
Ġerd Ãª
in Ãªn
Ġq ez
il l
Ġbaj ar
Ġmalb ata
ok Ãª
Ġk Ã»r
Ġger Ã®l
Ġo u
ĠD r
âĢĻ âĢĻ
ĠH ewl
ĠØ¬ Ùĩ
ĠdestpÃªk a
ĠalÃ®k ariya
Ġt a
ĠnÃªz Ã®kÃ®
w an
ĠÃĬ z
iy ayÃª
aÅŁ Ãª
ĠnivÃ®s kar
ĠbeÅŁ darÃ®
ĠbeÅŁ dar
Ġhejm ara
i Ã¨
ĠÃª ÅŁ
âĢĿ .
ĠÃ§ ima
Ġpir sa
Ġh iz
ĠhÃªv Ã®
h Ãªn
Ġt ew
Ġdib Ã®ne
Ġz ehmet
Ã®r an
Ġtev gera
Ġgel Ãªn
Ġgotin Ãªn
ĠBaÅŁ Ã»rÃª
iv e
ĠM irov
Ġt eh
ĠK ur
Ú© ÙĦ
Ġxwed iyÃª
Ġdig el
d anÃªn
ĠØ¯Ø§Ø± Ø¯
ÙĨ Ø§
Ġl eh
Ġab orÃ®
Ġs or
Ġt Ã®nin
00 0
Ġax a
Ġber nam
Ġsiv Ã®l
ÙĤ Øª
Ġq er
ĠØ¯Ø§ÙĨ Ø´
Ø¨ Ø§ÙĨ
Ġmeh a
ĠØª Ùħ
o f
ĠwÃª j
ĠØ¨ ÙĦ
Ø±ÙĪ Ø´
ĠâĢ ŀ
Ġpir r
Ġroj Ãªn
Ġz elal
Ġneb e
Ùģ Ø§Ø¯Ùĩ
u ÅŁ
E w
ku j
er oj
Ġsiyas et
Ġp ev
ØªØ± ÛĮÙĨ
ĠÙĩ ØºÙĩ
Ã®t Ã®
ĠtiÅŁt ek
Ġed eb
z e
Ġniz an
Ġs on
ĠØ¨Ø§ Ø²
Ġav akirina
Ġr ay
Ġb Ã®
ou v
k arÃª
Ġ Ã®ÅŁ
d Ã®n
Ã®st an
un e
Ãªr an
Ø±ÛĮ Ú©
m Ã®
ĠE merÃ®k
ĠÙħ Ø®
ĠÙĨ Ø§Ùħ
l eh
Ø§Ø³ ÛĮ
ĠØ¨ Ø®
Y A
Ġm Ã®nak
t Ãªn
ĠÃİ n
ĠÃ®n an
Ġcivak a
Ġhev pey
201 6
Ġxist in
enc e
ĠKerk Ã»k
ĠØ¢Ø² Ø§Ø¯
Ġbi xw
ĠkÃª f
Ġx et
Ġb es
ez Ã®rÃª
Ġciw an
Ġl aw
Ġal Ã®yÃª
âĢĿ ,
ĠâĢ ¦
eh r
Ġpey da
a u
ĠYekÃ® tiya
ĠbaÅŁ Ã»rÃª
Úļ Øª
ĠpÃªÅŁ Ã®
eb Ã»na
ĠØ§Ø³Øª ÙģØ§Ø¯Ùĩ
ĠÚ¯ ÙģØª
Ã» sa
Ġ !
ĠØ§ ØŃ
ĠbÃ» m
ĠH eta
ÙĤ Ùĩ
Ġkur t
Ġkur Ãª
Ġberjewe nd
Ġew Ãª
Ġket in
Ġx an
Ġt iÅŁtÃ®
2 1
ĠhevdÃ® tin
Ġbaz irg
ÙĨ ÙĬ
ĠlÃªkol Ã®n
an sa
ĠsÃ®n or
Ã®k irin
em p
i ch
b a
ik Ã®
Ġmal p
el le
ĠØ§ Ø®
iq u
ĠØª ÙĪØ§ÙĨ
Ġg o
Ġmij ara
Ġd o
s on
im e
Ġnak in
us a
Ġm at
ĠC iz
Ġzarok an
ÙĪ ÙĨØ¯
Ġber iya
ĠG elÃª
Ġt arÃ®
Ø§ÛĮ ÙĨ
Ġg av
Ġbaj Ãªr
Ùħ ÛĮÙĨ
ĠÙĩ ÛĮ
Ġli dar
ĠA k
ĠØ§ÙĨ Øª
Ø¨ Ø§Ø±
Ġguher tin
Ġdizan in
ĠÚ ĺ
ÛĮ Ùĩ
ĠÙħ Ø·
Ġmil yon
Ġa fir
ĠH us
ger e
ĠStenb olÃª
H A
Ġre fer
ÙĪ Úĵ
Ã®r Ã®
Ġser bixwe
ĠØ®ÙĪ Ø§Ùĩ
ĠherÃªm Ãªn
ĠÙĨ ÙĤ
w d
andin e
Ġwelat Ã®
k o
xan eya
ĠM ed
Ġneb Ã»
ĠÃİ m
ĠSwÃªd Ãª
ev Ãª
ĠpiÅŁtgir iya
ey ekÃª
Ġm Ãª
Ġr es
ej ir
g Ã®n
Ú© ÙĪ
b Ãªj
ena ber
Ġbi gih
Ġc i
Ã» q
ĠH in
Ġkom Ãªn
Ġpart iyÃªn
Ø³ Ø§ÙĨ
ĠÙĪ ÙĬ
Ġpar lament
ĠKom ara
Ġ Ã®d
ĠB Ãª
Ø Ľ
Ġbaj arÃªn
Ġn o
Ġband or
ÙĨ Ø¬
p o
Ġn ab
v a
ÙĪØ± Ùĩ
ad em
ĠrÃª baz
Ġazad Ã®
Ø¬ ÙĪØ¯
ist ana
Ġhat ibÃ»n
ĠpÃªk hat
Ġbi s
ĠÚ©Øª Ø§Ø¨
Ġde z
Ġbig irin
Ġl ez
ĠØ® Ø±
ĠW Ã®
D ema
Ġr eh
ĠÚ©Ø´ ÙĪØ±
R oj
Ġn Ã»n
201 7
ĠDAIÅŀ Ãª
Ġs u
ĠÙĬ ÛĲ
Ùħ ÙĪ
ĠD iyar
Ġk ed
Ġhev kar
Ġp e
Ġq ur
Ġmil etÃª
Ġdaw iyÃª
Ġdoz a
Ġz er
k es
Ù Ķ
ĠSÃ»r Ã®
Ãªr Ã®n
ĠbÃª d
Û ¹
Ġgotin a
ĠGel ek
z Ãª
4 0
ĠMih emed
Ġxwest in
in t
ĠØ³ Ø§Ø²
Ġax ivÃ®
ÙĬ Ø¯
ĠØª Øµ
Øª ÙĪØ§ÙĨ
and Ã®
ĠpÃª d
ĠÙħ Ø±Ø¯
Ùģ ÛĮ
Ġd ora
irin g
ĠÃ§ap emen
ek an
Ġazad iyÃª
Ġderv eyÃ®
ĠÚ© ÙĨØ¯
ĠÚ©ÙĨ ÛĮØ¯
as iyÃª
Ġ )
Ú© Ø§Ø±
ec t
el eya
Ġq ew
Ġm ey
il man
ĠÚ© ÙĪ
ĠkiÅŁ and
Ġder n
ĠÙ¾ Ø§ÛĮ
Úĸ ÙĬ
ĠÃİs lamÃ®
ĠÅŁ ah
Ã®j an
ÛĮ Ø²
Ġ Ã®st
ĠÃ®n s
Ã®l Ãª
ĠG ir
Ġmirov Ãªn
ĠM Ãªr
em an
ay Ã®n
Ùģ Ø§
ĠN ew
Ġli gel
Ġnik ar
ĠÃİ raqÃª
Ġm Ã®r
Ġn Ã®n
el at
ĠAbdul lah
ĠpÃªn c
b end
ĠØ§ Øª
ĠbÃª yÃ®
Ġs il
ĠØ ¶
Ġkit Ãªb
ĠK es
m anÃª
2 8
s erok
ĠdestpÃªk Ãª
ĠØª ÙĨ
ot re
eng Ã®
Ġm ar
Ã» Ã§
Ġbom b
Ġme z
ĠÙģ ÛĮÙĦ
Ġkes Ãª
and a
Ġq is
ĠØŃ Ø§ÙĦ
Ġne Ã§
Ġn ey
Ġq on
ĠTirk Ã®yÃª
ĠØª ÙĦ
Ġb ala
Ġkon fer
l ement
m ehÃª
ĠÙħ ÙĬ
Ġnavnet eweyÃ®
Ġs os
ĠBaÅŁ Ã»r
Ã© t
p ÃªÅŁ
Ø§ÙĦ Ø¨
Ġde l
gir Ãª
ĠA h
Y D
Ã© es
ĠØ§Ø³ ÙĦØ§Ùħ
t iyÃª
ĠM Ã®r
Ġc in
Ġxir ab
Ġnav enda
ĠÙ¾ Ø³
Ġem Ãª
ĠØ´ ÙĬ
Ġrefer and
ĠØ±Ø§ Ùĩ
Ġt irs
ĠB el
Ġdaw iya
ĠØ§ ÙĪÙĦ
r Ãªn
ĠSe Ã®d
ÙĦ ÛĲ
Ġd ak
Ù¾ Ø¯
ĠB DP
H P
Ġkar Ãªn
im Ã®
p Ãªn
ik an
d ewl
af ir
es s
ĠC h
ĠÙĨ ÙĪØ±
Â ´
Ú© Ø³
Ġjib o
ĠÃİ l
ĠØ§ Ø¹
f Ãª
ĠL a
a ÅŁt
gir tina
Ġwe s
ĠB ex
Ġdev erÃªn
em end
b Ã®
ĠdÃ®rok Ãª
Ãªj im
t or
Ø§ Øµ
ĠØ§ Ø´
Ġh wd
Ġciv Ã®na
ĠD a
ed ar
ĠÃ§and a
ĠT r
Ġa d
ĠS ov
l er
Ġg iring
ĠDem okratÃ®k
Ġx uya
ĠÙĨÛĮ Ø²
ĠÙĤØ± Ø§Ø±
Ø´ÙĨ Ø§ÙħÙĩ
Ġp enaber
ÙĪ Ø³
ĠpirsgirÃªk Ãªn
ĠÃ§ Ã»n
ĠØ¯ Ø§Ø¯
Ġbi z
Ġdem eke
ĠrÃªxistin Ãªn
w Ã®
Ġbal kÃªÅŁ
ĠN iha
ĠS al
c i
m ana
ĠØ± ÙĪÛĮ
ĠjÃ® y
ĠpÃªÅŁ eng
Ġal iyÃªn
Ø± Ø³
ĠÙħ ÙĪØ±Ø¯
Ġt Ã®
aq ij
ĠØ§ÙģØºØ§ÙĨ Ø³ØªØ§ÙĨ
Ġwer ger
Ġnav dar
Ú© Ø§ÙĨ
ĠC iv
az a
Ġderb asÃ®
Ġdid om
ĠE lÃ®
ĠH ÃªzÃªn
Ġbik eve
ÛĮØ¯ Ùĩ
Ġwe lÃª
E R
iÅŁt in
Ġv ekirin
ĠpaÅŁ Ãª
ĠØ¨ ÛĮÙĨ
ĠY anÃ®
ĠØ§Ùħ Ø§
iy eta
Ġk Ã®jan
ev a
ag e
1 00
Ã» z
ĠÙĪÛĮ Ú©ÛĮ
Ġdi xw
Ã»n Ã®
ĠÅŀ oreÅŁ
Ø§Ø¨ ÙĦ
Ġb arÃª
ĠÙ¾ ÛĮØ´
Ã§ Ã»na
Ġkirin a
ĠR Ãªveb
ØŃ ÛĮ
Ø§ Ø·
Ġp et
Ġto ut
l as
Ġdig ot
ĠC Ã®h
Ġf Ãªm
ĠI n
u j
Ġb akurÃª
ĠÚ©Ø±Ø¯ Ùĩ
al Ã®z
Úĵ Ùĩ
âĢ ĺ
Ġser dest
eh a
u f
ĠØŃ Ø³
Ġba ÅŁtir
ĠAr t
Ġp iÃ§
2 2
Ġzan yar
ĠÅŁ ex
w erÃ®
Ø¯ Ø§Ø±
ĠLew ra
ÚĨ Ùĩ
Ġgel o
ĠS ey
Ġenc amÃª
Ã®y o
Ġdi gire
ch e
ĠpÃªÅŁ iya
Ġnek in
Ġv er
ak a
Ġx ew
ek Ãªn
ar is
ĠRÃ»s ya
Ġmer c
i de
Ġb as
ĠrewÅŁ enb
ĠÃªrÃ®ÅŁ a
ĠÙģÛĮÙĦ Ùħ
br ah
ĠtÃªkil iyÃªn
Ġbi xwe
ĠÃ§ ep
ĠØ¬ ÙĨ
Ġm ixabin
y anÃ®
r on
ĠØ¯Ø§ÙĨ Ø´ÙĨØ§ÙħÙĩ
im anÃª
ĠI raq
ĠQ ur
w ir
Ġb end
ĠM er
Ġrej Ã®ma
uh a
ih Ãª
Ġd ur
ĠF ir
ĠsÃ®st ema
ĠavÃª tin
is e
Ġhil ber
Ġn eyÃª
ĠY NK
ur Ãª
ĠPKK Ãª
ĠØµ ÙĪØ±Øª
Ġh ov
Ġk al
ĠA v
Ġnav erok
Ġx ort
ĠØª Ø¹
ĠØ¨ ÛĮØ´
ĠhÃªj a
Ġxw ar
ĠpirsgirÃªk a
Ġst r
ĠbÃªh tir
ec l
ĠhÃª dÃ®
ĠpirtÃ»k a
Ġp aqij
Ø¹ Ø§Øª
ĠRÃª berÃª
Ġdij war
ĠDem okrat
Ġt eng
Ġragih andin
eb Ã»
ĠsÃ®y asÃ®
Ġs i
n as
d Ã»
Ġher wiha
Ġxwend in
ĠnivÃ®s andin
or s
ĠE ger
b ir
Ġbin geha
Ġf aÅŁ
Ã®t an
ĠØ¨Ø± ÙĨØ§ÙħÙĩ
Ø± Ø¨
Ġ Ã®l
ĠA y
Ġser d
Ġqad a
Ø´ ÙĪØ¯
Ġ Ä°
Ù¾Ø¯ ÛĮØ§
ĠÃ§arÃ§ov eya
e ÅŁt
ĠbeÅŁ a
in s
ĠleÅŁk erÃªn
Ġhelwest a
ĠÙ¾ Ø±ÙĪ
asyon a
Ãªn e
az Ãª
ĠÙħ ÙĦ
ĠtiÅŁt Ãª
Ø§ÛĮ ÙĦ
Ġxer ab
il le
ĠÙģ Ø±ÙĪØ´
Ġb Ãªje
Ġbide st
is s
Ġpis p
ĠÃ§Ãª b
ĠØ§ÙĨ Ø¬
gir tÃ®
Ú ħ
ĠT urk
ĠsÃ®y as
Ã®st anÃª
Ġhev beÅŁ
ĠB eÅŁ
Ġm uh
Ġd Ã®n
ĠS ed
ĠM ar
Ġseds ala
Û µ
ĠTev gera
ev anÃªn
Ġdan Ã»st
or d
et te
Ġnet ew
ĠÃªr iÅŁ
Ġaxaf tina
Ġbin ivÃ®s
ĠØ® Ø¨Ø±
Ġser dana
Ġvek irÃ®
k erd
ew t
ÙĪ Ø§Ø¯
Ã®k irina
ĠYek bÃ»yÃ®
ĠØ¨ Ø³ÛĮ
ĠM ez
ĠS p
ar tina
as N
Ø¯ Ùħ
Ġy anÃ®
Ġbi gire
Û ³
2 3
and an
Ġsaz iyÃªn
p arÃª
ĠP ey
Ġzim anÃªn
on d
Ġs o
Ġpart Ã®
Ġw in
ĠOs man
c ar
Ø§Ø´ ØªÙĩ
ĠÅŁerm ezar
Ġdewl emend
q il
gir Ã®
Ġpar Ã§
Ġs ekin
Ø§ÙĬ ÙĬ
Ġer ebÃ®
Ġt end
Ã®k Ãªn
Ġmalb at
ĠÙĦ Ù¾
ĠØ¨ ÙĨ
Ġde y
o o
ĠÚħ Ø®Ùĩ
Ġsed an
Ã®n eke
ï ¬
n ivÃ®s
Ġhat Ã®ye
Ġser hil
Ġdib Ã»
Ġcar eke
Ġk an
Ġj ina
Ġ *
ĠB akurÃª
ĠKurdist anÃ®
Ġor g
Ġn uÅŁt
6 0
Ġm ad
q ue
ĠÙħ Øµ
Ù Ĳ
yon Ãª
ayÃ®ÅŁ Ãª
Ġs oz
Ġderd ora
Ġhey Ã®
ÙĪÙĨ ÛĮ
ĠEn q
o Ã§
az iya
ĠÃ§Ãª bÃ»
Ġm Ãªv
Ø§Ø± Øª
Ġs ont
Ã® g
b an
h er
Ġax av
q et
S D
ĠØ¯ÛĮ Ú¯Ø±
Ġc arÃª
Ãª le
Ä± r
it Ã®
ĠÃ§et eyÃªn
Ġh aw
ĠÙĥ Ùĩ
ĠÃ® f
ĠpÃªk anÃ®na
Ġder man
ĠÃ§alak iyÃªn
om ar
ĠH eke
m ar
ĠÅŁoreÅŁ a
ĠØ³Ø§ Ø®Øª
G el
im anÃ®
at Ã®k
Ġdest Ãªn
t Ã®ya
a Ã§
Ġdix eb
Ġdixwe st
Ġst rat
ad a
Ġ ....
eb a
Ġr ak
ĠØ´Ùĩ Ø±
Ã¼ r
Ġm erd
ĠØ¬ Ùħ
Ã®y ek
ĠØ¨ Ø§ÙĦ
Ø§ Ù¾
ĠH ez
t aÅŁ
Ġdamez r
ĠpÃªÅŁ ve
Ã© c
ĠbÃªn e
Ġkom kuj
Ġq ala
ĠnÃ» Ã§
ĠÅŀ eng
Ġder xistin
ĠhÃª san
ĠÚ¯ Ø±
Ġb et
ĠÙĪ Ú©Úĵ
Ġgot iye
z a
Ã» dÃª
iÅŁ k
h eng
ĠÅŁoreÅŁ ger
Ġt eÅŁ
Ø§ ØŃ
Ġdin ivÃ®s
Ġnav Ãªn
Ġband ora
ey n
am an
Ġne x
Ġdihat in
ĠØ³ Øª
Ġh Ã»r
ĠDiyar bek
art Ã®
o is
Ġr ola
Ġp Ã®v
ion s
Ùģ ØªÙĩ
Ġdew am
Serok Ãª
Ġkar Ã®
Ã® w
Ġxizm eta
Ġb Ãªjin
Ġxwend ek
ur Ã®
Ġderk evin
ĠKob anÃª
il a
c Ã®
ĠwelÃª t
ĠÚ¯ Ø°
Ġh a
in dÃ®
ĠP iÅŁt
k l
j en
Ġbi st
ĠØ§ Ø·
Ġreng Ã®
Ġn eke
Ġm Ã®l
ĠÅŁ Ã»n
Ġkes ekÃ®
ĠØ² ÙħØ§ÙĨ
Ġr ol
Ġf Ãªr
ĠØªÙĪ Ø³
Ø§Ùħ ÛĮ
Ġt ed
Ġd Ã®yar
Ġderheq Ãª
Ġdim eÅŁ
ĠB eg
Ġpir aniya
Ø´ ØªÙĩ
ex ta
il e
ĠE y
ĠV Ãª
ĠP aÅŁ
H ev
ï¬ Ĥ
Ġr ed
Ġt und
ĠÃ§av kan
Ġs it
ĠW ek
2 6
ĠÙĨ Ø³
Ã®z Ã®
o q
Ġj Ãªr
ĠpiÅŁt re
Ġe c
Ġre f
Ġq el
m ent
Ã Ľ
Ãª t
ĠÅŀ em
n av
brah Ã®m
ĠÙĦÙ¾ Ø§Ø±Ùĩ
ĠL e
Ġberxwe dana
ÛĮÙĨ ÛĮ
ĠÙĨØ¸ Ø±
wez Ã®rÃª
Ġ on
Ġenc amÃªn
ĠhÃª s
ezar eta
ĠÃ© t
ĠK emal
ĠÅŁ a
ĠdestpÃªk irin
Ġher weha
Ã© n
Ġn if
ĠmeÅŁ andin
g uman
Ã»b Ãªj
Ġnas kirin
Ġr uh
Ġk r
Ġbikaran Ã®na
ĠD ad
Ġtec r
ĠB akur
Ġd Ä±
Ġqet il
Ġg eÅŁ
k erÃªn
Ġr Ã»m
Ġew leh
ĠdiÃ§ in
o w
Ø§ ÙĪ
ĠÅŀ er
Ġkonfer ans
ac Ã®
ĠA z
ĠÃ§ avÃª
Ġhew c
ĠØ®Ø± ÛĮØ¯
ĠÅŁ and
ĠweÅŁ andin
Ġveg uh
Ġp an
Ġciv Ã®nÃª
Ġdeh an
Ġtem aÅŁ
ar ek
Ġa p
Ġt ex
ĠØ§ Ú¯Ø±
Ġbi zan
ĠÙĨÙħ ÛĮ
ĠÃ§ er
Ġf ed
Ġtem am
ĠÅŁer t
ed arÃªn
Ġxw Ã®n
otin a
Ġt ij
Ġgund Ãªn
ĠÅŀ ehÃ®d
ok Ãªn
Ġderket in
Ġf or
ĠkÃªf xweÅŁ
Ġbir ayÃª
Ġkurmanc Ã®
ĠG or
els ef
Ġpay t
am iÅŁ
ĠbÃ»y erÃªn
Ġrast iyÃª
Ġnak ok
ĠSov y
ĠÅŁ Ã»na
Ġt op
Ġziw anÃª
ĠØ¯ Ø§Ø´Øª
ĠEw rÃ»
o ir
ĠW anÃª
b in
ey t
Ġgel an
ĠherÃªm Ã®
Ġs Ã»c
ĠØ³ Ø±ÛĮ
ĠØ³ Ùĩ
ĠRÃª ber
Ġtem amÃ®
ĠM ecl
Ġsed Ã®
ĠEr men
Ġal iyekÃ®
Ġt Ãªr
Ġo f
Ġdim Ã®ne
Ġhun ermend
Ġmec b
Ġteror Ã®st
ĠØ² ÙĨØ¯
d l
ĠØ¨ Ø²
Ġg ur
ÛĮÙĨ Ùĩ
ĠpÃª wend
ir xan
Ø± ØŃ
Ø® ÛĮ
Ġbawer iya
e Ã§
ĠÚ©ÙĨ ÙĨØ¯
ÙĦ Ùħ
Ġp Ã®ÅŁ
Ġpev Ã§Ã»n
ĠrÃ»n iÅŁt
201 5
Ġperg ala
ĠKerkÃ»k Ãª
Û ´
Ġz ay
Ġda gir
iv in
Ġder x
ĠP ol
ÙĦ Ø¨
q a
Ġst ran
xwe yÃ®
A N
ĠØ´ Ø¨
asN ews
ĠØª Ø¬
ar eke
B er
ĠalÃ®k arÃ®
em ber
ĠF er
Ġb irin
Ġz ir
Ġper Ã§
geh an
Ġdem Ãªn
Ġhil weÅŁ
ĠØ§ÙĦ ÙĦÙĩ
Ġc ej
Ġ und
ĠA po
ĠÙĤ Ø³
ey ekÃ®
Ġc er
k arÃ®
Ġbir Ãªveb
ĠÅŁ ar
ĠZ anÃ®n
ÙĪ ÙĤ
ÛĮ ÙĪ
ĠØ «
Ġr aya
Ġma is
ĠØ¢ Ø¨
Ġket iye
ur a
ĠO r
ĠS il
Ġter ef
ĠM el
Ã® dÃ®
Ġend amÃª
ÙĨ ÙĪØ§ÙĨ
era st
Ġt en
Ġstrat ej
Úĺ Ùĩ
Ġt am
o ut
ĠpÃªÅŁ eroj
ab Ã»
ĠW ekÃ®
ĠÃİ ro
l im
mer g
Ġb akur
dar a
Ġsa et
ĠE d
ĠH ey
Ġd ol
Ø¯ Ø§ÙĨ
h an
ĠSel ah
ĠrÃ» pel
ĠØ®Ù¾ ÙĦ
Ġk il
Ã ¢
Ġc en
ic e
ĠØ§Ùģ Ø²
Ġdaxwaz Ãªn
ĠpÃªvaj oyÃª
xwaz e
eb Ã»n
ĠRÃ»s yayÃª
ĠY a
Ġder xist
2 7
Ġj or
ĠÚ©Úĵ ÙĬ
D ivÃª
ĠØ´Ø± Ú©Øª
Ġpro f
Ġ.... ..
Ø§ Ø³Øª
ĠØ¢ÙĨ ÙĩØ§
ĠrÃ» yÃª
Ġbin av
Ġlidar xistin
Ġc Ã»r
Ġdixwaz im
Ġk ey
ÙĬ Ø±
Ġpr ot
Ġhilbijartin Ãªn
Ġz ind
Ġroj avayÃª
Ã®n ek
ĠH Ã»n
Ġgih Ã®ÅŁt
e ad
Ġtel ev
ĠÅŁ op
Ġp ejir
ÛĲ Ø±
Ùħ ÙĦ
Ġdi da
Ø¨ ÙĪ
ĠÃİs lamÃª
Ø§Ø± ÙĪ
ĠØª Ø¨
Ġs ek
ĠØ§ ÙĬÙĨ
ĠÙĪ Ø¬ÙĪØ¯
parÃª zin
ĠÅŁ ared
i tin
ĠP YD
Ġdem ekÃª
Ġtev l
ĠK C
Ġxeb atÃª
! !
r al
Ú© ÙĬ
ĠØ¯ ÙĪÙĦ
Ġvek ir
iq Ã»q
Ġdi s
ÙĤ ÙĦ
Ġpro p
Ġaxav tina
y o
Ġm el
ĠÂ ĵ
at iyÃª
in an
t im
ĠkoÃ§ ber
mer ge
Ġdin Ãª
ĠH un
Ġz ew
ĠØ¨Ø® Ø´
Ġmil et
ĠQ amiÅŁ
ĠÚĨ ÙĬ
ĠbÃªd eng
Ø± Ú¯
Ġn iv
Ġa ut
Ġg uman
ĠÃ§and Ã®
r oj
ĠhiÅŁ yar
Ã®r anÃª
Ġdesthilat dar
Ġt aw
on n
Ġved i
Ø§Ø¯ Ø±
ĠR om
Ġ at
Ġberd an
et in
Ġkontr ol
ĠaÅŁt iyÃª
Ġkir ibÃ»n
Ġrast iya
ak Ãª
n Ã®ÅŁ
ĠP Ãª
ĠØŃ Ø¶
Ġb l
el Ã®
pÃª Ã§
Ú© ÛĲ
u q
Ġt eb
ĠØ§ÙĨØ¬ Ø§Ùħ
Ø¬ ÛĮ
Ù İ
ab le
gr eya
n dÃ®
erm and
Ġciw anÃªn
Ġderdik eve
Ġderk eve
Ġdiyar kirin
Ġroj ane
ĠÚ¯ Ø±Ø¯
v er
ĠHewl ÃªrÃª
Ã ´
Ġm as
b il
ĠÙħ Ø§Ùĩ
ak t
ĠØŃ Ú©
Ãİ Åŀ
b ic
ĠsÃ®n orÃª
Úĵ ÙĬ
19 4
ÙĨ ÛĲ
iy et
ĠÅŁer vanÃªn
wer de
ĠN a
ĠÅŁÃª we
ĠØ¯ ÙĦ
on Ã®
ĠrewÅŁ Ãª
Ø§Øª ÙĪ
ĠØª ÙĪÙĦ
ĠÙ¼ ÙĪÙĦ
Ġw arÃ®
D A
Ø± Øª
ĠÃ§ek dar
Ġser ans
x a
Ġhat Ã®
ĠT e
Ġend am
Ġzim anÃ®
Ġhew il
ĠC iw
Ġn iÅŁt
ig n
Ġdi q
ĠC el
i ent
Ġhat ina
ĠÙģ Ø¹
ÙĨ ÛĮÙĨ
Ġde vÃª
ĠÅŁ an
Ġn ous
Ġpol Ã®s
Ġo p
ĉ Ċ
Ġkir Ã®ye
Ġnav end
Ġkul t
Ġwex t
Ġb Ä±
Ġnim Ãªj
ĠÙģ Ø§Ø±
ĠÙħØ¯ ÛĮØ±
Ġwelat an
iy on
s Ã®k
Ġserxwe bÃ»na
f or
Ġb r
Ġrex ne
yal Ã®st
ĠA ng
Ġpl an
ĠD YA
Ġbir Ã§Ã®
m Ã®n
Û±Û ³
c Ãª
Â Ķ
ĠØ °
ĠFran s
ĠEh med
Ġduy emÃ®n
dewl etÃ®
ĠD Ã®sa
ÙĨ ÙĪ
ĠÃİ ng
t al
ĠB al
az akÃ®
ĠÃªrÃ®ÅŁ Ã®
ĠH ikÃ»m
Ġgotin Ãª
Ġher e
aj Ã®
Ø± Ø§Ùĩ
ĠpÃªn g
Ġnavnet ewÃ®
ev Ã®
Ø¨ Ø§ÙĦ
Ùģ Ùĩ
ĠDem Ã®r
ĠbeÅŁ ek
i en
ĠkuÅŁt ina
Ġbib Ã®ne
Ġxwe ser
Û ·
Ã®y ayÃª
ĠÚ© ÙĬ
Ġm us
Ġtirk an
Ġw a
ĠÙĤØ³ ÙħØª
ĠT Ãª
el Ãªn
ÙĨ Ú«
Ġew lek
Ġs ib
E N
201 4
i es
Ø¶ ÙĪ
Ú¯ Ùĩ
Ġm on
Ġpeyv Ãªn
ĠØ¨ ÛĮÙħ
Ġne f
Ġbikar hÃªn
Ġkes ayet
Ġa z
Ùħ ÙĨØ¯
Ġm ak
Ãªl in
Ø§Øª ÛĮ
ĠF il
Ġn Ã®q
Ġdi fik
ĠØ¹ ÙĦÛĮ
iy at
Ġhes ab
Ġtev ahiya
emal t
ĠNet ewe
g Ã®
ik um
Ø±ÛĮÚ© Ø§
ĠÙĩÙħ Ùĩ
Ġnehat iye
ĠGel o
Ġv ala
ĠS ib
Ġc ud
ĠbeÅŁ Ãªn
Ġgel lek
ĠØŃ ÙĤ
ĠÚ© Ø§ÙĦ
Ã®y anÃª
l et
og raf
Ġc am
Ġgot Ã»bÃªj
Ġreng Ãª
Ġqedex e
Ġheb in
Ø¶ Ø§
f orm
Ġ is
ĠØ¯ ØºÙĩ
Ġnim Ã»ne
on c
Ø³Øª Ùħ
Ġnaverok a
aw er
Ġr o
Ġa ux
Ġm aye
Ã®d Ãª
ĠDer ve
Ġpart iya
u g
ĠÚ© ÙĪÙĬ
Ġzanist Ã®
Ġf elsef
ĠRoj a
Ġroj ava
ĠD Ãªrs
ĠW an
Ġf orm
Ġsal Ãª
ĠÚ© Ø³
u i
Ġagah iyÃªn
ĠÙĪ Ø³
Ġag ahÃ®
Ġber bi
Ġwin da
u is
Ġnas nam
ĠÙĪ ÙĦ
ĠT eb
ĠÃ®n san
ĠTirk Ã®
ĠpÃªÅŁ Ã®n
ĠpiÃ§ Ã»k
Ġseb a
iy arÃªn
Ġmec l
an Ã®ya
ĠR us
M e
Ġli hev
ĠM ist
ÙĪÙħ Øª
ĠO z
Ġser best
y ekÃ®
Ã®z mÃª
ĠÙĩØ³Øª ÙĨØ¯
Ġal f
ĠÚĨ ÙĨØ¯
Ġbersiv a
Ġhew ce
ĠpirtÃ»k Ãªn
7 0
ĠrÃª w
Ġdan Ã®n
man Ãªn
Ġzil am
Ġdi gih
ation s
p e
Ø¯ Ø§Ùħ
d Ã®nÃª
ĠÃ§areser iyÃª
Ã®n eyÃªn
ĠM uh
Â Ń
Ġbik Ã®
Ġm it
ol kl
ĠDA ÃİÅŀ
Ġreferand Ã»m
oloj Ã®k
Ġt ey
Ã» yÃª
Ø² Ùĩ
Ġp rat
Ġmalb atÃªn
Ġkes ek
Ġwek hev
Ġs in
ĠBed irxan
ĠbÃ» bÃ»
ir Ã®n
Ġbin Ãª
Ø¶ ÛĮ
Û ¶
ĠhikÃ»m etÃª
ĠEn c
ah iyÃªn
ĠrÃª xistina
Ã®s yona
Ġf ran
Ġmirin Ãª
er b
Ã»r Ãªn
ĠjÃ®y ana
Ġxwend ina
ĠØ§ Ø¨
Ġferm and
Ø® ÙĪ
Ġtev ahÃ®
Ġm izg
ĠHem Ã»
ĠT Ã®r
Ġb Ãªr
19 6
Ø³ Ùĩ
Ġt al
Ø§Ø² Ùĩ
ĠÃ§ iy
2 9
Ġtek oÅŁ
ĠnivÃ®s Ã®n
ĠOs manÃ®
ĠZanÃ®n geha
ĠE nd
ĠA t
d il
ĠR eÅŁ
l Ãªn
Ã ł
ĠdÃ® w
K om
Ġb orÃ®
Ġn ah
ĠÛĮ Ú©ÛĮ
t u
Ġx uy
ĠØ¯ Ø§Ø´ØªÙĩ
ĠM Ã»s
ĠgirtÃ® gehÃª
ĠØ¨ Ø§Ø±
Ú© Ø±Ø¯
Ġda bÃ»
ĠÃ§ek Ãªn
Ã®y eke
eder al
ĠI s
A r
u yÃª
Ġpirs Ãªn
Ġe f
ĠØ³ Ù¾
Ġs el
q Ã®
z Ã®
ĠM af
iqu es
ĠÙ¾ ÙĪ
Ġv otre
Ġh Ãªr
Ġx Ãªr
Ġperwerd eya
Ġrex n
ĠâĢĺ âĢĻ
Ġmirov Ã®
Ġl ing
r i
ĠØ¹ ÙĨÙĪØ§ÙĨ
ĠÃĬ dÃ®
ĠrÃª ber
ĠÙĨÛĮ Ø³Øª
ĠB a
Ġbir Ãª
ĠW ezareta
Ã® Ã§
Ġew qas
ĠØ³Ø§Ø² ÙħØ§ÙĨ
Ġbel g
Ġab or
Ġs ax
our s
dÃ® t
Ġagah dar
Ġhilbijartin Ãª
andin Ãªn
ĠtÃª te
Ġoperasyon a
Ġtel ef
Ġmeh an
Ġk evin
r Ã©
Ø¨ ÙĦ
ĠÃ§alak iya
ĠdÃ© c
ĠØ³ Ø§ÛĮØª
Ġ ek
we lat
ĠÅŁev Ãª
Ġg ef
y ek
Ġxel as
Ġ Ã®t
ĠG ava
m es
Ġdig irin
n an
b elÃª
gir Ãªn
iy ana
ilÃª man
ĠÙ¾ Ø§Ú©
ĠbaÅŁ Ã»r
and e
ĠbÃ»y erÃª
ĠbiÃ§ in
Ġbid om
M in
ĠÙĩÙħ ÚĨ
ĠBex dayÃª
Ġh eke
Ġtem enÃª
ol og
ĠN Ãª
ĠHes en
Ġxw u
Ã®t iyÃª
" ,
âĢ ı
p s
al l
ĠÃ§av an
ĠtiÅŁt an
Ġdest pÃª
Ġz iv
Ġm o
Ġn ew
ĠR ewÅŁ
h el
Ġc ont
Ġp ost
im kÃ®
Ġh Ã®na
ĠØ± Ø§ÛĮ
Ġnav xweyÃ®
ĠkÃª l
Ġd anÃ®
ĠK u
ĠÃ§Ãªk ir
Ø³Øª ÛĮ
Ġqan Ã»n
ek et
Ùĩ Ø±
Ġdib ist
az iyÃª
ĠÙĪ ÙĦØ³
est a
ĠÚĨ ÛĮ
ĠB ay
Ġal iyan
ĠØ³ ÙĪ
Ġper werde
ĠØ² ÛĮØ±
ĠÙħØŃ ÙħØ¯
pl om
E S
Ġnav Ã®n
ĠÙħ Ø«
Ġder s
k erÃ®
Ġkam pan
Ġq as
ĠÙħ Ø§ÙĨ
ĠpiÅŁt a
Ġdik evin
ÙĬ Øª
oloj Ã®
Ġbi t
Ø®Øª ÙĦ
a i
ĠP ro
Ú¯ ÛĮØ±
ĠØ¬ Ø§Ùħ
Ġf am
Ġperwerd eh
Ġc ot
Ġpeyv a
az im
ĠÙģ Ø±Ùĩ
ĠX an
9 0
ĠÙĨ Ø¯
ĠrÃªveb eriya
ĠweÅŁ an
Ġkom a
ol e
ĠØ§Ø· ÙĦØ§
ĠF ar
v anÃª
Ġz orÃª
um p
ol l
yar Ãªn
as im
ĠÅŁoreÅŁ Ãª
ĠØ® ÙĦ
ĠX uda
ir es
Ġdix e
ĠI l
Ù ĭ
Ġpet r
Ġtend ur
Ġgir tina
ĠK ons
ĠÅŁÃª waz
ar et
ĠS a
ab a
Ġder ew
ĠP Ã®r
Ġmalp erÃªn
ĠÙħ Ø³Øª
ĠXwe da
Ġs ibÃª
asyon Ãª
Ġdi st
Ġber hev
Ø´ Ø§ÙĨ
ĠtÃª gih
Ġbib Ãªjin
Ø´ Ø±
Ġh iqÃ»q
Ġper e
ĠØ§ ÙĤ
Ġheq Ãª
anÃ® z
Ġaxaf tin
- -
Ġy Ã®
ÛĮÙħ Øª
Ġel eq
Ø £
Ġm ane
Ġbin dest
ab Ã®
ĠØªÙĩ Ø±Ø§ÙĨ
Ã®l Ã®
Ġg erd
Ġv eb
Ġr akirin
ĠW ezÃ®rÃª
Ġve j
ĠÃ§Ãªk irina
Ġrast Ãª
Ġc arÃ®
Ġbim Ã®ne
Ø´ Ùħ
er t
Ġst at
Ġket ine
Ġhin ekÃ®
Ġtaybet mend
Ø§ÙĨØ¯ ÛĲ
Ġh av
Ġhind ek
ĠE bd
ĠØ¢ Ø±
Ġbi Ã§e
ĠÃª v
i dÃ®
Ġdem okrat
ĠÚ©Ø±Ø¯ ÙĨ
Ġst and
ĠÅŁ Ã®
Ġdemokr asiyÃª
ĠC ot
ĠB aj
xan eyÃª
et t
Ġparast in
ÙĢ ÙĢ
ĠN ivÃ®s
ex tÃª
T O
ĠlÃª pirs
Ġbix in
Ġ #
Ġ +
Ġk enÃª
un a
ir d
ĠxweÅŁ ik
ĠÙģØ¹ Ø§ÙĦ
Ġh eger
el l
Ġh en
ĠÅŁ andin
ĠÅŁew it
ĠK an
oloj iya
Ġdest Ã»ra
ĠÙĦ ÙĪ
ĠG r
ĠÙħØ±Ø¯ Ùħ
ĠB o
Ġderket ina
Ġc il
Ġb on
ĠØ¯ÙĪÙĦ Øª
8 0
k om
Ġhev par
Ġmalb atÃª
ĠNew ro
ĠnÃ®q aÅŁ
Ġdig otin
Ġbel kÃ®
Ã» ya
ew r
Ġwex tÃª
Ġgor a
ch t
Ġf eq
Ġnirx Ãªn
Ø²Ø§Ø± Ø´
og lu
Ġdaxuyan iyÃª
Ġba werÃ®
Ãªj Ã®
ĠG o
ĠbÃ»y er
ĠÙĩ Øº
Ġg en
Ġ %
201 3
ĠØ®ÙĪØ§Ùĩ Ø¯
ĠØª Ø´
iÃ¨ re
ĠÚ© Ø§Ùħ
hat Ã®
Ġber ev
on om
Ú ¼
Ú© ÙĨØ¯
Ã®m Ã®
ĠS ilÃªman
ĠÙĪ Úĵ
Ġwelat iyÃªn
Ġb enda
ĀĀ ĀĀ
Ġne xwe
ĠdibÃªj im
n da
ra st
ÛĮÙħ ÛĮ
ĠØ¨Ø³ÛĮ Ø§Ø±
ekirin Ãª
Ġdem ek
d ay
ĠU r
r in
manc kÃ®
iyan e
ĠS or
Ã» y
Ġme x
Ġmis ilman
E nd
Ġc Ã»da
on g
ĠØ¯ Ø§Ø¯Ùĩ
D ewl
in Ã®
ĠEwrop a
Ġs emb
Ø§ÛĮ Ùĩ
ĠÙĪ Ø±ÙĪ
b l
Ġ and
ĠsÃ®st em
Ġdor pÃªÃ§
Ġt ax
Ġdik arÃ®
Ġl at
Ġberjewend iyÃªn
ĠT ek
ÙĨÚ¯ ÛĮ
ĠB ak
3 5
Ġq ut
ĠÃ§ek darÃªn
Ġdiz ane
ÙĩØ§ÛĮ ÛĮ
ĠÚ©ÛĮ Ùģ
Ġray edarÃªn
Ġh iÅŁt
ĠÃ§alak iyÃª
" .
ĠÙĬ ÙĪ
Ġpol Ã®san
ĠÅŀeng alÃª
Ã®l a
ad et
ĠArt ÃªÅŁa
Ġbib Ãªje
ĠX al
ĠÚ© Ø±
Û ¸
ik ir
ĠparÃªz geha
Ġm ux
ĠØ¨ Ø¹Ø¯
Ġ Ã®ng
Ġak adem
ĠÅŀ ah
Ġc o
A l
Ġx il
Ġd uh
Ġher kes
Ġt Ã®r
Ġn ayÃªn
ĠÙĪ Ø§
ĠÃİl onÃª
Ġkontr ola
Ġdev era
. [
o ger
Ġhev alÃª
ĠdÃ® tina
ĠhÃªs anÃ®
Ġc es
Ġc a
Ġn ad
ĠØ´ ÙĨ
p h
ĠCiz Ã®rÃª
Ã» dÃ®
Ġserd ema
ĠØªÙĪÙĦ ÛĮØ¯
Ã© l
ÙĪ Øµ
Ġcar ekÃª
erÃªn Ã®
n o
ĠpÃªd iv
ĠC ar
Ġmerc Ãªn
an k
ĠÙĨ Ø¨
ĠØ§ ÙĤØª
ÙĪ Ø§Ø±
erd ev
Ġxwez ayÃ®
ĠR ec
Ø´ Ø¯
L K
b Ã®n
Ġez Ãª
Ġgel emp
Ġc an
Ã®y Ã®
ĠÅŁehÃ®d Ãªn
Ġkom pl
ĠBil ind
ĠÃ§ Ãªn
k ef
ĠØ¯ ÙĪØ±
Ø± Ø³ÛĮ
parÃªz e
ĠnivÃ®s karÃªn
ÅŁ emÃª
Ġdib Ã»n
Ġdest Ã»r
Ø« Ø±
Ø±ÙĪ Ùĩ
ĠØ® ÛĮ
Ġd Ã®k
ĠØ® Ø¨
ur r
Ġal oz
Ã®z a
3 1
Ġd ok
Ġp es
ĠÃ§apemen iyÃª
ĠS emalt
Ù¾ Ùĩ
q asÃ®
iÅŁ Ã®
Ġbih Ãªz
Ġm irina
tÃ® f
q Ãª
ĠÙħØª ÙĨ
Ú© Ø²
ĠØªÙĪ Ø¬Ùĩ
c an
ĠB in
ul e
ro s
ÅŁ Ãª
Ġ erm
R Ãª
ĠØ² ÙĨ
ĠN iÅŁt
ĠTirk an
en Ãªn
Ġmil Ãª
Ġmij arÃªn
Ġpro gr
Ġrojnam eger
Ġbic ih
Ġgelemp erÃ®
ĠÙ¾ ÙĬ
ed e
ĠC em
B asNews
Ø® ØªÙĩ
ĠS i
ĠÃ® dÃ®
ĠÅŁ Ãªn
as s
ĠaÅŁt Ã®
Ġdax uy
Ġduy em
ĠÙĪ Ø²
g al
ĠD Ãªr
Ġhed ef
Ø® Ø§Ø¨
ĠA med
ĠÃĩ ar
ĠAlman ya
Ġdi gerin
ĠÙĩÙħ Ø±Ø§Ùĩ
Ø¯ ÛĲ
gr in
Ġdib Ãª
ĠnavÃ§ eyÃªn
Ġhilbij artina
Ġx eta
Ġdaw Ã®n
ĠM ij
Ġwez Ã®f
ĠÙĨ Ø§
ĠFrans ayÃª
Ġ i
Ġ Ã®lan
ĠÅŁ erÃ®
ĠÃ§areser iya
ĠÙħÛĮ ÙĦÛĮ
tern etÃª
Ø· Ùĩ
ĠÚ© ÙĦÛĮ
ĠP arast
Ġkar mend
Ġxwe pÃªÅŁ
Ġew il
ĠT V
ĠØ ¸
am e
ĠtÃªkil iya
Ġm eb
c r
Ġq al
ĠÃİs ra
ĠnivÃ®s kÃ®
Ġbaj arok
Ġdik ar
Ġol Ã®
ec Ã®
Ú¯ ÙĪ
Ġnav b
Ġhuk um
o yÃªn
er o
ĠÙ¾ Ø±Ø¯
ĠÃªrÃ®ÅŁ Ãª
Ġarmanc Ãªn
Ġn Ã®
Ġroj hilatÃª
ab l
ĠDiyarbek irÃª
Ġter orÃª
Ġxw Ã®na
h ema
ed Ãª
ĠnÃ»n erÃªn
ĠCÃ®h anÃª
ĠØ¯ Ø®
s el
Ġr enc
Ġm u
t r
Ġguh dar
Ġna xwazin
Ġxem gÃ®n
Ġp iÅŁ
Ġdin ya
ĠÙĦ Ø±ÙĬ
ĠM us
ĠKC K
Ġcih Ãªn
Ã®t iya
ĠpÃªÅŁket ina
Ġqez enc
Ġdi v
Ġkir Ã®
Ġaw ayÃª
Ġpir anÃ®
U R
Ġser ket
per wer
Ġsedem Ãªn
ÙĨ Øª
Ú¯ ÛĮØ±ÛĮ
Ġnas nameya
Ġber t
Ø±Ø§ ØŃÛĮ
ĠH at
o ÄŁ
ĠÃİ r
ĠÙĪ Ø§ÙĤ
ĠÚ¯ Ø²Ø§Ø±Ø´
Ġkurd istanÃª
ĠØ¹ Ø¨
ĠÙĦ ÛĮ
ĠRoj hilatÃª
ĠKurd a
k s
ĠØ¨ ÙĨØ¯
w w
ve gera
em Ãªr
Ã®z e
Ġserkef tÃ®
ĠØ´Ùħ Ø§Ø±Ùĩ
ĠÚ¯ ÙĦ
Ġtun eye
ĠØ§ Ùĩ
ĠØ® Ø·
ic i
Ġd Ã®m
ĠA lÃ®
ĠØ¯ ÙĪÙħ
Ġneb in
Ġhin gÃª
Øµ ÙĦ
ĠØ´ ÛĮ
Û² Û°
M a
Ã» h
ĠS iya
Ġhelbest Ãªn
ĠH acÃ®
Y ek
ĠÙĨÙħ Ø§ÛĮ
if aq
Ġwe nd
Ġp il
Ø§ÙĦ Ùĩ
Ġpart iyÃª
LK HA
est Ã®
Ġh etÃª
Ġbik evin
ĠØ¯Ø§ÙĨØ´ Ú¯Ø§Ùĩ
Ø§ Ø¦
ĠØŃ Ùħ
b at
Ã»s Ãª
ĠÅŀ amÃª
ĠØ¨ ÙĬ
ĠBil a
. )
ĠØ² ÙħÛĮÙĨ
Ø¹ ÛĮØª
ĠØ§ÙĨØª Ø®Ø§Ø¨
. Â»
Ġbir Ãªz
ĠNav net
ĠMez in
ĠØ¯ ÙĨ
Ù ĳ
ĠrewÅŁ eke
ek ir
ar Ã®ya
Ġw Ãªran
Ġder Ã®
iy etÃª
Ġq ehr
x Ãª
Ø§Ø³ ÛĲ
Ġmal Ãªn
Ġcom p
Ġbin Ã§av
Ãªm e
ĠY il
ĠR es
ĠA b
ĠSÃ»r Ã®yÃª
ĠØ§ÙĤØª Øµ
j im
Ġne g
Ġhev du
k urd
Ġpro s
ĠØ® Ø§ÙĨ
ĠÃİ sa
ĠMÃªr dÃ®nÃª
ĠsÃª y
Ġwes ay
ĠEmerÃ®k a
Ġgir Ãª
Ã§ Ã®r
Ġy as
ĠÙħ Ø®ØªÙĦ
Ġbi en
ĠZ er
ĠEfr Ã®n
ĠalÃ®kar Ã®ya
ĠÙĪ ÙĪ
st an
Ġtes l
Ġwelat ekÃ®
i an
ĠØ§Ø± Øª
iv an
ĠAh met
Ġmod ern
ĠHikÃ»m eta
Ġbi yanÃ®
ĠÙĪØ± Úģ
ĠØµ ÙĨ
Ġrom an
Ġzim Ãªn
Ø¨ Ø§Ø±Ùĩ
âĢ ĵ
ĠK ir
ĠnivÃ®s Ãªn
Ġhevpey v
Ġbix e
ir n
Ø® Ø±
w ist
ĠMist efa
oz Ãª
Ġk ÃªÅŁ
ĠpolÃ®tÃ®k ayÃªn
Ġdil s
ĠÃ ĸ
n er
h t
Ġdaxuyan iya
Ġalf ab
Ġnirx andin
ĠD e
Ġw ar
Ú¯ Ø°
ĠØ¨ÙĪØ¯ Ùĩ
Ġneh eq
Ø´ Ùĩ
Ø§Ø² Ùħ
ez a
Ø§Ø¨ Ø±
wez Ã®r
t an
ÙĦ ÙħØ§ÙĨ
Ġdeng bÃªj
Ġm ore
Ġd at
ĠÃ®s al
Øª ÙħØ§
ÅŁt Ã®
ÙĪØ± ÙĬ
ĠE b
ÅŁt Ãª
ĠÙĨ Ø±Ùħ
Ġfa it
ĠD ib
ĠÙĤ ÛĮÙħØª
Ã®n er
Ġner azÃ®
ĠÅŀ erÃª
ĠÅŁ eÅŁ
ad eya
Ġnizan im
ĠC ol
ed Ã®n
ĠNetewe yÃªn
Ġt Ã»
Ġroj ekÃª
Ġder iyÃª
ĠØ¨Ø² Ø±Ú¯
Ġs ef
Ġs ar
Ġk eno
ĠpÃ®ÅŁ es
Ġve xw
ĠN avÃª
Ġf aris
Ġc ette
Ġxwe dÃª
ÙĦÛĮ ÙĦ
Ã® c
Ġz ext
Ġbi xwazin
av Ã®
Ø¬ Ø§
Ġtir ÅŁ
Ġsiyaset med
Ġket e
Ġmirov ahiyÃª
Ã® b
Ġx ur
ant s
Ġp la
ĠpirtÃ»k Ãª
Ġxiz met
y ayÃ®
Ġziman ekÃ®
Ġpar v
Ø³ ÙĬ
az e
ĠÃİ raq
ĠgerÃ®l a
it iya
ok Ã®
ĠÙĩ ÙĨ
Ãİ ro
Ãªn Ãª
Ġbih Ã®st
is Ãª
Ġz Ã®n
Ġhewl danÃªn
Ġp ak
bÃ» y
Ġrast eq
Ġnam eyÃª
ĠsÃ®n orÃªn
ĠØ¯ ÛĮØ¯
ĠÅŁ eh
ĠÅŁ Ã®n
Ġq es
0 9
ĠØ´ ÙĪÙĬ
Ġwan a
201 2
Ġb Ãªk
Ã® x
ĠØ§ÛĮÙĨ Ú©Ùĩ
ĠÃ® de
manc Ã®
ĠÛĮ Ø§Ø¯
ĠØ¨Ø§ Ø²Ø§Ø±
j e
Ġg eng
Ġberxwe dan
ĠÙĤ Ø·
ĠC HP
ĠEwrÃ» p
ĠØ¨Ø± Ú¯
ĠT Ãªk
Ġper son
ÙĪÛĮ ÛĮ
ĠØª Ø§Ø±ÛĮ
ĠT iÅŁt
ĠØª ÙĤ
ĠÙħÙĩ Ùħ
ĠAng o
ĠK or
Ġr azÃ®
Ġbaj aran
ĠÃ§av dÃªr
Ġxwarin Ãª
Ġmalp erÃª
ĠØ²ÙĨØ¯ Ú¯ÛĮ
Ø§ ÙĪØ±
Ġbi q
Ġhund irÃª
w a
Ġz ik
Ġs ip
ĠqebÃ»l kirin
Ġkar Ã»b
Ġnas Ã®n
Ġ ay
Ġs ir
ĠÙħÙĪ Ø¶ÙĪ
Ġh al
Ġf olkl
ĠnÃ®ÅŁ andan
Ġ erÃªnÃ®
Ġra geh
et e
Ø±Ùģ ØªÙĩ
as e
Ġbir ayÃªn
serok Ãª
ĠÚ© ÙĪØ¯
ĠØ´ ÙĪØ±
Ġmecb Ã»r
Ġw usa
ĠØ¹Ùħ ÙĦ
Ġde q
ah m
Ġziw an
as iya
ĠTr ump
ÙĪÙĦ Ùĩ
Ã§ a
Ġher in
Ø§Ø¨ ÛĮ
af a
Ú© ØªØ±
Øº ÛĮ
ĠØ³ Ø¨
Ġbin gehÃª
Ġgirt iyÃªn
Ġh ikum
ĠPDK Ãª
n t
ĠS Ãª
ĠtÃªkoÅŁ Ã®nÃª
og le
ĠÙħ Ø§Ø´
ĠP r
ĠH PG
Ġdez gehÃªn
ĠÃ®n kar
oc k
ĠwÃªn eyÃªn
Ġax Ãª
Ġvek iÅŁ
Ġdel al
x anÃª
Ġdu b
ĠrÃ» p
r ar
p ir
om b
Ġedeb iy
ĠM ehmet
ĠÃİ brahÃ®m
Ġcih ekÃ®
Ġne q
ĠÙĪ Ùĩ
Ø±ÙĪ Ø²
ĠØ± ÛĮ
Ġve qet
Ġb ak
Ġbe j
ĠD il
ĠÅŁehÃ®d an
ĠU n
Ġber sÃ®
Ġpejir andin
ĠØªÙĪØ³ Ø·
c t
ĠT em
a ut
Ġhilbijartin an
ed Ã®
ĠRoj hilat
ĠR eq
on e
ul lah
nav dÃªr
ab Ã»na
ret erÃª
Ġderf et
s al
Ġr ew
ir iya
ĠEl man
Ġroj evÃª
Ġwat eyÃª
ĠÙ¾ ÙĦ
Ġbang a
Ġdihat e
al is
ĠÙģØ§Ø± Ø³ÛĮ
ĠbÃª te
ĠÅŀ ared
Ã®t a
Ġderdik evin
Ġser m
ĠX anÃ®
st a
ĠØ§Ùģ Ø±
ĠØ³ ÙĬ
i o
ak s
ĠNav enda
Ġey nÃ®
h Ãª
19 5
Ã®m Ãªn
er eyÃª
ÙĪÙĦ ÛĮ
Ġdamez ir
d ik
Ãªz a
Ġcom me
Ġn Ãªk
ĠÃ§areser kirina
Ġsal vegera
Ġfer z
Ġbi parÃªzin
Ġk ad
Ġw il
ĠØ§ÙĨ Ø³Ø§ÙĨ
ĠÃ§ axÃª
Ġciw anan
ĠÅŀ ing
Ø§Ø± ÙĬ
Øµ Ø¯
ĠØº ÛĮØ±
ĠT ay
ĠT enÃª
at an
it s
Ø¬ Ø§Ø¯
Ġmes el
Ġk Ã®l
Ġmezin tir
Ġn eyÃªn
201 1
ent s
Ġpar ve
Ġb eno
ĠDemÃ®r taÅŁ
ĠpÃªÅŁkÃªÅŁ Ã®
Ġbomb eb
Ġfir eh
az Ãªn
ĠrÃªveb er
Ùħ ÙĪÙĨ
ĠØ§Ø³Øª Ø§ÙĨ
ĠR em
Ġfa ire
Ã®r e
Ġnetewe ya
Ġkon s
Ġhind ik
ĠÚħ ÙĪ
Ġ Ã®h
Ġgirt iye
ĠØµ Ø¯
eb o
T u
ĠÃ§et e
Ġbig re
Ġk in
Ġq enc
T irk
Ã®t e
Ã®z m
ir an
ĠÙĨÛĮ Ø§Ø²
ĠØ® Ø§Ø±
ĠÃ§ andin
Ġn orm
ĠÚ©ÛĮÙģ ÛĮØª
Ġkurd a
Ġpar Ã§eyÃªn
ĠØ¨ÛĮØ´ ØªØ±
ĠhemÃ» yan
ĠÃ§Ã®rok a
eÅŁ op
N A
Ø§Ø³ ÙĬ
Ġal b
d eh
ĠØ³Ø±ÛĮ Ø§ÙĦ
ĠØ¨ Ø§ÙĨ
ĠÙħ Ø±Ø§
ĠMes Ã»d
Ġgot ibÃ»
ĠÅŁÃ®r ov
ĠÚ¯ Ø±ÙĪÙĩ
3 7
ĠÃ§av k
iy anÃª
E r
Ø¯ ÙĪ
E M
ih ev
S er
Ġdan eyÃªn
ad perest
art e
Ġveg uher
ĠnÃ» jen
it ion
av an
Ġdad gehÃª
Ø® ÙĪØ§
Ġxwend inÃª
Ġn Ãªv
ĠØ¯Ø§Ø± ÙĨØ¯
ĠÛĮ ÙĪÙĩ
Ġn an
Ġp ez
h m
Ġtendur ist
Ãİ LKHA
Ġdev erÃª
Ġd os
ĠÙ¾ Ø²Ø´
we ndÃ®
R ead
ÙĪÙħ ÛĮ
ĠKons eya
ĠÚħ Ùĩ
ĠG und
ĠL oma
Ġbawer iyÃª
ĠaÅŁ kere
Ġa qil
ay ek
Ġberbi Ã§av
ĠHel ebÃª
ĠDi be
ĠØ§Ø¯ Ø§ÙħÙĩ
Ġamad ekirin
Ġb Ã®n
Ġkar ekÃ®
Ġbim eÅŁ
ay etÃ®
Ġq Ã®m
Ã© g
ĠØ§ ÙĬ
ĠÙħ ÙĦÛĮ
ĠSur iyÃª
E n
ĠFran sa
ĠÃ§Ãªb ikin
ĠØ· Ø±ØŃ
ĠH z
ĠpiÅŁtgir Ã®
Ġz indÃ®
Ø´ ÛĮ
x t
ĠÃ®ÅŁ k
ĠØŃÚ© ÙĪÙħØª
Ġpisp or
Ø±Ø§ Ø¦
ĠØ§ ÙĨÚ¯
Ġm ay
ĠMeh m
Ġbir Ã®n
G er
ĠJi xwe
ĠtÃªkil Ã®
est Ã®v
ĠØ± ÙģØª
Ú¯ Ø±ÛĮ
Ġqon axa
Ġt ro
ØŃ Ùĩ
tÃ® v
Ġes as
ĠÃ§ il
ĠneÃ§ ar
ĠÚģ Ø§ÙĨ
Ġdar iz
c anÃª
dl ibÃª
Ġhem e
k aran
ĠHer wiha
ĠrÃªbaz Ãªn
Ġart ÃªÅŁ
x ane
ĠEr ebÃ®
ĠÙħØ´ Ú©ÙĦ
Ø¯ ÙĪØ¯
st Ã®t
Ġc ew
Ġc anÃª
Ġnizan in
Ġt ra
g a
Ġo d
9 7
ĠnivÃ®s a
ĠfaÅŁ Ã®st
Ġpey wend
Ġbim Ã®nin
ĠD ay
res s
Ġc ons
n es
Ġs aya
Ġram anÃªn
et iya
ĠZ an
ĠÙĤ Ø§ÙĨ
ĠØ¨ ÛĲ
ĠPar lament
Ġnav nÃ®ÅŁ
Ġbi grin
Ġproj eya
ab Ã»n
Ġderf etÃªn
Øª Ø±ÛĮ
ĠbirÃ§Ã® bÃ»nÃª
ĠE bdul
ĠÃĩ i
man iya
ĠØ§Ø³ÙĦØ§Ùħ ÛĮ
ĠÙĨ Øµ
at Ã®f
n Ãªn
ĠnivÃ®s karÃª
ĠÃ§ in
Ġdim Ã®nin
ĠÚ¯Ø± ÙģØª
Ġxil as
Ġdi dan
ĠPiÅŁt re
Ġh e
Ġbal af
ĠSib atÃª
ĠdÃ»r Ã®
Ġderd ix
P ir
Ġba h
Ø¨ Ø±Ø¯
ĠQamiÅŁ lo
ĠDad geha
ib andin
ger Ãª
ĠB ot
ĠHin ek
Ġec Ãªb
c er
st r
Ġrap ora
Ġcez ayÃª
Ġbi da
Ġdik iÅŁ
5 00
ĠØ³ ÛĮÙĨ
Ġs ew
ĠN Ã»
ĠH eger
ĠZ imanÃª
Ġhevkar iya
Ġnav dewletÃ®
Ã§ Ãª
ĠØª Ú©
oc i
f in
ĠØµ Ùģ
Ø´ Ø§Ø±
ĠØ¯Ø± ÙħØ§ÙĨ
Ġp sÃ®k
ĠT al
L e
ĠØ¬ ÙĪÚĵ
Ġsiyas etÃª
ĠhiÅŁ k
Ã§Ã®r van
Ġstr anÃªn
Ġs Ã»r
ĠÙ¾ Ø§Ø±
Ġfir otin
Ġv ana
u el
ĠpÃª x
Ġkom el
Ġt erm
Ġderket iye
ĠDest eya
xw Ã®n
ĠEs ed
Ġz ag
ĠÚĨÙĩ Ø§Ø±
att oo
Ġra bÃ»
Ġs iw
ger iya
Ġdi ya
Ġg avÃªn
Ġn ekirin
Ġm ot
b Ã®y
Ġb Ã®y
Ġderb az
Ġk Ã®m
Ġkar ker
ĠtÃª de
Ġh ej
ev anan
ĠveÅŁ artÃ®
Ġxwendek arÃªn
Øµ ÙĪÙĦ
ĠgirÃªd an
ĠØ§Ùħ Ø§Ùħ
Ġ ;
ĠAlman yayÃª
ĠnÃ®ÅŁ anÃ®
k era
Ġhest Ãªn
ĠÃ§ em
ĠdÃ® plom
Ġn ema
Ġx ap
Ġk las
Ġh ef
ĠGo ogle
Ġx at
Ġkar s
Ġm iÅŁt
Ġqir Ãªj
Ø ¡
k eft
ĠJ e
Ġbixw Ã®ne
Ġdeng Ãªn
ĠÙ¾Ø§Ú© Ø³ØªØ§ÙĨ
Ġas Ã®m
Ġt ran
Ġxw Ã®nÃª
ĠPÃªÅŁ merge
o yÃ®
en ivÃ®s
Ġdi ax
os e
Ġs es
p ort
B Ãª
Ġxuy akirin
ĠÃİng il
Ġr ewa
ĠyekÃ® tiya
Ġbir a
Ġn ij
Ã®t Ãª
ĠØ¯ ÙĪØ±Ùĩ
Ġji ber
Ãªr Ãªn
Ġg avÃª
ĠÃ§alak Ã®
ist anÃ®
ĠØ³ Ùģ
ĠT eh
ok an
ĠÙħØ®ØªÙĦ Ùģ
em berÃª
Ġgir s
Ġmer as
Ġt eke
ĠA d
ĠÙĨ ÙĬ
Ġr ih
Â «
Ġar am
Ġqis ey
ĠØªÙħ Ø§Ùħ
Ġbelav kirin
ĠEh medÃª
v anan
Ġqey d
Ġji xwe
ĠØ¬Ùĩ Ø§ÙĨ
ĠØ´Ø¯ ÙĨ
ĠS Ã®y
ĠpÃªwÃ®st e
ĠÙĪ ÙĦÛĮ
Ã§ eya
Ġbazirg anÃ®
Ġdag Ã®r
Ġwelat parÃªz
ut il
Ġt ena
Ġwez Ã®rÃª
Ġx erÃ®
ĠrÃ»m et
ĠØ§ Úĵ
Ù ı
Ø³ Ø§ÙĦ
Ġber nameya
Ġbid im
Ã®z an
Ġrenc ont
ĠL es
Ġedeb Ã®y
ĠØ´ Ú©
b ik
Ġr ey
ĠØ³ ÛĮÙħ
ĠtÃªkil darÃ®
Ġdak u
en sÃ®
Ġjib Ã®r
Ġm Ãªj
ij Ã®
a ux
Ø§Ø³ Ø¨
Ãªk o
aw Ã®
Ġh alÃª
Ġn ot
Ġserxwe bÃ»nÃª
ĠKes Ãªn
et iyÃª
k r
Ġqetil kirin
ĠÚ¯ ÙĪØ´
Ġen er
Ġdij m
Ġdib istanÃª
iz a
Ġcom m
Ġgun eh
y oya
Ġbin pÃªk
ĠhiÅŁ mend
Ġl oma
Ã®k an
ÛĮØ± Ùĩ
ÙĦØ§ ØŃ
manc a
Ġfer heng
ĠsÃ®yas et
Ġb Ãªj
es p
ib Ã®
Ø±Ùģ ÛĮ
ĠY Ãªn
ĠS ch
Ã®z Ãª
at Ã®ya
ÙĤÛĮ ÙĤ
Ġn ih
c o
Ã®y et
ĠÃ® dar
Ġpayt exta
Ġrojnam eya
ĠØ³ÛĮ Ø³ØªÙħ
Ø¸ Ùĩ
Ġhes abÃª
ĠA x
Ġv at
Ġxeb it
Ġ us
um a
ĠÙĪ Ø¨
Ġsos yal
Ġwe nda
Ø² ÙĪ
Ġf ac
ĠÃ§et eyan
Ġsp Ã®
Ã®rok a
ĠÙĩ Ø¯
Ġkevn eÅŁop
ĠØ± ÙĨÚ¯
ĠÃªr Ã®ÅŁan
ey anÃª
ĠXel Ã®l
Ġp ara
Ġxet er
Ġh Ã®s
ĠM il
Ġmeh Ãª
Ġn ade
ĠBr Ã®tan
Ġdesthilat dariya
Øª ÙĪ
ĠØ§ÙĪ Ø³
Ġk at
Ġfik ir
ĠkeÃ§ a
ĠØ¬ ÙĪ
ĠrÃªxistin Ãª
B ir
Ġ Ã®z
m eha
Ġn erm
Ãªk irin
Øª ÙĪÙĨ
ĠØ¯Ø³Øª Ú¯Ø§Ùĩ
Ġt ar
h ol
Ġs ans
Ġm or
Ġbiry arÃª
Ã®k ayÃª
ĠØ± ÙĪØ§ÙĨ
ĠÅŀoreÅŁ a
Ġe we
Ġwer girtin
Ã®j e
Ġw erd
ĠÙħØ¯ ÙĦ
3 4
ĠMÃ»s ilÃª
ĠpÃª l
tir s
us si
Ġw ind
Û±Û³ Û¹
Ø¨ ÛĮÙĨ
ĠhikÃ»m et
Ġnam z
Ġroj hilat
Ġbin Ãªrin
ĠÅŁer ekÃ®
ĠB eh
k ot
Ġberdew ama
Ġveguh est
s h
Ø§ÙĦ ÙĬ
ĠØ¨Ø¯ ÙĪÙĨ
ĠÙĪØ± Ø²Ø´
ĠÃ§ek an
Ġbib Ã®r
Ġk m
Ġbernam eyÃªn
Ã» yan
Ġrast Ã®n
Ġpey mana
Ġhun er
200 9
Ġt Ãªra
Ġhet anÃ®
Ġb ext
Ġbik iÅŁ
k ez
Ġder eng
ĠalÃ®k ariyÃª
ĠkiÅŁ andin
ĠEmerÃ®k ayÃª
ĠhÃªv iya
Ġbo y
um Ãª
Ġher dem
ĠP irs
P J
Ġkir manckÃ®
Ġderheq a
Ġkom p
ÙĩØ§ ÙĬ
irn ex
Ġtelev Ã®z
Ġk ap
r y
ĠD u
Ġqur b
b olÃª
Ġc el
ĠÚ© ÙĪØ±
Ġdils oz
Ä± l
ĠÚ©Úĵ ÛĲ
Ġr em
Ġdub are
em Ã®
Ġserok atiya
ĠlÃ®st ik
] .
ĠpÃªÅŁ merg
ĠÃ®n ternetÃª
ĠØ¨Ùĩ ØªØ±ÛĮÙĨ
ah a
ĠØ® Ø§ÙĨÙĩ
d am
Ã®y eyÃª
Ġhund ir
ĠcÃ®h anÃ®
Ġkov ara
ekin in
ĠhevdÃ® tinÃª
ĠØ§Ùħ ÙĨ
Ġk or
Ġdi yal
ĠYNK Ãª
Ġv Ã®n
ĠlÃªkol Ã®nÃªn
Ġp h
Ġberxwe danÃª
Ġgun dÃ®
ĠS ad
ĠnÃ» Ã§e
Ġh az
Ġbaj arÃ®
Ġmuz Ã®kÃª
0 3
ĠQ an
N av
al d
Ġp o
c es
ĠÃ®ng il
Ġhun era
Ġrad i
ĠØ¯Ø® ØªØ±
iw Ãªj
ÅŁ Ã®
ĠE f
ĠØ¬ Ø§ÛĮ
Ġbist Ã®nin
Ġs eh
ĠrÃªj Ã®ma
Ġfer q
Ġbi ax
Ġoperasyon Ãªn
ch er
ĠW el
P ar
ĠM Ã»sa
Ġmerd im
Ġlat Ã®nÃ®
Ġac iz
Ã§ ar
ĠÙĨ ÙĪÙħ
Ø¯ ÙĨ
ĠR a
or g
ĠE t
ĠC ih
ĠpiÅŁtgir iyÃª
ĠAmerÃ®k Ã®
Ġb Ã®st
Û° Û°
Ú« Ø±
ĠØ±ÙĪ Ø´
ĠKom a
Ġtij e
fir oÅŁ
ĠavÃª t
ĠÙĩÛĮ ÚĨ
Ø¯ Ø§ÙĦ
iv Ã®n
ĠÙĪ Ø®Øª
ĠÙħØŃ ØµÙĪÙĦ
Ú« Ùĩ
Ġg az
Ġv en
Ú©ÙĨ ÙĨØ¯
er in
3 2
ĠØ¯Ø§ Ø®
Ġalfab eya
Ã§ Ã»nÃª
Ġm ayÃ®n
ĠM em
ĠØ§Ø·ÙĦØ§ Ø¹Ø§Øª
Ø§ Øº
nam e
Ġ ont
. ÂĶ
Ãªn Ã®
Ġm Ã®t
Ġrej Ã®mÃª
Ġperwerd eyÃª
Ġqon ax
Ġn es
on Ãªn
ĠK am
ĠÙĩÙħ ÛĮÙĨ
Ø§Ùĩ Ø¯
ÙĨ Ùħ
Ġpey am
Ġdij ber
ĠØ§Ø³Øª Ø®
Ġter c
ĠParast ina
Ġpey man
ĠN is
Ġser v
Ġkonferans Ãª
ĠÚ¯ Ø±ÙģØªÙĩ
ĠPar Ã®sÃª
al Ã®st
ĠpÃªÅŁn iyar
Ġx ul
ĠØ´ Ø¹
Øª Ùħ
as an
Gel ek
ĠT ur
ĠÙģ ÙĤ
Ã¤ r
Ġb uh
Ġj Ã®n
W ek
ĠÅŁex sÃ®
m az
3 6
Ġcar na
Ġber am
ĠÙħÙĪØ¶ÙĪ Ø¹
Ø² Ø§ÙĨ
Ġmij Ã»l
ĠW eÅŁ
j iyÃª
Ġnav endÃ®
Ġx al
Ġd Ã®l
ĠÙģ Ø±Ø¯
Ġba x
Ġd arÃª
ĠÅŀ irnex
ep t
Ġhey w
ĠZ arok
Ġber hema
Ġrom anÃª
ĠpÃªk anÃ®n
ur es
ĠÙħØ¯ÛĮØ± ÛĮØª
b iwÃªj
ĠL Ãªkol
ĠLew ma
Ø± Ø§Øª
en an
d r
ĠM ir
Dewl eta
ĠP AK
ĠkÃªm tir
ĠÅŁ irov
Ø§ Ø¶
Ġo b
Úĵ ÛĮ
ĠQ endÃ®
ĠMecl Ã®sa
Ġc iyÃª
ĠÃ§ Ã®
ĠØ¨ ÛĮØ§
ĠØ´ Ø®Øµ
Ġnekir iye
ĠtemaÅŁ e
ÅŁ a
ĠFil ist
ĠØ§Ø¬ ØªÙħØ§
Ġm Ã»z
4 5
av e
ÛĮØ´ Ùĩ
Ġd anÃª
ĠwÃªn eyÃª
ĠEwrÃ»p ayÃª
Ġmed yaya
ĠDem okr
ĠÃª tre
ĠN A
ĠØ² Ø¨Ø§ÙĨ
H ÃªzÃªn
Roj a
ec Ãª
erdev kÃª
nam eyÃª
Ġbel a
ĠÚ© Ø§ÙħÙĦ
Ġkurd kÃ®
ĠÅŁ Ãªx
Ġhem welat
Ġl azim
ek irÃ®
ĠrÃªj eya
ĠÙĦ Ø§Ø³
E D
Ġdaxuy anÃ®
Ġ Ð
Ġan Ã®ne
Ġbij Ã®n
Ġtr Ã¨s
Ġez m
Ġs ite
ĠPÃª wÃ®st
eb e
ĠC ez
Ġli v
Ã¨ re
ĠAm Ã»dÃª
Ġed al
re e
ĠÃ§ iyayÃª
ĠØ§ÙģØ² Ø§ÛĮØ´
ĠÃĩ awa
Ú¯ Ø±Ø¯
ĠØ§ÛĮ Ø¬Ø§Ø¯
ĠÅŀ Ãªr
ĠØ¬ Ø§ÙĨ
Ã®y eta
Ġdidom e
Ġop oz
ĠlÃªger Ã®nÃª
Ġer k
ĠB elÃª
ĠØ· Ø§ÙĦØ¨
ĠP aÅŁÃª
w azÃ®
ĠØ§Ùģ Ø²Ø§Ø±
ĠT he
b or
Ġn Ã®s
ĠÃ§avkan iyÃªn
ĠR ast
ĠØ¯ Ø§Ø³ÛĲ
ĠÙ¾ ÙĨØ¬
Ġfer man
Ġmeh k
Ġx aka
Ġkol anan
es Ãª
ĠØ¹ ÙĦØ§
Ġs im
t t
Úĺ ÛĮ
Ġbikar ibin
Ġbi fik
Ġkar ibin
Ġsed emÃª
eh m
ĠN o
er ek
ĠØª Ùģ
ĠSal ih
Ġdest eser
iÅŁ an
Ġdewlet an
b arÃª
Ã®ÅŁ k
ĠlÃªger Ã®n
Ġe h
ĠØ±Ø§ÛĮ Ú¯Ø§ÙĨ
ay o
Ġk art
m ara
. (
ec tion
ĠPaÅŁ a
E ger
ĠnavÃ§ eyÃª
Ġgih iÅŁt
Ġt ayÃª
ĠÃ§Ãª bÃ»n
dir Ãªj
Ġserans erÃª
ĠX eb
Ġday ik
ĠR o
ĠÙĨÙħ Ø§ÛĮØ´
Ġcej na
Ġw az
Ġr ind
Ġt alan
Ġm Ãªme
Ġt axa
ĠØ¯Ø± Ø¨Ø§Ø±Ùĩ
ĠF ermand
Ġx era
Ġp el
ĠØ® Ø¯Ø§
Ġle ur
ĠtÃªkoÅŁ Ã®n
Ġz azakÃ®
ĠLÃª belÃª
ev aniya
l Ãªd
oz a
ĠA fr
Ġes asÃ®
ĠveÅŁ artin
Ø± Ø§ÛĮ
Ġmij ar
ĠØ´ ÛĮØ±
ĠbÃ»n a
s Ã®l
ĠHel bet
om et
pr Ã¨s
Ùħ ÙĬ
Ġdi sp
ĠC elal
ol Ã®
ĠÃ®f ade
Ġg iÅŁt
Ġgir anÃ®
Ã»m ena
ab end
u it
ĠÙħØ³ Ø¦
Ġrap or
ÙĪØ¯ Ùĩ
ĠP Ãªn
Ġme q
Ġbib Ãªjim
ĠØ§ÙģØ± Ø§Ø¯
f an
Ġl ot
m akÃ®
ĠÙ¾ ÙĪØ±
Ġnak im
ĠØ§ÛĮØ± Ø§ÙĨÛĮ
Ã®y etÃª
Ġt in
Ø¯Ø§ÙĨ ÙĦÙĪØ¯
Ø³ ÙĨ
ĠW eke
W ezÃ®rÃª
âĢ¦ ]
ĠS Ã®n
Ġpar lement
Ġin t
ĠØ¹ Ø±
l and
Ġw o
Ġba bet
ĠÙ¾ Ø§Ø³
Ġper Ã§eyÃªn
Ø±ÛĮ ÙĤ
ĠbikarhÃªn erÃªn
ĠÅŁah id
Ġdil ov
Ġveger in
Ġa ussi
ĠlÃªger Ã®na
er y
Ø ¤
h Ã»r
Ġh an
Ã®m e
ĠpÃª wist
em enÃª
Ġal avÃªn
Ġkir yarÃªn
Ġm Ãªz
Ġtevger Ãªn
Ġnad in
Ġf r
ĠJ in
Ġamad ekar
ĠÚī ÙĪÙĦ
Ġn Ãªb
ĠÃ§Ãª tir
Ġciv ata
ĠC om
0 8
in es
ĠØ¨ Ø¹
ĠR e
Ãªk a
n avÃª
Ø±ÙĪ ÛĮØ¯
ĠØ§ Ú©
ĠÙĩ ÛĲ
ĠÃ ¼
Ø® Ø§ÙĨÙĩ
ĠpÃªÅŁn iyarÃªn
Ġqad Ãªn
ah Ãª
Ġnim Ã»n
Ġzim anan
ger Ã®
r ew
ub l
Ã®y ekÃ®
Ġh ay
Ġl aÅŁÃª
ĠK oÃ§
ĠpÃªd ivÃ®
Ġj Ä±
Ġm en
Ġkir d
ĠTÃ®r mehÃª
X we
Ġdix in
ol Ãªn
ing Ãª
uda x
ĠÂ ·
Ùħ Ø±
Øª Ø§ÙĨ
ĠÅŁ arÃª
f Ã®
ĠnebÃ» ye
ket ina
ĠÙħ Ùħ
ĠØ³Ø§ Ø¹Øª
ĠH al
ĠM ela
Ġdi t
Ġen tre
Ġferm ana
oloj iyÃª
ay ekÃ®
Ġram an
n ed
ĠÃĩ ima
ĠØ§ Ù¾
o i
ĠrewÅŁenb Ã®r
Ã© v
ĠpÃªÅŁeroj Ãª
Ġgr Ã»b
ĠØŃ ÙĦ
ul a
Ġk em
ĠÙĪ Ø§ÙĬÙĬ
ew ar
Ġdemokr asÃ®
ĠK arÃªn
Ã®s Ãªn
Ġt ifaq
ĠN Ã®s
ĠÚ© Ø§ÙĨ
ĠA darÃª
Ġbig uher
b ur
ĠØŃ Ø±
3 3
Ġpe ut
k t
Ġlew ra
Ġbel aÅŁ
w ekÃ®
Ġgirtin e
ĠØŃØ¶ ÙĪØ±
ĠØ¯Ùĩ Ø¯
ĠÙĩ Ø²Ø§Ø±
Ġpr Ã©s
ĠbÃ» bÃ»n
Ġniv is
Ġ[ âĢ¦]
ĠW elat
Ġkol on
Ø¨Ø§ Ø·
ĠØ· Ø±Ø§ØŃÛĮ
ĠCot mehÃª
ĠÃĩ av
Ġda we
ĠG ur
Ġp a
ĠØª ÛĮÙħ
Ġziw anÃ®
ĠØ¨Ø± Ø±Ø³ÛĮ
ĠF r
ĠÃ©t Ã©
ĠM os
b un
Ġtir sa
ĠÃİm ral
ĠÃ§Ãªd ibe
ĠÚ© ÙĪÙħ
ĠS os
ĠÙĪØ±ÙĪ Ø³ØªÙĩ
n in
N ivÃ®s
Ġhin c
Ġparast inÃª
ĠÙĩÙħÚĨ ÙĨÛĮÙĨ
x e
Ã®s yon
ĠPir tÃ»k
Ġbi xwaze
Ġserkef tin
Ġk en
Ġv Ã®d
Ãªk Ãª
ul Ãª
Ġday Ã®k
Ġes lÃª
Ã®z ma
Ġh ep
ĠØª ØºÛĮ
ĠØ®ÙĪØ¯ Ø±ÙĪ
ĠCol emÃªr
Ã» sÃ®
Ġpart Ã®yÃªn
ĠP Ãªx
Ġqet lÃ®
Ġm udax
Ġs azÃ®
ĠÃ§Ã®rok Ãªn
ĠmÃ®l yon
ĠÃ®ns anan
Ã» v
Øª ÙĬ
en er
ĠÅŁer tÃªn
Ġtaw an
Ġxel k
Ġn abin
ĠÃ§avk aniya
Ø¦ ÛĮØ³
Ġf el
ent e
Ġn iq
Ġwex ta
ĠhiÅŁ Ãª
qu es
ĠRec ep
Ġrom ana
P ey
ĠpÃªÅŁ berÃ®
ĠHev pey
ek s
P Ãª
ĠÙĪ Ø²Ø§Ø±
Ġmex d
Ġoperasyon Ãª
ĠC an
Ġav ahiya
ĠKon greya
ĠrÃ» x
Ġzil m
Ġleh eng
Ġdest keft
Ø§ Ø¬
Ġz em
Ġt he
H em
ĠØ¯ ÙĪÛĮ
Ø§ Ø®Øª
ĠØªØ§Ø±ÛĮ Ø®
0 1
ĠHus ey
ĠØªÙĨ ÙĩØ§
Ã§ eyÃª
Ġb Ãªjim
ĠM ust
ĠD Ãª
d anan
ĠØ¹ÙĦ ÙĪÙħ
ez e
l ar
ĠÙĪØ²Ø§Ø± Øª
en de
Ġedebiy ata
ĠtiÅŁt a
Ġked a
ĠcÃ®h ana
Ġheval bend
Ġd Ã®y
Ġra g
ĠØ¹ Ú©Ø³
ĠØ³ Ø±Ùħ
Ġq ay
ĠdÃ®k t
Ġel ekt
13 9
ĠÃĩ iyayÃª
ĠÚ©Úĵ ÛĮ
ak ir
Ġas s
ĠH eÅŁ
Ġnex ÅŁ
ĠÙĩÙħ Ø§ÙĨ
á ¸
Ġdariz andin
Ġprot est
Ġmuh Ã®m
iz Ã®
ĠkarÃ»b arÃªn
ĠÙĨ Ø§ÙħÙĩ
ĠØ´Ø¨ Ú©Ùĩ
ĠÚ©ÙĨ ÛĮÙħ
Ø¨ ÙĦÙĩ
ÙĪÙĦ ÛĲ
Ġbix eb
Ġlaw Ãª
ĠPer werd
ar eta
Ġl Ãªk
ĠA g
Ãªn a
ĠÙ¾ ÙĪÙĩ
Ġm az
ĠØ® ÙĦØ§
Ġm ÃªrÃª
ĠHewl Ãªr
bil ind
Ġhun erÃ®
Ġan iye
I R
ĠT er
Ġk eÅŁ
ĠhevdÃ® tina
Ġdiyal og
ĠpÃªÅŁ waz
Ġa q
Ã®t eyÃª
ou p
Ġp al
T Ãª
b o
ĠpÃªk an
Ġzanyar Ã®
Ġk ew
ĠØ´ÙĪ ÛĲ
Ø¯ Ø§Ø±ÛĮ
Ġm Ã®yanÃª
ĠA nd
ĠpÃªÅŁ xistin
Ġr az
ĠØ´ ÙĪÛĮ
ĠEnq ereyÃª
ÙĪ Ø§Ú©
ĠkÃªm as
ĠGir tÃ®
ĠH aw
m etÃª
ĠlÃ®st eya
Ġw arÃªn
Ġdik Ã®
ĠØªØºÛĮ ÛĮØ±
ĠÃ§er Ã§ov
ĠÙĤØ§ÙĨ ÙĪÙĨ
c ih
Ġd Ã®nÃ®
ĠÙĨØ³ Ø¨Øª
g l
Ġm un
D er
Ġ ola
et ek
Ġtev ayÃ®
Ãªv Ã®
Ġbixw Ã®nin
Ġest Ãª
Ġz ana
Ø¹ Ø§
ĠØ® Øµ
ĠbinÃ§av kirin
Ġev Ã®na
ÛĮÙĨ Ø¯
âĢĮ âĢĮ
ĠÙħÙĨ Øª
D est
ÛĮØ¯ Ø§
ĠØ´ Ø§
ĠØ®Ù¾ ÙĦÙĪ
Ġd Ã®nÃª
ĠI dlibÃª
ĠX ez
eb Ã»nÃª
ĠM id
ĠÙħ ÙĪØ²
ĠØ§Ùħ Ú©Ø§ÙĨ
Ġal a
Úĵ ÙĪ
ĠG irÃª
Ġkon gr
ĠÅŀing alÃª
ĠHer weha
ĠØªØ± Ú©ÛĮ
Ã®s Ã®
t es
ĠØ¬Ùĩ Øª
Ġhez kirin
ĠM am
Ġs y
Ġb an
ĠØ§ÙħÙĨ ÛĮØª
Ġzik makÃ®
Ġbi parÃªze
Ġkad ro
Ġteke z
Ġba b
al ef
ÙĪÛĮ ÙĦ
K ar
ĠÙħÙĨ Ø·
Ġs en
Ġt ak
Ġen t
is an
p or
ĠÙĪ Ø§Ø±Ø¯
ĠY ew
ĠÙĨØ´ Ø§ÙĨ
Ġguh darÃ®
Ġ erÃª
Ġmis oger
ta it
k in
Ġtevl ihev
Ġmuz Ã®ka
ĠmÃªr an
Ġciv Ã®n
Ġdest an
Ġbal afir
Ġreng ekÃ®
ĠMaf Ãªn
3 00
ÙĨØ¯ Ø§ÙĨ
ey o
ĠØ§ÙĨØ¯ Ø±ÙĪÛĮØ¯
Ġruh Ãª
ans Ãª
ĠÙħØ¬ ÙħÙĪ
r ana
ĠS eb
ĠÙ¾ Ø®
ĠÃªz d
ĠÃ®s lamÃ®
ĠNiÅŁt imanÃ®
Ãªk Ã®
Ġberpirs Ãªn
Ġafir andin
ĠÅŀer ef
ĠÙĤ Ø¯Ø±
ĠÙĪØ± Ú©Úĵ
ĠÃĬ l
ĠeÅŁ ker
ĠnÃ» Ã§eyÃªn
Ġser wer
Ġx iyan
P art
Ġm ekt
b el
Ġbet al
it Ã©s
ez anÃª
Ġcen az
or iya
dar an
ĠNavnet eweyÃ®
ĠMin bic
Ġn uha
ĠbeÅŁ Ãª
Ġdizan im
ĠØªØ± ÛĮÙĨ
ĠÙħØ± Ú©Ø²
ĠB es
Ġdar b
H el
us e
Ġkur s
E V
ĠB avÃª
ĠHez Ã®ranÃª
ĠÃ ¥
ĠnÃ® vÃª
ac e
Ġserkef tina
Ġev Ã®n
Ġp en
Ġn az
Ġnorm al
n eya
ĠÙĬ Ø§
ĠÙģ Ø±Ùħ
ĠD an
Ġxel at
Ġserok Ãªn
Ġbib Ã»
Ġxizm etÃª
Ġwer girt
ĠbÃ»y era
ĠÙħ ÛĲ
ĠL ey
ĠØ¨Ø± Ø®
ant e
p art
Ġan n
ĠZer de
ĠY emenÃª
ĠtekoÅŁ Ã®na
ĠpiÅŁt rast
Ġr ik
ĠÃĩ Ã®nÃª
ĠRÃª xistina
ĠnÃªr Ã®nÃªn
Ġot om
Ġnik arÃ®
f e
Ġdi ma
l Ã»
Ø±Ø¯ Ùĩ
ĠF Ã®l
ĠalÃ® girÃªn
Ġdamezr andin
y arÃª
Ġrizgar kirina
Ġbik ira
ĠMirov an
ĠØª Ø®
Ġde ux
Ã®f a
os s
Ġh ur
ĠÙ¾Ø± Ø³
bi be
Ġst Ãªr
Ġhelbest a
Ġh Ãªrs
Ġmes ela
Ġcih anÃª
Ġpirs Ãª
ĠwÃªj eyÃª
ĠBÃª guman
Ġbi dÃ®
Ġf e
Ġrageh and
Úĵ Ûį
am p
ĠKom eleya
Ġher tim
Ġt omar
Ġn uh
Ã»m Ãª
Ġqur ban
Ġpar Ã§e
ĠD ev
Ø®Øµ Øµ
ĠÙĤ Ø§Ø¨ÙĦ
Ġc ha
Ġc or
ez aq
ĠXal id
ĠR Ã»da
Ġb are
ĠDewl etÃªn
ay eke
iq as
Ġrast erast
Ġre c
ĠSÃ»r iye
Ġdig re
Ġbiryar Ãªn
Ġdijm inÃª
ĠM ur
ist e
ĠØ§Ø¹ ÙĦØ§Ùħ
ir im
it y
Ġwil o
Ġorg anÃ®z
ĠzanÃ®n gehÃª
g uh
Ġderket ine
ĠÅŁÃ®r ket
ĠH ar
ĠØ®ÛĮ ÙĦÛĮ
ĠG ot
end re
Ġf ederal
ĠÙģ Ú©Ø±
ĠSerok wezÃ®rÃª
Ø§Øª Ùĩ
b Ã®r
et er
Ġs l
ĠØ®Øµ ÙĪØµ
Ġ &
ĠØ® Ø§Ø·
ĠweÅŁ ana
Ġtem amÃª
ĠwÃªj eya
Ġdest Ã»rÃª
ĠB az
Ġen f
ĠH ind
Ġne z
Ġwe h
ĠCel adet
Ġs Ã»d
Ġx ez
Ø§Ùĩ ÛĮ
D em
p t
ĠØ¨Ø± Ø®ÛĮ
Ġv al
ĠNis Ãªb
ĠÃ®r adeya
ĠÅŁev a
ay eta
arin an
Ø¶ Ø§ÛĮ
Ø¯ ÙĬ
is h
Ġac c
ĠK at
ĠÙħØ¹ Ø±ÙģÛĮ
Ã®s y
ĠXwe nd
k erÃª
Ġr et
iy aye
Ù¾ Ø§
Ã ¹
t s
UR D
Ġex la
Ġra be
Ġcez a
ĠxwepÃªÅŁ and
iy eya
ĠÃ§Ã» ye
g or
ĠØ¢Ùħ Ø±ÛĮÚ©Ø§
r am
. âĢĻ
ĠØª ÙĪØ±
ÙĨ Ø§ÙĨ
ĠG un
ĠÃİmral iyÃª
Ġp op
Ġz anÃ®
Ġmamost e
eÅŁ a
o ire
Ġd ek
ĠY E
ĠK il
ĠKom Ã®teya
ar s
ĠdivÃª t
Ġhev dÃ»
xwe nd
ĠÙħØ¹ Ùħ
g Ãªr
ĠÙģØ¹Ø§ÙĦ ÛĮØª
Ġbik uj
Ġwer gera
Ġq eh
st e
ĠTirk Ã®ya
Ġt ab
as h
H in
ĠH is
Ġmil l
L a
eh Ã®
ĠÃ®s lamÃª
ĠpÃªÅŁ b
ĠB erÃ®
d al
Ġpey ama
ĠR on
Úģ ÙĬ
Ø ©
Ġes ker
ĠØ§ Ø±Ø§Ø¦
ĠØ« Ø¨Øª
Ø§ÛĮ Ø·
! âĢĿ
ĠØ§ ÛĮÙħ
ĠØ§ Ø¨Øª
Ġmet irs
Ġreh et
ĠNÃª Ã§Ã®rvan
ĠØ¨ ÛĮØª
ĠØ§Ø±Ø§Ø¦ Ùĩ
Ã®l e
ĠØ§Ø¬ØªÙħØ§ Ø¹ÛĮ
Ø§Ø´ ÛĮ
Ġs ex
ĠØ§ Ø¹Øª
ĠØ¬ ÙĨÚ¯
Ġan alÃ®z
Ġ ..
ĠEnq erÃª
b Ãªn
ĠØ¯Ø± ÛĮØ§
ĠÙģ ØµÙĦ
ĠhÃª l
Ġber din
Ġpetr olÃª
S K
Ġbl og
r ef
ĠÙĪ ÙĤ
ĠØ· Ø¨
Ġz iyar
Ġbik ero
y oyÃª
ĠÃ®m z
eÅŁ Ã®
Ã»m a
Ġsil av
Ġlew ma
ÙĪÙħ Ø§ÙĨ
ĠK el
ĠÙĦ Ø¨
ĠdiÃ§ Ã»
Ġber z
Ġk Ãªr
Ġser pÃª
ĠrÃª berÃª
Ġh iÅŁtin
Ġl ey
Ġdib istana
ĠØ¬ ÙħÙĩ
ib a
Ġqu el
ed an
ĠØ³ ÙĪØ§ÙĦ
ĠL eÅŁ
Ġp Ã»Ã§
Ġkev ir
Ġned in
Ġx alÃªn
Ġdagirk eran
ek reterÃª
nÃ® g
ĠØ® ÙĪØ±
ator iya
Ġklas Ã®k
Ġdib Ã®nim
Ġjiyan eke
ĠØ§ ÚĵÙĩ
I N
M al
Ġxeb er
Ġdiq ew
Ø§Ø± Ø§ÙĨ
ĠÙĨØ¸ Ø§Ùħ
ÛĮØ¯ ÛĮ
Ġg em
Ġzay endÃ®
ab elÃª
Ġbed ena
Ġbinav kirin
ĠÃ§ Ã»m
Ġbi jÃ®
Ã© d
ĠØ§ÙĤ Ø¯Ø§Ùħ
ĠØµ ØŃ
198 0
ig e
ĠD uh
ĠØ¨ ØŃ
Ġcar ek
ĠleÅŁker an
Ġp lat
ĠØ§ÛĮÙĨ ØªØ±
ĠÃ§ap kirin
Ġf Ã®z
3 9
ĠØ¯Ø§Ø± Ø§ÛĮ
Ġhun erÃª
ĠâĢ Į
ĠØ§Ø´ Ø§Ø±Ùĩ
g an
az an
il s
ĠØŃ Ø±Ùģ
Ġh ost
ĠÙĩ ÙĪ
ĠØ® Ø§Øµ
ĠØªØµ ÙĪ
ĠÚ©Ùħ Ú©
ĠnivÃ®s Ãª
Ġn Ã®j
Ġhaz ir
ĠGul anÃª
end Ãª
20 00
Ġpey d
Ġv ers
ĠÙ¾ÛĮ Ø§Ùħ
W A
Ã®n eya
Ġdixeb itin
Ø§Ø¯ ÙĬ
ĠÅŁ i
ĠrÃªveb erÃªn
Ġbed ew
Ġned Ã®t
Ġzar av
Ġp oz
Ú¯ ÙĪÙĨÙĩ
Ġbeh s
ĠØ® Ø¯
ĠQ ud
Ã©r ie
ĠØ³ ÙĦ
ib le
ÙĦ Ø§ÛĮÙĨ
kerd iÅŁÃª
Ø¹ Ø«
ger Ãªn
ĠMehm Ã»d
j ansa
Ġz ev
Ġf Ãª
ov ara
Ġt ous
Ġ â
Ġprop ag
ĠÃĬz Ã®d
j Ã®n
ĠhevdÃ®tin Ãªn
ĠÃİs lam
ek ine
Ġpir sÃ®
st anÃª
util is
ĠÙĤ Ø¨
0 4
Ø§Ø± ÛĲ
ĠÙ¾ Úĺ
ement s
Ġz Ã®r
ĠSilÃªman iyÃª
ĠE ÅŁ
Ġber de
Ġyek ser
ĠH il
ĠÃ§Ã» y
N iha
Ġdi p
ĠÚ¯ ÙĪ
ĠØ§Øµ ÙĦÛĮ
? âĢĿ
âĢ Ķ
em med
Ġzarok Ãª
Ġheq Ã®q
ĠbÃª hem
c k
ĠHDP Ãª
Ġdih Ãªle
em enÃ®
g irin
yar Ã®
ĠØ´Ø± Ø§ÛĮØ·
ĠØŃ Ø¬
Ġg il
ĠØ¨Ø§ÙĦ Ø§
ĠO mer
ĠØ·Ø§ÙĦØ¨ Ø§ÙĨÙĪ
ĠØ³ Ø§Ø²ÛĮ
Ġgr eva
ĠdestnÃ®ÅŁan kirin
ĠJ inÃªn
Ġbib im
ĠÚ©ÙĪ ÚĨ
ĠH ew
ĠØ§Ùħ Ø±ÛĮÚ©Ø§
ĠÙħØµ Ø±Ùģ
Ġk ena
ik ek
ĠØº ÙĪ
ĠâĢ Ķ
Ú© Ø§
b n
ÙĦ ÙĪÙħ
Ġn Ã®nin
Ġrojnam evan
ĠÃ§ Ã»ne
ĠnivÃ®s andina
ĠzÃªd et
w anÃª
ĠtÃ® pÃªn
Ġzew ac
ĠØ²ÛĮ Ø¨
ĠKon fer
ĠD engÃª
Ġw ekÃª
om Ãª
ĠÃ§end Ã®n
Ġhuk Ã»m
Ġrol eke
ĠS h
Ġhel bet
Úĵ ÛĲ
Ġcar din
Ġ um
urr ezaq
Ġtun dÃ®
ÙĨ ØªÛĮ
Ġdi gere
ĠPart Ã®ya
Ġsor anÃ®
ĠÚĨ Ø§Ø±ÙĪ
ĠYekÃ® tÃ®ya
ĠÚ© ÙĪÙĦ
ĠT el
ĠØ®ÙĪ Ø´
Ġvek irina
ah Ã®ya
ay etÃªn
Ġu f
ĠÙ¾ ÛĮØ¯Ø§
Ġv om
ĠØ§Ùħ Ø±ÙĪØ²
ĠQ ad
Ġg ov
Â ·
ĠH am
ĠRus ya
Ã®s yonÃª
Ġy eno
ĠSp Ã®
Ġqan Ã»na
ĠweÅŁ and
ĠRÃªveb er
eb Ãªn
ĠÙĪØ± ØªÙĩ
ĠÙĨ Ø²
s ed
ĠB ab
Ġf em
Ġw Ãªr
ĠF at
ĠD ir
ĠB at
ĠØ® Ø§ÙĨÙĪ
Ġbi v
ĠbirÃª ve
Ġdih er
Ġfaris Ã®
Ã´ t
ÛĮÙĨ Ú©
Ġde p
Ġn at
ĠÙħÙħ Ú©ÙĨ
ĠV an
ĠØ³ Ø§ÛĮ
Ġqew im
ĠÃ®m k
em Ãªn
ĠÙħÙĨ Ø§Ø³Ø¨
Ø² ÛĮÙĨÙĩ
eng a
Ġli ser
ĠØ¯ ÙĦÛĮÙĦ
ĠÙĨØµ Ø¨
Ġneb aÅŁ
W Ã®
Ġmil yar
Ã®l Ãªn
ĠRÃªveb eriya
Ġam Ã»rÃªn
ĠS em
m enÃ®
ÅŁ e
Ġtev bi
ĠÃİ z
0 7
m at
ĠÙħÙĩ ÙĨØ¯
Ø±ÛĮ Ùħ
ĠØŃ ØªÛĮ
ÙĪÛĮ Ø³
our n
d o
ØªÙĪØ§ÙĨ Ø¯
ĠÙ¾Ø²Ø´ Ú©ÛĮ
Ġne we
Ġtevger Ãª
ĠQ azÃ®
ĠÃİ tal
Ġem rÃª
ĠrÃ»pel Ãªn
ĠØ± Ùĩ
ĠÙĪ ÛĮÙĦ
ĠØ®ÙĪ Ø¨
ĠØ§Ø³ Ø§Ø³
ak e
Ã®st Ãªn
Ġrev andin
ĠØ¨Ø§Ø´ ÙĨØ¯
ĠZ iman
ĠpÃªwend iyÃªn
ÙĪÙĨ Ú©ÙĬ
ÙĪØ² ÛĮ
ĠY an
Ġs un
ĠR ad
3 8
Ġan ku
Ġg anÃ®
Ġgirt iyan
Ġxwend evanÃªn
ĠXwe dayÃª
iÅŁ a
ef Ã®l
Ġel le
ĠÙĩØ¯ Ùģ
ÛĮØ§ Ø³Øª
Ù¾ ÛĮ
ĠÙĨ Ùģ
Ġh ar
Ġtran s
Ġp erm
Ø± Ø¨ÛĮ
ĠØ§ÙĦ Ø¨
al es
200 7
ĠÅŁ ir
ĠNewro zÃª
ĠpiÅŁtgir Ã®ya
Ġned i
Ġher Ãª
Ġbic Ã®h
iy ayÃ®
an ce
Ġrencont re
N e
Ġber m
ĠD ar
Ġz ul
ĠBaj arÃª
Ġbi ser
Ġm irÃ®
Ġmirov ekÃ®
Ġxist iye
ĠÃ§iy ayÃªn
ĠØ¯ÙĪ Ø³Øª
ĠS ar
Ġkarmend Ãªn
Ã»n d
y ayÃªn
ĠkÃª fa
ĠpÃªÅŁket Ã®
Ġpr em
eÅŁ e
ĠB e
Ġdikar im
ĠØ§Ø±Øª Ø¨Ø§Ø·
ĠØ±Ø³ ÛĮØ¯
ĠQ SD
k eta
Ġdoz Ãª
ĠT ah
ĠhÃªz eke
Ġbi pirs
0 6
dar iyÃª
ĠØ´ÙĪ ÙĨØ¯
E l
4 00
Ġtelev iz
ĠrÃªj Ã®mÃª
ĠSer Ãªk
Ġn iÅŁ
gir iya
ĠpÃªÅŁ wazÃ®
Ġdom and
Ġcur eyÃªn
y eke
ed ana
ic a
in ar
ĠtÃªgih Ã®ÅŁt
ÛĲ Ø¯
ĠØ¨Ø§ Ø¹Ø«
Ġc ure
Ġz al
ĠÚ©ÙĨ ÙĨØ¯Ùĩ
ĠBar zan
man an
Ġm ayÃ®
ĠÃ§ek darÃ®
ĠfÃ®l m
aÅŁ o
ĠR ob
, "
P AR
Ø³ Ø±
ĠKurd Ã®stanÃª
ĠpolÃ®tÃ®k aya
Ġqer eq
ay ene
Ġgund an
Ġmed yayÃª
ĠpÃªÅŁn iya
Ġdibist anÃªn
u de
ĠØŃØ¶ Ø±Øª
ĠÙĨ Ø®
Ġwe f
g Ãªn
Ġdewlet eke
Ġvek in
Ġtij Ã®
Ġdol ar
ÅŁ Ãªn
Ġdibist anan
ĠÙĨÙĪØ± ÙĪ
k anÃ®
ey eka
l ad
ĠØª Ø£
g ez
Ú¯Ø± Ø§Ùħ
ĠMal b
ĠAz erb
ĠÅŀ Ãª
ĠXwe ser
ĠpÃªÅŁve Ã§Ã»na
sch t
ĠS ala
Ø± ÛĮÙĨ
Ø§Ø³ ÙĪ
Ġcon c
Ġw ina
Ġdaw Ã®ya
Ġl Ã®
Ġteq ez
ĠAzad Ã®
ĠÃ§ ewt
ĠÙ¾ ÙĨ
Ġp ouv
ÙĪØ¯ ÛĮ
Ġh is
Ġg si
ÙħØ§ÙĨ ÛĮ
il an
ĠÚ© ÙħÛĮ
p at
oz an
gir iyÃª
End amÃª
Ġproj eyÃªn
Ġket ibÃ»
Ġnek et
ut e
Ġl Ã®s
Ø° ÛĮØ±
ĠÙĤ Ø¨ÙĦ
Ø² Ø§Ø±ÛĮ
Ø¯Ùħ Ø§Øª
Ġprof es
ĠPro f
P KK
Ã®v a
Ġned ik
Ġtex mÃ®n
Ġdixeb ite
ĠbinivÃ®s e
ĠÙĩÛĲ ÙĪØ§Ø¯
Ġpro du
ĠØ§ ÙĪØ±
ĠÙħØ§ÙĨ ÙĨØ¯
201 0
us Ãª
Ġbik erÃª
/ /
al ek
ĠÃ§ a
ĠÚ©Ø³ Ø¨
Ġpro b
Ġtes b
Ġb enÃª
ĠnivÃ®s Ã®
Ġci dÃ®
Ġbalaf irÃªn
ĠjÃ® yan
Ġne zan
Ġroj av
ĠpÃªÅŁ xistina
ĠØ²ÙħÛĮÙĨ Ùĩ
Ã» p
Ġt ine
Ġroj Ã®
S Ãª
ĠpÃªvaj oy
Ġmez h
un Ãª
Ġbajarok Ãª
Ġfir otina
ĠSovy etÃª
Ġarmanc Ãª
erÃ® f
Ġt il
ĠÙħÙĪ Ø§Ø¯
Ġm ek
Ġal tern
ĠX w
Ġtes Ã®r
r eyÃª
Ġfik rÃªn
ĠE bÃ»
iy Ã®
ĠÅŁ ek
ĠK al
g Ã®d
Ġtaybetmend iyÃªn
ĠM ek
ĠD on
ĠÚ¯Ø° Ø´ØªÙĩ
Ø¢ ÙĨ
Ġr ij
j Ãª
xan eyÃªn
wir mend
Ġg eh
ĠM ah
ac t
g es
ar Ã®yÃª
gir tinÃª
ĠÃ§ ir
ĠNet eweyÃ®
Ġl ui
G ava
ĠØ§ Ø±ÙĪ
y t
Ġ ir
ÙĪØ² Ùĩ
it a
H Ã»n
Ġdaw Ã®yÃª
Ġdik ÅŁ
Ġmil Ã®
Ġs if
ĠT aybet
ĠØ· Ø±Ùģ
Ùģ ÙĤ
ĠJ oh
Ġp Ã®l
Ġroj hilata
ĠdinivÃ®s e
ist Ã®
g otin
it t
el les
Ø´ ÙĤ
y ara
ĠrewÅŁenb Ã®rÃªn
ĠÃ§ aw
ĠH ecÃ®
Ġf ÃªrÃ®
Ð ¾
ĠØ¨ÛĮ Ø§ÙĨ
Ø§Ùĩ Ø´
ĠN em
Ġs ol
ĠÙħÙĩ Ø±
in o
ĠØº Ø°
m endÃ®
ĠØ®ÙĪ Ø§
ĠØ³ Ø·
Ġan t
ĠÙĦ ÙĪØ¨
ĠØ¬ Ø²
ĠEbd urrezaq
Ú© Ø§Ø±ÛĮ
ĠÙĨ ÙģØ±
ĠA rÃ®
Ġbaz ara
Ġher dÃ»
Ġdig rin
Ġkar anÃ®na
ĠÃĩ end
Ġsiv ik
M irov
Ġtem sÃ®l
ĠMis ilman
Ġa merÃ®k
ĠÙħØ¬ÙħÙĪ Ø¹Ùĩ
ĠÙħØ´ Ø±
ĠÙħÙĪ Ø¬ÙĪØ¯
ĠÙħØ´ Ø®Øµ
Øª ÙĦ
ÙĪØ§ Ø¹
ĠB as
Øµ Ùĩ
d ogan
ĠÙģÙĤ Ø·
Ġx Ãªra
x in
ÛĮØ± ÙĪ
r is
ĠÚĨ Ø±Ø§
Ġr Ã©s
ion n
Ġdi ff
ĠØ® ÙĪØ§ÙĨ
Ġr ek
B elÃª
Ġtecr Ã»b
om arÃª
ĠQendÃ® lÃª
H eke
Ġh aya
Ġre q
ĠÙģ ÙĦ
Ġg e
Ã ¾
ĠÙĨÙħ ÙĪÙĨÙĩ
Ġt attoo
Ġberam berÃ®
ĠÃĩ imkÃ®
Ġdamezr andina
B erÃ®
r Ã®n
ĠcÃ®h Ãª
Ġker ema
Ġdi zanÃ®
Ġberpirs iy
Ġkomkuj iya
ĠÙĪÛĮ ÚĺÙĩ
oÄŁ an
ĠØ¢ÙħÙĪØ²Ø´ ÛĮ
es Ã®
Ġn otre
ĠK ol
ĠN Y
Ġev e
ic ation
ĠM ele
Ġvir aÅŁt
ĠMes Ã®h
ĠbÃ» ya
Ġsiw ar
ĠM izg
Ġguher tina
Ġciv atÃª
Ã¤ n
ĠTev Ã®
Ġgotin an
ĠÅŁ ima
Ġdih es
Ġhat ibe
Ġbin irx
Ġtun ebÃ»
ĠØ¯ Ùģ
i ers
Ġp or
s et
ĠTirk Ã®yeyÃª
Ġkirin Ãª
ĠÃ§ emÃª
ĠRÃ»da wÃª
Ġg azÃ®
ĠÃ§Ãª bibe
Ġnavend Ãªn
ĠwÃªn e
0 5
Ġniz ane
ĠÙ¾ ÙĪÙĦ
Ã§ ik
iz an
r eÅŁ
Ġveg otin
Øµ Ø±
b ara
ĠØªÙĪØ³ Ø¹Ùĩ
ĠÙģØ±Ùĩ ÙĨÚ¯ÛĮ
ĠA w
ĠØ¢ Ø®Ø±
ĠNA TO
Ġhelbest van
Ġa ma
Ġp i
Ġf it
ĠÙħÛĮ Ø§ÙĨ
ĠÃ© l
Ġv aj
Ġf in
D uh
ĠÙħ Ú©
bij artin
Ġhat im
Ø±Ø§ Ùģ
emb re
ĠÚļ Ùĩ
ĠØ§ ÙģØª
ĠØ§ÙĨ ÙĪØ§Ø¹
ĠgerÃ®l ayÃªn
ĠØ§ Ø®Øª
ĠÃĩ ewl
Ġpenaber an
Ġhev alan
Ġz Ãªr
Ġdost Ãªn
ĠCiw an
b aÅŁ
Ã®ÅŁ Ãª
ĠK it
ĠØ³ ÙĨÚ¯
ult an
Ø³ Ø±Ùĩ
Ġba w
ĠÃªz dÃ®
Ø§ÙĨ Øª
Ġsil avÃªn
Ġra bÃ»n
ĠdestpÃªk irina
t Ã»
ĠpÃªÅŁ k
ĠrÃª hev
ac ebo
I S
ĠP al
ĠÙĩ ÙĨØ¯
ĠØµÙģ ØŃÙĩ
Ġm ih
ĠM ixabin
Ġb ex
Ġnehat ine
ĠM amost
ĠY Ãª
ĠC on
Ġdest hilata
ĠÚī ÛĲØ±
em e
ĠB ah
l y
Ġd av
ĠF eq
ĠCiw anÃªn
Ġdagirk eriya
ĠGirtÃ® geha
Ġc eh
ĠÙħØ³Øª ÙĤ
iy eka
an n
ĠreferandÃ»m Ãª
Ø§Ø¨ Øª
ev anÃª
Ġger ek
ĠÅŀehÃ®d Ãªn
Ġhov ane
Ø¨ ÛĮØ±
Ã¼ t
ĠØ¬ Ú«
ĠK a
ĠØ¬Ø§Ùħ Ø¹Ùĩ
ber t
Ġne p
ÛĮÙĨ ÙĪ
ĠrÃª yÃªn
Ġhin gÃ®
ĠPAK Ãª
ĠlÃªkol Ã®nÃª
Ġv erÃª
Ġmirov Ãª
Kurd istan
end er
as a
ĠØ³ ÙĦØ§Ùħ
Ġf estÃ®v
Ġb alÃª
Ġday in
Ġv anÃª
Ã»k Ãª
ĠsÃªy emÃ®n
n anÃª
ĠØ³ Ø§Ùħ
Ø¬ ÙħÙĩ
Ã®j in
ĠÙĦ ÙĪÙħ
ey na
eb er
ĠÙ¾ Ø§
h ez
Ġed ebÃ®
ĠQ asim
iÅŁt ina
ĠÃªv arÃª
Ġteh l
Ġned ih
Ġzan in
ĠH Ãª
lÃª v
Ġdaxuyan iyek
geh eke
b Ã®rÃªn
Ġved ike
0 2
Ø¨ Ø±ÛĮ
Ġp ad
Ġw ay
ĠØª ÛĮ
ĠØ¬ ÙĪØ§ÙĨ
Ġewleh iyÃª
Ù¾ ÙĪØ±
ĠÚ© Ø§Ø¨ÙĦ
ĠB erÃª
ĠeÅŁ Ã®r
Ġnik a
Ġes asÃª
Ã®h ev
h et
ĠM ak
Ġtew r
ĠpaÅŁ eroj
Ġbombeb aran
ĠÃ§ erm
ab adÃª
ĠÙĨÙĪ Ø¹
ĠÚĺ ÙĪÙĨØ¯
Ġv os
ĠØ¨Ø§ÙĨ Ú©
Ġs irg
ĠHel eb
ĠbÃ®r an
ĠÃ§ ew
Ø§Ø´ Ø¯
Ġxwez ayÃª
7 5
Ø´ÙĨ Ø¨Ùĩ
eh man
et s
Ø¯ Ø§Ø´Øª
Ġr Ã®w
Ġh eÅŁt
ĠmÃªv an
ĠÙĩØ§ÛĮ ÛĮ
Ġkov ar
ĠdÃ» v
Ġdib istan
ĠQ er
Ġtr ava
ĠM i
ĠT il
Ú¯Ø± Ø§ÙĨ
ĠAh med
Ø³Øª Ø±
ĠØª Ø§Ø¨
al itÃ©
ĠÛĮ Ùĩ
ĠØ§ÙĨ ÙĤÙĦ
ĠMij darÃª
Ġtev di
Ġbizan in
ĠnÃ»Ã§ eyan
ĠÙĨØ¯ Ø§Ø±Ø¯
Ġn ev
b u
Ġn en
es a
ĠÃ§ imkÃ®
Ġtes p
ĠbeÅŁ dariya
ĠÙ¾ ÚļØª
ĠÃ§arÃ§ov eyÃª
Ġbib Ã®
ÙĪ Ø§Ø±Ùĩ
Ġhiz ir
m al
ĠÙĪ Ø§ÙĦ
Ø· ÙĪØ±
h ej
Ġdaxuyan iyekÃª
Ġerd nÃ®g
ĠÃ®ÅŁk enc
Ġxel et
Ġstratej Ã®k
Ġev Ã®ndar
Ġ ÈĻ
ĠtirÅŁ ikÃª
am med
200 8
ĠÙĪ Ø¶
ĠØ¢ Ø³ÛĮ
ĠÙ¾Ø§Ø³ Ø®
Ġmes eleya
Ġkom ek
ĠpevÃ§Ã»n Ãªn
ĠÃĩ ap
ĠÙ¼ ÙĪÙĦÙĪ
ĠKur mancÃ®
tin Ãªn
t en
Ù¾ ÙĪ
ĠÃ ¤
ĠR ih
ĠT C
ov Ã®
Ġku j
ĠN Ã»n
Ġhev r
W ekÃ®
Ġtesl Ã®m
Ġd Ã®san
Ġday ika
r u
iw an
p os
ĠØª Ø¹Ø¯
ĠF eder
Úļ ÛĲ
P DK
Ġan s
ĠpÃªx ember
ĠD ilÃª
Ġber da
w isa
l ekÃ®
Ġdi ger
et eke
Ġber Ã§av
ĠD en
Ġhilber Ã®na
ĠnexweÅŁ iya
ĠÃ§Ãªd ike
ÅŁ ik
ĠkeÃ§ Ãªn
ĠØ® ÙĪÙĨ
ĠS E
Ġdid im
ĠÚ¯ ÛĮØ±
ÙĨ Ø´
ĠÙħ Ø¨Ø§Ø±
ĠÙħØ´ Ùĩ
ĠØ¨Ùĩ ØªØ±
ØªÛĮ Ø§
Ġb uy
Ġn us
Ġs ep
ĠMinbic Ãª
ĠniÅŁt ec
is yona
Ġv Ã®na
ĠØ²ÛĮ Ø¨Ø§
ĠbÃ®r anÃ®na
Ġxwar ina
ĠRewÅŁ a
Ø± Ø¨Ùĩ
Ġzew ic
Ġsal iya
ĠØ¢ ÙĤ
ĠÙĪÚ©Úĵ ÙĬ
at s
ĠÚģ Ø§ÛĮ
ĠÙ¾Úĺ ÙĪÙĩ
ĠÙħÙĨØ· ÙĤÙĩ
P ÃªÅŁ
d eya
ĠsÃ®n em
ĠBir Ãªz
rop Ã®
Ġwelat iyan
ĠdÃ®t iye
ĠcÃ®h an
kar iya
eb il
ĠbersÃ® v
Ùĩ Ùħ
Ġv is
l iman
ef ta
ĠTirk Ã®ye
Ø±ÛĮ Ùģ
g Ã®r
ĠS Ãªr
em iyÃª
Ġfir ot
ĠmÃªr x
ĠÙĤØ¯Ø± Øª
Ä± m
ÙĨ Ûį
ÙĨØ¯ Ú¯Ø§ÙĨ
P YD
Ġda bÃ»n
ĠTeb axÃª
ĠV a
ĠfÃ®l mÃªn
D Ãª
ejm ara
ĠnÃ»Ã§ eya
Ġv erÃªn
Ġkar ibe
c tion
un g
Ã¶ r
4 8
ĠØ³ ÙģØ±
ber a
Ġserok wezÃ®rÃª
Ġak tÃ®v
ĠbÃ» yÃ®
ĠpirtÃ»k an
ĠrewÅŁ Ãªn
Ø² ÙĬ
Ġg l
Ġnikar im
ĠØ¯ Ú©ØªØ±
Ġz el
h al
ĠØ¨Ø§Ø´ ÛĮØ¯
ĠEw lek
ej na
Ġroj eva
ĠÅŁex s
ĀĀĀĀ ĀĀĀĀ
Ġm um
H at
ĠbÃª t
it er
ĠØ§ Ø±Ø¯
ĠØªÙĪ Ú«Ùĩ
ĠÙħØ³Ø¦ ÙĪÙĦ
ĠT ey
ĠnÃªr Ã®na
Ġg iha
ĠÅŀoreÅŁ ger
ĠÃİraq Ã®
Ġbis ekinin
x Ã®
Ġdi tirs
ĠbÃªh na
ĠH ema
ĠN Ãªz
ĠØ± Ø¦ÛĮØ³
Ġagah dariya
Ġl o
Ø« ÛĮØ±
ĠÙĩ ÙģØª
ĠØ¨Ø¯ ÙĨ
Ġo s
ĠÃ§apemen iya
ĠÅŁ ax
Ġpir anÃ®ya
Ġmeh Ãªn
ĠÃ§areser kirin
ĠpÃªÅŁeng iya
ĠØ®Ø§ÙĨÙĪ Ø§Ø¯Ùĩ
ĠM Ã®nak
ĠÙĤ Ø¯
ĠØ¯Ø± Ø³
ĠÚ© Ø§Ùģ
ĠÙĦ Ø±
Ã§ i
ĠØ¢ ÛĮ
ĠÙħÙĪØ² ÛĮÚ©
Ú© ÙĪØ±
Ġser ekÃ®
Ġxwendek aran
ĠGor an
Ġdir Ã»ÅŁ
Ġned ikir
ĠrÃªz Ãª
Ġnet ewa
Ġreng Ã®n
er iyÃª
ĠÙħ ÙĦÙĬ
ĠxerÃ® b
Ġf ree
ĠØ§ØŃ Ø³
ĠØ³ Ø®
ur op
Ġdev er
ĠAr if
u dÃª
ĠkÃªl eka
ĠA girÃ®
w arÃ®
Ġj Ãªd
Ã®t Ã®yÃª
im Ãªn
ĠÚ©Ø±Ø¯ ÙĨØ¯
ĠÙħ Ø°
Ġe ff
Ġq at
ÛĮÙĨ Ú¯
ĠÚģ Ú©Ùĩ
Ġg aran
l oyÃª
ar i
Ġneb Ã»n
ĠEreb an
Ġdijmin Ãªn
H D
ĠM et
ĠBel kÃ®
Ġc as
d oz
Ġp ort
Ġhew qas
g h
Ã®ng Ãª
ĠÃĬz Ã®dÃ®
ĠpiÅŁt evaniya
j min
Ã®ÅŁ Ãªn
ĠÃ§ endÃ®
Ã§ ek
ĠHus Ãªn
r etÃª
Ġbert ek
ĠpÃ®v anÃªn
iz e
ĠF ederal
Ġd onn
is on
ĠÚ© ÙĦÙĩ
ĠPÃªÅŁ merg
ĠÅŀirnex Ãª
ĠYek Ã®neyÃªn
eÅŁ Ãª
ĠPÃ®r oz
V Ãª
Ġmes ele
ĠpÃªÅŁeroj a
Ġagir best
Ġberpirs iyar
es erÃ®
ĠEnc Ã»mena
Ġqehr em
ĠÚĨ Ø§
ĠØ§ Ø«Ø±
ĠÚ© Ø§ÙĩØ´
ĠØ® Ø¯ÙħØ§Øª
ĠÚĨ ÙĪÙĨ
ĠP l
Ġt ol
ĠT h
ĠØ¹ÙĦ ÙħÛĮ
kerd iÅŁ
ĠÃ§i qasÃ®
ĠÅŀ eh
Ġv eke
ĠÃ§ÃªbÃ» ye
Ġaj ansa
ek arÃ®
ĠÃİr anÃ®
ĠA p
ĠÃ§erÃ§ov eyÃª
ot am
Ġest o
ed a
ĠØ¬ ÙĦ
k ur
Ġxist ine
Ġf ot
ĠQ et
ĠH iz
Ġnem aye
Ġgot ara
ĠÅŁ Ãªr
ĠAzad iya
Ã® p
t ar
ib Ã®nin
Ø³ Ø¨
ĠEr z
ĠØ²ÛĮ Ø§Ø¯ÛĮ
Ġpr ov
Ġtes Ã®ra
ĠÅŁ irk
it iyÃª
Ġtem ps
Ġveger iya
Ġguh Ãª
m ek
r ak
Ġser a
Ġf eder
Y PG
ĠSt ock
Ġkerd o
Ġh Ã®k
Ġbawer Ã®ya
Ã®k al
bi dest
ĠEwrÃ» pa
Ø§Ùħ ÛĮÙĨ
ĠBer pirs
Ġk if
Ġs Ã»rÃ®
ĠØ¯ ÙģØ§
ĠaÅŁ kera
Ġfeq Ã®r
ĠpÃªkhat eyÃªn
Ã¨ me
Ġpe u
at ch
Y a
ol an
âĢ İ
ĠØ³ ØªØ±
ĠX ir
Ġvan o
ĠkitÃªb a
Ġniq aÅŁ
ĠS erÃª
W Ãª
ĠbÃªhem pa
H eta
Ġagir Ãª
kom arÃª
ĠÃ§ Ã»na
ĠØ¬Ùħ ÙĦÙĩ
ĠØ¢ Øº
Ø± Ø®
. âĢĻâĢĻ
ĠÙĪ Ø§ÛĮ
200 6
ĠØ¨ ÙĪ
) :
ĠÙģ Ø±Ø§
Ġprob lem
Ġhilbij Ãªre
Ġhil d
ĠBot an
ÙĬ Ùħ
ĠÅŁ erÃªn
Ġre z
Ġkon greya
ÙĪÛĮ Øª
ayÃ®ÅŁ Ã®
Ġkap Ã®t
Ġax if
ĠÃĬ r
Ġmezin tirÃ®n
ĠÙĪØ² ÛĮØ±
ĠJ ap
Ġh om
ĠÙħÙĨ Ø¸
Ġt ay
and ar
Ġt ur
t iq
Ġlaw az
Ġrad estÃ®
Ġtey bet
Ġserk ird
Ġpey van
Ġxizm etÃªn
ĠDÃªrs imÃª
ĠtÃªk Ã§Ã»na
ĠdiÅŁ ew
ĠÙħØ· Ø§ÙĦ
ĠR ej
ĠI ng
ĠØ· ÙĪØ±
u er
Ġbikar ibe
Ġk inc
and ibÃ»
Ġkongr eyÃª
d anÃ®
Ã® girÃª
ĠbirÃªveb irin
on an
ĠÃ®r anÃ®
ĠA P
Ġb un
ĠtÃªkil iyÃª
Ġt h
Ġc rÃ©
ÙĦÛĮ Øª
k ara
as eb
ĠQ ed
Ġx anÃ®
Ġned a
ĠqanÃ»n Ãªn
ĠÙĦ ØŃ
ĠÅŁewit andin
Ġket ina
Ġref Ãªn
á¸ ¥
ĠØ¨ÙĪØ¯ ÙĨØ¯
ĠÙĪÚĵ Ø§ÙĨØ¯ÛĲ
I I
ĠØ² ÙĬ
199 0
Ġr eb
ĠØ´ Ú©ÙĦ
Ø§Ø¯ Øª
Ġf Ã»t
Ø¬ ÙĪ
Ġberpirs yar
ĠCem Ã®l
Ġar amÃ®
ĠÃ§alak iyan
ĠTeh ranÃª
Ġderd orÃª
ĠØ±ÙĪ Øº
Ġgund ekÃ®
Ġpr ensÃ®
Ġdok tor
ÙĨ Úī
ĠØŃØ³ Ø§Ø¨
ĠO n
Ø§ÙĨ Ø³
Ġn u
ĠAn at
ĠÚ¯ ÛĮ
Ġm am
i el
ĠAzerb ay
ĠA ÅŁ
ĠmeÅŁ a
oÅŁ in
az iyÃªn
Ġam eyÃ®
ĠmÃªz e
ĠÃ§ iya
Ġhinek an
Ø§Ø¨ ÙĤ
ĠØ¨ Ú¯ÛĮØ±
9 5
Ġsp as
Ġa prÃ¨s
ĠB ey
Ø¯Ùĩ Ø¯
ĠAl Ã®k
Ġsib ehÃª
uh ere
Ġhejm ar
Ġc id
L es
ĠbinivÃ®s in
Ġt or
ĠÙ¾Ø§ÛĮ Ø§ÙĨ
ĠØ· Ø¨ÛĮ
O N
ĠG ev
ĠhiÅŁmend iya
wÃª dÃ®
iÅŁt Ãª
ĠdiÅŁ op
Ġstr ana
Ã®t Ã®k
ĠPey mana
xwaz im
Ġin ter
Ġcivak Ãªn
ĠY as
ĠØ¨ÙĪØ¯ ÙĨ
Ġb or
Ù¼ Ø±
ĠC er
ĠHes ekÃª
ĠRes Ã»l
Ġsiv Ã®lan
ĠØ³ ÙĪÙħ
Her wiha
Ġne gih
Ġdev kÃ®
Ġmed ya
Ġew le
Ġerm enÃ®
ĠÙħØ± Ø¨ÙĪ
Ġpl ana
Ġv ie
ĠÙĪÙĦ Ø§ÛĮØª
ĠF acebo
Ġm Ã»
Ġm em
Ã®r Ã®n
Ġdiz Ã®
Nav enda
Ġher emÃª
Ġsekin Ã®
ĠkÃ®l omet
Ã§ el
Ġsal ane
ĠweÅŁ anÃªn
ĠÚ©ÙĪ ÛĮÙĨ
Ġmal per
t Ã®m
Ġda hat
ĠserpÃª hat
ĠØ¹Ùħ ÙĪÙħÛĮ
Ġdew r
Ġwat e
ĠBer l
ĠP as
Ġwe l
Ø±ÙĪ Ø¹
ag es
d uyan
Gel o
Ġfik r
ĠM HP
T ev
Ġtekn Ã®kÃ®
iy ona
Ġdem jim
Ġezm Ã»n
ef er
ĠØ¢ÙĨ ÙĦØ§ÛĮÙĨ
ĠÙħØ§Ø´ ÛĮÙĨ
ĠK o
Ġm im
Ġder g
Ġf irs
Ġr av
Ġav ant
and Ã®ye
ĠS im
ĠEnd amÃª
Ġziv istanÃª
ĠbinpÃªk irin
Ġgel Ã®
Ġder xistina
Ġdifik irin
Ġhember Ãª
Ø³ ÙĦØ§Ùħ
Ø¨ Ø§ÙĨÛĮ
t Ã®h
4 7
ĠN or
Ġgr and
ĠLey la
Ù¼ Ùĩ
e ur
Ø±ÛĮ Ø§ÙĨ
Ġvir az
ĠMis lim
Ġr ihÃª
Ġzor dest
ĠÅŁared ar
t Ã®yÃª
Ġam e
ĠErmen Ã®stanÃª
ev anÃ®
ĠÙĦ Ø§
ĠD Ã®yar
ĠÃİsra Ã®lÃª
Ġragih andina
Ġrojnam e
Ġq els
ĠÙģ Ø§ÛĮÙĦ
D I
ÙĨÛĮ ÙĪ
ĠØ³ ÙĪÛĮ
ĠÙĦ ÛĮÙĨÚ©
ĠN Ã»r
ex m
Ġcam Ãªr
Ġxel kÃªn
Ġberdewam iya
Ġxwend ekar
ĠØ´ Ø§Ùĩ
ĠÅŁ id
ĠSerok atiya
Ġas ayÃ®
ĠTÃªk il
Øº ÙĪ
Û±Û ¹
ĠØ¨Ø± Ø®Ùĩ
ĠStock hol
ĠÙħ ÛĮØ±
o xan
Ġn Ã®yo
ar etÃª
Ġder ec
ĠH AK
Ġserhil dana
iz Ãª
y ekÃª
Ġgo ÅŁt
ef tÃª
Ġserkef tinÃª
uk s
ĠT i
g ar
Ġv era
E L
ek o
l ik
ĠnÃ®ÅŁ ana
Ġhelbest Ãª
ĠSerÃªk aniyÃª
Ġkom Ãª
Ġet n
ĠLew re
ĠbiÅŁ Ã®nin
Ġbidest xistina
t on
Ġx or
Ġzan ebÃ»n
ĠpÃªÅŁket in
ĠØ¯ÙĪ Ø¨ÙĦÙĩ
ĠÙĩÛĮ ÙĪØ§Ø¯
Ġd un
ant ona
Ġ id
ĠÚ© Ø§Ø±ÛĮ
ĠQ u
al eke
Ġxey nÃ®
R T
n anÃ®
Ġdad geh
Ġs at
ĠØ² Ùĩ
ĠØ®ÙĪ Ø§Ø¨
ĠØ¨Ø³ÛĮ Ø§Ø±ÛĮ
Ġstand ard
ĠAr manca
Ġl aÅŁ
ĠØŃ ÙĪØ²Ùĩ
ĠweÅŁ anÃª
Ġser bilind
ĠsÃ®yas eta
Ġt as
z anÃªn
ĠÃ§Ãª tirÃ®n
Ġhewl dan
Ġxort Ãªn
Ġram ana
ĠpÃª ro
ĠØ¹ Ø§ÙĦÛĮ
Ø¬ Ø¨
ĠErd oÄŁan
j in
ec an
ĠÚ©Úĵ Ùĩ
Ã¼ n
Ġd ana
Ġx is
ĠrÃ®w ayet
ĠØ¹Ø¨ Ø¯Ø§ÙĦ
Ġy Ãªk
ĠÅŀ am
Ġveger e
Ġvedi gere
Ġhinc eta
Ġrak ir
Ġhejm arek
ĠasÃ®m Ã®l
ĠB or
ĠNÃ®s anÃª
ĠpÃªÅŁb irk
Ġparlament oya
ĠFir atÃª
ĠÙĨÙĤ Ø´
Ġpisp orÃªn
ĠrÃªxistin Ã®
ĠMust afa
y s
Û± Û°
ez an
Ġp at
Ġ usa
Ġs an
isch e
if a
ĠSovy et
Ġc Ã®n
ÅŁt a
ĠÃ® q
Ġrawest andin
ĠleÅŁk erÃª
Ġxwend evan
Ġpart iyan
ĠnÃªr Ã®n
Ġcin sÃ®
ĠRih ayÃª
ĠØ¬ Ø°
Ġb Ã®nÃ®
Ã®t Ãªn
Ġc arinan
ĠgirÃªd ana
ĠÛĮ Ø¹
Ð °
ĠnÃªzÃ®k at
ĠÙ¾ ÛĮØ±
ĠÚ¯ Ø§Ùħ
ĠÙĪ Úĺ
m eh
Ġm ob
ĠÚĨ Ø§Ù¾
Ġp enc
ĠreferandÃ»m a
Ġs wÃªdÃ®
ĠW eq
Ġagah iyan
Ġhem u
ĠÙĩ Ø§ÙĬ
D Ãİ
ĠBer xwe
Ġbu ye
ĠØ¯ ÙĪÙĩ
Ġt est
t o
Ġn on
ĠrÃª ve
A S
ĠpÃªng ava
Ġder sa
ma Ã®l
Ġberhem Ãª
os Ãª
eÅŁ k
Ġk i
ĠR am
Ġt ou
ĠI m
ĠØ±Ø³ Ø§ÙĨÙĩ
ĠØ· ÙĪÙĦ
ĠØ¹ Ø´ÙĤ
Ã®t er
w ek
ĠØ§ÙĤØªØµ Ø§Ø¯ÛĮ
ĠJ inan
Ġbal y
ĠzÃªdet irÃ®
Ġz eyt
Ġd ayÃª
ĠFilist Ã®nÃª
ĠpÃª wendÃ®
ger iyÃª
Ġk ab
ĠpÃªwÃ®st Ã®
Ø§ÙĦ Øª
ĠM an
m eta
ĠÙħÙĨ Úģ
ĠØª ÙĪÙħØ§ÙĨ
ĠØ¹ÙĦÛĮ Ùĩ
ĠS ir
ĠS ip
r ic
Ø¨Ø± Ø§ÙĨ
Ġbib o
ĠY PJ
ku jÃ®
ĠH eq
Ġnab Ã®nin
Ġker dÃ®
Ġerm en
Ġvexw arin
Ø³ Ø§Ø²ÛĮ
Ġs ec
Ġhez kirina
Ġrej ima
ĠÙ¾ ÛĲ
Øª ÙĪØ±
c iv
ĠØ§Ø¬ Ø±Ø§ÛĮ
ĠDon ald
Ġk as
Ġp ot
ĠC ew
ĠbÃ»y eran
Ġxel ata
ĠlÃªpirs Ã®n
Ġser lÃªd
ĠÚĨ Ø´Ùħ
ĠÃ§ar en
Ġs ist
Ġb ur
197 0
Ø± Ú«
ĠÙģ ÛĮ
ĠÙħÙĩÙĨØ¯ Ø³ÛĮ
ĠØªØŃ ÙĤÛĮÙĤ
ĠD in
Ġra h
Ġw or
ĠA dara
Ã®t Ã®ya
ĠE ke
Ġhev karÃ®
Ġqedex ekirin
Ġser e
D r
Ġf et
Ġf ey
ĠÙĩ ÙĬ
Ä± k
ĠØ´ Ø§ÙħÙĦ
Ġprogr am
op otam
ĠColemÃªr gÃª
Ġk ax
ĠdanÃ»st andin
ĠÃ®m ze
Ġdest ek
Ġbel eng
ĠjÃ®y anÃª
Ġfik ra
Ġparv ekirin
ĠØ¨Ø± Ø§Ø¨Ø±
s Ãªn
ĠØ§ÙĦØ¨ ØªÙĩ
ĠÙĦ Ø§Ø²Ùħ
ĠÙĨ ÛĮÙħ
id er
ĠÃĸ z
b as
ĠÙħÛĮÙĦÛĮ ÙĪÙĨ
Ġd ara
ĠSÃ®y abend
Ġereb an
ĠÃ® b
Ġel ew
Ġaway ek
Ġhew a
Ġmat ery
Ġmilyon an
Ġz ÃªrÃ®n
ĠÅŁ or
ul er
Ø±Ø§ Ø¬
Ġs h
Ġson d
n ak
Ø¨ ÙĬ
st it
ÙģØ§ ÙĪØª
Ġbi p
ĠB ul
Ġs emed
ĠMes ela
Ġn anÃª
Ġfil an
Ġday Ã®ka
Ġfil m
ĠÙħÙĪ Úĸ
* *
at ir
Ù¾ Ø±
ĠØ§ÙĨØª ÙĤ
ĠØ§ÙĨÙĤÙĦ Ø§Ø¨
Ġdi f
Ġhejm arÃªn
Ġbazirg aniyÃª
ĠYek girtÃ®
K es
Ġqad Ãª
X wend
Ġq aÅŁo
ĠPart Ã®
Ġxw er
s Ã®n
Ġg Ã»
Ùħ ÛĮÙħ
Ú¯ ÙĬ
Ú©ÛĮ ÙĦ
ĠS u
ĠØ®ÙĦ Ú©ÙĪ
ĠÙħØ« ÙĦ
g en
ÙħÙĪ Úĸ
Ġs oh
ab it
ĠW ez
Ġkird kÃ®
Ã®v ers
ĠdimeÅŁ Ã®ne
ĠØ¯Ø± ØµØ¯
f Ãªn
Ġdi parÃªzin
ĠpirsgirÃªk an
ĠS erd
ewÅŁ a
ĠbÃª guman
ĠØ¶ Ø¯
ĠhÃªz Ãª
ĠK eÃ§
k Ã»
Ø³ ÙĦ
xw ar
ĠÙ¾Ø±ÙĪ ÚĺÙĩ
ĠN ec
Ãİ T
ch n
Ġte p
ÙĪÙĨ Úī
ĠÙħØ³ØªÙĤ ÛĮÙħ
ĠØ¯Ø± Ø¢
ĠÃ§ar Ã§
ÅŁt in
ĠØ¢ Ù¾
Ġm uc
Ġrap orÃª
Ġkul Ã®l
ĠfÃ®l mÃª
Ġpl anÃªn
Ġx alÃª
is ation
kar iyÃª
Ġs Ã®x
Ġpirs an
ĠÚ© ÙĪÙĦÙĪ
ĠÅŀ an
ĠØªÙĪØ§ÙĨ Ø¯
9 6
Ġm ix
Ġv ol
Ø§Ø¨ Ø¹
Ùĩ ÙĨ
Ġpenaber Ãªn
ĠdiÃ§ Ã»n
ĠÅŀem z
Ġkevn ar
Ġewlek ariyÃª
Ġboy kot
ĠH Ã®n
Ãªv aj
Ġdidom Ã®ne
iq Ã®
Ġkom ara
Ġqir kirina
Ġc l
im ent
ĠÚ¯ÙĪØ´ ÛĮ
ĠÃ ¢
ÙĪÙĦ ÙĬ
un c
ĠØ¨Ø§ ÙģØª
ĠÙĪ ÙĪÛĮÙĦ
Ġnam e
us s
ĠÅŁeh ad
ĠRem ezanÃª
ĠE NK
Ø§ÙĨ ÙĬ
ĠP arÃªz
Ġh Ã®Ã§
Ġwer bi
Ġxebat karÃªn
ed dÃ®n
Øª Ø§
Ġperg alÃª
in si
ĠÙħØ¬ ÙĦØ³
iÅŁ Ã®n
Ã®h n
ox Ãª
Ġve xwend
ĠpÃ®roz b
Ã®d an
ĠhÃªvÃ® dar
ĠDÃ®yar bek
ek tÃ®f
Ġsu is
Ġs em
ĠpirsgirÃªk Ãª
Ø³ Ùħ
ĠM ala
ĠL ib
ĠC en
omb re
Ġh ak
p ress
Ġin s
Ġb eyan
. ,
ĠT ir
ĠTurk iyÃª
serok a
ĠÙģØ±Ùĩ ÙĨÚ¯
Ġs emÃ®n
ĠsÃ®st emÃª
Ġpar lem
be c
ĠF aris
Ġxwe dan
ĠØŃÙĤ ÙĪÙĤ
Ġl Ä±
ĠØ§ÙĦ Ùħ
m ez
is es
ĠN ad
e u
ĠØ¢ Ø´ÙĨ
Ø¹ ÙĬ
Ġreng Ãªn
ÅŁt iyÃª
ĠBak Ã»rÃª
Ġhevpey man
Ġt Ã®ma
b ayÃª
ĠpiÅŁt evan
Ġhejm areke
Ġmey danÃª
Ġhew ayÃ®
n de
Ġp iyan
Ġpir tir
Ġx ala
ĠÃªriÅŁ Ãªn
Ġf on
Ġpr Ã©
ĠØ¨Ùĩ Ø±
ÙĪÙĨ Ú©ÙĪ
Ġg um
Ø´ ØªÛĮ
ĠÚ©ÙĪØ¯ Ú©
z em
ĠÚģ ÙĪØ§Ú©
ĠnimÃªj a
Ġseb ebÃª
Ġmamost eyÃªn
Ã®y ekÃª
ĠFir at
Ġbelav kirina
Ġnam Ã®ne
ĠÅŁÃ®r keta
ĠtelevÃ®z yon
Ġgerd Ã»nÃ®
Ġsoz a
Ġderh Ãªn
Ġqehr eman
Ġhev Ã»
ĠÙħØª ØŃ
ĠBeÅŁ ar
ĠD aw
200 5
Ġm ut
s ala
ĠÙħØ± Øª
ĠÙĩ ÙģØªÙĩ
ĠAk adem
ĠK aya
Ġs tir
ĠØ¯Ø±ÛĮØ§ ÙģØª
Ġmexd Ã»r
ÄŁ emberÃª
ĠR izg
Ġpart Ã®ya
ĠÃ®ns anÃ®
Ø§Øª ÛĲ
Ġgr Ã»
ĠT Ã®
Ġdaxuyan iyeke
ĠÃ§ep Ãª
Ġh Ã®nÃ®
Ġzil amÃª
ĠEr Ãª
ÃªÅŁ Ãª
ĠØ· Ø±ÛĮÙĤ
Ġron ak
Ð ¸
ĠÙĨ ØŃ
Ġazad Ã®ya
Ġgor eyÃª
r ayÃª
ĠÅŀared ariya
Ġabor iya
Ġxwend evanan
ĠØ¬Ùĩ Ø§ÙĨÛĮ
Ġbida wÃ®
um ent
on yayÃª
ĠØ³ Ø®Øª
v ent
Ġdib im
ĠØ¨ Ø´
ĠØµÙĨ Ø¹Øª
ar g
ĠG u
: //
Ġna xwaze
ĠØ®Ø¨ Ø±Ùĩ
il am
Ġxey alÃªn
Ġg uf
Ġserans erÃ®
ĠW er
Ġrasteq Ã®n
ĠbikiÅŁ Ã®nin
Ġv u
s k
ĠP a
iv ers
ĠÙĪÙĤ ØªÛĮ
ev im
Ã®st Ã®
Ġnem ir
Ġbifik irin
Ġm abÃ»
ik Ã®ne
ĠÅŀ e
Ġherkes Ã®
Ã®t al
199 2
Ãªm anÃ®
Ġhev s
Ġbidom Ã®nin
Ġdi pirs
ĠÙĪ ÛĮØ¯
Ġf Ã®n
iy anÃ®
ĠÙĬ ÙĪÙĩ
Ø§Ø± Ø§Øª
âĢ¦ âĢ¦
ĠA N
ĠØ§ØŃØ³ Ø§Ø³
) ØĮ
ĠW e
ÙĨØ¯ ÛĮ
g ul
ĠØªÙĩ ÛĮÙĩ
Ġbi f
Ġpol it
Ġmed res
ĠrÃªz a
ĠpÃªÅŁ Ã®ya
ĠÙħØŃ ÙĦ
ĠÃĬz idÃ®
ĠÃĬl ihÃª
Ġxwed Ã®yÃª
ĠrÃ»p elÃª
xwaz Ã®
ib u
Ġgot arÃªn
Ã© rat
Ġev Ã®nÃª
ĠÙħØ¯ Øª
Ġorg an
ÛĲ Ø±Ùĩ
Ø³ ÙĪ
Ã® de
Ġxw arÃª
ĠgirÃ®ng iya
ĠD Ã®c
ĠDi gel
ĠBer iya
Ġxwe s
Ġda beÅŁ
ĠÙħ Ø§Ø¯Ø±
Ġwerger andin
Ġbajar ekÃ®
ĠdanÃ»st end
Ð µ
ĠnÃªz Ã®kÃª
ĠM ac
c l
ya b
ĠØ®Ø§Ø· Ø±
Ġm Ã®yan
Ġra bin
ĠpÃªÅŁn iy
Ã® tin
Ġnasnam e
Ġguhertin Ãªn
Ġj u
Ġron Ã®
Ġt Ã»r
om an
Ġgeng az
Ġk l
Ġre st
Ġr el
ĠR ay
H DP
f o
Ùħ ÛĮØª
Ê ķ
ĠØ§ÙĦ Ø¹
Ġne ÅŁ
ĠnÃ»n er
ĠÚĨ ÛĮÙĨ
Ġes kerÃ®
Ġragih andinÃª
Ġm era
Ã®ng a
ĠØ³ÛĮ Ø§Ø³ÛĮ
b ul
ĠÙĨ Ú¯Ø§Ùĩ
Ġh ol
Ġd oh
T P
E K
da g
ĠÃ®f ad
á ¹
Ġxwe cih
Ġrad ibe
Ġmeb esta
g Ã®nÃ®
Ġhed efa
ĠeÅŁ Ã®ra
Ġener j
Ġy eke
Ġafir andina
Ã§ Ã®n
ĠÙħ Ø²
ĠEm Ã®n
ĠgirtÃ® gehan
Ġheft eya
ĠÅŁÃ»n de
Ġdeng ekÃ®
Ã» lÃª
ĠS ekreterÃª
ĠpÃªÅŁ merge
ĠG otin
Ġxey al
ĠpÃªvaj o
af Ãª
ĠpÃªÅŁniya z
Ġdixwaz Ã®
ĠÙħ Ø§ÙĦÛĮ
st in
ĠØ§ Ø¶
ĠÙĨØ³ Ø®Ùĩ
ĠS ef
K on
Ġl Ãªn
Ġmin tiq
Ġtesb Ã®t
Ġve gera
ĠRoj nam
Ġt ah
Ġte or
ĠØ§Ø± Ø²
ĠØ±Ø§ Ø¨
iya m
ĠØ³ Ø¹
' '
ĠØ±ÙĪ ØŃ
ĠÙĩØº ÙĪ
ĠØ§Øµ ÙģÙĩ
Ø§Ø³ Ø§ÙĨ
Ġber a
Ġzil mÃª
ĠbeÅŁ darÃª
ĠSerok wezÃ®r
ĠAzad iyÃª
Ġkomkuj iyÃª
ĠzÃªd ebÃ»na
ĠsÃªy em
ĠØªÙĦ Ø§Ø´
ed iya
ĠB Ãªr
C O
y Ã®n
ĠÙ¾Ø± ÛĲ
l Ãªk
Ġs ch
ch es
ĠM ad
Ø¶ Ùĩ
ĠAnat ol
ĠÙħÛĮ ÙĦ
200 4
Ġq ul
Ġst andin
Ø³Øª Ø§ÙĨÛĮ
Ġz ek
Ø§Ø¨ Ùĩ
F ermand
Ġbih ata
Ġf ehm
n asÃ®
Ġdi pey
WA AR
ĠQ ey
ĠMaf Ãª
d Ãªn
H ey
Ar t
Ġo Ã¹
ĠÙģ ÙĪØª
ĠC o
ĠÙħÙĪ ÙģÙĤ
Ġz inc
ÛĮ Ø·
ĠØ³Øª ÙĪÙĨ
ĠÙ¾Ø§ÛĮ Ùĩ
ĠHusey Ã®n
ĠNe xweÅŁ
Ġproj eyÃª
ax Ã®
Ġgotin e
Ġsal ekÃª
ĠÅŁik est
Ø¬ Ø§ÙĨ
Ġm Ã®n
ĠfÃª hm
Ġderdix e
Ġast Ãª
Ãªd ana
ĠS un
ĠØ´ÙĩØ± Ø³ØªØ§ÙĨ
Ø§ÙĦ Ø§Øª
ĠÙĪ Ø§Ú©
Û Ģ
ĠP lat
Ã© ment
ĠØŃ Ø¯ÙĪØ¯
Ġnij adperest
ĠRewÅŁ enb
Ġz eng
med ar
Ġneb Ã»na
ĠØºÙĪ ÚļØª
Ġv i
ĠtÃªk eve
Ã®v an
ĠÅŁoreÅŁger Ã®
ey man
ĠØ¨Ø± Ø§ÙĬ
ĠL al
Ġbel ge
ĠÃ© c
ĠA f
ig ht
ut ion
ĠØ³Ø· ØŃ
x eb
ay anÃª
ĠÙħØ± ØŃ
Ġs Ã®
r Ã®k
ĠpÃªÅŁ d
Ġf ahm
Ġtevl Ã®hev
v Ãªn
be x
Ø² Ùħ
ĠØ³Ø±Ùħ Ø§ÛĮÙĩ
ĠÙĪØ± Ú©
ĠR eb
ĠØ¨Ø±Ú¯ Ø²Ø§Ø±
is m
Ġb en
ĠÙĪ ØŃ
ĠD ih
Ġcew h
ĠÃĩ il
ĠpÃªdiv iyÃªn
Ġderbas bÃ»yÃ®
Ġdaxuyan iyÃªn
k iÅŁ
Ġew ro
Ġdagir kirina
ĠnivÃ®s andinÃª
ĠrÃªz dar
ĠpÃªwÃ®st iya
Ġfelsef eya
ĠÙħØ¯ Ø§Ø±
ĠÙ¾Ø±Ø¯ Ø§Ø®Øª
ast in
ĠR ew
ĠÚ©ÙĨ Ùħ
Ġg Ã®h
Ġser fir
Ġde f
ĠpÃªÅŁ an
Ġper Ã§e
ĠK URD
Ġbingeh Ãªn
ĠBeg Ãª
ĠHevpey maniya
ĠØ± Ø´ØªÙĩ
ĠØ² Ø¯Ùĩ
im in
Ġn i
ar y
ĠPar lement
ĠØ²ÙħØ§ÙĨ ÛĮ
Ġd Ã¤
ĠØ³ Ø§Ø¯Ùĩ
Ġb ez
Ġs ind
ĠS ul
ed i
Ġq a
Ã§ in
ĠnexweÅŁ xaneyÃª
ĠpÃ®ÅŁes aziya
ĠKom Ã®syona
ĠCiz Ã®rÃ®
Ġbih arÃª
ĠH erÃ®
Ġroj ek
Ġciv Ã®nÃªn
ĠA mer
ĠÙĨ ØªÛĮ
ĠPÃªx ember
ĠRa gih
ĠÙħØŃ ÛĮØ·
Ġpey w
Ġenc ore
ĠØ± Ø´Ø¯
ĠÅŁÃªwaz a
U n
Ġd onc
Ġn os
Ġmizg eft
ĠhÃ»n Ãª
Ġqeb ul
Ġdixwest in
Ġtelef onÃª
ĠØ®Ù¾ ÙĦÙĩ
Ġ ist
ĠØŃØ§ÙĦ Øª
Ġw ww
4 4
Ġin d
Ġz oz
Ã¼r k
Ġser b
Ġx u
ĠÃĩ and
ĠM Ã»ÅŁ
ĠrÃªveb ir
Ġbi lÃªv
ĠÙħ Ø§ÙĦ
asyon Ãªn
ĠnerazÃ® bÃ»n
Ġb Ã®nim
Ġkerd ene
ĠÙ¾ ÙĦÛĮ
ĠT op
ĠZ ag
Ġs oci
ĠØ¹Ùħ ÙĦÛĮ
ĠFran ce
Ġfor ma
ent re
Ġs c
Ġn ay
dir Ã»d
ĠElman yayÃª
P irs
Ġbist Ã®ne
Ġhewl dana
Ġewleh iya
Ġt av
Ġs av
ĠH ec
Ùħ ØŃ
Ġs ous
Ġf ab
ĠÃ§andin iyÃª
ĠNet ewÃ®
ĠpÃªÅŁ in
Ġzil ma
Ãªj a
ÛĮØ¯ ÙĨ
Ġwez areta
Ġb Ã®yo
ĠØ´ ÙĪÙĩ
ĠØ± ÙĤ
Ġs ent
Ġf es
t i
s s
ĠÙħØ±Ø¨ÙĪ Ø·
Ù Ĵ
ĠØ¬ Ø¯
h o
Ø§Ùĩ Ùħ
H un
Ġm ah
ĠØ¢Øº Ø§Ø²
ĠSey Ã®d
ĠC ejna
Ġz iyan
Ġhey eta
ĠØ´ Ø±ÙĪØ¹
erd iÅŁÃª
Ġbang Ã®
Ã®st anÃ®
P iÅŁt
Ġser ek
ĠdanÃ»st andinÃªn
Ø§Ùĩ Ø§ÛĮ
ĠÙĪ Ø§ØŃ
A n
Ġhikum eta
ĠeÅŁ k
ĠÃ®s lam
Ġfir ok
Ġdamezir andin
Ġhev re
Ġdev eran
Ġfran sÃ®
Ġres mÃ®
Ġc Ã®ran
Ġday ikÃª
ĠbÃª m
Ġnakok Ã®
ik im
ĠØª Ø§Ú©
g ne
Ġ >
ĠØŃ ÛĮ
Ġs up
ĠÙģ ÙĪÙĤ
al og
ĠÚ©ÛĮ ÚĸÙĬ
Ùħ Ø§ÙĦ
ĠØ¯ÙĨ ÛĮØ§
A M
ÙĪÙĨ Øª
it es
a be
el an
ak ar
ĠlÃª belÃª
Ġbih ev
ĠdÃ®tin e
Ġbazirg aniya
5 8
Ã®w ana
Ġme jiyÃª
Ġdestkeft iyÃªn
ĠlÃªkol Ã®na
ĠÙħØŃØµÙĪÙĦ Ø§Øª
Ġkir Ãª
o yan
A T
ĠØ¯ÙĨ Ø¨Ø§ÙĦ
b aran
Ġp erd
Ġt aq
ĠA bd
6 6
el Ã®k
Ã§ end
Ġbi gerin
Ġbend Ãª
ĠpÃªng av
ĠkÃªm asÃ®
Ġmuz Ã®k
ĠÅŁ arÃ®
Ġteq Ã®na
Ġzan Ã®na
ver Ã»
ÙĦØ§ Ú©
ĠM az
ĠØ Ł
it h
ek i
ĠH ol
ĠÙĦ ÙĬ
Ġcon f
ĠE k
Ġpro bl
Ġb aran
Ġder an
Øª ÙĨ
Ġber Ã®ya
Ġtesp Ã®t
Ġkif ÅŁ
ĠrÃ» bir
ĠherÃª man
ĠÃ§ u
ĠD ers
Ġkir Ã®n
Ġbih Ãªle
hat ina
b irina
Ġderd orÃªn
Ġk oka
oÅŁ Ã®na
ĠÚ©ÛĲ ÚĸÙĬ
j a
u es
Ø³ Ùģ
tin g
Ø´ÙĨ Ø§Ø³ÛĮ
Ġserok wezÃ®r
ĠCiv aka
Ġd aran
ĠNet ew
Ġyek Ã®neyÃªn
Ġdem Ã®
Ġyek a
Ġ utilis
stÃ®t uya
am b
Ø¸ ÛĮÙħ
Ġf ois
ĠR uh
ĠØ¯ Ùħ
Ø³ Ø§Ø²
ĠØªÙĪØ§ÙĨ ÛĮØ¯
Ġpropag and
ÙĪÙĦ Ø§
ĠÙĪÙĦØ³ Ùħ
ĠØ¨ÛĮÙħ Ùĩ
p ag
ĠÙĩ Ø²ÛĮÙĨÙĩ
ĠØ¹ ÙĤ
ĠQamiÅŁ loyÃª
y as
att Ã®n
Ġziyar et
Ã®y ayÃ®
ĠWeÅŁ an
ĠR iza
Ġxew n
Hev serokÃª
Ġh anÃª
ĠÙħÙĪ Ø¨
ĠjÃ® r
ĠlÃ®st ikÃªn
Ġnikar ibe
ĠØ§ÙĪÙĦ ÛĮÙĨ
S t
Ġfer as
te ur
ak an
K ur
ĠØ±ÙĪ Ø³Øª
Ø§Øª Ø±
Ã© m
ĠÙĨ Ø¯Ø§Ø±
ĠN as
Ù¾ ÙĪÙĦ
âĢľ .
Ġp uis
ĠØ· ÛĮ
Ġbet lan
Ġx Ãªz
ĠD Ã®l
Ġxwe yÃ®
en n
Ġer ka
ĠtÃ» j
Ġev Ãª
Ġband orÃª
Ã»n an
Ġhes ibandin
eger xwÃ®n
uv er
Ġg Ã©n
ĠÙĨØªÛĮ Ø¬Ùĩ
ĠÙħØ³ ÙĦÙħØ§ÙĨ
Ġhez kirinÃª
ĠØª Ø®ØµØµ
ĠØ¹ Ø§Ø´
Ġ È
Ø§Ø³ÛĮ ÙĪÙĨ
Ġv Ã®r
Ġtev lÃª
Ġserxwe bÃ»n
ĠÃ®l onÃª
ĠÙ¾ÙĪ Ø³Øª
G ir
q an
Ġdern ek
Ġram anÃª
iq Ãª
ĠOsman iyan
Ġc ayÃª
er ekÃ®
ĠbaÅŁtir Ã®n
Ġan Ã®na
Ġh o
t Ã®n
K C
ĠU m
ĠØ¬ Ø§
4 9
p ro
ĠM uz
L ew
ĠÚ©Ø§Ùħ Ù¾
ĠÙĤ ÙĪÙħ
ĠH et
Ġb Ã®nan
ĠmeÅŁ rÃ»
Ġders Ãªn
ĠH ac
ĠbirÃª xistin
ĠAy din
Ġrexn eyÃªn
Ġberpirs Ãª
B aÅŁ
ĠY Ã»s
Ø³ Ø§
r Ãªz
ĠÃĩ Ã®n
ĠtÃªkil dar
ĠÃ§ar eserÃ®
Ġnavber Ãª
ĠØ¯ÛĮ Ú¯Ø±ÛĮ
Ø§Ø³ Ùħ
Ø´ Ø§
ate ur
ĠØªØ¬ Ø±Ø¨Ùĩ
ĠÙħ Ø¨
ĠÙħ Øº
ĠD el
Ø¨ Ø§Ø´Ø¯
Ġbi bÃ»n
G elÃª
Ġw aÅŁt
Ġt Ã®mÃªn
k omar
is Ã®
ĠMis rÃª
ĠStockhol mÃª
Ġdik et
ĠÙĤ ÙĩØ±
ĠSer h
15 0
Ġgotin eke
Ġpart ic
ĠÙĩ ÙĪØ§
ĠÃ© v
E T
Ġem per
Ġa f
g re
ĠÙħÙĦ Øª
199 3
ĠØ¶ Ø±
ÙĪ Ø·
Ġst end
ĠMecl isa
Ø§Øª ÙĬ
5 5
Ġew Ã®
Ġe yal
Ġdi dÃ®t
Ġbizan ibin
E YA
ĠNav dewletÃ®
ĠbÃªh n
ĠB asNews
_ _
ĠÙ¾ ÙĪØ´
Ġb est
ĠØ§ ÙĪÙĨ
Ġen v
ĠØ§Ø³Øª Ø§Ø¯
Ø¨ Ø¹
r it
Ø§Øª ÙĦ
il la
ang e
on ya
um e
ĠØ§Ø³ÙĦØ§Ùħ ÙĬ
ĠÙĦ Ú©Ùĩ
ĠØ§Ø± Ø²Ø´
Ġxweser iya
Ø³ ÛĲ
Ġher eket
ĠK arÃª
Ġav ah
ĠÙĪØ§ÙĤ Ø¹
Ġzehmet Ã®
Ġnakok iyÃªn
y emÃ®n
ĠH SD
Ġbik ir
ĠhÃªsan tir
ĠbeÅŁdar bÃ»na
Ġsekin andin
ĠrÃ»p ela
ĠqÃ®m et
k ov
Ġd al
ĠH oll
ĠE g
ĠÙħØ´Ú©ÙĦ Ø§Øª
Ġn ombre
we y
ĠÙ¼ Ø§Ú©
ĠÙĨ Ú¯Ùĩ
ĠÚļ Ø§Ø±
âĢ¦ âĢĿ
ĠØ¨ØŃ Ø«
ĠÙĨ ÙĨ
ĠÙĩ ÙĪØ´
C iv
ĠØ³ ÙĨ
ĠbeÅŁ eke
ĠdestpÃªk ir
dar Ã®ya
ĠdÃ®kt ator
af Ã®
ĠzÃ» tir
Ġhav Ã®nÃª
ĠNivÃ®s kar
ĠhÃªv iyÃªn
Ġsiyasetmed arÃªn
B erdevkÃª
ĠÃİz m
Ġr akirina
ĠØ§Ùħ ÙĪØ±
ĠÙħØ¯ Ø±Ø³
ĠE x
Ã¤ t
ĠØ¨ ÛĮØ±
Ã¤ l
ĠÚ« Úī
ĠL ond
ĠÙħØ· ÙĦØ¨
ÙĪØ± Ø´
Ġl ay
b ikin
ĠÙĤ Ø§Ø¨
Ġf ar
ĠØ¬ Ø¹
Ġwek u
ĠÅŀ Ã®
ĠQ ada
ĠnÃ®j adperest
Ġbaz arÃª
ĠDem ir
Ġxem il
Ġderx in
H eger
Ġdeq Ã®q
ĠnÃ»n erÃª
Ġveguhest in
Ġk ez
ĠØ³ ÙĪØ¯
ĠPart iyÃª
ĠØ¬ Ø´ÙĨ
ĠR ead
r as
ĠP our
end ant
ic s
Ġw i
ĠN at
ix e
ĠYil dir
A v
ĠØªØ± Ø¬ÙħÙĩ
Ġkom kujÃ®
Ã®n o
Ġbiax ivin
Ġvek ol
Ãĩ av
Ġbigih Ã®nin
ĠrÃªk ef
Ġbi afir
Ġpey manÃª
r ist
ĠÃ© tait
ĠS am
Ġ' '
ÙĦØ§ Ùģ
ĠP ak
Ġg rat
ĠD es
ĠpÃª ÄŁemberÃª
Ġy enÃª
Ġrad yo
Ġsiyasetmed ar
eng iya
Ġhelwest eke
Ġaltern atÃ®f
ĠØ®Ø§Ø± Ø¬
Ùħ Ø§ÛĮÛĮ
9 8
or k
Ø² ÙĦ
ĠÛĮØ¹ ÙĨÛĮ
ĠÙħ Ùģ
Ġs eq
ok s
ĠØ´ ÙĨØ§
Ø´ Ú©
ĠÚ¯ ÙģØªÙĩ
Ġkes k
Ġberjewend Ã®yÃªn
Ġgirs eyÃ®
Ġrojnam eyÃª
Ġtec aw
Ġroj e
Ġnam eya
Ġrak in
199 1
Ġpirs Ã®n
Ġned e
ĠHeÅŁ da
ĠnÃ®v ro
kirin Ãªn
Ġbih ayÃª
ĠH a
ĠÙĨ Ú©
ĠÙħ Ø§Ø±
ĠAKP Ãª
Ã§av kanÃ®
Ġabor iyÃª
Ġron ahÃ®
Ġk emal
4 6
Ġg ew
ĠØŃ Ø¯
ĠØº ÙĪØ§
en Ã§
ĠÙħÙĨ Ø§Ø¨Ø¹
ĠD ur
ĠØ¨ÛĮÙħ Ø§Ø±ÛĮ
ĠÚ©Ø§Ø± Ø¨Ø±Ø¯
ĠA xa
ĠYil maz
m eq
ĠCiv ata
Ġterc Ã®h
Ġdar v
Ã®s e
W elat
Ġfed a
Ġdern eket
ĠwÃªj eyÃ®
ĠazadÃ® xwaz
Ġkevn are
Ġzind anÃª
ĠEm Ãª
Ġres en
ĠÙĥ Ø§Ø±
girÃªk a
ĠfÃªm kirin
Ġsax lem
ØªÙĪØ§ÙĨ ÛĮØ¯
Ġz eh
ĠØ¨Ø± ÙĤ
ie ux
ĠØ¨ÛĮÙħ Ø§Ø±
g un
ĠØ§ ÙĩÙĨÚ¯
Ø± Ø²
ĠÙħØŃ Ùħ
ÙĤ Ø§
l Ã®sÃª
ĠbiÅŁ k
Ãªr k
ĠÃĩ ek
Ġteh dÃ®
ĠA jansa
ĠDib Ãªjin
Ġderv eyÃª
Ú¯ Ø§Ø±
ĠI P
Ġl og
ĠÚ¯ Ø±Ùħ
ĠØ¢ ÛĮØ§
u ve
ĠØ§ÙĨØ¯ Ø§Ø²Ùĩ
if s
Ø¦ ÛĮ
ĠL abelÃª
ĠØ¹ÙĦ Ùħ
Ġw isan
Ġb Ã®yÃª
Ġmuz ak
ĠÃ®d i
ew arÃ®
Ġe dÃ®
ĠB ang
Ã®s k
Ġot onom
ĠØ´ÙĪØ± Ø§ÛĮ
ĠØ¹ ÙĪ
Ġxap andin
ro up
Ġser et
Ã©t Ã©
ĠE c
ĠØ§Ø® Ø¨Ø§Ø±
c c
ÙĦ Ø§Øª
Ġhelwest Ãªn
Ø¬ ÙĪÛĮ
Ġs ih
Ġbak Ã»rÃª
Ġcih an
ĠReÅŁ Ã®d
p Ã®
Ġbib Ãª
Ġcer ib
Ġder dÃª
ĠH uk
Ġheft eyÃª
Ġdak et
Ġyek girtÃ®
Ġkult urÃ®
Ġen iya
Øª ØŃ
Ġberev ajÃ®
b ih
Ġj an
Ġf ak
g il
h am
ĠÙħÙĪØ¨ Ø§ÛĮÙĦ
Ġa insi
enc es
v ana
g ur
Û±Û ²
ĠmÃª tin
Ġmux alef
Ġkir yar
ĠYek itiya
Ġr iw
rÃ® da
B ila
Ġper eyan
ĠpÃªÅŁve Ã§Ã»n
ĠÅŁÃ®rov e
Ãªj Ãª
we t
ot a
Ø§ÛĮ Ø¹
ĠU z
199 9
ĠM Ã»r
Ã¶ n
ĠØªØ¹Ø¯ Ø§Ø¯
ĠÙħÙĤ Ø§ÙĦÙĩ
ĠSE O
i al
ĠÙħÙĤ Ø§Ø¨ÙĦ
Ġbik erÃ®
ĠÚ© ÙĪØª
Ġserd emÃª
ĠMÃªr dÃ®n
ĠkuÅŁt inÃª
Ġxwest iye
Ġgot ar
ĠBer hem
ĠjibÃ®r kirin
Ãªr Ã®na
ĠÅŁ il
ĠÃ§Ã» yÃ®
Ġj ÃªrÃ®n
Ġc ix
ĠÃİng Ã®l
ĠÙħÙĩ Ø¯ÛĮ
u a
.âĢĿ (
ĠÚ© Ø§
ĠÙ¾ Ø´Øª
ab il
4 2
r em
ĠLeÅŁ kerÃ®
Ġz ora
Ġdagirker iyÃª
iy etÃªn
ĠSÃªr tÃª
Ġbin Ã®
Ġrak e
Ġhunermend Ãªn
ĠÅŁ em
ĠKit Ãªb
Ġqeh we
Ã®r ana
Ġdik uj
Ã®ÅŁ a
ĠÅŁÃ®rket Ãªn
ĠbÃ®r doz
ĠÙĪ ÙĦØ§
ĠÙĨ ÙģØª
ĠÙĪÙĦØ³Ùħ Ø´Ø±
Ġb ey
if t
ĠÙħ ØªØ±
Å Ĥ
ÙĪØ± ÙĪ
Ø¬ Ø±
S ala
ĠØ§ÙģØ² ÙĪØ¯
ef Ãª
ĠDemokrat Ãªn
Ġrad Ã®kal
AR Ãª
ĠsÃ»c dar
ĠkitÃªb Ãªn
ĠBrÃ®tan ya
ket Ã®
Ġa sÃª
ĠdÃ®t ir
ĠÃ§Ãªd ibin
Ã»r an
oz of
oy bun
ÅŁ an
iq andin
Ġbih Ãªlin
Ġsos yalÃ®st
ĠÚ©ÙĪØ¯ Ú©Ø§ÙĨ
j ours
ĠØ¯Ø§ Ø³ØªØ§ÙĨ
Ġm ana
ĠÚ©ÙĨ Ø§Ø±
Ġtak ek
ng h
Ø¨ Ø§Øª
Ġd ont
ra ph
ØªØ± ÙĦ
Ġc our
Ø¯ ÛĮÙĨ
Ġl ors
Ø§Ø² ÛĲ
m ak
Ġkirin Ãªn
Ġser rÃ®
Ġprotest o
ew Ã®ne
Ġhey ama
ĠzanÃ®n geha
Ġbelg eyÃªn
Ġdi parÃªze
ĠZ Ã®n
Ġmeb est
Ãªk irina
id Ãª
Ġdaxuyan Ã®ya
Ġbombeb ar
ĠFar q
ĠÅŁ Ã®d
ab an
Ã§ Ã»k
ĠÙĥ ÛĲ
Ġkon f
Ġp oss
Ġt ac
ĠÙĨ Ú©ÙĨ
ĠÙĦ ÙĪÛĮ
ĠD ag
ĠS pan
ĠD eng
aj Ãª
Ã®st ema
m os
Ġnetewe yÃªn
ĠfÃ»t bolÃª
Duh ok
Ġq asÃª
Ġsal ek
al etÃª
Ã®kirin Ãª
Ġciv at
Ùģ Ø§ÙĤ
Ġaw arte
Ġbin Ãªre
Ġr an
al iyÃª
Ġgel ÃªrÃ®
Ġs end
ĠT EV
Ã¼ l
of t
ĠO per
ĠØ®Ø§Ø± Ø¬ÛĮ
ĠØ¨Ø§ ÙĬØ¯
ĠØªØŃ Øµ
Ġ ih
Ġc oll
ĠØŃ Ø§Ø¶
Ġd ro
r eta
am es
ĠØŃØ³ ÛĮÙĨ
Ø®Øµ ÙĪØµ
ĠØ³ ÛĮØ§Ø³Øª
ĠÚ© Ø³ÛĮ
ĠMis irÃª
Ġtawan bar
ĠalÃ®kar Ã®yÃª
Ġamadekar iyÃªn
Ġtendurist iyÃª
ĠSÃ»r iya
Ġdi girt
ĠhevdÃ®tin an
Ġama je
Ã» man
ĠØ¨ Ø§ÙĨØ¯
ĠParlament oya
Ġgir aniya
ĠEm r
is er
ĠØªØŃ Øª
ac c
ĠN us
Ġd on
M er
Ġ Ä
ĠÙĦÙĪ Ø§Ø²Ùħ
ĠG al
6 5
Ġle urs
Ù¾ ÙĦ
Ø§Ø³ Ùĩ
Ġma q
ĠN Ã»rÃ®
Ġpart Ã®yÃª
Ġp eyÃªn
ĠDiyarbek ir
ĠrÃªw Ã®tiyÃª
ĠÃªÅŁ a
enivÃ®s a
ĠÅŁa gir
ÛĮÙħÛĮ Ø´ÙĨ
ĠØ¨Ø± Ø¯
Ġo ff
ĠÙģ Ø´Ø§Ø±
ĠÙĨ Ø¬
Ġ =
k ol
Ġav er
ĠØ¨Ø±Ø® ÙĪØ±Ø¯
ĠØ¨Ø§ Ø¨
J A
it Ã®n
Ġdemokr as
Ġy ar
ĠÙħÛĮ Ø²Ø§ÙĨ
Ġgir ewt
Ġnem Ã®ne
Ġp ubl
ĠDewl et
Ġwer girtina
Ùģ Ø±ÙĪØ´
Ġer zan
ØŃ ÙĦ
ÙħÙĦ ÙĦÛĮ
ra c
am in
ĠK ad
Ġph ot
D EM
8 5
e au
N a
ÙĬ ÙĪ
Ġob j
ĠÙĪØ¶ Ø¹ÛĮØª
ĠÅŀ ivan
ĠD DK
ĠB erdevkÃª
ĠbÃª par
ĠÙģØ± Ø²
oÅŁ e
ĠKob anÃ®
Ġgo ÅŁtÃª
ĠÃ§Ã®rok an
Ġparlament oyÃª
ĠKonfer ansa
Ġp elÃªn
ĠlÃªger Ã®nÃªn
Ġdep uis
ĠÃ ¿
ĠÙĩØº ÙĪÛĮ
ĠD B
Ø¢ Ùħ
Ġt abl
Ġmon de
ad ar
A m
ĠÙ¾ Ø°ÛĮØ±
ĠØ³ Ø±ÙĪ
ĠÂ ´
Ġ att
H ewl
Ã»r e
Ġmerd imÃ®
Ġkar kerÃªn
b ey
ĠÃªz Ã®dÃ®
Ġberjewend iya
ĠZerde ÅŁt
Ġzan e
Ġxebat an
Ġsa etan
Ġperwerdeh iyÃª
Ġg iÅŁ
Ġerd hej
N avÃª
Ġxebat eke
Ġmal an
Ġr Ã»s
b awer
ĠL ub
Ø§Ùħ ÙĨ
O M
k el
d iz
ĠØ§ÙĨ ÛĮÙħÛĮØ´ÙĨ
gir an
Ø¨ ÙĪØ¯
. âĢľ
k i
Ġb ara
ĠÚĨ ÙĨÛĮÙĨ
ĠØ§ÙĨÚ¯ ÙĦÛĮ
ĠØ¨Ùĩ Ø±Ùĩ
Ú© Ø´
Ùħ Ø¹
Ġbav Ãªjin
ĠbersÃ® va
Ġdew ra
Ġpey vÃª
Ġaxaf tinÃª
ĠD ogan
irin Ãª
ĠK Ã®
Ġbik Ãª
ber Ãªn
ĠC egerxwÃ®n
Ġdin irx
ĠÙħÙĪ Ø³ÛĮ
Ġs uc
Ø±ÙĪ Ùģ
s iv
ĠÙĩ ÙĨÚ¯
Ġcer ta
ĠM ore
ĠN ob
ĠÙĨ ÚĵÛį
ĠÚ©ÙĦ Ø§Ø³
ĠØ§ Øº
Ġser dem
Ġber ov
om Ã®
Ġwe b
Ġrast e
ĠZ Ãªd
Ã®y ana
ĠÃ® x
ĠdirÃªj Ã®
Part iya
ĠH eya
Ġdagirk erÃªn
ĠCÃ®h anÃ®
Ġa darÃª
ĠÃ®mk anÃªn
Ġnikar ibÃ»
ĠHel best
ĠÃ§ Ã®n
Ġder Ã»d
Ġex t
ĠMeh abadÃª
Ã®ÅŁt Ã®
Ġk op
Ø§Ùĩ Ø¯Ùĩ
ĠØ¬Ùħ Ø¹
ĠØ§Ø¯ Ø§Ø±Ùĩ
ĠD E
Ġs ibe
iz m
Ġt ip
Ġdi man
ĠØ§ÛĮÙĨØªØ± ÙĨØªÛĮ
ĠØ²ÙĨ Ø§ÙĨ
ĠÚĨÛĮ Ø³Øª
yÃ® p
Ġnirx and
rÃ® b
ĠSi Ã»dÃ®
ĠrÃªxistin eke
Ġ Ã®k
Ġm asÃ®
ĠÙĨØ² Ø¯ÛĮ
g ot
Ã§ iqas
Ġde n
ĠÃ® xan
Ø² ÛĲ
ĠB l
ou ve
as il
Ġr Ã»nÃª
Û±Û ¸
or an
ĠØ§Øµ ÙĦØ§ØŃ
ĠØ§ Ø¸Ùĩ
ĠØ´ ÙĪÙĦ
S A
ĠØ¯ Ø¹
Ú¯ ÙĦ
ĠÙĨØŃ ÙĪÙĩ
ÛĮÙĨ Ø¯Ùĩ
ĠÃªrÃ®ÅŁ eke
Ġc oÅŁ
Ġar ÅŁ
q ayÃª
ir Ã®ne
ĠØ®Ø¯ ÙħØª
Ġdost Ãª
ĠmÃªr Ãªn
ĠrÃ»m eta
Ġradi gih
Ã» pÃªk
Ġperwerdeh iya
Ġrad est
Ġn ap
Ġpas s
ĠØªØµÙĪ ÛĮØ±
ĠØ¢ÙĤ Ø§ÛĮ
al if
h ur
D ER
i da
Ġn ouv
ĠØ¹ Ø±Ø¨
per ant
ĠAn ad
g ava
Ġxw a
ĠSiya sÃ®
d erÃª
Ġg ewr
Ġdesthilatdar iyÃª
ĠlÃªkol Ã®nan
Ġkadro yÃªn
eq Ãª
ĠMal pera
m ayÃ®
ĠØ¬ ÙĦÙĪ
ĠartÃªÅŁ Ãª
Ġserwer iya
ĠgirtÃ® geha
Ġkonfer ansa
Ã®yÃªn e
ÚĨ ÛĮ
s in
S O
Ġcom pl
ĠØ² ÙħÙĪÚĸ
ÛĮÙĪ ØªØ±
ĠQ es
ĠGir an
Ġbixeb itin
ĠpÃª r
Ġpros eya
ĠGund Ãª
ox Ã®
Ġtekn olojiya
Ġz ih
Ġotom ob
Ġgirtin Ãª
Ġkr Ã®za
Ã®t eyÃªn
ĠÃ§avdÃªr iya
Ø² Ø§
Ġnekirin e
Ġdew rÃª
Ġper eyÃªn
ĠÃ®ÅŁk ence
ation al
ĠÃ® car
Ġz um
ĠØ®ÙĪ Ø¨ÛĮ
ÙĨØ¯ Ú¯ÛĮ
ĠprÃ©s ent
ĠH erd
Ġkult ur
eb anÃ®
ĠÃİn an
Ġde bara
Ġqed era
ĠD Ã®
ĠÃ® darÃ®
Ġg era
ĠÙħÙĤ Ø§Ùħ
ĠMez opotam
ĠÅŁop a
Ġh Ãªn
Ġhes pÃª
Ġbin pÃª
Ġguh artin
Ġhev rÃª
Ġbigih Ã®ne
ĠSer hil
Ġkurd zanÃªn
Ġeleq edar
Ð ½
id ent
ber g
ĠnÃªzÃ®k atiya
r ik
Ø¯ ÛĮÙĦ
d et
âĢ ¢
u ye
ĠØ± Ø¶
Ø§ÙĦ ÙĪ
onc tion
ĠÙĦ ÛĮÚ©
P ol
ĠÃ ¶
l eya
Ġfik rÃª
ez ag
ĠØ¯Ø± Ø³Øª
Ġaway eke
D Ã®sa
ĠQan Ã»na
ay ekÃª
Ġdin Ãªre
Ġqew imÃ®
Ġc ograf
ĠEr menÃ®
Ġderf eta
ĠÅŁer van
Ġnab Ã®ne
ĠØ´ Ø§Ø¯
ib Ã®ne
ĠØ§ÙĨ Ø±
Ġt raf
ro f
4 1
x el
w are
Ãª te
ch a
ĠS an
k ev
ÛĮÙĨ Øª
ĠÙĪ ÙĤØª
ĠØ¬ ÙĦØ³
Ġ aye
ĠØ´Ùĩ Ø±ÛĮ
ĠØ¹Ùħ Ø±
6 8
ĠHey der
ĠSel Ã®m
ĠNewro z
ĠØ¢Ø² Ùħ
Ġted e
y ewÃ®
Ġk engÃ®
ik eve
ĠpÃª Ã§
Ġm iÅŁ
Ġderx e
ĠpÃª de
ĠÃ§Ãªb ike
Ġkurd istanÃ®
Ø´ ÙĪÙĨØ¯
ĠÚ©Ø§Ø± Øª
w ana
t ek
Ġh ij
U N
ĠÙĩ Ø´Øª
ĠØ¯Ø§Ø® ÙĦ
Ġm ont
Ú¯Ø° Ø§Ø±
ac k
ĠL at
Ġj ar
ab les
ĠÙħÙĪ Ø³
ĠØ§ÙĤØªØµ Ø§Ø¯
ser v
Ø¨ ÛĲ
Ġma Ã§
Ø§Ø¨ Ø·
Ġo x
Ġar d
ĠTay yÃ®p
ĠhukÃ»m eta
Ġnedih at
ĠhÃªz an
ĠpolÃ®s Ãªn
al Ã®n
ĠØ± Ùģ
Ġb ayÃª
ĠÃ§ ewa
ĠdÃ® j
ĠHev serokÃª
R Ãªveb
ĠrÃªbaz a
Ġc Ã»d
ik irin
Ġbid ine
v anÃ®
Ġjiy Ã®n
Ġneb Ã»ne
ĠdikiÅŁ Ã®ne
B ar
Ġkomp ut
Ġt Ã®nim
ĠZ ana
Ø´ ÙĪ
ĠØ¹ Ø²ÛĮ
ĠØ¢ Ø°
ĠØ´Ø¯ ÙĨØ¯
ĠS y
Ġc ap
Ġn in
U DA
Ġtra j
Ġdem an
4 3
ar ch
ĠØ§ÙĨ Ø³
Ġbi w
Ã§ er
âĢ¦ .
Ġbaw ermend
ĠDewl etÃª
ĠdÃ®m enÃªn
ĠcÃ® girÃª
ĠS Ã®
Åŀ er
ĠA pÃª
ĠnexweÅŁ Ã®
ĠR Ãªz
Ġ ok
j o
Ġmo ins
k un
ed ia
ĠÙħ Ùī
9 9
ĠÙħØŃ Ø¯ÙĪØ¯
19 25
ay n
Ġber n
ĠX ecÃª
dr Ã®s
Ġdixwe nd
ĠzÃªd eyÃ®
ĠÃİsra Ã®l
Ġjor Ã®n
Ġm iq
Ġm Ã»ÅŁ
Ġpeywend iyÃªn
ĠÃ§Ã®rok Ãª
Ø´ÙĨ Ùĩ
ĠX ey
Ġal iyekÃª
Ġs oc
ĠÙĬ Ùĥ
eb an
ĠrÃ© p
Ġaut res
ĠO b
, ,
for ma
Ġf ut
ter net
ÙĨÚ« Ùĩ
ĠT end
ĠÙĨÙħ ÙĪØ¯
ĠØªØ¨ Ø¯ÛĮÙĦ
Ġder Ã»nÃ®
ĠÃİs maÃ®l
ĠdÃ®n am
ew n
ĠpaÅŁ Ã®
ĠpsÃ®k olojÃ®k
ÙĪØ§ÙĨ ÛĮ
ĠrÃ»bir Ã»
ĠSÃª w
Ã®r eya
ĠB Ã®r
ĠA st
Ġserhil dan
ĠpÃª s
Ġdewlet e
Ġc Ã®r
Ġso it
Ø±Ø§ ÙģÛĮ
ĠtÃª g
Ġjin ekÃª
Ġtout e
ĠF E
ĠrÃ© g
Ø´ ÙĬ
ĠÙĦØ¨ Ø§Ø³
ĠØŃØ§Ø¶ Ø±
ra it
J K
ĠØ² Ùħ
ĠC e
iv a
ud i
Ú©ÛĮ Ø´ÙĨ
Ġwerd i
âĢĻ .
Ãªk e
Ġd arÃªn
ĠgerÃ®l ayan
ĠNisÃªb Ã®nÃª
Ġgund iyan
m aya
ĠnexweÅŁ iyÃªn
Ġz ikÃª
Ġmes elÃª
Ġpey manÃªn
ĠnÃ®ÅŁ and
Ġbon eya
ĠÅŁex sÃª
ĠRej Ã®ma
ĠwÃªj e
ĠhilweÅŁ andin
Ã»k a
Ġmij aran
ĠH Ãªza
Ġkol an
Ġz Ãª
Ġnif Ã»sa
ĠÙħØ´ Ø§ÙĩØ¯Ùĩ
p Ã®r
ĠÂ ł
ĠØ¬ Ø±ÛĮØ§ÙĨ
Ġz in
ĠÃ ¨
ig h
ĠØ¯Ø§Ø± Ùħ
Ú© Ø±ÙĪ
y em
S al
: âĢĿ
R ast
it im
ma il
ĠmeÅŁ Ãª
ĠterorÃ®st Ãªn
R Ã»da
Ġdes pÃªk
Ġradi west
Ġkur Ãªn
Ġkar e
ĠMed ya
Ġter k
Ġt ext
Ġnas kirÃ®
ĠÃ®ngil Ã®zÃ®
ĠM at
ĠÃ§Ãªd ikin
ĠdinivÃ®s in
Ã»n Ãªn
Ġtou jours
ayet iyÃª
E y
Ġhewc eyÃª
ĠØ¢Ø² ÙħÙĪÙĨ
7 7
ĠØ®Ø· Ø±
g av
Ġjiy andin
ĠV at
it ions
ĠØ§Ø¶ Ø§Ùģ
ĠØªØµ ÙħÛĮÙħ
Ġsl og
ĠÃ© gal
Ġfolkl or
ĠØ§ØŃ ØªÙħ
ĠRob os
Ġm Ã®h
Ãĩ alak
Ġmalbat an
ĠH ejmara
Ã®k op
Ġcil Ãªn
T evÃ®
akirin Ãª
Ġsemb ol
Ġn ÃªÅŁ
ĠT am
ĠÚ¯Ø±Ø¯ Ø´
Ġp ayÃ®
Ġtax Ãªn
ek eta
Ġdey n
et Ã®k
ĠØ´Ùĩ ÛĮØ¯
Ġday Ã®na
ĠÙħÙĪ ÙĤ
ĠØ§ØŃ ÙħØ¯
ĠÙ¾ Ø¯Ø±
ĠU N
ĠÙħØ´ ØªØ±ÛĮ
ĠÙħ ÛĮØ¯
Ø¯Ùĩ Ùħ
ĠÚ¯ ÙĪÙĨÙĩ
ĠB oz
ĠØ§Ø³ Ù¾
ĠØ§Ùħ ÛĮØ±
Ú© Ùħ
Ġkurmanc kÃ®
ĠrÃ»niÅŁt ina
Ġewleh Ã®
Ġmilet ekÃ®
RÃ»da w
Ġdiv iya
ĠSos yalÃ®st
Ġdewlet ek
Ġdest hilatÃª
ger an
Ġy anÃª
Ġser navÃª
Ġper sp
ĠK ovara
h Ã®
Ġhew ayÃª
Ġew l
ĠrÃ» sÃ®
ĠØ§Ø¬ Ø±Ø§
ĠØ± ØŃ
ĠØ§Ø± Ø³Ø§ÙĦ
Â °
ĠÙħÙĪ Ø§Ø±Ø¯
ĠØ¯ÙģØ§ Ø¹
ĠW il
ĠW ik
qu ip
ĠØ¢Ø²Ùħ Ø§ÛĮØ´
Ġm ent
RÃª xistina
Ã§ Ã»
Ã®k e
Ġg Ãªr
ĠD Ã®roka
ĠMis liman
ĠNavnet ewÃ®
ĠamerÃ®k Ã®
ĠFeder asyona
Ġd ayÃ®
Ãªvaj oya
ĠD Ãªra
ĠØ¹ Ø±ÙĪ
Ġn aye
or dÃ®n
Ġtirs Ãª
Ġron ahiya
Ġn ax
Ġp it
b anÃª
ĠtÃ® p
ĠÙĦ Ø°
Ġal l
om e
cr ip
id an
ØªÛĮ Ø§Ø±
Ġperson n
Ġc ro
Ġh tt
ĠÚĨ Ú¯ÙĪÙĨÙĩ
ĠØ±Ø§Ø¨ Ø·Ùĩ
h es
ĠØ¢ Ø´
ĠØ¯Ø± Ø¯
ic k
ĠØ¨ÙĦ Ú©Ùĩ
ÙĬ Ø§
ĠHev al
dem Ã®r
Ġdi weÅŁ
we xt
ĠrÃª x
Ġhesab Ãªn
dÃ® tin
Ġhejm arÃª
ĠÅŁ un
Y ekÃ®
Ġhelbest an
Ġheyw anan
Ġdey nin
q ed
Ġdern ak
nam eyÃªn
ĠtÃªkoÅŁ Ã®neke
194 6
ĠØŃØ±Ùģ Ùĩ
ĠØ¯Ø§Ø® ÙĦÛĮ
ĠÙĨ Ø§Ø±
ĠF et
ĠÙĪ ÛĮØ±
Ø¯ Ø§Ø¯
Ġ Å
ĠT w
ab ad
v el
A B
ĠSelah attÃ®n
Ġq Ã®z
Ã®y ay
ĠA ÅŁtiyÃª
ĠTÃ® pa
Ġedal etÃª
Ġxwecih Ã®
Ġser erast
Ġqedex eya
ĠGel an
Ġbidom e
ik aran
Ġp olÃª
Ġbil ez
Ġhukum eta
ĠcÃ® bic
ĠØ§Ùħ Ø±
Ãª tre
ĠpÃªdiv iya
c alan
ĠØ¢ ÙĪØ±
Ġan c
ĠÙĪÚ©Úĵ Ùĩ
ĠY ah
ĠÙĨÙħØ§ÛĮ ÛĮØ¯
Ġdi e
ub a
ĠØ§Ùħ ÛĮØ¯
a uc
ĠØª Ø§Ø²Ùĩ
ĠÚ©Ø§ÙħÙ¾ ÛĮÙĪØªØ±
ĠÙĨÙĤ ÙĦ
Ãİ n
Ġm Ã®k
Ġsos y
Ġx uÅŁ
Ġmecl Ã®sÃª
ĠÅŀ Ã®r
Ġkal Ã®teya
Ġm ew
ĠÃ®ns anÃªn
Ġm Ã®rÃª
ĠtevlÃ® bÃ»na
ar Ã®n
ĠaÅŁt iyane
Ø§ Ú¯Ø±
Ġkan alÃªn
ĠÃ®ro yÃ®n
Ġtout es
P er
A D
ĠD av
h ad
en os
em el
ĠØ¨Ø§ ÙĪØ±
ĠØ®ÙĦ Ú©
Ñ ģ
200 3
ĠØ®Ø¨Ø± ÛĲ
it al
ÙĨ Ø²
ĠN es
ĠØ¯ ÛĮÙĨ
ĠØ¨ Ø³ØªÙĩ
iv es
ĠØª ÛĮØ±
E s
Ġl Ã®m
ix bar
Ġlew re
Ġkarker an
Ġis rar
ĠnerazÃ® bÃ»na
ĠyekÃ® tÃ®
Ġdesteser kirin
Ġax ivÃ®n
r Ã®na
Ġtim Ã®
ih Ãªn
ĠÃİ car
Ġdixw Ã®ne
Ġted bÃ®rÃªn
ir andin
T he
Ġl oc
and or
ĠØ¯Ø±Ø¢ ÙħØ¯
ĠØªØ®ØµØµ ÛĮ
ant es
ĠØ±ÙĪ Ø´ÙĨ
. :
il les
6 00
Ġz Ã®hn
ĠEy Ã»b
Ġr ehmet
ĠH ÃªvÃ®
ĠrÃ»n iÅŁtin
ĠKur Ãª
Ġhef tÃª
Ġter tÃ®
Ġmey dana
Ġewlek ariya
Ġsip Ã®
Ġdir ust
Ġda bÃ®n
Ġtem en
ĠKer Ã®m
Ġbi av
Ġbikuj in
Ġser sa
Ġxwe da
is y
ĠDÃªrs im
ĠDÃªrs imÃ®
ĠK ul
Ø§ÛĮ Ùħ
Ġseret ayÃ®
Ġb ut
l ine
ĠØ³Ø§ Ø®ØªÙĩ
Ġt ic
ĠB ad
ĠF ey
ĠÙģ Ø±Ø§ÙĨ
Ġma g
ĠC eb
ĠÙģ ÙĨØ§
ĠØ³Ø§ÛĮ Ø±
Ġl ong
t h
ĠH e
Û±Û µ
A L
ÙĬÙĨ Ùĩ
Ġmet od
ĠØªÙĦ Ùģ
ĠUr m
Ġz Ã®v
Ġberd ev
Ġney Ã®nÃ®
Ġsemb ola
Ġp iÅŁk
Ġmil Ãªn
N Ãª
Ġkur tÃ®
id Ã®n
ĠNav endÃ®
Ġnek arÃ®
ĠmÃªv anÃªn
ĠGur c
Ġakadem Ã®sy
da wÃ®
Ġser kÃªÅŁ
ax uyan
Ġhil di
ayet iya
en se
Ġra ber
ĠØ¬ÙħÙĩ ÙĪØ±ÛĮ
ĠÙħØ¹ Øª
Ø®ÙĪ Ø§Ùĩ
Ø¯ ÙĦ
ÙĤ ÙĬ
Ġt on
ĠØ³ Ùħ
ĠØŃØ± Ú©Øª
á º
l ama
r im
Ġv ra
Ġquel ques
ĠØ§Ù¾ ÙĦÛĮ
9 3
ÚĨ Ø³Ø¨
Ġhev karÃªn
ĠBed irx
ĠÃªriÅŁ Ã®
ĠDAÃİÅŀ Ãª
Ġer kÃªn
ĠpÃªÅŁ iyÃª
ĠEb adÃ®
Ġpayt extÃª
ĠrÃªveb irÃªn
Ġod eya
ĠpaÅŁ ve
ĠKan Ã»na
Ġq aÃ§
Ġling Ãªn
ĠIs lamÃ®
xw Ã®ne
ĠÅŀe ibÃ®
xistin Ãª
ĠnavnÃ®ÅŁ ana
iy arÃ®
am et
Ġn um
ĠÙĨÙĪ Ø´ØªÙĩ
Ġav oir
iÃ¨ res
ĠL aw
ĠH ay
al et
ĠÙħØ® Ø§ÙĦ
ĠÙģ ÙĪÙĦ
ĠK ev
Ø¹ ØªÛĮ
M es
Ġc ol
Ġn uq
Ġgen im
ker an
ĠkÃªm Ã®
ĠMuh emmed
ist anan
Ġan jÃ®
Ġp oÅŁ
Ġkir Ã®na
ĠM Ã®na
Ġkar bidest
ĠÚļ Úģ
Ġber ned
Ġnek eve
Ġher ik
ĠN ÃĽ
Ġdi afir
ay iyan
Ġw erÃªn
D ay
Ġwe Ã§Ã®n
Ġkev ne
Ø² Ø¯
Ġv eng
Ġr is
ĠØªØ´ Ú©ÛĮÙĦ
ĠØ¨Ø± ÛĮ
ĠÚħÙĪ Ú©
Ġ ï¬Ĥ
ib r
ĠØ´Ø¹ Ø±
ĠØ³Ø§Ø®Øª ÙħØ§ÙĨ
ÙĦÛĮ Øº
Ġdiff Ã©r
ĠØ¨ÙĬ Ø§
ĠRom an
ĠÙħØ¯Ø±Ø³ Ùĩ
Ø®ÙĪØ§ Ø³Øª
ĠT ew
ĠØ¢ÙĨ Ø§ÙĨ
D erb
Ġ eke
Ġzext Ãªn
Ġp Ã®s
ĠWeq fa
ĠÃİ st
Ġhel Ã®kop
Ġkerd Ãªne
Ġteror Ã®stan
l eke
ĠB awer
ĠpÃ®v an
ĠÅŁar istan
Ġxw ek
iÅŁt a
ĠJ iyan
k eya
ĠØ¯Ø³Øª Ùĩ
ĠØ¨ÙĨØ¯ ÛĮ
ĠØŃÙħ Ø§ÛĮØª
ÙĪÙĨ ÛĲ
ĠØ±Ø§ Ø³Øª
ic es
ĠØ¬Ø§Ùħ Ø¹
c le
ĠØ¯Ø± ÙĪ
ot e
Ġdeng an
Ġg ol
Ġpir oj
Ġdir anÃªn
Ġqan Ã»nÃ®
ĠCHP Ãª
Ġes il
Ġxer c
at Ã®yÃª
Ġkom Ã®teya
ĠKor eya
ĠZ eyn
ĠnivÃ®s iye
Ġt eze
ĠÅŁ andina
xwe st
ĠSil ÃªmanÃ®
Ġciv iya
Ġkolon yalÃ®st
Ġman eya
Ú¯Ø§Ùĩ ÛĮ
ÙĦ ØŃ
ĠØ³ ÛĮØ¯
ĠM u
ĠØ¹ÙħÙĦ Ú©Ø±Ø¯
ĠØ§Øª ÙģØ§ÙĤ
ir m
âĢ ĭ
s or
ĠÂ ĳ
ĠV er
ĠM erd
and er
x ana
Ġn aw
ĠEl Ã§Ã®
Ġal Ã®yÃªn
ĠÃ§alak iyek
Ġstratej iya
ĠP et
ĠÃ®r oj
Ġs Ã®l
Ġk alÃªn
Ġxw Ãª
ĠUz un
b Ã®nÃ®
Tev gera
Ġn ouve
Ġnirx Ãª
Ġlez gÃ®n
ĠYPG Ãª
Ġtevbi gerin
ĠÃ§ iyÃª
s ar
Ġelekt r
Ãĩ awa
ĠÙĤ ÙĦ
t iv
ĠØ¢Ùħ Ø§Ø¯Ùĩ
d en
ĠØŃ Ùģ
a ires
ĠØ¬ÙĪ Ø§Ø¨
ĠØ§Ø³ØªØ® Ø±Ø§Ø¬
ĠÃ©gal ement
ĠB aran
Øº ÙĦ
ÙĪÛĮ Ø²ÛĮ
Ġtec rÃ®da
Ġsal e
ĠnivÃ®s andiye
ĠS ÃªÅŁ
Ġbi yan
Ġs enÃ®
Ġbernam eyÃª
ĠBay ik
ĠpÃª lÃªn
yon Ãªn
Ġdiyar Ã®
Ġqir kirinÃª
7 8
I n
Ġkom eke
ĠBex da
Ġbik ÅŁ
Ġhevalbend Ãªn
Ã®n ekÃª
ĠKurd Ã®stanÃ®
ĠØ§ÙĨØª Ø¸
ay Ã®na
ĠÅŁirov e
ro ÅŁ
ÅŁ em
Ġq um
H ikÃ»m
Ġan g
iyon Ãªn
Ġpetr ola
Ġhem b
Ġket Ã®
Ġgun c
Ġtev an
Ġher t
s u
ĠÚ©ÙĪÚĨ Ú©
ĠØª Úĵ
ĠØ¯Ùģ ØªØ±
Ġj our
Ġcont re
i um
Ø±Ùĩ Ø§ÛĮ
ĠÙĪ ÛĲ
ĠÙĨ ÛĮØ±ÙĪ
ĠF l
ĠÙħØ±ØŃ ÙĦÙĩ
K u
? !
ĠAP O
ĠYildir im
Ġt y
Ġal Ã®yekÃ®
Ġew an
Ġmirov ahÃ®
ĠtÃª dik
Ġam ey
ĠMel ayÃª
Ä± z
ĠnÃªz ik
ĠTek oÅŁ
ĠrÃ» din
Ġt om
evan iyÃª
ĠSed ema
Ġqad an
ĠElman ya
Ġdixw in
ĠÃĩ alak
Ġbav Ãªje
las s
Ġzil amÃªn
Ø¯Ùĩ Ø§ÛĮ
ĠØ¯Ùĩ ÛĮØ¯
ĠÚ©ÙĨ ØªØ±ÙĦ
O R
Ġz ah
ĠÙģÙĪØª Ø¨Ø§ÙĦ
ĠÙĩ ÙĦ
ib o
ĠÙħØ´Ùĩ Ø¯
ĠØ¹ Ø§ÙħÙĦ
W atch
ĠØ¢ Ø³Ø§ÙĨ
ĠØ³ ÙĤ
Ġf onction
ĠØ¯Ùĩ ÙĨØ¯
ĠH UDA
ĠÃ®d am
Ġak tÃ®f
ĠHis Ãªn
W eke
Ġdem ekÃ®
Ġbeleng az
ĠM ahm
Ġqez a
Ġnehat in
Ġhin dÃª
ĠzÃ» tirÃ®n
ĠrÃªk a
Ġrojav ayÃ®
ab anÃ®
ÅŁ ared
ĠØ¯Ø± ÛĮ
S S
en ir
ĠIs ra
199 4
Ġal ors
ĠÙģ Ø¶Ø§ÛĮ
W el
ĠÙĨØ® Ø³Øª
est ion
ĠM or
in de
Ġm ic
ĠØª Ø§Ø³ÙĪ
Ù¼ ÙĪ
Ġk enÃ®
ĠÃ§ Ã®yÃª
NivÃ®s kar
ĠrÃ»x andin
ĠØ§Ø³Øª Ø¹
Ġneh Ãªlin
ĠKom el
ĠIraq Ã®
Ġgund ew
Ġmill etÃª
ĠmiÅŁt erÃ®
Ø´ ÛĮØ¯
Ú©Øª Ø±ÛĮ
ĠEs ad
Ġbandor eke
Ġj Ãªre
Ġnirx andina
ĠdÃ®tin Ãªn
Ò «
heng a
ĠØ§Ù¾ÙĦÛĮ Ú©ÛĮØ´ÙĨ
ĠØªÙħ Ø§ÙħÛĮ
is p
Ú¯ ÛĮÙĨ
V EN
âĢĻ ,
Ñ Ĥ
Ø§Ø¦ ÙĦ
ĠØ¢ ÙĪØ±Ø¯
Ã®s iyat
ĠTal ebanÃ®
Ã®y enÃª
ĠÃ§Ã» bÃ»
ĠSelah edÃ®n
ĠkuÅŁt Ã®
Ġdixw Ã®nin
Ġw ij
ĠBeÅŁ a
ĠMeh med
ĠhÃ»r gel
Ġbis ekine
Ġfermand arÃª
ĠÃ§ ik
ĠÙħÙĨØª Ø´Ø±
Ġzir av
Ġz u
Ø§ÙĦ ÙĦÙĩ
a a
y ak
ĠØ§ Ø´Øª
Ġava it
Ġs ub
Ġt ef
Ġs ad
Ġ á¸¥
ĠØ´ Ø§ÙĨ
ĠFacebo ok
ĠRoj Ãª
Ø« Ø§Ø±
ĠKur manc
Ġkompl oya
d Ã®nÃ®
Ġdifik irim
ĠbeÅŁ an
ĠbinpÃªk irina
Ã»b a
Ġhevkar iyÃª
d ilÃª
Ġn Ã®z
ĠÅŁÃª w
Ġtesl Ã®mÃ®
Ġzal im
ĠÃĩ emÃª
Serok wezÃ®rÃª
Ġg iyanÃª
ek ek
Ġdok t
ĠQud sÃª
ĠX er
ĠÙĨØ¨ ÙĪØ¯
m ec
l um
Ġprop os
! ..
ĠO k
ĠS in
ov an
ĠØªØ§ Ø«ÛĮØ±
ah r
ĠsÃ®n orÃ®
N Ã»n
h ejm
Ġned an
ĠteÅŁ w
ĠsÃ»c Ãª
Ġx us
ĠX ur
Ġdib ih
Ġgerd Ã»nÃª
Ġot ob
ĠmÃ®nak Ãªn
C h
Ãªn in
ĠC l
Ġdil op
Ġnav nÃ®ÅŁan
J e
la q
ĠÙĤ Ø§ÙĦØ¨
Ġg u
Ġfelsef e
ĠJ an
ĠÚĨÛĮ Ø²ÛĮ
O K
Ġkat eg
Úļ Ùĩ
ĠØ· Ø§ÙĦ
Øª Ø´
Ùħ ÛĮØ±
Ġcom pr
ĠP ers
Ġse ul
Ġdi ve
ĠEv dal
ĠÙ¾Ø® Ø´
ĠnimÃªj Ãª
Ġbicih kirin
Ġne fr
Ãªj ayÃ®
Ġproj e
ĠkitÃªb Ãª
Ġd orÃª
ek arÃªn
Ġher wisa
ĠhiqÃ»q Ã®
aq Ã®
x al
ĠØªØ¨ ÙĦÛĮØº
ĠPÃªn c
Ġh Ã®rÃª
Ġciv Ã®neke
Ġsaz iya
Ġzanyar iyÃªn
Ġling Ãª
ĠdÃ®j Ã®tal
ur Ãªn
z deh
ĠT a
Ġf ers
ov er
Ġpo int
ĠÙĦ ÙĪÚĵ
ĠS k
ĠS en
y d
er k
N et
ra g
Ġba c
Ġm ab
1 20
ÛĮØª ÛĮ
Ġr ob
Ġdan o
Ġrag Ã®h
ĠÅŁ iv
Ġdeng Ã®
ĠM ÃİT
P arÃªz
Ġdest dirÃªj
Ġket ibÃ»n
Ġber f
iÅŁan ak
oy ek
Ġaway ekÃª
Ġmirin e
ĠJ iyana
Ġned aye
Ġtas f
Ġpir t
ĠNÃĽ Ãĩ
ĠhevÃ» du
Ġkurd ekÃ®
Ġsu iv
ĠhiqÃ»q a
ĠÚ©Ùħ Ù¾
Ġjin eke
ĠØ§ÙĬ Ø±Ø§ÙĨ
p le
S ed
b ol
ĠÙħØ¹ ÙĦÙĪÙħ
B el
ĠØ± Ø¶Ø§
ĠØ¢Ùħ Ø¯Ùĩ
ĠØ·Ø¨ÛĮ Ø¹ÛĮ
ĠØ±ÙĪ Ø³ÛĮ
Ġmat em
Ġrad yoya
ĠÃªÅŁ k
Ġg ilÃ®
ĠÃİl ona
Kes Ãªn
ĠLi cÃª
ĠBel Ã§
Ġprofes yon
Ġs Ã®v
Ġxwarin Ãªn
Ġkir e
Ġew ropÃ®
Ġgef Ãªn
ĠnivÃ®s Ã®ye
ĠhÃªj ayÃ®
Ġm om
Ã®t anÃ®
ĠlÃª bor
alÃ®z mÃª
ĠÅŁ anda
Ġkesayet iya
Ùĥ Ùĩ
a ire
7 00
Ġmil let
ĠÙ¾Ø± ÙĪØ±Ø´
ij an
ØªÙĪØ§ÙĨ ÙĨØ¯
ĠO l
ĠÙħØ± Øº
M E
ĠP h
D a
Ã®y at
ĠD ik
Ġs am
Ġot or
ĠAt at
ĠReq ayÃª
Ġrey de
Ġagah Ã®yÃªn
Ġsek reterÃª
Ġmecl Ã®sa
ĠYekÃ® tÃ®
Ġrawest in
Ġjin ek
il dest
Ġbig h
ĠÅŁik andin
ĠÃªriÅŁ a
ĠdÃ®w ana
Ġnikar ibin
Hem Ã»
we ya
ĠÅŁa girt
ĠrÃ»niÅŁt inÃª
Ġdest eya
ĠM un
VEN DA
ĠbÃª ÅŁ
Ø§ Ø®
Ġres p
Ãªr im
Ġsind oq
Ġpan el
ĠØ§ Ø¨Ø±
ĠØ Ľ
H es
ĠÙĤØ± Ø¢ÙĨ
ĠÙĨÙĪ Ø´Øª
ĠØº ÙĪÙĨÚī
7 2
ĠÂł ĠÂł
ĠÙĤØ± Ø§Ø±Ø¯
ĠÙĥ Ø±Ø¯
ĠSur iye
ĠDuh okÃª
ot Ã®
ĠÃĩ un
ĠyekÃ® tÃ®ya
Ø¶ÛĮ ØŃ
ĠÃ§Ãªkir iye
Ġnavb eyna
Ġgav an
Ġbidest xistin
Art ÃªÅŁa
Ġx ay
Ġji mara
Ġasteng Ã®
Ġtifaq a
ar ÅŁ
ĠdibÃªj Ã®
ĠmÃªv anÃª
d ayÃ®
Ġp eÅŁ
Ġved iÅŁ
ĠÃª l
Ġdez geh
ĠØ³ Ø±Ø¯
ĠØ±Ø³ ÙħÛĮ
Ø¯ÛĮ Ùĩ
h n
ĠÙĩÙĨ Ø±
ĠÙħÛĮ Ø²
ĠØ¯ Ùī
ĠØ¹ Ø¯Ùħ
Ġc end
ĠØ®Ø§ÙĨ Ùħ
c el
Ã ¡
ĠØ¯ÙĪ Ø³ØªØ§ÙĨ
ĠÙ¾ Ø±Ùħ
20 19
ĠØ§Ùħ Ø±ÛĮÚ©
ĠÙħØ· Ø±ØŃ
ĠÙħ ÙĪØ±
ĠØ¯ÛĮ ÙĪØ§Ø±
Y E
Ġal ik
Ġ Ã®nÃª
ĠØ¨ ÙĦÙĪ
ĠØªÙĦ Ú¯Ø±Ø§Ùħ
W ezareta
Ġneheq Ã®
eh l
ĠjÃª hatÃ®
ĠSey da
ĠENK S
Ġaw ayÃªn
tin ue
Ġde we
Ġkar es
ĠMir ad
Ġkov arÃª
ĠD Ã®rok
Ġmizg eftÃª
ĠEn stÃ®tuya
ĠtarÃ® xÃª
ener al
Ø§ÙĪ ÛĮØ±
Ġc iyekÃ®
ĠÙ¾ÙĪØ± ÛĲ
ĠØ²ÛĮ Ø§Øª
ĠD ost
ĠG erm
ĠØµ Ø±Ùģ
ĠØ§ÙĦ Ú©ØªØ±
ĠØª Ø²
s eta
! )
Ġot elÃª
Ġbers Ã»c
ĠN am
ĠSeb rÃ®
ĠKC D
Ġakadem Ã®k
ĠD Ãİ
ĠkÃ» Ã§
Ġan Ã®ye
Ġmatery alÃªn
Ġkir ibe
ber iya
ĠÅŀ ik
Ġx ayÃ®n
perest Ã®
ĠK ap
ĠÚ©Ø§Ùħ ÙĦØ§
Øº Ø§ÙĦ
ĠØ§ÙĨØ± ÚĺÛĮ
ĠT or
ĠÚ©Ø±Ø¯ Ùħ
ĠL in
ĠÙĪÙĦØ³ ÙĪØ§ÙĦ
ĠØ®Ù¾ ÙĦÛĲ
ĠB en
ĠÚ© Ø¯
ĠØ¢ ÛĮÙĨØ¯Ùĩ
Ġs ich
Ġc Ã®ya
Ã®l eya
ux ul
Ġa pÃª
Ġsaz kirin
ĠnÃ»Ã§e gih
ĠØªÙĨ Ø¸ÛĮÙħ
Ġb enÃ®
ĠN Ã»Ã§
ÃªÅŁ e
ĠSed dam
us Ã®
Ġhes as
Ġg eÅŁt
Ġnah Ãªlin
ĠhiqÃ»q Ãª
Ġku t
ist iyan
ĠBrÃ®tan yayÃª
ket in
Ġs ext
ran iya
Ã®r o
ĠwÃªr ek
l ig
5 3
Ġwe st
Ġk erÃª
ĠK ey
es e
ĠÙħ Ø¤
f et
ĠØ¸ Ø±Ùģ
k al
ĠÙĩ Úħ
ic le
Ġm ur
ĠK awa
Ġdi c
Ġt it
ey h
ĠÙħÙĨØ¸ ÙĪØ±
ĠØ±Ø§ ØŃ
Ø´ Ø§Ùĩ
ĠØ¹Ø§Ø´ ÙĤ
anÃ® ze
Ġbeh sÃª
Ġfa ut
b eya
w erÃª
Ã®y ane
hat in
Ġav ahiyÃªn
Tirk iye
ĠD anÃ®
Ġbingeh Ã®
Ġa dara
ĠterorÃ®st Ã®
ĠAnad ol
Ġh uc
ĠTiÅŁt Ãª
xistin Ãªn
ĠpÃªÅŁmerg eyÃªn
ĠRon ahÃ®
ĠfÃ®z Ã®kÃ®
Ġpes nÃª
Ġzewac Ãª
Ġmamost eyÃª
Ġt akt
Ġc ela
Ġmirov atiyÃª
a ch
Ġ \
Ø± ÙģØª
Ú¯ ÙģØª
h r
ÙĨ Ø§Ú©
ĠÚ©ÙĪØª Ø§Ùĩ
ĠØ³Ø±ÛĮ Ø¹
auc oup
ĠØ³ ÙĪÙĦÛĲ
Ø§Ø¨ ÙĤÙĩ
ĠÙĤØ§Ø¨ ÙĦÛĮØª
O r
un t
Ø§Ùħ Ø§
ĠÚī ÛĮØ±
O D
ĠØ§Ø·ÙĦØ§ Ø¹
Ø±ÙĪ Ùħ
ĠF el
ĠÙģ Ø¶
Ġmo i
ĠØªÙĦ ÙĪÛĮØ²ÛĮ
ÙĬ ÙĦ
ĠÅŀ ar
6 4
Ú¯ Ø²Ø§Ø±ÛĮ
Ã®n erÃªn
ĠÃĩ et
ĠHerÃª mÃª
ist anÃªn
Ġgot arÃª
ĠbÃªn av
ĠSip Ã®
d eyÃª
Ġt Ã®m
ĠeÅŁ Ã®rÃªn
ĠÃ§Ãªn abe
Ġsef er
ĠFE TO
Ġbomb eyÃªn
l Ã®s
Ġhev j
Ġxat ir
ĠlÃ®st in
iy onÃª
ĠbÃ®r anÃ®n
day Ã®na
EYA N
ĠÄ° raqÃª
Ø§Ø¯ ÙĦ
b Ã»m
ĠW Ã®kÃ®
ĠØ¢Ø± Ø§Ùħ
ĠMa is
D e
Ã®d Ãªn
r ement
ĠØ¨ Ø§ÙĨØ¯ÛĲ
ĠØ¯Ø§Ø± ÛĮØ¯
Ġre cher
Ġc ad
Ġin form
1 000
ĠY us
Ġf iz
ĠYas Ã®n
ĠvÃª ya
ĠbiÅŁ Ã®ne
ĠIng il
Ø§ÙĦ Ùħ
bend iya
ĠbihÃ®st in
Ġnas kirina
Ġpirr anÃ®
Ġfirot anÃª
ĠÃ§and Ãª
Hel bet
Ġr iyÃªn
Ġdarb eya
Ã»d eng
Ġdiax ivin
ĠtiÅŁt ekÃª
ĠBerl Ã®nÃª
Ġf Ã®r
ayÃªn e
Ġgen er
Ġwez Ã®r
Ġrizg ariya
ĠT RT
ĠÙħØ±Ø§ Ø¬
Ġc iz
Ø¨ Ø·
Ġpey wir
Ġil s
ĠÙĪÛĮ Úĺ
ĠØ³Ø§ÙĦ Ùĩ
ĠØ§Ø¸Ùĩ Ø§Ø±
ĠØ¹ÙĦØ§ ÙĪÙĩ
T I
ÙĪØ§ÙĦ ÙĪ
Ø§Ø¯ Ú¯ÛĮ
Ã ¯
ĠÚ¯Ø±Ø¯ Ø¯
ĠCar na
at eya
ĠFran sÃ®
ÙĪÚĵ ÙĬ
ĠØ§Ø¨ Ø²Ø§Ø±
Åŀ Ãª
ĠØ¨Ø± ÛĮØ¯
dÃªr Ãªn
Ġqez aya
ĠrÃªber Ãªn
ĠÅŀem iyÃª
ĠdÃ®w arÃª
ĠzÃ®r ek
Ġber dÃª
Ġher im
ĠC Ã®girÃª
ĠhebÃ» ye
ĠÅŁÃª wirmend
Ġdist Ã®ne
ĠNÃĽÃĩ EYAN
Ġderdix in
ĠfÃ®l ozof
Ġdiyar kirina
Ø³ÛĮ ÙĪÙĨ
aq Ãª
Ġast eke
ĠtÃª t
O S
li ch
ĠDer w
ĠØ³ ÙħØª
ĠØ³Ø± Ø¹Øª
Ñ Ģ
Ġme ille
Ġperm et
ĠH asan
ek er
Ġr Ã®
Ġdar xistin
Ġmil etÃªn
Ġdig uher
Hin ek
l eyÃª
ÚĨ Ø§Ø±
Ã®r et
Åŀ erÃª
Ġav abÃ»na
ĠnivÃ®s Ã®na
Ġar Ã®k
ĠØ§Øµ ÙĦ
ĠveÅŁ art
Ã» f
ĠØ§ ÛĮØ´
Xwend evanÃªn
ĠpÃªÅŁket inÃªn
Ġaxaftin Ãªn
ĠÅŁ iyar
Ġme j
ĠH DK
ĠpÃªn as
ĠC am
ĠØ§ØµÙģÙĩ Ø§ÙĨ
ist a
ĠtÃªkil iyan
ĠM od
an in
ÙĬ Ùĩ
ĠØ¢ ÙĦ
ĠG e
al ement
14 0
ist es
ĠB ih
ĠO t
ĠØ²ÛĮ Ø§Ø¯
ĠF ak
ĠW exta
r eya
ĠpÃªÅŁ baz
Lew ra
ĠBedirx anÃ®
ĠD uy
Ġhev ok
Ġpey wendÃ®
ĠÃ§Ãªk irÃ®
Ġyek itiya
Ġkom arÃª
Ġti ÈĻ
Ġp Ã®ya
ĠX aÃ§
ĠparÃªz erÃªn
ĠEreb Ãªn
ĠlÃª v
ĠlÃªkolÃ®n er
Ã®y eno
Ġkurd istan
Ġguf tÃ»
ĠØ¢ ÙĦÙħØ§ÙĨ
Ġnexwe st
Ġdan as
Ġxat irÃª
Ġc Ã»
ĠØ¯Ø§Ø¯ ÙĨ
ĠÃ§Ã»y Ã®na
ĠØ¨ Ø§Ø¯
9 4
ĠK end
ĠÚĨØ§Ø±ÙĪ Ø§Ú©
ĠØ´ Ø§ÛĮØ¯
us es
d ad
b es
Ġ $
al y
Ġwor de
p as
ĠÃ ī
is me
X el
Ġdur ist
ĠpÃª ve
Par lament
Ġm aÅŁ
Ġt axÃª
ĠpevÃ§Ã»n an
D u
d eyÃªn
ĠK NK
Ġber fÃª
ĠD Ã»
nivÃ®s a
ĠØ³ÛĮÙĨ ÙħØ§ÛĮÛĮ
ĠÅŀeng al
Ġwef at
Ġvekir iye
Ġrojnam eyÃªn
te gr
ĠÙĩÙħ Ú©Ø§Ø±ÛĮ
197 9
Ġwekhev Ã®
Ġbinirx Ã®nin
r anÃªn
ĠSer dar
ĠÃ®m par
ĠÙħÙĩ Ø§ÙĦ
ĠØ§Ø¨Øª Ø¯
ĠrÃª gez
ĠÙ¾Ø§ÛĮ Ú¯Ø§Ùĩ
ĠI brahÃ®m
Ð¾ Ð
ĠH ate
ib il
is se
199 5
ĠØ³ÙĪØ§ÙĦ Ø§Øª
Ġh on
id Ã©
ie urs
ĠA dem
Ġch er
ÙĦØ§ ÙĤ
ĠØ®Ø¨ Ø±ÛĮ
ĠÙĪ Ú«
ĠÙħØŃ Ø³ÙĨ
Ġxw i
ĠAzerbay canÃª
ĠC emal
ĠZ Ã®lan
Ġmesel eyÃª
Ġdik Ãª
Ġciv iyan
xan eyan
Ġdagir kirin
ĠMalb ata
Ġg azÃª
Ã®y on
Ã»b ih
Ġhiz ra
Ġnav e
Ġdil ÅŁ
ĠPir aniya
Ġb arÃªn
Ġ ayet
Ġnem aze
ĠÃ®h tÃ®m
ĠPirtÃ»k a
Ġprat Ã®kÃª
-- --
Ġbe g
ĠÙħÙĪØ³ÛĮ ÙĤÛĮ
ĠÙĨ ÙĪÛĮ
Ø¯ ØºÙĩ
ÙĪÛĮ Ùĩ
ĠØ± ÙĪØ¯
ĠD ok
O L
g ala
Ã© p
ĠC oka
ĠD eh
Ġdewlet bÃ»nÃª
P AK
ĠX ar
Ġedal et
l iyÃª
ĠQ os
ĠÅŀemz Ã®n
ĠÃ§ ol
Ġst Ã»yÃª
ĠMuh ammed
b Ã»r
ĠQ ir
og lÃ»
Ġferheng a
Ġhur met
Ġqed Ã®m
ĠÃĬz dÃ®
ĠsÃ®nem ayÃª
T Ãªk
Ãªj Ãªn
Ġli b
ÃªÅŁ in
Ġdamezir andina
uv ent
Ġderx Ã®nin
Ø±Ø§ ØŃ
Ġp akÃª
ĠØ¨ Ø¯Ùĩ
Ġq Ã»na
Ġnak eve
Ġna xwazim
Ġprat Ã®k
ĠH ingÃª
ĠC ezÃ®rÃª
Ġfolkl orÃª
ĠØª Ø³
ĠÙģØ± ÙħØ§ÙĨ
ad ing
Ø§Ùħ Øª
Ġcon na
ĠÙĨ ÚĵÛĮ
ÙĤ Ø¯Ø±
ĠF ed
ĠF erm
ĠØ§ÙĨÚ¯ÙĦÛĮ Ø³ÛĮ
sa ge
Ġmat ch
Ġt at
ww w
Ø± Ø§ÙĦ
ĠSul eyman
ĠÙħÛĮ Ú©ÙĨ
ĠÙĪØ§ØŃ Ø¯
E h
Ãİ N
ĠX udÃª
Ġdil xweÅŁ
ĠbÃªr o
Ã®y ayÃ®ÅŁÃª
Ġx aÃ§
ĠSÃ»r yÃª
Ġqu and
Ġpol a
Ġrizgar kirin
ĠSÃ»r Ã®ye
Ġseb eb
ĠBaz irg
Ã®n Ã®n
Ġew qasÃ®
Ġhuk mÃª
ed Ã®nÃª
ax Ãªn
ab Ã»nÃª
ĠnivÃ®s and
Derb arÃª
Ġbed enÃª
BÃª guman
Ġp iya
ĠM Ã®rÃª
ĠÅŁ ÃªrÃ®n
ĠDa xwaz
s Ã®r
Ġgiran b
it Ã®ne
Ġor d
Ġmil Ã®t
Ġzay end
Ġm id
Ġem a
ĠV ous
s o
ĠB ur
200 2
ĠÚĨ ÛĮØ²
Ġhin g
Ĥ ¬
Ġat mos
ch Ã©
ĠÙĩÙħ ÛĮØ´Ùĩ
Ġre g
ad ir
Ġm ol
Ġd Ã¨
Kurd Watch
Ġz irx
Ġber x
ed anÃª
ĠÙģÙĨØ§ ÙĪØ±ÛĮ
el eyÃª
ĠM on
Ġfermand ar
ĠNetew Ãªn
ÛĮÙĨ Ø§
Ġp elÃª
Ã»ÅŁ Ã®
Ġnen as
Ġan tÃ®
ĠØ±Ø§ Øº
Ġzeh f
NA VENDA
Ġbiguher Ã®nin
19 60
urd Ã®
iv er
ĠÚ©Ø§Ø± Ø¨Ø±Ø§ÙĨ
Ġb at
ĠÙĪØ± ÙĪØ¯
Ø· Ø§ÙĨ
ĠØ§Ø³Øª Ø§ÙĨØ¯
an o
ĠBa as
Ġpr Ã©c
ĠM c
8 8
Ġl az
ĠØ¯ Ø´
ĠD oz
ĠÙĩÙĨ ÙĪØ²
ĠÙ Ģ
ij e
Ø§ÙĦ Ø§
X an
ĠØ§Ø¶Ø§Ùģ Ùĩ
Ġmed a
Ø§Ø´ Ø§
ĠHaw arÃª
ĠÃªzd iyan
ĠNÃ»n erÃª
Ġtex m
Ġneg ot
ot Ãª
Ġend ama
Ġrad yoyÃª
Ġzir ar
ĠCot meha
ĠhiÅŁyar Ã®
Pir tÃ»k
Ġbipirs in
Ġmezin Ãªn
Ġdax Ã»yan
Ġx as
ĠØ´Ùħ Ø§ÙĦ
ĠÚ¯ ÛĮØ±ÛĮ
ĠØ§Øª Ø§ÙĤ
ern ak
Û±Û ´
ĠT ebÃ®
Ø¹ ÙĪØ¯
ĠØµ Ø§Ø¯Ø±
ĠØ¨ ÚĨÙĩ
p arast
ĠA la
ĠTe ala
oÅŁ an
Ġer kÃª
Ġne xw
Ã®m anÃ®
Ġnav Ã§e
Ġzarok a
ĠErd og
ĠM ewl
iz in
Ġgul anÃª
Ġmuc ad
g otina
Ġberhem an
Ġxwed iyÃªn
ĠBerxwe dana
ĠmÃªrx as
ĠÃ§erm Ãª
Ġhev ala
E rÃª
bÃ»y Ã®na
Ø¨ ÙĪØ±
ÙĪÙĨ Ú©ÛĮ
Ġs om
Ã¶ z
ĠÅŁan o
ÙĤ Ø¯
it i
Ġ `
Ø¨ Ø§Ø²
Ġda hÃ»r
Ã ī
ĠG ok
ĠÚģØ§ÙĨ Ú«
ent es
Ġ arÃª
ĠÙħØ± Ú©
ĠÙĪÛĮÚĺ Ú¯ÛĮ
ĠØ¯ ÙĤÛĮÙĤ
l uman
ĠT aÅŁ
ĠÅŁ el
Åŀ Ãªx
ĠKes Ãª
estÃ®v ala
Ġmehk Ã»m
ĠCiz Ã®r
Ġbizan ibe
at orÃª
Ġparlament erÃªn
Ġtop baran
Ġhewc ed
ĠbÃª s
Ġxur tir
Ġb Ãªz
Ġheval ekÃ®
it Ã®nin
ĠDB P
Ġdat Ã®ne
Ø´ÙĨÙĩ Ø§Ø¯
ĠBr un
y l
ĠØ¨Ø± ØªØ±
ÙĪÙĦÙĪ ÚĺÛĮ
ĠM ey
ĠØŃØ³ ÙĨ
ĠØµ Ø§ØŃ
ĠÙĨÙĤ Ø§Ø´ÛĮ
ĠÙħÙĤ Ø§
ĠØ· ÙĦ
ĠÙ¾ÚĺÙĪÙĩ Ø´
ĠØ±ÙģØª Ø§Ø±
Ġdu a
5 6
il m
ĠTek n
ay iÅŁÃª
A k
erd iÅŁ
ĠedebÃ®y atÃª
Ġcenaz eyÃª
ĠB Ã®l
ĠpÃªÅŁ veb
ij neya
Ġxurt tir
ĠDÃªr ikÃª
ĠÃ§ iye
Ġdew ama
ĠYek emÃ®n
Kurd Ãªn
Ġm etir
Ġbiz ava
ay Ã®nÃª
Ġwek a
Ġbi gir
ĠdimeÅŁ e
eng Ãªn
ĠtÃªk evin
ĠkevneÅŁop Ã®
ex ist
ĠÃ®m tÃ®h
Ġkol e
ĠS ak
Ġma st
Ġin c
ĠÙĨ Øª
ĠÙģØ± Ø´
7 4
198 8
ĠØ³Ø® ÙĨ
ra p
c ana
Ùģ ÙĪÙĨ
ĠÙģØ±ÙĪØ´ Ú¯Ø§Ùĩ
ĠØ±Ø§ Ø²
Ġn om
ĠT v
Ø¹ ÙĦÛĮ
ĠS aziya
ĠpÃªkhat ina
eg Ãª
ĠdimeÅŁ Ã®nin
ĠÚ© ÛĮÙĦ
ĠxwepÃªÅŁ andan
Ġt ez
Ġbik are
ĠX or
Ġhemwelat iyÃªn
Ġxizm Ãªn
ĠbirÃªveb irina
Ġb Ã®ya
Ġser Ã®l
Ġpey amÃªn
Ġser n
ĠnivÃ®s Ã®ne
Ġzar avayÃª
ĠTal abanÃ®
ebil ind
Ġdan Ã®ne
Ġserok atÃ®ya
ĠgirÃªd ayÃª
Ġn Ã®ya
ĠpÃªvaj oyÃªn
Ġrih et
Ø¨ Ø®
Ġh orm
Ġt ot
Ġbe aucoup
Ø¸ Ø±
Ġn ar
ĠÙ¾Ø³ Ø±
S il
Ã©l Ã©
Ġd Ã©s
Ġf l
ÙĢÙĢ ÙĢÙĢ
ĠÙĥ ÙĨ
ĠD ez
r ek
Ġte chn
ØªÙĩ Ø§ÛĮ
ĠÚ¯ÛĮØ± Ø¯
sel am
Ġtev aya
Ġbaly oz
Ġew Ãªn
l Ã»m
and ayÃª
Ġdem ildest
Ġguher t
Ġmaz in
Ġc Ã®yÃª
Ġguher Ã®n
Ġx es
Ġku Ã§
ĠL Ã®st
Ġhel a
Hewl Ãªr
Ġch ez
Ġbij Ã®ÅŁk
Ġmalbat eke
ĠB ax
ĠP ap
ĠPDK Ãİ
Ø¬ Ùħ
ĠØµ Ø¯Ø§
I l
ĠØ¹Ø± Ø¶Ùĩ
Ø¨Ø± Ø§ÛĮ
ĠØµ ÙĨØ¯
Ú¯ ÙĪÛĮ
ĠØ²ÛĮØ¨ Ø§ÛĮÛĮ
ĠG uv
ĠØ¨ÛĮÙĨ ÛĮ
Ġq am
Ġorg anÃ®ze
ĠMizg Ã®n
t iyÃªn
Ġt urk
Ġhez Ã®ranÃª
Ġciv Ã®nek
Ġderbas bÃ»na
Ãªr eng
Ġkurd iya
if i
Ġhel wÃª
Ġdil Ã®ze
ĠkÃ®m yewÃ®
ĠmiÅŁt er
Ø¦ ÙĪ
ĠR Ã»sÃ®
ĠcÃ»r eyÃªn
Ġhen ek
Ġbi dÃª
ol o
ĠtÃªkil Ã®yÃªn
Ġyas ayÃ®
ĠH ir
ĠpÃªn ase
ay ilan
Ġbir Ã§
ĠØ§Ø¬ Ø§Ø²Ùĩ
Ġplat form
ĠÃ®dÃ® a
Ù¾ÙĪÙĦ ÛĮØ³
Øª Ø§Ø¨
ĠtÃªkil iyeke
ÛĮÙĨ ÛĲ
ĠÙĤØ· Ø¹Ø§Øª
ĠØº Ùħ
ĠP ay
Ġgrat uit
Ø¬ ÙĨ
Ġgor e
Ø¯ Ø±ÛĮ
ĠC in
ÙĨØ¬ ÛĮ
ÙĪ ØªÛĮ
Ġest a
g uz
ĠØ³Ù¾ Ø³
Ġcomm un
ĠrÃ© c
Ġh ac
ĠP ARÃª
Ù¾ Ø±Ø¯
ĠÅŁÃªn iyÃªn
Ġwaz enÃª
il Ãªn
Ġgot Ã®ye
Ġbal ef
Ġfik rÃ®
ĠAN F
Ġkit ab
ĠYek em
Ġkes ayetÃªn
Ġbir Ã®nÃªn
ĠXel ata
Ġde ÅŁt
Ġl Ã®r
ix in
Ġm abÃ»n
Ġc engÃª
Ġav ak
bÃ»n e
ĠBal y
ĠtarÃ® xa
ĠÃ®dar e
ĠpolÃ®t Ã®ka
Ġbiz ane
aÅŁ Ã®
ĠDih okÃª
Ġnav Ã®
Ġtevger eke
Ã Ń
Ġser edana
Ġkurd Ãª
Ġci da
ĠØ¢Ùħ ÙĪØ²
ĠØ¢Ùħ Ø¯
Ġf akt
Ø³ ÙĪÙĨ
Ø± Ø§ÙĨÛĮ
Ġj o
Ø±ÛĮ Ø¨
k art
ĠØ¸ Ø§Ùĩ
Ġp os
ĠØªØµ Ø§ÙĪÛĮØ±
ĠØ¯ Ø§Ùħ
Ø§Øº Ø°
ĠH om
d es
ĠØªØ± Úħ
i din
T M
Ġli gne
I C
y r
Ġdes ign
à ¤
Ġr iz
Ġkit abÃª
ĠNexweÅŁ xaneya
Ġzir arÃª
ĠBak Ã»r
Ġsoh bet
B eriya
Ġj enos
ex an
Ġqan Ã»nÃª
ĠÅŁared ariyÃª
Ġpar az
Ġmil etan
Ġc Ãª
ĠÃİ stan
Ġam Ã»r
Ġweh ÅŁ
Ġzih n
Ġk av
Ġbir Ã®na
Ġser baz
Ġq Ã»n
Ã®st ana
ĠparÃ§ eyek
ĠD TP
Ġgeng eÅŁ
Ġzarav ayÃªn
ĠÃ®t Ã®r
Ġberfireh Ã®
Ġkars aziyÃª
z imanÃ®
Ġkir im
Ġdijmin an
Bir Ãªz
h elat
Ġq ij
ĠDemokr ata
ĠÙĪ Ø³ÛĮ
ĠØ¯ÙĪØ± Ø§ÙĨ
Ġkir Ãªt
ĠÙģ ÙĨÛĮ
Ġl eb
Ġbom be
Ø¬Ùĩ ÛĮØ²
Ġc um
ĠâĢ Ļ
ĠÙħØ·Ø§ÙĦ Ø¹Ùĩ
Ġt et
ĠØ¨ ÙĪØ±
Ġh i
ĠØ± Úĺ
ĠÙħØ¹ Ø§
Û± Û±
Ġfran Ã§a
ĠÙ¾ Ø§Ø±Ùĩ
ĠÚģÙĪØ§Ú© ÙĪÙĨÙĪ
Ġem el
ĠD im
c eyÃª
Ġzanist Ãª
Ġm ois
ĠÅŀ erÃ®f
y eya
ĠxweÅŁ Ã®
ĠÃĩap emen
ĠH ikum
Ġnav okÃ®
aq eÅŁ
Ġsedem an
ĠDanÃ® mar
ĠpÃª re
ĠEwrop Ã®
ator Ã®ya
Ġc ir
7 6
Ġbi y
ĠRom Ãª
ĠØ§Øª ØŃ
ĠÙħ Ø¨Øª
Ġziman zan
ĠØ¯ÙĦ Ø§Ø±
Ġre pr
Ġm Ä±n
Ġc ontr
Ġc u
im g
Ġes perant
ĠÙģØ± Øµ
Ġperson nes
ĠØ§Ùĩ ÙħÛĮØª
ĠN ur
Ġji m
Ġm oh
9 2
Ġp u
En c
ĠÚ© Ø±Ùħ
ĠØ´Ùħ ÛĲØ±
S ey
ĠÚ© Ùģ
k aya
ad an
ĠÛĮÙĪ Ø³Ùģ
P our
Ġdest hil
ĠFermand ariya
ĠtÃª bik
Ġrej Ã®m
Ġfran s
Ġber b
oloj Ã®ya
ĠPYD Ãª
Ġh eÅŁ
Ġy ena
Ġdu jmin
Ġr ave
ac Ãª
Ġbar anÃª
ĠErz ir
ĠÅŁaÅŁ Ã®
ĠEd eb
ĠMamost e
Ġmirov ek
ĠÃ§ÃªbÃ»n e
ĠdÃ®m en
ĠØ¬ÙĦØ³ Ùĩ
ĠÙĤØ±Ø§Ø±Ø¯ Ø§Ø¯
Ġstran an
Ġperg al
Ġstran bÃªj
194 5
ĠÙħØ¹ ÙĨ
ĠmÃª tÃ®n
ĠS o
Ġt rop
ĠØ³Ø¨ Ú©
Ġbaz ar
Ù¼ ÛĲ
Ã© di
Ġprof ess
197 5
ĠTay y
ĠZ eh
Ġv ide
Ú¼ Ùĩ
N am
Ú« Ø±ÙĪ
Ø± Ø§Ø±
Ġt v
ĠØ¯Ø± ÛĲ
Ġsemed Ãª
ĠKurd Ã®stan
ĠN ous
ĠÅŁ ahÃ®
ĠØ¬ Ø§ÙĦØ¨
Ġtecr Ã®d
al anÃ®
Ġtr av
Ġh Ã»m
ÙĨ ÙĨ
Ġher am
ĠGul ana
Ġedeb iyat
Ġdidom Ã®nin
Ġtecr ub
ĠÅŀah Ã®n
ĠT Ãªm
Ġam eyo
Ġpot ans
Ġkes a
Ġamad ekirina
Ġbib Ã®nim
avÃª tin
ĠtÃª xe
ĠÃİtal yayÃª
Ġbext ewar
ĠsÃ®yaset medar
m am
Ġkil am
Ø² Ø§Ø¯Ùĩ
ĠÙ¾ Ø§ÙĪØ±
ĠN az
ĠØªÙĪ Øµ
Ø¨ÛĮ Ùĩ
ag n
oj a
ĠL ez
ĠÙ¾ ÛĮÙĦ
ĠØŃ Ø§ÙĦÛĮ
en ant
om pe
ĠØ¨Ø± Ø¬
ĠØ±ÙĪØº ÙĨ
ĠÙħÙĪ Ø¬Ø¨
y et
ĠØ¨Ø± ÙĨØ¯
Ġv iya
ĠrÃªz iman
ÛĮØ² Ø±
ĠÃİ HD
ĠdiÅŁ Ã®ne
Ġsa etÃªn
Ġrawest andina
ĠÅŁ ivan
Ġcez akirin
ĠpÃªvajoy eke
Ber pirs
Y PJ
ĠbirÃ®ndar an
ĠlÃªpirs Ã®nÃª
ĠÃ§ im
ĠpÃªÅŁkÃªÅŁ kirin
ÙĪ Ø¹
ÙĦ Ø§ÙĨ
d ikin
Ġne girt
ÚĨ ÛĲ
Ġkes ayeta
st Ãªn
ejir Ã®nin
ĠJ ina
Ġbawer iyÃªn
ĠØ®ÙĪØ§Ùĩ ÙĨØ¯
Ġs ens
Ø¹ÛĮ ÛĮÙĨ
Ġs iz
tion s
Ġb ud
ĠEl m
la c
B in
Ġh t
ur g
Ú¯ ÙĪÙĨ
ĠØ§Ùħ ÙĦÙĩ
B o
ĠÙħØ« Ø§ÙĦ
Ġv ind
ew an
Ġk ok
ev l
ay Ã®ya
Ġap p
ek anÃ®
ĠTah ir
Ġr as
Ġgirt ibÃ»
Ġberfireh tir
Ġmisilman an
Ġn Ãªd
ĠSÃ»r Ãª
ĠEf endÃ®
Ġqir kirin
ÃĬ dÃ®
Ġhund ur
ĠbikiÅŁ Ã®ne
ĠZarok Ãªn
Ġdiyalog Ãª
kir iye
ĠkÃ»r tir
Ġm end
ĠÃ§ ay
bÃ»n eke
Ġper eyÃª
ĠfÃªr bÃ»na
Ġba p
Ġdin Ãªrin
Ġkol anÃªn
ix Ãª
kef tina
ĠÙħÙĪ ØªÙĪØ±
ĠØ¨ Ø§ÛĮ
ĠW isa
Ġkult ura
ÙĬ ÙĬ
Ø§ Ùī
5 2
ĠØ± ÛĮØ§
r ez
Ø±ÛĮ ØŃ
ĠØª Ø§ÛĮ
Ġj ust
I L
Ãªr o
Ġtr ad
en ne
Ġli ber
ÙĪÙĬ ÙĦ
ĠÃ Ħ
ĠH ed
aw it
ate urs
ĠMur ad
b ay
Ãªn o
mÃªn c
ĠD uÅŁ
ĠÅŁer tÃª
Ġdih Ãªt
ĠAs ya
Ġtattoo Ãª
m ayÃªn
oz anÃª
Ġwer z
Ġron ahiyÃª
ĠCiv ak
Ġax iv
n enÃª
ĠÃ§end Ãª
Ġsiyas etÃªn
Ġkom pan
Ã®st Ã®k
Ġfon ks
ĠEn f
ĠÙħ Ø§Ùħ
y m
j Ãł
ĠKurd o
ĠtirÅŁ ik
Ġsit u
y ad
Ġj us
ĠØ¯Ø³Øª ÙĪØ±
! âĢĻâĢĻ
Ġl an
Ġer z
Ġpla ce
ĠP EN
Ġn is
ac a
ĠØ§Ø® ØªÛĮØ§Ø±
Ġcom ment
p ol
Ġaw a
ĠPar is
af iz
av uz
ĠH D
ĠvÃ®d yo
Ġvo ir
Ġwek Ã»
Ġx en
ĠY un
L Ãªkol
Ġteybet Ã®
ed anÃªn
ĠØ² ÙħØ§
ĠdikÅŁ Ã®ne
Ġder yayÃª
Ġnek evin
ers Ãª
ek ariya
Ġdij w
ĠKar kerÃªn
Ġg oÅŁ
erd Ãª
ï ¿
ĠvÃ® de
Ã¤ g
Ġr en
Ġper for
ĠØ§ÙĨØªÙĤ Ø§ÙĦ
Ġg ar
Ġt ut
ĠØ´ÙĪØ± Ø§
Ú¯ Ø²
ĠrÃ© alis
ĠØªÙħ Ø§Ø³
Ġq Ã®r
ĠkuÅŁt ine
Ġexla qÃ®
Ġm adÃ®
Ġr Ãªn
ĠÅŁ ov
Ġker em
Ġteh dÃ®t
r up
ah Ã®yÃª
Ġdib ir
ĠzanÃ®n gehan
ĠÙħØª ÙĪØ³
Z imanÃª
k ayÃª
ĠK iÅŁanak
ĠØ¯ Øº
Ġrast Ã®yÃª
ĠÃ§ar ÅŁ
ĠRoj nameya
Ġrom anÃªn
ay iya
an Ã®yÃª
Ġf Ãªk
Ġnas andin
Ġt Ã»n
ĠM exm
Ġkom Ã®syon
Ã®x bar
ĠbÃ» me
Ġgl ob
ĠØ´Ú© Ø³Øª
Ġdigih Ã®je
ĠbÃª w
Ġhes reta
Ġderxist iye
Ġf Ã¼r
ĠÙħØ¯ Ø±
Ġz e
Ġsoc cer
l ov
ĠÙħ Ø®ØµÙĪØµ
G or
Ø´ ÙĪØ±
ĠÙĨØ²Ø¯ÛĮ Ú©
ĠØ¹ Ø¯
ĠÙħØ® ÛĲ
o od
Ù¾ Ø±Ø³
ĠR iya
Ġj orÃª
ĠhÃ®k ay
ĠSÃ»r iyeya
ĠleÅŁker iyÃª
Ġdew a
ĠEw leh
ĠCiv akÃ®
ĠkeÃ§ ik
Ġzor dar
din Ãª
Ġenerj iya
Ġw erÃª
Ġd Ãªr
Ġav akir
Ġdiher ike
r eyÃ®
ast Ã®
eyt an
ĠwÃªn eyan
Ġjiyan ek
Ã©r i
ĠÃİm par
Ġserok atiyÃª
ĠØ¨Ø¯ ÙĦ
ÙĨÙħ Ø§ÛĮ
Ø±ÛĮ Ùĩ
ĠÛĮØ§ ÙģØª
Ġtrava il
Ú© ÙĦÙĩ
op p
D ad
g in
aw an
b w
ĠCon tinue
ĠÙĪ ÙĨÙĩ
ĠØ¹ÙĦ Øª
Ġt if
ep h
ĠØª Ø¹ÛĮÛĮÙĨ
and Ãª
ĠHes enÃª
ĠCer abl
ĠÃ®s pat
Ġnetewe yan
ĠÙģ Ø³
ĠÃĩ iriya
ĠdÃ®plom atÃ®k
ĠkÃªmas iyÃªn
Ã§el ik
Ġx ema
ĠÅŁÃ®r et
p Ãªr
Ġk Ã®n
Ġhel al
Ġsaz kirina
ĠFermand arÃª
ĠKom ela
Ġmad dÃ®
Ġber dest
Ġher sÃª
Ġpeyam ek
ĠMal bat
Ġgav eke
Ġkampan ya
xw arin
Ġef s
Ġerd Ãªn
ĠB it
ĠØ¯ÙĪ Ø§
ĠØ§ Ø³ÛĮ
at h
Ġch ar
ÛĲ Ø±ÙĪ
ĠÚ©Ø§Ø± ØªÙĪÙĨ
ĠØªÙĪ Ø¶ÛĮØŃ
ĠP roj
Ġaut re
Ġv um
Ø¨ ØŃ
ĠØ¢Ø®Ø± ÛĮÙĨ
Ġsy st
ĠAn t
ĠØº Ø±Ø¨
Ġc r
Ġem ir
ĠS eba
aj a
Ù¾ÙĪ ÛĮÙĨØª
ĠD iya
197 4
ĠÙħØª ÙĪ
ĠD Ã®n
Ġt ora
Ġm ewl
ĠBeg Ã®
Ġhevkar Ã®ya
Ġbawer Ã®yÃª
ĠM o
ĠpÃªÅŁ de
Ġqey rana
Ġmecb Ã»rÃ®
ĠÃªÅŁ Ãªn
Ø³ Ù¼
ĠEreb istana
qil aba
ĠniÅŁt imanÃ®
ĠteÅŁw Ã®q
Ġw aran
Ġnah Ãªle
Ġzul m
Ġkam pÃª
Ġp erÃª
Ġder z
ĠBaÅŁ ur
Ġdi anÃ®
ĠbinivÃ®s im
Ġted aw
Ġmetir sÃ®
ĠØŃÙģ Ø¸
v Ã®
Ġniz anÃ®
Ġket im
Ġkes ane
Ġmer h
ĠÙ¾ Ø§ØªÛĲ
ĠØ¯Ø§Ø´Øª ÙĨ
Ġn ob
ĠØ³ÙĦØ§Ùħ Øª
ĠÛĮÙĪ ÛĲ
Øµ ÙĪØ±Øª
Ã© ci
ĠØªØ±Ú©ÛĮ Ùĩ
ĠØ¹ Ø±Ø§
ĠE ng
M eh
ĠÙħ ÙĪÙĦ
Ġre ading
ĠdÃ© p
Ġt our
Ù ¡
ĠÚ©Úĵ ÙĦ
ĠÙħØ´ ØªØ±
ĠÙĦ Ø§ÙĨØ¯ÛĲ
ĠØ¯Ø§Ø± ÙĪ
ÙĪØ± Ø§ÙĨ
ger xwÃ®n
ĠØ§Ø® ÛĮØ±
ĠhÃªv Ã®ya
ĠN Ã»bih
ĠkÃªm anÃ®
Ġq iya
sch e
end Ãªn
Ġel ewÃ®
Ġmeriv Ãªn
Ġdist Ã®nin
Ġstat uya
ĠÃ®de olojÃ®k
Ġdi girtin
ĠalÃ®kar iyÃªn
Ar manca
Ġdiqew imin
ĠÚ© ÙĪÙĩ
Ġes kerÃªn
Ġdad geha
ĠbeÅŁ ekÃ®
ĠpÃªÅŁeng Ãªn
ĠzÃªd ekirin
ĠÃ§Ãªk in
ĠkoÃ§ber an
Ġmera q
R I
Ġpros esa
200 1
ĠDer yaya
f t
ĠØ§ÛĮØ´ Ø§ÙĨ
197 8
ĠÅŁÃªn ber
Ġh ist
ĠgÃ©n Ã©r
ĠØ±ÙĪ Ø§Ø¨Ø·
Ġd as
b ike
af t
ĠØ¹ Ø¨Ø§Ø±
Ġpar lam
ĠØ² ÚĵÙĩ
ĠE urop
ĠÚ©Ùħ ØªØ±
ĠÙħØª ÙģØ§ÙĪØª
7 3
ĠØ¯Ø± Ø®ÙĪØ§Ø³Øª
tir se
ĠTiÅŁt Ãªn
ĠpÃªÅŁwaz iya
ĠKom arÃª
ĠMis ir
ĠQur anÃª
Ġxwe nÃ®ÅŁ
Ġmad eyÃªn
ĠherÃªm eke
Ġderket ibÃ»
ĠEnq ere
k etÃª
Ġdin yaya
Ġkel ep
net ewe
ĠH im
Ġn Ã®ÅŁt
ĠdirÃªj ahiya
ay iÅŁa
ĠHez Ã®rana
Ġveguh ast
ew sÃª
Ã®st in
ĠØ¨ Ø³
ĠJe an
ĠwÃª d
ĠTirk men
ĠSerh edÃª
ĠØ¨ ÙĨÛĮ
ÙĨ Ø§Ùħ
Ġs ouv
ĠØ¬ÙĨ Ú«
ĠÙħØ· Ø§ÙĦØ¨
f Ã©r
f l
ĠÚ©Ø´ÙĪØ± ÙĩØ§ÛĮ
Ùģ ÙĦ
al t
ĠÙħØ¬ Ø§Ø²ÛĮ
ĠØ§Ø±ÙĪ Ù¾Ø§
Ġm ant
oÄŁ lu
Ġn el
) )
ĠC um
ĠÙħØ° Ùĩ
Ġhey f
Ġs Ã©
Ġner Ã®na
Ġm uÅŁ
Ġbik arin
Ġxel Ã®f
ĠDYA yÃª
ĠM emÃª
Ġserhil danÃª
Ġef san
Ġbers ivÃª
ĠBir yar
ĠbÃ®ran Ã®nÃªn
Ġv ebÃ»
ĠnexweÅŁ iyÃª
Ġtekn olojÃ®
ĠkoÃ§ a
Ġprofesyon el
Ġal iyek
Ġxew na
!! !
ir Ãªj
Ã®d eyÃªn
Ġdan Ã®na
ĠbÃª dawÃ®
ĠØ®ÙĪ Ø§Ø³Øª
Ã®t ir
Ġkom kirin
n em
Ġam bar
es se
Ġkar in
Ġqon axÃª
Ú© Ø±ÛĮ
ÙĪÙħ ÙĬ
Ġz Ã®yar
ĠØ¢ Ø¨Ø§ÙĨ
ĠT an
ĠÙĪØ² ÙĨ
ĠØ¯ Ø¨
ĠÙ¼ Ú©ÛĮ
ers on
ew ic
it ter
ĠK r
Ø§ÛĮ Ø§ÙĨ
ĠdÃ©c ouv
Ġp ap
ĠN eh
ĠØ®Ø¨ Ø±ÙĪ
Ã¤ nd
og raph
Ġa san
Ġb ena
ich t
Ġedebiy atÃª
Ġkan ala
hez aran
r iya
Ġal manÃ®
Ġhewl Ãªn
ult ur
5 1
A merÃ®k
at Ã®v
Ġun Ã®vers
ĠMÃ»ÅŁ Ãª
Ġl ayÃª
Ġxwe ÅŁtir
av Ã®n
ĠZ inar
Ġdeng danÃª
Ġkontrol kirina
ĠcÃ»r e
Ġkur sÃ®
Ġqurb anÃ®
b Ã®nin
Ġewlek arÃ®
u yÃ®
ĠdÃª ya
Ġsiyaset eke
Ġnasnam eyÃª
RÃª berÃª
kuj iya
Ġf ond
ĠdÃ»r e
Ġderx Ã®ne
ĠØ± ÙħØ§ÙĨ
ĠÚ© Ø§ØºØ°
ĠN ews
o ff
ĠnÃªzÃ®kat iyÃªn
ĠÙĩÙħ Ø¯ÛĲ
rÃª t
ĠØ® Ø§Ùħ
ĠÃ ¬
ĠØ¯ ÙĨÛĮ
ĠØ¶ ÙħÙĨ
Ġper s
ĠÙħØ± Ú¯
ĠØ± Ø²
id ir
Ø§Ùĩ Ø§
ĠS ultan
b eta
ĠØª Ø¬ÙĩÛĮØ²
ĠAm ad
al i
ÙĪ Ú©
ĠK antona
Ø±ÙĪ ÛĮ
ĠÙĪÛĮÙĦ ÙĬ
ash ing
ĠL or
ĠC af
ĠÄ° s
Ġpay s
ĠdÃ© vel
ĠØ§ÙĨØ¬ ÙħÙĨ
ĠØ¬ ÛĮ
Ġh ik
ĠØ¢Ø¨ Ø§Ø¯
Ġpop uler
er g
ĠTurk iye
ch i
Ġaw akÃ®
ay iÅŁ
te urs
Ġmeh ekÃª
n eyÃª
Ġg olÃª
Ġko al
ĠtertÃ® p
Ġxwest ine
ĠLub nanÃª
Ġbi pey
Ġk ÃªrÃ®
alÃ®z ma
ĠpÃªÅŁkÃªÅŁ kirina
Ġnif ÅŁÃªn
Ġdiqew ime
ĠRad yoya
ĠwÃ® l
Ġkam pÃªn
Ġveguhest ina
ĠÃ§ ira
ĠÃ§Ãªk e
eq an
Ġmuh t
Ġkampan yaya
Ġdin ih
ĠrÃªhev al
ÅŁ Ã®r
Ġdur ust
Ġx Ã®yan
Ġkesayet iyÃªn
Ø§ ÙĪØ±Ùĩ
ĠÙĦ Ø§Ø±ÛĲ
Ġg al
iv is
Ġh ec
ĠØŃ ÙĤÛĮ
Ġcha que
ĠØ¬Ø´ÙĨ ÙĪØ§Ø±Ùĩ
ÛĲ ÚĸÙĬ
ĠT L
ĠÙ¾ Ø±Ø§
Ġpet it
ĠG re
Ġber an
Ġvir a
Ġin gl
ĠdÃ© jÃł
Ġen Ãª
ĠqetlÃ® am
ĠÃİn s
ĠÃİ drÃ®s
Ġmak ezag
v Ã®n
Ġt ayÃ®n
Ġc erd
ang a
Ġr ux
ĠRoj av
ĠpÃªwend Ã®yÃªn
Ġperwerdeh Ã®
ĠpÃª da
Ġnav xwe
Ġav ahiyÃª
Ġkontr olÃª
ĠSerok omarÃª
ĠÃ§ap emenÃ®
ĠnavÃ§ eyan
ĠBin geh
ĠSw Ã®s
Ġmed en
Ġqew mÃª
Ġx ÃªrÃª
Ġcer ibandin
Ġhewl danan
Ġdemjim Ãªr
25 0
aq il
Ġhilber Ãªn
ĠØ¨ÙĦ ÙĨØ¯
ĠÙħ ÙĪÙĨ
ab or
ĠtÃªgihÃ®ÅŁt ina
á¹ £
19 20
ĠÙĩÙĨÚ¯ Ø§Ùħ
ak ter
gir a
ĠÙħØ¬ ÙĦÙĩ
Ġn Ã®r
le g
ĠR ef
ĠÙĤ Ùħ
ĠØµÙĨ Ø¹ØªÛĮ
r eng
ĠØªÙĪ Ù¾
l eq
ÙĪØ± ØªÛĮ
ĠØ§ÙĦ ØŃ
ĠÙĪ ÛĮÙĨØ¯
ĠØ±Ø³ ÙĪÙĦ
Er dogan
ÙĤÛĮ ÙĤÙĩ
Ø¯ Ø§Ùģ
Ġv ene
ĠKur mÃªnc
ĠS Ã®stema
ĠZ ekÃ®
Ġdaxwaz Ãª
ĠPÃªn gava
Ġderdik et
Ġe q
Ġmod ela
Ã» ÅŁt
Ã®k ar
Ġal av
enc Ã®
ĠpÃ®v ana
Ġr Ã®ya
ĠÃ§ el
aw erÃ®
Øµ Ø§Øµ
ĠEv dil
ĠP Ãªd
ĠmÃ®nak a
Ġst ranÃª
ĠØ®ÙĪØ¯ Ø´
Ãª dÃ®
ĠBat manÃª
Ġg iyan
l eÅŁ
ow a
? ?
ĠÙĩ Ø¯ÛĮÙĩ
g ey
Ġ: :
Ġs emp
ĠØ¢ Ø³
ĠØ¯ ÛĮØ¯Ùĩ
Ø§Ø³ ÙĦØ§Ùħ
t ik
ĠÙĩÙħ Ú©Ø§Ø±
Ġj ours
Ã¨ t
ĠØ¯Ø§Ø± ÛĮÙħ
Ġplus ieurs
ĠJ o
m on
ĠJoh n
ĠU ne
L U
Ø§ Ø¹
ĠÅŀ ev
Ġsirg Ã»n
ĠEwlek ariya
ĠMos ko
Ġberov ajÃ®
Ġder sÃª
Ġra ÅŁt
ĠOsman Ã®yan
ĠÃĩewl Ã®g
ĠÃ§ un
ew Ã®st
ĠZ Ã®nÃª
ĠÃ®st Ã®f
Ġkam pa
c anÃ®
Ġcar ekÃ®
ĠdiÅŁ ibe
Ġhet ta
Ġafir and
Ġbawer im
ĠTÃªk oÅŁÃ®na
ĠÃ®m kan
ĠDen Ã®z
ikaran Ã®na
Ġhevpey maniya
x etÃª
ew er
ekÃ® m
ĠKurd Ãª
Ġb extÃª
Ã» ber
or n
ĠÙĪ Ø¸
Ø§Ø¨Ø± Ø§ÛĮÙĨ
ĠØ·Ø§ÙĦ Ø¨Ø§ÙĨ
ĠØªØµÙĪ ÛĮØ±ÛĮ
F er
san ce
ĠÂ» ,
ĠEl le
T C
ĠØ§ ÙĦÙĩ
Ġelekt ron
ĠUr d
Ø¸ Ùħ
Úĺ ÙĨ
Ġs ant
ĠF or
Ø¨ Ø§Ø¨
ĠÚ¯Ø±ÙģØª ÙĨ
Ġpartic ul
Ġl Ãł
Ġm uq
Ġwez Ã®rÃªn
ĠT ar
Ġker de
ĠÃİm am
Ġpan kart
Ġneh iÅŁt
Ġserk ev
Ġteb er
Ã®m et
ĠZ orÃª
lÃ® f
Ġmob Ã®l
B aj
Ġbi gere
kez Ã®
Ġheyw anÃªn
ĠNÃ»Ã§ eyan
iy ata
Ġqed ir
ĠDest pÃªk
ĠgrÃ» pÃªn
Ġberdewam Ã®
ĠkoÃ§ berÃ®
ĠÙħØ¹Ùħ ÙĪÙĦØ§
B avÃª
Ã» tÃª
Ġder iyÃªn
ĠØ® ÙĪØ±Ø¯
ey nÃ®
Ġdey ne
ĠbÃª Ã§
Ġser h
ant iyÃª
ĠtÃª bi
Û±Û ·
Ġmom ent
ĠØµ Ø§Ø¯
ĠdÃ© b
ĠÙħÙĤ Ø¯
ĠÙħ Ø§Ø¯Ùĩ
Ø§Ø· ÙĤ
ĠH eft
ĠTayy ip
Ġw as
ĠØ¢Ø³ÛĮ Ø¨
Ġa ber
Ġse at
pr ise
ĠØ³ ÙĪØ±ÛĮ
ĠÚħ ÙĦ
Y NK
ĠQ oÃ§
Ġxan eyÃªn
m ayÃª
ĠÃ§ Ã®y
Ġdu duyan
Ġbernam e
ĠØ¬ÙħÙĩ ÙĪØ±
Ġan ko
bÃ®y ayÃ®ÅŁÃª
Ġdev okÃªn
ĠkeÃ§ ikÃª
ĠPerwerd eya
Ġzind an
ĠEnd amÃªn
Ġbej na
Ġeh lÃª
Ġm Ã»s
Ġbilind tir
Ġxew Ãª
Ġserm ay
ĠX iz
ĠkoÃ§ber Ãªn
Ġnav ekÃ®
ĠÅŁÃªwe yÃª
ez Ãª
Ġdem kÃ®
serok Ãªn
Ġar Ã®ÅŁ
ĠrÃªz darÃ®
D F
ĠbÃª x
Ġtun ebÃ»na
b on
ĠÙ¾Ø§ÛĮ ÛĮÙĨ
Ġpro c
ĠpÃªwend iya
ĠØ§Ùħ Ø±ÙĬ
Ø±ÛĮ Ø²
ĠÚ« Ú¼
Ġxet ernak
Ø· Ø±
in er
Ġv ar
Ø¬ Ø¯
ĠØ¬ Ø±Ø§ØŃÛĮ
Ġt att
ĠØ§Ø³ Ùģ
ĠM ill
ĠA dil
Ġs Ã»
iz il
l op
ĠTeb axa
ĠReq a
ĠR ex
Ġned iyar
ĠÙħØ§Ø´ ÙĪÙħ
ĠParast inÃª
Ġt Ã»nd
Ġx alan
Ġmaq Ã»l
ĠL ijneya
ayÃ®ÅŁ a
Ġrap ort
we ta
Ġq ewe
ĠHel ep
Ġwerd ig
Ġhat Ã®n
Ġpisp orÃª
ĠpÃªÅŁniy ara
M amost
Ġling an
ĠÃªz Ã®d
Ġbare gehÃªn
ix Ã»b
ĠÃªv arÃ®
Ã» tÃ®
Ġpart Ã®yan
Ġm ik
ĠÙħØ³ Ø§Ø¦ÙĦ
199 8
ij Ã®n
re st
y n
Ġpouv ez
h i
z er
ÙĪ Ø¨ÛĮ
inc ip
ĠOb ama
z im
ah at
ĠØ¯ÙĪØ± Ø¨ÛĮÙĨ
em il
T E
ĠØ³ ÙĨØ¯
Ġc et
Ġa h
198 4
Ġprem ier
ĠØ¯ Ø¯ÛĲ
ip edia
ĠØ¯Ø± ÙĪÙĨ
ĠØ¨ Ø¨ÛĮÙĨ
ĠK os
ĠØ¬ Ø³Øª
Ġm uÅŁt
ĠGev erÃª
ĠpÃ®ÅŁes aziyÃª
d iyÃª
ĠG orÃ®
Ãĩ end
R ewÅŁa
Ġm Ã®s
ĠÅŁ in
Ġgul e
ĠÙĨØ´ Ø¯Ùĩ
ĠedebÃ®y at
Ġra per
Ġzor darÃ®
ĠÃ®d dÃ®
Ġmeras Ã®ma
Ġway Ã®rÃª
at orÃªn
Ġq irk
az Ã®ya
ĠnavÃ§ Ãª
ĠnivÃ®skar ekÃ®
ĠK Ãª
ov Ãª
Ġdem dirÃªj
Ġna Ã§e
er eke
ĠkÃªm bÃ»na
ou d
oy eke
Ġder manÃª
ĠÅŁ eng
ĠAs yayÃª
Ġetn Ã®kÃ®
ĠÃ§aren Ã»sa
ik evin
ĠÃ® c
ĠnÃªk erd
Ġb avÃªn
ĠEm Ã®r
ĠÅŁared ariya
ĠErmen istanÃª
C om
ur o
ĠP an
Ġst ar
ĠâĢ ĭ
ĠB ol
ĠØ³Ø§Ùħ Ø§ÙĨÙĩ
Ġg ame
ĠØµØ¯ Ø§ÛĮ
Ġr u
ĠÙ¾Ø±Ø³ Ù¾ÙĪÙĦÛĮØ³
Ø³ ÛĮÙħ
et ina
ÙĤ ÙĤ
Ġpr ix
Ġpart ie
ĠÙģØ± Ø§ÙĩÙħ
ĠØ§Ø³ÛĮ Ø§
Ġrencont res
Ã¤ m
Ġp k
ï¿ ½
ĠC eng
Ġtew ir
ĠM Ã®h
ĠalÃ®k Ã®
ĠkÃªÅŁ eyÃªn
ĠjÃ®n gehÃª
Ġdilov aniya
ĠKil iÃ§
KC K
M ecl
Ġc ig
Ġciv Ã®nan
Ġbiryar eke
Ġpart iyeke
Ġhilbij art
ĠpaÅŁeroj a
Ġber bij
ĠkÃªm kirina
ĠpaÅŁ de
Ġkey f
ĠK Ã»r
Ġzan ibin
aseb eta
ĠBi dl
Ġhez kir
r etÃ®
ĠÙħØ± Ø³ØªÙĩ
Ġhuk im
ĠdagÃ®r ker
kez Ãª
ĠWeÅŁ anÃªn
Ġderf etÃª
ĠMal ikÃ®
Ġroj eke
Xwe dÃª
Ġdij berÃ®
Ġkom ele
Ã®k aya
Ġhest Ã®
enb olÃª
ar ayÃª
ter e
ĠÙħØ¨Ø§Ø± Ø²Ùĩ
Ġg roup
ĠV en
Ġfac ebo
Â» .
ÙĬÙĨ ÙĪ
Ġtro is
Ġ ul
Ø§Ø¨ Ø¯
Ġtip s
ĠØ¯Ùĩ Ùħ
Ø§Ùģ ÙĤ
ĠÙĦ Ø·
ĠØµØ§ØŃ Ø¨
P rof
ĠÙĤ ÙĦÙħ
D ev
ĠÙĨ Ú©Ø±Ø¯
ÙĨ ÙĪÙĨ
ĠØ´Ùĩ Ø±Ø¯
ĠR Ãªj
Ä±n Ä±
Ġcej nÃª
Ġmekt ebÃª
Ġdes hilat
ĠÅŁahid Ãª
Ġg ola
Ġdan iye
Ġkom Ã®
Ġreferand umÃª
Ġhev p
ĠG img
Ġke ÅŁt
Ãªl Ãªn
per atoriya
Ġperwerd Ãª
P S
ĠtÃª xin
oq rat
ĠgihÃ®ÅŁt in
ĠÃ§ are
eb ar
Ø§Ùħ Ø¯
Ber hem
ĠØ§ÙĨØ³ Ø§ÙĨÛĮ
HikÃ»m eta
ĠÙħØ³ ÛĮØ±
ĠÚ© Ø³Ø§ÙĨ
Ġhtt p
? "
ĠØ§Ø³ØªØ® Ø¯Ø§Ùħ
ĠØ§ÙĨØª Ø´Ø§Ø±
Ø¨Ø± ÚĨØ³Ø¨
ĠÙĨ ÙĪÛĮØ³
ot h
Ä Ļ
8 00
Ú©ÙĨ Ø§ÙĨ
ĠØ§ÙĦ Ø³ÙĦØ§Ùħ
ĠA M
Ġdar d
Ø®ÙĪ Ø§ÙĩØ¯
ib les
ĠØ¹Ø±ÙĪ Ø³
Ġc oup
Pey ama
Ä° Åŀ
ĠPÃªÅŁmerg eyÃªn
t eyÃªn
ĠpÃªÅŁeng tiya
ĠMirov Ãªn
Ġtevdi gerin
v ej
Ġserket ina
Ġvexw ar
Ġdest werd
Ġsp orÃª
Ġnem Ã®nin
X eb
eh an
Ġpayt ext
Ġbidom Ã®ne
ĠHind istanÃª
Ã©rie ur
ĠD Ã»v
Ġmeras Ã®m
kirin e
Ġhes in
Ġdid ine
ĠÃİtal ya
ĠÃĩar eser
Ġwergirt iye
ĠAfr Ã®kayÃª
ĠNÃªz Ã®k
Ġh alÃ®
ÙĪØ§ Ø¬
ĠØ¹ ÙĦÙĬ
Ú¯Ø° Ø§Ø±ÛĮ
ĠØ¹ÙĦØ§ ÙĤÙĩ
T A
Ø¨ ÙĨØ¯
ĠÙģ ÙĦØ³
Ø³ Ø¯
ĠÙĨÙĩ Ø§Ø¯
Ġ {
Ġm Ã©t
Ġch o
Ø³Øª ÙĦ
Û±Û ¶
ul l
ĠØ´ÙĪ ÛĮØ¯
ĠØ± Ùħ
s en
ĠØºÙĪØ§ ÚĵÙĬ
5 4
im ana
ĠhÃªz ek
ĠÃĩ elÃª
Ġserb azÃ®
Ã®y ayo
ĠP lan
Ġhen de
ĠDÃ®c le
Ãĩ i
Ġgul ana
Ġkom un
Ġopoz is
ĠXweser iya
ĠÅŀemzÃ®n anÃª
b ullah
ĠDi jÃ®
et Ã®ya
ĠbÃª q
Ġrast iyan
ĠrÃ»pel an
Ġguh Ãªn
Ġvedi ger
ĠÅŀ erm
Ġserhil danÃªn
Ġzewic Ã®
Ġde nd
Ġderket e
efer and
Ġxwer Ã»
ÛĮØ¯ ÙĪ
Ġz emÃ®n
Ġxiz an
m i
ĠÚļ ÙĪ
Ġcon n
ĠØ¨Ø¯ Ø§ÙĨ
Ø³Øª Ú¯ÛĮ
st ag
ĠÙĦØŃ Ø¸Ùĩ
ĠØ¨Ø§Ø² Ø¯ÛĮØ¯
ov a
Ġin v
k ek
Ùħ Ø§Ø¯
Ø³ ÛĮÙĨ
iss ement
A x
ĠØ¢ ØªØ´
ĠP en
op ol
ĠØ§ÙĦ ÙħÙĦÙĦÛĮ
H SD
ĠØ² ÙĦ
ĠÙģØ±Øµ Øª
aut res
Ø§Ø² ÙĬ
ĠJi ber
Ġdih Ãªlin
Ġn erast
ĠdÃ® war
ĠSer xwe
Ġam eyÃª
Ġmed enÃ®
Ġditirs in
Ġasteng iyÃªn
per werÃ®
Ġtaybet iyÃªn
Ġparlament er
ett Ã®n
p d
Ġser ranÃª
Ġneh Ãªle
ĠÃ§Ãªn ebÃ»
ĠzÃ®n dan
Ġdi anÃ®n
ĠneÃ§ arÃ®
ĠpÃªng avÃªn
b arÃ®
Ġbelav bÃ»na
ĠKer ku
ĠpaÅŁeroj Ãª
Ġradigih Ã®ne
n ik
ĠrÃªk Ã»pÃªk
Ġsat el
Ġjus qu
c arÃ®
d eng
ĠØ·Ø¨ ÙĤ
Ġfem me
ot ik
ÙĬÙĨ ÙĬ
ĠÂ» .
Ġt w
Ġs ab
Ù¾ Ø³
Ø§ÙĬ Øª
ĠÙ¾ÛĮ Ø´ÙĨÙĩØ§Ø¯
ĠØ® Ø§Ú©
ĠØ§Ø± Ø´Ø¯
ĠÙħØ±Ú© Ø²ÛĮ
Ġgr am
ĠW ashing
ro w
5 7
ĠF a
ĠC ey
Ùģ Ø±Ø§ÙĨ
ĠÙ¾ Ø³Øª
ĠH en
6 3
Ġc ours
ĠR ap
ĠN ex
] ,
Ġq e
ĠØ³Ø± Ø§Ø³
8 9
ĠY ez
Kurd Ã®
M ih
Ġdin yÃª
ĠY aÅŁ
ĠY JA
ĠØ² Ø§Ø¯Ùĩ
Ġgirt ibÃ»n
ĠalÃ® girÃª
ĠQasim lo
ib Ãªje
ĠfestÃ®v alÃª
Ġdest ekÃª
Ġteq Ã®nÃª
ĠkapÃ®t alÃ®st
Ġc Ã®ranÃª
ĠÃĩ Ã®rok
ĠEmr Ã®ka
ĠpÃ®roz kirin
Ġnavend Ãª
ĠÃ®n f
ĠM ilÃ®
ib im
Ġhez arÃ®
Ġqonax Ãªn
Ġam ed
Ġdik arÃª
ĠK M
ĠÙĦ Ø§Ø±
Ø§Ùģ Ø¸
ar r
r ad
ĠC ib
ĠÙħÙĨ Ø²ÙĦ
Ø§ÛĮ ÙĬ
ĠØ¢ Ø«Ø§Ø±
Ġl al
Ø§ÛĮ Ø¬
Ġdi sa
ĠF u
Ġcomp te
ĠQ a
in y
ut er
ĠØ§Ø² Ø¯
Ġint Ã©
an y
ĠÙĦ Úĸ
Ġleh Ã§eya
Ġmey dan
ĠEbd il
Ġwe sa
Ġcez ayÃªn
Ġtendurist iya
n ayÃ®ÅŁ
Ġher duyan
ĠzÃªd ekirina
ĠnÃª Ã§
ĠparÃªz er
ĠHun ermend
Ġef Ã»
Dem Ã®r
Ġk oz
Ġtun ekirina
ĠKar Ã»b
Ġdey nÃª
Ġyek ane
Ġper Ã®ÅŁan
Ġcih Ãªreng
ĠnÃ®qaÅŁ Ãªn
Ġb anÃª
Ġbiguher Ã®ne
M ixabin
Ġt azÃ®
Ġhem dem
Ġrast Ã®ya
Ãİ s
Ġtek ane
ĠtarÃ® x
Ġsos ret
Ġbit ikÃ®ne
w Ãªn
ĠDi jmin
Ã® da
iy en
Ã»m et
Ġes manÃ®
ow n
x oybun
Ġr Ã»r
Ġtelef ona
ran t
Ġxey lÃª
ĠÙħÛĮÙĦÛĮ Ø§Ø±Ø¯
ult eya
ejir Ã®ne
Ġa fin
Ġdir e
ĠbÃ»yer eke
ĠYus uf
Ġs ing
ĠÙĤØ¯ ÛĮÙħÛĮ
ry pt
ĠAl i
tu el
ĠSa int
Ú« ÙĪ
ĠØ¨ÛĮØ´ ØªØ±ÛĮ
N Y
Úļ ÙĬ
ĠØ¢Ø± Ø§ÛĮØ´
p is
ĠØ¨Ø¹ Ø¯ÛĮ
Ġa we
ĠØ²ÛĮØ± Ø§
Ġo ct
S Ã»r
ĠâĢĭ âĢĭ
Ġr d
ĠØ§Ø¨Øª Ø¯Ø§
ĠØ¢Ø´ÙĨ Ø§ÛĮÛĮ
Úļ ÙĪ
Ùħ ÛĲ
ĠkÃªfxweÅŁ Ã®
ÅŁ ar
Ġbi hat
Ġrad ike
Ġh ir
Ġs Ã®m
ĠÃ®r ad
ĠhÃªr sa
ĠpÃª y
Ġew ana
Ġav ahÃ®
ĠQ el
ĠTend ur
Ġdi av
ĠPÃªÅŁ n
Ġkampan yayÃª
K eÃ§
um ena
id iyan
Ġmij areke
Ġved ig
A jansa
Ġt Ã»ÅŁÃ®
aÅŁ a
Ġan iha
ĠÃİs k
Ġmek anÃ®z
bijartin Ãªn
Ġd Ã®r
Ġb Ã»rÃ®
Ġal iye
Ġxw ast
ĠbinpÃªkirin Ãªn
J inÃªn
ĠBerpirs Ãª
Ġdew sa
Ġos manÃ®
ĠtÃªk el
ĠØ¬Ø° Ø¨
ĠÚ©Ø§Ùģ ÛĮ
n asiyÃª
ĠÚ©ÙĦÛĮ Ú©
Ġpr Ã©v
ĠÚĨÙĩØ§Ø± Ùħ
Ġzilam ekÃ®
ĠÚħ Ø±Ú«
ĠØ³Øª Ø§Ø±Ùĩ
ĠC ara
Ġl eq
Ġv irÃª
Ġh as
ĠÙĪÛĮÙĨØ¯ ÙĪØ²
ĠÙĪÚĺ ÙĦ
ĠÙħÙĨ Ø§Ø·ÙĤ
Ġs k
aw ir
Ġtro uver
ĠÙ¾Ø± Øª
ĠmÃ®r ov
ĠÅŁehad eta
ra Ã®l
Ġdawe t
Ø¹ Ø±
Ġkon ser
Ġdi firoÅŁ
ĠÅŁ ad
ĠG uher
dem ir
Ġhewil danÃªn
af Ãªn
Ġdemokr asiya
Ġqer ar
ĠÃ®lan kirin
ĠÃ§Ãª bÃ»na
Ġdixwe zin
Di be
Ġtekn Ã®k
ay iyÃªn
iw anÃª
Ã» yÃªn
ÛĮ ÙĦÛĮ
Ġji hev
ĠdÃ»r xistin
ĠÃ§iy ayan
ĠlÃ®s eyÃª
s iya
Ġe gera
Ã®ÅŁt in
ĠÅŁer ef
Ġbix ap
Ġa sÃ®
Ġer j
Ġzag onÃªn
Ġbes o
ĠÙħÙĩ Ø§Ø±Øª
ĠØ¬Ú« ÚĵÛĲ
Ú© ÙĦÛĮ
Ã ³
ĠØŃÚ© Ùħ
ĠØ´ÙĨ Ø§Ø³
ĠØ³Ø±ÙĪ ÛĮØ³
ĠM as
ĠG ol
ĠØŃ ÙħÙĦ
ĠØ§Ø± Ø²ÛĮ
âĢĶ âĢĶ
' .
ĠØ§ÛĮÙĨØªØ± ÙĨØª
ĠÙĪÙĦØ³ÙĪØ§ÙĦ Ûį
Û³ Û°
ent r
h ui
p ek
v ous
ĠÃ ¾
ĠØªØ± Ú©
ĠI I
ĠØ®ÙĪØ§Ùĩ ÛĮØ¯
ey r
ĠÙĨÛĮ ÙĪØ²
ĠÙĦ Ø§ÛĮÙĩ
Ġd ou
b Ã®q
Ġn ine
Ġtekn olojiyÃª
Ġzirx Ã®
Ġxw era
19 50
Ġbir Ã®
Ġelektr Ã®kÃª
Ġ olÃª
Ġd Ã®z
xist ine
Ġdat Ã®nin
Ġzeng Ã®n
b etÃª
ĠM eÅŁ
Ġaq ilÃª
Ãªv an
ĠCel Ã®l
Ġdilov an
Ġberpirsiy ariya
Ġdi lÃ®
ĠX em
Ġband orÃªn
ĠÅŁÃª wir
199 7
ĠÃ®st Ã®s
Ġasteng kirin
en Ã®n
g eÅŁ
Ã»k Ã®
Ġdo it
Ġserdest iya
T e
ĠØŃØ§ÙĦ Ø§
Ġfe od
ĠÚ¯ Ø§Ø²
Ã ¥
al ity
ĠT axa
l in
emb le
Ø¨ ÛĮÙĦ
ĠØ¯ ÚĨØ§Ø±
197 1
Ġsu ite
Ġcons e
ĠØ¨ÛĮÙħØ§Ø± Ø³ØªØ§ÙĨ
em er
ĠÙħÙĨ Ø§Ø³
ĠT un
ĠÙĨÙĪ Ø¬
ĠD ara
J in
Ġs Ã»dÃª
Ġcot mehÃª
19 37
ĠRoj hel
Ġbipirs e
ĠÅŁun da
b Ã®ne
Ġs Ã®g
Ġr ien
Ġziman ek
Ġg enc
ĠnimÃ»n eyÃªn
ĠMalb atÃªn
Ġx ewa
Ã®y eka
Ġgir ew
ĠWel atÃªn
ĠDÃ®l okÃª
ay etÃª
ab Ãªn
Ġhil da
Ã§ Ã®rok
ĠaÅŁ ker
Ġxeb era
ĠÅŁik eft
Ø³Øª ÙĬ
ĠHem o
c Ãªn
Ġzel alÃ®
ĠkiÅŁ andina
Ġc m
ĠÙĪ ÙĪÙĬÙĦ
ĠkeÃ§ eke
ĠÚģ ÙĦ
ĠØ±ÛĮØ§ Ø¶ÛĮ
ĠÙĪØ§ÙĤ Ø¹ÛĮ
ĠÙ¾Ø§ÙĪØ± Ù¾ÙĪÛĮÙĨØª
ĠÙ¾ Ø±ÛĮ
Ø² ÙħØ§ÙĨ
Ġser ra
ĠØµÙĨ Ø§ÛĮØ¹
ĠØ´ Ù¾
Ø¹ Ø¨
at ed
ĠÚ¯ÛĮ Ø§Ùĩ
Ã© tait
ev er
Ø´ÙĨ Ø§Ø³
Ùĥ ÙĬ
Ġprofess ionn
ð Ł
Ġar r
art ir
ĠÙĤ ÙĪØ§ÙĨ
Ġcenaz eyÃªn
Ġingl Ã®zÃ®
ĠSeÃ®d Ãª
Ġnam eyek
ĠHerd u
r eyan
Ġdesthilat darÃ®
ĠÃ§ep gir
Ġp eya
ĠeÅŁ kera
Ġtes Ã®rÃª
Ġperg alÃªn
ĠpÃªkan Ã®nÃªn
eh iya
ĠZ azakÃ®
Ġguher Ã®na
ĠdiÅŁ Ã®nin
Ġtekn oloj
Bar zanÃ®
Ġbih Ãª
ĠverÃªn e
Ġt ÃªrÃª
ĠbÃ» k
ĠmÃªv anan
Ġcar eka
ĠpÃªÅŁve Ã§Ã»nÃª
ĠÙĨÙħØ§ÛĮØ´ Ú¯Ø§Ùĩ
ran s
Ġbigih Ã®jin
ĠØ§ ÛĮØ¯Ùĩ
Ġh Ãªm
ĠØ¯ÛĮ ÙĪ
ĠlÃ®st ikÃª
ov e
ĠØ±ÙĪØ² ÛĮ
Ġim port
W er
ĠÙħ Ø§ÙĨØ¯
197 3
ĠØªØ± Ø³Ø±Ùĩ
Ġo uv
ĠØ° Ú©Ø±
a it
ĠÚ¯Ø° Ø§Ø±ÛĮ
ĠØªØŃ ÙĦÛĮÙĦ
ĠØ´ Ø§ÙĩØ¯
I P
it an
ĠÙħØ³Øª ÙĨØ¯
ĠT o
Ġsu per
Ġn uk
Û±Û³Û¹ Û·
ĠØ´Ø®Øµ ÛĮØª
Ġs ort
ĠR eng
ĠØŃ Ø§
ĠÙĨ ÙĪÙĬ
ĠSed am
Ġs ade
ĠSad dam
ĠD Ã®k
Ġserket Ã®
Ġhil dan
ĠSerok omar
ĠdÃ®w arÃªn
et Ã®yÃª
Ġkerd Ãª
Ã®n eyÃª
ĠÃİ d
Ġxist e
ĠMed yayÃª
ĠtÃ®r mehÃª
Ġdar ayÃ®
girÃªk Ãªn
Ġereb Ãªn
ĠRÃªveb erÃª
ĠpoÅŁ man
ĠK Ãªm
ĠW ext
ĠsÃª wÃ®
Ġsekin Ã®n
Ġleheng Ãªn
Ġl Ã®n
or i
ed ayÃ®
Ġmil kÃª
Ġmaf an
Ġemper yal
ĠDemir taÅŁ
Ġxwe nde
ĠBa asÃª
ĠÙĩÙĪØ´ ÙħÙĨØ¯
Ġb ÃªrÃª
at orÃ®
ĠtiÅŁt eke
ĠÙĪØ±Ø²Ø´ ÛĮ
Ġmalb atÃ®
Ġz Ä±
ĠWel atÃª
Ġagah darÃ®
Ġxiyan etÃª
Ġkurt asÃ®
ĠÅŁ en
ĠgirÃªd anÃªn
Ġxw az
ĠÚģ ÙĪØ§ÙĨ
Ġderb ir
ien ne
Ø§ Ø¸
ĠØ¯Ø± Ø¬Ùĩ
ĠØ§ Ø«
Ġmar i
ĠÙĤ Ø¶
ÙĦ ÙĤ
l iya
ĠÙĩ Ø³ØªÙĩ
ĠT im
ĠÚ©Úĵ ÙĪ
ĠCh ar
Ġg oh
Ġpe uvent
Ø¬ÙĪÛĮ Ø§ÙĨ
ĠØ¢ÙĨ ÚĨÙĩ
ĠBrun son
ĠÙħÛĮ Ø´ÙĪØ¯
M HP
Ã «
ĠF estÃ®vala
Ġm ela
ej Ã®
ĠtarÃ® xÃ®
ĠbÃªnav ber
Ġn Ã®k
ĠLond onÃª
Ġk engÃª
ar iyÃªn
ĠsÃ®stem atÃ®k
Ġqurb ana
ĠmayÃ®n de
Ġbuh ayÃª
Ã®k arÃª
Ġberd ana
ĠÅŁik leke
Ġdel Ã®l
Ø± ÛĲ
Ġvexwarin Ãª
ÙĦÛĮ Ú©
Ãİ brahÃ®m
z anÃª
ĠpÃªÅŁk eÅŁ
Ġwat edar
inc Ã®
Ġh am
n ig
ĠØ§Ø®Øª ØµØ§Øµ
ĠØ¢ ÙĦØ¨
Ø§ÙħÙĨ Úģ
Ġs ema
Ġdonn Ã©es
Ùħ Ø³
ill er
ĠA gir
ĠØŃÙħ ÙĦÙĩ
Ġw al
ĠÙħÙĦ Ø§Øª
eb al
Ã®t re
ur n
ĠØ³Ø¨ Ø¨
we l
ĠØ³Ùģ ÛĮØ¯
ro z
hev al
ĠØª Ø§ÙħÛĮÙĨ
Ġf at
ĠØ±Úĺ ÛĮÙħ
Ġm iz
ĠEl ewÃ®
ĠpiÅŁt Ãª
Ġno q
ĠsÃ®stem eke
ĠVat eyÃ®
ĠnivÃ®s karan
ĠNÃ®s ana
t onÃª
Ġx aniyÃª
ĠzanÃ®n geh
ĠpÃªvajoy ek
K Ãª
Ġgot e
ĠÃİs pan
Â» ØĮ
Ġbik en
Ġdih Ãª
ĠniÅŁ ka
l Ä±
ĠyekÃ® tiyÃª
izan im
ĠÃİzm Ã®rÃª
Ã®v anÃª
Ġpeyd akirina
Ã» ye
Ġbeh rÃª
Ġfer qa
ĠSor anÃ®
Ġxwe y
Ã®h il
B Ã»y
Ġt an
Ġxiyan et
iÅŁt Ãªn
ĠØ´Ø®Øµ ÛĮ
Ġp le
F A
ĠØ± Ø§ÙħÙĨÚģ
ĠW al
ĠZ eyt
ĠÙħ ÙĦØ§
ĠØ¨ÙĨ Ø§Ø¨Ø±Ø§ÛĮÙĨ
Ø§Ø¨ÙĤ Ø§Øª
T r
ÙĪÙĨ ÛĮÚ©
Ġe b
Ġav ons
ĠÙĩØº ÛĲ
Ġkateg or
ĠMur at
ĠÙĪØ§ÛĮ ÙĬ
ĠØ¹ Øµ
ĠØµ Ø¨ØŃ
ĠB ers
ĠZ or
Ã¨ ne
: âĢľ
Ġtev a
Ġpr incip
in i
ĠD I
ĠAs lan
ĠÙĦÙĪØ¨ Úī
ĠHus eyn
ĠpÃª ÈĻ
c eya
Ġra berÃ®
ĠSor an
ĠSpan yayÃª
Ã®y am
ĠÅŁ ekir
Ġs Ã®t
ĠvÃª ca
Ġter ora
ĠSt alÃ®n
ĠwezÃ®f eya
ĠMid Ã»r
Ã®ÅŁ Ã®
Ġdih ewÃ®ne
ĠrÃª yeke
ĠDi xwazin
ĠÃªr iÅŁÃª
Ġserok komarÃª
Ġdagirk erÃ®
Ġpost Ãª
ĠÃ§aw an
Ġn ov
Ġazad Ã®yÃª
ĠMih emmed
Roj nam
Ġmezh ebÃ®
ĠÙħØ±Ø§Ø¬ Ø¹Ùĩ
Ġpenaber iyÃª
Ġr Ã®s
Ġzarok ekÃ®
Ġpey de
Ġserok komar
ĠÙĪÛĮ ÙĦØ§
alÃ®z m
ĠKerku kÃª
ĠlÃ®st ika
Ġmerc an
Ġrizg arÃ®
Ġhim ber
Ã§ on
ĠpaÅŁ verÃ»
Ġ Ò«
ĠÙħ Ø§ÛĮ
h ey
c ir
ĠD ol
ĠÙħÛĮ Ø§Ø´Øª
ĠÚ©Ø´ Ø§ÙĪØ±
Ġgr ande
ĠØ§Ø³ ÙĨ
Ã§ u
ĠÙĨ ÛĮØ±
Ġdis c
ĠØ®ØµÙĪØµ ÛĮ
Ġhun Ãª
ĠØ¯Ø³Øª ÛĮ
ĠN im
Ùħ Ø¬
ĠØ¯ ÙĤÛĮÙĤÙĩ
et z
ĠØ¯ ÙĨØ¯Ø§ÙĨ
ES CO
ĠÙĬ ÙĬ
ama is
7 1
r ent
ĠT U
ĠØµ ÙĪØ±ØªÛĮ
ĠÙħÛĮ Ø´Ùĩ
t erÃª
ĠÃ Ĺ
il i
Ġsex te
Ġc elle
ekÃª ÅŁ
ĠGuv en
ĠP A
ĠDA Ä°Åŀ
ĠrÃª yÃª
Ġexla q
ĠtertÃ®p kirin
irk Ãª
Ġev a
ĠsÃ»c Ãªn
Ġk end
ĠT eÅŁ
Ġkom an
ĠanÃ® bÃ»
Ġner Ã®nÃªn
uq Ã»q
S el
Ġx etÃªn
Ġfermand arÃªn
Ġbiq ew
ĠAlÃ®k arÃª
Ã® tina
xwe dÃ®
Ġzan im
ĠrewÅŁ ek
Ġday Ã®kÃª
Ġket Ã®ye
Ã®r d
op Ã®
Ġcivak an
ĠDemokr asÃ®
ĠtÃª m
ĠtÃªk birina
Ġdis ekinin
Ġqonax eke
wirmend Ãª
ĠÚ©Ø± ÙħØ§ÙĨ
ĠfaÅŁ Ã®zmÃª
Ġt irÃ®
h asil
s y
Ġn ok
Ġjiy aye
ĠS amÃ®
ĠwÃªd etir
5 9
Ġdem e
ĠØ³ Ú©
ĠØº ÙĨÙĬ
ĠØªØ§Ø±ÛĮ Ø®ÛĮ
d ema
en z
Ú« ÛĲ
ÙĨ ÙĪÛĮØ³
ĠØ¨Ø§ Øº
ĠØ¯ÛĮØ¯ Ø§Ø±
Ġser s
ĠÚĨ Ø§Ø±
Ã© ta
Ġc ah
ĠØªØ± Ø¨
ĠÚ¯Ø±Ø¯Ø´ Ú¯Ø±ÛĮ
o da
F ir
Ġk ont
ĠÚ©Ø´ Ùģ
t el
ĠÙĩØ´Øª Ùħ
Ġk ay
ot el
Ø§Øµ ÙĦ
ĠM ay
ĠÙĦÛĮ Ø³Øª
ĠS ab
ĠØ§Ùĩ ÙĦ
ĠT aw
in ess
d ek
Ġku m
Ġd oc
ĠØ¹Ø±Ø§ ÙĤ
Ø± ÙĪØ¯
en ek
Ġprem iÃ¨re
Ġl Ã®d
Ġkab Ã®neya
ĠEv d
ØŃ Ø§ÙĦ
Ġten ya
Ġv ille
Ġf ez
Ġal Ã®yan
Ġener jiyÃª
Ġeyal eta
ĠE kr
Ġhey wan
Ġsaz Ã®yÃªn
ĠÅŀehÃ®d an
Ġdifik ire
Ġdun yayÃª
ĠtevlÃª bÃ»na
ĠX ud
ĠcÃ®h ekÃ®
Ã®f Ãª
Ġwex tÃ®
Ġseds alan
Ġhevpeyv Ã®na
Ġberhem eke
Ġol Ãªn
Ġbixw in
ĠsÃ®yas etÃª
ĠbÃªdeng iya
ĠDÃ»v re
as anÃª
ĠbÃª b
Ġhey va
ĠÃ® man
Ġragihand iye
ĠxwepÃªÅŁand anÃªn
ĠqaÃ§ ax
Ġxwe ya
b endÃ®
ah Ãªn
Ä± ÅŁ
b una
ĠAl manÃ®
ĠÙĨØ´ Ø³Øª
Ġen g
Ġbigih Ã®je
ĠErd oxan
ĠqÃ®m eta
198 2
Ġveg ot
ĠØ¬ÙĦÙĪ Ú¯ÛĮØ±ÛĮ
ĠØ ¦
ĠÙĤ ØµØ¯
ĠÙĤÙĩØ± ÙħØ§ÙĨ
Ġmet re
ĠB an
Ġ- -
8 6
Ġg ros
ĠÙģ Øª
p ak
ĠAv esta
f ab
ĠÙħØª Ø®ØµØµ
ĠØ¬Ú« ÚĵÙĩ
Ġk im
ĠÃ© quip
Ù¾ ÛĮÙħ
ĠØ¯Ø± ÙĦÙĪØ¯
ub li
ĠØ§ ÚĨ
Ġser ran
ĠÙģØ³ Ø§Ø¯
ĠK oyÃ®
ĠlÃ®m fÃª
ĠaÅŁ itÃ®
ĠØ²ÛĮ Ø³Øª
ĠCez ayÃª
d adÃª
Ġbi geh
Ġgiha ÅŁt
Ã®y etÃªn
ĠSÃªÅŁ emÃª
Ġk iÅŁt
S iya
Ġdiz Ã®n
Ġhilber Ã®n
ĠPaÅŁ iyÃª
ĠM ich
Ġxort an
Ġser xweÅŁ
ĠD Ã®wana
Ġx ira
Ġmizg Ã®n
Ġzev iyÃªn
Ġhev okÃªn
ĠÃ§ iyan
Ġcar ina
Ġw alÃ®
ĠpÃªÅŁn Ã»m
ĠDÃ®yarbek ir
ĠSerhil dana
ĠB ext
ĠhÃª manÃªn
Ġbih ar
ĠØ§ÛĮ Ø³
ĠF Ãªr
ĠØ° Ø®
out e
as et
Ġv em
S ur
m il
ĠMac ron
Ġak t
ĠØªØ¹ Ø±ÛĮÙģ
n i
d ike
Ġd Ã»m
Ġm ist
j m
ĠØ± Ø§ØªÙĦ
ĠM ax
ĠE p
ÙĪØ§ÙĦ ÙĬ
Ø§Ø± Ø´
Ø¹ Ø´
." ,
Ø§ÙĦ ØŃ
Ġstand ar
Ġder Ã»n
ĠÃ®d ia
Ġhep sÃª
ĠparÃªz gehÃªn
kerd ene
Ġdijmin atiya
H ÃªjayÃ®
Ġmil etÃ®
Ġgiran tir
Ġnem ire
Ġzer ar
Ãªj eya
ĠzanÃ®n gehÃªn
Ġtevdi gere
Ġkinc Ãªn
ĠweÅŁ andina
n eno
Ã» lÃ®
Ġtevbi gere
Ġdis ekine
Ġbik irin
Ġal man
Ã» yÃ®
Ġdik en
ĠÅŁop andin
it Ã®ya
Ġbersiv Ãªn
ĠCiv Ã®na
Ġx ef
Ġdiax ive
ĠØ¬Ø° Ø§Ø¨
Ġzewac a
Ġbidin Ãª
Ġgih andina
ĠCez ay
Ġxist ina
r ir
Ġli m
ĠÙĨ ÙĪØ¯
Ä± v
ĠÙģÙĦ Ø²ÛĮ
ĠÙ¾ Ø§ÙĨ
ad in
ĠÃ§ esp
c in
ĠS ine
Øº Ø§
ĠÙħØ¹ ÙĨÛĮ
Ġrasteq Ã®na
ĠP at
ul es
ĠÙħØ± Ø§Ø³Ùħ
Ø¹ Ú©Ø³
ĠØ¨Ø±Ú¯ Ø²Ø§Ø±ÛĮ
ÙĦ Øª
ĠØ¢ Ø¯Ùħ
lo ad
ĠÙĩÙģØª Ùħ
Ġenf ants
Ġj ourn
Ġmais on
ĠB ehr
Úģ Ùĩ
ĠK op
Ġserv ice
ĠØ¹ÙĪ Ø§ÙħÙĦ
198 9
ĠragÃ®h andinÃª
Ġhay dar
Ġderman kirin
Ġfirs end
Ġr ovÃ®
Ġvexwend in
Ġes n
aza xist
Ġxew nÃªn
Ãªd ayÃ®
Ġguher andin
Ġkov arÃªn
Ġteleviz yonÃª
ĠnivÃ®s andine
Ġmir iye
Ġbas kÃª
ĠÅŁÃªwe yÃªn
ĠDÃİ HA
Ġbik Ãªr
Ãªd anÃª
ĠÃĩ ep
ewe ya
ĠÃ®n ÅŁ
ĠnÃ®ÅŁ anÃªn
Ġbis ekin
ĠavÃª tina
ĠpÃªÅŁwaz Ã®kirin
PiÅŁt re
ĠhÃ»rgel an
b Ã®na
Ġher fa
Ġf Ã®ÅŁ
Ġpev Ã§Ã»nÃª
u jÃ®
Ġdikar ibÃ»
Ġotom atÃ®k
ĠSovy etan
Ġdav Ãªjin
Ġd oj
Ġtend ir
Ġopoz isyona
ĠB Ã»y
ul man
Ãªz Ãª
ic al
Ġtaybetmend iya
ĠwerÃªn Ãª
ĠØª Ø±ÛĮ
ĠØŃÙħ ÛĮØ¯
y ay
Ġn ive
ra w
ĠØ³ÛĮÙħ Ùĩ
Ġc al
ĠÙĪØ± Ø³Ø±Ùĩ
l d
iÃ¨ me
ĠØµØŃ Ø¨Øª
ĠÙĪÛĮØ¯ ÛĮÙĪ
Ø®ÛĮ Øµ
Ø±Ùĩ Ø§
B C
ĠØ¹ Ø§Ùħ
Ġr end
zad e
ra in
ĠÙĨ Ú¯Ø±
ĠKir m
ĠvÃ®d yoyÃª
ĠT eq
ĠMid y
ĠeÅŁ q
Ġkult urÃª
k Ã»n
or Ã®st
xw Ã®nin
bÃ» l
Ġkit abÃ®
ĠxÃªr xwaz
Ġtelef on
Ġtendur ust
Ġh Ã®mÃª
ĠH aÅŁ
Ġhelbest vanÃª
Ġveqet andin
ĠGurc istanÃª
ĠtÃª da
ĠHikum eta
ĠbeÅŁ darÃªn
ĠpÃ®r ek
ĠlÃ®st eyÃª
Ġxwez a
der ketina
Ġderew an
Ġwaz ena
Ġx ak
Ã®d arÃª
Ġxurt kirina
Ġpay ebilind
A med
Ġbikuj e
iq Ã®n
kar Ã®ya
Ġpirs eke
Ġxwend iye
Ġreb en
ĠØ² Ø¯
Ġxul am
Ġfil mÃª
Ġnek im
199 6
is andin
ĠDer ya
ĠK ara
Ġan kÃ»
Ġtakek esÃ®
ĠÛĮ ÛĮ
ĠÚ©Ø§ÙĨ Ø§ÙĦ
E W
Ûµ Û°
ĠMus lim
Ġj amais
ĠØ¹Ø¨Ø§Ø± Øª
ĠÙħØŃ Ø¨
ĠØ±ÙĪ ÙĨØ¯
ĠØ§Ø¹ Ø¶Ø§ÛĮ
ĠR eh
Ø§ÙĦÛĮ ÙĪ
ĠK urt
m ay
ĠØ± ÙģØªÙĩ
Ġsal in
ĠØ´ÙĨ Ø§Ø³ÛĮ
ĠØ¬ Ø±Ùħ
Ã´ le
ÙħÙĨØ¯ Ø§ÙĨ
ĠØ³ Ø¹ÛĮ
ĠO p
Ġn ig
Ø¬ÛĮ Ø¨
ĠPar lem
ĠØ³Ø¨ Ø²
ĠÙħØª Ø¹
DA IÅŀ
ÃĬ r
ĠY Ã»n
Ġkon Ãª
ĠRewÅŁenb Ã®rÃªn
Ġh Ã®m
ĠÅŀ ew
ĠHev seroka
Ġderv ayÃ®
Ġdidom in
Ġnef tÃª
ĠweÅŁan xaneya
ĠtecrÃ»b eyÃªn
Ġagirbest Ãª
Ġter orÃ®
ĠKer em
Ġdig uhere
Ġrawest e
Ġk aÅŁ
Ġme jÃ®
ĠnÃªz ikÃ®
Ġbirin e
ib Ãªjin
ĠÅŁax Ãªn
Ġtraf Ã®kÃª
Ġf iÅŁ
Ġqed and
ĠB asN
Ġagahdar iyÃªn
Ġbabet Ãªn
gir avÃ®
ĠbikarhÃªn er
ĠeÅŁker ekirin
Ġwer gÃªr
ĠrÃªz Ãªn
Ġberxwe dÃªr
kef tÃ®
Ġt erÃ®
Ġso uha
bÃ»n Ãªn
ĠWÃ®kÃ® p
ĠM Ã®l
Ġc rypt
ĠØ¯ÛĮ Ø¬ÛĮ
Û²Û° Û°
ĠÙģØ§Ø± Ø³
ĠÙĨ Ø§Ø¨
M ar
Ġle gal
Ġmod el
Ġ ur
b al
Ġ it
ĠØ®Ø± Ø§Ø³Ø§ÙĨ
en u
ĠØ¨ÛĮ Ø³Øª
Ø§Øµ ÙĦÙĩ
ĠÙĨ Úĺ
Ġde fin
ey l
. '
Ġrecher che
de x
ad o
ĠØ¹Ø²ÛĮ Ø²
ĠS iv
is i
ĠâĢĺ âĢĺ
Ġs et
Ġperson ne
k en
Ġnouve au
Ġt oz
Ġr un
Ġs ekt
ĠÚ¯ Ø³Øª
ons e
ĠrÃª v
S P
Ġc ang
Â» ,
m el
Ġc uya
d Ã®yÃª
Ġberpirs iyarÃªn
ĠUrm iyÃª
Ġlaz ime
Ġgor Ãªn
Ġteq Ã®n
ĠÅŁoreÅŁger Ãªn
Ġtal Ã»k
Ġz arÃª
ÙĪÙĨ Ú©ÛĲ
Ġzind anan
È ĭ
ih Ã®
Ġder Ã®yÃª
Ġu ca
ĠyekÃ® t
ĠÅŁÃªwe yekÃ®
ĠÃ§iy ayÃ®
Ġnam eyÃªn
Ġman ewÃ®
Ġs Ãªr
Ġbal darÃ®
ĠnexweÅŁ xanÃª
ĠhÃªv iyÃª
kir d
Ġhaw ar
Ġc eng
Ġheft eyan
Ġqedex ekirina
Ġdez geha
Ġp orÃª
ĠM ec
Ġq eÅŁ
Ġaj ans
Ġger iya
w Ãªr
Ġnirx andinÃªn
Ġlot ik
Ġhest iyar
ĠpÃªkhat Ã®
ĠØ±Ùģ Ø¹
ĠLib nanÃª
ĠRagih andinÃª
Ġxirab tir
if Ãª
ĠÙħØ³ Ø§Ø¨ÙĤØ§Øª
ĠâĢ ļ
ĠÙħØ®Ø§ÙĦ Ùģ
ĠÚ© ÚļÛĲ
ĠÙĪØ³ ÙĦÙĩ
Ġs of
ĠL az
E C
i i
in k
ĠÙĨÙĩ Ùħ
6 7
ĠØ¢ ÛĮØª
ĠØ¯ Ø¨ÛĮØ±
olog ie
Y AR
p es
Ġw ac
Ø§Ø² ÙĨØ¯
Ġ ici
Ġb y
ĠM ex
ĠØŃ Ø°
ĠP Ã®ÅŁ
ĠN Ã®n
ĠkÃ» ÅŁtin
Ġhaw ird
b arÃªn
Ġkes ekÃª
Ġbi weÅŁ
ÃĬ R
Ġhav Ã®na
Ġbida w
ĠdanÃ»standin an
Ġdu bar
ĠÃĩ er
ĠEw Ã®
ĠHaw ar
Ġferas eta
ĠH Ãªv
Ġhil berÃª
Ġazad kirina
ĠSt ar
ĠÅŁÃ®r Ã®n
ĠMeh emed
Ġxwez aya
ĠBir Ãªveb
Ġzind ana
Ã®y aye
ĠrÃªveb erÃª
Ġnedik irin
Ġhat ibin
Ġderman Ãªn
ĠMislim anan
ĠdikiÅŁ Ã®nin
ad ayÃª
ĠØ² Ø¯ÙĨ
Ġveg otina
Ã§Ã»n Ãªn
ĠÅŁermezar kirina
ĠØ§Ùĩ Ø¯Ø§Ùģ
Ġnih ÃªrÃ®
ĠnÃ®s anÃª
ĠserlÃªd ana
Ġm iha
Ġser Ã®hil
ĠH ezar
Ġtun ebe
Ġez Ã®z
ĠTÃªkil iyÃªn
6 9
ĠÚ©ÙĬ ÚĸÙĬ
ĠbÃ»y Ã®na
ĠØ®Ø§ÙĨ Ú¯ÛĮ
Ø± Ø§ÛĮÛĮ
Ø§Ùħ Ù¾
ĠØ² ÙĨØ¯Ùĩ
ĠØ¯ Ø§Ø±Ùĩ
ĠÚļ Ú©
ĠP ompe
ĠØºØ° Ø§ÛĮÛĮ
! ?
Ġpla st
us an
Ã©c ur
ĠØªØ¬ÙĩÛĮØ² Ø§Øª
s ek
ĠC a
ĠØ¨Ùĩ Ø¯Ø§Ø´Øª
on y
198 7
Ã» ta
Ġs ah
ĠØ§Ùģ Ø³
ĠØ¹ Ø³
ĠØŃØ¬ Ùħ
ĠFat ma
Ġal im
b aj
Ġfot ograf
ĠSÃ»r Ã®yayÃª
ĠAs ayÃ®ÅŁÃª
Ġmus luman
Ġbetlan eyÃªn
Ġdewlet bÃ»na
ĠÃĬzÃ®d iyan
w anÃ®
oÅŁ ka
ĠparÃªz gehÃª
Ã®y aya
ĠZ ax
Ġaloz Ã®
Ġhep is
aq eÅŁe
K DP
r iyÃª
Ġher ek
Øº Ùħ
ĠÃ§alak Ã®yÃªn
ĠÃ§apemen Ã®yÃª
Ġk ekÃª
Ġhev dem
ĠÃĩ anda
ĠpaÅŁ a
Ġxort ekÃ®
Ġdik etin
Ġpol Ã®sÃª
Ġrojnam evanÃ®
ĠfÃ®l man
ĠSos yal
Ġdipirs e
Ġbikir ana
Ġned Ã®tÃ®
axuyan iya
Ġrob ot
ĠXar pÃª
ek arÃª
Ġv Ã®z
ĠsÃ®nor an
Hun ermend
Ġser ekÃª
Ġal aya
Ġav ab
ay iyÃª
Ġg erok
ĠÃ§avk anÃ®
ĠPÃªx emberÃª
Ãªd an
eq a
Ġwir d
Ã©rat ion
az ak
r ier
ĠØ§Ø²Ø¯ ÙĪØ§Ø¬
Ġbib ÃªjÃ®
ĠÙĨÛĮÙħ Ùĩ
ĠØ§ Ú©ÙĨ
ĠØ±ÙĪØ² ÙĨØ§ÙħÙĩ
an ces
ÙĪ ÙĪ
ĠÙĨÙĬ Ø²
em per
ĠØ® Ø±Ø¯
Ø¬ Ø¹
us iness
Ġs ign
ĠÙ¾ Ø´ØªÛĮ
ĠØ±ÙĪØ³ÛĮ Ùĩ
C ar
k est
E t
ĠØ¢ÙĦØ¨ ÙĪÙħ
P R
ĠØ§ÙĦØ¹ Ø§Ø¯Ùĩ
ĠØ¹ÙħÙĦÛĮ Ø§Øª
ĠØ¯ÛĮÚ¯Ø± Ø§ÙĨ
ĠWik ipedia
Ú¯ Ø§ÙĨÙĩ
Ġprodu its
ĠTev gerÃª
Ġ Ãªk
Ġkar akter
Peyama Kurd
r ov
Ġjin Ã»
ĠEl ew
Ġkam er
Ġtev li
Ġheb Ã»ne
Ġdev oka
ĠÃ§areser Ã®ya
Ġmes aj
as Ãªn
Ġhev okÃª
ĠsÃª w
Ġpaqij kirina
Z arok
ĠÃİ nÃª
B ijÃ®
D YA
Ġc iya
ĠbiÅŁ op
k iyÃª
Ġh Ãªk
ik Ã®nin
ĠtelevÃ®z yonÃª
ĠbimeÅŁ Ã®ne
eb ij
ĠpÃªÅŁ bÃ®n
Ġparv ekirina
Ġbiq ed
b irin
ez Ã®
ĠtÃ® pa
Ġv engÃª
ĠK oyÃª
p iÅŁt
t eya
Ġj iya
ĠnavnÃ®ÅŁ Ãªn
Ġeleq eya
Ġb Ã®ye
Ú© Ø§Øª
bÃ»y Ã®nÃª
ĠÙĩÙħ Ø¯Ø§
ĠØº ÙĦ
ÙĦÛĮ Ùħ
ĠAl an
Ø² ÙħÛĮÙĨ
Ġl ang
ĠØ± ÛĮØ§Ø³Øª
Ùĥ Øª
ĠØ§ÙĪ Úĸ
8 7
Ġet c
ĠMal m
ĠM ent
Ø§ÙĨÛĮ Ùĩ
q e
Î ±
ĠÙħÛĮØ¯ Ø§ÙĨ
Ġnouv elle
Å ĵ
Ġalb um
ĠØ§ÙĨØªØ¸ Ø§Ø±
Ġos man
ĠØ¯Ø´ ÙħÙĨ
B ay
ĠØ´ÙĨ Ø¨Ùĩ
ĠV lad
ok e
ĠÙħ ÙĩØ§
ĠØª Ú©ÙĨ
ĠÙĩ ØªÙĦ
ĠÚ©ÙĦÛĮ Ù¾
ĠÙħ Ø§Ú©
Ġma int
Ùĥ ÙĨ
L Ãİ
ĠÅŀ akir
ĠÃİn Ã®siyat
Ġkom Ã®syonÃª
Ġendam ekÃ®
Ġf ekÃª
ĠP ort
Ġsaz iyan
ĠTÃ®r meha
H erÃª
Ġper est
Ġpar gÃ®d
Ġjin av
Ġmamost a
Ġray edar
ĠDay ikÃªn
ĠLÃªkol Ã®nÃªn
ĠgrÃ»b Ãªn
ĠZÃªd etir
y anÃª
Ġkur te
Ġteq andin
ĠqanÃ»n an
Ġt avÃª
ĠsÃª wir
ĠStenb ol
ĠØ§Ú©ÙĨ ÙĪÙĨ
m Ãªr
Ġk anÃ®
Ġserok kom
ĠEz Ã®z
ĠÅŁ Ã»r
Ġew rop
Ġzarok ek
ĠzÃ®n danÃª
ĠbimeÅŁ Ã®nin
Ġ iÅŁ
ĠLi gel
ĠHem an
Ġheq aret
Ġform Ãªn
ib un
Ġem baz
ĠW Ãªn
Ġtaw anÃªn
Ġbiafir Ã®nin
Ġdernak eve
ĠÃ§ Ã®nÃ®
Ġzay Ã®nÃª
Ġt ixÃ»b
Ġkar an
ĠÃ§alak iyeke
Ġdad wer
ĠrÃªveber iyÃª
ĠÙ¾ ÙĦØ§
bÃ»y Ã®n
ĠpÃªÅŁket inÃª
ĠKar ayilan
ÙĪ Ø§Ø¨
ĠØŃ Ø§Ú©
ĠØªÙħ Ø±ÛĮÙĨ
ĠØªØ§Ú© ÛĮØ¯
Ġs ept
Ø¨ Ø¯
E d
ÛĮØ¯ ÙĦ
k em
Ġex pl
Ġe u
ÛĮØª Ø§ÙĦ
ĠØ¨Ø¹ Ø¶ÛĮ
Ġsav oir
9 1
ĠÙ¾ÛĮØ§Ùħ Ø¨Ø±
ĠØ« Ø§Ø¨Øª
Ã¨ res
Ġc ou
ĠØ± Ø¯
ĠÙĩØ³Øª ÛĮØ¯
ĠØª ÛĲØ±
Ġce ux
ĠÙħØ³ Ø§Ùģ
U M
Ġk antona
ĠM ens
ĠØ¨Ø± Ø§Ø¯Ø±
Ġkam p
ĠM uk
h in
ĠAr manc
ĠÃĩ elÃ®k
Ġpad iÅŁ
Ġser bil
ĠVÃª ca
Ġgerm Ãª
uÅŁ oglu
Ġney arÃªn
W eÅŁ
Ġm ekan
en eyÃª
ĠA vÃª
ĠÃĩ iya
ĠCiz Ã®ra
Ġcej n
Ġx Ã»r
ĠÃ§ Ã»k
ĠA giriyÃª
ĠY anÃª
ĠPlat forma
y eyÃª
Ġroj ekÃ®
Ġfer h
Ġkomkuj iyÃªn
Ã®ÅŁ ka
ĠQ ah
ĠSib ata
ĠÃĩar ÅŁemÃª
ĠÅŀeh bayÃª
ĠsÃ®v Ã®l
ĠguftÃ» go
C Ã®girÃª
ĠKurd ekÃ®
aw eriya
Ġkev iran
Ġnaz ik
Ġb Ã®yÃ®
Ã»s k
Ġkev irÃªn
ĠÃªz idÃ®
iÅŁ ka
Ġxan im
ist Ãªn
Ġd Ãªm
ĠPÃªÅŁ Ã®
Ġder tÃª
Ġnetewe yÃª
Ġc and
al lah
Ã¨ g
ĠÙħÙĤØ§ ÙĪÙħØª
Ġv ila
ĠEn t
ĠG az
rat ion
ĠØ²ÙĨØ¯ Ø§ÙĨ
ĠÙĨÚĵÛĮ ÙĪØ§ÙĦ
ĠH o
ĠS oy
ĠG U
ett es
m o
A s
ĠT ol
Ø® ÙĬ
ĠC i
... )
ĠÙĤ Ø§
ĠÙĦØ° Øª
K er
Ġda h
Ġde ye
Ġgr evÃª
Ġgor istana
ey Ãªk
Ġalf abÃª
ĠpiÅŁtevan Ã®ya
NÃ»n erÃª
hejm ar
ĠDuÅŁ emÃª
u dÃ®
Ġd Ã®ya
Ġbig uhere
Ġperwerd eyÃ®
ĠBed lÃ®sÃª
ĠEw Ãª
Ġteq aw
Ġdez g
Ġked kar
ĠXeb at
M Ã®r
Ġderv a
bÃ» ye
Ġtem Ã®n
Ġned ibÃ»
ĠÃ§ap a
ĠdÃ© t
Ġji dest
ev Ãªn
Ġmizg efta
End ama
Ġx ud
Ġher w
Ġhevpey manÃªn
Ġveger andin
Ġwac ib
Ġsersa x
Ġbend Ãªn
Ġnif ÅŁ
Ġnih Ãªr
Ġk Ã®t
ĠØ®Ø¨Ø± ÙĨÚ¯
ant Ã®k
ĠbÃ®rdoz Ã®
ĠÙĦ ÙĪØ±ÙĬ
ĠØ¯Ø±ÙħØ§ÙĨ ÛĮ
ĠÃ®r anÃª
ĠgihÃ®ÅŁt ina
ĠÙĩÛĮ Úħ
ĠÃĬ raq
ĠØ° ÙĩÙĨ
r az
ĠÚ©Ø³ Ø§ÙĨÛĮ
Ġm oy
ĠØ§Øª ÙĪÙħ
Ġli eu
ĠØ§ÙĨ Ø´Ø§
ĠØ³ Ø§Ú©
ĠØªÙĪØ§ÙĨ ÙĨØ¯
Ġs is
Ú© Ù¼
ĠÙ¾ÙĬ Ø´
ĠØª Ú©Ø±
Ġav ez
ĠØ¨Ø± ÙĪØ²
ĠB av
ÙĨ Ø§Ùĩ
ÙĪÙĨ ÙĬ
ĠØ¬ÙĨ ÙĪØ¨
Ġk ron
r d
Ġn af
ĠØ¢ Ø¨ÛĮ
Ø§Ø¨ Ø§ÙĨ
Ġac tiv
re g
ÛĲ Úĸ
Ã»l lah
ĠTey ran
ĠÅŁ uxul
Ġaw an
ĠDer iyÃª
Ġc li
Ã®y etÃ®
Ġwerger Ãª
ĠaÅŁtÃ® xwaz
Mal b
eh Ãªn
Ġger ekÃª
ĠÅŁew at
K Ã®
Ġrad ibin
ĠbimeÅŁ in
Ãªk er
ĠDest Ã»ra
Ġv alak
ĠnivÃ®s an
Ãİ ran
wend iyÃªn
Ġsi ber
Ġji day
ĠÃ§ olÃª
Ġdem ograf
ĠZ ey
ĠtecrÃ»b eya
et ekÃª
Ġhund urÃª
Ġna gih
Ġcid dÃ®
ĠÙĨ ÙĩØ§ÛĮ
ĠwÃªn eya
Åŀ oreÅŁ
ĠrÃ»r eÅŁ
Ġcez aya
mend iya
m irov
ĠØ¹ Ø¶ÙĪ
ĠØ²ÛĮØ¨ Ø§ÛĮ
ĠØ¯ ØºÙĪ
Ø³ ÙĪØ¨
ĠØ§ÛĮÙĨ Ø¬Ø§
ĠÙħØ® Ú©ÛĲ
ĠØ§Ø¹Øª ÙħØ§Ø¯
Ġg end
S X
ch ine
ut es
et o
er i
S T
op h
ĠW ind
ĠÙĩØ³Øª ÛĮÙħ
- ,
Ġann Ã©es
ĠÙħÙĤ Ø±
ÙĪÙĨ Ø§
ĠØ¨ Ø§Ø±Ø¯
ĠÙħØŃ ÙĦÛĮ
ĠAmer ika
tin e
ĠØŃ Ø¯Ø§
bur g
ĠÙĨÙħ ÙĪØ¯Ùĩ
ĠÙĨØ³ ÙĦ
I T
ĠØª ÙĨÙĩ
Ġbin em
ĠÙĪ Øª
Ġad il
Â ²
ĠÙĬ Ø§Ø¯
if in
ĠMer wan
Ġakadem isy
ĠH ewr
Ã®k o
ewe y
ĠÅŀÃªr ko
ĠdikÅŁ Ã®nin
ĠpÃªÅŁveb irina
ĠYaÅŁ ar
Åŀ am
ĠÙħØ´ Ø§ÙĪØ±Ùĩ
Ġter ka
aq a
ĠÃ§Ãªkirin e
ĠhilweÅŁ andina
jÃ®n al
E lÃ®
ĠD adÃª
Ġrast iyÃªn
Ġned ane
Ġreh ma
Ġdol arÃ®
ĠKarÃ»b arÃªn
s iyÃª
Ġhey ecan
Ġmes ref
Ġqey ran
ĠKal kan
Ġr olÃª
Ġin st
ĠÅŁew itÃ®
Ġxan iyÃªn
Ġzer arÃª
Ġfel ak
ir Ã®nin
Ġji mar
ĠrÃ» dan
ĠEz Ãª
Ġaj alan
ĠÅŀem o
r ehman
Ġwesay Ã®t
Ġdom andin
Ġxan ima
ĠDemokr asiyÃª
Ġxwez Ã®
ĠrewÅŁenb Ã®rÃ®
ĠmÃªj iyÃª
ĠMeh dÃ®
ak urd
as in
ĠØ¯ÙĪ Ø¨Ø§Ø±Ùĩ
ĠJoh r
ev ine
Ùģ ÙĬ
: :
Ġt ene
uv a
Ø¦ Øª
G ot
ĠÛĮÙĪ Ø§Ø²ÛĲ
Ġs ou
Ġmin a
ĠØ® Ø±ÙĪ
Ġref orm
ĠØ³ÛĮ Ø§Ø³ÙĬ
ĠÙħ ÙħÙĨ
ĠÙĦ ÙĪÙĦÙĩ
ĠØ§Øµ ÙĪÙĦ
ĠØ¬Ø¹ Ø¨Ùĩ
ĠØ¬ Ø¯Ø§
din g
Ùħ Ø§Ø±
ĠØŃÙĤÛĮ ÙĤØª
ĠBeh ra
t irk
Ġhes p
z azakÃ®
Ù ł
Ġp ek
Ġdoz ger
Ġcen aze
ĠEyÃ»b Ã®
Ġz manÃª
ĠÅŁik lÃ®
ĠpÃªnc Ã®
Ġdi tirse
ĠR Ãªb
ĠPKK y
NivÃ®s karÃª
ev Ã®z
ĠSur yanÃ®
ĠbeÅŁdar an
ar eyÃª
Ãªr ka
Ġher fÃªn
ĠJ ibo
xw in
Ġhelbest vanÃªn
ĠPol Ã®san
ĠSem s
ĠMÃ»r ad
Ġh Ã®
Ġn Ã®yÃª
ed aran
Ġher ema
ĠEv dir
ĠpirtÃ»k ek
ĠÃ®m h
ĠÅŁev Ãªn
Ġsek na
ĠÅŁ it
ĠdÃ®rok nas
ĠÙĨÙĪØ¬ ÙĪØ§ÙĨ
ĠpÃªÅŁ iyan
ĠrÃªveb irin
ĠSal Ã®h
Ġtol hil
Ġdi dÃ®tin
Ġmin Ãª
Ã» j
Ġwe q
Ġda girtÃ®
Ġveger iyan
ĠÃ§areser iyeke
Ġmaf dar
Ġhemb Ãªz
ĠÙħ Ø¨ÙĦ
ĠkeÃ§ an
Ġjiy anÃ®
ĠA c
Ġau c
6 2
Ġg an
ĠÙĪØ³ Ø§ÛĮÙĦ
emp le
ĠÙĦ Ø§Ø±Ùĩ
Ġpr endre
A P
ĠÙĨÙħ Ø§ÛĮØ¯
Ø¯Ùĩ Ø§
ĠÚ©Ø³ Ø§ÙĨÙĪ
Ġl ev
ĠÙĦ Ø±ÛĮ
Ù ¢
ĠÚĨ Øª
ĠF eh
ĠÛĮØ§ ÙģØªÙĩ
ĠÙĨÛĮØ± ÙĪÛĮ
ĠAl lah
ĠØ§ ÛĮØ¯
Ġj eh
Ġku n
ĠØª ÙĪÛĮ
ĠÙĨ Ø§Ø±ÙĪ
ĠA u
Ġder a
ĠØ§Ø¹ ØªØ±
ĠØ§Ø®Øª ÙĦØ§Ùģ
ĠÙĨØª Ø§ÛĮØ¬
Ġk ef
ĠØ´ ØªÙĩ
ĠÙģ Ø§ØµÙĦÙĩ
Ġm uk
Ġleh c
ek tÃ®v
K URD
Ġq or
ĠÃ®st Ã®q
Ġxerab tir
Ġsoz Ãªn
J AK
Kom Ã®teya
ĠtÃªgih iÅŁtina
ĠKomel eyÃªn
Ġb Ã®rÃª
ĠpirsgirÃªk ek
ĠdimeÅŁ in
B erÃª
ĠÃİ t
Ġbernam eyeke
ĠRojnam eger
ĠÃ®stÃ®f ade
k Ã®l
at Ã®kÃª
eb in
and ibÃ»n
Ġbang ew
Ġmad eya
ĠkÃªÅŁ eya
Ġtendurist Ã®
Ġa heng
Ġbir iye
Ġyek rÃªz
ĠpaÅŁ v
dewl etÃª
End amÃªn
ĠAb orÃ®
Ã» pel
Ġna xwe
Ġbib Ã»ya
Ġbal dar
Ġzoz anan
ĠsÃ®n ema
ĠcÃ®r anÃªn
Ġsemb olÃªn
be xt
ĠÙģ Ø±ÙĪ
Ġdost an
Ġdikuj e
Ġe g
ĠÃ ²
ĠØµØŃ ÙĨÙĩ
Ġf ont
Ġprat Ã®ka
Ġsp Ã©ci
G B
ÙħÙĨ Úģ
Ġcon d
ar o
enc ont
ĠJ ames
ĠÙħØ¹ Ø±ÙĪÙģ
ĠØªÙĦÙĪÛĮØ²ÛĮ ÙĪÙĨ
Ġap pr
dl ib
ĠÚ©ÙĪÙĦ Ø§ÛĮ
á »
Ã Ł
nd er
Ġf en
p are
Å ¡
B al
ĠØ¨Ùĩ Ø¨ÙĪØ¯
Ġdro it
ĠÙħÙĪÙģÙĤ ÛĮØª
ĠQur an
R E
ĠØ¯ Ø¯
Ġc lass
ĠI r
Ġt ik
ber an
ĠØ§ÙĤØªØµ Ø§Ø¯ÙĬ
ĠØ§ÙħÙĨÛĮØª ÙĬ
OD AR
Ġdir ect
ĠDiyar una
Ġrojnameger Ãªn
ĠSur Ã®
Ġr eya
atÃªn e
D iyar
ĠPÃªÅŁ iyÃª
ÅŁ el
ah Ã®m
Ġbir atiya
Ġbilind kirina
Ġtekn Ã®ka
ed Ãªn
Ġko Ã§Ã®
ĠØ®Ø¨Ø± Ú¯Ø²Ø§Ø±ÛĮ
ĠtekoÅŁ Ã®nÃª
S emalt
ad etÃª
ĠÅŁop andina
Ġbert ekÃªn
ÅŁ Ã®n
Ã®h at
Ġragihand ibÃ»
ĠÃĬz d
Ġhilber Ã®nÃª
Ġxur tÃ®
k Ã®n
ek tÃ®
ĠnexweÅŁ an
ber iyÃª
yar iya
aybet Ã®
hat inÃª
ĠfÃ®l ma
Ġdewlemend iya
ĠXur mat
Y Ãªn
ĠhiÅŁ mendÃ®
ĠDer barÃª
Ġreferand um
ĠÃ®dÃ® aya
Ġnij ad
ĠpÃªÅŁmerg eyan
ĠrÃªhev alÃªn
z imanÃª
ĠP Ãªk
ĠP SK
Ġned Ã®tin
Ġdi gir
ĠX idir
Ġfolkl ora
Ġdav Ãªje
ĠS emal
it andin
Ġcel ebÃªn
ĠdengbÃªj an
Ġdiq ed
Ġdil ey
H K
iÅŁ andin
ug ust
ĠØ¨Ø² Ø±
ĠÙģ Ø¯Ø±
ĠtÃªbi gih
ĠÙ¾ ÙĪØ±Ùĩ
Ġv ac
ÙĦØ§ Ú¯
Ġb alan
ĠK ant
ĠÙħØ¯ÛĮØ± Ø§ÙĨ
Ġpubl ic
ĠØ³ÛĮ Ø§Ùĩ
ĠN ik
ĠØ¯Ùĩ Ùĩ
ic t
ĠØ¹ Ø¶
ĠØ¨Ø§ÙģØª ÙĨÛĮ
ĠV al
ĠÙĨØ¯ Ø§Ø´ØªÙĩ
ÙĦ Ø§Ø¨
ĠA ut
ĠØª ÙģØ§ÙĪØª
ĠØªØ± ØªÛĮ
ĠA D
Ġmod er
ĠÙħØ« Ø¨Øª
ir o
198 3
in fo
ĠK en
Ġf ort
is sance
ĠÙ¾ÛĮ ÚĨ
ĠÙĨØ¯ Ø§Ø´Øª
Ø§Ø¯ÛĮ Ùĩ
ĠU s
ĠØ± Ø§ÙĨ
ĠØ±Ø³ Ø§ÙĨÛĮ
Ġj ehr
Ġt Ã©lÃ©
ĠØ´ Ùģ
n um
ewe nd
ĠØ¨Ø®Ø´ ÛĮ
ex ane
am ment
Ġm eta
res se
ĠgirÃªd ay
ĠHDP yÃª
Ġs aw
Ġc ebil
ĠrÃªk etin
Ġserket inÃª
ĠDez geha
Ġr ayÃªn
Ġcewh erÃ®
Ġpir a
ĠØ² ÙĪØ¯
Ġnirx a
Ġrawest iya
Ġfeq et
Ġhak im
ĠarÅŁ Ã®v
Ġdi geriya
erdev ka
ĠÅŁ Ã®rÃª
Ġam ede
Ġzehmet iyÃªn
ĠheqÃ®q etÃª
Ġr uyÃª
Ġneb Ã®nin
Ġnaverok Ãª
Ġalb uma
Ġbi tirs
ĠÃ§ Ã®na
ĠnivÃ®s eke
ĠØ¯Ø§Ø´Øª ÙĨØ¯
ĠlÃªpirs Ã®na
PÃª wÃ®st
Ġbab eta
Ġgov end
ĠD ans
Ġte oriya
Ġnehat e
ĠBaly ozÃª
S ekreterÃª
ĠCen ev
Ġz eft
ib Ã»m
nivÃ®s Ãªn
Ġyew nanÃ®
Ġdisp os
Ä±r Ä±
ad y
ĠB ek
Ġbo ya
ĠØŃ ØªÙħØ§
ĠÙħÙĦØ§Øª Úĵ
ĠÙĦÛĮ Ú¯
Ġproj et
ĠÙħØ´ØªØ±ÛĮ Ø§ÙĨ
ĠÙĨ ÙĨÚ«
Ø¢ ÙĪØ±
Ġm ax
Ġa ura
ĠØ¯ Ù¾
Ø³ Ø§ÛĮØª
ĠØº ÙĪØ±Ùĩ
l ing
ĠK ard
ĠDok tor
ek ul
ĠÙħØ³Ø¦ ÙĦÙĩ
is ion
ĠØ§ÙħÚ©Ø§ÙĨ Ø§Øª
ĠY or
Ġon line
Ø±Ø§Ùģ ÛĮÚ©
ĠØ¯ Ú©
ĠØª Ø§ÙĨ
ĠL av
ĠÙĩÙħ Ø³Ø±
ĠL and
ĠØ§Ø³ Ùħ
ĠÙħØ« ÙĦØ§
Ø§ Ø§
Ġn Ã©c
al iya
Ø§Ùĩ ÛĮÙħ
Ġdo w
l eta
Ġty pe
ĠØ§Ø¯ Ø¨ÛĮ
Ġf ay
Ġmeh r
Ġcin Ã®yan
Ġser de
ĠÅŀ arÃª
Ġlidar xistina
n Ã®ya
ĠØ¯ Ø§Ø³ÙĬ
ve ger
Ġzer de
Ġmux t
ĠwÃªran kirin
F ran
ĠL Ã®b
ĠG anÃ®
ĠÃĽ r
Ġkol ana
Ġqes rÃª
ĠÃĩil eya
ĠÃ§ e
Ġbel ed
Ġrojnam evanÃªn
Ã»t Ã®n
ĠhiÅŁt iye
ĠÃ§il eya
af irÃªn
Ãªv anÃª
ĠgirÃ®ng Ã®
ĠkarÃ»b arÃª
Ġbab etÃª
Ġdest Ã»rÃ®
ĠrÃªveb iriya
ĠHSD Ãª
Ġd ot
ĠY Ãªr
Ġkir manc
Ġda xistin
Ġra bir
tern ational
Ġpir alÃ®
Ġyek bÃ»yÃ®
K it
Ġcur bec
Ð »
ĠJ ul
ÙĬ Ø³
ĠØªØ¬ Ø§Ø±ÛĮ
ĠUN ESCO
ĠØªØŃØµ ÛĮÙĦ
ĠÚ©Ø§Ùģ Ùĩ
ĠØ±Ø§ Ù¾ÙĪØ±
Ġret ro
ĠÙħØªÙĪ Ø¬Ùĩ
ĠØ§ÙĨØªØ®Ø§Ø¨ Ø§Øª
oz y
ĠP o
ĠU l
ap e
ĠNem ir
197 7
E P
ÙĨÙĬ ÙĪ
ĠØ°Ø® ÛĮØ±Ùĩ
ĠØ¯Ø³Øª Ø±Ø³ÛĮ
ĠT attoo
Ø±Ùħ Ø²
Q u
ĠÙ¾ÚļØª ÙĪ
ig ne
ĠØ¹ Ùĩ
Ø§Ø± Ùģ
8 2
ĠZ iya
j et
DemÃ®r taÅŁ
H PG
Ġc at
Ġnivis andin
Ġperm ett
Ġtet bÃ®q
Ġc ey
ĠK aÅŁ
ĠÅŀ axa
art iya
Ã®h a
ĠÃ®r ade
ĠÃ®ÅŁ aret
ĠÅŁ ib
Ġseb ir
Ġreh etÃ®
Ġl abelÃª
Ã®st a
Ġdewl etÃ®
Ġxw iÅŁk
Ġxel etÃ®
ĠNisÃªb Ã®n
ĠK Ã¼r
Ġkes ayetÃ®
ĠnivÃ®s arÃªn
ĠrÃ»n iÅŁtÃ®
ĠnÃ»Ã§ eyÃª
Ġxeb itÃ®
Ġberd aye
ĠpÃ®ÅŁ eyÃ®
Ġterm Ãª
Ġbiax ive
ĠserpÃªhat iyÃªn
Ġwelat ek
k urt
Ġdi fir
Ġn ÃªrÃ®
ab Ã®l
ĠnexÅŁ eya
Ġger eke
ÙĨØ¯Ùĩ Ø§Ø±
Ġmezin bÃ»na
kurd Ã®
h eya
Ġcivak eke
Ġre al
Ġred kirin
Ġzil aman
ĠRom ayÃª
ant iya
ÛĮ Ø¨
ĠØªØ´ Ø®ÛĮØµ
r en
ĠtÃªgihÃ®ÅŁt in
ĠÙĪØ³ÛĮ ÙĦÙĩ
ĠØ¨ÛĮØ± ÙĪÙĨ
Ġm ieux
il es
ĠS te
ĠT Ã¼rk
ĠØ¨ÙĦ Ú©
ĠØ±ÙĪØ² Ø§ÙĨÙĩ
str uc
8 1
139 3
ÙĤÛĮ Ùĩ
Ġbon ne
ĠÙ¾ÙĪ ÚļØª
Ø® ÙĪØ§ÙĨ
ĠØ³ Ø§Øª
ÙĨ Ú©
Ø¦ ÛĮÙĨ
Ġel ement
r om
ĠØ¨Ø§ÙĦ Ø§ÛĮ
ĠS ay
Ġâ Ĩ
ĠPompe o
ĠM ol
ĠÚ« ÙĪÙĨØ¯
ĠG ola
ĠØ¨ÙĦ Ú©ÛĲ
Ġgr ub
Ġat ol
ĠRes Ã»lÃª
Ġez manÃ®
ĠHeÅŁ dÃ®
ĠNATO yÃª
m un
ĠÅŁ ep
ro yÃª
ist aniya
Ġdib Ã®nÃ®
Ġmezin e
Ġrawest Ã®ne
Ġbr Ã®ndar
Ġd ÃªrÃª
an eke
er Ã®ya
Ġhevpeyv Ã®n
ĠbÃ®ran Ã®nÃª
ĠØªÙĦÙģ ÙĨ
ad Ãªm
Ġgir Ã®
Ġoperasyon eke
L oma
Ã» ÅŁtÃ®
ra is
iÅŁ Ã®na
ĠX anÃª
Ġgor Ãª
Ġnet Ã®c
Ġbaz arÃªn
Ġberjewe ndÃ®
ĠDers imÃª
ĠLat Ã®nÃ®
Ġs afÃ®
Ãªz Ã®
Ġderew Ã®n
ĠkÃªr hatÃ®
Ġkol ektÃ®f
if ication
ĠlÃª dan
ĠÚ©ÙĨ Ú©ÙĪØ±
Ġnab Ãªjim
c as
Ø¨ ÙĨ
ĠS om
ĠØªØŃÙĤÛĮÙĤ Ø§Øª
u ff
ber d
ĠØ® Ø´
Ù¾ Ø§Ø±
ĠKat al
ĠÙĤ ÙĦØ¨
M il
ĠØ¹Ø¨Ø¯Ø§ÙĦ ÙĦÙĩ
ĠH ak
ĠÙĨÙģ Ø³
ĠØª Øº
ĠW eb
j an
ĠØ´ Ø¨ÛĮÙĩ
Ġgel e
19 21
Ġmet tre
ĠØŃ Ø§ØµÙĦ
ĠØ¸Ø±Ùģ ÛĮØª
Ġr ist
b our
r ib
ĠÙĪ ÙĦÙĬ
ich e
am ez
Ġh Ã¤t
o ot
ĠI nd
Ġp ena
ar at
ÙĪØ´ ÛĮ
ĠØ§Ø¹Øª Ø¨Ø§Ø±
Ġp endant
ij in
ĠÙģØ±Ø² ÙĨØ¯
ĠBor u
ĠN ebÃ®
ĠW extÃª
Ġq Ã®za
Ġoperasyon an
ĠPÃªwÃ®st e
ĠK orÃª
Ġda girtin
med arÃªn
ĠkuÅŁt iye
dÃªr an
ĠSur iyeyÃª
Ġmas iyan
Ġdijber iya
Ġba bÃª
Ġmil Ã®sÃªn
Ġserdest an
ĠPol Ã®t
ĠFed ere
Ġvedi gerin
Ġteb axa
ĠÃ®dar eya
am eya
Ġzor dariyÃª
Ġderxist ine
ĠMezopotam yayÃª
ing Ã®
ĠTÃªm Ã»rÃª
Ú© Ø§ÙĦ
Ġm anÃ®
Ø² Ø¨
Ġpir raniya
gr am
Ġdim ire
Ġcen abÃª
ĠgihÃ®ÅŁt iye
w Ãªd
ĠH iÅŁ
k oyÃª
el ab
Ã®h Ãª
ĠÙĦ ÙĪØ±
Ġfed ere
ĠK ay
Ġcurbec ur
Ġfers end
ĠÙĨÛĮØ±ÙĪ ÙĩØ§ÛĮ
stag ram
Ġt ank
Ġr oc
ĠKon gr
iqu ement
ĠØ² ÙĪØ±
ĠÃĩ el
ĠÚ« Ø±
ille urs
) ;
Ġv iv
ĠÚī ÙĦÛĲ
ĠØ¯ÙĦ ØªÙĩ
ĠØ±ÙĤ Ø§Ø¨Øª
eb ir
Ø§ Ø¬Ùĩ
la ck
Ġl Ã©g
ĠØ¯ÙĪÙĦ ØªÛĮ
ĠÙĨÚ© ØªÙĩ
Ú©Úĵ Ùĩ
Ġm Ã®m
ĠPart Ã®yÃª
ox lÃ®
ĠTem el
ĠA ÅŁtÃ®
if Ã®
ĠRÃª ya
ĠKob aniyÃª
ew ayÃª
Ã®k irÃ®
ĠT arÃ®
ĠmeÅŁ iyan
Ġhund irÃ®n
ĠMer iv
Ġmudax al
Ġpoz Ã®t
ĠWeÅŁan xaneya
eh et
Ġen tegr
ĠtekoÅŁ Ã®n
itt erÃª
st Ãª
Ġter xan
Ġdesthilatdar Ã®ya
ĠrÃªkef tin
st Ã®
ĠP Ãªvajoya
Ġyek o
Ġbih es
Ġbiz av
d Ã®nan
Ġk ewt
Ġbib andor
ĠMÃ»s il
ĠÃİngil Ã®zÃ®
ĠDag irk
ĠBasN ewsÃª
ĠKurd Ä±
ĠEv Ã®n
Ġkap as
ĠDad gehÃª
ĠnÃ®ÅŁ anÃª
Ġs Ã®r
ĠØµÙĨØ¯ ÙĪÙĤ
ess ion
ĠNe xwe
ĠÙĨÙħ Ø§Ø´Ø§
ĠÚ© Ø±Ùĩ
brah im
Ø¨ Ø§Ùĩ
Ø¢ Ø¨
ĠØ§ÙĪÙĦ ÛĮÙĩ
Ġm p
Ã© f
ĠÙĩÙħ Ø¯
Ġp iz
ĠÙĪØ±ÙĪ Ø³Øª
ĠÙĪØ±Úģ ÛĲ
ĠØŃØ° Ùģ
ĠØ§ÙģØ± Ø§Ø¯ÛĮ
ĠØ§Ø³Øª ÙĤÙĦ
ĠØ³ Ø§ÙĨ
ĠM ut
Ġv or
ĠØ¯ ÛĮØ±
19 30
ĠD ew
ĠØ§Ø¯ Ø§Ø±ÛĮ
ĠØ®ÙĦØ§ Ùģ
Ø§Ø³ Ùģ
Ġqu alitÃ©
Ġv erd
Ġf i
et en
Ã¶ l
ĠM ag
ĠÙĪÙĦØ§ ÙĬØª
Ġex p
Ġb ay
Ġserv ices
Ð º
Ġbin g
ĠÙħ Ú©Ø§ÙĨ
ĠØ¯ÙĨÛĮ Ø§ÛĮ
Ġfor um
ent ion
ĠÚ¯ÙĪ Ú¯ÙĦ
' s
at if
Ġ ÛĮØ¯
ĠD oza
ĠØŃØ¯Ø§ ÙĤÙĦ
ĠviraÅŁt ene
ir bÃª
et ekÃ®
Ġkurd perwer
ĠO kt
ĠPer wer
ĠDa Ã®reya
G urk
ĠkÃªfxweÅŁ iya
Ġces aret
Ġzag on
Ġbifik ire
Ġtecaw iz
B ÃĽ
Ġz eman
Ġtecr Ã®dÃª
Y anÃ®
Ġdi xist
ĠÃ§ al
Ġhin ekÃª
Ġax retÃª
ĠÃ§ eka
Ġyek alÃ®
yon an
Ġdesthilat darÃªn
ĠÃ®ÅŁ xal
ĠÃ§ep erÃªn
jim ar
ĠnÃ®s ana
Ġblog Ãª
n eyÃªn
Ġk eve
Ú¯ÛĮØ± Ø¯
Ġgundew arÃª
l Ã®sÃ®
ÅŁ ev
Ġdil ekÃ®
Ġved ikin
Ġbajarok Ãªn
ĠP Ã®ran
sÃ® da
Ġdih Ãªn
ĠasÃ®mÃ®l asyonÃª
ĠÙħÙĪ Ø§Ø¬Ùĩ
ĠÙħØ´ØªØ± Ú©
ĠB Ã®n
Ġdir ev
d ivÃª
ĠnÃªzÃ®k bÃ»na
Ġbingeh eke
Ġex c
k Ä±n
ĠØªØ± ÙħÙĨÚģ
ur er
K am
B A
ĠÙĨ Ø±Ø®
V an
part ement
Ùħ Ø§Øª
Ġr elat
ĠÙ¾Ø²Ø´ Ú©
Ġdi y
ĠØ¯ÙĬ Ú¯Ø±
m as
Ø³Øª Ø§
Ø§ÙĨØ¯ ÙĬ
Ø¯Ø§Ø± Ø§ÙĨ
ĠdÃ©vel opp
HA L
Ú¯ Ø§Ø±ÛĮ
ĠK af
ĠØ§Øµ ÙĦØ§
ĠØ¨Ø§Ø´ ÛĮÙħ
Ġx in
Ġpl ay
iÃ¨ rement
ĠK ub
O per
Ø´ ØªØ±
ÛĮØ² Ùĩ
Ġtel eb
ĠÙħÚ© Ø§ÙĨÛĮ
Ġdem ande
Ġrest or
Ã¢ ce
Ġpar z
ĠD iy
Ġpetr ol
H ez
Ġprogr ama
T V
ÛĮ Ø§Ø±
ĠÃªzd Ã®yan
ĠQur banÃª
geh ek
Ġmil kÃªn
Ã®v Ã®
Ġpropag anda
Ġm Ã»Ã§
ĠH Ãªj
ĠNav xweyÃ®
Ġsp artin
Ġperwerd ekirin
ĠÙħØ§ Ø¬
Ġkars aziya
Ġpad Ã®ÅŁ
ĠAmerÃ®k aya
Ġberdev kÃª
Ġtatt oÅŁ
f ermand
Ã» x
Ġn aÅŁ
Ġal ema
ĠC Ã»dÃ®
Ġhilbij Ãªrin
Ġbak Ã»r
Ġber gÃªn
ket inÃª
Ġcih Ã®
Ġnekir ibÃ»
ĠrÃªbaz ek
Ġnah a
ĠNÃ» Ã§e
Ġdisp Ãªre
ĠÃĸz Ã§elik
Ġpropagand aya
Ġb Ã»r
az Ã®yÃª
ĠnÃ» ve
nam Ãª
ĠgirtÃ® gehÃªn
ĠgeÅŁ edanÃªn
ĠnÃªb eno
Ġgem ar
Ġdikuj in
Ġmer hel
Ġsp asiya
ĠpÃªÅŁn Ã®y
Ġtop bar
ĠhÃªl ekÃª
ĠnÃ»ner tiya
Ġt ola
ĠBDP Ãª
Ġgiring iya
Ġe fr
ĠÙħØ¹Ùħ Ø§Ø±ÛĮ
ĠSak Ã®ne
ĠkevneÅŁop iya
ĠÅŀerm ezar
g uher
ĠhÃªz dar
ĠlÃ®stik van
ĠÃ®ng Ã®l
Ä± ÅŁt
ĠØªØŃ Ø±ÛĮÙħ
ĠÃ© cr
ĠD al
ĠÙ¾ÙĪ Úģ
ĠØ±Ùĩ Ø¨Ø±ÛĮ
ĠY ou
139 2
ĠØ§Ø¬ Ø±Ø§ÛĮÛĮ
s il
ĠH eb
Ġst ud
ĠØ®ÙĪ ÙĨØ¯
at ive
Ġdern ier
Ġf inan
ĠØ¯Ø± Ú©
ĠAs s
ro id
ĠÙ¾ÙĪØ± ØªÙĩ
ĠØ§Ø¹ ÙħØ§ÙĦ
A g
ĠØªØ±ØªÛĮ Ø¨
ĠÚ© Ø¯Ø§Ùħ
Ã¼ k
y at
ĠØ§Ø¨ØªØ¯ Ø§ÛĮÛĮ
u tin
Ø¯Ùĩ ÛĮ
ĠSad iq
B EK
Ġh ok
D ew
Ø§ÛĮ Ø±
ah an
ĠP i
Ġgih iÅŁtin
Ġxebat ek
ĠNat oyÃª
Ġt Ã®ya
ĠÅŁ andiye
Ã§ eyan
ĠN Ãªr
ox anÃª
Ġcin Ã®
ĠBeÅŁ Ã®k
Ġnavb Ãªra
Ġyek Ã®n
Ġbaj ÃªrÃª
Ġh uqÃ»q
Ġc oka
Ġved ibÃªje
azaxist anÃª
ĠÃ§ap Ãª
ĠNet ewa
ĠbÃªk Ãªm
ĠnavnÃ®ÅŁ a
ĠErdog anÃ®
ĠØª Ø±Ùĩ
ĠØ§Ùħ ØªÛĮ
Ġbare geha
Ã®t am
Ġmal ekÃª
ĠdÃ®t ibÃ»
ĠÅŁewit andina
ĠDuy emÃ®n
Ġyas ayÃªn
h eta
ĠparÃ§ eyÃª
Ġba ca
Ġderb ikevin
if ic
ĠrÃªxistin an
Ġder ya
Ġgih and
ĠÃ®st Ã®xbar
Ġnasnam eyÃªn
Ġcel ui
ĠbiÃ§ im
ĠpolÃ®tÃ®k ayÃª
ĠdanÃ»st andina
ĠsÃ®x ur
ĠM Ãªrs
s erÃª
ĠÙĨØ¨ Ø§ÛĮØ¯
ĠM usa
ic ros
R ap
Ġnive au
ĠØ®ÙĪØ¯ Ùħ
Ġes p
Ø±Ùĩ Ø§Ø±
ĠØªØ¬ Ø±Ø¨ÛĮ
ĠØªÙģ Ú©Ø±
ĠØ§Ø¹ ÙĦØ§ÙĨ
ĠØ¬ÙĨ Ø³ÛĮ
Ġs Ã©cur
ĠØ¨ ÙĦÙĩ
M ed
ÙĬ Ø±ÙĬ
ĠØµ ÙĦÛĮ
6 1
ĠØ±Ùĩ Ø¨Ø±
ĠÙĨ Ø§Ú©
ÙĬÙĨ ÛĲ
Ùħ ÛĮÙĦ
Ġin f
ĠØ· ÙĦØ§
Ġg aza
x im
ĠØ§Ùħ ÙĨÙĬ
Ġp ac
ber al
ĠØ¨ÙĨ Ø³Ù¼
Ã¨ mes
R O
in ter
ĠÙ¾Ø± ØªÙĩ
oir es
ĠØ¯ÙĪÙħ Ø±Ùĩ
crip tion
Ġbid o
H il
iss ion
Ġvra iment
r Ã»r
Ġek onom
ĠNus ra
ĠQes ra
ĠBed Ã®
G otin
Ġv ajÃ®
ah iyan
Ġzan ibe
ĠbaÅŁ Ã®
Ġbernam Ãª
Eh med
Ġmal Ã®
Ġpart iyek
Ġved Ã®tina
pir sÃ®
Ġtabl oya
ĠÅŁov en
Ġx uyan
Ġbib Ã®nÃ®
ĠGev er
ĠPas daran
N Ã»
ĠlÃª dana
Ġrev iyan
Ġdi xistin
Ġbi zin
Ġr oÅŁ
ĠL ozanÃª
Ġreng ek
Ġaloz iya
ĠDÃªr az
ĠNob elÃª
w arÃªn
Ġmaf ekÃ®
ĠHerÃª mÃªn
ĠHem Ã®
ek erdiÅŁÃª
Ġmi da
Ġproj eyeke
ik ekÃ®
Ġxebat kar
ĠpirsgirÃªk eke
Ġdix ap
ĠÃİn stÃ®t
ez Ã®l
Ġqed iya
Ġhukum etÃª
ĠÚ«Úī ÙĪÙĨ
Ġ ekÃ®
ĠmÃ»z Ã®kÃª
g u
ĠØªØ± ÙĪØ±ÛĮ
Ġkil amÃªn
ĠØ²ÙĨ Ø§ÙĨÙĩ
Ġwer ina
ĠÙ¾ Ø§Ùħ
ĠØ³ÛĮÙĨ ÙħØ§
ĠÙ¾Ø±ÙĪ Ø§Ø²
ĠÙħØ³ Ø¹ÙĪØ¯
S e
Ġser g
ĠÙħ ÙģÙĩ
Ġj ou
Ġb ad
ĠÙĨØ¯Ø§Ø± ÙĨØ¯
ĠÚ©Ø§Ø±Ø¨Ø±Ø¯ ÛĮ
ob re
ÙĦ Ø§Ø³Ùĩ
Ġc Ã´t
ĠØ§Ø±ÙĪ Ù¾
h ar
ĠØ´ Ø§Ø±
ĠÙĪ Ø±Ø¯
il y
ĠÃ©l ect
D an
ek ol
ĠÙĨØ¸ Ø§ÙħÛĮ
ĠÙ¼ÙĪÙĦ ÙĨÛĲ
ĠI z
Ġr Ã®t
ĠM it
ĠX asÃ®
Ġzaf Ãª
Ġs iyon
ĠKir manckÃ®
ĠzÃ®r yab
ĠB abÃª
ĠtÃªbik oÅŁin
s Ã®y
Ġgir ava
Ġdu we
ĠYek ÅŁemÃª
Ġfer manÃªn
Ġrap orÃªn
ĠGr Ã»ba
ĠrÃªveber iyÃªn
t iyan
Ġser per
Ġq ef
Ãªd anÃªn
Ġest Ã®
Ġtax an
Ġterc um
r Ã®ya
at es
Ġpir Ãª
Ġsal Ã®ya
Ġziw a
Ġbazirg an
ĠÙĦØ§Ø³ Ùĩ
AmerÃ®k a
ĠÅŁ iyan
Ãªm a
Ġter b
Ġheft eyekÃª
ĠgihiÅŁt iye
Ġk ela
iv iya
Ġpey amÃª
Ġveger Ãª
ĠveÅŁ Ãªre
Ġkomkuj iyan
ĠhÃ®n bÃ»na
dir ÃªjÃ®
Ġev Ã®nÃ®
ĠrÃªz enivÃ®sa
ĠÃĽ ris
Ġdesthilat iya
ĠÃ®ÅŁ gal
Ġwesay Ã®tÃªn
ĠÙ¾ Ø§ÙĬ
Ġdib ar
ĠZan yar
Ġbi ger
Ãĩ ima
Ġtew an
Ġ arast
ĠØ¢Ø´ÙĨ Ø§
Ġm ult
ir t
ep tion
Ġli d
Ø§Ùħ Ø¨Ø±
Ø² Ø§Ø¯
ler i
Ġ om
Ġp ist
ĀĀĀĀĀĀĀĀ ĀĀĀĀĀĀĀĀ
ĠÙĪØ§ÙĤ Ø¹Ø§
8 3
Ù¾ ÙĬ
ĠØ¢ÙĨ Ø¬Ø§
k on
ĠØ§Ø³ Ø§Ø³ÛĮ
ĠÙħØªØŃ Ø¯Ùĩ
ĠÚ©ÙħÛĮ Ø³ÛĮÙĪÙĨ
Ġs Ã©rie
Ġrap port
if e
ĠK ut
ĠA va
Ä ģ
ab et
ÙĪ Ø§Ø²
ĠØ¯Ø§ Ø¹Ø´
196 6
Ø« Ùĩ
ĠÙĦØŃ Ø§Ø¸
u be
ĠØ± Øª
A h
ĠØ¹ Ø¬ÛĮØ¨
Î ¿
ĠC ind
ĠAr jen
ĠØªØ¬ Ø§Ø±Øª
Ġcont rat
iy o
Ġf os
mer ce
ad er
ĠØª Ø±Ø§
Ġmal Ã»m
b Ã®nan
ĠØ¯Ø§ÙĨØ´ Ø¬ÙĪÛĮØ§ÙĨ
ek ariyÃª
Ġx alÃ®
erd ene
ĠOc alanÃ®
Ġamad ebÃ»na
Roj ekÃª
! "
v aniya
Ġbi pÃªÅŁ
Ġdest Ã®
s erÃ®
Ġder san
Ġkar ek
ĠBer zanÃ®
ĠYil diz
ĠEkr em
ĠnivÃ®s ar
Ġderd or
ĠGel iyÃª
Ġxem gÃ®nÃ®
Ġveb er
ĠÅŀing al
Ġmeras Ã®mÃª
ĠavÃªt iye
Ġk ÃªrÃª
Ġz evÃ®
Ġzan ayene
ĠmeÅŁ and
Ġbig ota
Ġkurmanc iya
Ġhewc edar
Ġmezin an
ĠBaÅŁ urÃª
ĠKan adayÃª
day Ã®nÃª
ey nÃª
ĠhebÃ» ya
Ġkars az
Ġnuk le
ĠrÃ»m etÃª
Ġk Ã®r
ĠPirs girÃªka
r eyÃªn
avÃª t
ĠØª Ø§Ø±ÙĬ
ĠÅŁÃªwaz Ãª
ĠØ± Ø®
ĠErmen iyan
ÛĲ Ø¯ÙĪ
ĠØ§ÙĦ Ú©ØªØ±ÛĮ
ĠØ¯Ø§ÙĨ Ø³Øª
ĠØ´ Ø´Ùħ
us h
Ġpart ir
Ø§ÛĮ ÙĨØ¯
Ø§Ø±Øª ÙħØ§ÙĨ
v o
ĠÚ©ØªØ§Ø¨ Ø®Ø§ÙĨÙĩ
ĠØ¬Ùħ Ø¹ÛĮØª
ĠrÃ©g ion
Úļ ÙĪØ¯
y le
ĠZ ar
Ø§Ùģ Ø¹
ĠH um
ĠØ¨ Ùħ
Ã©s ent
ĠÙĩ ÙĪØ±
Ġde t
Ã¨ le
ĠÚī Ø§Ú©
Ġdi plom
ĠØ³Ø± ÙĪØ±
v en
Ġfem mes
Ġd ox
ĠÚ©Ø´ ØªÛĮ
ÙĦÙĪ Ø¨
jo urd
ØªÙĩ Ø§
ĠB oy
198 1
V ous
Ġen s
Ġu p
Ġf ant
urt out
ĠÙĦ Ø®ÙĪØ§
I D
Ø¯ Ø§ÛĮ
Ġsouv ent
ĠCh rist
Úļ ÙħÙĨ
ĠØ®Ø¨Ø± ÙĬ
W an
em on
ĠT ora
Ġol an
ĠÙ¾ Ø§ÛĮÛĮ
ĠÚ©ÙĦÛĮ Ùĩ
Ġfil ist
ĠÄ ¥
ĠEÅŁ ref
Ġmet nÃª
Ġney ar
ĠÃ§avkan Ã®yÃªn
Ġdaxuy and
Ġk afir
Ġel manÃ®
Ġhiz rÃªn
Ġlez a
ĠkoÃ§ber iyÃª
Ġtal oq
ĠCih Ã»
Ġmuxalef etÃª
Ġatmos f
Ġm ul
ĠP enaber
net eweyÃ®
Ġqed r
Ġdamez rÃªn
Ġnex asim
Ġprot ok
Ġkompl oyÃª
Ġxwes erÃ®
Ã§ ikÃª
Ġnav an
est ayÃª
Ġdar istan
Ġhunermend Ãª
ĠdiÅŁop Ã®nin
ĠRizg ar
ĠB Ã®ng
ĠJ Ãª
ĠÃ§ar enivÃ®sa
kan iyÃªn
Ġqis e
Ġted awÃ®
Ġlihev kirin
Ġbalaf irÃª
Kon fer
Ġb Ã®l
at Ã®st
Ã®ÅŁ kan
erm enda
Ġna gire
Ġbih er
ĠgirÃ®ng e
Ġwind akirin
ĠnÃ®ÅŁand ana
Ġbi vÃª
Ġdest eka
ĠÅŁer an
ĠgotÃ»bÃªj Ãªn
ĠanalÃ®z Ãªn
ĠniÅŁtec ihÃªn
Ġm if
ĠM Ã»h
ĠF Ã®n
west a
ĠbÃªk es
ĠÅŁÃªwaz Ãªn
b azÃ®
ĠÃİ bn
ĠMizg efta
ĠÅŁ ay
Ġteor Ã®k
Ġday Ã®kÃªn
I M
Ø¯Ø± Ø³
Ú¯ÙĪ ÛĮØ¯
Ġdiafir Ã®ne
Ġqu ality
Ùģ ÛĮÙĦ
es sa
ĠÙħÙĪÙĨ Úĸ
ĠE mer
ĠØ¬Ùĩ Ø§Ø¯
z ilam
m m
n ov
ĠÙ¼Ø§Ú© ÙĨÙĪ
ĠDi j
Ġpouv oir
Ġc is
ĠØ¨Ø§Ø² Ø§Ø±ÛĮ
13 97
ĠÚ© Ø±Ø¨
st ir
__ __
ĠÙĨÙħØ§ÛĮ ÙĨØ¯Ùĩ
e e
ĠØ¬ÙĪØ§ÙĨ Ø§ÙĨ
ĠØ± ÙĪÙĨ
ĠØ¢Ùħ Ø±ÛĮÚ©
Ġe be
Ø´ Ø¯Ùĩ
ĠAn n
ĠÚ¯ Ø³ØªØ±
Ø¯ÛĮ Ú¯Ø±
ĠÙħØ® Ø§Ø·
ow s
ĠV ide
Ġp are
ĠÙģØ±Ø§ÙĨ Ø³Ùĩ
Ġqay de
ĠTeÅŁ rÃ®na
Ġelew Ã®yan
oz Ã®
ap ici
Ġpr om
ĠSelah edÃ®nÃª
ĠÃĩav uÅŁoglu
K oma
Ġpirs gir
Ġguneh kar
q eya
ÅŁ emiyÃª
ĠÃ§ Ã®yan
ĠÃİ dlibÃª
Ġrojnam eyan
ĠPÃªd ivÃ®
Ġal Ãªn
Ġhilbij artÃ®
Ġbelg efÃ®l
Ġnedi xwest
ĠkulÃ®l k
Ġveber hÃªn
Ġbir atÃ®
ĠalÃ® gir
ĠbimeÅŁ e
ĠØºØ° Ø§
ĠHev alÃªn
Ġhest iyÃªn
ĠbilÃ® zin
ĠrÃªw Ã®tiya
Ġxo f
ĠB ikaranÃ®na
ĠpiÅŁ ka
Ġdipey ivin
x ur
Ġz exta
ĠpaÅŁ Ã®n
Ġmet el
Ġrev iya
ĠdÃ®yar kirin
ĠderÃ»d ora
Ġnek ar
ĠhÃ®n bÃ»n
Ġhuk m
Ġsatel Ã®tÃª
ĠÙĪ Ø§ÙĦÙĬ
Ġdil xwaz
ĠmÃ»z Ã®k
Ġ( (
ĠB Ã®z
Ġfelsef eyÃª
ĠK aw
ĠÚ©Ø§ÙĦ Ø§
c ul
ĠwÃªr ekÃ®
Ġf an
ĠÙ¾ÙĪØ´ Ø´
ĠØ§ÛĮ Ø³Øª
ĠÛĮ ÙĪÙĨ
ĠM ont
Ġber e
ĠÙģ ÙĩØ±
Ġko d
Ġs our
R ej
ĠÚī ÛĲØ±Ùĩ
Ġgroup e
Ġch ois
is Ã©
Ã» g
Ġmis e
ĠØ¨ÙĪØ¯ Ùħ
ill et
ĠØ¬ÙĨ Ø³
ĠØª Ø¶
ĠØ®ÙĦØ§ ÙĤ
ĠØ§Ùħ ØªØŃ
ÙĪ Ùģ
ket ing
ÙĪÙħ Ø±Ùĩ
ĠØªØºÛĮÛĮØ± Ø§Øª
Ġch ose
Ġger e
Ġref t
ĠØª ÛĮØ²Ø±
dar e
ĠÙĪ Ø·
ĠFet h
Ġh ic
ib ana
ĠÙģØ±Ø¯ ÛĮ
ĠØ¯ÛĮ Ú¯Ùĩ
Ġgir d
ĠTem o
Ã®l o
ĠÙ¾Ø±Ø¯ Ø§Ø²
Ġyew bÃ®nan
ĠBed ir
ĠR ovÃ®
Ġdib irin
Ġheb Ãª
ĠÃ§ek uyÃª
Ġparlament erÃª
Hev seroka
ĠbirÃªveb ir
ĠEwlek ariyÃª
Ġmuzak er
YAR BEK
Ã®y anÃªn
ĠM erÃ®
ĠSÃ»r ya
ĠÃ§alak vanÃªn
Ġderdik etin
ĠFer atÃª
ĠHey eta
ĠSiya bend
Ġc Ã®v
ĠP JAK
rÃ® cana
Ġxey ala
ĠHun erÃª
l ob
ĠÅŁ andine
ĠS and
ĠÅŁand eya
ĠMil etÃª
ĠPerwerd eyÃª
ĠBingeh Ã®n
ĠÅŁ ef
Ãªk irÃ®
Ġgot Ã®
ang Ãª
Ġdemokrat ik
ĠNivÃ®s karÃª
ew Ã®nin
Ġgel lekÃ®
ĠØ¨Ø±Ø®ÙĪØ±Ø¯ Ø§Ø±
ordÃ®n asyona
Ġyek ÅŁemÃª
ĠDib Ãªje
Ġser dan
Ġq ena
ĠW Ãªran
Ġzan Ã®nÃª
ĠPirs Ã»sÃª
xist iye
ĠÃ®l ona
Ġpes end
ĠXeb atÃªn
Ġm Ã®rÃªn
ĠNav Ã§eya
ĠÙħØ±Øª Ø¨Ø·
Ġpeyw ira
im anÃªn
Ġwesay Ã®ta
Ġtun ene
ev Ã®n
m Ã®r
ĠrÃªveb erÃ®
Ġba cÃª
Ġkevne perest
z arok
l av
ĠÙ¾Ø§Ø± Ú©
sch te
ĠC ans
Ġs iÃ¨
Ùģ Ø±Ùħ
ĠÙĪØ§ Ø®
Ġ| --
Ġg sch
Ġperfor man
Ġglob al
ĠÚ© ÛĮØ³
ĠK em
3 20
ĠØ¨ Ø³Øª
ĠÙ¾Ø± ÙĨØ¯Ùĩ
ØªØ± Ùħ
ĠØ´Ùħ Ø§Ø±
ĠÙ¾Ø±Ø³ Ø´
Ú« ÙĦ
ĠF ree
ĠÙĩÙĨ Ø±ÛĮ
v in
Ã¼ s
ĠØ´ÛĮØ± Ø§Ø²
Ġmor al
Ġh ek
ĠÙ¾ÙĨØ¬ Ùħ
ĠÙħØ´ Ø§Ø±
Ġli st
ĠØ¨Ø§Ø´ Ú¯Ø§Ùĩ
G ul
ĠÚ©ÙĦ ÙĪÙĨÙĪ
Ġev an
ĠN if
Ùĩ ØºÙĩ
ĠX am
Ġaut om
ĠØ§Ø³ØªÙĤÙĦ Ø§ÙĦ
N Ã»Ã§
n uÅŁt
en h
ĠR oÅŁan
Ġwelat perwer
Ġbiryar an
Ġkarbidest Ãªn
ĠS ol
ĠstÃªr k
ĠÃ§ Ã®ya
ĠG erd
ĠSim ko
at eke
ĠRÃ»s Ã®yayÃª
Ġbaly ozÃª
ĠMexm Ã»rÃª
Mecl Ã®sa
ew ropÃ®
ĠP Ã»tÃ®n
Ġve xwe
ĠbÃª y
ĠÃ® xt
Ġdil Ãªn
ĠbirÃ®ndar Ãªn
ĠÅŁik lekÃ®
for mÃª
ĠBaj ar
ĠNewro za
ĠHiz bullah
ĠÙĤÙĪØ§ÙĨ ÛĮÙĨ
Ġserok omarÃª
Ġab Ã»rÃ®
ĠmÃ®l yar
Ġkomel eyÃªn
Ġgaran t
ĠFarq Ã®nÃª
Ġzelal kirin
Ġronak bÃ®r
Ġbik art
Ã®ÅŁ e
ĠsivÃ®l Ãªn
ĠDib istana
ĠØªØ® Ùħ
ĠDeng bÃªj
xwe z
Ġxeb erd
Ġved iq
Ġdigih Ã®ne
ĠSiya seta
Ġsef era
ik Ã®n
oj Ãª
Ġdin ÃªrÃ®
Ġp ozÃª
kes Ãª
ĠC ette
ĠÃ§er xa
ed arÃ®
Ġney n
Ùħ Ø§Ùĩ
ĠØº Ø±
ĠÚ¯Ø° Ø§Ø´Øª
ĠR ed
ĠØ¹Ùħ ÙĦÙĬ
ĠÃ¼ ber
ĠÙĩÙĪØ§ Ù¾ÛĮÙħ
Ġvide o
ĠÙĪ Ø§Ø±
ĠZ ilam
Ġa da
) âĢĿ
Û² Û²
ĠC es
ĠÙħØ¬ Ø§Ø²
ĠØ§ÙĨØ¯ Ø§Ø²ÛĮ
Ġt ant
ĠØ§ØªØŃ Ø§Ø¯ÛĮÙĩ
ĠØªÙĪØµ ÛĮÙĩ
Ġv Ã©r
ĠdÃ© f
Ø· ÛĮ
19 18
Ø¢ ÙĪØ±ÛĮ
uz z
v ir
Ġqu estion
h y
Ġpet ite
Ġes s
196 3
N ew
nam a
ĠØ¢Ø³ÛĮ Ø§
j our
ĠÙĨ Ø§Ø²
ier re
Ġe man
ĠØŃ Ø§Ø¬
ĠÙĦ Ø§ÛĮ
Ġsit es
Ġsa is
k ut
Ġli j
ĠF olkl
197 6
ĠpÃª sh
Ġserok omar
ĠalÃ®k arÃª
ĠUn Ã®vers
ĠQed rÃ®
ĠÅŁehad etÃª
Ġmecb ur
Ġwesay it
ĠzÃ®hn iyeta
ĠD Ã®m
ĠPKK yÃ®
ĠnÃª eÅŁk
Ġbix Ãªr
Ġveger Ã®ne
ĠH Ã®t
ĠR Ã»h
Ġdem sala
iÅŁ e
Ġhin dÃ®
ĠMÃ®r za
ĠÃ®de olojiya
ĠnÃªk eno
Ġbext ew
ĠerdnÃ®g ariya
ebal ix
g anÃ®
Ġk alan
ĠTirk Ãªn
ĠRoj ekÃª
Ġdim irin
Ġradiwest e
Ġberam ber
Ġalik ariya
Ġs ÃªÅŁ
Ã»s Ãªn
Ġkey eyÃª
W ez
ey iya
Ġre aks
Ġen dÃ®
Ġdij warÃ®
ĠHev alÃª
Ġnab Ãªje
ĠPey va
Pir aniya
ĠHil bijartin
Ãªr iya
Ġniz m
ĠdÃ®plom asÃ®
PirtÃ»k a
d ayÃ®n
ĠÚ©Ø§Ø± Ø´ÙĨØ§Ø³ÛĮ
ĠorganÃ®z ekirin
Ġkom eleya
Ġey b
ĠSemal tÃª
Ġvo it
ĠØ§ÙģØºØ§ÙĨ Ø§ÙĨÙĪ
ĠY al
eb i
ĠÙĩØ³Øª Ùħ
ĠÚ©Ø´Ø§ÙĪØ± Ø²ÛĮ
r ie
ĠØ¨Ø± ÙĪ
ĠØªÙĤ Ø±ÛĮ
i ens
ĠØ´ÙĩØ±Ø¯ Ø§Ø±ÛĮ
fa be
' ,
ĠØ± Ø³Øª
198 5
S a
ĠG eneral
G r
: "
Ġo der
ous e
ĠDan mar
Ġ <
Ø² ÙĨ
ĠÙĪ ÛĮØª
Ġrek lam
n n
S i
ĠÚ©Ø§Ø± Ø¯
ĠÚħÙĦ ÙĪØ±
ĠØ®Ø¯Ø§ ÙĪÙĨØ¯
Ġbas e
os es
ĠØ±Ø³ ÛĮØ¯Ùĩ
ĠØµØ§Ø¯ ÙĤ
Ġmus ulman
Ġmari age
ĠH und
ĠÙħ Ø§Ø¯
Ø« ÛĮ
R ay
Ġan al
ĠÙħØ±Ø§ ØŃÙĦ
ĠØ¯ÙĪ Ø§Ùħ
Ġbed el
ĠZ Ãªb
ĠÃĬzÃ®d Ã®yan
ĠPA JK
Ġnamz etÃªn
Ġdik anÃªn
ĠEr dÃ®
ĠBir ayÃª
Ġze Ã®f
Ġhem pa
ĠÅŀ i
rÃ» be
dewl et
ĠrabÃ» ye
ĠSÃ®n em
Ġk Ãªn
Ã®y ena
ĠB adÃª
Ø§ÛĮ Ø³Ùĩ
Ġne zanÃ®
un Ã®
Ġzor dariya
Ġnetewe perest
ĠÅŁared arÃ®
Ġqes ra
Ġmebest Ãª
ĠÙĨÙĩØ§ÛĮ Øª
ĠG ultan
Ġderb arÃ®
ĠbaÅŁ urÃª
dan ka
ĠbihÃªz tir
Ġbixeb ite
ĠQad ir
dÃ® tina
ĠQ as
ĠÅŁer vanan
tern asyon
Dewl etÃªn
ĠakademÃ®sy en
ĠB Ã»r
ĠØº Úĸ
Ġpl anÃª
ĠkÃ»r ahiya
Ġbandor ek
nivÃ®s Ãª
r anÃ®
Ã®g a
av el
ĠÚ© Ø±ÛĮ
ĠT Ã»r
Ġhat ime
Ġem Ã®n
eq e
Ġcih Ã»
Ġdewlet ekÃª
ĠdiÃ§ im
ĠPir sa
ĠSey dayÃª
Ġkal Ã®te
Ġbl oka
Ġsip as
ĠpiÅŁt guh
DÃİ HA
ĠGotin Ãªn
Ġmoh ra
ĠÃ§Ãª l
ĠAs ayiÅŁa
ĠAnadol uyÃª
Ġl ok
ĠgÃ» her
ï »
at iyÃªn
Ġwerdi gire
ĠØªØ± ÙĦØ§Ø³Ùĩ
Ã© ch
Ġm Ä±
ĠÙħØŃ Ú©
Ú¯Ø±Ø¯ Ø¯
ĠØ³Ø±Ø§Ø³ Ø±
ĠÙħØ§ÙĨ ØªÙĪ
on ne
ĠÚĨ Ø§ÙĦ
ÙĪ Ú¯
Ġp on
ĠÙħÙĦ Ú©
ĠX at
ĠÙĪØ±Ú© ÙĪÙĬ
um at
ex e
Ø¦ ÙĨ
ĠPl ay
Ù¾ Ø°ÛĮØ±
Ġso ir
ĠØ´Ùĩ Ø§Ø¯Øª
ĠÙħØ§Ùĩ ÛĮ
ÙĪ Ø°
ĠØ±Ø³ÛĮØ¯ ÙĨ
Ġeff et
Ġpost a
er c
ĠL eh
Ø® Ø§ÙĨ
da w
ĠØ® ÙĨØ¯Ùĩ
ĠØª Ø¯Ø±ÛĮ
ĠC or
ste in
ĠÙģ ÙĨØ¯
Ø² Ø§ÛĮ
ĠØ¯ Ø§Ø±ÛĮ
Ġpr iv
Ġa fr
un es
19 19
l ey
r ara
ĠÚ©ÙĪØ± ÙĨÛį
ĠÙĦ Ø³
ĠÙĤØ§ÙĨ ÙĪÙĨÛĮ
ĠØ® Ø§
M ela
ok ek
M ij
t erÃªn
Ġde ÅŁta
Ġhewc eyÃ®
ĠSerd oz
Ġkurd Ã®ya
ĠnivÃ®s ek
Ġkam il
ru pa
ay nÃ®
Ġser ma
Ø¬ Ø§Ùħ
Ġxist ibÃ»
Ġwext o
h erÃª
ĠNivÃ®s karÃªn
Ġkompl o
ĠQendÃ® l
ĠÅŁir Ã®k
ĠÅŁirk etÃªn
Ġx end
Ġhev serokÃª
Ã®t iyÃªn
ĠaÅŁt Ã®yÃª
Ġteng as
ĠDuh ok
ĠØ¦ ÛĲ
Ġb ÃªjÃ®
Ġber Ãªn
Ġgund iyÃªn
mez in
el Ã®nin
ĠSer bixwe
Ġse et
19 24
Ġtun ebÃ»n
ĠrÃªz girtinÃª
ĠSÃªw asÃª
ĠQos erÃª
Ġambar g
Ġtev kuj
ax an
ĠFaris Ã®
Ġfakt orÃªn
ĠL Ã®
ĠpÃªk vej
m ij
Ġfelsef Ã®
c Ã®n
Ãĩ LU
Ġzer eyÃª
Ġmecl isÃª
ĠGU ÃĩLU
ĠÅŁoreÅŁ Ãªn
ĠfaÅŁ Ã®zma
ap p
and ana
Ġposs ible
Ú¯Ùĩ ÛĮ
Ġtakek es
e ux
ĠÚ¯Ø±Ø¯ ÛĮØ¯
ĠØ¨Ø® ÙĪ
K o
Ġh um
Ġsel on
ÙħØ¯ ÛĮØ±
Ġres s
ĠØ§ØŃØªÙħ Ø§ÙĦ
ĠK art
ĠØ³ÙĤ Ùģ
ĠØ £
Ġbo ut
it ement
ĠÙĤ ØªÙĦ
z t
ÙģØ±Ø§ÙĨ Ø³
ĠÙĪØ¨ ÙĦØ§Ú¯
Ġg ard
ĠÙĨ Ø¹
Ú©ÙĨ ÙĨØ¯Ùĩ
9 00
Ġre ste
Ø¬ Ø§ÛĮÛĮ
ĠØ¬ Ø§ÛĮÛĮ
v es
Ġv ena
ĠÚ« Ù¼Ùĩ
ĠØ§Ùħ Ø±ÙĪ
ĠØ¯ÛĮ Ø¬
ĠØ¬Ùħ Ø¹Ùĩ
ĠØ§ ÙĦÛĮ
Ġda di
ĠW ar
ĠØ¹Ø±Ø¨ Ø³ØªØ§ÙĨ
ĠØŃ Ø²Ø¨
ĠÙģÛĮ Ø²ÛĮ
as ib
ĠØ¢Ù¾ Ø§Ø±Ø§Øª
Ġli gor
Åŀ ivan
Ġbah sa
Ġkomel eyÃª
ĠrÃªx si
Ġday o
Ġewlek arÃ®yÃª
ĠnÃªb o
ek Ã®n
ĠÃ§alak Ã®ya
ĠjÃªd erÃªn
Ġstend in
ĠjinÃ» ve
Ġder engÃ®
ĠbÃªhtir Ã®
Ġkel ecan
Ġopoz Ã®syonÃª
ĠÃ§ ekÃª
ew ice
Ġguh erÃ®
ĠhÃªj Ã®
Ġveger andina
ĠOz gur
ĠbÃª bin
ĠC Ã®
Ġday ikÃªn
ĠErd al
ĠÃ®l ahÃ®
Ġnetew Ãªn
ĠbibÃ®r anÃ®n
YekÃ® tiya
Ġanc ax
Ġney arÃª
Ã®y ayÃ®ÅŁ
ĠdÃª Ã»b
Ġrojnam evanan
ĠsÃ®nor dar
ĠrÃ»x andina
ĠCum hur
ĠBidl Ã®sÃª
Ġderf etan
Ġxebit andin
Ġg Ãªj
ĠÅŁar istanÃ®
ĠÚļ Ø§Øº
zan Ã®n
Ġrojav aya
Ġagahdar iyÃª
Berhem Ãªn
Ġzeyt Ã»nan
Ġrej imÃª
icros oft
ĠØ§ÛĮØ³ ÙĨØ§
ĠØ´Ø¯ ÛĮØ¯
Ġap pl
Ø§Ø´ ØªÛĮ
ĠPh ot
ĠEv a
Ã ¬
ÙĨØª ÙĪÙĨ
Ġco ok
Ġde ne
om as
ĠB ok
ĠØ®ÙĦØ§ ØµÙĩ
ĠÚħØ±Ú« ÙĨØ¯
Ġs af
ĠÙĦ Ú«
ĠÃ ħ
ĠØ¢ÙħÙĪØ² Ø§ÙĨ
Ġa ch
ĠØ¯ ÙĤØª
ĠÙĪ Ùħ
k y
ĠH TM
ĠØ¢ ÛĮØ¯
ĠÙħØŃ Ø³ÙĪØ¨
ĠÙģÙĦØ²ÛĮ Ø§Ø¨
Ġco ule
ĠÙģÙĩØ± Ø³Øª
ĠØ¬ Ø¯ÛĮ
Ãªv a
A zad
Ġbi ber
ah Ã®yÃªn
ĠBa gera
ĠMust efa
Ġkonf eder
Ġn iyeta
Ġkom Ã®syona
ĠÃĽ m
Ġgr Ã®ng
Ġereb kÃ®
Ġzehmet iyan
Ġserbil indÃ®
ad ost
Ġnas kir
Ġbal kiÅŁ
Ġqir ika
Ġfe al
ĠMHP Ãª
ĠÃ§ Ãªr
ĠÅŁermezar kirin
Ġrojnam a
Ġbas kÃ®
ĠdirÃ»ÅŁ m
Ã®n erÃª
af tinÃª
Ã»m eta
Ġdes elat
Ġencam an
ĠrÃªbaz Ãª
Ġbit enÃª
Ġferz kirin
TÃªk il
t ekÃ®
v ayÃª
ar eya
Ġder ekÃª
ĠØ³Ø§ÙĦ ÙĨ
ĠZag ro
Ġbin ih
ĠÚ¯ Ø²ÛĮÙĨÙĩ
Ġbil Ã®ze
ĠrÃªz girtina
ĠvÃ®n dÃ®
Ġqereq olÃª
in in
ber dana
Ġh Ã®d
Ġl et
Ã§ Ãªn
Ġgew re
Ġberhev kirina
Ġv oya
Ġezm Ã»na
ĠØ®ÙĪØ§Ùĩ ÛĮÙħ
Ġbeh r
Ġberev aj
ÙĪÛĮ Ø§
Ãªrs im
z i
ĠÙ¾ ÛĮÚ©
ĠØ±ÙģØª ÙĨ
d t
Ã¤ Ã¤
Ġfab r
ĠÙ¾ Ú©ÛĲ
ĠØ±Øª Ø¨Ùĩ
as n
ĠØ° Ùĩ
U K
ib i
ĠÙħÙĪ Ø®Ùĩ
ĠØ´ÛĮ Ù¾ÙĪØ±
ĠØ¹ ØµØ±
ĠØ³Ø§Ø®Øª Ø§Ø±
t era
ist oire
ĠÙħ Ø®Ùĩ
ĠD ak
Ġprop ose
ol ution
ĠA F
ĠÙĨÙĤ Ø¯
id es
ĠÙĨÙĪÛĮ Ø³ÛĮ
ĠØµ ÙĦØŃ
ĠdÃ©b ut
Ġk ot
ĠØ¹Ùħ Ø¯Ùĩ
if ier
ĠK ek
ĠAl b
ĠÚĨØ§Ø±ÙĪØ§Ú© ÙĪ
ĠS iw
ĠMos kov
ĠÙ¾ÛĮØ´ Ø±ÙģØª
Ġwes Ã®leya
Ġp ewÃ®st
Ġhev ra
Ġman aya
ĠgiÅŁt pirs
ĠRÃªj Ã®ma
ar eyÃªn
Ġn Ã®nan
ĠB ism
Ġhev welat
ĠAz irbÃª
Ġmetirs iya
Hes en
iy eyÃ®
Ġt orÃªn
ĠbÃ»n Ãª
rat ej
ĠÃ§Ã» bÃ»n
Ã»ÅŁ a
ĠDest hilat
Ġqez ayÃª
ĠgihÃ®ÅŁt e
Ġrojnameger an
ĠnikarÃ® bÃ»
ĠFacebo okÃª
Ġmim kun
n eke
Ġe yan
Ã®l ayÃªn
ĠPart iyÃªn
ĠdanÃ»st andinÃª
Ġkr Ã®z
Ġqetil kirina
Ġxuy aye
Ġsir uÅŁt
Ġkons ep
ĠBÃªr Ã®tan
n iya
Ã®st iyan
Ġyek bÃ»na
ĠEw rup
ĠÙħÙĤ Ø§ÛĮØ³Ùĩ
ĠEnc umena
Ġfirok eyÃªn
ĠZeyt Ã»nÃª
Ġdi geh
Ã®n s
Ã§ Ã»y
Ø§Ø± Ø¯ÛĮ
ĠbÃª xwedÃ®
Ã®z im
Ġgotin ek
Ġxir istiyan
ĠavÃªtin e
ĠtÃ®r ÃªjÃªn
Ġwef ata
ĠtexmÃ®n kirin
z iman
ĠnÃ®ÅŁan eya
Ġcur bic
ĠkÃ®m yayÃ®
Ġqurban iyÃªn
ĠQ ay
ĠQ ere
Ġwer girin
Ġdiz iv
Ġdom andina
Ġsib atÃª
uks elÃª
Ġwerbi girin
Mih emed
ĠpÃªk ve
Ġenc Ã»mena
ĠrÃªz efÃ®l
Ġavakirin Ãª
Ġnif ÅŁÃª
Ġay etÃªn
q el
ĠØ³ÙĪØ±ÛĮ Ùĩ
iy ayÃªn
Ġneket iye
Ġveguhast ina
ĠÙĨÙħ Ø§Ø²
ĠSel Ã§
ĠØ¹ Ú©
ĠÙħÙĤ Ø¯Ø§Ø±
ĠÚħ ÙĨÚ«Ùĩ
I V
Ø´ ÙĩØ±
ĠP ost
Ġtirk iyÃª
ĠW a
ĠØ¯Ø¹ ÙĪØª
Ø³Øª ÛĲ
Ú¯ Ø´Øª
in te
Ø±Ùģ Ùĩ
est e
19 23
ĠØ· Ø±Ø²
ĠØ¨ ØµÙĪØ±Øª
Ġdu d
b le
ĠN ov
ĠdÃ©c Ã¨s
ĠÙĦ Øº
ĠD iz
ĠØ¨ÙĨ Ø§Ùħ
ĠÙĨØ§Ø±ÙĪ Øº
ent er
min ist
ĠÙ¾Ø±ÙĪ Øª
ĠØ¨Ú¯ÛĮØ± ÛĮØ¯
in form
ĠY ork
r er
we d
ĠS on
A y
ĠY en
ol es
ĠÙ¾ÙĨ Ø§Ùĩ
Ġv idÃ©
ĠC D
198 6
ĠØ§Ø±Ø¯ ÙĪ
ĠÃ µ
Ġbet ting
ĠÙĩÙħÚĨ ÙĪÙĨ
eb aran
F D
ĠÅŀÃªx o
reng dÃªr
er ebÃ®
Ġdir Ã»
Ġberpirs yarÃª
Ġhim berÃ®
Ġteb axÃª
ĠØªØ±Ú©ÛĮ Ø¨
k Ã®ya
ĠQ azaxistanÃª
Ġxurt kirÃ®
Ġdixw Ã®nim
Ġmecl isa
Ġhikum etÃª
ĠMc Gurk
ĠBeÅŁÃ®k Ã§Ã®
Ġt orÃª
Ġc ema
ĠE gÃ®d
Ġber ya
Ġdest p
ÃªÅŁ Ã®ne
ĠHem e
hÃªn er
ĠÃİn c
ĠTeb qayÃª
Ġnedik arÃ®
ĠtespÃ®t kirin
Ġl Ã»t
ĠÃĩ iqas
ĠhÃªr iÅŁ
ĠnÃ®qaÅŁ kirin
Ġmisilman Ãªn
Ġserkird eyÃªn
R Ã»s
Ġs eke
Ġx Ã®ret
ad Ã®n
xist Ã®
Ġkal Ã®teyÃª
Ġnamz etÃª
ĠÃ®mz ekirin
meq am
ĠDÃªraz orÃª
Ġdik ana
ik Ã§i
Ġkir ibin
iz Ã®n
Ġhelwest Ãª
ĠRec eb
ĠvekiÅŁ Ã®na
ĠXeb ata
Ġserkeftin Ãªn
Ġsen ar
ĠevÃ®n darÃª
n Ãªr
ĠnexweÅŁ xaneya
Ġteror Ã®zmÃª
Ġof Ã®sa
c Ã®h
Ġz extÃª
ĠhilweÅŁ Ã®na
ĠgihÃ®ÅŁt ine
Ġwekhev iyÃª
ĠEnc ama
im Ã®n
Ġes lÃ®
Ġhest a
Ġhet anÃª
ex Ãª
PAR Ãª
Ġdihes ibÃ®nin
ehl ewÃ®
Ġbi firoÅŁ
Ġaj al
ĠmÃ»z Ã®ka
Ø§ Úĺ
ĠØ±ÛĮ ÛĮØ³
Ġg ama
ĠS af
Ġdib ine
ĠÙ¾Ø´ØªÛĮ Ø¨Ø§ÙĨÛĮ
Ġcivak e
on es
t d
ĠPa ul
o ch
ĠS ez
Ġinform ations
ĠÙħØ¯Ø§Ø± Ø³
ak er
ĠØª Ø¦
Ã¨ te
ĠÙħ Ø§Ø³
ĠØ§Ø³ ÙĦ
ØŃ Ø§Øª
Úĸ ÛĮ
A d
Ġim p
it ez
m and
ĠØªÙĤ ÙĪÛĮØª
ĠÙĨ Ø®ÙĪØ§ÙĩØ¯
ut a
ĠØ§Ø¯ Ø§Ø±ÛĲ
an c
ĠP eter
ĠØ§ÙĤØ¯Ø§Ùħ Ø§Øª
ĠÚħ ÛĲ
op a
s az
ĠØ´ Ø´
ĠG en
Ġv ale
Ã¶ m
eb ek
ĠQ ub
ĠS az
ĠØ¹Ø§Ø´ÙĤ Ø§ÙĨÙĩ
M ust
ĠØ§ØŃ ØªØ±
Z Z
Ġde leg
ed ik
l aw
ar k
ĠA ust
med ia
ĠÙ¾ÙĪ ÚģÙĬ
âĢĺ âĢĺ
ĠD ima
ĠF ik
Ġ Êķ
Ġl Ã»l
ĠL azim
Ġhem leya
Ġtev de
Bi xwÃ®ne
eÅŁt a
Ġener jÃ®
ĠqetlÃ® amÃª
ĠÙģØ¯Ø± Ø§Ø³ÛĮÙĪÙĨ
an avÃ®n
Ġser t
ĠÃªrÃ®ÅŁ kar
Ġhewil dana
Ġserket in
ĠHat ayÃª
ĠN Ã®j
ĠCiw anan
Ġdemokras Ã®yÃª
Ġp Ã»ÅŁ
en na
am Ä±nÄ±
Ġderd i
ĠpirtÃ»k eke
ĠKurdistan iyan
Ġsur yanÃ®
ĠAn q
ĠaÅŁ itiyÃª
Her weha
Ġseb ebÃªn
Ġpis m
ĠSed em
ĠMuh emed
Ġder Ãªn
ĠÃ§av ekÃ®
ĠqÃ®m etÃª
Ġdij iyan
Ġpar zem
ĠÅŁik estÃ®
Ġderv ayÃª
ĠlÃ®stik vanÃªn
ĠÙħØ´Ø®Øµ Ø§Øª
G und
r il
ĠØ¹ ÛĮØ¯
Ġdir eve
Ġgih andin
Ġveguher Ã®nin
n asÃª
Ġn Ã®g
iqu er
Ġfes ad
Ġdinirx Ã®ne
x ir
iq Ã®ne
p aÅŁ
ĠÃ§ ende
ĠkeÃ§ ika
Ġbil ey
ĠÙĪØ± Ø³
sÃ®k lop
ĠÙĪ Ø§Ø³
ĠØ§Ø´Øª Ø¨Ø§Ùĩ
ĠSÃ»r Ã®yeyÃª
Ġn it
ĠR ez
P r
ĠØ§Ùħ ÙĪØ²Ø´
Ú¼ ÛĲ
Ġm ens
ĠØ§Ø® ÛĮ
ĠEn er
ĠÙģØ±ÙĩÙĨÚ¯ÛĮ Ø§ÙĨ
ĠØ§Ø±Ø²ÛĮ Ø§Ø¨ÛĮ
ĠØ§Øµ Ø·
Ġju in
ix um
at ique
ĠØ¢Ø² Ø§Ø¯ÛĮ
Ø®Ø± ÛĮØ¯
ĠØº Ø±Ø¨ÛĮ
ĠÙħØ±Ø¯ Ø§ÙĨ
Ġpar l
ĠN ar
Ġem er
Ġv end
ĠV ol
ĠÙħØ·Ø§ÙĦ Ø¹Ø§Øª
R A
Û² Ûµ
Ġn or
O T
ĠE st
Ġra b
Ġex emple
ĠØ·ÙĦ Ø§ÛĮÛĮ
ĠÙħ Ø¸
ĠÚ¯ ÛĮÙħ
ep e
Ã©t Ã©s
Ø¢Ùħ ÙĪØ²Ø´
ĠÚ¯ ÙĨØ¬
m od
Ġmil k
ĠÙĨÛĮØ§Ø² ÙħÙĨØ¯
Ġh ole
Ġpar c
Ġphot os
Ġs urtout
âĢľ ,
ult ure
ĠGul en
ĠÙħØ± Ø²
ĠÚ© ÙĨØ¯ÙĩØ§Ø±
onn ement
ĠAz erÃ®
ĠKirm aÅŁ
W Ãªne
Ġl ema
ĠG ult
ut Ã®
ĠpiÃ§ ekÃ®
DI YARBEK
Kon greya
DIYARBEK IR
Ġser Ãªn
Ġwan e
Ġsed hezaran
rÃ» pa
ĠkÃ®l o
ĠKoÃ§ er
Ġfeder asyon
ĠÃªÅŁk enc
ĠÃªÅŁk ence
F Ã®l
Ġn enivÃ®s
ĠR oma
Ġheb Ã»nÃª
ĠXel kÃª
ĠÅŁew ata
ĠbeÅŁdar Ã®ya
aÃ§ an
Ġaz m
Ãªkirin Ãª
Ġzah met
ĠÃĩun ke
T enÃª
Ãªr kÃªn
Ġgel ekÃª
Ġdest gÃ®r
Ġkom bÃ»na
ĠRus yayÃª
Ġnexwe nd
Ġna girin
Ġberd ide
Ġhav Ã®n
Ġang aÅŁt
ĠPÃªnc ÅŁemÃª
Ġenc ax
Ġteq iya
Ġxirab Ã®
Ġz iyanÃª
Ġguh dariya
Ġneh iÅŁtin
Ġbuh urÃ®
ĠÅŁeng alÃª
d ÃªrÃ®
Ġn iÅŁan
Ã®n or
ĠK DP
Ġgul an
Ġxey alan
Ġlew az
Ġduh Ã®
ĠkÃ®lomet re
w anÃªn
ĠgirÃ®ng tir
ĠÙ¾Ø±ÙĪ ÙĨØ¯Ùĩ
ĠÃ®m per
Ġberhev kirin
art icle
ĠÃ§avkan iyÃª
ĠB Ã»l
Ġd arÃ®
Ġx edar
Ġman eyÃª
Ġley ist
Ġcerta ins
ĠF re
ĠÙ¾ Ø¯ÛĮØ¯
ĠØ±Ø§ÙħÙĨÚģ ØªÙĩ
ĠØ§ÙħØªÛĮ Ø§Ø²
ĠÙĨ ÛĲ
ĠØ¢ÙĪØ± Ø¯Ùĩ
196 5
Ġam edÃª
ĠØºÙĪÚļØª ÙĨÙĩ
ĠÙĤÙĩØ± ÙħØ§ÙĨÛĮ
Ġv in
ĠØ³ÙĪ Ø®Øª
if f
per t
ĠzayendÃ® tiyÃª
ĠÙĨÙĤ Ø·Ùĩ
ĠfranÃ§a is
ĠM ED
ĠÙħØ¹Ø§ ÙĪÙĨ
8 4
Ġv eh
ĠÙĩ Ø±Ùĩ
ĠG a
ĠÙĪ Ø§Ø¨
ĠÙħÛĮÙĦÛĮ ÙĪÙĨÛĮ
ma st
Ġb Ã©n
Ú© Ø§Ùħ
ĠØ§ÙĦ Ø§ÙĨ
ÛĮ ÛĮ
Ú¯ Ø§ÙĨÛĮ
h na
b all
ĠØªØ² Ø±ÛĮÙĤ
ĠØ³Øª Ø§Ø³ÙĪ
Ġmer e
ĠÙ¾ Ø§Ø¯
ĠB and
Ùħ Ø¯ÛĮ
ĠØ± Ø¹
ĠS ew
Ä ħ
Ġg am
Ø³ÙĪÙĨ Ú¯
ĠØ²ÙĬ Ø§Øª
ĠÙĤØ· Ø¹
ĠÙħØªÙĪØ³ Ø·Ùĩ
ĠÙĪØ±Ú©Úĵ ÙĬ
ĠØ¯ÛĮØ¯ ÙĨ
ĠÚĨ ÙĦ
C e
Ù¡ Ù
z ar
uv re
Ġk ek
Ġaj ot
ĠMos k
Ġq il
Ġem n
Ġqisey kerdiÅŁÃª
Ġsal ona
aÅŁ Ãªn
Ġqez enÃ§
ĠTur kÃ®
ĠÃİ h
ĠX oy
Ġagah Ã®yan
Ġbij artin
Ġgav ek
Ġnab Ãªjin
ĠÃ®st ixbar
ĠtÃ®r meha
Ġrojhilat Ã®
ĠNec med
X uda
Ġs isÃª
Ġq Ã»r
Ġmal eke
ĠÃĩ axÃª
din Ã®
ĠpÃªwÃ®st iyÃªn
ĠEd eneyÃª
Ġteke zÃ®
Ġh ÃªÅŁ
ix ul
Ġdizan ibÃ»
Ġnavend eke
ĠMij ara
Ġzek atÃª
Ġhevj Ã®na
ĠpeywendÃ® dar
ĠÃİsk ender
ĠJ inÃª
Ãĩ ar
ĠEbdul lah
Ġzem anÃª
Ã®st Ãª
erok a
Ġdiyar kirÃ®
Ġtun ebÃ»nÃª
Ġqew m
Ġbas k
ĠMek sÃ®k
ĠÅŁagirt Ãªn
g Ã®h
Ġf ÃªkÃ®
Ġkar Ã®n
Ġkar anÃ®n
ĠDay ika
Ġhef te
Ġk Ã»l
ĠBot anÃª
ĠØº Ø§
Ø¹Ùĩ Ø¯
Ġjiyan e
ĠbikarhÃªn erÃª
Ġderb eya
Ġxel atÃªn
m l
Ġzek at
Ø±Ùħ ÙĨ
ĠmilÃ®t anÃªn
ĠØ² Ø±Ùĩ
t ev
ĠÅŁÃªwaz eke
ĠÙĨØ¸ Ø§Ø±Øª
Ø± Ø¦ÛĮØ³
Ġa ff
Ġsp ort
ĠM ike
Ø¯Ùĩ ÙĨØ¯
ĠO d
ã ģ
Ġdiff ic
aut re
ĠØºÙħ Ú¯ÛĮÙĨ
ĠÙĩÙħ Ø§Ùĩ
Ġpar ce
Ø´ Ø§Ø¯
or ta
Ġje u
n en
ĠBel g
Ã©r er
ĠÙħØŃ Ø±Ùħ
ØŃÛĮ ØŃ
Ġe urop
man uel
ĠÙĤ Ø¯Ùħ
ĠÙĨÙħØ§ÛĮ ÙĨØ¯
ĠÙĨØ¸ ÛĮØ±
ĠH ic
ĠÙĪ Ø¬Ùĩ
Ġis lam
ation ale
Ġap pel
ĠM ot
ĠÙĩÙĬ ÙĪØ§Ø¯
ĠN ic
ĠØ®Ø¯ Ø§ÛĮ
ĠÙ¾ ÙĪØ±Øª
Ġal s
ĠÚ¯ Ø§ÙĩÛĮ
ĠÙĪØ³ ÙĦÙħ
ĠG ab
ĠÙĪÙĦØ³ ÙĬ
Ġtem b
w ane
Ġc ay
ĠK ed
ĠÙħØ¬ Ø§ÙĩØ¯
ĠØ§Ø± Ø²Ø§ÙĨ
Ġs ot
Ġau jourd
ĠKo al
ES S
ĠØ³ÙĨÚ¯ ÛĮÙĨ
ĠÙĨÙĤ Ø´Ùĩ
ĠK ODAR
Ġhaw ay
ĠTekoÅŁ erÃª
Ãªn d
Ġv atÃªne
Ġroj in
aw anÃ®
ĠÃĩ in
ĠMij dara
Ġv erÃ®
ĠM Ã®t
Ġdir evin
Ġqel em
ĠÃ§andin Ã®
ĠYew nanÃ®
Ġmum kin
Kur man
rÃ®b en
ĠMidy adÃª
ĠÚ¯Ø³ØªØ± Ø´
Ã» zÃª
is in
Ġax ir
ĠeÅŁ Ã®ran
ĠrÃªveb irina
Ġmay Ã®na
k eyÃªn
Ġp eh
ĠÃ§ Ã®yo
Ġkev irÃª
Ġdarv ekirin
ĠDDK D
is Ãªn
ib Ã»na
Ġbir Ãªk
ĠneyÃªn Ã®
Ġmetod Ãªn
Ġew a
Ġgirt Ã®ye
bar ek
Ġaram iyÃª
Part Ã®ya
Ġsekt ora
Ġroj hel
ĠÙĦ ÙĨÚī
Ġdeng ek
Ġram anÃ®
ĠdanÃ»stend inÃª
ĠT ayÃª
Ġlihev kirina
Ġkampan yayÃªn
ĠnedÃ®t iye
bn r
ĠmÃ®lyon an
n ayÃ®ÅŁÃª
ĠR eferand
ĠØ§ÙĦÚ©ØªØ±ÛĮ Ú©ÛĮ
Ġre p
Ġgirt iyÃª
ĠÃ§ap kirina
Ġtr ÃªnÃª
ĠfÃ®n ans
Ġgel emper
ĠbÃª v
Ġnam Ã»s
kef tin
Ġkur m
at ur
ef f
ĠØ¬Ø§ÙĨ Ø¨ÛĮ
ĠØ´ ÛĮØ´Ùĩ
ĠÙħÙĨ ÙģÛĮ
om m
g et
O Y
on o
ĠÚī Ø§ÙĦ
ĠÙħØ³ Ú©ÙĨ
Ú©ÙĨ ÛĮÙħ
ie u
) -
ĠÙĨÙģ ÙĪØ°
ab o
Ġy en
ula ire
ĠØ±Ø§ØŃ ØªÛĮ
ÙĦÛĮ Ø·
ĠÙģ ÙĬ
ĠÙĤØ¨ ÙĪÙĦ
Ø§ÛĮ ÙĤ
ĠÚ© ÙĦØ§
ad i
K al
ĠØªÚ©ÙĨ ÙĪÙĦÙĪÚĺÛĮ
Ġe p
ĠÙĤ Ø§Ø¯Ø±
Ã¤ ch
ĠL ema
t ur
Ġcon v
ĠÙĤ Ø¶Ø§
or ge
Ġdisp on
ĠÙ¾ Ø§ÙĦ
Ø³Øª ÙĨØ¯
Ġg w
Ġbeso in
! .
âĢ¦âĢ¦ âĢ¦âĢ¦
isch i
Ø¨ Ø§Ø²ÛĮ
an ek
ĠK eko
ĠO SO
ĠØºÙĪÙĨÚī Ùĩ
ĠT Ã»ÅŁ
Ġsed Ãª
ĠKom un
ĠMislim anÃªn
Ġtav ilÃª
ĠLez gÃ®n
S erd
ĠÅŁ anÃ®
Ġhew la
Ġtop Ãªn
Ġaram iya
Q ey
Ġb arÃ®
ĠÃĩ Ã®roka
ĠkÃªÅŁ e
bel av
Ġv aye
Ġc uy
Ġtun ekirin
Ġbic ivin
Ġhov Ã®tÃ®
ĠSovy eta
ĠApo yÃ®
Ġseq et
Y Ãª
Ġm Ã»m
Ġmer t
Ġdih ej
Ġdixw ast
ĠparÃ§ eyekÃ®
Ġbelg eyan
Ġserfir az
Ġcograf ya
b ulÃª
Ãª w
ĠÃİm peratoriya
ĠserkÃªÅŁ iya
n ekirina
Ġq ewl
ĠbÃª bex
alÃ® f
Ġed et
sÃ®n or
ĠHac o
ÙĪ Ø§ÙĦÛĮ
ĠB iz
Ġev qas
Ġseb eba
Ġdernek eve
b Ã®ran
Ġm ev
ĠÃ§ axÃ®
Ġdest ana
Ġhev okan
Ġdij Ãª
Ġfirotin Ãª
ĠO HAL
Ġxor tÃª
Ġbiav Ãªje
ĠÃĩ em
ĠØª Ø³Øª
Ġxwest eka
ĠBÃª yÃ®
ĠMÃªrs Ã®nÃª
ĠtÃª di
ĠØ® ÛĮØ±
on ce
Ġnat ur
Ġav Ã®
Ġeff ect
ĠØ¯Ø®ØªØ± Ø§ÙĨÙĩ
Ġv Ã©
ĠØ§Ø±Ø² ÚļØª
ĠØªØ¹ Ø§ÙĦÛĮ
Ġsoci Ã©tÃ©
ÙĪØ± Ø§
Ø´ÙĨ Ø§Ø³Ø§ÙĨ
ĠIn stagram
c on
ier t
ĠØ¨ÙĪØ¯ Ø¬Ùĩ
ĠÙħØ±Ø§ Ú©Ø²
ÙħÙĪÙĨ Úĸ
ĠH ek
ĠÙĩÚħ Ùĩ
is ir
ĠØŃØ¬ Øª
ĠT ab
N ous
ĠA j
Ġann Ã©e
ĠÙ¾ÙĪÙĩ ÙĨØªÙĪÙĨ
am m
ĠØ¢Ùħ Ø§Ø±
ĠÙħØ¯ Ø§
ĠÚī Ø§
Ġn al
Ã©l ection
ĠØ¯Ùĩ ÙĨØ¯Ùĩ
Ġya d
n eh
Ġsim pl
ĠÚļ Ú©Ø§Ø±
Ø§Ø³ Ø§Ø³
ĠD ey
âĢĿ -
Ġc ent
Ġdes el
ĠØ®ÙĪØ± Ø§
pos ition
t ih
Ġs ik
s oy
ĠØ§Ø³ØªØ§ÙĨØ¯ Ø§Ø±Ø¯
g i
ĠSer v
ĠD og
Ã ĸ
Ġfam ille
on de
ĠW est
ĠØªØ¨ÙĦÛĮØº Ø§Øª
ï º
Ġh Ã¤
ĠS iyon
ĠT Ãªl
ĠÃ§ek uyan
ĠYah owa
ĠC ihÃª
Fermand arÃª
Ġresp ons
ĠDerw ÃªÅŁ
Ġesperant o
Ġ orÃ®
ĠN Ã»s
Ġderb a
ĠnuÅŁt eyÃª
civ Ã®na
lÃªk er
Ġn iyet
Ġmin asebeta
Ã»m Ã®
Ġbinav Ã»deng
t iÅŁt
z ayÃª
Ġd Ã»b
Ġh Ã®l
Ġkir asÃª
ĠEmerÃ®k Ã®
Ġberxwedan eke
Ġderfet ek
ĠÙĩÙĦ ØªÙĩ
Ġdem s
ĠnivÃ®s Ã®nÃª
ĠÃ®s bat
emb olÃª
ĠMes ud
Ġqer t
ĠÃ®f adeya
ĠsÃ®stem Ãªn
Ġkolon yal
Ġdawe tÃª
ĠAnatol iya
ĠHet anÃ®
Ġg Ã»nd
Ġnav kirin
Ġbixw Ã®nim
Ġbinirx Ã®ne
Ġh ewe
Ġp iyÃªn
Ġxwe yÃª
af tin
bi xin
ĠrÃªz imana
Ġguher tinÃª
Ġhelwest ek
ĠEreb istanÃª
Ġgiranb iha
s ayÃª
Ø¯ Ø¯
Ġbin erin
ebÃ» yÃ®
Ġaxif Ã®
Ġ ib
Ġn evÃª
ĠwÃ® j
Ġxw ere
ĠFak ulteya
f Ã®n
Ġkir ye
land Ãª
ĠÃİmpar atoriya
Ġg Ã»h
af tina
pr ises
Ġseds alÃªn
Ġdiyar kir
Ġsept embre
ĠFar s
Ġroj nivÃ®s
Ø§Ø² Ø¯ÙĩÙħ
ĠÙĨØ®Ø³Øª ÛĮÙĨ
ah man
k as
â Ĥ¬
ĠÙħÙĨ Ø¬Ø±
Ì §
ĠØ¨ Ú¯Ø°Ø§Ø±
ĠØ³ ÙĪØ²
ĠØŃØ³Ø§Ø¨ Ø¯Ø§Ø±ÛĮ
ÙģØ§ Ø¸
Ġpop ul
ĠØ¬Ø¯ÛĮØ¯ ØªØ±ÛĮÙĨ
ĠÃ ľ
ÙĪØ± ÛĮØª
ĠÙħÙĨ Ø¨Ø¹
ÙĬ Ø²
Ã©r isation
ĠÙģÙĨØ¯ ÙĤ
ĠÙĥ ÙĨØ¯
z el
Ġtab lo
eng in
ĠZ el
w ay
ĠÙĩÛĲÙĪØ§Ø¯ ÙĪÙĨÙĪ
Ġser r
ĠU kr
ĠØ´Ùģ Ø§Ùģ
ĠØ³ ÙĪÙĬ
Ġconc ern
oci ation
ĠÙĩÙħ ÙĪØ§Ø±Ùĩ
ĠØ¨ ÙĨØ§
X X
ĠØ®ÛĮ Ø§Ø¨Ø§ÙĨ
ĠB og
Ġen o
ĠÙħÙĪ Ø«Ø±
ĠXel atÃª
ĠØ³Ø§Ùħ Ø³ÙĪÙĨÚ¯
ĠK izil
Ġz ey
Ã®y atÃ®f
ĠColemÃªr g
H ate
i ÈĻ
r alÃ®
Ġd Ã®ndar
ÙĨÛĮ Ú©
Ġkel ec
Ġmamost eyan
Ġtund iya
Ġerk dar
ĠxuÅŁ k
ĠÙħÙĤØ¯ Ø³
q at
Ġkir yara
it Ã®yÃª
ĠÅŀ Ã®rÃ®n
ul ah
Ġet Ã®m
ĠEl iyÃª
Ġkerd iÅŁ
ĠrÃªj Ã®m
Q SD
g arÃ®
Ġbi ha
Ã»b eta
Ġderman an
ĠAw arte
ĠpeyÃªn e
ĠÃĩun kÃ®
Ġg iya
Ġne girtin
ĠpÃªk tÃª
ĠbaÅŁ e
ĠpÃ®roz kirina
ĠSelah at
Ġhing iv
ĠT abÃ®
Ġne Ã§e
ĠKom kujiya
ĠÃİn san
Ġafir andiye
ĠwezÃ®f e
k ey
Ġn Ãªm
Ġxwe de
Ã®ÅŁ kÃ®
ker Ã®m
Ġrij andin
Ġwerdig irin
Ã®n end
Ġew ilÃ®
ĠR if
ĠrÃ» d
Ġned iz
Ġkel eha
ĠCÃ®h an
ĠgotÃ»bÃªj an
ĠJ Ã®n
ĠØ§Ø³Øª ÙĤ
rÃ» p
ĠÃĩap emenÃ®
Ġg enÃ®
Ġmezin ahiya
ĠbiÅŁ ew
Ġgerd Ã»n
. -
Ġz orÃ®
Ġbir evin
ĠØ´Ø¯ Ùħ
Ġnab Ã®nim
ĠcivÃ®n ekÃª
ĠF in
van iyÃª
Ġwat eyeke
ĠR i
ĠKerk uk
Ġrol Ãªn
r ok
ĠØ² ÙĨØ¬
Ġesker an
Ġp rest
ĠRem o
wer iya
ÙĦ Ø±
pir tÃ»k
ĠâĨ Ĵ
Ġcho ix
ÙĪ ÙĤÛĮ
ĠØªØ§ÛĮ ÛĮØ¯
ĠØªØ¹ ÙħÛĮØ±
ÙĨ Ø³
ĠT et
Ġcomp Ã©t
Ø§Øª Ø±ÛĮÙĨ
ĠÙģØ± Ø§Ùħ
ĠØ³ ÙĪØ±
W e
ĠÚ©Ø§Ùħ Ø§Ø±ÙĪ
vent aires
ĠÙħØŃØ¨ ÙĪØ¨
ĠÚ©Úĵ Ø¦
ĠØ±Ø§Ùĩ ÙĨÙħØ§ÛĮ
ĠÚ© ÙĪÙĦÛĮ
ĠØ¹Ø± ØµÙĩ
ĠØ§Ø³ÙĨ Ø§Ø¯
per e
Ġkir i
ĠØªÙĤØ±ÛĮ Ø¨Ø§
A p
ĠÙĤ ÙĪÛĮ
Ø±Ø³ Ø¯
Ġth Ã©
be z
ĠÚ¯Ø³Øª Ø±Ø¯Ùĩ
ĠF SX
org an
ĠÃ©c onom
er te
ev i
ĠÚĺ Ø¨Ùĩ
Ġy un
Ùħ ÙĤ
ĠÙĩ Ø§Ø´
Ġf av
Ġkom ar
Ġin san
195 8
ĠØ³Ùģ Ø§Ø±Ø´
qu oi
Ġhin de
ĠÙħØ´Ø± Ø§ÙĨÙĪ
d ev
ĠÙħÛĮ Ø¨Ø§Ø´Ø¯
Ġkon gre
Ġaut or
ĠZÃªb arÃ®
iy atÃª
Ġe lÃ®f
ĠV atÃ®k
Ġas manÃ®
Ġnehat ibÃ»
ĠnuÅŁt oxÃ®
q Ãªn
ed arÃª
ĠTer orÃª
Ġhevpeyman iyÃª
Ġnefr et
Ġq alÃª
ĠW Ã®l
Ġrojnam evanÃª
ĠqebÃ»l kirina
ĠAfr Ã®ka
ĠÃ®q t
ĠD YE
ĠdÃ®tin Ãª
Ġsaz iyÃª
ĠÅŁik andina
Mal pera
B eÅŁ
is Ã®n
Ġdest dirÃªjÃ®
um eta
Ġna Ã§in
Ġto hm
ĠAkadem iya
D engÃª
H Ãª
and aya
ĠH akan
ap Ãª
ĠKurdistan eke
Ġlaw Ãªn
ĠErzir omÃª
ĠPen ahÃ®
Ġdi me
on ek
Ġq ÃªrÃ®n
ĠI ranÃª
Ġst em
Ġguher Ã®nÃªn
Ġoperasyon ek
ÃĬ N
ĠpiÃ§ ek
Ġlot ikek
Ġcurbic ur
k il
ĠÃİs al
Ġferm anÃª
ĠhÃ»r ik
ibil itÃ©
Ġser Ã»b
ĠÅŀ ey
ĠÃ®d amÃª
Ġh ewÅŁ
Ġq unc
Ãªm in
Ġxw iya
Ġpeyv eke
Ġneb Ãªjin
Ġserok atÃ®
t Ã®nin
Ġfil mÃ®
uks ek
Ġroj bÃ»na
Ġzag ona
ÙģÛĮÙĦ Ùħ
Ø± Ú©
ĠC as
ĠÙĪØ§ÙĦ ÙĪ
E F
y c
ĠÙĨÙĨÚ« Ø±ÙĩØ§Ø±
Úĺ ÛĮÚ©
ĠØ¨ ÙĪÛĮ
du ction
av o
ul u
Ï ģ
k ay
âĢ¦ )
ĠS id
ĠÚ© Ø§Ø´
ĠÚĨ ÙĨØ§ÙĨ
Ø· Ø±Ùģ
ÙĪØ± Ø¯ÛĮ
us ion
Ġada pt
âĢĻâĢĻ .
ec r
ĠÙĥ Ø´ÙĪØ±
ĠÙĨ ÙĪØ²
Ġt ad
iss ent
Ġpar f
emb res
ĠÚĨ Ø±Ø®
t em
d at
Ġp iÃ¨
Ġo cc
i us
ĠÙĦÙĪÙħ ÚĵÛĮ
ĠÃ© ch
ĠÙĪ ÙĦÛĲ
Ùģ Ø§ÛĮ
iv ement
ĠKan ada
ci ence
Ġha ut
Ï Ħ
ĠØ® Ø³
ĠØ¸Ø§Ùĩ Ø±
Ġf ourn
Ġt iv
ĠM evl
ĠØ± ÙĬ
ĠØ´ÛĮ ÙĪÙĩ
ĠØ® Ø§ÙĦ
ĠD Ã®san
Ã®l af
Ġan cÃ®
ĠEn barÃª
edÃ® ce
ĠhÃ®k aye
ek aran
ĠG irkÃª
Ġbel ku
ĠEl ez
ĠÅŀÃªx m
Ġsel am
ĠReb bÃª
ĠTendur ist
Ġxwe parast
ĠU mer
ĠXel Ã®f
Ġhed Ã®s
Ġrem ezanÃª
Ġferh engÃª
ĠÃ§e per
Ġb adÃª
uÅŁt in
Ġqer arÃª
ĠÙĨÙĪØ± ÙĪØ²
ĠFer had
ĠØ®ÙĦ ÙĤ
Ġparlement erÃªn
ĠAg ahiyÃªn
Ġqereq ola
ĠMezopotam ya
ĠÃĩapemen iyÃª
Ġc Ãªr
ĠpÃªÅŁ da
Ġserok a
ĠGel Ãªn
ĠÃ®m ha
Ġgul Ãª
Ġxan imÃª
Ġbiyan iyan
c Ã®ya
Ġz anÃª
oz Ãªn
Ġneb Ã®ne
Ġbeh ra
ĠparÃªz erÃª
ĠcÃ»r bec
Ġm Ã®syon
Ġhev girtÃ®
Ġnetewe yek
ĠBr ukselÃª
Ġrexn eyan
ĠzÄ± manÃª
Ġk ewe
Ġk eman
Ġzanist Ãªn
ĠmÃª h
ĠbÃªz ar
Ġciv atÃªn
ĠFilist Ã®n
Ġqel ew
Ġfacebo okÃª
Ã»l Ãªn
Ġderbas kirina
Ġparlament o
ĠØªØ¹ Ø¨ÛĮØ±
Ġziv ir
roj a
ĠÙĩÙħÚĨ ÛĮÙĨ
t op
n ement
ĠÚĨÙĨØ¯ ÛĮÙĨ
n ing
ĠØ¯Ø§Ø¯ ÙĨØ¯
Ġnot amment
ĠØ¹ ÙĨ
ot an
Ġw ord
ĠØ¯ Ø³
ÙĨ ÙĬÙĨ
Ùħ Ø±Ø¯
ĠAm az
Ġb usiness
ĠØ³Ø§ÙĦ Ùħ
Ġsim ple
Û±Û³Û¹ Û¶
Ġg a
ĠØ±ÙĪØŃ Ø§ÙĨÛĮ
Ġ ),
ĠÙħØ´Ùĩ ÙĪØ±
Ġm ort
ĠÙħØ³Ø¦ÙĪÙĦ Ø§ÙĨ
ot s
Ġab on
l os
ÙĨ ÙĪØ´
ĠÚ« ÙĪ
ĠØ¯Ø± Ø®
ĠEv e
d ew
Ù¼ ÙĬ
ĠØ±ÙĪ Ø§ÛĮØª
Ùĩ ÛĮ
Ġf erd
Ã¤ nt
Ø® Ø¨Ø±
Ġh abit
ĠÚĨÙĩ Ø±Ùĩ
Ġk ant
Ġsyst Ã¨me
ĠÚģ Ùħ
Ġgir e
l en
Ġsy m
ĠØ¨ÙĩØ± ÙĨÛĮÙĪ
Ġfor me
ØŁ ØŁ
ĠØ¨Ø§Ø±Ø¯ Ø§Ø±ÛĮ
Ø§Øª ÛĮÚ©
Ġson da
ĠÃ Ģ
Ġg Ãªn
âĢ ŀ
ĠÙħØŃÙħ ÙĪØ¯
ĠÙĪ ÛĮÙĨØ§
Ø± Ø¶
ÙĪØ²ÛĮ Ø¹
la ir
Tu be
ĠÚ©Ø§ÙĦ Ùĩ
is c
w ÃªÅŁ
ĠN Ã®ÅŁt
Ġger st
ĠkÃª man
ĠÅŁÃª wez
Ġsoz Ãª
Ġaxav tin
NÃ»Ã§ exane
ĠAm Ãªr
Ġgef an
Z iman
Ġteq emen
ĠneÃ§ in
Ġmerd iman
ĠpÃªx emberÃª
ĠÅŀÃª w
ĠArÃ® f
Ġbi dar
ĠÅŁ ino
Ġder yayÃ®
Ãİ ranÃª
ĠnÃ®q aÅŁÃª
bur gÃª
wekÃ® lÃª
Ġexla qÃª
ĠÃĩand Ãª
ĠEg Ã®t
Ġb une
Ġser w
ĠÅŁ of
Ø¹ Ùħ
ĠnexweÅŁ iyan
ĠMecl Ã®sÃª
Ġlot ikÃªn
Ġtah l
ĠØ§ÙħÛĮØ¯ ÙĪØ§Ø±
Ã» la
ĠpÃª bawer
bÃ»n ek
Ġderket Ã®
Ġdost anÃ®
Ġpev Ã§Ã»na
Ġxet era
Ġnavb orÃ®
ĠdikiÅŁ and
Hel best
ĠpÃªÅŁveÃ§Ã»n Ãªn
Ġdiviya bÃ»
Ġmik ur
z Ãªde
Ãª la
Ġgerm ahiya
ĠNiÅŁt Ã®manÃ®
Ġreg ard
Ġelektron Ã®k
Ġk okÃª
Ġxw erÃª
Ġlez gÃ®nÃ®
Ġhevpeyv Ã®nek
Ġp ens
Ġx etÃª
Ġf ek
eno sÃ®da
ĠDaxwaz a
Ãª h
ĠrewÅŁ an
Ġfa is
Ġemper yalÃ®st
Ġsersax iyÃª
ĠKitÃªb a
ĠOk yan
Ġaqil mend
ĠD or
Ġbawer kirin
Ä±r Ä±n
Ġderbas kirin
ĠÙħÙĪØ¶ÙĪ Ø¹Ø§Øª
ĠÙħÙĪØ³ Ø³Ùĩ
ĠØ®Ø§Øµ ÛĮ
H us
c ot
ĠÙħÙĪÙĤ Ø¹
ĠnÃªzÃ®kat iyeke
G U
ĠØ±ÙĪØ³Øª Ø§ÛĮ
we n
ĠKon f
iss ant
t il
195 7
Ã© li
ĠØ±Ø§ ÙĪÚĵ
ĠteÅŁ eyÃª
D il
Ġser re
ĠÙħÙĨ Øµ
ĠØ´Ø¯ Øª
U S
Ġp Ã©r
ed at
n ent
K ir
ĠM ans
ĠPr ot
Ġde x
ĠÙĪØ§ÙĤ Ø¹ÛĮØª
r ol
ĠÙħØ³ Ø§Ø¨ÙĤÙĩ
ĠAnd rew
pr im
ĠØ¹Ø¨ Ø§Ø³
Ġhom me
T i
ÙĪØ§ÙĨ Ùĩ
Ġe xist
ĠÚ©Ø±Ø¯ ÛĮÙħ
Ø§ ÙģØª
ĠØ§ Ø°
am er
ĠB end
Ġ ort
ĠØªÙĪØ§ÙĨ Ø§ÛĮÛĮ
ĠHTM L
ĠÙĨ Ú¯Ø§Ø±
ĠØ§Ø³Ùģ ÙĨØ¬ÛĮ
Ġf as
ĠrÃ©s ult
u elle
Ñ ĭ
or ma
al p
ĠÙ¾Ø§Ø± Ø³
ĠZ af
ĠØ§ØµØ· ÙĦØ§ØŃ
ĠL td
ĠÚ©ÙĨÙĨØ¯ Ú¯Ø§ÙĨ
ĠÈ ĺ
Ø¹Ø¯ Ø§Ø¯
ĠØ±Ø§ ÙĪ
Û°Û° Û°
ĠÙĬ Ú©
ĠÙħ ÛĮØ¯Ùĩ
ĠRus Ã®
Ġprov ak
ĠWez Ã®r
Ġstandar dÃ®
ĠH Ã»r
Ġnam eyekÃª
Ã»ÅŁ Ãª
ĠØŃØ³ Ø§Ø³
an geha
ĠK anÃ®
Ġf iq
ĠdÃ® wan
ĠÅŁÃ»n da
Ġkr Ã®zÃª
ĠÃ§ aran
Ã®y anÃ®
Ġbik ire
ĠX alÃª
Ġdu alÃ®
Ġtek st
Ġnetewe perwer
Ġbij artÃ®
ĠbÃªd ewl
ĠnuÅŁt o
Ġpil an
ĠHeq Ã®
ĠÅŀemz Ã®nan
ĠDÃ®c leyÃª
ĠdespÃªk Ãª
Ġesn af
ĠG otina
ĠY avuz
ĠF aÅŁ
Ġhey amÃª
ĠdirÃªj iya
ĠpÃªÅŁn Ã®yar
Ġnikar ibÃ»n
Ġtund iyÃª
Ġkez eba
ĠÃ§ ak
ĠdiÃ§ Ã»m
ĠtehdÃ® d
ĠØ¯ÙĪØ§ ÚĵÙĪ
Baj arÃª
ĠbÃªkÃªm asÃ®
l Ã®zÃ®
Ġr iyÃª
Ġxwe lÃ®
it Ãª
Ġkar akt
ĠnivÃ®s karÃ®
Ġgiran qed
Ġol dar
ĠDest Ãª
Ġhaw ara
ĠhÃªn ik
Ġzihn iyeta
ĠDanÃ®mar kayÃª
Y il
l Ãªkol
Ġq en
Ġbir atiyÃª
Ġmer iyetÃª
ĠSw ÃªdÃ®
ĠdorpÃªÃ§ a
ĠÃ®n ÅŁa
ĠkÃªm asiya
Ġyew bÃ®nÃ®
ĠÙħØ®ØªÙĦ ÙģÛĮ
Ġqehrem anÃ®
ĠperÃ§ eyek
Ġbiafir Ã®ne
Ġp age
Ġkom ela
ĠMes rÃ»r
ĠBr ezÃ®l
ĠEy y
ĠrÃªber iya
Ġberxwedan iya
Ġserans er
ĠKurdÄ± stanÃª
ĠmÃªr ekÃ®
ĠMed an
ĠDi xwaze
ĠnÃ®v Ã®
ĠØ¢Ø´ Ù¾
t Ãªk
as er
Ø§Ø¯ÛĮ ÙĦØ§Ú©
Ġcew az
Ġpeyw irÃªn
ĠAl t
Ġm and
ĠÙħØŃ ØªØ±Ùħ
Ġrasteq Ã®nÃ®
Ġcad re
ĠØ´ÛĮØ± Ø§Ø²ÛĮ
ĠÙħÙĪÙĤ Ø¹ÛĮØª
ĠM P
ĠØ¨Ø§ ÙĤÛĮ
Ú©ÙĨ Ùĩ
ĠØ¯ÛĮØ¯ Ú¯Ø§Ùĩ
ĠØª Ø®Øª
Ø±Ø§ ÙĬ
ĠØ¨Ø§Ø²Ø§Ø±ÛĮ Ø§Ø¨ÛĮ
ĠÚĨ ÛĮÙĨÛĮ
197 2
D E
com pag
ĠÙĥ Ø±Ø¯Ùĩ
ĠÚ©Ø§Ø± Ø¢
ĠØ§Ùħ Ù¾
ĠØ³Ø± Øª
T S
Û Ĵ
ĠØ³ÙĪØ¯ Ø§
ĠØ¨ Ø´Ø±
Û² Û´
ĠØ® Ø´Ú©
ĠÙħØ³ Ø¬Ø¯
g oz
Ġd us
te p
ĠÙħ Ø®Øª
ĠOr d
ĠØ¹Ùħ ÙĪÙħÙĬ
ĠSt ras
ĠY emen
ĠØ´ÙĨØ§ Ø®ØªÙĩ
ĠS ev
ĠPar ka
ĠJ os
ÙĪØ¯ ÙĬ
ĠØ§ÙĦÚ©ØªØ± ÙĪÙĨÛĮÚ©
ĠØ³ ÙĨØª
Ø² ÙĦÙĩ
Ġgr Ã¢ce
encont re
Ġn un
ĠN ika
ĠØ¨ ÛĮÙĦ
Ġpr es
Ġh eg
ĠDav ut
v ier
m ala
ĠØ¬Ø§ÛĮ Ú¯Ø§Ùĩ
ĠpÃª la
ib and
ĠÈ Ĺ
Ġmuxalef eta
ĠÃª t
iÅŁ Ã®nÃª
ne xwaz
Ġsiyaset ek
ĠRÃªber tÃ®
dÃ®t Ã®yÃª
ĠkulÃ®l kÃªn
az eyÃª
ĠQ il
Ġsor an
ĠnuÅŁt iÅŁ
ĠÃ§Ã»m e
Ġqewim Ã®n
ĠAmad ekar
ĠAzirbÃª canÃª
B ux
Ġk eh
Ġx akÃª
ik ayÃª
Ġdest xistina
Ġax Ãªn
Ġderket ibÃ»n
ĠdiÅŁ ibin
ĠparÃ§ eyan
Ġdilov anÃ®ya
ĠxÃ»r t
l ayÃª
Ġhem l
ah eng
ĠpÃªk anÃ®
ĠpÃªk erd
ĠI ran
ĠEfr Ã®nÃ®
ĠTiÅŁt a
Ġxemil andin
Ġpotans iy
ĠG irs
ĠX ort
ĠnÃª weÅŁ
Ġsey dayÃª
Ġmir iyan
Ġbej n
Ġqurb anÃª
ĠmiÅŁter iyÃªn
ĠÚ© ÙĪÛĮ
ĠbÃªtir Ã®
Ġzanist a
ĠÃ§apemen Ã®ya
Ġbomb eyan
Ã®Ã§ ek
Ġpil eya
Ġfar sÃ®
C iw
M el
Ġzext an
Ġj Ã®ndar
ĠÙĦ Ø§ÙħÙĦ
Ġved ibe
Ġcur eyÃª
Ġper wer
ĠkeÃ§ ek
ĠÙ¾Ø±Ùħ Ø®Øª
Ã§ eÅŁ
Ġnav Ã»deng
Ġdu yÃª
ĠTeh ran
ue il
ĠÚ© Ø§Ø¯ÛĮÙĦØ§Ú©
ĠdengbÃªj Ãªn
ĠbÃ®r Ã»b
Ġpartic ip
ÅŁ er
ĠÙĨØ§ Ø®
Ġw anÃª
Ġfa Ã§on
ĠØ¨ Ø¨Ø±
ÛĮ ÙģÙĩ
Ø¦ Ùħ
ĠØ§Øµ ÙĦÙĬ
ĠÙħÙģ ÛĮØ¯
ĠÙ¾ ÛĮÙħ
ÙħØŃ ÙħØ¯
ĠØª ÙĪØ²ÛĮØ¹
ia ux
Ġd oma
press ion
ĠK ah
enc y
ĠP el
ĠÙ¾ÙĦ Ø§ÙĨ
Ġdr am
ĠÙ¾Ø® ÙĪØ§ÙĨ
ĠB aba
lat a
ĠØ§ÙĦ Ø§Ø³ÙĦØ§Ùħ
M A
Ġz w
Ġw ie
yan e
ÙĪÛĮ Ø´
Ġtro uve
er z
ĠK ult
ĠØ¨Ø§ ÙģÛĮ
ĠÙ¾ÛĮ Ø§Ø¯Ùĩ
196 4
ĠR ep
ĠÙħØ´Ø§Ø± Ú©Øª
ĠØ´ ÛĮÙħÛĮ
Ġjust e
Î ¹
ĠÃª tes
ĠØ¬ Ø§Ø±ÛĮ
ir b
ĠL ing
Ø±ÛĮ Ø²ÛĮ
ĠMed ia
ĠØªØ± ÛĲ
N o
Ġv it
lat ion
en sa
ÙĤ ÛĮÙħØª
ĠÙ¾ Ú©
ĠÙħØ´ Ø§Ø¨Ùĩ
end am
ĠDer v
Ġx av
Ġast ron
ĠSur yan
Ø¯ ÙĨÛĮ
ĠØ§Øª Øµ
ĠØ¨Ø§ÙĦ Ø§ØªØ±
Ø§ÙĬ Ùĩ
ÚĨ Ø§
ind re
ĠÙħÙģÙĩ ÙĪÙħ
ĠT ik
ĠÙ¾ Ø§Ø´
ĠB ag
Ġtr im
ÛĲØ¯ ÙĦ
at Ã®yÃªn
Ġroj Ã®ya
ust ur
ĠHel Ã®m
Ġlaw ik
ĠDa Ã®ÅŁ
ĠKor oxlÃ®
Ġcewh erÃª
BaÅŁ ur
s arÃ®
ĠH akÃ®
Ġkom kirina
ĠnivÃ®s geha
ub ey
ĠBed r
Ġencam eke
Ġziyar eta
Ġher wekÃ®
ĠÅŀ erÃ®
Ġved ik
Ġor tÃª
Ġleh engÃ®
ĠBaj Ãªr
Ġslog ana
ĠMidÃ»r iyeta
Ġm oÅŁ
Ġx Ã»y
ĠB ro
Ġdib Ãªn
Ġnas yon
Ġmez lÃ»m
Ġsit end
ĠÅŁar istaniya
ĠhÃªr Ã®ÅŁÃªn
Pir sa
ĠÃİstan bul
Ġx Ãªn
Ġv Ã®tam
ĠbÃ» be
ef Ã®
ĠÃ§areser iyÃªn
of Ã®
Ġdis ekin
Ġhen in
HerÃª ma
Ġr ov
Ġt ebÃ®
Ã®y eya
ĠtÃª l
Ġmezin Ãª
Ġag ahiya
Ġhejm artin
Ġzar gotina
Ġted bÃ®r
ĠLÃªkol Ã®n
ĠlÃªk era
ĠdiÅŁop Ã®ne
Ġerdhej Ãª
X al
iy arÃª
ĠF elsef
ĠhiÅŁyar iya
Ġqut kirin
ĠSiya set
Ġfireh tir
g Ã»man
Ġdewl em
Ġmeriv an
Ġhom mes
elab idÃ®n
Ġzarok atiya
ĠdirÃªj tir
Ġhewldan eke
B Åŀ
ez ana
Ġbic Ã®
Ġad etÃªn
ĠpÃª j
Ġtu yÃª
ĠÚ¯ÙģØª Ùħ
Ġrabir dÃ»
nas Ãªn
d Ä±
y eta
Ġbij art
ĠØµ ÙĪØªÛĮ
ĠÙħ Ø§ÙĦÙĬ
ĠT es
ĠÙħÙĦ Ú«Ø±ÙĪ
ĠØ¬Ø¯ÛĮØ¯ ÛĮ
Ġo c
ut ions
Ġje une
Ġ Î
ĠS ara
ĠÙ¾ÙĬ ÙĦ
ĠGun ey
Ġmo de
t ant
ĠsÃ©cur itÃ©
ĠFran k
al itÃ©s
n ay
ĠB urk
in st
ĠÙħØª Ø¹Ø¯
or ld
ĠÚ©Ø§Ø± ÙĩØ§ÛĮ
Ø§ÙĬ Ø¯
ĠÙĪÙĦ Ø±ÙĬ
Ġâ Ĥ¬
ĠÙĪÛĮØª Ø§ÙħÛĮÙĨ
Ù¾ Ø²Ø´
ĠØ±ÛĮ Ø²ÛĮ
ĠØ¹ Ø¯Ø§ÙĦ
ĠÚĨ ÙĪØ¨
ĠØ§Øº ÙĦØ¨
Ù¾Ø±Ø¯ Ø§Ø²
Ø§ØŃ ÛĮÙĩ
du c
ĠØµ ÙģØ±
S p
Úĺ Ø§ÙĨØ³
ĠØ¢Ù¾ Ø§Ø±ØªÙħØ§ÙĨ
R a
ĠÙĦÙĪÙħ ÚĵÙĬ
ĠØ¨ Ú©
Ġda b
ĠØ´Ø¹ Ø§Ø±
ĠØ¹ ÙĨØ§
Ġm ud
ĠØªÙħ Ø±
ĠKar at
ĠYou Tube
ÛĮÙĨ ÙĬ
am ber
ĠAr j
Ġter r
emp s
Ġ ana
ĠÚ¯ Ø±Ø§ÙĨ
ĠÙħ ÙĪÛĮ
ist re
Ġr ok
ĠØ¹ÙĦÙĬ Ùĩ
ĠCel ad
ĠÃ®fad eyÃª
ĠElm elÃ®k
Ġbik Ã®n
Ġbin ec
Ġnih o
ĠÃ®b adet
Ġdanas Ã®na
Ãª lÃª
Ġber geha
Ġher emÃ®
Ġher emÃªn
Ġderb ikeve
la qÃ®
Ġhes pa
Ġtek Ã»z
parÃªz Ã®
ĠEreb Ãª
Ġdixwe ze
perest an
ĠÅŀoreÅŁ Ãª
Ġdifik irÃ®
Ġmesel eyÃªn
ĠDÃ®yarbek irÃ®
Berpirs Ãª
d engÃ®
Ġp Ã®rÃª
Ġg uv
Ġwe dar
Ġtec rÃ»be
ĠnÃªk enÃª
ĠCih Ã»yan
ĠCans iz
5 000
Ġk emÃ®n
ÅŁ ad
Ġe dÃ®t
ĠBir yara
Ġmir Ã®ÅŁk
Ġasteng iyan
Ġveguh astin
Ġstat uy
Ġveguher Ã®ne
ĠmÃ®t Ã®ng
Ġkurs Ãªn
ĠRÃ»h anÃ®
ĠB Ãªd
Ġnam eyan
Ġteng av
ĠkÃªl iyÃª
ĠhiÅŁt ine
meh dÃ®
ĠÃ§ alek
ĠH Ãªz
ĠbÃª gun
Ġin gil
ĠPey v
ĠprensÃ® bÃªn
ĠOper asyona
n ayene
we yÃª
ĠÙĪ ÙĨÛĮ
as ayÃ®
ĠtÃ® pan
Ġwerger Ãªn
ifaq a
Ġbap Ã®rÃª
ĠpÃªÅŁ ew
Ġbal kÃª
Ġfik irÃ®n
Ġtund rew
Ġpejir andina
Mamost e
ĠleÅŁker ekÃ®
ĠYew nan
Ġplast Ã®k
ĠNav Ãªn
Ġfak tor
ĠØ® Ø§ÙĪØ±
ĠpÃªwendÃ® dar
Ġend az
Ġdest anÃªn
Ø³Øª ÙĪ
Ø§ÙĨØ¯ Ø§ÙĨ
ĠØ§Ø¨ ÙĨ
ĠQan atÃª
3 50
am ed
âĢ¦ ..
ĠØ´Ùĩ Ø±ÙĪ
19 15
uk a
ĠØ¬ÙĨ Ø±Ø§ÙĦ
ĠØ´Ùħ Ø§ÙĦÛĮ
ĠB eng
Úģ ÛĲ
Ġpolit ique
Ġb lan
196 8
Ġf est
ĠY ar
Ġm embres
Ġp az
ĠT out
d ig
ĠD ep
Ġprodu it
ht t
Ġsom mes
Ġgerm a
Ġdest in
ĠØ§Ùħ Ø³Ø§ÙĦ
Ġm ust
ĠÙĩ Ø¬
ĠIl s
Ġh id
Ú© Ø³ÛĮ
ad t
ĠØ§ÛĮÙħ Ø§ÙĨ
ĠØ¬Ø¯ ÙĬØ¯
ĠD elal
ĠÙĪØ§Ú© ÙĨØ´
ĠÙĦ Ùħ
ĠÙĩÙħÚĨ ÙĨØ§ÙĨ
ĠÙģØ± Ø§Ø±
l ay
Ø¬ ÙĪÛĮÛĮ
ĠØ®ÙĪØ¯ ØªØ§ÙĨ
ĠØ´Ø§ Ø¹Ø±
Ú¯ ÙĨ
ĠØ¢ÙħØ±ÛĮÚ© Ø§ÛĮÛĮ
ĠKar ak
ĠT ip
ĠØ¯Ø§Ø¯ Ú¯Ø§Ùĩ
gr al
ĠÙħÙĨ Ø§ÙĤ
ĠØ³Ø± Ø·Ø§ÙĨ
ontr ol
ĠÚ©ÙĨ ÙģØ±Ø§ÙĨØ³
x ar
Ġch amb
ĠØ¬Ø³Øª Ø¬ÙĪ
ĠØ´ÙĨØ§Ø³ Ø§ÛĮÛĮ
ĠÙħÙĤ Ø§ÙĦØ§Øª
ØªÙĬ Ø§
Ġr ana
ĠØ¨Ø± Ø¯Ø§Ø´Øª
y w
O s
Ġot o
Ġaw ahÃ®
ĠYek girt
ĠÃİn qilaba
pÃªr atorÃ®ya
Ã®l anÃª
ĠEm Ã®nÃª
Ġend aman
Ùĥ ÙĦ
Ġpez Ãª
Ġetn Ã®k
ĠCew erÃ®
ĠS Ã®r
Åŀ ehÃ®d
ĠÅŀ eÅŁ
Ġhey ran
Ġhes pan
Ġpeyv end
ĠasÃ®m Ã®le
Ġzul mÃª
ĠÃ®x rac
ir Ã®ya
ĠÅŁ ahiya
ĠH Ã®k
Ġda girt
Ã© ro
ĠrÃª yek
Ġhil din
Ġxwend ine
Ġhes pÃªn
Ġhunermend an
ĠniÅŁ kÃª
ĠfestÃ®v ala
ĠÅŁikest in
ĠK ela
ĠM eb
om Ãªn
ĠnivÃ®s kara
Ġes er
Ġger iyan
Ġheft ane
Ġgerm Ã®
ĠOr han
Ġtomar kirin
ĠlÃªn ÃªrÃ®na
ĠhevrÃª yÃªn
Ġm Ã®z
Ġq ar
Ã®s in
ĠÃ§ar enivÃ®s
ĠBaÅŁ Ã»rÃ®
ĠGul an
ĠdinivÃ®s Ã®ne
ĠÃ®ngil Ã®z
Ġtasf iye
Ġopozis yonÃª
Ġbi xwazÃ®
Ġl oj
ot Ãªn
ĠSerok komarÃª
ĠdestnÃ®ÅŁan kirina
ĠÃ§Ã®rok ek
Ġmel ayÃª
p iÅŁtÃ®
ĠÃ§ Ãªj
ĠÃ§Ãªb ibin
ĠEd aletÃª
ed r
Ġmaf Ã®
Ġbilind bÃ»na
Ġqad eke
ĠbikarhÃªn eran
ĠxemgÃ®n iya
Ġqa Ã®deyÃªn
q Ã®n
ĠHer Ã§iqas
Ġnirxandin an
Ġbalafir an
ĠdilÃ® zin
pd k
D ans
ÅŁ ah
Ġbazirg anÃªn
ĠÃİ b
Ġnakok iyan
b avÃª
ev iz
ĠØ§Ø´ Ø±Ùģ
im m
ĠØ³ Ø±Ø§
d Ä±n
Ú© Ø¯Ùĩ
d el
ĠnÃ®r x
Ġtran sp
en f
ib an
uk en
ĠØ¨Ø§Ø´ Ùĩ
ĠØ³Ø± Ø²ÙħÛĮÙĨ
ĠØªÙĤ Ø¯
ĠØ¹ÙĦ ÛĮØ±
ĠØ¨ÙĪØ± Ø³
ÛĮØ³ ÙĪ
Ø¹ Ø¯Ùĩ
ĠP il
194 8
oh n
19 14
Ġl ut
ĠÙģ ÙĨ
Ġpas ser
Ġdev ant
ĠØŃÙĤ ÙĪÙĤÛĮ
Û´ Û°
ĠrÃ©p ond
ĠÚ©Ø§Ø± Ú©ÙĨØ§ÙĨ
ĠÙĦÙĪØ¨Úī ÙĦÛĲ
Ġk iv
ĠÙĨ Ø§Ø´ÛĮ
ĠÙ¾ÙĬ Ø¯Ø§
Ġtot al
ĠØ¬ Ø±Ú«
r r
Ġc Ã©l
ĠN er
ĠÚģ ÙĪØ§Ø¨
ag on
Ø±ÛĮ Øª
Ø´ Ø¨
ĠAn ter
Ġm ele
ux t
Ð ²
Ġs and
ĠB ekir
ĠÙĦ ÙĨØ¯
Ġp ex
ĠT aha
k ul
Ġxel atÃª
ĠQad rÃ®
w ayÃª
ĠK alÃª
eq Ã®
Ġgor istanÃª
ĠPDK T
Ġmis liman
we yÃ®
ĠÅŀ Ã®lan
Ġtund Ã»t
ĠGor istana
ĠÃ§avdÃªr iyÃª
Ġmim kÃ»n
Ġslog anÃªn
y ayeke
Ġk lÃ®
ĠpÃª ÅŁtir
ak arÃ®
Ġdest ket
Ã®l la
ĠhÃª st
ic o
Ġak tor
Ġberev aniya
Ġhej ar
Dest pÃªk
Ġzoz anÃªn
Bux arÃ®
Ġv anÃ®
Ġen Ã®ya
Ġguhertin an
ĠÅŁop Ãªn
Ġj ÃªrÃª
ĠR Ãªk
Ġdib Ã®
ĠV Ã®
ĠdÃ®rok ek
Ġxwest ibÃ»
Ġnem abÃ»
Ġmilyon ek
Ġzinc Ã®r
Ġbihev re
ĠpayÃ® zÃª
Ġkav il
ĠÃ§ ayÃª
ĠvÃª ga
ĠÙĨ Ø§Ù¾
Ġmat er
Ġhewil dan
Ġqeyd Ãªn
Ġzem Ã®na
Ġpenc er
Ġsersa xÃ®
Ġseul ement
ĠL otik
Ġvekirin e
Ġrexn ekirin
ĠlÃªbor Ã®nÃª
ĠpakÃª ta
Ġs iy
Ġku Ã§e
Ġam eya
Ġtirk a
Ġked Ãª
n ayÃª
Kurd istana
ĠkoÃ§ er
ĠpÃªkhat eya
ĠbÃªh Ãªz
Ġbiz ewic
H R
ĠtÃªk Ã®l
ĠØªÙģ Ø³
Ø§Ùħ ÙĦÙĩ
ĠtÃªdi gih
ĠMisilman an
Ġb ul
ĠØ¢ Ú¯ÙĩÛĮ
ĠZ ew
ĠØ§ÙħÙĨÛĮØª ÛĮ
ĠÙĨÙħØ§ÛĮ ÙĨØ¯Ú¯Ø§ÙĨ
ĠÙħÙĦ ÙĦ
in da
Ġ, ,
ĠG ar
Ġv on
ĠT ac
ĠØ¢Ùħ Ø§Ø¯Ú¯ÛĮ
ĠÙĦÙĪÙħ Úĵ
Ġhe ures
Ġre sta
ÛĮ Ú©ÛĮ
ĠÙħÛĮ ÙĪÙĩ
ĠÙĥ ÙĬ
s ol
Ú©ÙĨ Ùħ
al s
Ġg raf
ĠÙħØ± Ú«
ĠØ²ÛĮ Ø§ØªÙĩ
af f
Ø§ÙĦ ÙħÙĦÙĦÛĮ
Ú¯Ø± Ùħ
ĠÚ©ÙĨ Ùĩ
n eb
ĠØªØŃØµ ÛĮÙĦÛĮ
A ng
ĠØª Ø²ÛĮ
Ġv ern
18 0
ĠØ±Ø§ØŃ Øª
Ġcon tin
yt ics
ĠØº ÙĦØ§Ùħ
ĠØ¢Ø° Ø±Ø¨
Ġk af
Ã§ o
Ġnov embre
Ġc hat
ĠØªÚ©Ø± Ø§Ø±
oft ware
B r
ĠØ§ Ø®ØªÙĦ
12 8
ĠØ´Ø§ Ø®Øµ
own load
Ġt az
ĠÚ©Ø§ÙĨ ÙĪÙĨ
ĠØ¢ ÙĩÙĨ
ĠcÃ´t Ã©
ĠØ§Ø¨ Ø¹
ĠÙĤ ÛĮ
ĠØ´Ø± Ø·
, âĢĿ
ĠIn ternet
ĠR ac
ĠØ§ÙĪ Ø³Ùĩ
Ġw ith
Par lement
Ġr Ã¨g
ÙĪÙĦ ÛĮÙĨ
p ay
ĠÙħØ° Ø§Ú©
Ġtrav ers
Ġn Ã®m
.âĢĿ [
Ġker r
Ø§Ø¯ ÙĨ
ĠX edÃ®ce
ĠhÃ»n dir
Ġoper es
ĠYÃ»s if
Ġxwek uj
Ġbihat ana
H ÃªvÃ®
t ayÃª
Ġhat a
ĠL egÃª
ĠHer wisa
Ġbawer Ã®yÃªn
Ġnehat Ã®ye
Ġhov Ã®tiya
Ġsin ifa
ĠÅŀared arÃª
Ġrehmet Ã®
ĠH u
Ġciv atÃ®
Ġna q
ĠÅŁew atÃª
ĠnuÅŁt ekÃ®
Ġdol aran
Ġprogr amÃª
ĠpÃ®ÅŁes azÃ®
ĠqetlÃ® ama
ĠsÃ®nem aya
Ġmah k
Ġdal iqandin
Parlament erÃª
ĠÅŁ amp
Ġdik an
ok irin
Ġdin av
Ġhil de
ĠBr ett
Ġpan elÃª
ĠwezÃ®f edar
Ġbajarok a
ĠDir bÃª
aseb etÃª
Ġgum ana
Ġdinirx Ã®nin
Ġnuq t
Ġbalef irÃªn
Ġjenos Ã®d
Ġn d
ĠM Ã®d
Ġmin aqeÅŁ
Ġbib ine
ĠtesÃ®r eke
ĠÃ®ÅŁkenc eyÃª
ĠSÃ® pan
Ġcerd evan
t anÃª
ĠM anÃ®
ĠØ² Ø±Ø¯
Ġmer ov
Ġpaqij kirin
ĠÅŁÃªwe ya
bÃ®y ayÃ®ÅŁ
ĠhelÃ®kop ter
n Ã®v
v edana
Ġz exm
Ġdest e
Ùĥ Ø±
ĠlÃªkolÃ®n erÃªn
Ġziv istan
ĠbÃªw ate
ĠYÃªr ÃªvanÃª
Ġn irxan
or Ã®n
ĠtÃª geh
Ġkom Ã»n
Ġcar nan
Ã®j a
Ġcomp os
Ġtesl Ã®mÃª
roÅŁ in
Ùħ Ø§ÛĮ
iv im
Ġher Ã§iqas
Ġrast iyeke
ĠGor eyÃª
Ã»pel Ãªn
an iyan
ÅŁ arÃª
Ø§ÛĮØª Ø®Øª
ĠRe al
d ibe
Ġs Ãªv
Ġpejir and
Ġderket im
Ġsindoq an
Ã§ im
Ġst enbolÃª
ĠÃ§arÃ§ov a
Ġass ez
Ġdat ing
Ġsep andin
ĠØŃ Ø§ÙħØ¯
1 10
ĠØ¯ÙĪÙĦØª ÙĬ
Ġsey r
ĠØ¢ÛĮ ÙģÙĪÙĨ
ĠZ il
Ġfeod al
ĠÚħÛĲ Úĵ
ĠØ¯ Ø²
az ad
Ġpr is
Ġm Ã¤
Ġl av
ĠAr am
ĠAD N
ĠØ¹ Ø·
ĠM att
Ġenv ir
ĠRe ut
Ġs ay
ĠÙĪ ÙĨ
ĠK av
ik i
ĠÚļÚģ ÙĪ
ĠÙ¼ÙĪÙĦ ÙĨÙĩ
Ø¨ ÙĨØ¯ÛĮ
ĠÙħØŃ ØªÙĪ
n ek
ĠÙħØŃ Øª
ĠØ¨ØŃ Ø±Ø§ÙĨ
ĠB Ã»
ĠÙħØ¬ Ø¨ÙĪØ±
Ġnombre ux
r eb
ol f
ra ge
ÛĮÙĦ Ø§Øª
ĠØª Ø³Ùĩ
Ø¹ Ùģ
ĠØ³Ø± ÚĨ
ĠØ§Ø· Ø±Ø§Ùģ
Ġbi sp
ĠdÃ©velopp ement
13 0
ĠØ·Ø¨ ÙĤÙĩ
ĠÚ© ÙĦÙĬ
ĠBer z
h ew
iq e
Ġc re
ĠN i
ĠØ¯ ÚļÙħÙĨ
Ġdu du
Ġmil yak
Ã®f aq
Ġvaj in
Ed eb
ĠÃ§ Ã®yayÃª
ad eta
ĠZ iwan
Ġrageh andin
ĠMehm ud
Ġvaj o
ĠMerd im
ĠBelÃ§ Ã®kayÃª
Ġg erÃª
ĠbaÅŁ Ã»rÃ®
Ġst uyÃª
Ġqis m
Ġkarmend Ãª
Ġyas aya
Ġserfir azÃ®
ibr isÃª
Ġkeyf xweÅŁ
Ġk ÃªÅŁa
ĠA ugust
ĠØ± Ø§Ø¯ÛĮ
ĠrÃª yan
ĠnivÃ®s ara
Ġdar istanÃªn
ĠÃ®ÅŁ ev
Ġtop an
ĠvÃ®d y
Ġge ÅŁtir
ĠÅŁaredar iyÃªn
ĠWeÅŁan xaneyÃª
ĠÃĩek dar
ĠKiliÃ§ dar
n ayÃ®
Ġc iyÃªn
asyon an
Ġwat eyÃªn
ĠÅŁand eke
ĠParlament erÃª
Ġdarb eyÃª
Ġdipirs in
Ġfiz Ã®kÃ®
g ÃªrÃ®
x anÃ®
Ġwelat iyÃª
ĠdÃ®rok eke
ĠrÃ» danÃªn
Ġxwest ekÃªn
ĠÅŁik lÃª
Ġbigih Ãªje
Ġbiz iv
Ġqenc Ã®
ĠBeh dÃ®nan
Ġdip arast
iy ariya
ov ayÃª
Ġamad ekariya
Ġhim b
Ġhewc eyÃªn
Ġdilsoz iya
Ġmalper an
ĠSwÃ®s reyÃª
Ġr Ã®yÃª
ah iyeke
ĠX oybun
ĠØŃ Ø§Ø¯
Ã»k Ãªn
ĠHer eketa
Ġcin s
ĠKURD Ãİ
Ġteknoloj iyÃªn
ot Ã®k
Ġzan ebÃ»na
ĠÃ®m za
Ġencam ek
ĠlÃªkolÃ®n ek
Ġcud atir
ĠedÃ® tor
Ã§ et
ĠY BÅŀ
Ä± na
ĠÃ§avkan iyan
or y
Ġar ke
Ġxiyan eta
Y ER
Ġhem uyan
ĠzÃ®yar et
ĠÙħÙĩØ§ Ø¬
Ã®st ik
ĠHem Ã®d
ĠØ¯Ø± Ø®Øª
ĠRo bert
h und
ĠÛĮ Ø§Ø±
Ġeleq e
Ø¨ÙĪ Ú©
Ġe yar
Ġrenc ontr
ĠØ¯ Ú©ÙĪØ±
ĠØªØµ Ø±ÛĮØŃ
ĠØ§ØŃØªØ± Ø§Ùħ
Ġg ens
on ez
Tr ump
ĠØªØŃ ÙĪÙĦ
ĠØªÙĪÙĦ Ø¯
Ø§ÙĦ Ø¹
Ã º
Ã¶ Ã¶
y st
ĠS m
Ġd ate
ĠØ®Ø¨Ø±ÙĨÚ¯ Ø§Ø±
ØŁ !
ur an
Ã© qu
ĠC O
enc er
ĠØ¬Ø¯ ÙĪÙĦ
ĠØ· ÙĨØ²
Ø¨Ø® Ø´
Ã¶r t
ĠØ§ØµÙģÙĩ Ø§ÙĨÛĮ
D es
Ú©ÙĨÙĨØ¯ Ú¯Ø§ÙĨ
ĠnÃ©c essa
ĠØ´ÙĨØ§ Ø®Øª
ĠÙħØ± ÙĪØ±
ĠO m
ĠÙĩÙħ Ø³
Ø¨ Ú©
ĠÙĤØ± ÙĨ
ĠØ¨Ø´ Ù¾
Ġpr Ã¨s
Ġbav o
ĠØ§Úĵ ÛĮÚ©
Ġf al
Ġg og
Ġber g
ĠØ² ÙĪ
ÙĦÙĬ ÙĦ
Ã¼ nd
ÙħØ¯ ÙĦ
Ġpor te
ĠâĢ ı
ĠÙĨØ´ Ø§ÙĨÙĩ
Ġg on
ĠN iz
ĠØ¨ ÙĬÙĨ
b ak
it ation
ĠDi e
Ġg et
Ùĳ Ùİ
ĠØ³ÙĬ Ø§Ø³ÙĬ
ĠÙĪÛĮØ± ÙĪØ³
ĠØ§ÙĨ Øµ
ĠÙĩÙħ Ø²ÙħØ§ÙĨ
ĠÙĩ ÛĮØ±
Ġpro pr
ÙĤ Ø±
ĠÙħØ³Ø¦ÙĪÙĦ ÛĮØª
ĠØªØ§Ø¨ ÙĨØ§Ú©
ĠØªØ£ Ø«ÛĮØ±
ĠH av
ĠR ust
Ø¹ ÙĨÙĪØ§ÙĨ
ÙĦÛĮ Ùĩ
oc a
ĠPhot os
b ila
s at
ĠD Ã»r
Ġbih urÃ®
ĠEl lah
ĠÃ®m am
Ġbabet e
Y ÃĬ
Ġt Ãªj
ĠB aq
Ġdih Ãªne
Ġqedex eyÃª
Ġsek ret
Ġhep s
Ġmic ad
we tÃª
Ġxwar iye
kef ta
eÅŁk Ã®l
L Ãªb
n etÃª
Ã§ ika
Ġer da
Ġbiryar ek
ĠedebÃ®y ata
ĠgrÃ»b a
Ġproblem Ãªn
ĠÅŁaredar iyan
NÃª Ã§Ã®rvan
ĠÃĩewlÃ®g Ã®
BÃĽ YER
ĠH ejm
Ġal imÃªn
ĠcÃ®h Ãªn
Ġqed rÃª
ĠÃ§and Ãªn
Ġrapor ta
ĠpÃªÅŁk eÅŁÃ®
t iye
Ġg Ã»n
ĠÅŁ k
ĠÅŀ ex
Ġter z
Ġker da
ĠdorpÃªÃ§ kirin
ĠÃ®h tim
Ġfeder alÃ®
D Ã®roka
Ġb Ã®yÃªne
ĠÃ§ Ã®ye
ĠtÃª gehÃªn
ĠÅŁer vanÃª
ĠBer ev
Ġagir Ã®
ĠDa iÅŁÃª
nas iya
Ġbiq ede
Ġziwan anÃª
Ġmix alef
Ġakt orÃªn
K esÃª
ÅŁ ek
ĠÃ®n karÃª
ĠRÃª xistinÃªn
ĠÅŁek lÃª
Ġbiw Ãªj
Ġherw uha
p erÃªn
Ġkart a
Ġdijw artir
P Ãªn
Ġbel le
ĠÃ§Ãª be
ĠÃ®di aya
ĠR iha
bek ir
Ġtro uv
Ġbuy erÃªn
meq amÃª
ØŃ Ø«
Ġprogr amÃªn
ĠÃ®mtÃ®h anÃª
Ã®j Ã®
ens ion
Ġav is
ĠÛĮØ¯ Ú©ÛĮ
ĠØ³ Ø§Ø¨ÙĤÙĩ
h om
ĠÙĨÙħØ§ÛĮ ÙĨØ¯Ú¯ÛĮ
Ġb ank
ĠB uy
Ùģ Ø³
ĠUn ivers
ĠS as
ĠØ¯ÛĮØ¬ ÛĮØªØ§ÙĦ
Ø§Ø³Ùģ Ø§ÙĨÙĩ
ĠØ®ÙĪØ§ÙĨ ÙĨØ¯Ùĩ
ĠÙħÙĤ Ø§Ø¨
Ã©ri ence
ĠS erm
á ¾
ĠÙ¾ÛĮØ´ Ø±ÙģØªÙĩ
ĠØ¨ Ø³ÙĬ
ĠØ¢ÙĨ Ú©Ùĩ
d ane
ĠÙ¾Ø±Ø¯ Ùĩ
Û²Û° Û±Û¸
Ġfac e
iv itÃ©
Û±Û³Û¹ Ûµ
ÙĤ Ø§ÙĨ
ĠÙħØ¬ ÛĮØ¯
n el
ĠN eb
Ġya z
ĠÙ¾ÚļØª ÙĪÙĨ
D ij
ĠD om
ĠP e
h or
Ø¨ ÛĮÙĨÛĮ
h ed
n ey
Ġder e
Ġor ig
ĠSch w
ĠØ±Ø§ÛĮ Ø§ÙĨÙĩ
ĠØª Ø§ÙĦ
ÙħØ§ÙĨ Ø¯
Ġp ic
Ġda q
ay na
Ø¨ Ø§Ø±ÛĮ
Ġhev girtina
ĠF Ã®r
ran reÅŁ
Ġnexwe sh
Ġsirg Ã»nÃª
W exta
ĠbÃª dem
ĠÅŀ ed
ĠÃĩ aÃ§an
Ġkov aran
Ġzal iman
O calan
S Ã®y
b re
Ġy ÃªkÃª
ĠT Ã»n
est oya
Ġdiyar e
Ġtin eye
ĠÃ§aw aniya
ĠÅŀeh ba
Hey eta
Ġziyan Ãªn
ĠSiv Ã®l
Ġbi yab
ib ij
Ġsal onÃª
Ã»b Ãª
Ãªl an
ĠhevdÃ®tin ek
ĠÃ§er x
ĠCez ayÃªn
ĠpÃªÅŁbirk Ãªn
ĠRojav ayÃ®
Ġm Ã®ne
Ġc ayan
iv ent
Ġhev oka
kar Ã®yÃª
Ġneb ih
uk lu
Kurd an
Ġdiq ede
Ġmehk em
Ġwaz eno
Ġotomob Ã®l
Ġdokt orÃª
ĠYor kÃª
ĠcÃ»rbec Ã»r
S Ãİ
Ġh Ã®ÅŁt
Ġm ÃªÅŁ
ĠÅŁehÃ®d kirin
ĠPÃªÅŁ ve
ĠbÃªd engÃ®
ĠAv estayÃª
ĠÅŁewit Ã®n
Ġmezh eb
b ilÃª
t enÃª
ĠQ ersÃª
Ġdixeb itÃ®
Ġb Ã®h
eh iyÃª
ĠAn ku
Ġgov endÃª
ĠØ¯ÙģØ§ Ø¹ÛĮ
H ejmara
Ġdu ÅŁemÃª
ud es
Ġfir oÅŁ
ĠtemaÅŁ evanan
ĠÚĺ Ø§Ù¾
ĠØ§Ú© Ø«
p en
b anÃ®
ch at
ĠGer dÃ®
P lat
ĠÚ© Ø§Ø¨
ĠdÃ© l
ĠØ¹ Ùģ
196 1
hel best
ÙĬ Ø§ÙĨ
Ġz ur
it z
7 9
ĠZ ul
ÙĪ Ù¾
r ice
Û² Û³
av oir
Úĸ Ø¯ÛĲ
ĠÙĤ ÙĪÙĦ
ĠÚ©Ø§Ø± Ø¨Ø±
Ø§Ú© Ø³
Úĺ ÙĨØ¯
ĠK im
Ø§Ùħ Ø®
aj o
ĠÙħØŃ ÙĤÙĤ
ĠÙħØ¹ ÙĨØ§
M em
ĠØ³Ù¾ Ø§Ùĩ
ĠÙĪØ¶ Ø¹
ÙĪÙĨ Ùħ
Ġmar s
ĠP DF
Ġv il
ĠH it
ĠÙ¾ÙĦÛĮ Ø³
ĠÚ¯ Ø±ÛĮ
ĠÙĨÙĪÙħ ÙĪÚĵÙĬ
Øº ÙĪÙĦ
ĠØ¹Ø¯Ø§ÙĦ Øª
im al
ĠØ¯ÙĪ ÙĪ
ĠÙĦÙĪØ¨ ØºØ§
. ),
Ø§ Ø®ØªÙĩ
Ġsant Ã©
ĠG Ã¼l
ĠØ¹Ø± Ø¶
ĠKap lan
ĠÙħÙĨ ØŃ
Ø§Ùģ Ø¸Ùĩ
ĠØ´Ø± ØŃ
ĠM artin
B UN
ava is
Øº Ø§Ùħ
ĠE in
ĠØŃÛĮ ÙĪØ§ÙĨ
ĠÙĪØ¸ ÛĮÙģÙĩ
Ġne an
Ø§ÙĨÛĮ Ø§
ĠB ij
ĠV o
ĠØ³ ÙĨØªÛĮ
ĠDin ya
ĠÙħØ³ ÙĦ
ĠØ·Ø¨ÛĮ Ø¹Øª
ĠKurd pa
ĠF emÃ®n
ĠÙģ Ø§Ø·
ĠnivÃ®s andÃ®ye
ic anÃª
ava jin
evan Ã®ya
Ġh ewÅŁa
ĠK oÅŁka
Ġber fer
Ġkar ekt
ĠEh lÃª
ehr Ã®r
Ġzind anÃªn
Ġtevl ih
ĠRobos kÃ®
Ġd oÅŁ
Ġk eyÃª
Ġz ede
Ġbin ax
Ġdij iya
Di gel
Ġtes Ã®s
Ġram yarÃ®
Ġdixwe zim
Ġdak evin
aÅŁt Ã®
Ġberpirsyar iya
ĠRam azan
Ġgundew arÃªn
ĠCeng Ã®z
Ú¯ Ø§
ĠN izanim
ĠrÃª wÃ®
ĠkiÅŁ andiye
Ġbav an
Ġhiz r
Ġnizan ibÃ»
ĠÃ®st Ã®fa
Ġmad d
ĠFeq iyÃª
ĠtÃªdik oÅŁin
Ġhewced ariya
ĠFu ad
M Ãªr
ar etÃªn
Ġper a
Ġbih ara
ĠBal afir
Ġaq Ã»beta
ĠxwepÃªÅŁand anan
ĠmÃ» x
b ed
Ġdir Ãªje
ĠnexweÅŁ xaneyÃªn
Ġwekhev iya
ner g
Ġdilsoz Ã®
ĠSerd emÃª
ĠbikÅŁ Ã®ne
Ġjiday ik
d Ã®r
n Ã®k
r amÃ®
Ġh Ã®r
Ġtirk Ãªn
Ġparast Ã®
ĠrÃªveber Ã®ya
Ġbex ÅŁ
ew am
ĠÅŁ Ã»
eq Ã®n
Ġcih ek
isch t
ĠdinivÃ®s im
ĠÃ®xan et
su ite
ĠMÃ»h ammed
ĠÅŁ Ã®y
ĠØ² ÙĨÚ¯
Ġzan ayÃªn
Ġday ikan
Ġbar kirin
Ġhaw Ã®rd
ĠYÃ»s iv
Ġbir eve
er dÃ®
Ġhey v
Ġpro fÃª
Ġbim barek
ĠdabÃ®n kirina
Ġkurd i
pey v
Ġpros es
ĠÃİn ternetÃª
Ġd irin
ĠD ewr
ĠÙĪÙĦØ§ Úĵ
Ø§ÙĨØ¯ ÙĨ
C el
Ġim m
Ġpar fa
ta ient
ĠÙħØ³ ÙĪ
ĠÚĨ ÙĤØ¯Ø±
g g
ĠÙģØ± ÙĪØ¯
u an
ĠQ af
ÙĪÙħ ØªØ±
Ġwe y
or er
ĠOr t
ĠÙĨØ´ Ø±
ĠD T
ĠP M
Ġv ue
qu er
Ø¨ÙĪ ØªØ±
d im
ĠAt l
a ir
Ġk ak
19 22
ĠÙĩÙĨ Ø±Ùħ
h ind
om p
em ment
ĠD o
ĠÙĨ ÙĩØ§ÛĮÛĮ
ĠP E
ĠÙĩÛĮ Ø§Øª
ĠØ¹Ùĩ Ø¯Ùĩ
Ġs us
abil itÃ©
ĠI tal
M et
Ġman iÃ¨re
ÙĦÛĮ ÙĦÛĮ
ĠÙĤØ± Øµ
ĠÚ¯Ø° Ø§Ø´ØªÙĩ
Ã»m e
ĠÙħÛĮ Ú©ÙĨØ¯
ĠZ ay
ĠØ´Ø§Ø± Úĺ
ĠØ§Ù¾ ÙĦ
Ġform ation
U ne
at o
r efa
im ir
ĠÙĪ Ùģ
if ique
Ø§Ùģ Ø²Ø§Ø±
ĠÙ¾ÙĦ Ø§Ø±
ĠØ¹ ÛĮÙĨ
iq a
c u
el ek
Ġrast a
ĠÙħØŃ ÙĪØ±
ne p
Ä± s
Er eb
PR ESS
ĠT AB
ĠÚ©Ø± Ú©Ù¼
ĠR onÃ®
ĠAl l
ĠHDP yÃ®
Ġaloz iyÃªn
ĠmÃ®h rÃ®
P aÅŁÃª
Ġv indÃ®
ĠM SD
ĠÃĩav dÃªr
Ġmexd Ã»rÃªn
l Ã®k
Ġher f
Ġher gav
ĠÃª gir
ĠÙĤ Ø±ÙħØ²
Ġheb Ã®
Ġst Ã»r
Ġbar ekÃ®
Ã»t o
ekt orÃª
ĠrewÅŁenb Ã®ran
ĠteÅŁ h
Ġfolkl orÃ®
ĠBarzan iyan
ĠdiÅŁew ite
Fermand ariya
Ġb irina
Ġp Ã®y
ĠS T
Ġder yaya
ĠlÃª vÃªn
ĠX az
erd iÅŁÃ®
Ġhil girtin
ĠÃ®n ternet
ĠÃ§alak van
Ġot omb
Ġta ÅŁtÃª
Ġdak etin
ĠHikÃ»m et
Ġbalafir geha
ĠserpÃª hatÃ®
Ġdixwend in
Ġhey fa
ĠMeh abad
Ġnavb eyn
Ġhevpeyv Ã®nekÃª
ĠEwleh iya
Ġtendir ust
gir Ã®ya
Ġbib ih
Ġdil an
Ġxwed ayÃª
Ġrawest Ã®nin
perwer iyÃª
Ġrey na
ĠasÃ®mÃ®l asyon
Ġtraj ed
ĠbÃªÃ§ are
Ġvalak irin
Ġlid ijÃ®
H uk
ez orÃª
Ġcud ahÃ®
ĠZag ros
Ġpersp ektÃ®
ĠXor asanÃª
d erÃ®
Ġdi dÃª
Ġs Ã®wana
ĠÚ© ÚĨÙĩ
Ġher Ã§end
ĠpolÃ®t ik
Ã® man
Ġrast iyek
Ġhil kiÅŁ
Ä±l Ä±
ĠÃ®xan etÃª
ev ana
gr Ã©
Ġhes ret
ĠAg ah
Ġquel que
Ġqed andiye
Ġkurmanc Ã®ya
Ġpeyd akirin
Ġhedef Ãª
Ġser leÅŁ
ĠØ§Ø® ÙĦØ§
Ġberdewam kirina
Ø§ØŃ Ø¨Ùĩ
Ä± st
Ú¯Ø±Ø¯ Ø§ÙĨ
ĠÙĪØ· ÙĨ
ĠØªØ§Ø±ÙĬ Ø®
Ø® Ø±Ùĩ
Ġbur j
ĠÙĨÙĪ Ø¨Øª
ĠÙħ ÙĪØ¯
est er
ĠEmerÃ®k Ãª
ouv ern
ĠØ²ÛĮØ± ÙĨÙĪÛĮØ³
g am
Ġt able
ĠdÄ± bÃª
dem okrat
ĠØ± Ø¯Ùĩ
ÙĤ Ø¨
Ú¯ÙĬ Ø±ÙĬ
Ġmet al
Ø§Ø¯ Ø§
Ġ ðŁ
Ú« Ø±ÙĬ
ĠÙħØ§ÙĨ Ø¯Ùĩ
Ġc uis
ĠÙĩ Ø§Øª
Ġsal le
ER E
ĠÚĨØ§Ø±ÙĪØ§Ú© ÙĬ
v ar
ĠH as
Ġq r
ĠØ±Ø³ Ø¯
ĠÙħÙĨÚģ Ùĩ
Ġema il
Ú¯ Ø±ÙĪÙĩ
ĠÚ¯Ø° Ø´Øª
ĠØ§Ùģ Ú©Ø§Ø±
it re
ĠØ´ Ø§ÛĮ
ĠØŃ Ø¯ÛĮ
p ora
h en
ĠØ± ÙĨÚ¯ÛĮ
ÛĮ Ø§ÙĨ
S I
Ġser ont
ĠØ§ÙĪ Ø¨ÙĪ
ec e
ĠØ¹Ø± Ø¨ÛĮ
ĠI dlib
Ø² Ø§Ùħ
ĠG il
ĠH ej
gel o
194 7
ÙħÛĮ Ùĩ
or in
ĠÙĪ Øº
ĠÙĨÛĮØ³Øª ÙĨØ¯
pl oya
num Ã©risation
ĠØ¬Ø² Ø¦ÛĮ
Ú« Ø§Ø±
Z an
D G
ĠK oz
Ø¬ ÛĲ
ÙħÛĮÙĨ ÛĮ
Ġv ey
ĠØ´ÛĮ Ø¹Ùĩ
ĠÃ§ axa
ĠS up
Ġdu canÃ®
Ġger andin
ĠKemal Ã®st
ĠFer Ã®d
ĠpÃªÅŁan gehÃª
W Ãªn
Ġm Ã®q
Åŀ ah
Ġxw and
Ġxist ibÃ»n
ĠlÃ®st a
ayet Ã®yÃª
ĠÅŀÃªx Ãª
ĠOr ÅŁel
Kom ara
ĠReq qayÃª
ĠÃ®q tÃ®
Ġmintiq a
Ġz aza
ĠM eq
Ġsal nameya
aw Ãª
ĠEreb Ã®stana
Ġxan eyan
ÙģÛĮ Ùģ
ĠKemal Ã®stan
ĠFeq et
Ġkuj er
ĠezmÃ»n Ãªn
K ovara
at Ã®kÃ®
ÅŁt e
Ã®m al
Ġkom xeb
ĠEfr Ã®q
ĠÅŁand Ã®ye
Ġfed Ã®
Ġkontrol kirin
ĠgihiÅŁt e
Ġmun aqeÅŁ
Ġenf al
Ġmum kun
ĠdirÃ»ÅŁ mÃªn
Ġgaran tÃ®
Ġzeyt Ã»nÃª
ĠhevÃ» din
Ġbiav Ãªjin
BÃĽYER PRESS
ĠS Ã»
Ġxwest ina
ĠSt embolÃª
ĠbÃªh ÃªvÃ®
Ġbernam eyek
ĠMel etiyÃª
ĠBerxwe dan
ĠOt onom
Ġdi yas
ĠS aziyÃªn
ĠÅŀ ane
Ãİ R
oloj Ã®yÃª
uÅŁt ina
Kar bidest
Ġway Ã®r
Ġdiger iyan
kur mancÃ®
ĠL ou
ĠØ³ ÙĪÙĦÙĩ
Ġgul eyan
ĠwÃ®l ayeta
OY BUN
Ġt abÃ®
iÅŁ kÃ®
ÃªÅŁ Ã®nin
Ġzarok tiya
Ġer Ãªkirina
Ġend ez
ĠÃ®ns anÃª
ĠDin yayÃª
ĠØªØ±Ø¨ ÛĮØª
Ġerd nig
ĠXir istiyan
ĠxwedÃª giravÃ®
ew Ãª
Ġhev d
lik en
j Ãªr
ĠØ§Ø´ ØªØ±
Ġdadgeh kirin
b Ã»kÃ®
Ñ ı
Ġin dex
ĠØ§Ø³ Ø±Ø§Ø¦
ĠÃĸ calan
ĠØª ÛĲØ±Ùĩ
Ġox ira
ĠØ¨ ØªÙĪØ§ÙĨ
ĠØªÙĪ Ø§ÙģÙĤ
Ġch ang
e urs
Ġliv re
Ġm Ã©
L O
ĠÙħØ¹ ÙĦÙħ
Ø· ÙģÛĮ
ÛĮÙħ Ùĩ
ĠØ§Ø±Ø¯ Ø¨ÛĮÙĦ
ĠÙĨÙĤ Ø§Ø·
ĠÙĩÙħÚ©Ø§Ø± Ø§ÙĨ
Ġh end
Ù¾ ÙĪØ´
ĠÛĮØ§Ø¯ Ú¯ÛĮØ±ÛĮ
ĠÚħ Ø§Ø±
ĠO f
ap os
ĠV eg
Ġtit re
ĠÚ©Ø§Ø±Ø¯ Ø³ØªÛĮ
L A
ÙĪÚĵ ÛĮ
yt h
um et
ĠÙ¾ Øª
ĠBir o
Û±Û³Û¹ Û´
Ġma chine
Û ķ
ab as
ĠrÃ© v
ue ur
ay ne
ĠK as
ger m
P C
ĠØ¢Ø± Ø²ÙĪ
is ser
ĠM ekt
ĠØ±Ø¶ Ø§ÛĮØª
ĠØ§ÙħØ±ÙĬ Ú©Ø§
ĠMar k
ĠØ³Ùģ Ø±Ùĩ
ĠÙ¾ Ø§ÛĮØªØ®Øª
ĠØ±ÙĪØ² ÙĩØ§ÛĮ
ĠØ¬ Ø§Ø¯Ùĩ
ĠZ iv
Ġma i
Ġrepr Ã©sent
ĠB et
ul ar
ĠØ§Ø³Øª Ø±Ø§Øª
ĠØµ ØŃÛĮØŃ
B ers
Ġm Ã©d
ĠÙĬÙĪ ÛĲ
y akÃª
ÙĤ Ø§Øª
ĠX ora
ĠÃªv ara
Ġdos yayÃª
Ġguneh Ãªn
ĠMalm Ã®san
ĠÄ¥ iÅŁÃ®n
ĠTÃ»ÅŁ bayÃª
Ġb Ã®na
Ġw uha
Ġz arÃªn
op Ãª
ĠtÃªkil Ã®ya
ĠrÃªz imanÃ®
Ġxwed Ã®kirina
Ġbakur Ã®
ĠpÃªng avÃª
Ġmay Ã®nan
ĠmÃ®t Ã®ngÃª
ĠYE yÃª
ĠÅŁir Ã®kÃª
ĠÅŁor iÅŁ
H eft
g arÃª
l al
t iÅŁtÃª
ĠØŃ Ø±Ùħ
Ġkom Ã®t
ĠpiÅŁt gÃ®r
Ġpay Ã®n
ĠtarÃ® f
Roj nameya
ĠÃªv ar
Ġs Ã®nga
Ġst andina
Ġmeh ek
ĠPKK yÃª
Ġqed erÃª
ĠEn iya
Ġleh engÃª
Ġsil og
kerd iÅŁÃ®
ĠtÃªgih iÅŁtin
Ġfaris an
Ġferheng Ãªn
Dest eya
ĠNor wÃª
Ã» ewropÃ®
in arÃª
Ġn Ãªn
Ġx Ã»ya
ĠÃĩ ag
Ã»m ar
Ġaw az
Ġsa etÃª
Ġyew na
ĠTiÅŁt ekÃ®
Ġkurs iyÃªn
ĠXwend evanÃªn
Ġkax ez
Ġe ux
Ġy arÃª
ĠKurdist ane
ĠbÃª bext
ĠrÃªz e
ĠÚī ÙĬØ±
Ġxweser iyÃª
Ġalb umÃª
ĠdÃ®y alog
m alÃª
ew iyan
Ãªz e
ĠtÃª geha
Ġrad ikin
ĠmÃªr ik
Ġbas kÃªn
Ġberpirsiy arÃª
ĠKurd ek
ĠrÃª Ã§a
hat Ãªn
ult anÃª
ĠGir ava
ĠÅŁa ir
Ġdewlem endÃ®
y etÃª
Ġal fabe
ĠG uh
Ġsey da
im Ã®ne
ĠÅŁah Ãª
Ġpros esÃª
ĠdengbÃªj iyÃª
ĠV ebij
Ġdin Ãªrim
Ġhin ard
Ġe gÃ®d
kef tinÃª
Ã®ÅŁt ina
ĠbÃªr iya
ĠAst ya
Ġz onÃª
ĠÅŁagir dÃªn
Ġgunc av
Ġpr akt
ĠÂłĠÂł ĠÂłĠÂł
m ir
Ġinter net
ter s
ĠÙħØ¹Øª ÙĤØ¯
Ġs inc
ĠÚ©ÛĲ Ø¯ÙĪ
u Ã©
Ø±ÛĮ Ø§
Ġsera it
ĠÚ© Ø¨ÙĪØªØ±
ĠØ¬Ø±Ú« ÛĲ
ĠØªÙĩ Ø¯ÛĮØ¯
ĠÚĨØ§ÙĦ Ø´
ĠØ±Ø³ Ø§ÙĨ
iqu Ã©
az in
Ú« ÙĬ
ang o
ĠØª Ø±Ø¯
ĠÙĨÚĺ Ø§Ø¯
ĠØ¢Ø±Ø§Ùħ Ø´
n az
or ation
Ø§Ø´ ÛĮÙĩ
Ø¹ Ø§ÙħÙĦ
ĠÙ¾Ø§ÛĮÛĮ Ø²
f el
ĠØ¯Ùĩ ÛĮÙħ
ĠAn al
Ġmeille ur
Ï Ĥ
ĠH ur
Ġra w
P T
ĠÙ¾ÙĨ Úģ
ita ire
ĠT ra
ĠØ§Ø¨Ø¹ Ø§Ø¯
Ġp em
ov erd
.... ....
ÙģØ§ Ø¹
ĠE uro
Ú« Ø§ÙĨ
r ey
ĠØ³Ø¹ ÛĮØ¯
ĠN ura
ĠÙĦ Úĵ
K il
ĠPol at
Ġdiv ers
ĠkarÃ® bÃ»
Ġbetal kirin
ĠZeh ak
K urÃª
ĠK asim
ĠB ap
Ġkir a
ĠnexweÅŁ xan
ĠhÃªj mara
Ġdel Ã®lÃªn
Ġbend avan
Ġr oyÃª
ĠA dar
Ã®ÅŁ Ãªr
Ġhey vÃª
if ade
Ġpirs ek
Ãİ car
ĠkÃª lÃ®
ĠÃ§Ã®rok eke
Ġred aks
Ġmas eyÃª
Ġrag h
ĠParÃªz er
ĠdÃ®nam Ã®k
ĠB enÃ®
Ġf Ãªde
Ġhat Ã®ne
Ġra bÃ»na
ĠW aÅŁ
Ġhey atÃª
Ġserk eft
Ġnetewe y
ĠparÃªz eran
ĠÃªz idiyan
ĠbeÅŁdar iyÃª
ĠdinivÃ®s Ã®
Ġruh anÃ®
Ġhedef Ãªn
ĠMet Ã®n
Ġzordest Ã®
Ġbetlan eyÃª
ĠpeyÃªn an
Ġmehr Ã»m
ĠMosk vayÃª
ĠSelahat tin
M ehmet
b ariya
er Ã®n
Ġber eket
is Ã®ne
erm Ã®
ĠwekÃ® lÃªn
Ġbar ana
ĠmÃ®nak ek
Ġrakirin e
Ġod eyÃª
ĠkÃ®m ya
ĠtelevÃ®z yona
Ġhevr eha
bey d
ĠbikÅŁ Ã®nin
ĠProj eya
ĠsÃ®g ort
em anÃª
ĠD axuyaniya
ĠlÃª danÃª
kar ekÃ®
ĠmÃªr anÃ®
Ġrev andina
ĠteÅŁ eb
Ġxwendek arÃª
Ġveguher Ã®na
ĠdirÃ»ÅŁ ma
Ġb ÃªrÃ®
Ãªn iyÃªn
Ġdest hel
ib Ã®n
Ġreng an
Ġqer ara
Ġparlement oyÃª
Ġosman iyan
H ew
b Ã®l
ĠC indÃ®
Ġbic ive
ĠØ§Úĵ Ø®
Ġnedi da
ĠBaz Ã®dÃª
Ġx oÅŁ
ĠN Ã®z
Ġs ic
Ġq azan
Ġdixw ar
Ġay eta
ĠderhÃªn erÃª
ĠÙĨÚ¯Ùĩ Ø¯Ø§Ø±ÛĮ
Ġazad iyÃªn
ĠHar pag
Ġ( *
Ã¼ m
ĠÃ§ap kirinÃª
irm eyan
Û¹ Û·
ĠØ¨Ø² ÙĨ
ĠG ez
ĠØ¢ Ú¯Ø§Ùĩ
Ġbij Ã®m
Ġpk kÃª
N Ã»r
ĠÙħØ¹ÙĨ Ø§ÛĮ
ĠÙħ Ú«Ø±
C E
ĠØ¹Ø¨ ÙĪØ±
Ġqu oi
Ġk ara
ĠØ² ÙħÙĪÙĨÚĸ
Ġen tr
ĠØ§Ø±ØªØ¨Ø§Ø· Ø§Øª
Ã¼t sch
id s
ĠØ¯ ÙĬÙĨ
ĠMem o
ĠØ³Ùģ Ø§Ø±Øª
ĠÙĨÛĮ Ú©
Ġcond itions
Ġma in
ĠØ¬ÙĪÚĵ Ùĩ
ĠØ¶Ø± ÙĪØ±Øª
N T
ĠWashing ton
Ġjan vier
ĠÚ© Ø¨ÙĦÙĩ
ĠØ± ÙĪÙĦ
ĠÙĦØ° Ø§
w at
Ġcom mer
Ã©g or
ĠS ah
ĠØ¹ ÙĪØ§Ø±
ĠdÃ© m
Ġr ou
ĠÙĪÙĬ ÙĦ
ĠØ³Ø®ÙĨ Ø±Ø§ÙĨÛĮ
ĠÙģ ÙĪ
ĠÙħØ¹ ÙĦ
ĠU st
L I
ĠØ§Ø¹ØªØ± Ø§Ø¶
ĠÙģØ±Ùħ ÙĪØ¯
Ġje unes
ect if
Ø§Ùħ ÙĪÙĨ
ĠØ§ÙĦ ÙĪØª
k or
ĠÙĦÙĬ Ú©
N AK
ĠbÃ©n Ã©f
irs in
ĠØ±ÙĪ Ø³
Ġtem s
ĠØ±Ø¹ Ø§ÛĮØª
Ú©Øª ÙĪØ±
ĠTAB NAK
ĠÙħØ® Ø§ÙħØ®
ĠFil m
Ġl in
ill erson
ĠÙĤØ¨ ÙĦÛĮ
ĠÛĮÚ© Ø¯ÛĮÚ¯Ø±
ĠZ ir
Ġh and
ĠMad r
ĠLal o
r ed
ĠØ§Úĵ ÙĪÙĨØ¯
ĠdÃ©couv rir
ÚĨ ÙĨÛĮÙĨ
Ġj ap
ĠØ³ ÛĮÙĦ
ĠM Ã»
Ġv et
Ġcor ps
ĠÙħØµ Ø§ØŃØ¨Ùĩ
Z azakÃ®
m uÅŁ
Ġbih uÅŁt
ĠKar er
ĠBay demÃ®r
Ġpeywend Ã®yÃªn
ĠÃ®mz eyan
ĠTÃªl iyÃª
iÅŁt e
iyan etÃª
Ġkurmanc iyÃª
Ġsin orÃª
ĠSÃ®n or
Ġist ixbar
ĠKongr eyÃª
Ġx ut
ĠY apici
ĠW aliyÃª
Ġneb Ãªje
ĠEnd ama
Ġxizmet guz
ĠbÃªj eyÃªn
Bir yara
Ġdever eke
ĠserpÃªhat iya
ĠSems Ã»rÃª
Ġbidar v
R Ãªz
l anÃª
s Ã»d
w Ã®n
w erÃªn
as Ã®yÃª
ĠT ayÃ®
Ġgelek an
Ġdaxwaz iyÃªn
ĠBer nameya
Ġsur yan
ard s
Ġxebat e
Ġperg aleke
ĠAmed Ã®
Ġyas a
Ġmudax el
ĠniÅŁtec ih
ĠÃĬr Ã®ÅŁÃªn
Ġciya waz
ĠKatal onyayÃª
g ilÃ®
p Ã®Ã§
ÅŁ eh
Ġaway an
Ġdoz geriyÃª
Ġtal Ã®m
ĠXan im
ĠAx ayÃª
ĠFÃ®l man
A lÃ®
Ġdi le
Ġr Ã®sk
Ġz ex
ist Ãª
ĠJ Ã®
Ġen ternasyon
ĠBer warÃ®
ub Ãª
Ġveger Ã®nin
Ġwez Ã®ran
ĠmÃ®nak an
ĠAy ÅŁe
ĠEd enÃª
Ġsax Ã®
pir sa
Ġdarv ekirinÃª
ĠBerhem Ãªn
ĠrÃª bend
ĠHev ÅŁared
ĠrÃªbaz an
ĠÅŁan oyÃª
Ġdijber Ãªn
ĠENK SÃª
C R
Ġser werÃ®
ĠdÃª v
nam eyek
ĠfÃ®z Ã®k
Ġberpirsiy arÃ®
ĠcÃ®bic Ã®
Ġcang or
D Ã®rok
ĠnexweÅŁ Ãªn
Ġbix Ã®nin
Ġbij arte
ĠØ¨Ú¯ÛĮØ± Ø¯
ĠÃ ³
Ġpar al
ĠÅŁer ek
Ġheb u
ĠÚī ÙĬ
or o
Ø±ÙĪ Ù¾
ĠØ¯ ÙħÙĪ
ĠÙĨÚ©ÙĨ ÛĮØ¯
ĠÚĨ Ú©
ĠØ®Ù¾ÙĦÙĪ Ø§Ú©
ĠØ§ Ú©Øª
y p
ĠØ¶ Ø±Ø¨
T ek
ĠØ²ÙĦ Ø²ÙĦÙĩ
sch aft
Ø¨Ùĩ Ø´Øª
" )
ĠÙħ Ø§ÛĮÙĨ
ĠB erd
ĠÙ¾Ø±ÙħØ®Øª Ú«
s em
ÙĪØ¯ Ø±
n im
ĠÙħØ´ Ø§ÙĪØ±
a is
19 32
int Ã©
B R
ĠØ®ÙĪØ¯ Ø´Ø§ÙĨ
ax e
ĠÙĥ Ùħ
T EV
Ġc ul
ĠT ex
Ø§Øµ Ø±
ĠÚ©ÙĦ ÙħÙĩ
Ġh or
ĠTh omas
ĠØ¹ Ø²
ĠÙħ ÛĮÙĨ
y ana
ÛĲ Úļ
ĠØ§Ø¬ Ø§Ø±Ùĩ
Ġel les
ĠFran c
em ar
Ġj et
ĠÚħ ÙĪÙħØ±Ùĩ
ĠÙ¾Ø§Ø± ÚĨÙĩ
ĠÙħÛĮ ØªÙĪØ§ÙĨÛĮØ¯
ĠØ³ÛĮÙħ ÛĲ
ĠÙħÙĨØ§Ø³ Ø¨Øª
Ø³ Ø§Ø®Øª
Ġt ang
h istoire
Ġpl ans
ĠH est
ĠDav id
ĠØªØ§ Ø¬
ÙĪÙĨÛĮ Ú©ÛĮ
ec teur
ĠÙĨØ¸ Ø±ÛĮ
Ġoct obre
l ak
Ġret our
Ġhorm one
Ġr emp
Ġpas se
Ġv ia
ĠØ§ Ú¯Ùĩ
ĠØ³ ÙĨØ¬
Úĺ ÙĬ
ĠÚ©ÙĪÙħ Ùĩ
194 1
Ã§ ois
ok er
Ġx ecÃª
ĠâĢľ -
Ġhind irÃª
Ġmas Ã»l
ĠNÃ» Ã§eyÃªn
ĠDDK DÃª
ĠdestdirÃªj iya
ĠCib rÃ®
ĠErdÃ® ÅŁÃª
Ġkom Ã®ta
Ġtun ekirinÃª
ĠnexweÅŁ xane
Ã»h enna
gl uk
Ġhij mara
P Ã®r
ĠÅŁ eytan
ĠX aÅŁ
tir Ã®
Ġes erÃª
ĠHey va
ĠÃ§ekdar an
Ġplan kirin
Ġek olojÃ®k
ĠÃ®t alÃ®
ĠÃ®de olojÃ®
ĠpÃªÅŁbirk Ãª
Ġkonsep ta
ĠbÃªdewl et
S eba
T iÅŁtÃª
c ihÃª
iÅŁt inÃª
ĠÃª la
ig s
Ġdig h
ĠEh rar
Ġbor iyeke
ĠÃĩil eyÃª
ĠDestpÃªk Ãª
ĠÃ§ iv
ĠS Ã®l
Ġew na
ĠÃĩ avÃªn
ĠÃĩ andÃ®
ĠKurdistan ek
Ġbig uh
ĠpiÅŁtgir Ã®yÃª
ĠÃ®m anÃª
Ġreferand uma
ĠAy et
Ġorg anÃªn
Ġlat Ã®n
ĠbÃ®y anÃ®
Ġzinc Ã®ra
Dad geha
D ibÃªjin
m Ã®ÅŁ
ir andina
Ġp Ã®
ĠK enan
ĠH ebÃ»na
ĠnivÃ®s andÃ®
Ãİ m
Ġter ik
uda w
Ġmes Ã»l
Ġsa eta
ĠbiÃ§Ã»k tir
ĠkiÅŁand e
Ġsew qÃ®
Ġwergirtin e
and arÃªn
Ġhew ara
Ġsaz iyeke
Ġrawest an
Ġbomb eyÃ®
ĠPirs girÃªkÃªn
Ġl oi
Ġz inar
Ġda Ã®mÃ®
Ġmes af
ĠhÃ®n kirina
Ùĥ Ø§Ø±
Ġq ol
Ġjin ikÃª
Ġdiyar d
Ġmab ÃªnÃª
Ġgot arek
ĠÙħ Ø³ÛĮ
ĠØ¹ Ø§ÙĦÙħ
ĠV ar
Ġnasnam a
ĠÃ§erÃ§ov eya
ĠM eÅŁa
Ġrih etÃ®
o de
Ġf u
Ġwer gire
Ġcon stit
y or
Ġron ah
we s
ĠÙĦ ÙĪÙĬ
ĠOz g
Ġpro cha
ĠN ev
ĠØª Ø§Ø³
Ġfinan c
ĠØ´ ÙĦ
Ġtex te
ĠØµ ÙĦØ§ØŃ
Ø® ØªÛĮ
] [
ĠØ¢ Ø¯Ø±Ø³
Ġs m
ĠØ³ Ú¯
ĠØ¨ ÛĮØ¯
ic ations
ĠÃ© p
A t
Ġn id
Ġmaint enant
at ek
ĠÙħØ³ÙĦÙħØ§ÙĨ Ø§ÙĨ
L E
Kurd ish
Ø§ÙĪ ÙĪ
Ø¨ ÙĪÙĦ
ĠR eg
ĠÛĮ Ø§Ø¨Ø¯
1 18
Ù¾ ÙĪÙĩ
ĠÃ© d
Ġg i
ĠÙħØ¤ Ø³
Ġbo is
ĠØ¬ÙĨ ÙĪØ¨ÛĮ
Ġc entre
Ø¢ ÛĮØ¯
ĠØ³Ùĩ Ø§Ùħ
15 00
por te
Z A
ĠØ§ÙĨ ØŃ
ĠÙħ ÙĨØ¯
uc t
ĠC ont
ĠÙħØ± Ø¬Ø¹
N S
ez in
ĠÙĦ Ø²
ĠØŃ ÙĬ
ÙĨ Ø§ÛĮ
ĠØ³Øª Ø§Ø¯
R L
ĠÚ©ÙħÛĮ ØªÙĩ
ĠPap a
o ber
Ġad res
ĠÙħØªØŃ Ø¯
ĠØª ÛĲØ±ÙĪ
ĠØ³ ÙĦÛĮ
ĠØ¢ÙĨ ØªÛĮ
ĠLav rov
ĠÙģØ± Ø¢
ĠÚĨ Ù¾
ĠØ¨ ÙĨØ¯Ùĩ
Ã ħ
ic Ã®
ĠX ab
ob a
ĠTw itter
ĠÙħØ· Ùħ
ĠÙħØŃÚ© ÙĪÙħ
ĠÙĪ Ú©
ĠØ´ ØªÙĪÙĨ
rop ag
ĠÚ©Ø´ Øª
Ġpan z
M uz
l og
ĠX o
Ġg ÃªnÃª
Ġnik arÃª
ĠPer lem
Ġdun ya
Ġfilist Ã®nÃ®
c aran
Ġ ÄŁ
Ġser j
Ã®y en
Ã®y atÃª
ĠD eÅŁta
ĠA kar
Åŀ ared
ĠcÃ®h azÃªn
Ġdev okan
Ġciw anÃª
Ġzanyar iyan
Ġrol ek
ĠSi Ã»d
Ġmu ey
Ġvexwar ina
ĠdifiroÅŁ in
Ġdefin kirin
ĠØ§ Ú©Ø³
Ã®y Ãªka
ĠT eÅŁkÃ®l
Ġne gire
Ġderb azÃ®
Ġberd idin
ĠxwedÃ® derketina
Ġberdewam e
ĠrÃªxistin ek
ĠrÃªz ik
Ġamad ekarÃ®
Ġdigih Ãªje
Ġparlem ana
ĠbiÅŁop Ã®nin
iy aran
Ġt iw
ĠÅŁ emiyÃª
ĠB Ã»k
ĠH Ãªr
Ãªr ana
Ġkom ikÃªn
ĠBi Ã§Ã»k
ĠÃĬ n
Ġgih aye
ĠHev bendiya
Ġwin Ã®
Al Ã®karÃª
Ġod eyÃªn
ĠedebÃ®y atÃ®
Ãĩalak iya
ĠTw itterÃª
LÃªb elÃª
Ġq ah
Ã®l kÃªn
Ġdaxwaz iya
Ġrej Ã®mÃªn
ĠnÃªr Ã®nÃª
Ġxan eyÃª
Ġdern exist
parÃª zan
abÃ» yÃ®
ĠSa Ã®d
ĠLÃªkol Ã®na
ĠÅŁid eta
Ġtohm eta
ĠM azÃ®
asÃ® f
Ġzarok Ã®
ĠÃ§areser Ã®yÃª
ĠtÃªkoÅŁ er
Ġnem an
ĠÃªÅŁ Ãª
Ġfor mÃª
Ġmux alif
ĠsemÃ®n er
Ġbixap Ã®ne
ĠE dÃ®
ĠbÃª der
era q
Ġseds alÃª
Ġnew ro
Mirov Ãªn
ĠfÃ®n alÃª
Ġdic ivin
ĠWext o
Ġbi fir
Ġp Ã®lan
Ġs uh
ĠbÃª ser
Ġgur r
Ġnad im
Ġagirbest a
Ġmirov atÃ®
bij artina
Ġnak evin
ĠD un
Ġgor an
ÅŀoreÅŁ a
ĠsÃ»r iyÃª
ĠWÃ®kÃ®p ediya
Ġmin utes
Ġkol anÃª
w arÃª
Ġderbas dar
bdul lah
Ġtaybetmend iyÃª
Ġzilam ek
Ġzan k
ĠN Ã®
Ġd ass
ing s
... ]
r ut
Ùħ Ø´
Ġphot o
st er
Ġv iyana
C I
ed ag
Ä± ran
ĠØ®Ù¾ Ø±
Ø³ØªØ§ Ú¯Ø±Ø§Ùħ
ĠÙ¾Ø°ÛĮØ± Ø´
ĠØ¨Ø± Ø§Ø³Ø§Ø³
Ø® Ø§Øµ
ĠÙ¾ Ø°
ĠÚ¯ ÙĪÙĨØ§
ĠÙħÙĪ ÙĩØ§ÛĮ
ĠÙħÙĤØ§Ø¨ ÙĦÙĩ
s un
ĠÙĨØ¬ Ø§Øª
Ġp ant
ĠÙĩÙĪ Ø§ÛĮÛĮ
ĠØ² Ø®
n ews
ĠVide os
Ãª s
ĠØ´Ø± Ú©
ĠÙħ Ú¯
Ġv ur
ĠØ³ÛĮÙħ ÙĪ
is sa
Ġmel od
Ġ( ...)
am ent
ĠEr ol
.. ...
ĠØ¹ÙĦ ÙħØ§
r iÃ¨re
Ġy et
ÙĤ Ø§ÛĮ
ĠÙĩÙĪ Ø§ÛĮ
ĠdÃ© ta
c em
ĠR oh
Ġ _
ĠdiffÃ©r ents
ĠÚ©Ø±ÙħØ§ÙĨ Ø´Ø§Ùĩ
ĠÙĨÙĪ Ø¹ÛĮ
T T
Ġdonn er
ĠØªØ§Ú© ÙĨÙĪÙĨ
Ġz eb
ĠÙħØ¬ ÙĪØ²
Ġmin et
re am
m Ãªme
m it
ĠdÃ©c embre
ĠØ¬ Ø±
p on
ĠB on
ĠÙĤØ¶ Ø§ÛĮÛĮ
ĠZ eb
utilis ation
ĠÙħØ®Ø§ÙĦ ÙģØª
o Ã»t
er da
ĠAv ec
ot ab
r ique
Ġbo t
ĠØ§ÙģØºØ§ÙĨ Ø§ÙĨ
ĠPal o
ĠØ§Ø´Øª ØºØ§ÙĦ
ĠG enc
ĠØ¨Ø± Ø¯Ø§Ø±ÛĮ
ĠÛĮ Ùĥ
ĠØ§ÛĮÙħ ÛĮÙĦ
re c
n ewÃ®
ĠÅŁ ahiyÃª
ih at
Ġmal ikan
ĠZ ubey
Ġkom elÃ®
ĠHer kes
ĠKom arÃ®
ĠÃ§ek uy
ĠleÅŁker iya
ĠÃİm pÃªratorÃ®ya
ĠÙĩØ¯ Ø§ÛĮØª
ĠFÃ®l Ã®st
ĠÃİnan olo
T iÅŁt
ĠH adÃ®
Ġher em
ĠhÃª lÃª
ĠQ ij
ĠÃ§i x
ĠEz az
ĠpaÅŁ guh
ĠanÃ® bÃ»n
ĠÅŀer vanÃªn
Ġhild aye
Ġplatform Ãªn
ĠPEN a
Ã®y Ãªk
ĠO deya
ĠnavÃ§ a
Ġdid ane
Ġcin sÃª
ĠUr dinÃª
Ġguhdar Ã®ya
Ġgirs eya
ĠgrÃ» pa
ĠAbd urr
ĠdiweÅŁ Ã®ne
ĠtÃªdik oÅŁe
Ġsemp ozy
Ġdestwerd ana
jm inÃª
ĠÅŁ al
ĠÚ© ÙĪÙĦÙĩ
Ġra hÃªn
Ġend ust
Ãĩ et
ĠRÃ»s iya
Ġbar andin
Ġhewc eye
ĠCar ekÃª
Ġalb Ã»m
ĠdeqÃ®q eyan
ĠÃ®di ayÃªn
r ekÃ®
Ġn iya
ĠØ§ ÙĦØ§
ĠH ingÃ®
ĠN ord
Ã®d eyÃª
Ã®h Ã®
Ġserok om
Ġhest Ãª
ĠBeÅŁ ek
Ġnetew an
ĠPol Ã®tÃ®k
ĠpÃªngav eke
Ġbombebar ana
ĠtattoÅŁ Ãªn
Z eyn
ÅŁ erÃª
ĠK ab
ĠW es
ĠnÃ» j
Ġhinek Ãªn
Ġnam Ã®nin
Ġsu ff
Ġnef sa
Ġsef erÃª
ĠÅŁirov ekirin
Ġnev iyÃªn
Ġdi dÃ®
ĠÅŁ axÃª
Ġne anÃ®
ĠXwe dÃ®
ĠbÃªh iÅŁ
Ġzar avÃªn
Ġziwan o
ĠKeÃ§ a
ĠmetirsÃ® dar
M afÃª
p erÃª
Ġpir zimanÃ®
ĠdÃª l
ĠwekÃ® l
Ġmeh ane
Ġsun Ã®
Ġwij dan
ĠBelÃ§ Ã®ka
ĠÅŁ irÃ®n
Ġq iy
ĠpÃªk en
Ġseb r
Ġaj otin
Ġmez r
Ġqis mÃª
ĠÅŁar ez
ĠÅŀÃª wirmendÃª
ĠrÃªgez Ãªn
ĠteÅŁ e
ĠKil Ã®sÃª
ĠserÃ»b in
ĠØ¯ ÛĮÙĨÛĮ
ĠÃ®lan kirina
k eyÃª
Ġdij Ã®m
la g
P A
Ã»s an
ĠEc em
Ø± Ø¶Ø§
Ġso ut
ĠØ§Ø® ÙĦØ§ÙĤ
ĠÃ» r
ĠSov Ãª
Øª Øµ
ĠØ¢ ÙģØª
Ġderbir Ã®na
Ġhest an
Ġaut our
ĠM end
ĠF am
ĠQ ue
Ġmil Ã®tan
M C
ĠØŃ ÙģØ§Ø¸
Ġe hm
ĠØ±ÛĮ Ø§ÙĦ
ĠØ¢ Ùģ
ĠØ¨Ø§Ø² ÙĬ
ĠØ·ÙĪÙĦ Ø§ÙĨÛĮ
struc tion
ĠØ¨ ÙĪØ´
Ġpropr i
ĠØ¨ Ø§Ùħ
ĠØªØµ ÙĪØ±
Ġnouv elles
ĠØ§Ø¹Øª ÙĤ
ĠÚ©ÛĮÙĦ ÙĪ
Ġcontrat s
Ġbom bar
O n
Ġqu at
16 0
Ù «
3 000
Ø¯ Ø§Ø´ØªÛĮ
Ġeurop Ã©
ĠÂ ĸ
Ã¤ ng
ĠØªØ§ Ù¾
ĠØ´Ùħ ÛĮØ±
ĠÙ¾ÛĮ Ú¯ÛĮØ±ÛĮ
Ù¾Ø¯ ÛĮØª
Ġacc ess
ĠS lov
ĠP is
ĠØ®ÙĪØ± Ø´ÛĮØ¯
est ions
Ġple in
Ġpl ut
ĠC al
ĠE le
ĠÙģ Ø§ÙĨØª
ĠÚ©Ø§Ø± Ø¨Ø±ÛĮ
ĠIn ventaires
ĠØ² Ø±
Ġfav or
ĠÙĦ ÛĮØ¯
ĠProf es
ĠÙĨØ¨ Ø§Ø´Ø¯
ĠS ek
z o
Ùĥ Ø§ÙĨ
ĠØ¨ÛĮÙħ Ø§Ø±Ø§ÙĨ
ÙĨ Ø¸Ø±
ĠAng el
ro g
ĠÙĨØ¨ Ø§Ø´
ĠØ± ÛĮØ´Ùĩ
ha q
K el
Ø§ Ø«
ÙĪÙħ Ùĩ
ĠÙĤØ· Ø±
Ú© ÛĮØ¯
ĠA q
ht ag
ĠØ³ØªÙĪÙĨ Ø²ÙĪ
ĠÚļÙĪ ÙĪÙĨ
lo w
ĠDur an
ĠÚ¯Ø° Ø±
ĠZ e
AK P
ĠAtat Ã¼rk
ĠTurk men
Ġx ar
ĠA sta
ew at
ag it
ÚĨ ÙĨØ¯
Ġk Ã®s
ĠbÃ» kÃª
Ġhelbest eke
Ġnef es
Êķ nÃ®
Ġmintiq aya
ĠDiya sp
ĠUnÃ®vers Ã®teya
h eqÃª
Ãªn as
Ġbi qet
Ġy i
Ġa geh
Ġday ne
ĠpaÅŁ navÃª
ĠSer best
Ġasteng iya
Ġstir an
ĠSun Ã®
E ÅŁ
iy ayek
ay Ã®yÃªn
ĠN Ã®ÅŁ
ĠtÃªk Ã§Ã»
Ġxel kÃ®
Ġguh darÃªn
ĠkÃªm netewe
ĠÃ§alak Ã®yan
Ġneh ÃªnÃ®
ĠaÅŁt iya
Ġgun ehÃª
aÅŁt in
ĠGor anÃª
ĠbihÃ®st iye
ĠXarpÃª tÃª
Must afa
E mÃª
ĠK eÅŁ
ĠÅŁ Ã»rÃª
ĠS end
ĠH Ã®l
ad arÃ®
ĠC eza
Ġtev Ãª
ĠÃĩ andin
Ġhil dik
Ġziman eke
Ãĩ Ã®rok
Ġcem awer
ĠleÅŁker ek
Ġray edaran
Ġres m
Ġat omÃ®
Ġtil iya
Ġwerbi gire
RÃªveb eriya
ĠBazirg anÃ®
y eka
Ġc eb
ĠpÃª ser
Ġkir Ã®nÃª
ĠÃİ LKHA
iÅŁ Ã®ne
Ġhel bijartin
Ġmer eq
Ġmer kezÃ®
ĠØ±Ø³ ÙĨÛĮÙĪ
Ġafir andine
ĠhilweÅŁ iya
Ġnamz ed
Ġley Ã®st
A yÃª
k eÅŁ
Ġp abend
Ġser jim
ĠÅŁ iyana
Ã®ÅŁ kÃªn
Ġdew Ãª
ĠSer fermand
ĠlÃªkolÃ®n eke
ĠXwend in
Ġsex e
ĠJap onya
ĠOper asyonÃªn
Net ewe
ĠÃ§ ava
Ġved a
Ġagah iyÃª
Ġstand art
ĠK Ã»p
oj Ã®
ĠÃªrÃ®ÅŁ ek
ĠpirtÃ»k xaneya
ĠgirtÃ® geh
ĠRojhilat Ã®
ĠW all
Ġch oses
Ġcara ct
ĠbÃªk ar
ĠQud s
ĠMens Ã»r
Ġdihes ibÃ®ne
T urk
Ø¨ Ø´
ĠbÃª ber
ĠÃ®mpar ator
ĠBext iyar
Ġdiqed Ã®ne
Ġda xistina
Ġstat Ã»ya
Ã®v anÃªn
ĠÅŁoreÅŁ eke
il andin
Ġdih iz
Ġkol etiyÃª
ĠØº ÙĪØ±
ĠH an
ĠAm arayÃª
Ġd Ãªrsim
Ġan ci
ĠØ¹ÙĦ ÙħÙĬ
ÙĨ Ø¸
ĠN ap
Ġpi ed
ĠØ§ÙĦÚ©ØªØ± ÙĪÙĨÛĮÚ©ÛĮ
Ġal i
ÙĪÛĮ Ø³ÛĮ
Ø¦ ÛĮØ¯
Ġco de
nas Ã®yÃª
ad or
Ġ ).
ic les
ĠMam lÃª
196 7
Ã©r ica
Ġfac il
ĠÙģØ±Ùħ Øª
ger s
Ġsema ine
Ġlo in
ĠÚĨ Ø´
Ã¼ z
ĠÙĨÚ©Ø±Ø¯ Ùĩ
ĠÙħÛĮÙĦ Ø§Ø¯
ĠØªÙĤ Ø³ÛĮÙħ
ĠÚ©ÙĨ Ø³
end s
us ement
ĠØ³ ÛĮØ±
Ġr i
ĠÙ¾Ø±ÙĪ Ø§ÙĨÙĩ
Ġsur e
ak in
ĠØªØŃ ÙĪÛĮÙĦ
ĠÙģ Ø¶Ø§
ĠÚģ ÛĮÙĨÙĪ
ĠØ¯ÛĮØ¬ÛĮ Ø§ØªÙĪ
Ġx e
Ġmar keting
ĠS ec
Ġin tern
ĠØ³Øª Ø§
ur ant
h u
Ù ©
Ġmar que
in Ã§
ĠrÃ© fÃ©r
ĠV ers
D aw
k are
ĠÙĪØ§ ÚĺÙĩ
ĠÙħØ¯Ø± ÙĨ
Z P
ĠÙħ ØªÙĩ
ĠÙģØ± Ø¶
Ġp d
Ġgr up
ann Ã©e
s it
Ã¢ te
ÙĨÙħ Ø§ÛĮÛĮ
ĠP HP
ĠÚ© Úī
ÙĬ Ø¯Ùĩ
ĠØº Ø²
ĠÙģØ±Ø² ÙĨØ¯Ø§ÙĨ
ĠØªÚĵ ÙĪÙĨ
ĠB A
Ġt ov
ĠØ®Ø±Ø¯ Ø§Ø¯
ip p
ÛĮØ³ ÛĲ
Ġp Ã»
---- ----
b ax
ĠØ¨Ùĩ ÙħÙĨ
ĠØ§Ø® ØªØ±
Ġz ara
ĠÙħØ´ ØºÙĪÙĦ
ĠØ¯Ø¨ Ø³ØªØ§ÙĨ
ĠØ¨Ø± ÙĤÛĮ
ĠØ¬ÙĨÚ¯ ÙĦ
ĠÙģ ÙĩÙħ
ĠØ¨Ø²Ø± Ú¯ÛĮ
Ø¨Ø±Ø¯ Ø§Ø±ÛĮ
Ġpen se
irs e
v erÃª
Ø§ÛĮ Ø¬Ø§ÙĨ
ĠEm n
Ġhew na
Ġgr Ã»p
Ġyo w
ĠÃİngil Ã®s
ĠKitÃªb xaneya
Ġ iÅŁk
ĠÅŁ eyt
ĠS Ã®d
Ġdik anin
ĠKurd is
ĠJ Ã®r
Ġbomb ekirin
ĠBex dadÃª
Ġsin orÃªn
Ġgem arÃ®
ĠPak istanÃª
ĠUrd unÃª
g iÅŁtÃ®
Ġm ift
Ġs abit
Ã®r eyÃª
ĠÅŁ ey
ik ekÃª
Ġnav g
Ġew n
ÃªÅŁ Ã®
ĠÚ¯ Ø§Ùĩ
ĠRoj Ãªn
ĠRoj ek
ĠXwe z
ĠSerok om
Ġcud ahiyÃªn
ĠÃ®t ir
ĠheqÃ®q eta
m eke
Ġg irin
Ġg Ã®ÅŁtÃ®
ĠÅŁ ehr
ĠKurd iya
Ġher eketa
Ġgot areke
ĠGel Ã®
ĠÃ© taient
Ġbang Ãª
Ġdoz Ãªn
Ġproj eyan
Ġzanyar Ãªn
Ġtex tÃª
Kom eleya
ĠpÃªwist Ã®
por ayÃª
ĠhelwÃª st
Ġl Ã®z
Ġa henga
ĠÅŀ a
xwaz a
arÃ® z
ĠÃ§ar emÃ®n
ĠdÃ®t Ã®
ĠnÃ®v co
ĠmÃ®l Ã®t
Ġrol ekÃ®
Hev al
Ġrexne gir
Ġabor Ã®ya
ĠÃ®z ah
Civ Ã®na
Ġok u
oqrat Ã®k
ĠdÃ®z ayn
n Ã»s
t Ã®ne
ĠS Ã®nan
ĠbÃª ex
Ġkurd ayetiyÃª
Ġday ka
ĠniÅŁt ecÃ®
ĠhÃªr iÅŁÃª
Ġqal ib
Ġtalan kirin
Ġdernek evin
amin eyÃ®
k anÃª
Ġsp anÃ®
ĠEs as
Ġzar avÃª
Ġermen iyan
ĠRÃªz dar
Ġk ayÃª
Ġji dil
Ġkur ekÃ®
Ġhev ÅŁared
Ġbir ak
ĠHerÃª mÃ®
Ġhest yar
ĠMihemed Ãª
Ġcons id
G uh
Ġciw aniya
Ġderman kirinÃª
ĠÃ§Ãªn ebe
kef tinÃªn
Ø² ÛĮØ±
ĠIn ternational
ĠHun er
Ġneq an
Ġfey de
Ġgiranb uha
iv al
pan yaya
ĠdanÃ»stend ina
Ġbelav Ã®
Ġderman kirina
ĠgotÃ»bÃªj Ãª
Ġkons ept
ĠJ ac
Ġg h
ib Ã®nim
xw arÃ®
gotin Ãª
ĠÙĨ ÚĵÙĬ
ĠÅŁen sÃª
d or
ĠWind ows
xwe dÃª
ol in
Ġra ison
Ġas Ã®dÃªn
ĠÚī ÙĦÙĩ
ĠÚ©ÙĪ ÙĪ
Ġl ur
ÙĩØ§ Ùī
ĠØŃØ³ ÛĮÙĨÛĮ
h ak
ĠØ§Ùħ ÛĮÙĨ
ĠÙħØ¹Øª Ø¨Ø±
ĠØ² ÙĪÙħ
ect ure
ĠØµØ¯ ÙĪØ±
ĠÙĨÙĪØ´Øª ÙĨ
ĠÙħØ§Ø´ÙĪÙħ Ø§ÙĨÙĪ
ĠÙħÙĨ Úī
ĠOr g
ĠØ¨ ÙĦØ§
ĠØªØ± Ø§ÙĨÙĩ
ĠØ¬ ÙĪØ´
ĠÚ©Ø± Ø¬
ĠØ¯Ø±ÙĪ Øº
Ú©ÙĨ ÛĮØ¯
Ġ ina
ĠØ´ Ù¾Ùĩ
ĠÙĪÛĮØ± Ø§ÛĮØ´
ĠÙĩÛĮ Ø¦Øª
l az
Ġc im
Ġd Ã¨s
ĠØ¯Øº ÛĲ
ĠØ« Ø§ÙĨÛĮÙĩ
ĠÙħØ³ÙĦÙħØ§ÙĨ Ø§ÙĨÙĪ
ĠAn tal
ĠØ§Ø³ØªØ¹ ÙĦØ§Ùħ
ĠØ· ÙĪØ±ÛĮ
ĠØµÙģ ØŃØ§Øª
Úģ Ø§ÛĮ
Ġsu jet
Û² Û±
T U
g ay
ĠAl ex
Ġgener al
htt p
ĠØ³Ø± Ø®
A b
ĠØ® ÙĬ
ĠØ§ÙħØ±ÙĪ Ø²Ùĩ
Ġar g
Ġnef s
M ME
ÚĨ Ø§ÙĤ
ĠØ¨Ø¯ÙĦ ÙĪÙĨ
ĠØ¨Ø§Ø² Ú¯Ø´Øª
ĠNa be
l s
ĠØ¹Ùħ Ø±Ø§ÙĨ
ĠØ¬Ø¹ ÙģØ±
Ã© ra
s lan
ĠØªÚ© ÙħÛĮÙĦ
ĠØº ÚĵÙĬ
ĠK ew
H z
Øª Ø¹
Ġl um
am en
c m
ÙĪÙĦ Ø§ÛĮ
10 1
Ġg ak
Ġpar k
t urk
ĠÙĤ ÙĪÙĩ
w aran
ĠJ aba
Ġger eka
ĠSt arÃª
ĠvÃ®dyo yÃªn
u Ã§
Ġa Ã®d
ĠM etÃª
ĠÃ§ar g
Ġhun erm
Ġdaxuyan iyan
ĠlÃ®st eyÃªn
ĠPÃªÅŁ ewa
ĠHin dÃ®
ĠkitÃªb an
Ġcud ahiya
Ġhemwelat Ã®
ĠKonfer ans
Ġnewe yÃ®
ĠmÃ» Ã§eyÃªn
ĠSerxwe bÃ»na
B erdevka
Ġb endÃ®
Ġx overd
ÅŁt ina
Ġq us
ĠÛĮ Ùħ
ĠhÃªz anÃª
ant aj
Ġbim irin
ĠHem ze
ĠHes o
ĠGul Ãª
Ġmat mayÃ®
bik eve
Ġpit ir
Ġxay in
NÃ» Ã§e
ĠDirbÃª siyÃª
L eÅŁ
Ã§ elÃ®
ĠM ux
ĠT Ã®ma
ro yÃªn
Ġpey nÃ®
Ġdev ok
ĠneÃ§ Ã»
Ġwerger andina
ĠperÃ§ eyÃª
Ġsib ata
Ġfam kirin
ĠgihiÅŁt ina
Ã®sy en
ĠAÅŁ Ã»r
ĠpÃªÅŁd eb
crip t
Ġmuq ay
Ġn abÃª
ur Ã®n
eh manÃª
ĠKurd i
ĠP age
ĠN Ã®v
Ġdib are
Ġmirov ane
ĠQ ez
um Ã®
Ġas ayÃ®ÅŁa
Ġbic er
Ġten ik
Ġserbest berdana
Ġderew Ãªn
Ġbindest Ã®
Ġperd eya
Ġih tim
Konfer ansa
m arÃª
Ġbin avÃª
Ġav ad
Ġper an
Ġbed en
Ġsedem eke
ĠnÃ®v eka
Ġwerger and
Ġkonferans eke
ĠdÃ®m enÃª
ĠnihÃªr tin
k endÃ®
Ġd Ãªra
ĠÃ§ imÃª
Ã®y arÃ®
Ġkurd ewarÃ®
Ġkar wanÃª
ĠPer werde
Ġronak bÃ®rÃªn
ur ehman
ĠÃ§ eng
Ġz Ã®l
ĠD amez
Ġroman nivÃ®s
ĠpÃªÅŁk ev
ĠTekoÅŁ er
o girÃ®
Ġm arÃ®
Ã®l eyÃª
Ġdij berÃª
ĠXurmat Ã»
ĠC ur
ph one
Ġent el
ĠOkyan Ã»sa
Dewl et
ĠÙħÙĩÙħ ØªØ±ÛĮÙĨ
Ã®san sa
Ġtakt Ã®k
Ġbi girÃ®
Ġhert imÃ®
ĠØ¨Ø§Ø²ÛĮ Ú¯Ø±
Ø¯ Ø³Øª
Ġdewlet eka
y az
ĠØ¨ ÙĦÛĮØ·
ĠP C
Ġw irÃª
ĠÙħØµ Ø·ÙģÛĮ
ĠØªÙħØ± Ú©Ø²
Ú©Ø§Ø± Ø§ÙĨ
ol d
n est
di de
Ġti tinÃª
Ġjourn Ã©e
ĠS ite
ĠØ¬ ÙĦØ¨
ĠÙħØª Ø§Ø³ÙģØ§ÙĨÙĩ
ĠÚ©Ø§Ø± Ø®Ø§ÙĨÙĩ
ĠØª ÙĪÙħ
Ġmar chÃ©
Û¶ Û°
Ùħ Ù¾
... âĢĿ
ĠM adem
Ø²ÛĮ Ùĩ
M O
ÙħØ§ÙĨ Ùĩ
Ø§Ø² ÙĦ
ut Ã©
oot ball
ĠÃĸ p
ĠÚ¯Ø± Ø§ÛĮØ´
Ġne st
Ġof fr
ĠØªØ²ÛĮ ÛĮÙĨ
Ġh uma
ÙĨÙĪ Ø¹ÛĮ
ĠØ®ÙĪØ±Ø¯ ÙĨ
ĠMer t
f ur
Ġvers ion
Ġli g
ĠØ± Ø§ØªÙĩ
ĠØ§Ø¨ Ø§Ø¯
ĠR an
ĠÙĤ Ùĩ
f al
ĠØ§Ú© Ø«Ø±
E X
Ġp aran
ĠÙħØ¬ ÙĦ
v ers
ĠS ag
ĠÙĦ ÙĨØ²
ĠP utin
ĠÙĪÛĮØ¯ Ø¦ÙĪ
ĠØ§ÙĨØªÙĤ Ø§Ø¯
Ġmet rop
ĠB ona
ĠS ept
af il
ĠØ¹ ÙĤÙĦ
Ã¤ cht
ĠC im
ĠSt al
ĠØ¹ Ø§Ø¯ÛĮ
ĠÃ©t abl
ĠdÃ© fin
ĠÙ¾ ÛĮÙĨ
M uh
ĠØ´ ÙĪÙħ
Ġcrypt otab
ĠÅŁ inÃª
Ġtir yakÃª
Ġdost aniya
Ġneg uher
ĠReq qa
ĠpÃªÅŁbaz iyÃª
g Ã®rÃ®
Ġy enÃ®
ĠÅŁ axa
ĠS Ãªm
ĠT ehrÃ®r
Ġdeng dana
Ġderket Ã®ye
Ġavakirin e
ĠwezÃ®f eyÃª
Ġbax Ã§e
Ġmew z
ĠNÃ»bih ar
s alÃ®
ĠK Ã®m
ĠT Ã®m
ĠvÃª ÅŁ
Ġdest anÃª
Ġpir os
Ġdin ivis
Ġqed er
ĠlÃ®st iye
ĠMer kezÃ®
ĠÅŀeng alÃ®
Ġkr Ã®t
ĠÅŁÃ®rov ekirin
ĠstÃªr kÃªn
Ġm iÅŁk
el lement
Ġparlament eran
Ġneg irin
Ġalfab eyÃª
Ġsun nÃ®
Pirs girÃªka
Ġsefer ber
exan eya
Ġoto bÃ»
w anan
ĠH Ãªja
end erÃª
ĠZ ÃªrÃ®n
Ġper lem
Ġcih ekÃª
Ġaw azÃªn
ĠrÃªw Ã®t
ĠDÃªr ika
ĠvÃ®n enÃª
Ġpel danka
ĠXwend ekarÃªn
ĠÃ§Ã»y Ã®n
ĠÅŁirk eta
Ciw anÃªn
l etÃª
n Ã»
Ġtel aq
Ġberm ahiyÃªn
Ġparvekirin Ãªn
Ġheg emon
v edan
Ġm ÃªjÃ®
Ġr Ã»ne
ĠÙĨÙħ ÙĬ
ĠkÃ» Ã§ik
Ġsit em
Ġtelef onÃ®
Wel atÃª
Ġer dÃ®
Ġav dan
sÃ® v
ĠhÃªz tir
ĠEv Ã®ndar
Ġqey da
Ġkomput erÃª
Ġk alÃª
Ġh ozan
Ġg iyana
Ġj ur
ĠØ¢ ÛĮÙĨÙĩ
Ġrej imÃªn
ĠpÃªn Ã»sa
ĠÚ© Ø¬Ø§
Ġpak rew
id i
ĠÙĪ Ø´
Ġpk k
p ik
r edi
Û² Û¸
ĠØªØ§Ø³ ÛĮØ³
Ġwat eyekÃª
Ġentre prises
ĠÙĩÛĮÙĪØ§Ø¯ ÙĪÙĨÙĪ
ĠS A
Ġg ouvern
on i
ĠÙ¼ÙĪÙĦ Ùĩ
Ġem p
Ġbr and
ĠS it
ĠM en
ĠHoll anda
ĠØ§ ØªÙĩ
ĠØ¶Ø± ÙĪØ±ÛĮ
Ġc it
ien nent
ĠØ§Ø¯Ø¨ÛĮ Ø§Øª
ĠG ew
ĠÚ« Ù¼
Åĵ ur
ĠØ· Ø±Ø§ØŃ
ĠØ± Ø§Øª
org es
` `
ĠØ ¤
ol ie
Ġ! !!
ĠÙ¾ Ø¯ÛĲ
ĠØŃ Ø§Ø´ÛĮÙĩ
Ġsp or
ay en
ĠÚ¯Ø±ÙĪÙĩ ÛĮ
Ú©Ø±Ø¯ ÙĨØ¯
ĠPl us
M S
Ġhe ure
ÙĪÛĮ Ø¨
la is
T em
ĠS av
illa ge
ĠM oh
ĠÚ¯ÙģØª ÙħØª
ĠØ¨Ø± ÙĬØ¯
ĠÚļÚ© Ø§Ø±Ùĩ
t ra
Ġju illet
ĠØ§ÛĮÙĨ Ø³ØªØ§Ú¯Ø±Ø§Ùħ
ef il
ĠÙĨØ¸Ø± Ø§Øª
ĠO x
Ã ľ
ĠÙħÛĮ Ø®
ad es
Ñ ĥ
ĠØ¯Ø± Ø¨
ĠS eq
ĠIn c
ab i
ent Ãª
ĠSey do
Ġx a
ÛĮÙĦ Ø§ÙĨ
N us
ĠÚ©Ø§ ÙĪÙĩ
Ġdem and
ĠÙħØ· Ø¨ÙĪ
Ġz av
ĠØ¹Ø¯ Ø¯
el am
Ã©v rier
Ġav danÃª
ĠhÃª ÅŁta
ĠDÃªr ik
ĠPÃªÅŁn iyarÃªn
ĠÃĸp engin
E bÃ»
ew aya
Ġq esta
ĠP iÅŁ
Ã»r ek
Ġbir Ã®nÃª
Ġkom Ã®teyÃªn
Ġmer dÃ®
Ú©ÛĮ Ø§
ĠrÃªz imanÃª
Ġdihat ine
Ġmes refa
Ġdix uye
Ø§Ùģ ØºØ§ÙĨ
Ġmeriv ekÃ®
ĠreÅŁ andin
Ġxir ap
Ġleh Ã®
ĠÅŁert an
ĠEwrÃ»p Ã®
ĠnerazÃ®bÃ»n Ãªn
Ġbawermend Ãªn
Ġlehc eyÃªn
l Ã®n
z anan
Ã®y er
Ã®k ayÃªn
Ġwe qas
Åŀ and
Ġmin asib
Ġbir rÃ®n
Ġbir Ã»met
Ġez man
Ġtev na
ĠÃĩ Ã®nÃ®
Ġdar istanan
Ġnem anÃª
Ġasteng kirina
ĠnebÃ» ya
Ġabor Ã®yÃª
Pey v
Ġkas et
ĠRew anÃª
ĠarÅŁ Ã®va
ĠRobos kiyÃª
Malb ata
Ġb ek
ir iye
Ġber belav
ĠB Ã®d
ĠÙĩ ÙĦÙħ
ĠDi cle
Ãªd Ãª
Ġhilbij ÃªrÃ®
Ġhes inÃ®
ĠhÃ®n d
bar iyÃª
Ġbersiv eke
ĠnuÅŁt ox
ĠkÃªl iya
Ġcot meha
Ġdemokrat Ã®
Ġpeywend iya
ĠWelat iyÃªn
ĠnikarÃ® bÃ»n
Ġplat formÃª
Ġsembol Ã®k
ĠCaf er
ĠmÃ®s oger
Rej Ã®ma
y edÃ®n
Ġk eye
ĠÃ§alak vanan
pan ya
Ġseb ra
ĠÅŁa Ã®r
Ġis lamÃ®
Ġkapas Ã®teya
Ġplut Ã´t
ĠÃİLKHA yÃª
b irk
m iÅŁ
t Ã®ka
Ġb anÃ®
Ġser danÃª
Ġne qil
Ġhem i
Ġdil n
Ġbilind tirÃ®n
ĠBr Ã®tanÃ®
Ġdiher ikin
Ġparzem Ã®na
Ġnediz anÃ®
c ur
d Ã»r
Ġc enga
ĠK Ã®jan
ĠÙĨ Ø§Ø³Øª
ĠZ imanÃªn
Ġten iÅŁta
Ġprof Ã®la
Ġpes ind
ĠpsÃ®k olog
gen ek
h wd
ĠØ±Ø§ ÚģÙĬ
Ġderbas Ãª
Ġdos ya
Ġrav ekirin
Ġhat ye
Ġyek girtina
ub Ã®
Ġtek il
Ġstran eke
n ekirin
ib ata
Ġkes er
Ġto f
Ã»z a
ĠEb u
Ġneqan Ã»nÃ®
Ġb Ä±n
ing a
ĠÃĽ siv
Ġqey ranÃª
ĠDi g
du ya
ÙĪÙĦ Øª
BÃ»y er
m Ã»n
ĠØ®Ø§Ø· Ø±Ø§Øª
Ġg iyanÃ®
ĠÙ¾ÛĮ ÙĪ
Z AR
Ġpass Ã©
Ġdow n
ĠN ez
ĠpaÅŁ dem
ĠØ¨Ø§ Ø¨Ø§
ĠM ong
Ġchar ge
1 19
ĠÃ§em ka
is k
ĠÙħ Ú©Øª
ĠØ³Ùĩ Ùħ
ord s
ĠØ§Ø¯ Ø¹Ø§
Ø§Ùģ ÛĮ
Ã©r Ã©
196 9
ĠÙģÙĪÙĦ Ø§Ø¯
âĢĮâĢĮ âĢĮ
Ġfil le
Ù¼ ÙĪÙĦ
ĠÙģØ±Ø§Ùħ ÙĪØ´
ill on
ÙĨ ÙħØ§
Ġg estion
19 26
ĠØ¨ Ø§Ø±Ùĩ
Ġvis ite
II I
Ġem pl
Ġprobl Ã¨me
en nes
ĠNob el
ĠÙħØ°Ùĩ Ø¨ÛĮ
ĠÙħØ· Ø§Ø¨ÙĤ
Ġ` `
ĠMar ks
ĠØ®ÙĦØ§ Øµ
ĠÙħÛĮ Ú©Ø±ÙĪ
Ġs ov
uz el
âĢĺ âĢĻ
ĠÙĨÚ¯Ùĩ Ø¨Ø§ÙĨ
Ġt ap
E x
Ġy ou
Ã©r ique
ĠÚĨÙĩØ§Ø± Ø´ÙĨØ¨Ùĩ
Ġp ubli
ĠFeth ullah
ĠZ ek
ĠØ¯ Ø¦
ĠW orld
ĠÙĦ Ø§Øª
W al
P ro
Úĺ ÛĲ
Ø¹ ÙĦ
ĠØ¯ÙĦ Ø§ÛĮÙĦ
ĠÚħ ÙĨÚ«
Ġt era
ĠH afiz
Ġbin h
ĠØ® Ø§ÙĦÛĮ
H erÃ®
K emal
Ġgir eva
ĠÅŀ abÃ®
ĠTu gral
Ġleh Ã§
Ew rop
Ġbend avÃª
Ġum metÃª
iy aya
am eyÃª
Ġq em
ig Ãª
ĠaÅŁ Ã®tÃ®
ĠPÃªÅŁ Ã®n
ĠSel man
ĠxÃªr nexwaz
Ġkompl oger
Ġdawe ta
ĠKonfer ansÃª
ĠÃ§arÃ§ eweya
ĠpadiÅŁ ahÃª
uzz eman
ĠdirÃ» vÃª
and anÃªn
ĠÅŁ Ã®f
as Ã®ya
ĠT eze
Ġdest ekÃ®
ĠnivÃ®s arÃª
Ġtirk men
ĠXwe diyÃª
uk sel
Ġwir a
Ġhind ava
eroj Ãª
Ġkan alÃª
ĠHikÃ»m etÃª
Ġrojnameger iyÃª
Ġbax Ã§eyÃª
ĠPÃªÅŁmerg eyan
ĠniqaÅŁ Ãªn
ĠParlement oya
ĠÅŁÃ®d etÃª
ĠYal Ã§in
f etÃªn
es azÃ®
Ġber evaniyÃª
ĠX amineyÃ®
ĠEw ro
Ġmil lÃ®
Ġgih an
ĠkiÅŁ andine
Ġgul ebaran
Ġdost ane
Ġxet ere
ĠdorpÃªÃ§ kirina
Ġrew an
Ġsew bÃ®na
ĠÅŁÃªx Ãª
ĠMesÃ®h Ã®
ĠRagih andin
Ġpersp ektÃ®f
ĠpolÃª san
ĠÃ§ÃªnebÃ» ye
q eyÃªn
x et
Ġt Ã»ne
Ġnav ek
Ġhew t
ĠSerok komar
oy ekÃª
Ġxey alÃ®
Ġserdest Ãªn
Ã®tan ya
ĠbihÃªz kirina
ĠbÃªk Ãªr
Ġveguhest inÃª
bur oya
ĠdÃ»v re
Ġmatem atÃ®k
ĠDuy em
D Ã®
Ġd Ã®lan
Ġdi civ
Ġs Ãªn
Ã§ endÃ®
ĠbÃ» ka
ĠÃĩ im
Ġbih ayÃªn
Ġgih andiye
ĠKon g
Ġxan iyan
ĠmÃ®r at
serok atiya
Ġad et
Ġgiring Ã®
nas an
ĠcÃ®bic Ã®kirina
Ġmatem atÃ®kÃª
Ġkoal Ã®syona
ĠN irx
Ġst yle
Ġlaw o
ĠSil op
ĠdilÅŁ ad
Ġt ama
Ġst Ã»
Ãªb a
Ġfik aran
Ġheval tÃ®
Ġxet erÃª
Ġbit aybetÃ®
Ġbigir im
p iÅŁ
Ġbim Ã®nim
Ġpla isir
Ġpen Ã§eÅŁ
ĠCeb het
ĠÃĩareser iya
ar atÃª
ad dÃ®n
Ġf ix
Ġroj nem
Ġindex ation
ĠØ¨ Ú©Ø§Ø±
ĠSt r
ĠÙĥ ØªØ§Ø¨
Ġkel am
x em
Ġp Ã®yÃª
ĠÙĪ Ø¬
ĠØ¨Ø§ Ø·
Ġhas htag
Ġmot s
pr il
Ġmij ul
ĠØªØ¨ Ø±ÛĮØ²
ĠØ¹ÙĪØ§Ø± Ø¶
g s
ĠØŃ Ø§ÙģØ¸Ùĩ
ar ge
ĠK e
ĠØ´ÛĮ Ø®
ĠM A
ï¬ ģ
ĠW i
Ġqu ant
ĠÚ©Ø§Ø± Ø´ÙĨØ§Ø³Ø§ÙĨ
R o
ĠprÃ©s ente
Ġlors que
ĠØµØ§Ø¯Ø± Ø§Øª
ÙĪ ÛĲ
ĠÙħØ¨ÙĦ Øº
ĠF orm
ĠÚ¯ÙģØª Ú¯ÙĪ
l us
m ission
ĠR O
ĠØ¨Ø± Ø§Ø¨
ĠØ¢ÙĤ Ø§
ĠÙĪÙĬ ÙĦÙĬ
Ġpet its
K a
ĠØ²ÛĮ Ø§ÙĨ
ĠÙħÛĮÙĦ Ø§Ø¯ÛĮ
ĠØ´Ù¾ Úĸ
Ġ iz
Ø´ ÛĮÙĨ
ouv ert
ĠØ¨Ø§Ø± Ø§ÙĨ
ĠØ¨ÙĬ Ø´ØªØ±
Ġo bl
Ø±ÙĪ Øª
ĠMeh r
s um
ĠI II
ĠÚ©Ø´ ØªÙĩ
Ġd orm
Ġpar s
ĠÙĨØ´ ÙĪØ¯
ut nik
ĠÚģ ÛĮÙĨÛĲ
ĠAl eks
ĠØ¢ Ø±Ùħ
C ette
ĠØ¢Ø± Ø´
aw az
ĠØ¨Ø¯ ÛĮÙĨ
Ø² ÛĮÙĨ
Ġmes ure
Ġper t
Ġw ax
ĠÙ¾Ø³ ÛĲ
ĠÚĺ ÙħÙĨ
ĠV i
ĠØ¨Ø± Ø¯ÙĨ
ÙĪØ¨ ÙĦÙĩ
ĠC ha
ĠDen iz
S tr
u u
S E
m uz
m u
Ġsal on
ÙħÛĮ Ø²
ĠÙĪÙĪ Úĺ
Ġc arte
ĠØ¹ÙĦÛĮØ± Ø¶Ø§
ĠE yal
ec i
q al
ĠØ¹ÙĤ Ø¨
Ġt inÃª
Ã®y ekan
Ġkur ik
Ġyek itiyÃª
Ġkom Ã®n
ĠXel Ã®lÃª
bend iyÃª
Ġcam ÃªrÃ®
ĠjÃ®n enÃ®
Ġfot bolÃª
ĠLal eÅŁÃª
ĠÙħØº Ø²
áº ĭ
J Ãªd
Ġl Ã®ter
Ġser jÃª
ĠØª ÙĬ
ĠN Ã®nan
ĠJ Ã®yan
ĠY Ã»henna
Ġberd ane
Ġdar aza
Ġsaz kirinÃª
Ġved Ã®tin
Ġhiz Ã»ra
Ġtaw anan
Ġkomp Ã®t
Ġdahat Ã»ya
ĠHÃªvÃ® dar
Ġtexm Ã®na
ĠnizanÃ® bÃ»
b y
Ġhev karÃª
ĠQ ehr
Ġko alis
ĠRÃª w
Ġmet o
ĠMeh a
ĠAs ayÃ®ÅŁa
Ġkal ikÃª
ĠnuÅŁt iÅŁÃª
Ġaz erÃ®
ĠdÃ®w aran
Ġhevpeyv Ã®neke
ĠvekiÅŁ Ã®nÃª
ĠlÃ® beral
Ġbern ade
ĠMahm ut
ĠxwenÃ®ÅŁ andan
ĠNÃ»s ra
ĠÃ§ Ã»nÃª
Ġq Ãªr
Ġer Ãªkirin
Ġdih ere
ĠdÃ®t Ã®ye
ĠsÃ®y on
Ġbed elÃªn
Ġaj ok
ĠpÃªkhat iye
ĠÙĤØ³ Ùħ
ograf Ã®
ĠkÃ®lomet reyan
ĠBul ut
ĠMÃ»r at
ĠÃİspan yayÃª
ĠMoskov ayÃª
Ġemer Ã®kÃ®
ĠxwerÃª veb
Ġd Ã®s
em pl
Ġdest helat
ĠrÃª Ã§
ĠtÃªk Ã§Ã»nÃª
ĠHer ema
Ġkon gir
ĠnÃª w
Ġdom dar
ĠDest Ã»rÃª
Ġmey danÃªn
Ġxerab Ã®
ĠPaÅŁ ayÃª
Ġtaw ana
Ġbelg eyÃª
ĠDemÃ®rtaÅŁ Ã®
ĠTer or
ĠÃ§ew tÃ®
ĠRuh Ãª
ĠmÃ®k ro
ĠbÃªgun eh
d ayÃªn
Ã» pÃªn
Ġber fa
iyek irina
mend iyÃª
ĠPar Ã®s
ĠÅŁÃ®r ketÃª
ĠPer gala
ĠparÃ§ ekirin
Ġcot kar
ĠÃ§avdÃªr Ã®ya
ĠmÃ»ÅŁ ekÃ®
Day ika
ĠEdeb iyata
H Ã®n
ĠH iqÃ»q
xweÅŁ Ã®
Ġest etÃ®k
ĠniÅŁt iman
Ġdeq e
ĠNÃªz Ã®kÃ®
fab eya
Ġboya x
Ġdib Ã»m
Úĵ ÙĦ
Ġxw iÅŁka
Ġhatin Ãª
ĠÃĬ ran
ĠSur Ã®yÃª
ĠdiÅŁew itÃ®nin
Hez retÃª
ĠØªØ¯Ø±ÛĮ Ø³
t orÃª
Ġk eran
Ġr iyeke
geh ekÃª
ĠY uksek
Ġnas andina
Ġdar istanÃª
Ġmalbat ekÃª
Ġtedaw iya
w eke
ĠÅŁ im
Ġsek sÃª
ĠAfr Ã®kaya
Ġmuht emel
Ġnak Ã®
ĠDik are
Ġzank oya
ÙĨØ¯ ÙĪ
mend iyÃªn
ĠØ¨ Ú¯ÙĪ
ĠØ¢ Ø¯
in Ã©
ĠB ing
ĠØ¬Ø§ÛĮ Ø²Ùĩ
Ø§Ø¯ Ø§Ø±
Ġrap id
ĠÙģ ÙĪØ±ÛĮ
Ġh Ã¤n
ĠÙ¾ Ú©ÛĮ
ĠØ´Ø± ÙĤ
Ġauc un
Ø¨ Ø±ÙĪ
r ay
ĠØªØµ ÙĪÛĮØ¨
ĠØŃØ§Ø¯ Ø«Ùĩ
ĠÙĪ Ø´ÙĬ
Ġjar din
ÙĪÙĦ ÛĮØª
f i
ĠØ®Ø± Ø§Ø¨
it ude
ĠÙĨÙĬ Ø³Øª
Ø§ÙĦ Ûį
la it
ĠL ev
Ú©ÛĮ Ùĩ
ĠÚļØ§Øº ÙĦÙĬ
fa ire
ight s
Ġma c
ĠØªØ± Ø§ÙħÙ¾
ÙĪÚ¯ Ø±Ø§ÙģÛĮ
ĠÙĦØ· ÙģØ§
ĠØ¬Ùħ Ø¹ÛĮ
uk an
ÙĪØ³ Ùĩ
ĠØ®ÙĪØ§ Ø³ØªÙĩ
Ġav ril
ĠÙħÙĪ Ù¼Ø±
- )
ĠÚ©ÙĨ ÛĮ
ĠØ¯ÛĮØ¯ ÙĨÛĮ
ĠB lack
ĠØ³ØªÙĪÙĨ Ø²ÛĲ
ĠÙĪÚ©Úĵ Ø¦
ĠÙĪØ§Ø³ Ø·Ùĩ
ÙħÙĨØ¯ ÛĮ
ĠÚ©ÛĮØ³ Ùĩ
as i
Ġb lo
ac tion
ĠDi eu
qu Ã©
KK S
ĠØªÙĦÙĪÛĮØ²ÛĮ ÙĪÙĨÛĮ
ĠÙĨÙħ Ø§ÙĬ
ĠØ´ Ú¯ÙģØª
ĠÙģ Ú©Ø±ÛĮ
ir and
ĠØ±Ø§Øº ÙĦÙĬ
Ã©t ique
Ú«Ø± Ø§Ùħ
ĠC ep
ĠØŃØ§ ÙĪÛĮ
per Ã§
Ġsitu ation
alis ation
ĠÙ¾Ø±Ø§ Ø®
h un
ĠL o
ĠØ´ Ø§ÙĪ
194 4
Ġm Ã©di
ĠD uz
t eh
Ã¤ it
ĠÙ¾Ø± Ø³Øª
ĠÃĩar ÅŁ
B DP
on na
ĠØ´ ÛĮÚ©
ĠØ¬ Ø²ÙĪ
Ġsab ot
ĠØ³ÛĮÙĨ Ø§
ĠF Ã®dan
Ġhey ata
uk kaya
ĠveÅŁ Ãªrin
Ġreh metÃª
ĠÃİl ahÃ®
ĠÃĬzÃ®d iyÃªn
ĠNÃªz Ã®
ĠhelÃ®kop terÃªn
ĠNÃ®j er
Ġhaway Ãªko
B Ã®r
Ġser hev
Ã®y onÃª
Ġgir Ãªk
Ġkom is
per werÃª
Ġbeh dÃ®nÃ®
ĠÅŁev an
adÃ® g
ĠTu gluk
Ġberjewend iyÃª
Ġterm Ãªn
Ġval ahiya
Ġir aqÃ®
Ġsif ir
ParÃªz er
WeÅŁ an
Ġb eyt
Ġv Ã»n
am ude
ĠÚ© Ø¬
Ġkurd ewar
Ġez mÃªn
Ġbelav ok
Ġsp ehÃ®
ĠparÃªz vanÃªn
Ġkul Ãªn
ĠleÅŁker i
Ġtew rÃª
ĠPaÅŁ Ã®
Ġsin or
Ġgef Ãª
Ġaxaftin an
ĠBin geha
ĠzÃ®n danan
Ġtalan kirina
ĠAf ganÃ®
Ġdiguher in
Ġbalyoz xaneya
ĠEnf alÃª
y in
Ġn Ã»k
Ġv ebÃ»n
ol u
ĠL Ã®s
Ġav Ãªn
ut Ã®n
Ġkon v
Ġrojnam Ãª
Ġheft eyÃªn
bek irÃ®
Ġkel em
ĠAs Ã»rÃ®
ĠÃĬz idiyan
Ġnif Ã»sÃª
ĠdengbÃªj Ã®
Ġbalaf ira
ĠhÃªl Ã®na
ĠKev n
Ġdestp Ãªd
ĠArj ant
l andÃ®
z Ã®n
Ġk Ã®rÃª
ĠY ekÃª
ĠW iha
ĠÃ§ar ÅŁemÃª
xan eyÃ®
ĠgirÃ®ng iyÃª
ĠpÃ®r ekÃªn
ĠrÃªz ikÃªn
Ġxey rÃ®
ĠPir oj
ĠÃªriÅŁ an
ĠSil tan
Ġsaet ekÃª
Ġzem Ã®nÃª
Ġprofes or
ĠrabÃ»n e
ĠWashing tonÃª
j iya
y ayan
ey Ã®n
Ġg efa
Ġdik ane
geh Ã®
Ġhel bijartinÃªn
Ãİ K
Ġdir anan
Ġhew ramÃ®
Ġafir Ã®ner
ĠÙĪØ³ ÙĦÙĪ
ĠNÃ»n erÃªn
w Ã®r
ĠK inÃª
Ġhey etÃª
Ġazad kirin
Ġkew Ã§
Ã®m Ã®r
iq Ã®nin
Ġmucad ele
ĠHic rÃ®
[...]
