{
  "version": "1.0",
  "truncation": null,
  "padding": null,
  "added_tokens": [
    {
      "id": 0,
      "content": "[UNK]",
      "single_word": false,
      "lstrip": false,
      "rstrip": false,
      "normalized": false,
      "special": true
    }
  ],
  "normalizer": null,
  "pre_tokenizer": {
    "type": "Sequence",
    "pretokenizers": [
      {
        "type": "Digits",
        "individual_digits": false
      },
      {
        "type": "ByteLevel",
        "add_prefix_space": false,
        "trim_offsets": true,
        "use_regex": true
      }
    ]
  },
  "post_processor": null,
  "decoder": null,
  "model": {
    "type": "BPE",
    "dropout": null,
    "unk_token": "[UNK]",
    "continuing_subword_prefix": null,
    "end_of_word_suffix": null,
    "fuse_unk": false,
    "byte_fallback": false,
    "ignore_merges": false,
    "vocab": {
      "[UNK]": 0,
      "!": 1,
      "\"": 2,
      "#": 3,
      "$": 4,
      "%": 5,
      "&": 6,
      "'": 7,
      "(": 8,
      ")": 9,
      "*": 10,
      "+": 11,
      ",": 12,
      "-": 13,
      ".": 14,
      "/": 15,
      "0": 16,
      "1": 17,
      "2": 18,
      "3": 19,
      "4": 20,
      "5": 21,
      "6": 22,
      "7": 23,
      "8": 24,
      "9": 25,
      ":": 26,
      ";": 27,
      "<": 28,
      "=": 29,
      ">": 30,
      "?": 31,
      "@": 32,
      "A": 33,
      "B": 34,
      "C": 35,
      "D": 36,
      "E": 37,
      "F": 38,
      "G": 39,
      "H": 40,
      "I": 41,
      "J": 42,
      "K": 43,
      "L": 44,
      "M": 45,
      "N": 46,
      "O": 47,
      "P": 48,
      "Q": 49,
      "R": 50,
      "S": 51,
      "T": 52,
      "U": 53,
      "V": 54,
      "W": 55,
      "X": 56,
      "Y": 57,
      "Z": 58,
      "[": 59,
      "\\": 60,
      "]": 61,
      "^": 62,
      "_": 63,
      "`": 64,
      "a": 65,
      "b": 66,
      "c": 67,
      "d": 68,
      "e": 69,
      "f": 70,
      "g": 71,
      "h": 72,
      "i": 73,
      "j": 74,
      "k": 75,
      "l": 76,
      "m": 77,
      "n": 78,
      "o": 79,
      "p": 80,
      "q": 81,
      "r": 82,
      "s": 83,
      "t": 84,
      "u": 85,
      "v": 86,
      "w": 87,
      "x": 88,
      "y": 89,
      "z": 90,
      "{": 91,
      "|": 92,
      "}": 93,
      "~": 94,
      "¡": 95,
      "¢": 96,
      "£": 97,
      "¤": 98,
      "¥": 99,
      "¦": 100,
      "§": 101,
      "¨": 102,
      "©": 103,
      "ª": 104,
      "«": 105,
      "¬": 106,
      "®": 107,
      "¯": 108,
      "°": 109,
      "±": 110,
      "²": 111,
      "³": 112,
      "´": 113,
      "µ": 114,
      "¶": 115,
      "·": 116,
      "¸": 117,
      "¹": 118,
      "º": 119,
      "»": 120,
      "¼": 121,
      "½": 122,
      "¾": 123,
      "¿": 124,
      "Â": 125,
      "Ã": 126,
      "Ä": 127,
      "Å": 128,
      "Æ": 129,
      "Ç": 130,
      "È": 131,
      "É": 132,
      "Ê": 133,
      "Ë": 134,
      "Ì": 135,
      "Í": 136,
      "Î": 137,
      "Ï": 138,
      "Ð": 139,
      "Ñ": 140,
      "Ò": 141,
      "Ó": 142,
      "Ô": 143,
      "Õ": 144,
      "Ö": 145,
      "×": 146,
      "Ø": 147,
      "Ù": 148,
      "Ú": 149,
      "Û": 150,
      "Ü": 151,
      "à": 152,
      "á": 153,
      "â": 154,
      "ã": 155,
      "ä": 156,
      "å": 157,
      "æ": 158,
      "ç": 159,
      "è": 160,
      "é": 161,
      "ê": 162,
      "ë": 163,
      "ì": 164,
      "í": 165,
      "î": 166,
      "ï": 167,
      "ð": 168,
      "ô": 169,
      "Ā": 170,
      "ā": 171,
      "Ă": 172,
      "ă": 173,
      "Ą": 174,
      "Ć": 175,
      "Ĉ": 176,
      "ĉ": 177,
      "Ċ": 178,
      "ċ": 179,
      "Č": 180,
      "Đ": 181,
      "đ": 182,
      "ė": 183,
      "Ę": 184,
      "ę": 185,
      "Ĝ": 186,
      "ĝ": 187,
      "Ğ": 188,
      "ğ": 189,
      "Ġ": 190,
      "Ģ": 191,
      "ģ": 192,
      "Ĥ": 193,
      "ĥ": 194,
      "Ħ": 195,
      "ħ": 196,
      "Ĩ": 197,
      "ĩ": 198,
      "Ī": 199,
      "ī": 200,
      "Ĭ": 201,
      "ĭ": 202,
      "Į": 203,
      "į": 204,
      "İ": 205,
      "ı": 206,
      "Ĳ": 207,
      "ĳ": 208,
      "Ĵ": 209,
      "ĵ": 210,
      "Ķ": 211,
      "ķ": 212,
      "ĸ": 213,
      "Ĺ": 214,
      "ĺ": 215,
      "Ļ": 216,
      "ļ": 217,
      "Ľ": 218,
      "ľ": 219,
      "Ŀ": 220,
      "ŀ": 221,
      "Ł": 222,
      "ł": 223,
      "Ń": 224,
      "Ãª": 225,
      "Ã®": 226,
      "Ġd": 227,
      "an": 228,
      "Ġb": 229,
      "er": 230,
      "Ã»": 231,
      "in": 232,
      "ĠØ": 233,
      "Ġk": 234,
      "Ø§": 235,
      "ir": 236,
      "ar": 237,
      "Ãªn": 238,
      "Ġh": 239,
      "ÅŁ": 240,
      "ÛĮ": 241,
      "ĠÃ»": 242,
      "Ġdi": 243,
      "ĠÙ": 244,
      "Ġbi": 245,
      "ek": 246,
      "Ġj": 247,
      "iy": 248,
      "Ø±": 249,
      "Ġn": 250,
      "Ġde": 251,
      "Ġl": 252,
      "Ġm": 253,
      "ÙĪ": 254,
      "ÙĨ": 255,
      "Ġp": 256,
      "we": 257,
      "Ġs": 258,
      "Ùĩ": 259,
      "Ġr": 260,
      "Ġt": 261,
      "Ġku": 262,
      "st": 263,
      "Ã®n": 264,
      "Ġe": 265,
      "Ġx": 266,
      "Ġy": 267,
      "Ġw": 268,
      "et": 269,
      "Ø¯": 270,
      "ey": 271,
      "al": 272,
      "Ġg": 273,
      "Ġli": 274,
      "at": 275,
      "ĠÃ": 276,
      "Ġji": 277,
      "en": 278,
      "Øª": 279,
      "em": 280,
      "Ġxwe": 281,
      "el": 282,
      "Ùħ": 283,
      "av": 284,
      "Ġv": 285,
      "ay": 286,
      "âĢ": 287,
      "ÙĦ": 288,
      "Ú©": 289,
      "ĠØ§": 290,
      "ur": 291,
      "irin": 292,
      "Ġc": 293,
      "Ġa": 294,
      "ĠÃ§": 295,
      "ĠK": 296,
      "ĠØ¯": 297,
      "Ø³": 298,
      "es": 299,
      "ev": 300,
      "ĠØ¨": 301,
      "Ġz": 302,
      "iya": 303,
      "ĠjÃ®": 304,
      "Ġser": 305,
      "or": 306,
      "ĠÙħ": 307,
      "il": 308,
      "Ã®y": 309,
      "am": 310,
      "anÃª": 311,
      "on": 312,
      "Ã»n": 313,
      "im": 314,
      "ĠE": 315,
      "Ø§ÙĨ": 316,
      "Ġber": 317,
      "ĠD": 318,
      "ew": 319,
      "ÅŁt": 320,
      "eh": 321,
      "eb": 322,
      "iyÃª": 323,
      "and": 324,
      "ed": 325,
      "Ã®r": 326,
      "ĠÅŁ": 327,
      "ist": 328,
      "ĠB": 329,
      "ĠS": 330,
      "Ø²": 331,
      "ĠÙĪ": 332,
      "as": 333,
      "ĠÚ©": 334,
      "urd": 335,
      "Ø¨": 336,
      "ĠpÃª": 337,
      "Ø´": 338,
      "Ġya": 339,
      "Ġdik": 340,
      "ĠH": 341,
      "Ã§": 342,
      "ĠKurd": 343,
      "ÙĬ": 344,
      "ĠM": 345,
      "Ġme": 346,
      "ik": 347,
      "ok": 348,
      "iv": 349,
      "Ġnav": 350,
      "ak": 351,
      "ih": 352,
      "Ġq": 353,
      "Ġre": 354,
      "ĠA": 355,
      "Ġda": 356,
      "Ãªr": 357,
      "az": 358,
      "Ã®k": 359,
      "Ġher": 360,
      "ĠT": 361,
      "eke": 362,
      "Ġder": 363,
      "ad": 364,
      "tin": 365,
      "Ø§Ø±": 366,
      "Ġbik": 367,
      "ekÃ®": 368,
      "Ġbo": 369,
      "iÅŁt": 370,
      "ol": 371,
      "ĠwÃª": 372,
      "Ø§ÛĮ": 373,
      "Ġf": 374,
      "Ġhat": 375,
      "Ġne": 376,
      "oj": 377,
      "ĠP": 378,
      "un": 379,
      "ĠØª": 380,
      "Ú¯": 381,
      "om": 382,
      "dÃ®": 383,
      "Ġkur": 384,
      "arÃª": 385,
      "Ġkir": 386,
      "is": 387,
      "Ãªk": 388,
      "anÃ®": 389,
      "ĠvÃª": 390,
      "ÛĲ": 391,
      "Ġwan": 392,
      "Ã®s": 393,
      "ĠL": 394,
      "ĠÙ¾": 395,
      "..": 396,
      "Ã»r": 397,
      "ayÃª": 398,
      "Ġew": 399,
      "ĠbÃ»": 400,
      "ĠÙĨ": 401,
      "Ġwe": 402,
      "ĠâĢ": 403,
      "ĠR": 404,
      "Ġgel": 405,
      "be": 406,
      "Ġye": 407,
      "Ġra": 408,
      "Ġdest": 409,
      "Ùģ": 410,
      "eya": 411,
      "Ġ(": 412,
      "ez": 413,
      "eÅŁ": 414,
      "Ġhem": 415,
      "Ø³Øª": 416,
      "de": 417,
      "eta": 418,
      "ĠÙĩ": 419,
      "kirin": 420,
      "Ãªj": 421,
      "ĠØ³": 422,
      "ot": 423,
      "ana": 424,
      "ĠØ±": 425,
      "iye": 426,
      "Ã©": 427,
      "Ġba": 428,
      "ber": 429,
      "andin": 430,
      "âĢĻ": 431,
      "ĠyÃªn": 432,
      "ĠØ´": 433,
      "it": 434,
      "Ãªz": 435,
      "Ġve": 436,
      "ah": 437,
      "ĠN": 438,
      "irk": 439,
      "Ø¹": 440,
      "ĠÚ": 441,
      "ger": 442,
      "ov": 443,
      "ib": 444,
      "ÛĮÙĨ": 445,
      "end": 446,
      "Ġal": 447,
      "dar": 448,
      "Ġgir": 449,
      "Ġdem": 450,
      "ĠwÃ®": 451,
      "ekÃª": 452,
      "ĠKurdist": 453,
      "eyÃª": 454,
      "Ġkirin": 455,
      "ĠbÃª": 456,
      "Ġhev": 457,
      "ØĮ": 458,
      "Åŀ": 459,
      "Ġmin": 460,
      "ĠØ¯Ø±": 461,
      "Ġpir": 462,
      "Ø®": 463,
      "gir": 464,
      "ĠG": 465,
      "ĠtÃª": 466,
      "Ã®ÅŁ": 467,
      "man": 468,
      "iyÃªn": 469,
      "ÙĤ": 470,
      "ĠØ®": 471,
      "ya": 472,
      "ĠÃİ": 473,
      "ÙĨØ¯": 474,
      "Ġem": 475,
      "ĠC": 476,
      "ĠlÃª": 477,
      "ab": 478,
      "Ġsal": 479,
      "Ġroj": 480,
      "Ã®na": 481,
      "Ġev": 482,
      "Ã®l": 483,
      "Ã®ne": 484,
      "ĠpÃªÅŁ": 485,
      "Ø§ÙĦ": 486,
      "Ġkurd": 487,
      "ÙĪØ±": 488,
      "Ġdib": 489,
      "ĠJ": 490,
      "Ø§Ùħ": 491,
      "ĠØ¢": 492,
      "Ã®t": 493,
      "erÃª": 494,
      "Ã®ya": 495,
      "âĢĮ": 496,
      "Ġdin": 497,
      "Ġbin": 498,
      "Ġkes": 499,
      "ĠØ¨Ùĩ": 500,
      "ĠrÃª": 501,
      "xw": 502,
      "âĢĿ": 503,
      "Ã®st": 504,
      "aÅŁ": 505,
      "ĠÃª": 506,
      "iz": 507,
      "ara": 508,
      "ĠyÃª": 509,
      "Ø¬": 510,
      "ÙĪØ¯": 511,
      "ra": 512,
      "ĠKurdistanÃª": 513,
      "Ø§Ø¯": 514,
      "iha": 515,
      "iÅŁ": 516,
      "eng": 517,
      "ef": 518,
      "Ġen": 519,
      "geh": 520,
      "ĠY": 521,
      "da": 522,
      "xwe": 523,
      "us": 524,
      "Ã®m": 525,
      "iyan": 526,
      "ĠDi": 527,
      "eyÃªn": 528,
      "Ã®nin": 529,
      "ØŃ": 530,
      "ĠÅŀ": 531,
      "ro": 532,
      "ĠâĢľ": 533,
      "Ãªm": 534,
      "ĠØ¨Ø§": 535,
      "art": 536,
      "ul": 537,
      "Ġdike": 538,
      "ij": 539,
      "iÅŁtÃ®": 540,
      "Ġbir": 541,
      "ĠTirk": 542,
      "Ġan": 543,
      "ÙĪÙĨ": 544,
      "ÛĮØ¯": 545,
      "ina": 546,
      "ĠX": 547,
      "re": 548,
      "ĠW": 549,
      "Ġzim": 550,
      "ĠF": 551,
      "Ġav": 552,
      "Ġbikin": 553,
      "ĠÙĦ": 554,
      "Ġyek": 555,
      "ent": 556,
      "uh": 557,
      "Ġdij": 558,
      "yar": 559,
      "Ġdew": 560,
      "bÃ»n": 561,
      "erd": 562,
      "af": 563,
      "Ã®yÃª": 564,
      "etÃª": 565,
      "ivÃ®s": 566,
      "ĠØ§Ø²": 567,
      "ĠJi": 568,
      "xwaz": 569,
      "irov": 570,
      "Ġin": 571,
      "Ã®nÃª": 572,
      "Ġkar": 573,
      "anÃªn": 574,
      "ĠÙģ": 575,
      "zin": 576,
      "ĠÚĨ": 577,
      "ĠØ¬": 578,
      "20": 579,
      "Ġmal": 580,
      "aw": 581,
      "Ãªd": 582,
      "Ù¾": 583,
      "ĠbÃ»n": 584,
      "ĠØ¨Ø±": 585,
      "ÛĮØ±": 586,
      "Ġgot": 587,
      "Øµ": 588,
      "ine": 589,
      "ayÃ®": 590,
      "aran": 591,
      "ch": 592,
      "eq": 593,
      "Ġdu": 594,
      "ĠÙħÛĮ": 595,
      "enÃª": 596,
      "ÃªÅŁ": 597,
      "ĠÛĮ": 598,
      "oz": 599,
      "Ġdikin": 600,
      "est": 601,
      "nd": 602,
      "Ġez": 603,
      "yÃª": 604,
      "lat": 605,
      "Ġhin": 606,
      "Ø§Øª": 607,
      "Ġbike": 608,
      "ĠØ¹": 609,
      "ÙĪÙĦ": 610,
      "Ġhey": 611,
      "ex": 612,
      "arÃ®": 613,
      "Ġmezin": 614,
      "Ġtev": 615,
      "Ã®d": 616,
      "Ġdewl": 617,
      "xist": 618,
      "Ġbib": 619,
      "Ġgelek": 620,
      "Ġmirov": 621,
      "erÃ®": 622,
      "ĠØ±Ø§": 623,
      "...": 624,
      "Ã®h": 625,
      "erm": 626,
      "Ġwek": 627,
      "Ġrast": 628,
      "ĠhemÃ»": 629,
      "Ġciv": 630,
      "ĠØ§Ø³Øª": 631,
      "Ø·": 632,
      "otin": 633,
      "ĠpÃªk": 634,
      "yÃ®": 635,
      "ĠLi": 636,
      "Úĵ": 637,
      "ĠØ§ÙĪ": 638,
      "arÃªn": 639,
      "ema": 640,
      "ĠØŃ": 641,
      "ec": 642,
      "Ġo": 643,
      "ĠdÃª": 644,
      "ĠÚ¯": 645,
      "Ġdan": 646,
      "sa": 647,
      "yon": 648,
      "tir": 649,
      "19": 650,
      "erÃªn": 651,
      "Ġwelat": 652,
      "ĠI": 653,
      "Ø±Ø¯": 654,
      "Øº": 655,
      "Ã®z": 656,
      "ĠÃĩ": 657,
      "ĠÙ¾Ùĩ": 658,
      "ut": 659,
      "ĠÚ©Ùĩ": 660,
      "kirina": 661,
      "Ø§Ùĩ": 662,
      "ĠZ": 663,
      "Ġkom": 664,
      "Ã»m": 665,
      "ax": 666,
      "vÃª": 667,
      "Ġ-": 668,
      "und": 669,
      "ĠhÃª": 670,
      "Ġbe": 671,
      "Ġgor": 672,
      "Ġderb": 673,
      "ĠQ": 674,
      "ĠÙĤ": 675,
      "Ã»k": 676,
      "Ø§Ø¨": 677,
      "ĠnivÃ®s": 678,
      "Ġpey": 679,
      "ĠÃ§i": 680,
      "Ġper": 681,
      "Ġtu": 682,
      "sÃ®": 683,
      "ĠÃªn": 684,
      "Ġvan": 685,
      "ata": 686,
      "ĠO": 687,
      "mer": 688,
      "tÃ®": 689,
      "per": 690,
      "le": 691,
      "ĠØ²": 692,
      "ĠEw": 693,
      "Ġ\"": 694,
      "ĠhÃªz": 695,
      "Ġbel": 696,
      "Ġdibe": 697,
      "la": 698,
      "ion": 699,
      "ĠtÃªk": 700,
      "ĠnavÃª": 701,
      "ĠEv": 702,
      "aya": 703,
      "ĠnÃ»": 704,
      "Ġbaj": 705,
      "Ä±": 706,
      "din": 707,
      "ye": 708,
      "um": 709,
      "Ġzan": 710,
      "ĠLÃª": 711,
      "ewl": 712,
      "ĠtiÅŁt": 713,
      "Ø±ÛĮ": 714,
      "bet": 715,
      "os": 716,
      "are": 717,
      "ÙĦÛĮ": 718,
      "Ġwer": 719,
      "ĠBi": 720,
      "Ġpar": 721,
      "ej": 722,
      "ĠÃ§ar": 723,
      "hil": 724,
      "ene": 725,
      "ewe": 726,
      "ĠØ§ÛĮÙĨ": 727,
      "ĠÅŁer": 728,
      "ma": 729,
      "Ø±ÙĪ": 730,
      "ran": 731,
      "ĠkurdÃ®": 732,
      "zad": 733,
      "Ġjin": 734,
      "Ã®rok": 735,
      "nam": 736,
      "ic": 737,
      "irina": 738,
      "ket": 739,
      "ala": 740,
      "ewÅŁ": 741,
      "Ġke": 742,
      "ap": 743,
      "yan": 744,
      "og": 745,
      "Di": 746,
      "ng": 747,
      "rat": 748,
      "ĠRoj": 749,
      "ĠÙĩÙħ": 750,
      "Ġxw": 751,
      "erok": 752,
      "Ġte": 753,
      "Ġdema": 754,
      "arin": 755,
      "ĠSÃ»r": 756,
      "Ø§Ø³": 757,
      "Ġhil": 758,
      "Ġsiya": 759,
      "Ġheye": 760,
      "Ġdaw": 761,
      "ÛĮÙħ": 762,
      "lÃ®": 763,
      "Ġheb": 764,
      "Ġgotin": 765,
      "ind": 766,
      "ibÃ»": 767,
      "bÃ»": 768,
      "lÃª": 769,
      "ĠdibÃªj": 770,
      "Ġla": 771,
      "ĠdivÃª": 772,
      "gih": 773,
      "ĠdijÃ®": 774,
      "Ø§Ø²": 775,
      "ava": 776,
      "ĠEr": 777,
      "Ġhatiye": 778,
      "iw": 779,
      "ane": 780,
      "ÙĪÛĮ": 781,
      "Ġwiha": 782,
      "ĠbaÅŁ": 783,
      "iq": 784,
      "Ġet": 785,
      "ĠherÃªm": 786,
      "Ġcih": 787,
      "Ġam": 788,
      "Ġma": 789,
      "Ġsed": 790,
      "era": 791,
      "arok": 792,
      "Ġxeb": 793,
      "ve": 794,
      "oÅŁ": 795,
      "201": 796,
      "Ġdiyar": 797,
      "Ġax": 798,
      "tina": 799,
      "ĠrewÅŁ": 800,
      "ĠaliyÃª": 801,
      "ĠÃªr": 802,
      "Ġst": 803,
      "xistin": 804,
      "Ġaw": 805,
      "Ã»na": 806,
      "op": 807,
      "ĠdÃ®": 808,
      "kÃ®": 809,
      "Ġle": 810,
      "asÃ®": 811,
      "ØªØ±": 812,
      "irs": 813,
      "id": 814,
      "00": 815,
      "ĠherÃ®": 816,
      "if": 817,
      "Ã®ye": 818,
      "wer": 819,
      "ĠtenÃª": 820,
      "ĠyekÃª": 821,
      "ant": 822,
      "Ġqu": 823,
      "atÃª": 824,
      "ĠbeÅŁ": 825,
      "ĠgelÃª": 826,
      "manc": 827,
      "Ġday": 828,
      "ĠvÃ®": 829,
      "Ġsala": 830,
      "aybet": 831,
      "Ġmil": 832,
      "Ġhez": 833,
      "hat": 834,
      "ĠhÃ»n": 835,
      "ĠtÃªn": 836,
      "ÙĪÙħ": 837,
      "Li": 838,
      "ker": 839,
      "eyan": 840,
      "Ġbibe": 841,
      "ĠzimanÃª": 842,
      "Ø¯Ùĩ": 843,
      "aj": 844,
      "raq": 845,
      "Ġazad": 846,
      "Ġheta": 847,
      "ØªÙĩ": 848,
      "Ġcivak": 849,
      "avÃª": 850,
      "med": 851,
      "amÃª": 852,
      "ĠÂ": 853,
      "ĠpiÅŁt": 854,
      "ĠÃ®r": 855,
      "Ġhel": 856,
      "Ġhatin": 857,
      "ĠEm": 858,
      "Ã®ÅŁan": 859,
      "bÃ»na": 860,
      "Ġnet": 861,
      "dÃª": 862,
      "Ġdixwaz": 863,
      "Ġhene": 864,
      "Ø¶": 865,
      "te": 866,
      "merÃ®k": 867,
      "irÃ®": 868,
      "Ġtaybet": 869,
      "ĠwekÃ®": 870,
      "anan": 871,
      "ac": 872,
      "our": 873,
      "yayÃª": 874,
      "Ġniha": 875,
      "ont": 876,
      "Ø±Ùĩ": 877,
      "eyÃ®": 878,
      "Ġpr": 879,
      "Ġjiy": 880,
      "Ġpart": 881,
      "Ã®ng": 882,
      "Ġzarok": 883,
      "ĠpiÅŁtÃ®": 884,
      "ayÃªn": 885,
      "ÙĪØ²": 886,
      "kar": 887,
      "olÃª": 888,
      "Ã»s": 889,
      "Ġket": 890,
      "ĠV": 891,
      "Ġnava": 892,
      "andina": 893,
      "Ġpirs": 894,
      "etÃªn": 895,
      "Ġun": 896,
      "Ġna": 897,
      "eve": 898,
      "ĠHer": 899,
      "ranÃª": 900,
      "Ġar": 901,
      "Ã®rÃª": 902,
      "ĠØ§Ùħ": 903,
      "Ġ...": 904,
      "Ãİ": 905,
      "ĠcÃ®h": 906,
      "ĠÃ®": 907,
      "Ġenc": 908,
      "Ġkurdan": 909,
      "ÙĨÚ¯": 910,
      "kÃª": 911,
      "Ãªde": 912,
      "ama": 913,
      "ÙĩØ§ÛĮ": 914,
      "ÙĪØ§ÙĨ": 915,
      "geha": 916,
      "ora": 917,
      "bi": 918,
      "Ġdeng": 919,
      "Ã®yÃªn": 920,
      "orÃª": 921,
      "Ġgund": 922,
      "Ã®v": 923,
      "ag": 924,
      "alÃª": 925,
      "Ġberd": 926,
      "Ø§Ø´": 927,
      "Ġhember": 928,
      "Ġdir": 929,
      "ĠjÃª": 930,
      "Ġdes": 931,
      "ĠÃł": 932,
      "Ġziman": 933,
      "Ġnas": 934,
      "Ġxel": 935,
      ".âĢĿ": 936,
      "ĠÃ§end": 937,
      "ĠnÃªz": 938,
      "ĠdÃ®rok": 939,
      "Ã¨": 940,
      "Ġhatine": 941,
      "ekirin": 942,
      "ĠÃªrÃ®ÅŁ": 943,
      "Ġnavber": 944,
      "ĠberÃª": 945,
      "ÛĮØª": 946,
      "ĠrÃ»": 947,
      "ĠÚĨÛĲ": 948,
      "ĠbÃ»ye": 949,
      "ÙĦÙĩ": 950,
      "ĠÃ®n": 951,
      "na": 952,
      "Ø³ÛĮ": 953,
      "Ãªv": 954,
      "Ã®yan": 955,
      "Ġtirk": 956,
      "ĠzÃªde": 957,
      "Ġneb": 958,
      "ĠØµ": 959,
      "elÃª": 960,
      "Ġnik": 961,
      "ta": 962,
      "pÃªk": 963,
      "Ġtem": 964,
      "Ġer": 965,
      "Ġter": 966,
      "Ġguh": 967,
      "Ġdev": 968,
      "ĠØ¯Ø§ÙĨ": 969,
      "ĠÚ©ÛĲ": 970,
      "Ġweke": 971,
      "ÙħØ§ÙĨ": 972,
      "ix": 973,
      "Ã»l": 974,
      "ost": 975,
      "ĠÙĩØ§ÛĮ": 976,
      "ĠKurdan": 977,
      "okrat": 978,
      "eka": 979,
      "ĠÃ§av": 980,
      "Ã®nÃ®": 981,
      "ig": 982,
      "Ġko": 983,
      "ĠØ¢ÙĨ": 984,
      "Ø§Ø±ÛĮ": 985,
      "ne": 986,
      "Ġserok": 987,
      "enc": 988,
      "ÚĨ": 989,
      "Ã§e": 990,
      "Ġkiriye": 991,
      "ena": 992,
      "alak": 993,
      "lam": 994,
      "Ġdig": 995,
      "fr": 996,
      "ĠÃ®ro": 997,
      "Ġxwend": 998,
      "ĠkesÃªn": 999,
      "Ã®sa": 1000,
      "Ġdide": 1001,
      "ĠØ§ÙĨ": 1002,
      "ÙĦØ§": 1003,
      "Ġnavbera": 1004,
      "asyon": 1005,
      "Ġdil": 1006,
      "ep": 1007,
      "isa": 1008,
      "Ġmer": 1009,
      "Ú©ÛĮ": 1010,
      "Ø±Ø§": 1011,
      "ÙĩØ§": 1012,
      "ĠXwe": 1013,
      "ing": 1014,
      "emÃ®n": 1015,
      "ÙģØª": 1016,
      "raqÃª": 1017,
      "tÃª": 1018,
      "ĠkÃªm": 1019,
      "ĠhÃªzÃªn": 1020,
      "ĠleÅŁ": 1021,
      "ĠÃ§Ãª": 1022,
      "Ġmij": 1023,
      "âĢ¦": 1024,
      "dan": 1025,
      "bij": 1026,
      "ĠserÃª": 1027,
      "Ã»rÃª": 1028,
      "ĠÃİranÃª": 1029,
      "awa": 1030,
      "ĠdemÃª": 1031,
      "KK": 1032,
      "Ġhate": 1033,
      "ha": 1034,
      "Ġyan": 1035,
      "xan": 1036,
      "ØªÛĮ": 1037,
      "Ġmaf": 1038,
      "ĠKurdÃ®": 1039,
      "ux": 1040,
      "iyeyÃª": 1041,
      "Ġles": 1042,
      "oya": 1043,
      "alan": 1044,
      "ĠAmerÃ®k": 1045,
      "zan": 1046,
      "ĠÙħÙĨ": 1047,
      "Ġtun": 1048,
      "ĠbÃ®r": 1049,
      "inÃª": 1050,
      "Ġcar": 1051,
      "Ú«": 1052,
      "Ġhew": 1053,
      "Ġbibin": 1054,
      "ĠÙħÙĪ": 1055,
      "xweÅŁ": 1056,
      "eser": 1057,
      "ĠdestÃª": 1058,
      "ĠØ·": 1059,
      "Ġgirtin": 1060,
      "Ġbide": 1061,
      "ĠKom": 1062,
      "Ġmeh": 1063,
      "met": 1064,
      "alÃªn": 1065,
      "ans": 1066,
      "Ġderket": 1067,
      "ĠsiyasÃ®": 1068,
      "evin": 1069,
      "ĠÃ§alak": 1070,
      "ĠEz": 1071,
      "ement": 1072,
      "Ġes": 1073,
      "Ġnak": 1074,
      "ang": 1075,
      "ĠkuÅŁt": 1076,
      "ter": 1077,
      "Ġbal": 1078,
      "Ġbih": 1079,
      "Ø¸": 1080,
      "ue": 1081,
      "Ġxo": 1082,
      "irÃª": 1083,
      "Ġ,": 1084,
      "Ji": 1085,
      "azÃ®": 1086,
      "best": 1087,
      "ob": 1088,
      "ĠdawÃ®": 1089,
      "tÃ»k": 1090,
      "Ġned": 1091,
      "ĠØ®ÙĪ": 1092,
      "ĠØªØ±": 1093,
      "ariya": 1094,
      "ĠalÃ®k": 1095,
      "ĠSerok": 1096,
      "ĠØ¨Ø±Ø§ÛĮ": 1097,
      "darÃ®": 1098,
      "ĠPKK": 1099,
      "ĠâĢĺ": 1100,
      "ĠxwedÃ®": 1101,
      "Ġpro": 1102,
      "Ø°": 1103,
      "pirs": 1104,
      "ĠgorÃ®": 1105,
      "hem": 1106,
      "Ġbawer": 1107,
      "atÃªn": 1108,
      "ĠAl": 1109,
      "ĠEl": 1110,
      "artin": 1111,
      "Ġnek": 1112,
      "ona": 1113,
      "Ã¤": 1114,
      "Ã»b": 1115,
      "aq": 1116,
      "uk": 1117,
      "ĠzanÃ®n": 1118,
      "orÃ®": 1119,
      "Ø¦": 1120,
      "oreÅŁ": 1121,
      "aniya": 1122,
      "Ġroja": 1123,
      "Ġderd": 1124,
      "ĠgirÃ®ng": 1125,
      "ĠØ§ÙĦ": 1126,
      "ĠØªÙĩ": 1127,
      "ĠÚ©ÙĨ": 1128,
      "Ġhilbij": 1129,
      "Ø§Ø±Ùĩ": 1130,
      "gera": 1131,
      "Ġpol": 1132,
      "ser": 1133,
      "ade": 1134,
      "west": 1135,
      "dana": 1136,
      "ĠdestpÃªk": 1137,
      "Ø§ÙĨÛĮ": 1138,
      "ĠpaÅŁ": 1139,
      "ĠdibÃªje": 1140,
      "ĠÚ©Ø§Ø±": 1141,
      "Ġneh": 1142,
      "ĠâĢĵ": 1143,
      "ie": 1144,
      "ĠÃ§ek": 1145,
      "Ġbil": 1146,
      "etÃ®": 1147,
      "ou": 1148,
      "ĠØ§Ùģ": 1149,
      "ous": 1150,
      "Ġger": 1151,
      "arast": 1152,
      "rÃª": 1153,
      "fir": 1154,
      "ĠØº": 1155,
      "amÃªn": 1156,
      "ĠÙĦÙĩ": 1157,
      "Ġdax": 1158,
      "pÃª": 1159,
      "Ġjiyana": 1160,
      "ĠNav": 1161,
      "Ġberdew": 1162,
      "mÃª": 1163,
      "ĠDem": 1164,
      "Ø§Ú©": 1165,
      "Ġend": 1166,
      "Ø®Øª": 1167,
      "ĠbajarÃª": 1168,
      "uda": 1169,
      "Ġdibin": 1170,
      "ewÃ®": 1171,
      "ĠTirkiyÃª": 1172,
      "ĠzÃªd": 1173,
      "Ġvir": 1174,
      "ĠbÃªn": 1175,
      "aye": 1176,
      "ĠtÃªkil": 1177,
      "arÃªz": 1178,
      "Ġdar": 1179,
      "10": 1180,
      "ation": 1181,
      "Ġdewleta": 1182,
      "emÃª": 1183,
      "Ġwisa": 1184,
      "ĠÃİs": 1185,
      "Ġragih": 1186,
      "Ġdaxwaz": 1187,
      "Ġdikare": 1188,
      "akirin": 1189,
      "girÃªk": 1190,
      "Ġag": 1191,
      "rÃ®": 1192,
      "akur": 1193,
      "Ġmalb": 1194,
      "ĠsÃª": 1195,
      "ibÃ»n": 1196,
      "ud": 1197,
      "ĠÚ©Ø±Ø¯": 1198,
      "ire": 1199,
      "ĠÙħØŃ": 1200,
      "Ġbidin": 1201,
      "ĠØ¯ÛĮ": 1202,
      "Ġava": 1203,
      "uyan": 1204,
      "iyeke": 1205,
      "Ø§Ø¯Ùĩ": 1206,
      "ĠzÃ®": 1207,
      "oyÃª": 1208,
      "ikÃ»m": 1209,
      "Ú¯Ø±": 1210,
      "ÙĪÙĩ": 1211,
      "Ġhun": 1212,
      "ĠÃ§areser": 1213,
      "ĠÃ§Ãªk": 1214,
      "Ġdikarin": 1215,
      "ÛĮÙĦ": 1216,
      "kÃªÅŁ": 1217,
      "ĠderbarÃª": 1218,
      "Ø«": 1219,
      "ahÃ®": 1220,
      "Ã®kÃ®": 1221,
      "Ġast": 1222,
      "ĠrewÅŁa": 1223,
      "ĠpirtÃ»k": 1224,
      "Ã®nÃªn": 1225,
      "ĠÃ§awa": 1226,
      "Ø´ÙĨ": 1227,
      "Ø³ØªØ§ÙĨ": 1228,
      "ĠeÅŁ": 1229,
      "),": 1230,
      "fer": 1231,
      "ce": 1232,
      "ort": 1233,
      "gr": 1234,
      "wÃ®st": 1235,
      "Ġhes": 1236,
      "ĠgirÃªd": 1237,
      "ĠU": 1238,
      "ÛĮØ§": 1239,
      "Ø§ÙħÙĩ": 1240,
      "Ġkon": 1241,
      "Úĺ": 1242,
      "ĠÃĬ": 1243,
      "DP": 1244,
      "Ġderbas": 1245,
      "Ġheman": 1246,
      "ers": 1247,
      "ĠEfr": 1248,
      "Ġwere": 1249,
      "Ø²ÛĮ": 1250,
      "Ġsiyas": 1251,
      "ivÃª": 1252,
      "Ġkirine": 1253,
      "ĠÅŁerÃª": 1254,
      "Ġxwest": 1255,
      "Ġhinek": 1256,
      "Ã¼": 1257,
      "ehÃ®d": 1258,
      "irx": 1259,
      "ĠpÃ®r": 1260,
      "ola": 1261,
      "Ġpl": 1262,
      "net": 1263,
      "ĠSt": 1264,
      "ĠØªÙĪ": 1265,
      "Ġbelav": 1266,
      "Ġxist": 1267,
      "Ġ.": 1268,
      "Ġest": 1269,
      "ĠIraqÃª": 1270,
      "Ø§ÙĨÙĩ": 1271,
      "ibe": 1272,
      "ĠBar": 1273,
      "Ġberdewam": 1274,
      "Ø¨Ø±": 1275,
      "ĠØ¯Ø§Ø±": 1276,
      "ĠYek": 1277,
      "yÃªn": 1278,
      "eweyÃ®": 1279,
      "zanÃ®": 1280,
      "Ø±Ùħ": 1281,
      "Ġel": 1282,
      "okratÃ®k": 1283,
      "iyar": 1284,
      "ejm": 1285,
      "Ġreng": 1286,
      "hev": 1287,
      "du": 1288,
      "ĠØ§Ø³": 1289,
      "ikÃª": 1290,
      "Ġbikar": 1291,
      "ĠÙĬ": 1292,
      "me": 1293,
      "Ġsalan": 1294,
      "ĠsÃ®n": 1295,
      "tiya": 1296,
      "ĠÙĨÙħ": 1297,
      "ĠrastÃ®": 1298,
      "ĠdÃ»r": 1299,
      "ĠØ¢Ùħ": 1300,
      "ÙĦÙĪØ¯": 1301,
      "ĠweÅŁ": 1302,
      "gehÃª": 1303,
      "ĠpÃªv": 1304,
      "ĠpirsgirÃªk": 1305,
      "Ãªb": 1306,
      "ĠØ®ÙĪØ¯": 1307,
      "ĠØ±ÙĪ": 1308,
      "ima": 1309,
      "izg": 1310,
      "ĠDA": 1311,
      "rop": 1312,
      "ĠBer": 1313,
      "Ġqed": 1314,
      "ĠbÃ»ne": 1315,
      "enÃ®": 1316,
      "Ġvek": 1317,
      "ĠxweÅŁ": 1318,
      "ĠAr": 1319,
      "ĠrÃªxistin": 1320,
      "hilat": 1321,
      "Ġdikir": 1322,
      "ip": 1323,
      "etir": 1324,
      "Ġ:": 1325,
      "ĠKurdistan": 1326,
      "ĠdÃ®tin": 1327,
      "od": 1328,
      "ka": 1329,
      "eft": 1330,
      "ĠEn": 1331,
      "ÙĪÙĬ": 1332,
      "Ġpour": 1333,
      "ĠkÃª": 1334,
      "ela": 1335,
      "ĠleÅŁk": 1336,
      "Ġbeh": 1337,
      "Ġqet": 1338,
      "ĠÙ¾Ø±": 1339,
      "Ø§ÛĮÛĮ": 1340,
      "Ġdixwazin": 1341,
      "ĠÙĪØ±": 1342,
      "uz": 1343,
      "Ġgirt": 1344,
      "Ġrad": 1345,
      "Ã»d": 1346,
      "ĠGel": 1347,
      "ĠnÃ®ÅŁan": 1348,
      "Ãªkol": 1349,
      "ĠÃ§and": 1350,
      "Ġdewlet": 1351,
      "dest": 1352,
      "alÃ®": 1353,
      "ĠrÃªz": 1354,
      "ĠÃ©": 1355,
      "12": 1356,
      "ÙĨÛĮ": 1357,
      "san": 1358,
      "endÃ®": 1359,
      "Ġaway": 1360,
      "werd": 1361,
      "Ġdag": 1362,
      "Û±": 1363,
      "ĠÙĥ": 1364,
      "Ġarmanc": 1365,
      "ĠtÃªkoÅŁ": 1366,
      "enda": 1367,
      "ĠÃªdÃ®": 1368,
      "ĠSÃ»riyÃª": 1369,
      "ĠØĮ": 1370,
      "ĠÂ«": 1371,
      "bd": 1372,
      "Ø²Ø§Ø±": 1373,
      "ĠÙĨÛĮ": 1374,
      "ĠcÃ®hanÃª": 1375,
      "Úļ": 1376,
      "ĠbÃ»y": 1377,
      "ĠÛĮÚ©": 1378,
      "qas": 1379,
      "ĠBaÅŁ": 1380,
      "Ã®j": 1381,
      "âĢľ": 1382,
      "ĠHerÃª": 1383,
      "ĠpÃªvaj": 1384,
      "ĠÚħ": 1385,
      "Ġdidin": 1386,
      "ÛĮØ´": 1387,
      "Ú¯Ø§Ùĩ": 1388,
      "Ġhewl": 1389,
      "min": 1390,
      "ÙħØ§": 1391,
      "15": 1392,
      "Ãªje": 1393,
      "Ġbilind": 1394,
      "sÃª": 1395,
      "oloj": 1396,
      "ub": 1397,
      "ĠÃ§ap": 1398,
      "iyek": 1399,
      "Ġparast": 1400,
      "Ġbig": 1401,
      "enb": 1402,
      "ĠpÃªwÃ®st": 1403,
      "ĠÙħØ¹": 1404,
      "ge": 1405,
      "Ãªx": 1406,
      "veb": 1407,
      "Ã©s": 1408,
      "Ã®f": 1409,
      "Ġtek": 1410,
      "ĠdÃ®sa": 1411,
      "ĠÅŁoreÅŁ": 1412,
      "eno": 1413,
      "ku": 1414,
      "Ġ|": 1415,
      "ĠÙĨÙĩ": 1416,
      "Ġdihat": 1417,
      "Ġqeb": 1418,
      "ĠTirkiyeyÃª": 1419,
      "ĠnavÃ§": 1420,
      "ĠdibÃªjin": 1421,
      "Ġciw": 1422,
      "Ġberhem": 1423,
      "ĠSer": 1424,
      "ĠÙħØ´": 1425,
      "ĠdilÃª": 1426,
      "Ġdim": 1427,
      "ĠØ¨ÙĪØ¯": 1428,
      "ĠÃ§Ã»": 1429,
      "Úĸ": 1430,
      "Ġrojnam": 1431,
      "Ġkev": 1432,
      "ĠhemberÃ®": 1433,
      "Ġferm": 1434,
      "Ġsaz": 1435,
      "ĠanÃ®": 1436,
      "res": 1437,
      "DK": 1438,
      "200": 1439,
      "Ø§ÙĬ": 1440,
      "ĠØ¯ÙĪ": 1441,
      "bÃ»nÃª": 1442,
      "Ġnam": 1443,
      "van": 1444,
      "Ġmes": 1445,
      "Ġdaxuyan": 1446,
      "ĠdirÃªj": 1447,
      "Ã®ndar": 1448,
      "ĠÙħØ±": 1449,
      "Bi": 1450,
      "Ã®ka": 1451,
      "Ġfer": 1452,
      "ÙĪÙĨÙĩ": 1453,
      "Ø±Ùģ": 1454,
      "Ãªjin": 1455,
      "ĠØ¯Ùĩ": 1456,
      "ĠpiÅŁtgir": 1457,
      "ĠÃĽ": 1458,
      ".\"": 1459,
      "ÃªrÃª": 1460,
      "xistina": 1461,
      "ĠâĢĿ": 1462,
      "Ġcaran": 1463,
      "Úģ": 1464,
      "Ã»nÃª": 1465,
      "ilÃª": 1466,
      "Ø¨Ùĩ": 1467,
      "pl": 1468,
      "oc": 1469,
      "ĠhÃ®n": 1470,
      "ĠnexweÅŁ": 1471,
      "ĠtaybetÃ®": 1472,
      "ĠÙħØ¯": 1473,
      "ebÃ®": 1474,
      "Ġfir": 1475,
      "ĠsalÃªn": 1476,
      "istanÃª": 1477,
      "ĠhikÃ»m": 1478,
      "ĠbiÃ§": 1479,
      "Ã®kÃª": 1480,
      "Ġdix": 1481,
      "urt": 1482,
      "ĠherÃªmÃª": 1483,
      "Ġhejm": 1484,
      "Ġab": 1485,
      "ĠRÃª": 1486,
      "ĠkuÅŁtin": 1487,
      "kirinÃª": 1488,
      "ĠPart": 1489,
      "Ġwat": 1490,
      "ĠgiÅŁtÃ®": 1491,
      "ĠcihÃª": 1492,
      "ĠErd": 1493,
      "Ġhelbest": 1494,
      "ÙĦÙĪ": 1495,
      "ĠEfrÃ®nÃª": 1496,
      "mend": 1497,
      "ĠØ¯Ø§ÙĨÙĦÙĪØ¯": 1498,
      "Ú©Ùĩ": 1499,
      "Ġbikaran": 1500,
      "Ġhilbijartin": 1501,
      "Ġas": 1502,
      "Ùĥ": 1503,
      "ĠÚ©Úĵ": 1504,
      "ika": 1505,
      "nÃ®": 1506,
      "orm": 1507,
      "ĠmeÅŁ": 1508,
      "Ġbingeh": 1509,
      "berÃª": 1510,
      "ĠHerÃªma": 1511,
      "Ġsur": 1512,
      "18": 1513,
      "ahiya": 1514,
      "Ġved": 1515,
      "Ġband": 1516,
      "Em": 1517,
      "ĠhiÅŁ": 1518,
      "Ġgiran": 1519,
      "kan": 1520,
      "Û°": 1521,
      "Ø¨ÛĮ": 1522,
      "ons": 1523,
      "ĠrÃªveb": 1524,
      "ĠkarÃª": 1525,
      "ĠavÃª": 1526,
      "Ġdagirk": 1527,
      "Ġgr": 1528,
      "Ã®ma": 1529,
      "eger": 1530,
      "ĠØªØ§": 1531,
      "ĠcivakÃ®": 1532,
      "ĠmÃ®na": 1533,
      "medÃª": 1534,
      "Ġxiz": 1535,
      "Ġbiryar": 1536,
      "Ġwir": 1537,
      "ĠØ¯Ø§": 1538,
      "Ø§ÙĨØ¯": 1539,
      "ÙĬÙĨ": 1540,
      "ĠPiÅŁtÃ®": 1541,
      "ĠOc": 1542,
      "ĠzÃªdetir": 1543,
      "Ġguher": 1544,
      "onÃª": 1545,
      "nÃ®ÅŁan": 1546,
      "ĠhÃªv": 1547,
      "uy": 1548,
      "Ùī": 1549,
      "ĠØ´Ø¯": 1550,
      "Ġdih": 1551,
      "ĠnÃª": 1552,
      "Â»": 1553,
      "ĠBarzanÃ®": 1554,
      "gire": 1555,
      "ĠÙħØª": 1556,
      "Ġagah": 1557,
      "li": 1558,
      "ĠØ§ÛĮ": 1559,
      "Ã®q": 1560,
      "ĠÙĩØ§": 1561,
      ").": 1562,
      "ĠMin": 1563,
      "ĠpÃªn": 1564,
      "13": 1565,
      "Ġim": 1566,
      "ĠØ´Ø¯Ùĩ": 1567,
      "Ġcuda": 1568,
      "Ú©ÙĨ": 1569,
      "ØºÙĩ": 1570,
      "Ġerd": 1571,
      "ĠÅŁehÃ®d": 1572,
      "ogan": 1573,
      "ĠDema": 1574,
      "ibin": 1575,
      "Ġti": 1576,
      "ĠwelatÃª": 1577,
      "Ã®nim": 1578,
      "IÅŀ": 1579,
      "ĠlÃªkol": 1580,
      "Ġtes": 1581,
      "pey": 1582,
      "Ev": 1583,
      "eg": 1584,
      "ĠdÃ©": 1585,
      "ĠØ¨Ø§Ø´": 1586,
      "eyeke": 1587,
      "Ġbaz": 1588,
      "andinÃª": 1589,
      "yal": 1590,
      "ĠholÃª": 1591,
      "ĠÙĨÙĪ": 1592,
      "lah": 1593,
      "ÙĦØ§Ùħ": 1594,
      "Ãĩ": 1595,
      "Ġbim": 1596,
      "Ġsp": 1597,
      "Ġed": 1598,
      "ĠdÃ®t": 1599,
      "Ġcom": 1600,
      "ĠDer": 1601,
      "ÃªÅŁa": 1602,
      "Ġserk": 1603,
      "Ġoper": 1604,
      "ĠÚģ": 1605,
      "oy": 1606,
      "ĠqebÃ»l": 1607,
      "Ġkol": 1608,
      "Ġch": 1609,
      "Ù¼": 1610,
      "ĠpÃ®roz": 1611,
      "ast": 1612,
      "Ġnirx": 1613,
      "ĠherÃªma": 1614,
      "avayÃª": 1615,
      "Ġque": 1616,
      "avÃªn": 1617,
      "Ġart": 1618,
      "Ø§ÙĨÙĪ": 1619,
      "ust": 1620,
      "Ġperwerd": 1621,
      "ĠawayekÃ®": 1622,
      "eyek": 1623,
      "Ġbang": 1624,
      "....": 1625,
      "ĠÙħØ³": 1626,
      "se": 1627,
      "ite": 1628,
      "Ġbix": 1629,
      "ĠÛĮØ§": 1630,
      "ĠbelÃª": 1631,
      "Ġtune": 1632,
      "Ġdoz": 1633,
      "ĠÙĪÛĮ": 1634,
      "ĠDAIÅŀ": 1635,
      "ĠdewletÃª": 1636,
      "Ġxwed": 1637,
      "anÃ®n": 1638,
      "Ġpas": 1639,
      "Ġsa": 1640,
      "ÙĪÙĨÙĪ": 1641,
      "ĠAK": 1642,
      "ĠÙħÙĩ": 1643,
      "orÃªn": 1644,
      "ĠdestnÃ®ÅŁan": 1645,
      "Ûį": 1646,
      "Ġgih": 1647,
      "ĠOcalan": 1648,
      "PG": 1649,
      "emal": 1650,
      "Ġto": 1651,
      "lek": 1652,
      "ĠÃ®s": 1653,
      "ĠDivÃª": 1654,
      "ĠserÃ®": 1655,
      "Ø¢": 1656,
      "Ġzil": 1657,
      "11": 1658,
      "Ġune": 1659,
      "ĠrÃªya": 1660,
      "ĠzarokÃªn": 1661,
      "ĠhÃªj": 1662,
      "Ġhezar": 1663,
      "ĠmÃªr": 1664,
      "bar": 1665,
      "ĠRÃ»s": 1666,
      "ĠlÃ®st": 1667,
      "ÙĦÙĬ": 1668,
      "ĠhatibÃ»": 1669,
      "ezar": 1670,
      "Ø¯Ø±": 1671,
      "ĠÅŁÃª": 1672,
      "ĠkeÃ§": 1673,
      "isch": 1674,
      "Ġbona": 1675,
      "ĠØ³Ø±": 1676,
      "Ã®ÅŁt": 1677,
      "Ġu": 1678,
      "Ġmirovan": 1679,
      "Ġdixwaze": 1680,
      "di": 1681,
      "amÃ®": 1682,
      "Ġberxwe": 1683,
      "eran": 1684,
      "ÙĩÙĨÚ¯": 1685,
      "ĠxelkÃª": 1686,
      "ĠdemokratÃ®k": 1687,
      "ĠÚī": 1688,
      "Ãªveb": 1689,
      "ĠÃ®m": 1690,
      "hilata": 1691,
      "ĠEwrop": 1692,
      "ÙħÛĮ": 1693,
      "ĠyekÃ®": 1694,
      "ĠbÃ®nin": 1695,
      "Ã®nan": 1696,
      "Ø¯ÛĮ": 1697,
      "ĠØ³Ø§ÙĦ": 1698,
      "eriya": 1699,
      "Ġrej": 1700,
      "Ġbiry": 1701,
      "Ġberpirs": 1702,
      "ĠDewl": 1703,
      "30": 1704,
      "Ø§Ùģ": 1705,
      "ĠKer": 1706,
      "ĠØ§ÛĮØ±": 1707,
      "Ġragihand": 1708,
      "ĠØ§Ø±": 1709,
      "ĠHem": 1710,
      "ĠXwedÃª": 1711,
      "Ġpeyv": 1712,
      "Ġdans": 1713,
      "Ġdikim": 1714,
      "kere": 1715,
      "ehmet": 1716,
      "go": 1717,
      "gel": 1718,
      "Ú¯ÛĮ": 1719,
      "ĠhÃªla": 1720,
      "akirina": 1721,
      "ĠPar": 1722,
      "Ã©r": 1723,
      "Ġoperasyon": 1724,
      "ĠbÃªh": 1725,
      "anÃ®na": 1726,
      "ÙĪØ§": 1727,
      "Ġau": 1728,
      "uman": 1729,
      "ĠgirtÃ®": 1730,
      "ekirina": 1731,
      "Ġmed": 1732,
      "ĠgirÃªdayÃ®": 1733,
      "ĠwelatÃªn": 1734,
      "ÙĨØ¯Ùĩ": 1735,
      "ĠÃ§et": 1736,
      "ike": 1737,
      "Ġtel": 1738,
      "ÃªrÃ®": 1739,
      "ĠdÃ»": 1740,
      "Ġnim": 1741,
      "Ġveger": 1742,
      "ĠAmerÃ®ka": 1743,
      "ĠsÃ®y": 1744,
      "ere": 1745,
      "Ġse": 1746,
      "nÃª": 1747,
      "ĠberÃ®": 1748,
      "istan": 1749,
      "ĠmafÃª": 1750,
      "Ġfik": 1751,
      "Ø±Ø§ÙĨ": 1752,
      "ĠÙ¼": 1753,
      "Ġbila": 1754,
      "Ã©e": 1755,
      "Ġmet": 1756,
      "Ġencama": 1757,
      "Ġdaye": 1758,
      "Ġniz": 1759,
      "ira": 1760,
      "ĠAKP": 1761,
      "Ġtim": 1762,
      "Ø§ÛĮØ¯": 1763,
      "qu": 1764,
      "bdul": 1765,
      "Ġqad": 1766,
      "Ġteq": 1767,
      "ĠdiÃ§": 1768,
      "ext": 1769,
      "ĠhevdÃ®": 1770,
      "ĠbirÃ®ndar": 1771,
      "ĠPDK": 1772,
      "atÃ®": 1773,
      "ĠderÃª": 1774,
      "ĠÅŁev": 1775,
      "ĠkiÅŁ": 1776,
      "ĠalÃ®": 1777,
      "Ġamade": 1778,
      "ayet": 1779,
      "ĠkesÃ®": 1780,
      "ard": 1781,
      "akÃ®": 1782,
      "baz": 1783,
      "ĠAn": 1784,
      "kirÃ®": 1785,
      "ÙĪØ±Ø¯": 1786,
      "ĠHev": 1787,
      "ĠRojava": 1788,
      "ontr": 1789,
      "pa": 1790,
      "ĠÅŁÃ®r": 1791,
      "Ø±ÙĬ": 1792,
      "ĠxebatÃªn": 1793,
      "Û±Û": 1794,
      "ĠgundÃª": 1795,
      "Ġyew": 1796,
      "ĠFran": 1797,
      "fa": 1798,
      "ĠØ¯Ø³Øª": 1799,
      "ĠÃ§Ã®rok": 1800,
      "Ã§Ã®": 1801,
      "ĠawayÃ®": 1802,
      "Ġveg": 1803,
      "ĠÙĩØ±": 1804,
      "Ú©Øª": 1805,
      "Ġkerd": 1806,
      "dem": 1807,
      "ayÃ®ÅŁ": 1808,
      "akurÃª": 1809,
      "ariyÃª": 1810,
      "ĠÚ©Ø´": 1811,
      "ĠdengÃª": 1812,
      "par": 1813,
      "Ġnehat": 1814,
      "Ġdeh": 1815,
      "ĠHel": 1816,
      "Ġbers": 1817,
      "16": 1818,
      "darÃª": 1819,
      "Ġman": 1820,
      "abin": 1821,
      "ĠaÅŁ": 1822,
      "ÙĤÛĮ": 1823,
      "ĠbavÃª": 1824,
      "ĠnayÃª": 1825,
      "Ġ[": 1826,
      "emed": 1827,
      "ÙħÙĩ": 1828,
      "ĠhÃªza": 1829,
      "ĠÙħØ¬": 1830,
      "Ġheq": 1831,
      "Ġbid": 1832,
      "ĠhebÃ»": 1833,
      "wend": 1834,
      "Ġxurt": 1835,
      "Ġwex": 1836,
      "dÃªr": 1837,
      "ĠØ³Ø±Ùĩ": 1838,
      "ĠtiÅŁtekÃ®": 1839,
      "Ġkesan": 1840,
      "Ġziw": 1841,
      "Ø¹Ùĩ": 1842,
      "Ãªl": 1843,
      "Ġdijmin": 1844,
      "elal": 1845,
      "ĠpÃªÅŁkÃªÅŁ": 1846,
      "Ġhelwest": 1847,
      "Ġqui": 1848,
      "ĠwarÃª": 1849,
      "ĠØ´Ùĩ": 1850,
      "pr": 1851,
      "Ø§ÙĦÛĮ": 1852,
      "ĠdÃ®roka": 1853,
      "Ø§ÛĮØª": 1854,
      "Ġsiv": 1855,
      "ĠÅŁik": 1856,
      "ĠaÅŁt": 1857,
      "ĠHDP": 1858,
      "Ø¨Øª": 1859,
      "ĠPÃªÅŁ": 1860,
      "Ã§ov": 1861,
      "Ez": 1862,
      "ĠØ¢ÙĩÙĨÚ¯": 1863,
      "ĠleÅŁkerÃ®": 1864,
      "Ġwez": 1865,
      "Ġxebat": 1866,
      "danÃª": 1867,
      "Ġhest": 1868,
      "Ġka": 1869,
      "Ġzor": 1870,
      "Her": 1871,
      "ÛĮÚ©": 1872,
      "ĠAmedÃª": 1873,
      "okr": 1874,
      "Ø¯ÛĮØ¯": 1875,
      "Ġrizg": 1876,
      "uya": 1877,
      "Ġdid": 1878,
      "Ġva": 1879,
      "Ġcem": 1880,
      "Ġdesthilat": 1881,
      "Ġbehsa": 1882,
      "Ø¬Ùĩ": 1883,
      "tinÃª": 1884,
      "ivÃ®": 1885,
      "ĠsÃ®st": 1886,
      "Ġrom": 1887,
      "ÙĪØ´": 1888,
      "199": 1889,
      "14": 1890,
      "irg": 1891,
      "rÃ»": 1892,
      "Ġnavnet": 1893,
      "Ġram": 1894,
      "ayan": 1895,
      "ĠAmerÃ®kayÃª": 1896,
      "les": 1897,
      "ekin": 1898,
      "gehÃªn": 1899,
      "Ġbar": 1900,
      "Ã»ne": 1901,
      "Ġdad": 1902,
      "ĠMa": 1903,
      "Ġmala": 1904,
      "Ã»rÃ®": 1905,
      "Ġnem": 1906,
      "ĠØ±Ø³": 1907,
      "ĠYekÃ®": 1908,
      "pan": 1909,
      "Ø®Ùĩ": 1910,
      "ĠÙģØ±": 1911,
      "Ġaxaf": 1912,
      "ĠTirkiye": 1913,
      "Ġbikim": 1914,
      "ure": 1915,
      "Ġkam": 1916,
      "gÃª": 1917,
      "ikÃªn": 1918,
      "ĠwÃªn": 1919,
      "ĠOs": 1920,
      "ÙĪØ²Ø´": 1921,
      "Ġderv": 1922,
      "Ġker": 1923,
      "Ġcon": 1924,
      "bÃ»yÃ®": 1925,
      "Ġnetewe": 1926,
      "manÃ®": 1927,
      "Ġmi": 1928,
      "pera": 1929,
      "Ġderk": 1930,
      "Ġamad": 1931,
      "Ø¯Ø§": 1932,
      "nameya": 1933,
      "lament": 1934,
      "axa": 1935,
      "ĠnÃ®ÅŁ": 1936,
      "Ã¶": 1937,
      "ĠtirkÃ®": 1938,
      "ÂĴ": 1939,
      "ĠØ¹Ùħ": 1940,
      "ÙħÙĨ": 1941,
      "Ø§Ø¯ÛĮ": 1942,
      "ĠdiÃ§e": 1943,
      "amost": 1944,
      "Ġron": 1945,
      "jÃ®": 1946,
      "ĠgelekÃ®": 1947,
      "ĠtiÅŁtÃªn": 1948,
      "ĠÙħÙĤ": 1949,
      "ique": 1950,
      "ĠkurdÃªn": 1951,
      "atiya": 1952,
      "vanÃªn": 1953,
      "Ã§av": 1954,
      "Ãªre": 1955,
      "Ġdikirin": 1956,
      "ehÃª": 1957,
      "Ġqir": 1958,
      "ØºØ§ÙĨ": 1959,
      "war": 1960,
      "ĠErdogan": 1961,
      "Ġdam": 1962,
      "Ġak": 1963,
      "oh": 1964,
      "kÃªn": 1965,
      "lamÃ®": 1966,
      "Ã»t": 1967,
      "eder": 1968,
      "ĠpÃªÅŁn": 1969,
      "ewa": 1970,
      "uc": 1971,
      "Ġor": 1972,
      "Ġjinan": 1973,
      "Ã»ÅŁ": 1974,
      "Ø¹ÛĮ": 1975,
      "Ġtr": 1976,
      "axÃª": 1977,
      "ĠØ®Ù¾": 1978,
      "ĠÙĤØ±": 1979,
      "17": 1980,
      "ÙĪØ±ÛĮ": 1981,
      "uÅŁt": 1982,
      "ĠpolÃ®t": 1983,
      "Ġproj": 1984,
      "Ġqey": 1985,
      "Ġdane": 1986,
      "ĠSerokÃª": 1987,
      "dariya": 1988,
      "ĠKurdistana": 1989,
      "Ãªra": 1990,
      "wiha": 1991,
      "ĠØ¨ÛĮ": 1992,
      "Ġfa": 1993,
      "Ġderh": 1994,
      "ĠsalÃ®": 1995,
      "ĠÙĨØ¸": 1996,
      "ĠØ³Ø§": 1997,
      "Ġdizan": 1998,
      "ens": 1999,
      "ĠSw": 2000,
      "ĠkiribÃ»": 2001,
      "ĠBr": 2002,
      "ÙħØ¯": 2003,
      "ĠÃ§Ãªkirin": 2004,
      "ĠØ¢Ø²": 2005,
      "ĠparÃªz": 2006,
      "PiÅŁtÃ®": 2007,
      "wez": 2008,
      "ĠNet": 2009,
      "emb": 2010,
      "ĠLew": 2011,
      "lo": 2012,
      "ĠdiÅŁ": 2013,
      "ĠkÃ»": 2014,
      "ĠØ¯ÙĬ": 2015,
      "Ġseb": 2016,
      "Ġbiryara": 2017,
      "Ã®ra": 2018,
      "Ġeger": 2019,
      "ĠdayÃ®n": 2020,
      "Ã®yar": 2021,
      "ĠanÃ®n": 2022,
      "ĠhevalÃªn": 2023,
      "Û²": 2024,
      "ĠendamÃªn": 2025,
      "Ġey": 2026,
      "Ġxizm": 2027,
      "Úī": 2028,
      "Ġrap": 2029,
      "emen": 2030,
      "ĠMe": 2031,
      "Kurd": 2032,
      "ĠhemÃ®": 2033,
      "ÙħØª": 2034,
      "Ġkit": 2035,
      "Ġrex": 2036,
      "iÃ§": 2037,
      "he": 2038,
      "ĠbikaranÃ®n": 2039,
      "evan": 2040,
      "berÃ®": 2041,
      "ÙĨÙĩ": 2042,
      "ĠkoÃ§": 2043,
      "ĠberhemÃªn": 2044,
      "ĠTev": 2045,
      "Ġjiyan": 2046,
      "Ġdiz": 2047,
      "ikin": 2048,
      "Ä°": 2049,
      "ekt": 2050,
      "ji": 2051,
      "ÄŁ": 2052,
      "iÅŁÃª": 2053,
      "Ġmis": 2054,
      "men": 2055,
      "Ġnikare": 2056,
      "ĠmalÃª": 2057,
      "irÃªn": 2058,
      "Ġdikeve": 2059,
      "Ġheft": 2060,
      "ĠGer": 2061,
      "Ġ/": 2062,
      "bÃª": 2063,
      "ier": 2064,
      "ele": 2065,
      "Ø§Ø±Ø¯": 2066,
      "ĠÃªrÃ®ÅŁÃªn": 2067,
      "Ã§eyÃªn": 2068,
      "abÃª": 2069,
      "Ġmec": 2070,
      "Ã®rÃªn": 2071,
      "ĠØ²ÛĮ": 2072,
      "Ġyekem": 2073,
      "ĠnÃªzÃ®k": 2074,
      "ĠØ´Ø±": 2075,
      "NK": 2076,
      "darÃªn": 2077,
      "Ä±n": 2078,
      "25": 2079,
      "Serok": 2080,
      "Ã®sÃª": 2081,
      "ĠKurdÃªn": 2082,
      "ĠÃ§iqas": 2083,
      "Ġhind": 2084,
      "Ġjib": 2085,
      "24": 2086,
      "Ġsereke": 2087,
      "Ġtir": 2088,
      "ĠØ¢ÙħÙĪØ²Ø´": 2089,
      "ĠÅŀÃªx": 2090,
      "Ġweha": 2091,
      "parÃªz": 2092,
      "ĠcÃ®": 2093,
      "ĠÚ«": 2094,
      "ĠØ¨Ø¯": 2095,
      "ox": 2096,
      "ÙĪØª": 2097,
      "ĠAm": 2098,
      "ia": 2099,
      "ĠMes": 2100,
      "ĠpÃªÅŁket": 2101,
      "ĠØ§ÙģØºØ§ÙĨ": 2102,
      "ult": 2103,
      "karÃªn": 2104,
      "Ġrojan": 2105,
      "Ã®nak": 2106,
      "ĠrÃ©": 2107,
      "ore": 2108,
      "Ġbersiv": 2109,
      "urs": 2110,
      "Ġkul": 2111,
      "Ã®lan": 2112,
      "Ġderve": 2113,
      "ĠEreb": 2114,
      "Ġhema": 2115,
      "ĠMis": 2116,
      "iyekÃ®": 2117,
      "oma": 2118,
      "ĠserokÃª": 2119,
      "ĠtÃªkoÅŁÃ®na": 2120,
      "ĠØ§ÛĮØ±Ø§ÙĨ": 2121,
      "Ø¨Ø§": 2122,
      "ff": 2123,
      "els": 2124,
      "AR": 2125,
      "ĠkÃ®": 2126,
      "Ġhim": 2127,
      "Ġqedex": 2128,
      "ĠAzad": 2129,
      "eye": 2130,
      "Ø³ØªÙĩ": 2131,
      "Ġ'": 2132,
      "Ø§Ø´Øª": 2133,
      "Ġmeriv": 2134,
      "Ġparastina": 2135,
      "Ġkevn": 2136,
      "ĠKar": 2137,
      "ĠbÃ®ne": 2138,
      "ĠjinÃªn": 2139,
      "Ġserkef": 2140,
      "iman": 2141,
      "tion": 2142,
      "ĠreÅŁ": 2143,
      "asÃª": 2144,
      "Ø§ÛĮØ´": 2145,
      "ĠØ´ÙĪØ¯": 2146,
      "ĠØ§ÙĨØ¯": 2147,
      "Ø´Øª": 2148,
      "ĠMeh": 2149,
      "Ġdixwe": 2150,
      "ibÃª": 2151,
      "ĠHes": 2152,
      "Ġxir": 2153,
      "ÃªzÃªn": 2154,
      "ĠÛĮÛĲ": 2155,
      "ĠmafÃªn": 2156,
      "Ġdamez": 2157,
      "ĠMih": 2158,
      "ared": 2159,
      "Ġgul": 2160,
      "urk": 2161,
      "Ġhebe": 2162,
      "Ġheval": 2163,
      "Ġrizgar": 2164,
      "ĠSel": 2165,
      "kir": 2166,
      "Ġderdik": 2167,
      "ĠdÃ®rokÃ®": 2168,
      "ĠtÃªne": 2169,
      "ĠlÃªger": 2170,
      "Ġhet": 2171,
      "Ø§ÙĤ": 2172,
      "ĠdewletÃªn": 2173,
      "ĠÂ»": 2174,
      "ĠbiÅŁ": 2175,
      "Ġnabe": 2176,
      "ĠØ¯ÛĲ": 2177,
      "ĠÃİran": 2178,
      "Ġmuz": 2179,
      "Ġhezaran": 2180,
      "Ø¹Øª": 2181,
      "ĠtevlÃ®": 2182,
      "ĠØ´ÙĪ": 2183,
      "ÛĮØ³": 2184,
      "Ġheya": 2185,
      "ĠBed": 2186,
      "Ã»ra": 2187,
      "Ġkontr": 2188,
      "2018": 2189,
      "Ġex": 2190,
      "weÅŁ": 2191,
      "ĠleÅŁker": 2192,
      "ĠÙħØ§": 2193,
      "Ġxer": 2194,
      "ate": 2195,
      "Ġbed": 2196,
      "ĠnÃªr": 2197,
      "ĠdinyayÃª": 2198,
      "iyekÃª": 2199,
      "Ġnikarin": 2200,
      "Ġsedem": 2201,
      "adÃª": 2202,
      "Ġxey": 2203,
      "ĠeÅŁkere": 2204,
      "Ġxwarin": 2205,
      "ĠrÃ»n": 2206,
      "ĠØ±ÙĪØ²": 2207,
      "ÙĢ": 2208,
      "ĠbibÃ®nin": 2209,
      "ĠfermÃ®": 2210,
      "wÃª": 2211,
      "Ġango": 2212,
      "Ú©Úĵ": 2213,
      "girtin": 2214,
      "Ġot": 2215,
      "Ġnake": 2216,
      "ĠØ³ÛĮ": 2217,
      "ĠpÃªvajoya": 2218,
      "Ã®san": 2219,
      "Ġavakirin": 2220,
      "imÃª": 2221,
      "ĠcivakÃª": 2222,
      "ĠBil": 2223,
      "ĠSe": 2224,
      "ĠartÃªÅŁa": 2225,
      "Ø§Ø²ÛĮ": 2226,
      "ĠNavÃ®n": 2227,
      "Ġkurmanc": 2228,
      "ĠhebÃ»n": 2229,
      "ĠÃ§arÃ§ov": 2230,
      "Ġqan": 2231,
      "Ġbic": 2232,
      "ĠÚļ": 2233,
      "hilatÃª": 2234,
      "engÃª": 2235,
      "ĠNe": 2236,
      "Ġpay": 2237,
      "si": 2238,
      "Ġxem": 2239,
      "Ġvous": 2240,
      "Ġdagirker": 2241,
      "Ġol": 2242,
      "ĠÚ©Ùħ": 2243,
      "ÅŁtir": 2244,
      "ÙĦØ³": 2245,
      "ÙĪØ§ÙĦ": 2246,
      "yaya": 2247,
      "ÙĪØ±Øª": 2248,
      "ĠØ§Øµ": 2249,
      "Ġserxwe": 2250,
      "Ġhuk": 2251,
      "Ġmalpera": 2252,
      "ÃĬ": 2253,
      "lu": 2254,
      "Ġperg": 2255,
      "Ã§Ã»n": 2256,
      "ale": 2257,
      "ĠneteweyÃ®": 2258,
      "fireh": 2259,
      "dir": 2260,
      "ĠØ§Ø¯": 2261,
      "lan": 2262,
      "girt": 2263,
      "Ġbom": 2264,
      "ÙĪØ¨": 2265,
      "Ġplus": 2266,
      "ĠbiÃ§Ã»k": 2267,
      "ret": 2268,
      "Ġvo": 2269,
      "Ġgerm": 2270,
      "Ġmirin": 2271,
      "Ã®mÃª": 2272,
      "ĠÛĮÙĪ": 2273,
      "ĠdibÃ®nin": 2274,
      "uv": 2275,
      "ĠbÃªtir": 2276,
      "uher": 2277,
      "ĠSur": 2278,
      "waz": 2279,
      "ĠjiyanÃª": 2280,
      "ĠrÃªj": 2281,
      "Ġil": 2282,
      "ĠØ§Ø¬": 2283,
      "ĠrojÃª": 2284,
      "Ø®Øµ": 2285,
      "ĠmijarÃª": 2286,
      "ĠzÃ»": 2287,
      "Ġfil": 2288,
      "ĠdijÃ®n": 2289,
      "itÃ©": 2290,
      "ÈĻ": 2291,
      "Ġarmanca": 2292,
      "ĠØ¨Ø§Ø´Ø¯": 2293,
      "Ġderheq": 2294,
      "ĠØ´ÙħØ§": 2295,
      "bek": 2296,
      "ĠAbdul": 2297,
      "ĠEs": 2298,
      "ĠPartiya": 2299,
      "Ġcez": 2300,
      "ĠalÃ®kar": 2301,
      "Ġriya": 2302,
      "Ġsey": 2303,
      "tre": 2304,
      "ĠnavÃ§eya": 2305,
      "ĠtevÃ®": 2306,
      "Ġrawest": 2307,
      "Ġnekir": 2308,
      "ĠnÃ®ne": 2309,
      "ĠEh": 2310,
      "Ġsedema": 2311,
      "Ġgava": 2312,
      "yona": 2313,
      "oka": 2314,
      "Ġderf": 2315,
      "Ġberj": 2316,
      "ixabin": 2317,
      "Ġisch": 2318,
      "efa": 2319,
      "Ġdaxwaza": 2320,
      "Ġhund": 2321,
      "ĠfÃ®l": 2322,
      "inc": 2323,
      "Ġbav": 2324,
      "Ġaj": 2325,
      "ĠGiÅŁtÃ®": 2326,
      "etan": 2327,
      "lem": 2328,
      "tirÃ®n": 2329,
      "Ġac": 2330,
      "Ġje": 2331,
      "Ġpis": 2332,
      "ĠRojhilata": 2333,
      "Ġyo": 2334,
      "Ġkel": 2335,
      "Ġbij": 2336,
      "Ġagir": 2337,
      "ke": 2338,
      "Ã»da": 2339,
      "adÃ®": 2340,
      "ĠtÃ®ne": 2341,
      "ĠMal": 2342,
      "br": 2343,
      "Ġxwez": 2344,
      "aniyÃª": 2345,
      "up": 2346,
      "Ġtec": 2347,
      "ĠqasÃ®": 2348,
      "ĠØªØŃ": 2349,
      "ĠveÅŁ": 2350,
      "Ġcur": 2351,
      "ĠØ¨Ø§Ø²ÛĮ": 2352,
      "Ġereb": 2353,
      "ĠSwÃªd": 2354,
      "ĠTu": 2355,
      "Ġtevger": 2356,
      "ĠAs": 2357,
      "ĠØ´Ùħ": 2358,
      "Ġdor": 2359,
      "ern": 2360,
      "beÅŁ": 2361,
      "ĠBir": 2362,
      "ĠhikÃ»meta": 2363,
      "sch": 2364,
      "ĠpolÃ®tÃ®k": 2365,
      "Ġzanist": 2366,
      "ĠØ¹ÙĦ": 2367,
      "Ġteror": 2368,
      "Ġdom": 2369,
      "att": 2370,
      "Ú¯Ø§ÙĨ": 2371,
      "sp": 2372,
      "Ø²Ø´": 2373,
      "Ġ?": 2374,
      "197": 2375,
      "Ġdemokr": 2376,
      "perest": 2377,
      "ÙĪÙĦÙĪ": 2378,
      "ĠnetewÃ®": 2379,
      "Ġsiyaseta": 2380,
      "ĠbilÃ®": 2381,
      "fik": 2382,
      "Ġrev": 2383,
      "dayÃª": 2384,
      "198": 2385,
      "ĠKon": 2386,
      "xwazin": 2387,
      "50": 2388,
      "pel": 2389,
      "Ã»c": 2390,
      "Ġherdu": 2391,
      "Ġasta": 2392,
      "ĠÚ©ÛĮ": 2393,
      "Ġdost": 2394,
      "ÙĨØ§ÙħÙĩ": 2395,
      "mÃªn": 2396,
      "Ø¹Ø¯": 2397,
      "ĠXel": 2398,
      "Ú©Ø±": 2399,
      "Ġxebata": 2400,
      "Ġwateya": 2401,
      "ermend": 2402,
      "Ġwerin": 2403,
      "ĠÅŁaÅŁ": 2404,
      "ØŁ": 2405,
      "Ø§ÙħÙĦ": 2406,
      "Ġmir": 2407,
      "ĠbingehÃ®n": 2408,
      "Ġce": 2409,
      "ĠYPG": 2410,
      "ĠØ¬Ø¯ÛĮØ¯": 2411,
      "ĠrÃªk": 2412,
      "ĠWÃª": 2413,
      "ekar": 2414,
      "andiye": 2415,
      "Ãªrs": 2416,
      "Ġzaf": 2417,
      "ĠÃªz": 2418,
      "gerin": 2419,
      "ĠyekemÃ®n": 2420,
      "ews": 2421,
      "Ġgun": 2422,
      "ĠnÃªzÃ®": 2423,
      "Ġavec": 2424,
      "LÃª": 2425,
      "Ġmamost": 2426,
      "Ġbu": 2427,
      "Ġduy": 2428,
      "ahiyÃª": 2429,
      "Ġner": 2430,
      "Ġencam": 2431,
      "ilÃ®": 2432,
      "ĠÅŁerm": 2433,
      "ĠjinÃª": 2434,
      "ĠnÃ®v": 2435,
      "Ġcara": 2436,
      "ĠDewleta": 2437,
      "ĠâĢ¢": 2438,
      "ĠSÃ»riyeyÃª": 2439,
      "Ã¨s": 2440,
      "ĠÚĨÙĩ": 2441,
      "Ġkov": 2442,
      "Ġdr": 2443,
      "ĠDest": 2444,
      "ĠhebÃ»na": 2445,
      "ĠÚ©Øª": 2446,
      "ĠÃ§avÃªn": 2447,
      "ĠGul": 2448,
      "Ġberfireh": 2449,
      "raf": 2450,
      "Ġasteng": 2451,
      "ĠÙĩØ³Øª": 2452,
      "ĠKerk": 2453,
      "Ã»st": 2454,
      "tern": 2455,
      "Ġberjewe": 2456,
      "Ġmod": 2457,
      "Ġlew": 2458,
      "ebÃª": 2459,
      "ĠStenb": 2460,
      "ĠÅŁew": 2461,
      "ĠÃ§Ãªd": 2462,
      "ÛĮØ±ÛĮ": 2463,
      "Ġtekn": 2464,
      "ÙģØ±": 2465,
      "weha": 2466,
      "Ġazadiya": 2467,
      "ĠPer": 2468,
      "ĠÙ¾ÛĮ": 2469,
      "lamÃª": 2470,
      "Ãªrin": 2471,
      "Ã®teya": 2472,
      "ĠEwropayÃª": 2473,
      "ĠRojavayÃª": 2474,
      "bixwe": 2475,
      "ĠÙĨØ´": 2476,
      "AK": 2477,
      "ĠÚ©ÙĦ": 2478,
      "ĠKob": 2479,
      "ĀĀ": 2480,
      "Ġzar": 2481,
      "Ġhed": 2482,
      "ca": 2483,
      "ĠPir": 2484,
      "der": 2485,
      "ĠAlman": 2486,
      "ĠØ¨Ø§ÛĮØ¯": 2487,
      "Ġseds": 2488,
      "com": 2489,
      "ĠbÃ®ra": 2490,
      "ator": 2491,
      "ĠerdÃª": 2492,
      "inÃªn": 2493,
      "Ġqez": 2494,
      "ill": 2495,
      "Ġbajar": 2496,
      "Ġmalbata": 2497,
      "okÃª": 2498,
      "ĠkÃ»r": 2499,
      "ĠgerÃ®l": 2500,
      "Ġou": 2501,
      "ĠDr": 2502,
      "âĢĻâĢĻ": 2503,
      "ĠHewl": 2504,
      "ĠØ¬Ùĩ": 2505,
      "ĠdestpÃªka": 2506,
      "ĠalÃ®kariya": 2507,
      "Ġta": 2508,
      "ĠnÃªzÃ®kÃ®": 2509,
      "wan": 2510,
      "ĠÃĬz": 2511,
      "iyayÃª": 2512,
      "aÅŁÃª": 2513,
      "ĠnivÃ®skar": 2514,
      "ĠbeÅŁdarÃ®": 2515,
      "ĠbeÅŁdar": 2516,
      "Ġhejmara": 2517,
      "iÃ¨": 2518,
      "ĠÃªÅŁ": 2519,
      "âĢĿ.": 2520,
      "ĠÃ§ima": 2521,
      "Ġpirsa": 2522,
      "Ġhiz": 2523,
      "ĠhÃªvÃ®": 2524,
      "hÃªn": 2525,
      "Ġtew": 2526,
      "ĠdibÃ®ne": 2527,
      "Ġzehmet": 2528,
      "Ã®ran": 2529,
      "Ġtevgera": 2530,
      "ĠgelÃªn": 2531,
      "ĠgotinÃªn": 2532,
      "ĠBaÅŁÃ»rÃª": 2533,
      "ive": 2534,
      "ĠMirov": 2535,
      "Ġteh": 2536,
      "ĠKur": 2537,
      "Ú©ÙĦ": 2538,
      "ĠxwediyÃª": 2539,
      "Ġdigel": 2540,
      "danÃªn": 2541,
      "ĠØ¯Ø§Ø±Ø¯": 2542,
      "ÙĨØ§": 2543,
      "Ġleh": 2544,
      "ĠaborÃ®": 2545,
      "Ġsor": 2546,
      "ĠtÃ®nin": 2547,
      "000": 2548,
      "Ġaxa": 2549,
      "Ġbernam": 2550,
      "ĠsivÃ®l": 2551,
      "ÙĤØª": 2552,
      "Ġqer": 2553,
      "ĠØ¯Ø§ÙĨØ´": 2554,
      "Ø¨Ø§ÙĨ": 2555,
      "Ġmeha": 2556,
      "ĠØªÙħ": 2557,
      "of": 2558,
      "ĠwÃªj": 2559,
      "ĠØ¨ÙĦ": 2560,
      "Ø±ÙĪØ´": 2561,
      "ĠâĢŀ": 2562,
      "Ġpirr": 2563,
      "ĠrojÃªn": 2564,
      "Ġzelal": 2565,
      "Ġnebe": 2566,
      "ÙģØ§Ø¯Ùĩ": 2567,
      "uÅŁ": 2568,
      "Ew": 2569,
      "kuj": 2570,
      "eroj": 2571,
      "Ġsiyaset": 2572,
      "Ġpev": 2573,
      "ØªØ±ÛĮÙĨ": 2574,
      "ĠÙĩØºÙĩ": 2575,
      "Ã®tÃ®": 2576,
      "ĠtiÅŁtek": 2577,
      "Ġedeb": 2578,
      "ze": 2579,
      "Ġnizan": 2580,
      "Ġson": 2581,
      "ĠØ¨Ø§Ø²": 2582,
      "Ġavakirina": 2583,
      "Ġray": 2584,
      "ĠbÃ®": 2585,
      "ouv": 2586,
      "karÃª": 2587,
      "ĠÃ®ÅŁ": 2588,
      "dÃ®n": 2589,
      "Ã®stan": 2590,
      "une": 2591,
      "Ãªran": 2592,
      "Ø±ÛĮÚ©": 2593,
      "mÃ®": 2594,
      "ĠEmerÃ®k": 2595,
      "ĠÙħØ®": 2596,
      "ĠÙĨØ§Ùħ": 2597,
      "leh": 2598,
      "Ø§Ø³ÛĮ": 2599,
      "ĠØ¨Ø®": 2600,
      "YA": 2601,
      "ĠmÃ®nak": 2602,
      "tÃªn": 2603,
      "ĠÃİn": 2604,
      "ĠÃ®nan": 2605,
      "Ġcivaka": 2606,
      "Ġhevpey": 2607,
      "2016": 2608,
      "Ġxistin": 2609,
      "ence": 2610,
      "ĠKerkÃ»k": 2611,
      "ĠØ¢Ø²Ø§Ø¯": 2612,
      "Ġbixw": 2613,
      "ĠkÃªf": 2614,
      "Ġxet": 2615,
      "Ġbes": 2616,
      "ezÃ®rÃª": 2617,
      "Ġciwan": 2618,
      "Ġlaw": 2619,
      "ĠalÃ®yÃª": 2620,
      "âĢĿ,": 2621,
      "ĠâĢ¦": 2622,
      "ehr": 2623,
      "Ġpeyda": 2624,
      "au": 2625,
      "ĠYekÃ®tiya": 2626,
      "ĠbaÅŁÃ»rÃª": 2627,
      "ÚļØª": 2628,
      "ĠpÃªÅŁÃ®": 2629,
      "ebÃ»na": 2630,
      "ĠØ§Ø³ØªÙģØ§Ø¯Ùĩ": 2631,
      "ĠÚ¯ÙģØª": 2632,
      "Ã»sa": 2633,
      "Ġ!": 2634,
      "ĠØ§ØŃ": 2635,
      "ĠbÃ»m": 2636,
      "ĠHeta": 2637,
      "ÙĤÙĩ": 2638,
      "Ġkurt": 2639,
      "ĠkurÃª": 2640,
      "Ġberjewend": 2641,
      "ĠewÃª": 2642,
      "Ġketin": 2643,
      "Ġxan": 2644,
      "ĠtiÅŁtÃ®": 2645,
      "21": 2646,
      "ĠhevdÃ®tin": 2647,
      "Ġbazirg": 2648,
      "ÙĨÙĬ": 2649,
      "ĠlÃªkolÃ®n": 2650,
      "ansa": 2651,
      "ĠsÃ®nor": 2652,
      "Ã®kirin": 2653,
      "emp": 2654,
      "ich": 2655,
      "ba": 2656,
      "ikÃ®": 2657,
      "Ġmalp": 2658,
      "elle": 2659,
      "ĠØ§Ø®": 2660,
      "iqu": 2661,
      "ĠØªÙĪØ§ÙĨ": 2662,
      "Ġgo": 2663,
      "Ġmijara": 2664,
      "Ġdo": 2665,
      "son": 2666,
      "ime": 2667,
      "Ġnakin": 2668,
      "usa": 2669,
      "Ġmat": 2670,
      "ĠCiz": 2671,
      "Ġzarokan": 2672,
      "ÙĪÙĨØ¯": 2673,
      "Ġberiya": 2674,
      "ĠGelÃª": 2675,
      "ĠtarÃ®": 2676,
      "Ø§ÛĮÙĨ": 2677,
      "Ġgav": 2678,
      "ĠbajÃªr": 2679,
      "ÙħÛĮÙĨ": 2680,
      "ĠÙĩÛĮ": 2681,
      "Ġlidar": 2682,
      "ĠAk": 2683,
      "ĠØ§ÙĨØª": 2684,
      "Ø¨Ø§Ø±": 2685,
      "Ġguhertin": 2686,
      "Ġdizanin": 2687,
      "ĠÚĺ": 2688,
      "ÛĮÙĩ": 2689,
      "ĠÙħØ·": 2690,
      "Ġmilyon": 2691,
      "Ġafir": 2692,
      "ĠHus": 2693,
      "gere": 2694,
      "ĠStenbolÃª": 2695,
      "HA": 2696,
      "Ġrefer": 2697,
      "ÙĪÚĵ": 2698,
      "Ã®rÃ®": 2699,
      "Ġserbixwe": 2700,
      "ĠØ®ÙĪØ§Ùĩ": 2701,
      "ĠherÃªmÃªn": 2702,
      "ĠÙĨÙĤ": 2703,
      "wd": 2704,
      "andine": 2705,
      "ĠwelatÃ®": 2706,
      "ko": 2707,
      "xaneya": 2708,
      "ĠMed": 2709,
      "ĠnebÃ»": 2710,
      "ĠÃİm": 2711,
      "ĠSwÃªdÃª": 2712,
      "evÃª": 2713,
      "ĠpiÅŁtgiriya": 2714,
      "eyekÃª": 2715,
      "ĠmÃª": 2716,
      "Ġres": 2717,
      "ejir": 2718,
      "gÃ®n": 2719,
      "Ú©ÙĪ": 2720,
      "bÃªj": 2721,
      "enaber": 2722,
      "Ġbigih": 2723,
      "Ġci": 2724,
      "Ã»q": 2725,
      "ĠHin": 2726,
      "ĠkomÃªn": 2727,
      "ĠpartiyÃªn": 2728,
      "Ø³Ø§ÙĨ": 2729,
      "ĠÙĪÙĬ": 2730,
      "Ġparlament": 2731,
      "ĠKomara": 2732,
      "ĠÃ®d": 2733,
      "ĠBÃª": 2734,
      "ØĽ": 2735,
      "ĠbajarÃªn": 2736,
      "Ġno": 2737,
      "Ġbandor": 2738,
      "ÙĨØ¬": 2739,
      "po": 2740,
      "Ġnab": 2741,
      "va": 2742,
      "ÙĪØ±Ùĩ": 2743,
      "adem": 2744,
      "ĠrÃªbaz": 2745,
      "ĠazadÃ®": 2746,
      "Ø¬ÙĪØ¯": 2747,
      "istana": 2748,
      "ĠhatibÃ»n": 2749,
      "ĠpÃªkhat": 2750,
      "Ġbis": 2751,
      "ĠÚ©ØªØ§Ø¨": 2752,
      "Ġdez": 2753,
      "Ġbigirin": 2754,
      "Ġlez": 2755,
      "ĠØ®Ø±": 2756,
      "ĠWÃ®": 2757,
      "Dema": 2758,
      "Ġreh": 2759,
      "ĠÚ©Ø´ÙĪØ±": 2760,
      "Roj": 2761,
      "ĠnÃ»n": 2762,
      "2017": 2763,
      "ĠDAIÅŀÃª": 2764,
      "Ġsu": 2765,
      "ĠÙĬÛĲ": 2766,
      "ÙħÙĪ": 2767,
      "ĠDiyar": 2768,
      "Ġked": 2769,
      "Ġhevkar": 2770,
      "Ġpe": 2771,
      "Ġqur": 2772,
      "ĠmiletÃª": 2773,
      "ĠdawiyÃª": 2774,
      "Ġdoza": 2775,
      "Ġzer": 2776,
      "kes": 2777,
      "ÙĶ": 2778,
      "ĠSÃ»rÃ®": 2779,
      "ÃªrÃ®n": 2780,
      "ĠbÃªd": 2781,
      "Û¹": 2782,
      "Ġgotina": 2783,
      "ĠGelek": 2784,
      "zÃª": 2785,
      "40": 2786,
      "ĠMihemed": 2787,
      "Ġxwestin": 2788,
      "int": 2789,
      "ĠØ³Ø§Ø²": 2790,
      "ĠaxivÃ®": 2791,
      "ÙĬØ¯": 2792,
      "ĠØªØµ": 2793,
      "ØªÙĪØ§ÙĨ": 2794,
      "andÃ®": 2795,
      "ĠpÃªd": 2796,
      "ĠÙħØ±Ø¯": 2797,
      "ÙģÛĮ": 2798,
      "Ġdora": 2799,
      "iring": 2800,
      "ĠÃ§apemen": 2801,
      "ekan": 2802,
      "ĠazadiyÃª": 2803,
      "ĠderveyÃ®": 2804,
      "ĠÚ©ÙĨØ¯": 2805,
      "ĠÚ©ÙĨÛĮØ¯": 2806,
      "asiyÃª": 2807,
      "Ġ)": 2808,
      "Ú©Ø§Ø±": 2809,
      "ect": 2810,
      "eleya": 2811,
      "Ġqew": 2812,
      "Ġmey": 2813,
      "ilman": 2814,
      "ĠÚ©ÙĪ": 2815,
      "ĠkiÅŁand": 2816,
      "Ġdern": 2817,
      "ĠÙ¾Ø§ÛĮ": 2818,
      "ÚĸÙĬ": 2819,
      "ĠÃİslamÃ®": 2820,
      "ĠÅŁah": 2821,
      "Ã®jan": 2822,
      "ÛĮØ²": 2823,
      "ĠÃ®st": 2824,
      "ĠÃ®ns": 2825,
      "Ã®lÃª": 2826,
      "ĠGir": 2827,
      "ĠmirovÃªn": 2828,
      "ĠMÃªr": 2829,
      "eman": 2830,
      "ayÃ®n": 2831,
      "ÙģØ§": 2832,
      "ĠNew": 2833,
      "Ġligel": 2834,
      "Ġnikar": 2835,
      "ĠÃİraqÃª": 2836,
      "ĠmÃ®r": 2837,
      "ĠnÃ®n": 2838,
      "elat": 2839,
      "ĠAbdullah": 2840,
      "ĠpÃªnc": 2841,
      "bend": 2842,
      "ĠØ§Øª": 2843,
      "ĠbÃªyÃ®": 2844,
      "Ġsil": 2845,
      "ĠØ¶": 2846,
      "ĠkitÃªb": 2847,
      "ĠKes": 2848,
      "manÃª": 2849,
      "28": 2850,
      "serok": 2851,
      "ĠdestpÃªkÃª": 2852,
      "ĠØªÙĨ": 2853,
      "otre": 2854,
      "engÃ®": 2855,
      "Ġmar": 2856,
      "Ã»Ã§": 2857,
      "Ġbomb": 2858,
      "Ġmez": 2859,
      "ĠÙģÛĮÙĦ": 2860,
      "ĠkesÃª": 2861,
      "anda": 2862,
      "Ġqis": 2863,
      "ĠØŃØ§ÙĦ": 2864,
      "ĠneÃ§": 2865,
      "Ġney": 2866,
      "Ġqon": 2867,
      "ĠTirkÃ®yÃª": 2868,
      "ĠØªÙĦ": 2869,
      "Ġbala": 2870,
      "Ġkonfer": 2871,
      "lement": 2872,
      "mehÃª": 2873,
      "ĠÙħÙĬ": 2874,
      "ĠnavneteweyÃ®": 2875,
      "Ġsos": 2876,
      "ĠBaÅŁÃ»r": 2877,
      "Ã©t": 2878,
      "pÃªÅŁ": 2879,
      "Ø§ÙĦØ¨": 2880,
      "Ġdel": 2881,
      "girÃª": 2882,
      "ĠAh": 2883,
      "YD": 2884,
      "Ã©es": 2885,
      "ĠØ§Ø³ÙĦØ§Ùħ": 2886,
      "tiyÃª": 2887,
      "ĠMÃ®r": 2888,
      "Ġcin": 2889,
      "Ġxirab": 2890,
      "Ġnavenda": 2891,
      "ĠÙ¾Ø³": 2892,
      "ĠemÃª": 2893,
      "ĠØ´ÙĬ": 2894,
      "Ġreferand": 2895,
      "ĠØ±Ø§Ùĩ": 2896,
      "Ġtirs": 2897,
      "ĠBel": 2898,
      "Ġdawiya": 2899,
      "ĠØ§ÙĪÙĦ": 2900,
      "rÃªn": 2901,
      "ĠSeÃ®d": 2902,
      "ÙĦÛĲ": 2903,
      "Ġdak": 2904,
      "Ù¾Ø¯": 2905,
      "ĠBDP": 2906,
      "HP": 2907,
      "ĠkarÃªn": 2908,
      "imÃ®": 2909,
      "pÃªn": 2910,
      "ikan": 2911,
      "dewl": 2912,
      "afir": 2913,
      "ess": 2914,
      "ĠCh": 2915,
      "ĠÙĨÙĪØ±": 2916,
      "Â´": 2917,
      "Ú©Ø³": 2918,
      "Ġjibo": 2919,
      "ĠÃİl": 2920,
      "ĠØ§Ø¹": 2921,
      "fÃª": 2922,
      "ĠLa": 2923,
      "aÅŁt": 2924,
      "girtina": 2925,
      "Ġwes": 2926,
      "ĠBex": 2927,
      "ĠdeverÃªn": 2928,
      "emend": 2929,
      "bÃ®": 2930,
      "ĠdÃ®rokÃª": 2931,
      "Ãªjim": 2932,
      "tor": 2933,
      "Ø§Øµ": 2934,
      "ĠØ§Ø´": 2935,
      "Ġhwd": 2936,
      "ĠcivÃ®na": 2937,
      "ĠDa": 2938,
      "edar": 2939,
      "ĠÃ§anda": 2940,
      "ĠTr": 2941,
      "Ġad": 2942,
      "ĠSov": 2943,
      "ler": 2944,
      "Ġgiring": 2945,
      "ĠDemokratÃ®k": 2946,
      "Ġxuya": 2947,
      "ĠÙĨÛĮØ²": 2948,
      "ĠÙĤØ±Ø§Ø±": 2949,
      "Ø´ÙĨØ§ÙħÙĩ": 2950,
      "Ġpenaber": 2951,
      "ÙĪØ³": 2952,
      "ĠpirsgirÃªkÃªn": 2953,
      "ĠÃ§Ã»n": 2954,
      "ĠØ¯Ø§Ø¯": 2955,
      "Ġbiz": 2956,
      "Ġdemeke": 2957,
      "ĠrÃªxistinÃªn": 2958,
      "wÃ®": 2959,
      "ĠbalkÃªÅŁ": 2960,
      "ĠNiha": 2961,
      "ĠSal": 2962,
      "ci": 2963,
      "mana": 2964,
      "ĠØ±ÙĪÛĮ": 2965,
      "ĠjÃ®y": 2966,
      "ĠpÃªÅŁeng": 2967,
      "ĠaliyÃªn": 2968,
      "Ø±Ø³": 2969,
      "ĠÙħÙĪØ±Ø¯": 2970,
      "ĠtÃ®": 2971,
      "aqij": 2972,
      "ĠØ§ÙģØºØ§ÙĨØ³ØªØ§ÙĨ": 2973,
      "Ġwerger": 2974,
      "Ġnavdar": 2975,
      "Ú©Ø§ÙĨ": 2976,
      "ĠCiv": 2977,
      "aza": 2978,
      "ĠderbasÃ®": 2979,
      "Ġdidom": 2980,
      "ĠElÃ®": 2981,
      "ĠHÃªzÃªn": 2982,
      "Ġbikeve": 2983,
      "ÛĮØ¯Ùĩ": 2984,
      "ĠwelÃª": 2985,
      "ER": 2986,
      "iÅŁtin": 2987,
      "Ġvekirin": 2988,
      "ĠpaÅŁÃª": 2989,
      "ĠØ¨ÛĮÙĨ": 2990,
      "ĠYanÃ®": 2991,
      "ĠØ§ÙħØ§": 2992,
      "iyeta": 2993,
      "ĠkÃ®jan": 2994,
      "eva": 2995,
      "age": 2996,
      "100": 2997,
      "Ã»z": 2998,
      "ĠÙĪÛĮÚ©ÛĮ": 2999,
      "Ġdixw": 3000,
      "Ã»nÃ®": 3001,
      "ĠÅŀoreÅŁ": 3002,
      "Ø§Ø¨ÙĦ": 3003,
      "ĠbarÃª": 3004,
      "ĠÙ¾ÛĮØ´": 3005,
      "Ã§Ã»na": 3006,
      "Ġkirina": 3007,
      "ĠRÃªveb": 3008,
      "ØŃÛĮ": 3009,
      "Ø§Ø·": 3010,
      "Ġpet": 3011,
      "Ġtout": 3012,
      "las": 3013,
      "Ġdigot": 3014,
      "ĠCÃ®h": 3015,
      "ĠfÃªm": 3016,
      "ĠIn": 3017,
      "uj": 3018,
      "ĠbakurÃª": 3019,
      "ĠÚ©Ø±Ø¯Ùĩ": 3020,
      "alÃ®z": 3021,
      "ÚĵÙĩ": 3022,
      "âĢĺ": 3023,
      "Ġserdest": 3024,
      "eha": 3025,
      "uf": 3026,
      "ĠØŃØ³": 3027,
      "ĠbaÅŁtir": 3028,
      "ĠArt": 3029,
      "ĠpiÃ§": 3030,
      "22": 3031,
      "Ġzanyar": 3032,
      "ĠÅŁex": 3033,
      "werÃ®": 3034,
      "Ø¯Ø§Ø±": 3035,
      "ĠLewra": 3036,
      "ÚĨÙĩ": 3037,
      "Ġgelo": 3038,
      "ĠSey": 3039,
      "ĠencamÃª": 3040,
      "Ã®yo": 3041,
      "Ġdigire": 3042,
      "che": 3043,
      "ĠpÃªÅŁiya": 3044,
      "Ġnekin": 3045,
      "Ġver": 3046,
      "aka": 3047,
      "Ġxew": 3048,
      "ekÃªn": 3049,
      "aris": 3050,
      "ĠRÃ»sya": 3051,
      "Ġmerc": 3052,
      "ide": 3053,
      "Ġbas": 3054,
      "ĠrewÅŁenb": 3055,
      "ĠÃªrÃ®ÅŁa": 3056,
      "ĠÙģÛĮÙĦÙħ": 3057,
      "brah": 3058,
      "ĠtÃªkiliyÃªn": 3059,
      "Ġbixwe": 3060,
      "ĠÃ§ep": 3061,
      "ĠØ¬ÙĨ": 3062,
      "Ġmixabin": 3063,
      "yanÃ®": 3064,
      "ron": 3065,
      "ĠØ¯Ø§ÙĨØ´ÙĨØ§ÙħÙĩ": 3066,
      "imanÃª": 3067,
      "ĠIraq": 3068,
      "ĠQur": 3069,
      "wir": 3070,
      "Ġbend": 3071,
      "ĠMer": 3072,
      "ĠrejÃ®ma": 3073,
      "uha": 3074,
      "ihÃª": 3075,
      "Ġdur": 3076,
      "ĠFir": 3077,
      "ĠsÃ®stema": 3078,
      "ĠavÃªtin": 3079,
      "ise": 3080,
      "Ġhilber": 3081,
      "ĠneyÃª": 3082,
      "ĠYNK": 3083,
      "urÃª": 3084,
      "ĠPKKÃª": 3085,
      "ĠØµÙĪØ±Øª": 3086,
      "Ġhov": 3087,
      "Ġkal": 3088,
      "ĠAv": 3089,
      "Ġnaverok": 3090,
      "Ġxort": 3091,
      "ĠØªØ¹": 3092,
      "ĠØ¨ÛĮØ´": 3093,
      "ĠhÃªja": 3094,
      "Ġxwar": 3095,
      "ĠpirsgirÃªka": 3096,
      "Ġstr": 3097,
      "ĠbÃªhtir": 3098,
      "ecl": 3099,
      "ĠhÃªdÃ®": 3100,
      "ĠpirtÃ»ka": 3101,
      "Ġpaqij": 3102,
      "Ø¹Ø§Øª": 3103,
      "ĠRÃªberÃª": 3104,
      "Ġdijwar": 3105,
      "ĠDemokrat": 3106,
      "Ġteng": 3107,
      "Ġragihandin": 3108,
      "ebÃ»": 3109,
      "ĠsÃ®yasÃ®": 3110,
      "Ġsi": 3111,
      "nas": 3112,
      "dÃ»": 3113,
      "Ġherwiha": 3114,
      "Ġxwendin": 3115,
      "ĠnivÃ®sandin": 3116,
      "ors": 3117,
      "ĠEger": 3118,
      "bir": 3119,
      "Ġbingeha": 3120,
      "ĠfaÅŁ": 3121,
      "Ã®tan": 3122,
      "ĠØ¨Ø±ÙĨØ§ÙħÙĩ": 3123,
      "Ø±Ø¨": 3124,
      "ĠÃ®l": 3125,
      "ĠAy": 3126,
      "Ġserd": 3127,
      "Ġqada": 3128,
      "Ø´ÙĪØ¯": 3129,
      "ĠÄ°": 3130,
      "Ù¾Ø¯ÛĮØ§": 3131,
      "ĠÃ§arÃ§oveya": 3132,
      "eÅŁt": 3133,
      "ĠbeÅŁa": 3134,
      "ins": 3135,
      "ĠleÅŁkerÃªn": 3136,
      "Ġhelwesta": 3137,
      "ĠÙ¾Ø±ÙĪ": 3138,
      "asyona": 3139,
      "Ãªne": 3140,
      "azÃª": 3141,
      "ĠÙħÙĦ": 3142,
      "ĠtiÅŁtÃª": 3143,
      "Ø§ÛĮÙĦ": 3144,
      "Ġxerab": 3145,
      "ille": 3146,
      "ĠÙģØ±ÙĪØ´": 3147,
      "ĠbÃªje": 3148,
      "Ġbidest": 3149,
      "iss": 3150,
      "Ġpisp": 3151,
      "ĠÃ§Ãªb": 3152,
      "ĠØ§ÙĨØ¬": 3153,
      "girtÃ®": 3154,
      "Úħ": 3155,
      "ĠTurk": 3156,
      "ĠsÃ®yas": 3157,
      "Ã®stanÃª": 3158,
      "ĠhevbeÅŁ": 3159,
      "ĠBeÅŁ": 3160,
      "Ġmuh": 3161,
      "ĠdÃ®n": 3162,
      "ĠSed": 3163,
      "ĠMar": 3164,
      "Ġsedsala": 3165,
      "Ûµ": 3166,
      "ĠTevgera": 3167,
      "evanÃªn": 3168,
      "ĠdanÃ»st": 3169,
      "ord": 3170,
      "ette": 3171,
      "Ġnetew": 3172,
      "ĠÃªriÅŁ": 3173,
      "Ġaxaftina": 3174,
      "ĠbinivÃ®s": 3175,
      "ĠØ®Ø¨Ø±": 3176,
      "Ġserdana": 3177,
      "ĠvekirÃ®": 3178,
      "kerd": 3179,
      "ewt": 3180,
      "ÙĪØ§Ø¯": 3181,
      "Ã®kirina": 3182,
      "ĠYekbÃ»yÃ®": 3183,
      "ĠØ¨Ø³ÛĮ": 3184,
      "ĠMez": 3185,
      "ĠSp": 3186,
      "artina": 3187,
      "asN": 3188,
      "Ø¯Ùħ": 3189,
      "ĠyanÃ®": 3190,
      "Ġbigire": 3191,
      "Û³": 3192,
      "23": 3193,
      "andan": 3194,
      "ĠsaziyÃªn": 3195,
      "parÃª": 3196,
      "ĠPey": 3197,
      "ĠzimanÃªn": 3198,
      "ond": 3199,
      "Ġso": 3200,
      "ĠpartÃ®": 3201,
      "Ġwin": 3202,
      "ĠOsman": 3203,
      "car": 3204,
      "Ø§Ø´ØªÙĩ": 3205,
      "ĠÅŁermezar": 3206,
      "Ġdewlemend": 3207,
      "qil": 3208,
      "girÃ®": 3209,
      "ĠparÃ§": 3210,
      "Ġsekin": 3211,
      "Ø§ÙĬÙĬ": 3212,
      "ĠerebÃ®": 3213,
      "Ġtend": 3214,
      "Ã®kÃªn": 3215,
      "Ġmalbat": 3216,
      "ĠÙĦÙ¾": 3217,
      "ĠØ¨ÙĨ": 3218,
      "Ġdey": 3219,
      "oo": 3220,
      "ĠÚħØ®Ùĩ": 3221,
      "Ġsedan": 3222,
      "Ã®neke": 3223,
      "ï¬": 3224,
      "nivÃ®s": 3225,
      "ĠhatÃ®ye": 3226,
      "Ġserhil": 3227,
      "ĠdibÃ»": 3228,
      "Ġcareke": 3229,
      "Ġkan": 3230,
      "Ġjina": 3231,
      "Ġ*": 3232,
      "ĠBakurÃª": 3233,
      "ĠKurdistanÃ®": 3234,
      "Ġorg": 3235,
      "ĠnuÅŁt": 3236,
      "60": 3237,
      "Ġmad": 3238,
      "que": 3239,
      "ĠÙħØµ": 3240,
      "ÙĲ": 3241,
      "yonÃª": 3242,
      "ayÃ®ÅŁÃª": 3243,
      "Ġsoz": 3244,
      "Ġderdora": 3245,
      "ĠheyÃ®": 3246,
      "ÙĪÙĨÛĮ": 3247,
      "ĠEnq": 3248,
      "oÃ§": 3249,
      "aziya": 3250,
      "ĠÃ§ÃªbÃ»": 3251,
      "ĠmÃªv": 3252,
      "Ø§Ø±Øª": 3253,
      "Ġsont": 3254,
      "Ã®g": 3255,
      "ban": 3256,
      "her": 3257,
      "Ġaxav": 3258,
      "qet": 3259,
      "SD": 3260,
      "ĠØ¯ÛĮÚ¯Ø±": 3261,
      "ĠcarÃª": 3262,
      "Ãªle": 3263,
      "Ä±r": 3264,
      "itÃ®": 3265,
      "ĠÃ§eteyÃªn": 3266,
      "Ġhaw": 3267,
      "ĠÙĥÙĩ": 3268,
      "ĠÃ®f": 3269,
      "ĠpÃªkanÃ®na": 3270,
      "Ġderman": 3271,
      "ĠÃ§alakiyÃªn": 3272,
      "omar": 3273,
      "ĠHeke": 3274,
      "mar": 3275,
      "ĠÅŁoreÅŁa": 3276,
      "ĠØ³Ø§Ø®Øª": 3277,
      "Gel": 3278,
      "imanÃ®": 3279,
      "atÃ®k": 3280,
      "ĠdestÃªn": 3281,
      "tÃ®ya": 3282,
      "aÃ§": 3283,
      "Ġdixeb": 3284,
      "Ġdixwest": 3285,
      "Ġstrat": 3286,
      "ada": 3287,
      "Ġ....": 3288,
      "eba": 3289,
      "Ġrak": 3290,
      "ĠØ´ÙĩØ±": 3291,
      "Ã¼r": 3292,
      "Ġmerd": 3293,
      "ĠØ¬Ùħ": 3294,
      "Ã®yek": 3295,
      "ĠØ¨Ø§ÙĦ": 3296,
      "Ø§Ù¾": 3297,
      "ĠHez": 3298,
      "taÅŁ": 3299,
      "Ġdamezr": 3300,
      "ĠpÃªÅŁve": 3301,
      "Ã©c": 3302,
      "ĠbÃªne": 3303,
      "Ġkomkuj": 3304,
      "Ġqala": 3305,
      "ĠnÃ»Ã§": 3306,
      "ĠÅŀeng": 3307,
      "Ġderxistin": 3308,
      "ĠhÃªsan": 3309,
      "ĠÚ¯Ø±": 3310,
      "Ġbet": 3311,
      "ĠÙĪÚ©Úĵ": 3312,
      "Ġgotiye": 3313,
      "za": 3314,
      "Ã»dÃª": 3315,
      "iÅŁk": 3316,
      "heng": 3317,
      "ĠÅŁoreÅŁger": 3318,
      "ĠteÅŁ": 3319,
      "Ø§ØŃ": 3320,
      "ĠdinivÃ®s": 3321,
      "ĠnavÃªn": 3322,
      "Ġbandora": 3323,
      "eyn": 3324,
      "aman": 3325,
      "Ġnex": 3326,
      "Ġdihatin": 3327,
      "ĠØ³Øª": 3328,
      "ĠhÃ»r": 3329,
      "ĠDiyarbek": 3330,
      "artÃ®": 3331,
      "ois": 3332,
      "Ġrola": 3333,
      "ĠpÃ®v": 3334,
      "ions": 3335,
      "ÙģØªÙĩ": 3336,
      "Ġdewam": 3337,
      "SerokÃª": 3338,
      "ĠkarÃ®": 3339,
      "Ã®w": 3340,
      "Ġxizmeta": 3341,
      "ĠbÃªjin": 3342,
      "Ġxwendek": 3343,
      "urÃ®": 3344,
      "Ġderkevin": 3345,
      "ĠKobanÃª": 3346,
      "ila": 3347,
      "cÃ®": 3348,
      "ĠwelÃªt": 3349,
      "ĠÚ¯Ø°": 3350,
      "Ġha": 3351,
      "indÃ®": 3352,
      "ĠPiÅŁt": 3353,
      "kl": 3354,
      "jen": 3355,
      "Ġbist": 3356,
      "ĠØ§Ø·": 3357,
      "ĠrengÃ®": 3358,
      "Ġneke": 3359,
      "ĠmÃ®l": 3360,
      "ĠÅŁÃ»n": 3361,
      "ĠkesekÃ®": 3362,
      "ĠØ²ÙħØ§ÙĨ": 3363,
      "Ġrol": 3364,
      "ĠfÃªr": 3365,
      "ĠØªÙĪØ³": 3366,
      "Ø§ÙħÛĮ": 3367,
      "Ġted": 3368,
      "ĠdÃ®yar": 3369,
      "ĠderheqÃª": 3370,
      "ĠdimeÅŁ": 3371,
      "ĠBeg": 3372,
      "Ġpiraniya": 3373,
      "Ø´ØªÙĩ": 3374,
      "exta": 3375,
      "ile": 3376,
      "ĠEy": 3377,
      "ĠVÃª": 3378,
      "ĠPaÅŁ": 3379,
      "Hev": 3380,
      "ï¬Ĥ": 3381,
      "Ġred": 3382,
      "Ġtund": 3383,
      "ĠÃ§avkan": 3384,
      "Ġsit": 3385,
      "ĠWek": 3386,
      "26": 3387,
      "ĠÙĨØ³": 3388,
      "Ã®zÃ®": 3389,
      "oq": 3390,
      "ĠjÃªr": 3391,
      "ĠpiÅŁtre": 3392,
      "Ġec": 3393,
      "Ġref": 3394,
      "Ġqel": 3395,
      "ment": 3396,
      "ÃĽ": 3397,
      "Ãªt": 3398,
      "ĠÅŀem": 3399,
      "nav": 3400,
      "brahÃ®m": 3401,
      "ĠÙĦÙ¾Ø§Ø±Ùĩ": 3402,
      "ĠLe": 3403,
      "Ġberxwedana": 3404,
      "ÛĮÙĨÛĮ": 3405,
      "ĠÙĨØ¸Ø±": 3406,
      "wezÃ®rÃª": 3407,
      "Ġon": 3408,
      "ĠencamÃªn": 3409,
      "ĠhÃªs": 3410,
      "ezareta": 3411,
      "ĠÃ©t": 3412,
      "ĠKemal": 3413,
      "ĠÅŁa": 3414,
      "ĠdestpÃªkirin": 3415,
      "Ġherweha": 3416,
      "Ã©n": 3417,
      "Ġnif": 3418,
      "ĠmeÅŁandin": 3419,
      "guman": 3420,
      "Ã»bÃªj": 3421,
      "Ġnaskirin": 3422,
      "Ġruh": 3423,
      "Ġkr": 3424,
      "ĠbikaranÃ®na": 3425,
      "ĠDad": 3426,
      "Ġtecr": 3427,
      "ĠBakur": 3428,
      "ĠdÄ±": 3429,
      "Ġqetil": 3430,
      "ĠgeÅŁ": 3431,
      "kerÃªn": 3432,
      "ĠrÃ»m": 3433,
      "Ġewleh": 3434,
      "ĠdiÃ§in": 3435,
      "ow": 3436,
      "Ø§ÙĪ": 3437,
      "ĠÅŀer": 3438,
      "Ġkonferans": 3439,
      "acÃ®": 3440,
      "ĠAz": 3441,
      "ĠÃ§avÃª": 3442,
      "Ġhewc": 3443,
      "ĠØ®Ø±ÛĮØ¯": 3444,
      "ĠÅŁand": 3445,
      "ĠweÅŁandin": 3446,
      "Ġveguh": 3447,
      "Ġpan": 3448,
      "ĠcivÃ®nÃª": 3449,
      "Ġdehan": 3450,
      "ĠtemaÅŁ": 3451,
      "arek": 3452,
      "Ġap": 3453,
      "Ġtex": 3454,
      "ĠØ§Ú¯Ø±": 3455,
      "Ġbizan": 3456,
      "ĠÙĨÙħÛĮ": 3457,
      "ĠÃ§er": 3458,
      "Ġfed": 3459,
      "Ġtemam": 3460,
      "ĠÅŁert": 3461,
      "edarÃªn": 3462,
      "ĠxwÃ®n": 3463,
      "otina": 3464,
      "Ġtij": 3465,
      "ĠgundÃªn": 3466,
      "ĠÅŀehÃ®d": 3467,
      "okÃªn": 3468,
      "Ġderketin": 3469,
      "Ġfor": 3470,
      "ĠkÃªfxweÅŁ": 3471,
      "ĠbirayÃª": 3472,
      "ĠkurmancÃ®": 3473,
      "ĠGor": 3474,
      "elsef": 3475,
      "Ġpayt": 3476,
      "amiÅŁ": 3477,
      "ĠbÃ»yerÃªn": 3478,
      "ĠrastiyÃª": 3479,
      "Ġnakok": 3480,
      "ĠSovy": 3481,
      "ĠÅŁÃ»na": 3482,
      "Ġtop": 3483,
      "ĠziwanÃª": 3484,
      "ĠØ¯Ø§Ø´Øª": 3485,
      "ĠEwrÃ»": 3486,
      "oir": 3487,
      "ĠWanÃª": 3488,
      "bin": 3489,
      "eyt": 3490,
      "Ġgelan": 3491,
      "ĠherÃªmÃ®": 3492,
      "ĠsÃ»c": 3493,
      "ĠØ³Ø±ÛĮ": 3494,
      "ĠØ³Ùĩ": 3495,
      "ĠRÃªber": 3496,
      "ĠtemamÃ®": 3497,
      "ĠMecl": 3498,
      "ĠsedÃ®": 3499,
      "ĠErmen": 3500,
      "ĠaliyekÃ®": 3501,
      "ĠtÃªr": 3502,
      "Ġof": 3503,
      "ĠdimÃ®ne": 3504,
      "Ġhunermend": 3505,
      "Ġmecb": 3506,
      "ĠterorÃ®st": 3507,
      "ĠØ²ÙĨØ¯": 3508,
      "dl": 3509,
      "ĠØ¨Ø²": 3510,
      "Ġgur": 3511,
      "ÛĮÙĨÙĩ": 3512,
      "ĠpÃªwend": 3513,
      "irxan": 3514,
      "Ø±ØŃ": 3515,
      "Ø®ÛĮ": 3516,
      "Ġbaweriya": 3517,
      "eÃ§": 3518,
      "ĠÚ©ÙĨÙĨØ¯": 3519,
      "ÙĦÙħ": 3520,
      "ĠpÃ®ÅŁ": 3521,
      "ĠpevÃ§Ã»n": 3522,
      "ĠrÃ»niÅŁt": 3523,
      "2015": 3524,
      "Ġpergala": 3525,
      "ĠKerkÃ»kÃª": 3526,
      "Û´": 3527,
      "Ġzay": 3528,
      "Ġdagir": 3529,
      "ivin": 3530,
      "Ġderx": 3531,
      "ĠPol": 3532,
      "ÙĦØ¨": 3533,
      "qa": 3534,
      "Ġstran": 3535,
      "xweyÃ®": 3536,
      "AN": 3537,
      "ĠØ´Ø¨": 3538,
      "asNews": 3539,
      "ĠØªØ¬": 3540,
      "areke": 3541,
      "Ber": 3542,
      "ĠalÃ®karÃ®": 3543,
      "ember": 3544,
      "ĠFer": 3545,
      "Ġbirin": 3546,
      "Ġzir": 3547,
      "ĠperÃ§": 3548,
      "gehan": 3549,
      "ĠdemÃªn": 3550,
      "ĠhilweÅŁ": 3551,
      "ĠØ§ÙĦÙĦÙĩ": 3552,
      "Ġcej": 3553,
      "Ġund": 3554,
      "ĠApo": 3555,
      "ĠÙĤØ³": 3556,
      "eyekÃ®": 3557,
      "Ġcer": 3558,
      "karÃ®": 3559,
      "ĠbirÃªveb": 3560,
      "ĠÅŁar": 3561,
      "ĠZanÃ®n": 3562,
      "ÙĪÙĤ": 3563,
      "ÛĮÙĪ": 3564,
      "ĠØ«": 3565,
      "Ġraya": 3566,
      "Ġmais": 3567,
      "ĠØ¢Ø¨": 3568,
      "Ġketiye": 3569,
      "ura": 3570,
      "ĠOr": 3571,
      "ĠSil": 3572,
      "Ġteref": 3573,
      "ĠMel": 3574,
      "Ã®dÃ®": 3575,
      "ĠendamÃª": 3576,
      "ÙĨÙĪØ§ÙĨ": 3577,
      "erast": 3578,
      "Ġten": 3579,
      "Ġstratej": 3580,
      "ÚĺÙĩ": 3581,
      "Ġtam": 3582,
      "out": 3583,
      "ĠpÃªÅŁeroj": 3584,
      "abÃ»": 3585,
      "ĠWekÃ®": 3586,
      "ĠÃİro": 3587,
      "lim": 3588,
      "merg": 3589,
      "Ġbakur": 3590,
      "dara": 3591,
      "Ġsaet": 3592,
      "ĠEd": 3593,
      "ĠHey": 3594,
      "Ġdol": 3595,
      "Ø¯Ø§ÙĨ": 3596,
      "han": 3597,
      "ĠSelah": 3598,
      "ĠrÃ»pel": 3599,
      "ĠØ®Ù¾ÙĦ": 3600,
      "Ġkil": 3601,
      "Ã¢": 3602,
      "Ġcen": 3603,
      "ice": 3604,
      "ĠØ§ÙģØ²": 3605,
      "ĠdaxwazÃªn": 3606,
      "ĠpÃªvajoyÃª": 3607,
      "xwaze": 3608,
      "ebÃ»n": 3609,
      "ĠRÃ»syayÃª": 3610,
      "ĠYa": 3611,
      "Ġderxist": 3612,
      "27": 3613,
      "Ġjor": 3614,
      "ĠÚ©ÚĵÙĬ": 3615,
      "DivÃª": 3616,
      "ĠØ´Ø±Ú©Øª": 3617,
      "Ġprof": 3618,
      "Ġ......": 3619,
      "Ø§Ø³Øª": 3620,
      "ĠØ¢ÙĨÙĩØ§": 3621,
      "ĠrÃ»yÃª": 3622,
      "Ġbinav": 3623,
      "Ġlidarxistin": 3624,
      "ĠcÃ»r": 3625,
      "Ġdixwazim": 3626,
      "Ġkey": 3627,
      "ÙĬØ±": 3628,
      "Ġprot": 3629,
      "ĠhilbijartinÃªn": 3630,
      "Ġzind": 3631,
      "ĠrojavayÃª": 3632,
      "Ã®nek": 3633,
      "ĠHÃ»n": 3634,
      "ĠgihÃ®ÅŁt": 3635,
      "ead": 3636,
      "Ġtelev": 3637,
      "ĠÅŁop": 3638,
      "Ġpejir": 3639,
      "ÛĲØ±": 3640,
      "ÙħÙĦ": 3641,
      "Ġdida": 3642,
      "Ø¨ÙĪ": 3643,
      "ĠÃİslamÃª": 3644,
      "Ø§Ø±ÙĪ": 3645,
      "ĠØªØ¨": 3646,
      "Ġsek": 3647,
      "ĠØ§ÙĬÙĨ": 3648,
      "ĠÙĪØ¬ÙĪØ¯": 3649,
      "parÃªzin": 3650,
      "ĠÅŁared": 3651,
      "itin": 3652,
      "ĠPYD": 3653,
      "ĠdemekÃª": 3654,
      "Ġtevl": 3655,
      "ĠKC": 3656,
      "ĠxebatÃª": 3657,
      "!!": 3658,
      "ral": 3659,
      "Ú©ÙĬ": 3660,
      "ĠØ¯ÙĪÙĦ": 3661,
      "Ġvekir": 3662,
      "iqÃ»q": 3663,
      "Ġdis": 3664,
      "ÙĤÙĦ": 3665,
      "Ġprop": 3666,
      "Ġaxavtina": 3667,
      "yo": 3668,
      "Ġmel": 3669,
      "ĠÂĵ": 3670,
      "atiyÃª": 3671,
      "inan": 3672,
      "tim": 3673,
      "ĠkoÃ§ber": 3674,
      "merge": 3675,
      "ĠdinÃª": 3676,
      "ĠHun": 3677,
      "Ġzew": 3678,
      "ĠØ¨Ø®Ø´": 3679,
      "Ġmilet": 3680,
      "ĠQamiÅŁ": 3681,
      "ĠÚĨÙĬ": 3682,
      "ĠbÃªdeng": 3683,
      "Ø±Ú¯": 3684,
      "Ġniv": 3685,
      "Ġaut": 3686,
      "Ġguman": 3687,
      "ĠÃ§andÃ®": 3688,
      "roj": 3689,
      "ĠhiÅŁyar": 3690,
      "Ã®ranÃª": 3691,
      "Ġdesthilatdar": 3692,
      "Ġtaw": 3693,
      "onn": 3694,
      "Ġvedi": 3695,
      "Ø§Ø¯Ø±": 3696,
      "ĠRom": 3697,
      "Ġat": 3698,
      "Ġberdan": 3699,
      "etin": 3700,
      "Ġkontrol": 3701,
      "ĠaÅŁtiyÃª": 3702,
      "ĠkiribÃ»n": 3703,
      "Ġrastiya": 3704,
      "akÃª": 3705,
      "nÃ®ÅŁ": 3706,
      "ĠPÃª": 3707,
      "ĠØŃØ¶": 3708,
      "Ġbl": 3709,
      "elÃ®": 3710,
      "pÃªÃ§": 3711,
      "Ú©ÛĲ": 3712,
      "uq": 3713,
      "Ġteb": 3714,
      "ĠØ§ÙĨØ¬Ø§Ùħ": 3715,
      "Ø¬ÛĮ": 3716,
      "Ùİ": 3717,
      "able": 3718,
      "greya": 3719,
      "ndÃ®": 3720,
      "ermand": 3721,
      "ĠciwanÃªn": 3722,
      "Ġderdikeve": 3723,
      "Ġderkeve": 3724,
      "Ġdiyarkirin": 3725,
      "Ġrojane": 3726,
      "ĠÚ¯Ø±Ø¯": 3727,
      "ver": 3728,
      "ĠHewlÃªrÃª": 3729,
      "Ã´": 3730,
      "Ġmas": 3731,
      "bil": 3732,
      "ĠÙħØ§Ùĩ": 3733,
      "akt": 3734,
      "ĠØŃÚ©": 3735,
      "ÃİÅŀ": 3736,
      "bic": 3737,
      "ĠsÃ®norÃª": 3738,
      "ÚĵÙĬ": 3739,
      "194": 3740,
      "ÙĨÛĲ": 3741,
      "iyet": 3742,
      "ĠÅŁervanÃªn": 3743,
      "werde": 3744,
      "ĠNa": 3745,
      "ĠÅŁÃªwe": 3746,
      "ĠØ¯ÙĦ": 3747,
      "onÃ®": 3748,
      "ĠrewÅŁÃª": 3749,
      "Ø§ØªÙĪ": 3750,
      "ĠØªÙĪÙĦ": 3751,
      "ĠÙ¼ÙĪÙĦ": 3752,
      "ĠwarÃ®": 3753,
      "DA": 3754,
      "Ø±Øª": 3755,
      "ĠÃ§ekdar": 3756,
      "Ġserans": 3757,
      "xa": 3758,
      "ĠhatÃ®": 3759,
      "ĠTe": 3760,
      "Ġendam": 3761,
      "ĠzimanÃ®": 3762,
      "Ġhewil": 3763,
      "ĠCiw": 3764,
      "ĠniÅŁt": 3765,
      "ign": 3766,
      "Ġdiq": 3767,
      "ĠCel": 3768,
      "ient": 3769,
      "Ġhatina": 3770,
      "ĠÙģØ¹": 3771,
      "ÙĨÛĮÙĨ": 3772,
      "ĠdevÃª": 3773,
      "ĠÅŁan": 3774,
      "Ġnous": 3775,
      "ĠpolÃ®s": 3776,
      "Ġop": 3777,
      "ĉĊ": 3778,
      "ĠkirÃ®ye": 3779,
      "Ġnavend": 3780,
      "Ġkult": 3781,
      "Ġwext": 3782,
      "ĠbÄ±": 3783,
      "ĠnimÃªj": 3784,
      "ĠÙģØ§Ø±": 3785,
      "ĠÙħØ¯ÛĮØ±": 3786,
      "Ġwelatan": 3787,
      "iyon": 3788,
      "sÃ®k": 3789,
      "ĠserxwebÃ»na": 3790,
      "for": 3791,
      "Ġbr": 3792,
      "Ġrexne": 3793,
      "yalÃ®st": 3794,
      "ĠAng": 3795,
      "Ġplan": 3796,
      "ĠDYA": 3797,
      "ĠbirÃ§Ã®": 3798,
      "mÃ®n": 3799,
      "Û±Û³": 3800,
      "cÃª": 3801,
      "ÂĶ": 3802,
      "ĠØ°": 3803,
      "ĠFrans": 3804,
      "ĠEhmed": 3805,
      "ĠduyemÃ®n": 3806,
      "dewletÃ®": 3807,
      "ĠDÃ®sa": 3808,
      "ÙĨÙĪ": 3809,
      "ĠÃİng": 3810,
      "tal": 3811,
      "ĠBal": 3812,
      "azakÃ®": 3813,
      "ĠÃªrÃ®ÅŁÃ®": 3814,
      "ĠHikÃ»m": 3815,
      "ĠgotinÃª": 3816,
      "Ġhere": 3817,
      "ajÃ®": 3818,
      "Ø±Ø§Ùĩ": 3819,
      "ĠpÃªng": 3820,
      "ĠnavnetewÃ®": 3821,
      "evÃ®": 3822,
      "Ø¨Ø§ÙĦ": 3823,
      "ÙģÙĩ": 3824,
      "ĠDemÃ®r": 3825,
      "ĠbeÅŁek": 3826,
      "ien": 3827,
      "ĠkuÅŁtina": 3828,
      "ĠbibÃ®ne": 3829,
      "Ġxweser": 3830,
      "Û·": 3831,
      "Ã®yayÃª": 3832,
      "ĠÚ©ÙĬ": 3833,
      "Ġmus": 3834,
      "Ġtirkan": 3835,
      "Ġwa": 3836,
      "ĠÙĤØ³ÙħØª": 3837,
      "ĠTÃª": 3838,
      "elÃªn": 3839,
      "ÙĨÚ«": 3840,
      "Ġewlek": 3841,
      "Ġsib": 3842,
      "EN": 3843,
      "2014": 3844,
      "ies": 3845,
      "Ø¶ÙĪ": 3846,
      "Ú¯Ùĩ": 3847,
      "Ġmon": 3848,
      "ĠpeyvÃªn": 3849,
      "ĠØ¨ÛĮÙħ": 3850,
      "Ġnef": 3851,
      "ĠbikarhÃªn": 3852,
      "Ġkesayet": 3853,
      "Ġaz": 3854,
      "ÙħÙĨØ¯": 3855,
      "Ġmak": 3856,
      "Ãªlin": 3857,
      "Ø§ØªÛĮ": 3858,
      "ĠFil": 3859,
      "ĠnÃ®q": 3860,
      "Ġdifik": 3861,
      "ĠØ¹ÙĦÛĮ": 3862,
      "iyat": 3863,
      "Ġhesab": 3864,
      "Ġtevahiya": 3865,
      "emalt": 3866,
      "ĠNetewe": 3867,
      "gÃ®": 3868,
      "ikum": 3869,
      "Ø±ÛĮÚ©Ø§": 3870,
      "ĠÙĩÙħÙĩ": 3871,
      "Ġnehatiye": 3872,
      "ĠGelo": 3873,
      "Ġvala": 3874,
      "ĠSib": 3875,
      "Ġcud": 3876,
      "ĠbeÅŁÃªn": 3877,
      "Ġgellek": 3878,
      "ĠØŃÙĤ": 3879,
      "ĠÚ©Ø§ÙĦ": 3880,
      "Ã®yanÃª": 3881,
      "let": 3882,
      "ograf": 3883,
      "Ġcam": 3884,
      "ĠgotÃ»bÃªj": 3885,
      "ĠrengÃª": 3886,
      "Ġqedexe": 3887,
      "Ġhebin": 3888,
      "Ø¶Ø§": 3889,
      "form": 3890,
      "Ġis": 3891,
      "ĠØ¯ØºÙĩ": 3892,
      "ĠnimÃ»ne": 3893,
      "onc": 3894,
      "Ø³ØªÙħ": 3895,
      "Ġnaveroka": 3896,
      "awer": 3897,
      "Ġro": 3898,
      "Ġaux": 3899,
      "Ġmaye": 3900,
      "Ã®dÃª": 3901,
      "ĠDerve": 3902,
      "Ġpartiya": 3903,
      "ug": 3904,
      "ĠÚ©ÙĪÙĬ": 3905,
      "ĠzanistÃ®": 3906,
      "Ġfelsef": 3907,
      "ĠRoja": 3908,
      "Ġrojava": 3909,
      "ĠDÃªrs": 3910,
      "ĠWan": 3911,
      "Ġform": 3912,
      "ĠsalÃª": 3913,
      "ĠÚ©Ø³": 3914,
      "ui": 3915,
      "ĠagahiyÃªn": 3916,
      "ĠÙĪØ³": 3917,
      "ĠagahÃ®": 3918,
      "Ġberbi": 3919,
      "Ġwinda": 3920,
      "uis": 3921,
      "Ġnasnam": 3922,
      "ĠÙĪÙĦ": 3923,
      "ĠTeb": 3924,
      "ĠÃ®nsan": 3925,
      "ĠTirkÃ®": 3926,
      "ĠpÃªÅŁÃ®n": 3927,
      "ĠpiÃ§Ã»k": 3928,
      "Ġseba": 3929,
      "iyarÃªn": 3930,
      "Ġmecl": 3931,
      "anÃ®ya": 3932,
      "ĠRus": 3933,
      "Me": 3934,
      "Ġlihev": 3935,
      "ĠMist": 3936,
      "ÙĪÙħØª": 3937,
      "ĠOz": 3938,
      "Ġserbest": 3939,
      "yekÃ®": 3940,
      "Ã®zmÃª": 3941,
      "ĠÙĩØ³ØªÙĨØ¯": 3942,
      "Ġalf": 3943,
      "ĠÚĨÙĨØ¯": 3944,
      "Ġbersiva": 3945,
      "Ġhewce": 3946,
      "ĠpirtÃ»kÃªn": 3947,
      "70": 3948,
      "ĠrÃªw": 3949,
      "ĠdanÃ®n": 3950,
      "manÃªn": 3951,
      "Ġzilam": 3952,
      "Ġdigih": 3953,
      "ations": 3954,
      "pe": 3955,
      "Ø¯Ø§Ùħ": 3956,
      "dÃ®nÃª": 3957,
      "ĠÃ§areseriyÃª": 3958,
      "Ã®neyÃªn": 3959,
      "ĠMuh": 3960,
      "ÂŃ": 3961,
      "ĠbikÃ®": 3962,
      "Ġmit": 3963,
      "olkl": 3964,
      "ĠDAÃİÅŀ": 3965,
      "ĠreferandÃ»m": 3966,
      "olojÃ®k": 3967,
      "Ġtey": 3968,
      "Ã»yÃª": 3969,
      "Ø²Ùĩ": 3970,
      "Ġprat": 3971,
      "ĠmalbatÃªn": 3972,
      "Ġkesek": 3973,
      "Ġwekhev": 3974,
      "Ġsin": 3975,
      "ĠBedirxan": 3976,
      "ĠbÃ»bÃ»": 3977,
      "irÃ®n": 3978,
      "ĠbinÃª": 3979,
      "Ø¶ÛĮ": 3980,
      "Û¶": 3981,
      "ĠhikÃ»metÃª": 3982,
      "ĠEnc": 3983,
      "ahiyÃªn": 3984,
      "ĠrÃªxistina": 3985,
      "Ã®syona": 3986,
      "Ġfran": 3987,
      "ĠmirinÃª": 3988,
      "erb": 3989,
      "Ã»rÃªn": 3990,
      "ĠjÃ®yana": 3991,
      "Ġxwendina": 3992,
      "ĠØ§Ø¨": 3993,
      "Ġfermand": 3994,
      "Ø®ÙĪ": 3995,
      "ĠtevahÃ®": 3996,
      "Ġmizg": 3997,
      "ĠHemÃ»": 3998,
      "ĠTÃ®r": 3999,
      "ĠbÃªr": 4000,
      "196": 4001,
      "Ø³Ùĩ": 4002,
      "Ġtal": 4003,
      "Ø§Ø²Ùĩ": 4004,
      "ĠÃ§iy": 4005,
      "29": 4006,
      "ĠtekoÅŁ": 4007,
      "ĠnivÃ®sÃ®n": 4008,
      "ĠOsmanÃ®": 4009,
      "ĠZanÃ®ngeha": 4010,
      "ĠEnd": 4011,
      "ĠAt": 4012,
      "dil": 4013,
      "ĠReÅŁ": 4014,
      "lÃªn": 4015,
      "Ãł": 4016,
      "ĠdÃ®w": 4017,
      "Kom": 4018,
      "ĠborÃ®": 4019,
      "Ġnah": 4020,
      "ĠÛĮÚ©ÛĮ": 4021,
      "tu": 4022,
      "Ġxuy": 4023,
      "ĠØ¯Ø§Ø´ØªÙĩ": 4024,
      "ĠMÃ»s": 4025,
      "ĠgirtÃ®gehÃª": 4026,
      "ĠØ¨Ø§Ø±": 4027,
      "Ú©Ø±Ø¯": 4028,
      "ĠdabÃ»": 4029,
      "ĠÃ§ekÃªn": 4030,
      "Ã®yeke": 4031,
      "ederal": 4032,
      "ĠIs": 4033,
      "Ar": 4034,
      "uyÃª": 4035,
      "ĠpirsÃªn": 4036,
      "Ġef": 4037,
      "ĠØ³Ù¾": 4038,
      "Ġsel": 4039,
      "qÃ®": 4040,
      "zÃ®": 4041,
      "ĠMaf": 4042,
      "iques": 4043,
      "ĠÙ¾ÙĪ": 4044,
      "Ġvotre": 4045,
      "ĠhÃªr": 4046,
      "ĠxÃªr": 4047,
      "Ġperwerdeya": 4048,
      "Ġrexn": 4049,
      "ĠâĢĺâĢĻ": 4050,
      "ĠmirovÃ®": 4051,
      "Ġling": 4052,
      "ri": 4053,
      "ĠØ¹ÙĨÙĪØ§ÙĨ": 4054,
      "ĠÃĬdÃ®": 4055,
      "ĠrÃªber": 4056,
      "ĠÙĨÛĮØ³Øª": 4057,
      "ĠBa": 4058,
      "ĠbirÃª": 4059,
      "ĠWezareta": 4060,
      "Ã®Ã§": 4061,
      "Ġewqas": 4062,
      "ĠØ³Ø§Ø²ÙħØ§ÙĨ": 4063,
      "Ġbelg": 4064,
      "Ġabor": 4065,
      "Ġsax": 4066,
      "ours": 4067,
      "dÃ®t": 4068,
      "Ġagahdar": 4069,
      "ĠhilbijartinÃª": 4070,
      "andinÃªn": 4071,
      "ĠtÃªte": 4072,
      "Ġoperasyona": 4073,
      "Ġtelef": 4074,
      "Ġmehan": 4075,
      "Ġkevin": 4076,
      "rÃ©": 4077,
      "Ø¨ÙĦ": 4078,
      "ĠÃ§alakiya": 4079,
      "ĠdÃ©c": 4080,
      "ĠØ³Ø§ÛĮØª": 4081,
      "Ġek": 4082,
      "welat": 4083,
      "ĠÅŁevÃª": 4084,
      "Ġgef": 4085,
      "yek": 4086,
      "Ġxelas": 4087,
      "ĠÃ®t": 4088,
      "ĠGava": 4089,
      "mes": 4090,
      "Ġdigirin": 4091,
      "nan": 4092,
      "belÃª": 4093,
      "girÃªn": 4094,
      "iyana": 4095,
      "ilÃªman": 4096,
      "ĠÙ¾Ø§Ú©": 4097,
      "ĠbaÅŁÃ»r": 4098,
      "ande": 4099,
      "ĠbÃ»yerÃª": 4100,
      "ĠbiÃ§in": 4101,
      "Ġbidom": 4102,
      "Min": 4103,
      "ĠÙĩÙħÚĨ": 4104,
      "ĠBexdayÃª": 4105,
      "Ġheke": 4106,
      "ĠtemenÃª": 4107,
      "olog": 4108,
      "ĠNÃª": 4109,
      "ĠHesen": 4110,
      "Ġxwu": 4111,
      "Ã®tiyÃª": 4112,
      "\",": 4113,
      "âĢı": 4114,
      "ps": 4115,
      "all": 4116,
      "ĠÃ§avan": 4117,
      "ĠtiÅŁtan": 4118,
      "ĠdestpÃª": 4119,
      "Ġziv": 4120,
      "Ġmo": 4121,
      "Ġnew": 4122,
      "ĠRewÅŁ": 4123,
      "hel": 4124,
      "Ġcont": 4125,
      "Ġpost": 4126,
      "imkÃ®": 4127,
      "ĠhÃ®na": 4128,
      "ĠØ±Ø§ÛĮ": 4129,
      "ĠnavxweyÃ®": 4130,
      "ĠkÃªl": 4131,
      "ĠdanÃ®": 4132,
      "ĠKu": 4133,
      "ĠÃ§Ãªkir": 4134,
      "Ø³ØªÛĮ": 4135,
      "ĠqanÃ»n": 4136,
      "eket": 4137,
      "ÙĩØ±": 4138,
      "Ġdibist": 4139,
      "aziyÃª": 4140,
      "ĠÙĪÙĦØ³": 4141,
      "esta": 4142,
      "ĠÚĨÛĮ": 4143,
      "ĠBay": 4144,
      "Ġaliyan": 4145,
      "ĠØ³ÙĪ": 4146,
      "Ġperwerde": 4147,
      "ĠØ²ÛĮØ±": 4148,
      "ĠÙħØŃÙħØ¯": 4149,
      "plom": 4150,
      "ES": 4151,
      "ĠnavÃ®n": 4152,
      "ĠÙħØ«": 4153,
      "Ġders": 4154,
      "kerÃ®": 4155,
      "Ġkampan": 4156,
      "Ġqas": 4157,
      "ĠÙħØ§ÙĨ": 4158,
      "ĠpiÅŁta": 4159,
      "Ġdikevin": 4160,
      "ÙĬØª": 4161,
      "olojÃ®": 4162,
      "Ġbit": 4163,
      "Ø®ØªÙĦ": 4164,
      "ai": 4165,
      "ĠPro": 4166,
      "Ú¯ÛĮØ±": 4167,
      "ĠØ¬Ø§Ùħ": 4168,
      "Ġfam": 4169,
      "Ġperwerdeh": 4170,
      "Ġcot": 4171,
      "Ġpeyva": 4172,
      "azim": 4173,
      "ĠÙģØ±Ùĩ": 4174,
      "ĠXan": 4175,
      "90": 4176,
      "ĠÙĨØ¯": 4177,
      "ĠrÃªveberiya": 4178,
      "ĠweÅŁan": 4179,
      "Ġkoma": 4180,
      "ole": 4181,
      "ĠØ§Ø·ÙĦØ§": 4182,
      "ĠFar": 4183,
      "vanÃª": 4184,
      "ĠzorÃª": 4185,
      "ump": 4186,
      "oll": 4187,
      "yarÃªn": 4188,
      "asim": 4189,
      "ĠÅŁoreÅŁÃª": 4190,
      "ĠØ®ÙĦ": 4191,
      "ĠXuda": 4192,
      "ires": 4193,
      "Ġdixe": 4194,
      "ĠIl": 4195,
      "Ùĭ": 4196,
      "Ġpetr": 4197,
      "Ġtendur": 4198,
      "Ġgirtina": 4199,
      "ĠKons": 4200,
      "ĠÅŁÃªwaz": 4201,
      "aret": 4202,
      "ĠSa": 4203,
      "aba": 4204,
      "Ġderew": 4205,
      "ĠPÃ®r": 4206,
      "ĠmalperÃªn": 4207,
      "ĠÙħØ³Øª": 4208,
      "ĠXweda": 4209,
      "ĠsibÃª": 4210,
      "asyonÃª": 4211,
      "Ġdist": 4212,
      "Ġberhev": 4213,
      "Ø´Ø§ÙĨ": 4214,
      "ĠtÃªgih": 4215,
      "ĠbibÃªjin": 4216,
      "Ø´Ø±": 4217,
      "ĠhiqÃ»q": 4218,
      "Ġpere": 4219,
      "ĠØ§ÙĤ": 4220,
      "ĠheqÃª": 4221,
      "anÃ®z": 4222,
      "Ġaxaftin": 4223,
      "--": 4224,
      "ĠyÃ®": 4225,
      "ÛĮÙħØª": 4226,
      "Ġeleq": 4227,
      "Ø£": 4228,
      "Ġmane": 4229,
      "Ġbindest": 4230,
      "abÃ®": 4231,
      "ĠØªÙĩØ±Ø§ÙĨ": 4232,
      "Ã®lÃ®": 4233,
      "Ġgerd": 4234,
      "Ġveb": 4235,
      "Ġrakirin": 4236,
      "ĠWezÃ®rÃª": 4237,
      "Ġvej": 4238,
      "ĠÃ§Ãªkirina": 4239,
      "ĠrastÃª": 4240,
      "ĠcarÃ®": 4241,
      "ĠbimÃ®ne": 4242,
      "Ø´Ùħ": 4243,
      "ert": 4244,
      "Ġstat": 4245,
      "Ġketine": 4246,
      "ĠhinekÃ®": 4247,
      "Ġtaybetmend": 4248,
      "Ø§ÙĨØ¯ÛĲ": 4249,
      "Ġhav": 4250,
      "Ġhindek": 4251,
      "ĠEbd": 4252,
      "ĠØ¢Ø±": 4253,
      "ĠbiÃ§e": 4254,
      "ĠÃªv": 4255,
      "idÃ®": 4256,
      "Ġdemokrat": 4257,
      "ĠÚ©Ø±Ø¯ÙĨ": 4258,
      "Ġstand": 4259,
      "ĠÅŁÃ®": 4260,
      "ĠdemokrasiyÃª": 4261,
      "ĠCot": 4262,
      "ĠBaj": 4263,
      "xaneyÃª": 4264,
      "ett": 4265,
      "Ġparastin": 4266,
      "ÙĢÙĢ": 4267,
      "ĠNivÃ®s": 4268,
      "extÃª": 4269,
      "TO": 4270,
      "ĠlÃªpirs": 4271,
      "Ġbixin": 4272,
      "Ġ#": 4273,
      "Ġ+": 4274,
      "ĠkenÃª": 4275,
      "una": 4276,
      "ird": 4277,
      "ĠxweÅŁik": 4278,
      "ĠÙģØ¹Ø§ÙĦ": 4279,
      "Ġheger": 4280,
      "ell": 4281,
      "Ġhen": 4282,
      "ĠÅŁandin": 4283,
      "ĠÅŁewit": 4284,
      "ĠKan": 4285,
      "olojiya": 4286,
      "ĠdestÃ»ra": 4287,
      "ĠÙĦÙĪ": 4288,
      "ĠGr": 4289,
      "ĠÙħØ±Ø¯Ùħ": 4290,
      "ĠBo": 4291,
      "Ġderketina": 4292,
      "Ġcil": 4293,
      "Ġbon": 4294,
      "ĠØ¯ÙĪÙĦØª": 4295,
      "80": 4296,
      "kom": 4297,
      "Ġhevpar": 4298,
      "ĠmalbatÃª": 4299,
      "ĠNewro": 4300,
      "ĠnÃ®qaÅŁ": 4301,
      "Ġdigotin": 4302,
      "ĠbelkÃ®": 4303,
      "Ã»ya": 4304,
      "ewr": 4305,
      "ĠwextÃª": 4306,
      "Ġgora": 4307,
      "cht": 4308,
      "Ġfeq": 4309,
      "ĠnirxÃªn": 4310,
      "Ø²Ø§Ø±Ø´": 4311,
      "oglu": 4312,
      "ĠdaxuyaniyÃª": 4313,
      "ĠbawerÃ®": 4314,
      "ÃªjÃ®": 4315,
      "ĠGo": 4316,
      "ĠbÃ»yer": 4317,
      "ĠÙĩØº": 4318,
      "Ġgen": 4319,
      "Ġ%": 4320,
      "2013": 4321,
      "ĠØ®ÙĪØ§ÙĩØ¯": 4322,
      "ĠØªØ´": 4323,
      "iÃ¨re": 4324,
      "ĠÚ©Ø§Ùħ": 4325,
      "hatÃ®": 4326,
      "Ġberev": 4327,
      "onom": 4328,
      "Ú¼": 4329,
      "Ú©ÙĨØ¯": 4330,
      "Ã®mÃ®": 4331,
      "ĠSilÃªman": 4332,
      "ĠÙĪÚĵ": 4333,
      "ĠwelatiyÃªn": 4334,
      "Ġbenda": 4335,
      "ĀĀĀĀ": 4336,
      "Ġnexwe": 4337,
      "ĠdibÃªjim": 4338,
      "nda": 4339,
      "rast": 4340,
      "ÛĮÙħÛĮ": 4341,
      "ĠØ¨Ø³ÛĮØ§Ø±": 4342,
      "ekirinÃª": 4343,
      "Ġdemek": 4344,
      "day": 4345,
      "ĠUr": 4346,
      "rin": 4347,
      "manckÃ®": 4348,
      "iyane": 4349,
      "ĠSor": 4350,
      "Ã»y": 4351,
      "Ġmex": 4352,
      "Ġmisilman": 4353,
      "End": 4354,
      "ĠcÃ»da": 4355,
      "ong": 4356,
      "ĠØ¯Ø§Ø¯Ùĩ": 4357,
      "Dewl": 4358,
      "inÃ®": 4359,
      "ĠEwropa": 4360,
      "Ġsemb": 4361,
      "Ø§ÛĮÙĩ": 4362,
      "ĠÙĪØ±ÙĪ": 4363,
      "bl": 4364,
      "Ġand": 4365,
      "ĠsÃ®stem": 4366,
      "ĠdorpÃªÃ§": 4367,
      "Ġtax": 4368,
      "ĠdikarÃ®": 4369,
      "Ġlat": 4370,
      "ĠberjewendiyÃªn": 4371,
      "ĠTek": 4372,
      "ÙĨÚ¯ÛĮ": 4373,
      "ĠBak": 4374,
      "35": 4375,
      "Ġqut": 4376,
      "ĠÃ§ekdarÃªn": 4377,
      "Ġdizane": 4378,
      "ÙĩØ§ÛĮÛĮ": 4379,
      "ĠÚ©ÛĮÙģ": 4380,
      "ĠrayedarÃªn": 4381,
      "ĠhiÅŁt": 4382,
      "ĠÃ§alakiyÃª": 4383,
      "\".": 4384,
      "ĠÙĬÙĪ": 4385,
      "ĠpolÃ®san": 4386,
      "ĠÅŀengalÃª": 4387,
      "Ã®la": 4388,
      "adet": 4389,
      "ĠArtÃªÅŁa": 4390,
      "ĠbibÃªje": 4391,
      "ĠXal": 4392,
      "ĠÚ©Ø±": 4393,
      "Û¸": 4394,
      "ikir": 4395,
      "ĠparÃªzgeha": 4396,
      "Ġmux": 4397,
      "ĠØ¨Ø¹Ø¯": 4398,
      "ĠÃ®ng": 4399,
      "Ġakadem": 4400,
      "ĠÅŀah": 4401,
      "Ġco": 4402,
      "Al": 4403,
      "Ġxil": 4404,
      "Ġduh": 4405,
      "Ġherkes": 4406,
      "ĠtÃ®r": 4407,
      "ĠnayÃªn": 4408,
      "ĠÙĪØ§": 4409,
      "ĠÃİlonÃª": 4410,
      "Ġkontrola": 4411,
      "Ġdevera": 4412,
      ".[": 4413,
      "oger": 4414,
      "ĠhevalÃª": 4415,
      "ĠdÃ®tina": 4416,
      "ĠhÃªsanÃ®": 4417,
      "Ġces": 4418,
      "Ġca": 4419,
      "Ġnad": 4420,
      "ĠØ´ÙĨ": 4421,
      "ph": 4422,
      "ĠCizÃ®rÃª": 4423,
      "Ã»dÃ®": 4424,
      "Ġserdema": 4425,
      "ĠØªÙĪÙĦÛĮØ¯": 4426,
      "Ã©l": 4427,
      "ÙĪØµ": 4428,
      "ĠcarekÃª": 4429,
      "erÃªnÃ®": 4430,
      "no": 4431,
      "ĠpÃªdiv": 4432,
      "ĠCar": 4433,
      "ĠmercÃªn": 4434,
      "ank": 4435,
      "ĠÙĨØ¨": 4436,
      "ĠØ§ÙĤØª": 4437,
      "ÙĪØ§Ø±": 4438,
      "erdev": 4439,
      "ĠxwezayÃ®": 4440,
      "ĠRec": 4441,
      "Ø´Ø¯": 4442,
      "LK": 4443,
      "bÃ®n": 4444,
      "ĠezÃª": 4445,
      "Ġgelemp": 4446,
      "Ġcan": 4447,
      "Ã®yÃ®": 4448,
      "ĠÅŁehÃ®dÃªn": 4449,
      "Ġkompl": 4450,
      "ĠBilind": 4451,
      "ĠÃ§Ãªn": 4452,
      "kef": 4453,
      "ĠØ¯ÙĪØ±": 4454,
      "Ø±Ø³ÛĮ": 4455,
      "parÃªze": 4456,
      "ĠnivÃ®skarÃªn": 4457,
      "ÅŁemÃª": 4458,
      "ĠdibÃ»n": 4459,
      "ĠdestÃ»r": 4460,
      "Ø«Ø±": 4461,
      "Ø±ÙĪÙĩ": 4462,
      "ĠØ®ÛĮ": 4463,
      "ĠdÃ®k": 4464,
      "ĠØ®Ø¨": 4465,
      "urr": 4466,
      "Ġaloz": 4467,
      "Ã®za": 4468,
      "31": 4469,
      "Ġdok": 4470,
      "Ġpes": 4471,
      "ĠÃ§apemeniyÃª": 4472,
      "ĠSemalt": 4473,
      "Ù¾Ùĩ": 4474,
      "qasÃ®": 4475,
      "iÅŁÃ®": 4476,
      "ĠbihÃªz": 4477,
      "Ġmirina": 4478,
      "tÃ®f": 4479,
      "qÃª": 4480,
      "ĠÙħØªÙĨ": 4481,
      "Ú©Ø²": 4482,
      "ĠØªÙĪØ¬Ùĩ": 4483,
      "can": 4484,
      "ĠBin": 4485,
      "ule": 4486,
      "ros": 4487,
      "ÅŁÃª": 4488,
      "Ġerm": 4489,
      "RÃª": 4490,
      "ĠØ²ÙĨ": 4491,
      "ĠNiÅŁt": 4492,
      "ĠTirkan": 4493,
      "enÃªn": 4494,
      "ĠmilÃª": 4495,
      "ĠmijarÃªn": 4496,
      "Ġprogr": 4497,
      "Ġrojnameger": 4498,
      "Ġbicih": 4499,
      "ĠgelemperÃ®": 4500,
      "ĠÙ¾ÙĬ": 4501,
      "ede": 4502,
      "ĠCem": 4503,
      "BasNews": 4504,
      "Ø®ØªÙĩ": 4505,
      "ĠSi": 4506,
      "ĠÃ®dÃ®": 4507,
      "ĠÅŁÃªn": 4508,
      "ass": 4509,
      "ĠaÅŁtÃ®": 4510,
      "Ġdaxuy": 4511,
      "Ġduyem": 4512,
      "ĠÙĪØ²": 4513,
      "gal": 4514,
      "ĠDÃªr": 4515,
      "Ġhedef": 4516,
      "Ø®Ø§Ø¨": 4517,
      "ĠAmed": 4518,
      "ĠÃĩar": 4519,
      "ĠAlmanya": 4520,
      "Ġdigerin": 4521,
      "ĠÙĩÙħØ±Ø§Ùĩ": 4522,
      "Ø¯ÛĲ": 4523,
      "grin": 4524,
      "ĠdibÃª": 4525,
      "ĠnavÃ§eyÃªn": 4526,
      "Ġhilbijartina": 4527,
      "Ġxeta": 4528,
      "ĠdawÃ®n": 4529,
      "ĠMij": 4530,
      "ĠwezÃ®f": 4531,
      "ĠÙĨØ§": 4532,
      "ĠFransayÃª": 4533,
      "Ġi": 4534,
      "ĠÃ®lan": 4535,
      "ĠÅŁerÃ®": 4536,
      "ĠÃ§areseriya": 4537,
      "ĠÙħÛĮÙĦÛĮ": 4538,
      "ternetÃª": 4539,
      "Ø·Ùĩ": 4540,
      "ĠÚ©ÙĦÛĮ": 4541,
      "ĠParast": 4542,
      "Ġkarmend": 4543,
      "ĠxwepÃªÅŁ": 4544,
      "Ġewil": 4545,
      "ĠTV": 4546,
      "ĠØ¸": 4547,
      "ame": 4548,
      "ĠtÃªkiliya": 4549,
      "Ġmeb": 4550,
      "cr": 4551,
      "Ġqal": 4552,
      "ĠÃİsra": 4553,
      "ĠnivÃ®skÃ®": 4554,
      "Ġbajarok": 4555,
      "Ġdikar": 4556,
      "ĠolÃ®": 4557,
      "ecÃ®": 4558,
      "Ú¯ÙĪ": 4559,
      "Ġnavb": 4560,
      "Ġhukum": 4561,
      "oyÃªn": 4562,
      "ero": 4563,
      "ĠÙ¾Ø±Ø¯": 4564,
      "ĠÃªrÃ®ÅŁÃª": 4565,
      "ĠarmancÃªn": 4566,
      "ĠnÃ®": 4567,
      "ĠrojhilatÃª": 4568,
      "abl": 4569,
      "ĠDiyarbekirÃª": 4570,
      "ĠterorÃª": 4571,
      "ĠxwÃ®na": 4572,
      "hema": 4573,
      "edÃª": 4574,
      "ĠnÃ»nerÃªn": 4575,
      "ĠCÃ®hanÃª": 4576,
      "ĠØ¯Ø®": 4577,
      "sel": 4578,
      "Ġrenc": 4579,
      "Ġmu": 4580,
      "tr": 4581,
      "Ġguhdar": 4582,
      "Ġnaxwazin": 4583,
      "ĠxemgÃ®n": 4584,
      "ĠpiÅŁ": 4585,
      "Ġdinya": 4586,
      "ĠÙĦØ±ÙĬ": 4587,
      "ĠMus": 4588,
      "ĠKCK": 4589,
      "ĠcihÃªn": 4590,
      "Ã®tiya": 4591,
      "ĠpÃªÅŁketina": 4592,
      "Ġqezenc": 4593,
      "Ġdiv": 4594,
      "ĠkirÃ®": 4595,
      "ĠawayÃª": 4596,
      "ĠpiranÃ®": 4597,
      "UR": 4598,
      "Ġserket": 4599,
      "perwer": 4600,
      "ĠsedemÃªn": 4601,
      "ÙĨØª": 4602,
      "Ú¯ÛĮØ±ÛĮ": 4603,
      "Ġnasnameya": 4604,
      "Ġbert": 4605,
      "Ø±Ø§ØŃÛĮ": 4606,
      "ĠHat": 4607,
      "oÄŁ": 4608,
      "ĠÃİr": 4609,
      "ĠÙĪØ§ÙĤ": 4610,
      "ĠÚ¯Ø²Ø§Ø±Ø´": 4611,
      "ĠkurdistanÃª": 4612,
      "ĠØ¹Ø¨": 4613,
      "ĠÙĦÛĮ": 4614,
      "ĠRojhilatÃª": 4615,
      "ĠKurda": 4616,
      "ks": 4617,
      "ĠØ¨ÙĨØ¯": 4618,
      "ww": 4619,
      "vegera": 4620,
      "emÃªr": 4621,
      "Ã®ze": 4622,
      "ĠserkeftÃ®": 4623,
      "ĠØ´ÙħØ§Ø±Ùĩ": 4624,
      "ĠÚ¯ÙĦ": 4625,
      "Ġtuneye": 4626,
      "ĠØ§Ùĩ": 4627,
      "ĠØ®Ø·": 4628,
      "ici": 4629,
      "ĠdÃ®m": 4630,
      "ĠAlÃ®": 4631,
      "ĠØ¯ÙĪÙħ": 4632,
      "Ġnebin": 4633,
      "ĠhingÃª": 4634,
      "ØµÙĦ": 4635,
      "ĠØ´ÛĮ": 4636,
      "Û²Û°": 4637,
      "Ma": 4638,
      "Ã»h": 4639,
      "ĠSiya": 4640,
      "ĠhelbestÃªn": 4641,
      "ĠHacÃ®": 4642,
      "Yek": 4643,
      "ĠÙĨÙħØ§ÛĮ": 4644,
      "ifaq": 4645,
      "Ġwend": 4646,
      "Ġpil": 4647,
      "Ø§ÙĦÙĩ": 4648,
      "ĠpartiyÃª": 4649,
      "LKHA": 4650,
      "estÃ®": 4651,
      "ĠhetÃª": 4652,
      "Ġbikevin": 4653,
      "ĠØ¯Ø§ÙĨØ´Ú¯Ø§Ùĩ": 4654,
      "Ø§Ø¦": 4655,
      "ĠØŃÙħ": 4656,
      "bat": 4657,
      "Ã»sÃª": 4658,
      "ĠÅŀamÃª": 4659,
      "ĠØ¨ÙĬ": 4660,
      "ĠBila": 4661,
      ".)": 4662,
      "ĠØ²ÙħÛĮÙĨ": 4663,
      "Ø¹ÛĮØª": 4664,
      "ĠØ§ÙĨØªØ®Ø§Ø¨": 4665,
      ".Â»": 4666,
      "ĠbirÃªz": 4667,
      "ĠNavnet": 4668,
      "ĠMezin": 4669,
      "ĠØ¯ÙĨ": 4670,
      "Ùĳ": 4671,
      "ĠrewÅŁeke": 4672,
      "ekir": 4673,
      "arÃ®ya": 4674,
      "ĠwÃªran": 4675,
      "ĠderÃ®": 4676,
      "iyetÃª": 4677,
      "Ġqehr": 4678,
      "xÃª": 4679,
      "Ø§Ø³ÛĲ": 4680,
      "ĠmalÃªn": 4681,
      "Ġcomp": 4682,
      "ĠbinÃ§av": 4683,
      "Ãªme": 4684,
      "ĠYil": 4685,
      "ĠRes": 4686,
      "ĠAb": 4687,
      "ĠSÃ»rÃ®yÃª": 4688,
      "ĠØ§ÙĤØªØµ": 4689,
      "jim": 4690,
      "Ġneg": 4691,
      "Ġhevdu": 4692,
      "kurd": 4693,
      "Ġpros": 4694,
      "ĠØ®Ø§ÙĨ": 4695,
      "ĠÃİsa": 4696,
      "ĠMÃªrdÃ®nÃª": 4697,
      "ĠsÃªy": 4698,
      "Ġwesay": 4699,
      "ĠEmerÃ®ka": 4700,
      "ĠgirÃª": 4701,
      "Ã§Ã®r": 4702,
      "Ġyas": 4703,
      "ĠÙħØ®ØªÙĦ": 4704,
      "Ġbien": 4705,
      "ĠZer": 4706,
      "ĠEfrÃ®n": 4707,
      "ĠalÃ®karÃ®ya": 4708,
      "ĠÙĪÙĪ": 4709,
      "stan": 4710,
      "Ġtesl": 4711,
      "ĠwelatekÃ®": 4712,
      "ian": 4713,
      "ĠØ§Ø±Øª": 4714,
      "ivan": 4715,
      "ĠAhmet": 4716,
      "Ġmodern": 4717,
      "ĠHikÃ»meta": 4718,
      "ĠbiyanÃ®": 4719,
      "ĠÙĪØ±Úģ": 4720,
      "ĠØµÙĨ": 4721,
      "Ġroman": 4722,
      "ĠzimÃªn": 4723,
      "Ø¨Ø§Ø±Ùĩ": 4724,
      "âĢĵ": 4725,
      "ĠKir": 4726,
      "ĠnivÃ®sÃªn": 4727,
      "Ġhevpeyv": 4728,
      "Ġbixe": 4729,
      "irn": 4730,
      "Ø®Ø±": 4731,
      "wist": 4732,
      "ĠMistefa": 4733,
      "ozÃª": 4734,
      "ĠkÃªÅŁ": 4735,
      "ĠpolÃ®tÃ®kayÃªn": 4736,
      "Ġdils": 4737,
      "ĠÃĸ": 4738,
      "ner": 4739,
      "ht": 4740,
      "Ġdaxuyaniya": 4741,
      "Ġalfab": 4742,
      "Ġnirxandin": 4743,
      "ĠDe": 4744,
      "Ġwar": 4745,
      "Ú¯Ø°": 4746,
      "ĠØ¨ÙĪØ¯Ùĩ": 4747,
      "Ġneheq": 4748,
      "Ø´Ùĩ": 4749,
      "Ø§Ø²Ùħ": 4750,
      "eza": 4751,
      "Ø§Ø¨Ø±": 4752,
      "wezÃ®r": 4753,
      "tan": 4754,
      "ÙĦÙħØ§ÙĨ": 4755,
      "ĠdengbÃªj": 4756,
      "Ġmore": 4757,
      "Ġdat": 4758,
      "ĠÃ®sal": 4759,
      "ØªÙħØ§": 4760,
      "ÅŁtÃ®": 4761,
      "ÙĪØ±ÙĬ": 4762,
      "ĠEb": 4763,
      "ÅŁtÃª": 4764,
      "ĠÙĨØ±Ùħ": 4765,
      "Ġfait": 4766,
      "ĠDib": 4767,
      "ĠÙĤÛĮÙħØª": 4768,
      "Ã®ner": 4769,
      "ĠnerazÃ®": 4770,
      "ĠÅŀerÃª": 4771,
      "ĠÅŁeÅŁ": 4772,
      "adeya": 4773,
      "Ġnizanim": 4774,
      "ĠCol": 4775,
      "edÃ®n": 4776,
      "ĠNeteweyÃªn": 4777,
      "ĠtÃ»": 4778,
      "ĠrojekÃª": 4779,
      "ĠderiyÃª": 4780,
      "ĠØ¨Ø²Ø±Ú¯": 4781,
      "Ġsef": 4782,
      "Ġsar": 4783,
      "Ġkeno": 4784,
      "ĠpÃ®ÅŁes": 4785,
      "Ġvexw": 4786,
      "ĠNavÃª": 4787,
      "Ġfaris": 4788,
      "Ġcette": 4789,
      "ĠxwedÃª": 4790,
      "ÙĦÛĮÙĦ": 4791,
      "Ã®c": 4792,
      "Ġzext": 4793,
      "Ġbixwazin": 4794,
      "avÃ®": 4795,
      "Ø¬Ø§": 4796,
      "ĠtirÅŁ": 4797,
      "Ġsiyasetmed": 4798,
      "Ġkete": 4799,
      "ĠmirovahiyÃª": 4800,
      "Ã®b": 4801,
      "Ġxur": 4802,
      "ants": 4803,
      "Ġpla": 4804,
      "ĠpirtÃ»kÃª": 4805,
      "Ġxizmet": 4806,
      "yayÃ®": 4807,
      "ĠzimanekÃ®": 4808,
      "Ġparv": 4809,
      "Ø³ÙĬ": 4810,
      "aze": 4811,
      "ĠÃİraq": 4812,
      "ĠgerÃ®la": 4813,
      "itiya": 4814,
      "okÃ®": 4815,
      "ĠÙĩÙĨ": 4816,
      "Ãİro": 4817,
      "ÃªnÃª": 4818,
      "ĠbihÃ®st": 4819,
      "isÃª": 4820,
      "ĠzÃ®n": 4821,
      "ĠhewldanÃªn": 4822,
      "Ġpak": 4823,
      "bÃ»y": 4824,
      "Ġrasteq": 4825,
      "ĠnameyÃª": 4826,
      "ĠsÃ®norÃªn": 4827,
      "ĠØ¯ÛĮØ¯": 4828,
      "ĠÅŁeh": 4829,
      "ĠÅŁÃ®n": 4830,
      "Ġqes": 4831,
      "09": 4832,
      "ĠØ´ÙĪÙĬ": 4833,
      "Ġwana": 4834,
      "2012": 4835,
      "ĠbÃªk": 4836,
      "Ã®x": 4837,
      "ĠØ§ÛĮÙĨÚ©Ùĩ": 4838,
      "ĠÃ®de": 4839,
      "mancÃ®": 4840,
      "ĠÛĮØ§Ø¯": 4841,
      "ĠØ¨Ø§Ø²Ø§Ø±": 4842,
      "je": 4843,
      "Ġgeng": 4844,
      "Ġberxwedan": 4845,
      "ĠÙĤØ·": 4846,
      "ĠCHP": 4847,
      "ĠEwrÃ»p": 4848,
      "ĠØ¨Ø±Ú¯": 4849,
      "ĠTÃªk": 4850,
      "Ġperson": 4851,
      "ÙĪÛĮÛĮ": 4852,
      "ĠØªØ§Ø±ÛĮ": 4853,
      "ĠTiÅŁt": 4854,
      "ĠØªÙĤ": 4855,
      "ĠÙħÙĩÙħ": 4856,
      "ĠAngo": 4857,
      "ĠKor": 4858,
      "ĠrazÃ®": 4859,
      "Ġbajaran": 4860,
      "ĠÃ§avdÃªr": 4861,
      "ĠxwarinÃª": 4862,
      "ĠmalperÃª": 4863,
      "ĠØ²ÙĨØ¯Ú¯ÛĮ": 4864,
      "Ø§ÙĪØ±": 4865,
      "Ġbiq": 4866,
      "ĠhundirÃª": 4867,
      "wa": 4868,
      "Ġzik": 4869,
      "Ġsip": 4870,
      "ĠqebÃ»lkirin": 4871,
      "ĠkarÃ»b": 4872,
      "ĠnasÃ®n": 4873,
      "Ġay": 4874,
      "Ġsir": 4875,
      "ĠÙħÙĪØ¶ÙĪ": 4876,
      "Ġhal": 4877,
      "Ġfolkl": 4878,
      "ĠnÃ®ÅŁandan": 4879,
      "ĠerÃªnÃ®": 4880,
      "Ġrageh": 4881,
      "ete": 4882,
      "Ø±ÙģØªÙĩ": 4883,
      "ase": 4884,
      "ĠbirayÃªn": 4885,
      "serokÃª": 4886,
      "ĠÚ©ÙĪØ¯": 4887,
      "ĠØ´ÙĪØ±": 4888,
      "ĠmecbÃ»r": 4889,
      "Ġwusa": 4890,
      "ĠØ¹ÙħÙĦ": 4891,
      "Ġdeq": 4892,
      "ahm": 4893,
      "Ġziwan": 4894,
      "asiya": 4895,
      "ĠTrump": 4896,
      "ÙĪÙĦÙĩ": 4897,
      "Ã§a": 4898,
      "Ġherin": 4899,
      "Ø§Ø¨ÛĮ": 4900,
      "afa": 4901,
      "Ú©ØªØ±": 4902,
      "ØºÛĮ": 4903,
      "ĠØ³Ø¨": 4904,
      "ĠbingehÃª": 4905,
      "ĠgirtiyÃªn": 4906,
      "Ġhikum": 4907,
      "ĠPDKÃª": 4908,
      "nt": 4909,
      "ĠSÃª": 4910,
      "ĠtÃªkoÅŁÃ®nÃª": 4911,
      "ogle": 4912,
      "ĠÙħØ§Ø´": 4913,
      "ĠPr": 4914,
      "ĠHPG": 4915,
      "ĠdezgehÃªn": 4916,
      "ĠÃ®nkar": 4917,
      "ock": 4918,
      "ĠwÃªneyÃªn": 4919,
      "ĠaxÃª": 4920,
      "ĠvekiÅŁ": 4921,
      "Ġdelal": 4922,
      "xanÃª": 4923,
      "Ġdub": 4924,
      "ĠrÃ»p": 4925,
      "rar": 4926,
      "pir": 4927,
      "omb": 4928,
      "Ġedebiy": 4929,
      "ĠMehmet": 4930,
      "ĠÃİbrahÃ®m": 4931,
      "ĠcihekÃ®": 4932,
      "Ġneq": 4933,
      "ĠÙĪÙĩ": 4934,
      "Ø±ÙĪØ²": 4935,
      "ĠØ±ÛĮ": 4936,
      "Ġveqet": 4937,
      "Ġbak": 4938,
      "Ġbej": 4939,
      "ĠDil": 4940,
      "ĠÅŁehÃ®dan": 4941,
      "ĠUn": 4942,
      "ĠbersÃ®": 4943,
      "Ġpejirandin": 4944,
      "ĠØªÙĪØ³Ø·": 4945,
      "ct": 4946,
      "ĠTem": 4947,
      "aut": 4948,
      "Ġhilbijartinan": 4949,
      "edÃ®": 4950,
      "ĠRojhilat": 4951,
      "ĠReq": 4952,
      "one": 4953,
      "ullah": 4954,
      "navdÃªr": 4955,
      "abÃ»na": 4956,
      "reterÃª": 4957,
      "Ġderfet": 4958,
      "sal": 4959,
      "Ġrew": 4960,
      "iriya": 4961,
      "ĠElman": 4962,
      "ĠrojevÃª": 4963,
      "ĠwateyÃª": 4964,
      "ĠÙ¾ÙĦ": 4965,
      "Ġbanga": 4966,
      "Ġdihate": 4967,
      "alis": 4968,
      "ĠÙģØ§Ø±Ø³ÛĮ": 4969,
      "ĠbÃªte": 4970,
      "ĠÅŀared": 4971,
      "Ã®ta": 4972,
      "Ġderdikevin": 4973,
      "Ġserm": 4974,
      "ĠXanÃ®": 4975,
      "sta": 4976,
      "ĠØ§ÙģØ±": 4977,
      "ĠØ³ÙĬ": 4978,
      "io": 4979,
      "aks": 4980,
      "ĠNavenda": 4981,
      "ĠeynÃ®": 4982,
      "hÃª": 4983,
      "195": 4984,
      "Ã®mÃªn": 4985,
      "ereyÃª": 4986,
      "ÙĪÙĦÛĮ": 4987,
      "Ġdamezir": 4988,
      "dik": 4989,
      "Ãªza": 4990,
      "Ġcomme": 4991,
      "ĠnÃªk": 4992,
      "ĠÃ§areserkirina": 4993,
      "Ġsalvegera": 4994,
      "Ġferz": 4995,
      "ĠbiparÃªzin": 4996,
      "Ġkad": 4997,
      "Ġwil": 4998,
      "ĠØ§ÙĨØ³Ø§ÙĨ": 4999,
      "ĠÃ§axÃª": 5000,
      "Ġciwanan": 5001,
      "ĠÅŀing": 5002,
      "Ø§Ø±ÙĬ": 5003,
      "ØµØ¯": 5004,
      "ĠØºÛĮØ±": 5005,
      "ĠTay": 5006,
      "ĠTenÃª": 5007,
      "atan": 5008,
      "its": 5009,
      "Ø¬Ø§Ø¯": 5010,
      "Ġmesel": 5011,
      "ĠkÃ®l": 5012,
      "Ġmezintir": 5013,
      "ĠneyÃªn": 5014,
      "2011": 5015,
      "ents": 5016,
      "Ġparve": 5017,
      "Ġbeno": 5018,
      "ĠDemÃ®rtaÅŁ": 5019,
      "ĠpÃªÅŁkÃªÅŁÃ®": 5020,
      "Ġbombeb": 5021,
      "Ġfireh": 5022,
      "azÃªn": 5023,
      "ĠrÃªveber": 5024,
      "ÙħÙĪÙĨ": 5025,
      "ĠØ§Ø³ØªØ§ÙĨ": 5026,
      "ĠRem": 5027,
      "Ġfaire": 5028,
      "Ã®re": 5029,
      "Ġneteweya": 5030,
      "Ġkons": 5031,
      "Ġhindik": 5032,
      "ĠÚħÙĪ": 5033,
      "ĠÃ®h": 5034,
      "Ġgirtiye": 5035,
      "ĠØµØ¯": 5036,
      "ebo": 5037,
      "Tu": 5038,
      "ĠÃ§ete": 5039,
      "Ġbigre": 5040,
      "Ġkin": 5041,
      "Ġqenc": 5042,
      "Tirk": 5043,
      "Ã®te": 5044,
      "Ã®zm": 5045,
      "iran": 5046,
      "ĠÙĨÛĮØ§Ø²": 5047,
      "ĠØ®Ø§Ø±": 5048,
      "ĠÃ§andin": 5049,
      "Ġnorm": 5050,
      "ĠÚ©ÛĮÙģÛĮØª": 5051,
      "Ġkurda": 5052,
      "ĠparÃ§eyÃªn": 5053,
      "ĠØ¨ÛĮØ´ØªØ±": 5054,
      "ĠhemÃ»yan": 5055,
      "ĠÃ§Ã®roka": 5056,
      "eÅŁop": 5057,
      "NA": 5058,
      "Ø§Ø³ÙĬ": 5059,
      "Ġalb": 5060,
      "deh": 5061,
      "ĠØ³Ø±ÛĮØ§ÙĦ": 5062,
      "ĠØ¨Ø§ÙĨ": 5063,
      "ĠÙħØ±Ø§": 5064,
      "ĠMesÃ»d": 5065,
      "ĠgotibÃ»": 5066,
      "ĠÅŁÃ®rov": 5067,
      "ĠÚ¯Ø±ÙĪÙĩ": 5068,
      "37": 5069,
      "ĠÃ§avk": 5070,
      "iyanÃª": 5071,
      "Er": 5072,
      "Ø¯ÙĪ": 5073,
      "EM": 5074,
      "ihev": 5075,
      "Ser": 5076,
      "ĠdaneyÃªn": 5077,
      "adperest": 5078,
      "arte": 5079,
      "Ġveguher": 5080,
      "ĠnÃ»jen": 5081,
      "ition": 5082,
      "avan": 5083,
      "ĠdadgehÃª": 5084,
      "Ø®ÙĪØ§": 5085,
      "ĠxwendinÃª": 5086,
      "ĠnÃªv": 5087,
      "ĠØ¯Ø§Ø±ÙĨØ¯": 5088,
      "ĠÛĮÙĪÙĩ": 5089,
      "Ġnan": 5090,
      "Ġpez": 5091,
      "hm": 5092,
      "Ġtendurist": 5093,
      "ÃİLKHA": 5094,
      "ĠdeverÃª": 5095,
      "Ġdos": 5096,
      "ĠÙ¾Ø²Ø´": 5097,
      "wendÃ®": 5098,
      "Read": 5099,
      "ÙĪÙħÛĮ": 5100,
      "ĠKonseya": 5101,
      "ĠÚħÙĩ": 5102,
      "ĠGund": 5103,
      "ĠLoma": 5104,
      "ĠbaweriyÃª": 5105,
      "ĠaÅŁkere": 5106,
      "Ġaqil": 5107,
      "ayek": 5108,
      "ĠberbiÃ§av": 5109,
      "ĠHelebÃª": 5110,
      "ĠDibe": 5111,
      "ĠØ§Ø¯Ø§ÙħÙĩ": 5112,
      "Ġamadekirin": 5113,
      "ĠbÃ®n": 5114,
      "ĠkarekÃ®": 5115,
      "ĠbimeÅŁ": 5116,
      "ayetÃ®": 5117,
      "ĠqÃ®m": 5118,
      "Ã©g": 5119,
      "ĠØ§ÙĬ": 5120,
      "ĠÙħÙĦÛĮ": 5121,
      "ĠSuriyÃª": 5122,
      "En": 5123,
      "ĠFransa": 5124,
      "ĠÃ§Ãªbikin": 5125,
      "ĠØ·Ø±ØŃ": 5126,
      "ĠHz": 5127,
      "ĠpiÅŁtgirÃ®": 5128,
      "ĠzindÃ®": 5129,
      "Ø´ÛĮ": 5130,
      "xt": 5131,
      "ĠÃ®ÅŁk": 5132,
      "ĠØŃÚ©ÙĪÙħØª": 5133,
      "Ġpispor": 5134,
      "Ø±Ø§Ø¦": 5135,
      "ĠØ§ÙĨÚ¯": 5136,
      "Ġmay": 5137,
      "ĠMehm": 5138,
      "ĠbirÃ®n": 5139,
      "Ger": 5140,
      "ĠJixwe": 5141,
      "ĠtÃªkilÃ®": 5142,
      "estÃ®v": 5143,
      "ĠØ±ÙģØª": 5144,
      "Ú¯Ø±ÛĮ": 5145,
      "Ġqonaxa": 5146,
      "Ġtro": 5147,
      "ØŃÙĩ": 5148,
      "tÃ®v": 5149,
      "Ġesas": 5150,
      "ĠÃ§il": 5151,
      "ĠneÃ§ar": 5152,
      "ĠÚģØ§ÙĨ": 5153,
      "Ġdariz": 5154,
      "canÃª": 5155,
      "dlibÃª": 5156,
      "Ġheme": 5157,
      "karan": 5158,
      "ĠHerwiha": 5159,
      "ĠrÃªbazÃªn": 5160,
      "ĠartÃªÅŁ": 5161,
      "xane": 5162,
      "ĠErebÃ®": 5163,
      "ĠÙħØ´Ú©ÙĦ": 5164,
      "Ø¯ÙĪØ¯": 5165,
      "stÃ®t": 5166,
      "Ġcew": 5167,
      "ĠcanÃª": 5168,
      "Ġnizanin": 5169,
      "Ġtra": 5170,
      "ga": 5171,
      "Ġod": 5172,
      "97": 5173,
      "ĠnivÃ®sa": 5174,
      "ĠfaÅŁÃ®st": 5175,
      "Ġpeywend": 5176,
      "ĠbimÃ®nin": 5177,
      "ĠDay": 5178,
      "ress": 5179,
      "Ġcons": 5180,
      "nes": 5181,
      "Ġsaya": 5182,
      "ĠramanÃªn": 5183,
      "etiya": 5184,
      "ĠZan": 5185,
      "ĠÙĤØ§ÙĨ": 5186,
      "ĠØ¨ÛĲ": 5187,
      "ĠParlament": 5188,
      "ĠnavnÃ®ÅŁ": 5189,
      "Ġbigrin": 5190,
      "Ġprojeya": 5191,
      "abÃ»n": 5192,
      "ĠderfetÃªn": 5193,
      "ØªØ±ÛĮ": 5194,
      "ĠbirÃ§Ã®bÃ»nÃª": 5195,
      "ĠEbdul": 5196,
      "ĠÃĩi": 5197,
      "maniya": 5198,
      "ĠØ§Ø³ÙĦØ§ÙħÛĮ": 5199,
      "ĠÙĨØµ": 5200,
      "atÃ®f": 5201,
      "nÃªn": 5202,
      "ĠnivÃ®skarÃª": 5203,
      "ĠÃ§in": 5204,
      "ĠdimÃ®nin": 5205,
      "ĠÚ¯Ø±ÙģØª": 5206,
      "Ġxilas": 5207,
      "Ġdidan": 5208,
      "ĠPiÅŁtre": 5209,
      "Ġhe": 5210,
      "Ġbalaf": 5211,
      "ĠSibatÃª": 5212,
      "ĠdÃ»rÃ®": 5213,
      "Ġderdix": 5214,
      "Pir": 5215,
      "Ġbah": 5216,
      "Ø¨Ø±Ø¯": 5217,
      "ĠQamiÅŁlo": 5218,
      "ĠDadgeha": 5219,
      "ibandin": 5220,
      "gerÃª": 5221,
      "ĠBot": 5222,
      "ĠHinek": 5223,
      "ĠecÃªb": 5224,
      "cer": 5225,
      "str": 5226,
      "Ġrapora": 5227,
      "ĠcezayÃª": 5228,
      "Ġbida": 5229,
      "ĠdikiÅŁ": 5230,
      "500": 5231,
      "ĠØ³ÛĮÙĨ": 5232,
      "Ġsew": 5233,
      "ĠNÃ»": 5234,
      "ĠHeger": 5235,
      "ĠZimanÃª": 5236,
      "Ġhevkariya": 5237,
      "ĠnavdewletÃ®": 5238,
      "Ã§Ãª": 5239,
      "ĠØªÚ©": 5240,
      "oci": 5241,
      "fin": 5242,
      "ĠØµÙģ": 5243,
      "Ø´Ø§Ø±": 5244,
      "ĠØ¯Ø±ÙħØ§ÙĨ": 5245,
      "ĠpsÃ®k": 5246,
      "ĠTal": 5247,
      "Le": 5248,
      "ĠØ¬ÙĪÚĵ": 5249,
      "ĠsiyasetÃª": 5250,
      "ĠhiÅŁk": 5251,
      "Ã§Ã®rvan": 5252,
      "ĠstranÃªn": 5253,
      "ĠsÃ»r": 5254,
      "ĠÙ¾Ø§Ø±": 5255,
      "Ġfirotin": 5256,
      "Ġvana": 5257,
      "uel": 5258,
      "ĠpÃªx": 5259,
      "Ġkomel": 5260,
      "Ġterm": 5261,
      "Ġderketiye": 5262,
      "ĠDesteya": 5263,
      "xwÃ®n": 5264,
      "ĠEsed": 5265,
      "Ġzag": 5266,
      "ĠÚĨÙĩØ§Ø±": 5267,
      "attoo": 5268,
      "ĠrabÃ»": 5269,
      "Ġsiw": 5270,
      "geriya": 5271,
      "Ġdiya": 5272,
      "ĠgavÃªn": 5273,
      "Ġnekirin": 5274,
      "Ġmot": 5275,
      "bÃ®y": 5276,
      "ĠbÃ®y": 5277,
      "Ġderbaz": 5278,
      "ĠkÃ®m": 5279,
      "Ġkarker": 5280,
      "ĠtÃªde": 5281,
      "Ġhej": 5282,
      "evanan": 5283,
      "ĠveÅŁartÃ®": 5284,
      "ĠxwendekarÃªn": 5285,
      "ØµÙĪÙĦ": 5286,
      "ĠgirÃªdan": 5287,
      "ĠØ§ÙħØ§Ùħ": 5288,
      "Ġ;": 5289,
      "ĠAlmanyayÃª": 5290,
      "ĠnÃ®ÅŁanÃ®": 5291,
      "kera": 5292,
      "ĠhestÃªn": 5293,
      "ĠÃ§em": 5294,
      "ĠdÃ®plom": 5295,
      "Ġnema": 5296,
      "Ġxap": 5297,
      "Ġklas": 5298,
      "Ġhef": 5299,
      "ĠGoogle": 5300,
      "Ġxat": 5301,
      "Ġkars": 5302,
      "ĠmiÅŁt": 5303,
      "ĠqirÃªj": 5304,
      "Ø¡": 5305,
      "keft": 5306,
      "ĠJe": 5307,
      "ĠbixwÃ®ne": 5308,
      "ĠdengÃªn": 5309,
      "ĠÙ¾Ø§Ú©Ø³ØªØ§ÙĨ": 5310,
      "ĠasÃ®m": 5311,
      "Ġtran": 5312,
      "ĠxwÃ®nÃª": 5313,
      "ĠPÃªÅŁmerge": 5314,
      "oyÃ®": 5315,
      "enivÃ®s": 5316,
      "Ġdiax": 5317,
      "ose": 5318,
      "Ġses": 5319,
      "port": 5320,
      "BÃª": 5321,
      "Ġxuyakirin": 5322,
      "ĠÃİngil": 5323,
      "Ġrewa": 5324,
      "ĠyekÃ®tiya": 5325,
      "Ġbira": 5326,
      "Ġnij": 5327,
      "Ã®tÃª": 5328,
      "ĠØ¯ÙĪØ±Ùĩ": 5329,
      "Ġjiber": 5330,
      "ÃªrÃªn": 5331,
      "ĠgavÃª": 5332,
      "ĠÃ§alakÃ®": 5333,
      "istanÃ®": 5334,
      "ĠØ³Ùģ": 5335,
      "ĠTeh": 5336,
      "okan": 5337,
      "ĠÙħØ®ØªÙĦÙģ": 5338,
      "emberÃª": 5339,
      "Ġgirs": 5340,
      "Ġmeras": 5341,
      "Ġteke": 5342,
      "ĠAd": 5343,
      "ĠÙĨÙĬ": 5344,
      "Ġrih": 5345,
      "Â«": 5346,
      "Ġaram": 5347,
      "Ġqisey": 5348,
      "ĠØªÙħØ§Ùħ": 5349,
      "Ġbelavkirin": 5350,
      "ĠEhmedÃª": 5351,
      "vanan": 5352,
      "Ġqeyd": 5353,
      "Ġjixwe": 5354,
      "ĠØ¬ÙĩØ§ÙĨ": 5355,
      "ĠØ´Ø¯ÙĨ": 5356,
      "ĠSÃ®y": 5357,
      "ĠpÃªwÃ®ste": 5358,
      "ĠÙĪÙĦÛĮ": 5359,
      "Ã§eya": 5360,
      "ĠbazirganÃ®": 5361,
      "ĠdagÃ®r": 5362,
      "ĠwelatparÃªz": 5363,
      "util": 5364,
      "Ġtena": 5365,
      "ĠwezÃ®rÃª": 5366,
      "ĠxerÃ®": 5367,
      "ĠrÃ»met": 5368,
      "ĠØ§Úĵ": 5369,
      "Ùı": 5370,
      "Ø³Ø§ÙĦ": 5371,
      "Ġbernameya": 5372,
      "Ġbidim": 5373,
      "Ã®zan": 5374,
      "Ġrencont": 5375,
      "ĠLes": 5376,
      "ĠedebÃ®y": 5377,
      "ĠØ´Ú©": 5378,
      "bik": 5379,
      "Ġrey": 5380,
      "ĠØ³ÛĮÙħ": 5381,
      "ĠtÃªkildarÃ®": 5382,
      "Ġdaku": 5383,
      "ensÃ®": 5384,
      "ĠjibÃ®r": 5385,
      "ĠmÃªj": 5386,
      "ijÃ®": 5387,
      "aux": 5388,
      "Ø§Ø³Ø¨": 5389,
      "Ãªko": 5390,
      "awÃ®": 5391,
      "ĠhalÃª": 5392,
      "Ġnot": 5393,
      "ĠserxwebÃ»nÃª": 5394,
      "ĠKesÃªn": 5395,
      "etiyÃª": 5396,
      "kr": 5397,
      "Ġqetilkirin": 5398,
      "ĠÚ¯ÙĪØ´": 5399,
      "Ġener": 5400,
      "Ġdijm": 5401,
      "ĠdibistanÃª": 5402,
      "iza": 5403,
      "Ġcomm": 5404,
      "Ġguneh": 5405,
      "yoya": 5406,
      "ĠbinpÃªk": 5407,
      "ĠhiÅŁmend": 5408,
      "Ġloma": 5409,
      "Ã®kan": 5410,
      "ÛĮØ±Ùĩ": 5411,
      "ÙĦØ§ØŃ": 5412,
      "manca": 5413,
      "Ġferheng": 5414,
      "ĠsÃ®yaset": 5415,
      "ĠbÃªj": 5416,
      "esp": 5417,
      "ibÃ®": 5418,
      "Ø±ÙģÛĮ": 5419,
      "ĠYÃªn": 5420,
      "ĠSch": 5421,
      "Ã®zÃª": 5422,
      "atÃ®ya": 5423,
      "ÙĤÛĮÙĤ": 5424,
      "Ġnih": 5425,
      "co": 5426,
      "Ã®yet": 5427,
      "ĠÃ®dar": 5428,
      "Ġpaytexta": 5429,
      "Ġrojnameya": 5430,
      "ĠØ³ÛĮØ³ØªÙħ": 5431,
      "Ø¸Ùĩ": 5432,
      "ĠhesabÃª": 5433,
      "ĠAx": 5434,
      "Ġvat": 5435,
      "Ġxebit": 5436,
      "Ġus": 5437,
      "uma": 5438,
      "ĠÙĪØ¨": 5439,
      "Ġsosyal": 5440,
      "Ġwenda": 5441,
      "Ø²ÙĪ": 5442,
      "Ġfac": 5443,
      "ĠÃ§eteyan": 5444,
      "ĠspÃ®": 5445,
      "Ã®roka": 5446,
      "ĠÙĩØ¯": 5447,
      "ĠkevneÅŁop": 5448,
      "ĠØ±ÙĨÚ¯": 5449,
      "ĠÃªrÃ®ÅŁan": 5450,
      "eyanÃª": 5451,
      "ĠXelÃ®l": 5452,
      "Ġpara": 5453,
      "Ġxeter": 5454,
      "ĠhÃ®s": 5455,
      "ĠMil": 5456,
      "ĠmehÃª": 5457,
      "Ġnade": 5458,
      "ĠBrÃ®tan": 5459,
      "Ġdesthilatdariya": 5460,
      "ØªÙĪ": 5461,
      "ĠØ§ÙĪØ³": 5462,
      "Ġkat": 5463,
      "Ġfikir": 5464,
      "ĠkeÃ§a": 5465,
      "ĠØ¬ÙĪ": 5466,
      "ĠrÃªxistinÃª": 5467,
      "Bir": 5468,
      "ĠÃ®z": 5469,
      "meha": 5470,
      "Ġnerm": 5471,
      "Ãªkirin": 5472,
      "ØªÙĪÙĨ": 5473,
      "ĠØ¯Ø³ØªÚ¯Ø§Ùĩ": 5474,
      "Ġtar": 5475,
      "hol": 5476,
      "Ġsans": 5477,
      "Ġmor": 5478,
      "ĠbiryarÃª": 5479,
      "Ã®kayÃª": 5480,
      "ĠØ±ÙĪØ§ÙĨ": 5481,
      "ĠÅŀoreÅŁa": 5482,
      "Ġewe": 5483,
      "Ġwergirtin": 5484,
      "Ã®je": 5485,
      "Ġwerd": 5486,
      "ĠÙħØ¯ÙĦ": 5487,
      "34": 5488,
      "ĠMÃ»silÃª": 5489,
      "ĠpÃªl": 5490,
      "tirs": 5491,
      "ussi": 5492,
      "Ġwind": 5493,
      "Û±Û³Û¹": 5494,
      "Ø¨ÛĮÙĨ": 5495,
      "ĠhikÃ»met": 5496,
      "Ġnamz": 5497,
      "Ġrojhilat": 5498,
      "ĠbinÃªrin": 5499,
      "ĠÅŁerekÃ®": 5500,
      "ĠBeh": 5501,
      "kot": 5502,
      "Ġberdewama": 5503,
      "Ġveguhest": 5504,
      "sh": 5505,
      "Ø§ÙĦÙĬ": 5506,
      "ĠØ¨Ø¯ÙĪÙĨ": 5507,
      "ĠÙĪØ±Ø²Ø´": 5508,
      "ĠÃ§ekan": 5509,
      "ĠbibÃ®r": 5510,
      "Ġkm": 5511,
      "ĠbernameyÃªn": 5512,
      "Ã»yan": 5513,
      "ĠrastÃ®n": 5514,
      "Ġpeymana": 5515,
      "Ġhuner": 5516,
      "2009": 5517,
      "ĠtÃªra": 5518,
      "ĠhetanÃ®": 5519,
      "Ġbext": 5520,
      "ĠbikiÅŁ": 5521,
      "kez": 5522,
      "Ġdereng": 5523,
      "ĠalÃ®kariyÃª": 5524,
      "ĠkiÅŁandin": 5525,
      "ĠEmerÃ®kayÃª": 5526,
      "ĠhÃªviya": 5527,
      "Ġboy": 5528,
      "umÃª": 5529,
      "Ġherdem": 5530,
      "ĠPirs": 5531,
      "PJ": 5532,
      "ĠkirmanckÃ®": 5533,
      "Ġderheqa": 5534,
      "Ġkomp": 5535,
      "ÙĩØ§ÙĬ": 5536,
      "irnex": 5537,
      "ĠtelevÃ®z": 5538,
      "Ġkap": 5539,
      "ry": 5540,
      "ĠDu": 5541,
      "Ġqurb": 5542,
      "bolÃª": 5543,
      "Ġcel": 5544,
      "ĠÚ©ÙĪØ±": 5545,
      "Ġdilsoz": 5546,
      "Ä±l": 5547,
      "ĠÚ©ÚĵÛĲ": 5548,
      "Ġrem": 5549,
      "Ġdubare": 5550,
      "emÃ®": 5551,
      "Ġserokatiya": 5552,
      "ĠlÃ®stik": 5553,
      "].": 5554,
      "ĠpÃªÅŁmerg": 5555,
      "ĠÃ®nternetÃª": 5556,
      "ĠØ¨ÙĩØªØ±ÛĮÙĨ": 5557,
      "aha": 5558,
      "ĠØ®Ø§ÙĨÙĩ": 5559,
      "dam": 5560,
      "Ã®yeyÃª": 5561,
      "Ġhundir": 5562,
      "ĠcÃ®hanÃ®": 5563,
      "Ġkovara": 5564,
      "ekinin": 5565,
      "ĠhevdÃ®tinÃª": 5566,
      "ĠØ§ÙħÙĨ": 5567,
      "Ġkor": 5568,
      "Ġdiyal": 5569,
      "ĠYNKÃª": 5570,
      "ĠvÃ®n": 5571,
      "ĠlÃªkolÃ®nÃªn": 5572,
      "Ġph": 5573,
      "ĠberxwedanÃª": 5574,
      "ĠgundÃ®": 5575,
      "ĠSad": 5576,
      "ĠnÃ»Ã§e": 5577,
      "Ġhaz": 5578,
      "ĠbajarÃ®": 5579,
      "ĠmuzÃ®kÃª": 5580,
      "03": 5581,
      "ĠQan": 5582,
      "Nav": 5583,
      "ald": 5584,
      "Ġpo": 5585,
      "ces": 5586,
      "ĠÃ®ngil": 5587,
      "Ġhunera": 5588,
      "Ġradi": 5589,
      "ĠØ¯Ø®ØªØ±": 5590,
      "iwÃªj": 5591,
      "ÅŁÃ®": 5592,
      "ĠEf": 5593,
      "ĠØ¬Ø§ÛĮ": 5594,
      "ĠbistÃ®nin": 5595,
      "Ġseh": 5596,
      "ĠrÃªjÃ®ma": 5597,
      "Ġferq": 5598,
      "Ġbiax": 5599,
      "ĠoperasyonÃªn": 5600,
      "cher": 5601,
      "ĠWel": 5602,
      "Par": 5603,
      "ĠMÃ»sa": 5604,
      "Ġmerdim": 5605,
      "ĠlatÃ®nÃ®": 5606,
      "Ġaciz": 5607,
      "Ã§ar": 5608,
      "ĠÙĨÙĪÙħ": 5609,
      "Ø¯ÙĨ": 5610,
      "ĠRa": 5611,
      "org": 5612,
      "ĠEt": 5613,
      "ĠCih": 5614,
      "ĠpiÅŁtgiriyÃª": 5615,
      "ĠAmerÃ®kÃ®": 5616,
      "ĠbÃ®st": 5617,
      "Û°Û°": 5618,
      "Ú«Ø±": 5619,
      "ĠØ±ÙĪØ´": 5620,
      "ĠKoma": 5621,
      "Ġtije": 5622,
      "firoÅŁ": 5623,
      "ĠavÃªt": 5624,
      "ĠÙĩÛĮÚĨ": 5625,
      "Ø¯Ø§ÙĦ": 5626,
      "ivÃ®n": 5627,
      "ĠÙĪØ®Øª": 5628,
      "ĠÙħØŃØµÙĪÙĦ": 5629,
      "Ú«Ùĩ": 5630,
      "Ġgaz": 5631,
      "Ġven": 5632,
      "Ú©ÙĨÙĨØ¯": 5633,
      "erin": 5634,
      "32": 5635,
      "ĠØ¯Ø§Ø®": 5636,
      "Ġalfabeya": 5637,
      "Ã§Ã»nÃª": 5638,
      "ĠmayÃ®n": 5639,
      "ĠMem": 5640,
      "ĠØ§Ø·ÙĦØ§Ø¹Ø§Øª": 5641,
      "Ø§Øº": 5642,
      "name": 5643,
      "Ġont": 5644,
      ".ÂĶ": 5645,
      "ÃªnÃ®": 5646,
      "ĠmÃ®t": 5647,
      "ĠrejÃ®mÃª": 5648,
      "ĠperwerdeyÃª": 5649,
      "Ġqonax": 5650,
      "Ġnes": 5651,
      "onÃªn": 5652,
      "ĠKam": 5653,
      "ĠÙĩÙħÛĮÙĨ": 5654,
      "Ø§ÙĩØ¯": 5655,
      "ÙĨÙħ": 5656,
      "Ġpeyam": 5657,
      "Ġdijber": 5658,
      "ĠØ§Ø³ØªØ®": 5659,
      "Ġterc": 5660,
      "ĠParastina": 5661,
      "Ġpeyman": 5662,
      "ĠNis": 5663,
      "Ġserv": 5664,
      "ĠkonferansÃª": 5665,
      "ĠÚ¯Ø±ÙģØªÙĩ": 5666,
      "ĠParÃ®sÃª": 5667,
      "alÃ®st": 5668,
      "ĠpÃªÅŁniyar": 5669,
      "Ġxul": 5670,
      "ĠØ´Ø¹": 5671,
      "ØªÙħ": 5672,
      "asan": 5673,
      "Gelek": 5674,
      "ĠTur": 5675,
      "ĠÙģÙĤ": 5676,
      "Ã¤r": 5677,
      "Ġbuh": 5678,
      "ĠjÃ®n": 5679,
      "Wek": 5680,
      "ĠÅŁexsÃ®": 5681,
      "maz": 5682,
      "36": 5683,
      "Ġcarna": 5684,
      "Ġberam": 5685,
      "ĠÙħÙĪØ¶ÙĪØ¹": 5686,
      "Ø²Ø§ÙĨ": 5687,
      "ĠmijÃ»l": 5688,
      "ĠWeÅŁ": 5689,
      "jiyÃª": 5690,
      "ĠnavendÃ®": 5691,
      "Ġxal": 5692,
      "ĠdÃ®l": 5693,
      "ĠÙģØ±Ø¯": 5694,
      "Ġbax": 5695,
      "ĠdarÃª": 5696,
      "ĠÅŀirnex": 5697,
      "ept": 5698,
      "Ġheyw": 5699,
      "ĠZarok": 5700,
      "Ġberhema": 5701,
      "ĠromanÃª": 5702,
      "ĠpÃªkanÃ®n": 5703,
      "ures": 5704,
      "ĠÙħØ¯ÛĮØ±ÛĮØª": 5705,
      "biwÃªj": 5706,
      "ĠLÃªkol": 5707,
      "ĠLewma": 5708,
      "Ø±Ø§Øª": 5709,
      "enan": 5710,
      "dr": 5711,
      "ĠMir": 5712,
      "Dewleta": 5713,
      "ĠPAK": 5714,
      "ĠkÃªmtir": 5715,
      "ĠÅŁirov": 5716,
      "Ø§Ø¶": 5717,
      "Ġob": 5718,
      "ÚĵÛĮ": 5719,
      "ĠQendÃ®": 5720,
      "ĠMeclÃ®sa": 5721,
      "ĠciyÃª": 5722,
      "ĠÃ§Ã®": 5723,
      "ĠØ¨ÛĮØ§": 5724,
      "ĠØ´Ø®Øµ": 5725,
      "Ġnekiriye": 5726,
      "ĠtemaÅŁe": 5727,
      "ÅŁa": 5728,
      "ĠFilist": 5729,
      "ĠØ§Ø¬ØªÙħØ§": 5730,
      "ĠmÃ»z": 5731,
      "45": 5732,
      "ave": 5733,
      "ÛĮØ´Ùĩ": 5734,
      "ĠdanÃª": 5735,
      "ĠwÃªneyÃª": 5736,
      "ĠEwrÃ»payÃª": 5737,
      "Ġmedyaya": 5738,
      "ĠDemokr": 5739,
      "ĠÃªtre": 5740,
      "ĠNA": 5741,
      "ĠØ²Ø¨Ø§ÙĨ": 5742,
      "HÃªzÃªn": 5743,
      "Roja": 5744,
      "ecÃª": 5745,
      "erdevkÃª": 5746,
      "nameyÃª": 5747,
      "Ġbela": 5748,
      "ĠÚ©Ø§ÙħÙĦ": 5749,
      "ĠkurdkÃ®": 5750,
      "ĠÅŁÃªx": 5751,
      "Ġhemwelat": 5752,
      "Ġlazim": 5753,
      "ekirÃ®": 5754,
      "ĠrÃªjeya": 5755,
      "ĠÙĦØ§Ø³": 5756,
      "ED": 5757,
      "ĠdaxuyanÃ®": 5758,
      "ĠÐ": 5759,
      "ĠanÃ®ne": 5760,
      "ĠbijÃ®n": 5761,
      "ĠtrÃ¨s": 5762,
      "Ġezm": 5763,
      "Ġsite": 5764,
      "ĠPÃªwÃ®st": 5765,
      "ebe": 5766,
      "ĠCez": 5767,
      "Ġliv": 5768,
      "Ã¨re": 5769,
      "ĠAmÃ»dÃª": 5770,
      "Ġedal": 5771,
      "ree": 5772,
      "ĠÃ§iyayÃª": 5773,
      "ĠØ§ÙģØ²Ø§ÛĮØ´": 5774,
      "ĠÃĩawa": 5775,
      "Ú¯Ø±Ø¯": 5776,
      "ĠØ§ÛĮØ¬Ø§Ø¯": 5777,
      "ĠÅŀÃªr": 5778,
      "ĠØ¬Ø§ÙĨ": 5779,
      "Ã®yeta": 5780,
      "Ġdidome": 5781,
      "Ġopoz": 5782,
      "ĠlÃªgerÃ®nÃª": 5783,
      "Ġerk": 5784,
      "ĠBelÃª": 5785,
      "ĠØ·Ø§ÙĦØ¨": 5786,
      "ĠPaÅŁÃª": 5787,
      "wazÃ®": 5788,
      "ĠØ§ÙģØ²Ø§Ø±": 5789,
      "ĠThe": 5790,
      "bor": 5791,
      "ĠnÃ®s": 5792,
      "ĠÃ§avkaniyÃªn": 5793,
      "ĠRast": 5794,
      "ĠØ¯Ø§Ø³ÛĲ": 5795,
      "ĠÙ¾ÙĨØ¬": 5796,
      "Ġferman": 5797,
      "Ġmehk": 5798,
      "Ġxaka": 5799,
      "Ġkolanan": 5800,
      "esÃª": 5801,
      "ĠØ¹ÙĦØ§": 5802,
      "Ġsim": 5803,
      "tt": 5804,
      "ÚĺÛĮ": 5805,
      "Ġbikaribin": 5806,
      "Ġbifik": 5807,
      "Ġkaribin": 5808,
      "ĠsedemÃª": 5809,
      "ehm": 5810,
      "ĠNo": 5811,
      "erek": 5812,
      "ĠØªÙģ": 5813,
      "ĠSalih": 5814,
      "Ġdesteser": 5815,
      "iÅŁan": 5816,
      "Ġdewletan": 5817,
      "barÃª": 5818,
      "Ã®ÅŁk": 5819,
      "ĠlÃªgerÃ®n": 5820,
      "Ġeh": 5821,
      "ĠØ±Ø§ÛĮÚ¯Ø§ÙĨ": 5822,
      "ayo": 5823,
      "Ġkart": 5824,
      "mara": 5825,
      ".(": 5826,
      "ection": 5827,
      "ĠPaÅŁa": 5828,
      "Eger": 5829,
      "ĠnavÃ§eyÃª": 5830,
      "ĠgihiÅŁt": 5831,
      "ĠtayÃª": 5832,
      "ĠÃ§ÃªbÃ»n": 5833,
      "dirÃªj": 5834,
      "ĠseranserÃª": 5835,
      "ĠXeb": 5836,
      "Ġdayik": 5837,
      "ĠRo": 5838,
      "ĠÙĨÙħØ§ÛĮØ´": 5839,
      "Ġcejna": 5840,
      "Ġwaz": 5841,
      "Ġrind": 5842,
      "Ġtalan": 5843,
      "ĠmÃªme": 5844,
      "Ġtaxa": 5845,
      "ĠØ¯Ø±Ø¨Ø§Ø±Ùĩ": 5846,
      "ĠFermand": 5847,
      "Ġxera": 5848,
      "Ġpel": 5849,
      "ĠØ®Ø¯Ø§": 5850,
      "Ġleur": 5851,
      "ĠtÃªkoÅŁÃ®n": 5852,
      "ĠzazakÃ®": 5853,
      "ĠLÃªbelÃª": 5854,
      "evaniya": 5855,
      "lÃªd": 5856,
      "oza": 5857,
      "ĠAfr": 5858,
      "ĠesasÃ®": 5859,
      "ĠveÅŁartin": 5860,
      "Ø±Ø§ÛĮ": 5861,
      "Ġmijar": 5862,
      "ĠØ´ÛĮØ±": 5863,
      "ĠbÃ»na": 5864,
      "sÃ®l": 5865,
      "ĠHelbet": 5866,
      "omet": 5867,
      "prÃ¨s": 5868,
      "ÙħÙĬ": 5869,
      "Ġdisp": 5870,
      "ĠCelal": 5871,
      "olÃ®": 5872,
      "ĠÃ®fade": 5873,
      "ĠgiÅŁt": 5874,
      "ĠgiranÃ®": 5875,
      "Ã»mena": 5876,
      "abend": 5877,
      "uit": 5878,
      "ĠÙħØ³Ø¦": 5879,
      "Ġrapor": 5880,
      "ÙĪØ¯Ùĩ": 5881,
      "ĠPÃªn": 5882,
      "Ġmeq": 5883,
      "ĠbibÃªjim": 5884,
      "ĠØ§ÙģØ±Ø§Ø¯": 5885,
      "fan": 5886,
      "Ġlot": 5887,
      "makÃ®": 5888,
      "ĠÙ¾ÙĪØ±": 5889,
      "Ġnakim": 5890,
      "ĠØ§ÛĮØ±Ø§ÙĨÛĮ": 5891,
      "Ã®yetÃª": 5892,
      "Ġtin": 5893,
      "Ø¯Ø§ÙĨÙĦÙĪØ¯": 5894,
      "Ø³ÙĨ": 5895,
      "ĠWeke": 5896,
      "WezÃ®rÃª": 5897,
      "âĢ¦]": 5898,
      "ĠSÃ®n": 5899,
      "Ġparlement": 5900,
      "Ġint": 5901,
      "ĠØ¹Ø±": 5902,
      "land": 5903,
      "Ġwo": 5904,
      "Ġbabet": 5905,
      "ĠÙ¾Ø§Ø³": 5906,
      "ĠperÃ§eyÃªn": 5907,
      "Ø±ÛĮÙĤ": 5908,
      "ĠbikarhÃªnerÃªn": 5909,
      "ĠÅŁahid": 5910,
      "Ġdilov": 5911,
      "Ġvegerin": 5912,
      "Ġaussi": 5913,
      "ĠlÃªgerÃ®na": 5914,
      "ery": 5915,
      "Ø¤": 5916,
      "hÃ»r": 5917,
      "Ġhan": 5918,
      "Ã®me": 5919,
      "ĠpÃªwist": 5920,
      "emenÃª": 5921,
      "ĠalavÃªn": 5922,
      "ĠkiryarÃªn": 5923,
      "ĠmÃªz": 5924,
      "ĠtevgerÃªn": 5925,
      "Ġnadin": 5926,
      "Ġfr": 5927,
      "ĠJin": 5928,
      "Ġamadekar": 5929,
      "ĠÚīÙĪÙĦ": 5930,
      "ĠnÃªb": 5931,
      "ĠÃ§Ãªtir": 5932,
      "Ġcivata": 5933,
      "ĠCom": 5934,
      "08": 5935,
      "ines": 5936,
      "ĠØ¨Ø¹": 5937,
      "ĠRe": 5938,
      "Ãªka": 5939,
      "navÃª": 5940,
      "Ø±ÙĪÛĮØ¯": 5941,
      "ĠØ§Ú©": 5942,
      "ĠÙĩÛĲ": 5943,
      "ĠÃ¼": 5944,
      "Ø®Ø§ÙĨÙĩ": 5945,
      "ĠpÃªÅŁniyarÃªn": 5946,
      "ĠqadÃªn": 5947,
      "ahÃª": 5948,
      "ĠnimÃ»n": 5949,
      "Ġzimanan": 5950,
      "gerÃ®": 5951,
      "rew": 5952,
      "ubl": 5953,
      "Ã®yekÃ®": 5954,
      "Ġhay": 5955,
      "ĠlaÅŁÃª": 5956,
      "ĠKoÃ§": 5957,
      "ĠpÃªdivÃ®": 5958,
      "ĠjÄ±": 5959,
      "Ġmen": 5960,
      "Ġkird": 5961,
      "ĠTÃ®rmehÃª": 5962,
      "Xwe": 5963,
      "Ġdixin": 5964,
      "olÃªn": 5965,
      "ingÃª": 5966,
      "udax": 5967,
      "ĠÂ·": 5968,
      "ÙħØ±": 5969,
      "ØªØ§ÙĨ": 5970,
      "ĠÅŁarÃª": 5971,
      "fÃ®": 5972,
      "ĠnebÃ»ye": 5973,
      "ketina": 5974,
      "ĠÙħÙħ": 5975,
      "ĠØ³Ø§Ø¹Øª": 5976,
      "ĠHal": 5977,
      "ĠMela": 5978,
      "Ġdit": 5979,
      "Ġentre": 5980,
      "Ġfermana": 5981,
      "olojiyÃª": 5982,
      "ayekÃ®": 5983,
      "Ġraman": 5984,
      "ned": 5985,
      "ĠÃĩima": 5986,
      "ĠØ§Ù¾": 5987,
      "oi": 5988,
      "ĠrewÅŁenbÃ®r": 5989,
      "Ã©v": 5990,
      "ĠpÃªÅŁerojÃª": 5991,
      "ĠgrÃ»b": 5992,
      "ĠØŃÙĦ": 5993,
      "ula": 5994,
      "Ġkem": 5995,
      "ĠÙĪØ§ÙĬÙĬ": 5996,
      "ewar": 5997,
      "ĠdemokrasÃ®": 5998,
      "ĠKarÃªn": 5999,
      "Ã®sÃªn": 6000,
      "Ġtifaq": 6001,
      "ĠNÃ®s": 6002,
      "ĠÚ©Ø§ÙĨ": 6003,
      "ĠAdarÃª": 6004,
      "Ġbiguher": 6005,
      "bur": 6006,
      "ĠØŃØ±": 6007,
      "33": 6008,
      "Ġpeut": 6009,
      "kt": 6010,
      "Ġlewra": 6011,
      "ĠbelaÅŁ": 6012,
      "wekÃ®": 6013,
      "Ġgirtine": 6014,
      "ĠØŃØ¶ÙĪØ±": 6015,
      "ĠØ¯ÙĩØ¯": 6016,
      "ĠÙĩØ²Ø§Ø±": 6017,
      "ĠprÃ©s": 6018,
      "ĠbÃ»bÃ»n": 6019,
      "Ġnivis": 6020,
      "Ġ[âĢ¦]": 6021,
      "ĠWelat": 6022,
      "Ġkolon": 6023,
      "Ø¨Ø§Ø·": 6024,
      "ĠØ·Ø±Ø§ØŃÛĮ": 6025,
      "ĠCotmehÃª": 6026,
      "ĠÃĩav": 6027,
      "Ġdawe": 6028,
      "ĠGur": 6029,
      "Ġpa": 6030,
      "ĠØªÛĮÙħ": 6031,
      "ĠziwanÃ®": 6032,
      "ĠØ¨Ø±Ø±Ø³ÛĮ": 6033,
      "ĠFr": 6034,
      "ĠÃ©tÃ©": 6035,
      "ĠMos": 6036,
      "bun": 6037,
      "Ġtirsa": 6038,
      "ĠÃİmral": 6039,
      "ĠÃ§Ãªdibe": 6040,
      "ĠÚ©ÙĪÙħ": 6041,
      "ĠSos": 6042,
      "ĠÙĪØ±ÙĪØ³ØªÙĩ": 6043,
      "nin": 6044,
      "NivÃ®s": 6045,
      "Ġhinc": 6046,
      "ĠparastinÃª": 6047,
      "ĠÙĩÙħÚĨÙĨÛĮÙĨ": 6048,
      "xe": 6049,
      "Ã®syon": 6050,
      "ĠPirtÃ»k": 6051,
      "Ġbixwaze": 6052,
      "Ġserkeftin": 6053,
      "Ġken": 6054,
      "ĠvÃ®d": 6055,
      "ÃªkÃª": 6056,
      "ulÃª": 6057,
      "ĠdayÃ®k": 6058,
      "ĠeslÃª": 6059,
      "Ã®zma": 6060,
      "Ġhep": 6061,
      "ĠØªØºÛĮ": 6062,
      "ĠØ®ÙĪØ¯Ø±ÙĪ": 6063,
      "ĠColemÃªr": 6064,
      "Ã»sÃ®": 6065,
      "ĠpartÃ®yÃªn": 6066,
      "ĠPÃªx": 6067,
      "ĠqetlÃ®": 6068,
      "Ġmudax": 6069,
      "ĠsazÃ®": 6070,
      "ĠÃ§Ã®rokÃªn": 6071,
      "ĠmÃ®lyon": 6072,
      "ĠÃ®nsanan": 6073,
      "Ã»v": 6074,
      "ØªÙĬ": 6075,
      "ener": 6076,
      "ĠÅŁertÃªn": 6077,
      "Ġtawan": 6078,
      "Ġxelk": 6079,
      "Ġnabin": 6080,
      "ĠÃ§avkaniya": 6081,
      "Ø¦ÛĮØ³": 6082,
      "Ġfel": 6083,
      "ente": 6084,
      "Ġniq": 6085,
      "Ġwexta": 6086,
      "ĠhiÅŁÃª": 6087,
      "ques": 6088,
      "ĠRecep": 6089,
      "Ġromana": 6090,
      "Pey": 6091,
      "ĠpÃªÅŁberÃ®": 6092,
      "ĠHevpey": 6093,
      "eks": 6094,
      "PÃª": 6095,
      "ĠÙĪØ²Ø§Ø±": 6096,
      "Ġmexd": 6097,
      "ĠoperasyonÃª": 6098,
      "ĠCan": 6099,
      "Ġavahiya": 6100,
      "ĠKongreya": 6101,
      "ĠrÃ»x": 6102,
      "Ġzilm": 6103,
      "Ġleheng": 6104,
      "Ġdestkeft": 6105,
      "Ø§Ø¬": 6106,
      "Ġzem": 6107,
      "Ġthe": 6108,
      "Hem": 6109,
      "ĠØ¯ÙĪÛĮ": 6110,
      "Ø§Ø®Øª": 6111,
      "ĠØªØ§Ø±ÛĮØ®": 6112,
      "01": 6113,
      "ĠHusey": 6114,
      "ĠØªÙĨÙĩØ§": 6115,
      "Ã§eyÃª": 6116,
      "ĠbÃªjim": 6117,
      "ĠMust": 6118,
      "ĠDÃª": 6119,
      "danan": 6120,
      "ĠØ¹ÙĦÙĪÙħ": 6121,
      "eze": 6122,
      "lar": 6123,
      "ĠÙĪØ²Ø§Ø±Øª": 6124,
      "ende": 6125,
      "Ġedebiyata": 6126,
      "ĠtiÅŁta": 6127,
      "Ġkeda": 6128,
      "ĠcÃ®hana": 6129,
      "Ġhevalbend": 6130,
      "ĠdÃ®y": 6131,
      "Ġrag": 6132,
      "ĠØ¹Ú©Ø³": 6133,
      "ĠØ³Ø±Ùħ": 6134,
      "Ġqay": 6135,
      "ĠdÃ®kt": 6136,
      "Ġelekt": 6137,
      "139": 6138,
      "ĠÃĩiyayÃª": 6139,
      "ĠÚ©ÚĵÛĮ": 6140,
      "akir": 6141,
      "Ġass": 6142,
      "ĠHeÅŁ": 6143,
      "ĠnexÅŁ": 6144,
      "ĠÙĩÙħØ§ÙĨ": 6145,
      "á¸": 6146,
      "Ġdarizandin": 6147,
      "Ġprotest": 6148,
      "ĠmuhÃ®m": 6149,
      "izÃ®": 6150,
      "ĠkarÃ»barÃªn": 6151,
      "ĠÙĨØ§ÙħÙĩ": 6152,
      "ĠØ´Ø¨Ú©Ùĩ": 6153,
      "ĠÚ©ÙĨÛĮÙħ": 6154,
      "Ø¨ÙĦÙĩ": 6155,
      "ÙĪÙĦÛĲ": 6156,
      "Ġbixeb": 6157,
      "ĠlawÃª": 6158,
      "ĠPerwerd": 6159,
      "areta": 6160,
      "ĠlÃªk": 6161,
      "ĠAg": 6162,
      "Ãªna": 6163,
      "ĠÙ¾ÙĪÙĩ": 6164,
      "Ġmaz": 6165,
      "ĠØ®ÙĦØ§": 6166,
      "ĠmÃªrÃª": 6167,
      "ĠHewlÃªr": 6168,
      "bilind": 6169,
      "ĠhunerÃ®": 6170,
      "Ġaniye": 6171,
      "IR": 6172,
      "ĠTer": 6173,
      "ĠkeÅŁ": 6174,
      "ĠhevdÃ®tina": 6175,
      "Ġdiyalog": 6176,
      "ĠpÃªÅŁwaz": 6177,
      "Ġaq": 6178,
      "Ã®teyÃª": 6179,
      "oup": 6180,
      "Ġpal": 6181,
      "TÃª": 6182,
      "bo": 6183,
      "ĠpÃªkan": 6184,
      "ĠzanyarÃ®": 6185,
      "Ġkew": 6186,
      "ĠØ´ÙĪÛĲ": 6187,
      "Ø¯Ø§Ø±ÛĮ": 6188,
      "ĠmÃ®yanÃª": 6189,
      "ĠAnd": 6190,
      "ĠpÃªÅŁxistin": 6191,
      "Ġraz": 6192,
      "ĠØ´ÙĪÛĮ": 6193,
      "ĠEnqereyÃª": 6194,
      "ÙĪØ§Ú©": 6195,
      "ĠkÃªmas": 6196,
      "ĠGirtÃ®": 6197,
      "ĠHaw": 6198,
      "metÃª": 6199,
      "ĠlÃ®steya": 6200,
      "ĠwarÃªn": 6201,
      "ĠdikÃ®": 6202,
      "ĠØªØºÛĮÛĮØ±": 6203,
      "ĠÃ§erÃ§ov": 6204,
      "ĠÙĤØ§ÙĨÙĪÙĨ": 6205,
      "cih": 6206,
      "ĠdÃ®nÃ®": 6207,
      "ĠÙĨØ³Ø¨Øª": 6208,
      "gl": 6209,
      "Ġmun": 6210,
      "Der": 6211,
      "Ġola": 6212,
      "etek": 6213,
      "ĠtevayÃ®": 6214,
      "ÃªvÃ®": 6215,
      "ĠbixwÃ®nin": 6216,
      "ĠestÃª": 6217,
      "Ġzana": 6218,
      "Ø¹Ø§": 6219,
      "ĠØ®Øµ": 6220,
      "ĠbinÃ§avkirin": 6221,
      "ĠevÃ®na": 6222,
      "ÛĮÙĨØ¯": 6223,
      "âĢĮâĢĮ": 6224,
      "ĠÙħÙĨØª": 6225,
      "Dest": 6226,
      "ÛĮØ¯Ø§": 6227,
      "ĠØ´Ø§": 6228,
      "ĠØ®Ù¾ÙĦÙĪ": 6229,
      "ĠdÃ®nÃª": 6230,
      "ĠIdlibÃª": 6231,
      "ĠXez": 6232,
      "ebÃ»nÃª": 6233,
      "ĠMid": 6234,
      "ĠÙħÙĪØ²": 6235,
      "ĠØ§ÙħÚ©Ø§ÙĨ": 6236,
      "Ġala": 6237,
      "ÚĵÙĪ": 6238,
      "ĠGirÃª": 6239,
      "Ġkongr": 6240,
      "ĠÅŀingalÃª": 6241,
      "ĠHerweha": 6242,
      "ĠØªØ±Ú©ÛĮ": 6243,
      "Ã®sÃ®": 6244,
      "tes": 6245,
      "ĠØ¬ÙĩØª": 6246,
      "Ġhezkirin": 6247,
      "ĠMam": 6248,
      "Ġsy": 6249,
      "Ġban": 6250,
      "ĠØ§ÙħÙĨÛĮØª": 6251,
      "ĠzikmakÃ®": 6252,
      "ĠbiparÃªze": 6253,
      "Ġkadro": 6254,
      "Ġtekez": 6255,
      "Ġbab": 6256,
      "alef": 6257,
      "ÙĪÛĮÙĦ": 6258,
      "Kar": 6259,
      "ĠÙħÙĨØ·": 6260,
      "Ġsen": 6261,
      "Ġtak": 6262,
      "Ġent": 6263,
      "isan": 6264,
      "por": 6265,
      "ĠÙĪØ§Ø±Ø¯": 6266,
      "ĠYew": 6267,
      "ĠÙĨØ´Ø§ÙĨ": 6268,
      "ĠguhdarÃ®": 6269,
      "ĠerÃª": 6270,
      "Ġmisoger": 6271,
      "tait": 6272,
      "kin": 6273,
      "Ġtevlihev": 6274,
      "ĠmuzÃ®ka": 6275,
      "ĠmÃªran": 6276,
      "ĠcivÃ®n": 6277,
      "Ġdestan": 6278,
      "Ġbalafir": 6279,
      "ĠrengekÃ®": 6280,
      "ĠMafÃªn": 6281,
      "300": 6282,
      "ÙĨØ¯Ø§ÙĨ": 6283,
      "eyo": 6284,
      "ĠØ§ÙĨØ¯Ø±ÙĪÛĮØ¯": 6285,
      "ĠruhÃª": 6286,
      "ansÃª": 6287,
      "ĠÙħØ¬ÙħÙĪ": 6288,
      "rana": 6289,
      "ĠSeb": 6290,
      "ĠÙ¾Ø®": 6291,
      "ĠÃªzd": 6292,
      "ĠÃ®slamÃ®": 6293,
      "ĠNiÅŁtimanÃ®": 6294,
      "ÃªkÃ®": 6295,
      "ĠberpirsÃªn": 6296,
      "Ġafirandin": 6297,
      "ĠÅŀeref": 6298,
      "ĠÙĤØ¯Ø±": 6299,
      "ĠÙĪØ±Ú©Úĵ": 6300,
      "ĠÃĬl": 6301,
      "ĠeÅŁker": 6302,
      "ĠnÃ»Ã§eyÃªn": 6303,
      "Ġserwer": 6304,
      "Ġxiyan": 6305,
      "Part": 6306,
      "Ġmekt": 6307,
      "bel": 6308,
      "Ġbetal": 6309,
      "itÃ©s": 6310,
      "ezanÃª": 6311,
      "Ġcenaz": 6312,
      "oriya": 6313,
      "daran": 6314,
      "ĠNavneteweyÃ®": 6315,
      "ĠMinbic": 6316,
      "Ġnuha": 6317,
      "ĠbeÅŁÃª": 6318,
      "Ġdizanim": 6319,
      "ĠØªØ±ÛĮÙĨ": 6320,
      "ĠÙħØ±Ú©Ø²": 6321,
      "ĠBes": 6322,
      "Ġdarb": 6323,
      "Hel": 6324,
      "use": 6325,
      "Ġkurs": 6326,
      "EV": 6327,
      "ĠBavÃª": 6328,
      "ĠHezÃ®ranÃª": 6329,
      "ĠÃ¥": 6330,
      "ĠnÃ®vÃª": 6331,
      "ace": 6332,
      "Ġserkeftina": 6333,
      "ĠevÃ®n": 6334,
      "Ġpen": 6335,
      "Ġnaz": 6336,
      "Ġnormal": 6337,
      "neya": 6338,
      "ĠÙĬØ§": 6339,
      "ĠÙģØ±Ùħ": 6340,
      "ĠDan": 6341,
      "Ġxelat": 6342,
      "ĠserokÃªn": 6343,
      "ĠbibÃ»": 6344,
      "ĠxizmetÃª": 6345,
      "Ġwergirt": 6346,
      "ĠbÃ»yera": 6347,
      "ĠÙħÛĲ": 6348,
      "ĠLey": 6349,
      "ĠØ¨Ø±Ø®": 6350,
      "ante": 6351,
      "part": 6352,
      "Ġann": 6353,
      "ĠZerde": 6354,
      "ĠYemenÃª": 6355,
      "ĠtekoÅŁÃ®na": 6356,
      "ĠpiÅŁtrast": 6357,
      "Ġrik": 6358,
      "ĠÃĩÃ®nÃª": 6359,
      "ĠRÃªxistina": 6360,
      "ĠnÃªrÃ®nÃªn": 6361,
      "Ġotom": 6362,
      "ĠnikarÃ®": 6363,
      "fe": 6364,
      "Ġdima": 6365,
      "lÃ»": 6366,
      "Ø±Ø¯Ùĩ": 6367,
      "ĠFÃ®l": 6368,
      "ĠalÃ®girÃªn": 6369,
      "Ġdamezrandin": 6370,
      "yarÃª": 6371,
      "Ġrizgarkirina": 6372,
      "Ġbikira": 6373,
      "ĠMirovan": 6374,
      "ĠØªØ®": 6375,
      "Ġdeux": 6376,
      "Ã®fa": 6377,
      "oss": 6378,
      "Ġhur": 6379,
      "ĠÙ¾Ø±Ø³": 6380,
      "bibe": 6381,
      "ĠstÃªr": 6382,
      "Ġhelbesta": 6383,
      "ĠhÃªrs": 6384,
      "Ġmesela": 6385,
      "ĠcihanÃª": 6386,
      "ĠpirsÃª": 6387,
      "ĠwÃªjeyÃª": 6388,
      "ĠBÃªguman": 6389,
      "ĠbidÃ®": 6390,
      "Ġfe": 6391,
      "Ġragehand": 6392,
      "ÚĵÛį": 6393,
      "amp": 6394,
      "ĠKomeleya": 6395,
      "Ġhertim": 6396,
      "Ġtomar": 6397,
      "Ġnuh": 6398,
      "Ã»mÃª": 6399,
      "Ġqurban": 6400,
      "ĠparÃ§e": 6401,
      "ĠDev": 6402,
      "Ø®ØµØµ": 6403,
      "ĠÙĤØ§Ø¨ÙĦ": 6404,
      "Ġcha": 6405,
      "Ġcor": 6406,
      "ezaq": 6407,
      "ĠXalid": 6408,
      "ĠRÃ»da": 6409,
      "Ġbare": 6410,
      "ĠDewletÃªn": 6411,
      "ayeke": 6412,
      "iqas": 6413,
      "Ġrasterast": 6414,
      "Ġrec": 6415,
      "ĠSÃ»riye": 6416,
      "Ġdigre": 6417,
      "ĠbiryarÃªn": 6418,
      "ĠdijminÃª": 6419,
      "ĠMur": 6420,
      "iste": 6421,
      "ĠØ§Ø¹ÙĦØ§Ùħ": 6422,
      "irim": 6423,
      "ity": 6424,
      "Ġwilo": 6425,
      "ĠorganÃ®z": 6426,
      "ĠzanÃ®ngehÃª": 6427,
      "guh": 6428,
      "Ġderketine": 6429,
      "ĠÅŁÃ®rket": 6430,
      "ĠHar": 6431,
      "ĠØ®ÛĮÙĦÛĮ": 6432,
      "ĠGot": 6433,
      "endre": 6434,
      "Ġfederal": 6435,
      "ĠÙģÚ©Ø±": 6436,
      "ĠSerokwezÃ®rÃª": 6437,
      "Ø§ØªÙĩ": 6438,
      "bÃ®r": 6439,
      "eter": 6440,
      "Ġsl": 6441,
      "ĠØ®ØµÙĪØµ": 6442,
      "Ġ&": 6443,
      "ĠØ®Ø§Ø·": 6444,
      "ĠweÅŁana": 6445,
      "ĠtemamÃª": 6446,
      "ĠwÃªjeya": 6447,
      "ĠdestÃ»rÃª": 6448,
      "ĠBaz": 6449,
      "Ġenf": 6450,
      "ĠHind": 6451,
      "Ġnez": 6452,
      "Ġweh": 6453,
      "ĠCeladet": 6454,
      "ĠsÃ»d": 6455,
      "Ġxez": 6456,
      "Ø§ÙĩÛĮ": 6457,
      "Dem": 6458,
      "pt": 6459,
      "ĠØ¨Ø±Ø®ÛĮ": 6460,
      "Ġval": 6461,
      "ĠNisÃªb": 6462,
      "ĠÃ®radeya": 6463,
      "ĠÅŁeva": 6464,
      "ayeta": 6465,
      "arinan": 6466,
      "Ø¶Ø§ÛĮ": 6467,
      "Ø¯ÙĬ": 6468,
      "ish": 6469,
      "Ġacc": 6470,
      "ĠKat": 6471,
      "ĠÙħØ¹Ø±ÙģÛĮ": 6472,
      "Ã®sy": 6473,
      "ĠXwend": 6474,
      "kerÃª": 6475,
      "Ġret": 6476,
      "iyaye": 6477,
      "Ù¾Ø§": 6478,
      "Ã¹": 6479,
      "ts": 6480,
      "URD": 6481,
      "Ġexla": 6482,
      "Ġrabe": 6483,
      "Ġceza": 6484,
      "ĠxwepÃªÅŁand": 6485,
      "iyeya": 6486,
      "ĠÃ§Ã»ye": 6487,
      "gor": 6488,
      "ĠØ¢ÙħØ±ÛĮÚ©Ø§": 6489,
      "ram": 6490,
      ".âĢĻ": 6491,
      "ĠØªÙĪØ±": 6492,
      "ÙĨØ§ÙĨ": 6493,
      "ĠGun": 6494,
      "ĠÃİmraliyÃª": 6495,
      "Ġpop": 6496,
      "ĠzanÃ®": 6497,
      "Ġmamoste": 6498,
      "eÅŁa": 6499,
      "oire": 6500,
      "Ġdek": 6501,
      "ĠYE": 6502,
      "ĠKil": 6503,
      "ĠKomÃ®teya": 6504,
      "ars": 6505,
      "ĠdivÃªt": 6506,
      "ĠhevdÃ»": 6507,
      "xwend": 6508,
      "ĠÙħØ¹Ùħ": 6509,
      "gÃªr": 6510,
      "ĠÙģØ¹Ø§ÙĦÛĮØª": 6511,
      "Ġbikuj": 6512,
      "Ġwergera": 6513,
      "Ġqeh": 6514,
      "ste": 6515,
      "ĠTirkÃ®ya": 6516,
      "Ġtab": 6517,
      "ash": 6518,
      "Hin": 6519,
      "ĠHis": 6520,
      "Ġmill": 6521,
      "La": 6522,
      "ehÃ®": 6523,
      "ĠÃ®slamÃª": 6524,
      "ĠpÃªÅŁb": 6525,
      "ĠBerÃ®": 6526,
      "dal": 6527,
      "Ġpeyama": 6528,
      "ĠRon": 6529,
      "ÚģÙĬ": 6530,
      "Ø©": 6531,
      "Ġesker": 6532,
      "ĠØ§Ø±Ø§Ø¦": 6533,
      "ĠØ«Ø¨Øª": 6534,
      "Ø§ÛĮØ·": 6535,
      "!âĢĿ": 6536,
      "ĠØ§ÛĮÙħ": 6537,
      "ĠØ§Ø¨Øª": 6538,
      "Ġmetirs": 6539,
      "Ġrehet": 6540,
      "ĠNÃªÃ§Ã®rvan": 6541,
      "ĠØ¨ÛĮØª": 6542,
      "ĠØ§Ø±Ø§Ø¦Ùĩ": 6543,
      "Ã®le": 6544,
      "ĠØ§Ø¬ØªÙħØ§Ø¹ÛĮ": 6545,
      "Ø§Ø´ÛĮ": 6546,
      "Ġsex": 6547,
      "ĠØ§Ø¹Øª": 6548,
      "ĠØ¬ÙĨÚ¯": 6549,
      "ĠanalÃ®z": 6550,
      "Ġ..": 6551,
      "ĠEnqerÃª": 6552,
      "bÃªn": 6553,
      "ĠØ¯Ø±ÛĮØ§": 6554,
      "ĠÙģØµÙĦ": 6555,
      "ĠhÃªl": 6556,
      "Ġberdin": 6557,
      "ĠpetrolÃª": 6558,
      "SK": 6559,
      "Ġblog": 6560,
      "ref": 6561,
      "ĠÙĪÙĤ": 6562,
      "ĠØ·Ø¨": 6563,
      "Ġziyar": 6564,
      "Ġbikero": 6565,
      "yoyÃª": 6566,
      "ĠÃ®mz": 6567,
      "eÅŁÃ®": 6568,
      "Ã»ma": 6569,
      "Ġsilav": 6570,
      "Ġlewma": 6571,
      "ÙĪÙħØ§ÙĨ": 6572,
      "ĠKel": 6573,
      "ĠÙĦØ¨": 6574,
      "ĠdiÃ§Ã»": 6575,
      "Ġberz": 6576,
      "ĠkÃªr": 6577,
      "ĠserpÃª": 6578,
      "ĠrÃªberÃª": 6579,
      "ĠhiÅŁtin": 6580,
      "Ġley": 6581,
      "Ġdibistana": 6582,
      "ĠØ¬ÙħÙĩ": 6583,
      "iba": 6584,
      "Ġquel": 6585,
      "edan": 6586,
      "ĠØ³ÙĪØ§ÙĦ": 6587,
      "ĠLeÅŁ": 6588,
      "ĠpÃ»Ã§": 6589,
      "Ġkevir": 6590,
      "Ġnedin": 6591,
      "ĠxalÃªn": 6592,
      "Ġdagirkeran": 6593,
      "ekreterÃª": 6594,
      "nÃ®g": 6595,
      "ĠØ®ÙĪØ±": 6596,
      "atoriya": 6597,
      "ĠklasÃ®k": 6598,
      "ĠdibÃ®nim": 6599,
      "Ġjiyaneke": 6600,
      "ĠØ§ÚĵÙĩ": 6601,
      "IN": 6602,
      "Mal": 6603,
      "Ġxeber": 6604,
      "Ġdiqew": 6605,
      "Ø§Ø±Ø§ÙĨ": 6606,
      "ĠÙĨØ¸Ø§Ùħ": 6607,
      "ÛĮØ¯ÛĮ": 6608,
      "Ġgem": 6609,
      "ĠzayendÃ®": 6610,
      "abelÃª": 6611,
      "Ġbedena": 6612,
      "Ġbinavkirin": 6613,
      "ĠÃ§Ã»m": 6614,
      "ĠbijÃ®": 6615,
      "Ã©d": 6616,
      "ĠØ§ÙĤØ¯Ø§Ùħ": 6617,
      "ĠØµØŃ": 6618,
      "1980": 6619,
      "ige": 6620,
      "ĠDuh": 6621,
      "ĠØ¨ØŃ": 6622,
      "Ġcarek": 6623,
      "ĠleÅŁkeran": 6624,
      "Ġplat": 6625,
      "ĠØ§ÛĮÙĨØªØ±": 6626,
      "ĠÃ§apkirin": 6627,
      "ĠfÃ®z": 6628,
      "39": 6629,
      "ĠØ¯Ø§Ø±Ø§ÛĮ": 6630,
      "ĠhunerÃª": 6631,
      "ĠâĢĮ": 6632,
      "ĠØ§Ø´Ø§Ø±Ùĩ": 6633,
      "gan": 6634,
      "azan": 6635,
      "ils": 6636,
      "ĠØŃØ±Ùģ": 6637,
      "Ġhost": 6638,
      "ĠÙĩÙĪ": 6639,
      "ĠØ®Ø§Øµ": 6640,
      "ĠØªØµÙĪ": 6641,
      "ĠÚ©ÙħÚ©": 6642,
      "ĠnivÃ®sÃª": 6643,
      "ĠnÃ®j": 6644,
      "Ġhazir": 6645,
      "ĠGulanÃª": 6646,
      "endÃª": 6647,
      "2000": 6648,
      "Ġpeyd": 6649,
      "Ġvers": 6650,
      "ĠÙ¾ÛĮØ§Ùħ": 6651,
      "WA": 6652,
      "Ã®neya": 6653,
      "Ġdixebitin": 6654,
      "Ø§Ø¯ÙĬ": 6655,
      "ĠÅŁi": 6656,
      "ĠrÃªveberÃªn": 6657,
      "Ġbedew": 6658,
      "ĠnedÃ®t": 6659,
      "Ġzarav": 6660,
      "Ġpoz": 6661,
      "Ú¯ÙĪÙĨÙĩ": 6662,
      "Ġbehs": 6663,
      "ĠØ®Ø¯": 6664,
      "ĠQud": 6665,
      "Ã©rie": 6666,
      "ĠØ³ÙĦ": 6667,
      "ible": 6668,
      "ÙĦØ§ÛĮÙĨ": 6669,
      "kerdiÅŁÃª": 6670,
      "Ø¹Ø«": 6671,
      "gerÃªn": 6672,
      "ĠMehmÃ»d": 6673,
      "jansa": 6674,
      "Ġzev": 6675,
      "ĠfÃª": 6676,
      "ovara": 6677,
      "Ġtous": 6678,
      "Ġâ": 6679,
      "Ġpropag": 6680,
      "ĠÃĬzÃ®d": 6681,
      "jÃ®n": 6682,
      "ĠhevdÃ®tinÃªn": 6683,
      "ĠÃİslam": 6684,
      "ekine": 6685,
      "ĠpirsÃ®": 6686,
      "stanÃª": 6687,
      "utilis": 6688,
      "ĠÙĤØ¨": 6689,
      "04": 6690,
      "Ø§Ø±ÛĲ": 6691,
      "ĠÙ¾Úĺ": 6692,
      "ements": 6693,
      "ĠzÃ®r": 6694,
      "ĠSilÃªmaniyÃª": 6695,
      "ĠEÅŁ": 6696,
      "Ġberde": 6697,
      "Ġyekser": 6698,
      "ĠHil": 6699,
      "ĠÃ§Ã»y": 6700,
      "Niha": 6701,
      "Ġdip": 6702,
      "ĠÚ¯ÙĪ": 6703,
      "ĠØ§ØµÙĦÛĮ": 6704,
      "?âĢĿ": 6705,
      "âĢĶ": 6706,
      "emmed": 6707,
      "ĠzarokÃª": 6708,
      "ĠheqÃ®q": 6709,
      "ĠbÃªhem": 6710,
      "ck": 6711,
      "ĠHDPÃª": 6712,
      "ĠdihÃªle": 6713,
      "emenÃ®": 6714,
      "girin": 6715,
      "yarÃ®": 6716,
      "ĠØ´Ø±Ø§ÛĮØ·": 6717,
      "ĠØŃØ¬": 6718,
      "Ġgil": 6719,
      "ĠØ¨Ø§ÙĦØ§": 6720,
      "ĠOmer": 6721,
      "ĠØ·Ø§ÙĦØ¨Ø§ÙĨÙĪ": 6722,
      "ĠØ³Ø§Ø²ÛĮ": 6723,
      "Ġgreva": 6724,
      "ĠdestnÃ®ÅŁankirin": 6725,
      "ĠJinÃªn": 6726,
      "Ġbibim": 6727,
      "ĠÚ©ÙĪÚĨ": 6728,
      "ĠHew": 6729,
      "ĠØ§ÙħØ±ÛĮÚ©Ø§": 6730,
      "ĠÙħØµØ±Ùģ": 6731,
      "Ġkena": 6732,
      "ikek": 6733,
      "ĠØºÙĪ": 6734,
      "ĠâĢĶ": 6735,
      "Ú©Ø§": 6736,
      "bn": 6737,
      "ÙĦÙĪÙħ": 6738,
      "ĠnÃ®nin": 6739,
      "Ġrojnamevan": 6740,
      "ĠÃ§Ã»ne": 6741,
      "ĠnivÃ®sandina": 6742,
      "ĠzÃªdet": 6743,
      "wanÃª": 6744,
      "ĠtÃ®pÃªn": 6745,
      "Ġzewac": 6746,
      "ĠØ²ÛĮØ¨": 6747,
      "ĠKonfer": 6748,
      "ĠDengÃª": 6749,
      "ĠwekÃª": 6750,
      "omÃª": 6751,
      "ĠÃ§endÃ®n": 6752,
      "ĠhukÃ»m": 6753,
      "Ġroleke": 6754,
      "ĠSh": 6755,
      "Ġhelbet": 6756,
      "ÚĵÛĲ": 6757,
      "Ġcardin": 6758,
      "Ġum": 6759,
      "urrezaq": 6760,
      "ĠtundÃ®": 6761,
      "ÙĨØªÛĮ": 6762,
      "Ġdigere": 6763,
      "ĠPartÃ®ya": 6764,
      "ĠsoranÃ®": 6765,
      "ĠÚĨØ§Ø±ÙĪ": 6766,
      "ĠYekÃ®tÃ®ya": 6767,
      "ĠÚ©ÙĪÙĦ": 6768,
      "ĠTel": 6769,
      "ĠØ®ÙĪØ´": 6770,
      "Ġvekirina": 6771,
      "ahÃ®ya": 6772,
      "ayetÃªn": 6773,
      "Ġuf": 6774,
      "ĠÙ¾ÛĮØ¯Ø§": 6775,
      "Ġvom": 6776,
      "ĠØ§ÙħØ±ÙĪØ²": 6777,
      "ĠQad": 6778,
      "Ġgov": 6779,
      "Â·": 6780,
      "ĠHam": 6781,
      "ĠRusya": 6782,
      "Ã®syonÃª": 6783,
      "Ġyeno": 6784,
      "ĠSpÃ®": 6785,
      "ĠqanÃ»na": 6786,
      "ĠweÅŁand": 6787,
      "ĠRÃªveber": 6788,
      "ebÃªn": 6789,
      "ĠÙĪØ±ØªÙĩ": 6790,
      "ĠÙĨØ²": 6791,
      "sed": 6792,
      "ĠBab": 6793,
      "Ġfem": 6794,
      "ĠwÃªr": 6795,
      "ĠFat": 6796,
      "ĠDir": 6797,
      "ĠBat": 6798,
      "ĠØ®Ø§ÙĨÙĪ": 6799,
      "Ġbiv": 6800,
      "ĠbirÃªve": 6801,
      "Ġdiher": 6802,
      "ĠfarisÃ®": 6803,
      "Ã´t": 6804,
      "ÛĮÙĨÚ©": 6805,
      "Ġdep": 6806,
      "Ġnat": 6807,
      "ĠÙħÙħÚ©ÙĨ": 6808,
      "ĠVan": 6809,
      "ĠØ³Ø§ÛĮ": 6810,
      "Ġqewim": 6811,
      "ĠÃ®mk": 6812,
      "emÃªn": 6813,
      "ĠÙħÙĨØ§Ø³Ø¨": 6814,
      "Ø²ÛĮÙĨÙĩ": 6815,
      "enga": 6816,
      "Ġliser": 6817,
      "ĠØ¯ÙĦÛĮÙĦ": 6818,
      "ĠÙĨØµØ¨": 6819,
      "ĠnebaÅŁ": 6820,
      "WÃ®": 6821,
      "Ġmilyar": 6822,
      "Ã®lÃªn": 6823,
      "ĠRÃªveberiya": 6824,
      "ĠamÃ»rÃªn": 6825,
      "ĠSem": 6826,
      "menÃ®": 6827,
      "ÅŁe": 6828,
      "Ġtevbi": 6829,
      "ĠÃİz": 6830,
      "07": 6831,
      "mat": 6832,
      "ĠÙħÙĩÙĨØ¯": 6833,
      "Ø±ÛĮÙħ": 6834,
      "ĠØŃØªÛĮ": 6835,
      "ÙĪÛĮØ³": 6836,
      "ourn": 6837,
      "do": 6838,
      "ØªÙĪØ§ÙĨØ¯": 6839,
      "ĠÙ¾Ø²Ø´Ú©ÛĮ": 6840,
      "Ġnewe": 6841,
      "ĠtevgerÃª": 6842,
      "ĠQazÃ®": 6843,
      "ĠÃİtal": 6844,
      "ĠemrÃª": 6845,
      "ĠrÃ»pelÃªn": 6846,
      "ĠØ±Ùĩ": 6847,
      "ĠÙĪÛĮÙĦ": 6848,
      "ĠØ®ÙĪØ¨": 6849,
      "ĠØ§Ø³Ø§Ø³": 6850,
      "ake": 6851,
      "Ã®stÃªn": 6852,
      "Ġrevandin": 6853,
      "ĠØ¨Ø§Ø´ÙĨØ¯": 6854,
      "ĠZiman": 6855,
      "ĠpÃªwendiyÃªn": 6856,
      "ÙĪÙĨÚ©ÙĬ": 6857,
      "ÙĪØ²ÛĮ": 6858,
      "ĠYan": 6859,
      "Ġsun": 6860,
      "ĠRad": 6861,
      "38": 6862,
      "Ġanku": 6863,
      "ĠganÃ®": 6864,
      "Ġgirtiyan": 6865,
      "ĠxwendevanÃªn": 6866,
      "ĠXwedayÃª": 6867,
      "iÅŁa": 6868,
      "efÃ®l": 6869,
      "Ġelle": 6870,
      "ĠÙĩØ¯Ùģ": 6871,
      "ÛĮØ§Ø³Øª": 6872,
      "Ù¾ÛĮ": 6873,
      "ĠÙĨÙģ": 6874,
      "Ġhar": 6875,
      "Ġtrans": 6876,
      "Ġperm": 6877,
      "Ø±Ø¨ÛĮ": 6878,
      "ĠØ§ÙĦØ¨": 6879,
      "ales": 6880,
      "2007": 6881,
      "ĠÅŁir": 6882,
      "ĠNewrozÃª": 6883,
      "ĠpiÅŁtgirÃ®ya": 6884,
      "Ġnedi": 6885,
      "ĠherÃª": 6886,
      "ĠbicÃ®h": 6887,
      "iyayÃ®": 6888,
      "ance": 6889,
      "Ġrencontre": 6890,
      "Ne": 6891,
      "Ġberm": 6892,
      "ĠDar": 6893,
      "Ġzul": 6894,
      "ĠBajarÃª": 6895,
      "Ġbiser": 6896,
      "ĠmirÃ®": 6897,
      "ĠmirovekÃ®": 6898,
      "Ġxistiye": 6899,
      "ĠÃ§iyayÃªn": 6900,
      "ĠØ¯ÙĪØ³Øª": 6901,
      "ĠSar": 6902,
      "ĠkarmendÃªn": 6903,
      "Ã»nd": 6904,
      "yayÃªn": 6905,
      "ĠkÃªfa": 6906,
      "ĠpÃªÅŁketÃ®": 6907,
      "Ġprem": 6908,
      "eÅŁe": 6909,
      "ĠBe": 6910,
      "Ġdikarim": 6911,
      "ĠØ§Ø±ØªØ¨Ø§Ø·": 6912,
      "ĠØ±Ø³ÛĮØ¯": 6913,
      "ĠQSD": 6914,
      "keta": 6915,
      "ĠdozÃª": 6916,
      "ĠTah": 6917,
      "ĠhÃªzeke": 6918,
      "Ġbipirs": 6919,
      "06": 6920,
      "dariyÃª": 6921,
      "ĠØ´ÙĪÙĨØ¯": 6922,
      "El": 6923,
      "400": 6924,
      "Ġteleviz": 6925,
      "ĠrÃªjÃ®mÃª": 6926,
      "ĠSerÃªk": 6927,
      "ĠniÅŁ": 6928,
      "giriya": 6929,
      "ĠpÃªÅŁwazÃ®": 6930,
      "Ġdomand": 6931,
      "ĠcureyÃªn": 6932,
      "yeke": 6933,
      "edana": 6934,
      "ica": 6935,
      "inar": 6936,
      "ĠtÃªgihÃ®ÅŁt": 6937,
      "ÛĲØ¯": 6938,
      "ĠØ¨Ø§Ø¹Ø«": 6939,
      "Ġcure": 6940,
      "Ġzal": 6941,
      "ĠÚ©ÙĨÙĨØ¯Ùĩ": 6942,
      "ĠBarzan": 6943,
      "manan": 6944,
      "ĠmayÃ®": 6945,
      "ĠÃ§ekdarÃ®": 6946,
      "ĠfÃ®lm": 6947,
      "aÅŁo": 6948,
      "ĠRob": 6949,
      ",\"": 6950,
      "PAR": 6951,
      "Ø³Ø±": 6952,
      "ĠKurdÃ®stanÃª": 6953,
      "ĠpolÃ®tÃ®kaya": 6954,
      "Ġqereq": 6955,
      "ayene": 6956,
      "Ġgundan": 6957,
      "ĠmedyayÃª": 6958,
      "ĠpÃªÅŁniya": 6959,
      "ĠdibistanÃªn": 6960,
      "ude": 6961,
      "ĠØŃØ¶Ø±Øª": 6962,
      "ĠÙĨØ®": 6963,
      "Ġwef": 6964,
      "gÃªn": 6965,
      "Ġdewleteke": 6966,
      "Ġvekin": 6967,
      "ĠtijÃ®": 6968,
      "Ġdolar": 6969,
      "ÅŁÃªn": 6970,
      "Ġdibistanan": 6971,
      "ĠÙĨÙĪØ±ÙĪ": 6972,
      "kanÃ®": 6973,
      "eyeka": 6974,
      "lad": 6975,
      "ĠØªØ£": 6976,
      "gez": 6977,
      "Ú¯Ø±Ø§Ùħ": 6978,
      "ĠMalb": 6979,
      "ĠAzerb": 6980,
      "ĠÅŀÃª": 6981,
      "ĠXweser": 6982,
      "ĠpÃªÅŁveÃ§Ã»na": 6983,
      "scht": 6984,
      "ĠSala": 6985,
      "Ø±ÛĮÙĨ": 6986,
      "Ø§Ø³ÙĪ": 6987,
      "Ġconc": 6988,
      "Ġwina": 6989,
      "ĠdawÃ®ya": 6990,
      "ĠlÃ®": 6991,
      "Ġteqez": 6992,
      "ĠAzadÃ®": 6993,
      "ĠÃ§ewt": 6994,
      "ĠÙ¾ÙĨ": 6995,
      "Ġpouv": 6996,
      "ÙĪØ¯ÛĮ": 6997,
      "Ġhis": 6998,
      "Ġgsi": 6999,
      "ÙħØ§ÙĨÛĮ": 7000,
      "ilan": 7001,
      "ĠÚ©ÙħÛĮ": 7002,
      "pat": 7003,
      "ozan": 7004,
      "giriyÃª": 7005,
      "EndamÃª": 7006,
      "ĠprojeyÃªn": 7007,
      "ĠketibÃ»": 7008,
      "Ġneket": 7009,
      "ute": 7010,
      "ĠlÃ®s": 7011,
      "Ø°ÛĮØ±": 7012,
      "ĠÙĤØ¨ÙĦ": 7013,
      "Ø²Ø§Ø±ÛĮ": 7014,
      "Ø¯ÙħØ§Øª": 7015,
      "Ġprofes": 7016,
      "ĠProf": 7017,
      "PKK": 7018,
      "Ã®va": 7019,
      "Ġnedik": 7020,
      "ĠtexmÃ®n": 7021,
      "Ġdixebite": 7022,
      "ĠbinivÃ®se": 7023,
      "ĠÙĩÛĲÙĪØ§Ø¯": 7024,
      "Ġprodu": 7025,
      "ĠØ§ÙĪØ±": 7026,
      "ĠÙħØ§ÙĨÙĨØ¯": 7027,
      "2010": 7028,
      "usÃª": 7029,
      "ĠbikerÃª": 7030,
      "//": 7031,
      "alek": 7032,
      "ĠÃ§a": 7033,
      "ĠÚ©Ø³Ø¨": 7034,
      "Ġprob": 7035,
      "Ġtesb": 7036,
      "ĠbenÃª": 7037,
      "ĠnivÃ®sÃ®": 7038,
      "ĠcidÃ®": 7039,
      "ĠbalafirÃªn": 7040,
      "ĠjÃ®yan": 7041,
      "Ġnezan": 7042,
      "Ġrojav": 7043,
      "ĠpÃªÅŁxistina": 7044,
      "ĠØ²ÙħÛĮÙĨÙĩ": 7045,
      "Ã»p": 7046,
      "Ġtine": 7047,
      "ĠrojÃ®": 7048,
      "SÃª": 7049,
      "ĠpÃªvajoy": 7050,
      "Ġmezh": 7051,
      "unÃª": 7052,
      "ĠbajarokÃª": 7053,
      "Ġfirotina": 7054,
      "ĠSovyetÃª": 7055,
      "ĠarmancÃª": 7056,
      "erÃ®f": 7057,
      "Ġtil": 7058,
      "ĠÙħÙĪØ§Ø¯": 7059,
      "Ġmek": 7060,
      "Ġaltern": 7061,
      "ĠXw": 7062,
      "ĠtesÃ®r": 7063,
      "reyÃª": 7064,
      "ĠfikrÃªn": 7065,
      "ĠEbÃ»": 7066,
      "iyÃ®": 7067,
      "ĠÅŁek": 7068,
      "ĠKal": 7069,
      "gÃ®d": 7070,
      "ĠtaybetmendiyÃªn": 7071,
      "ĠMek": 7072,
      "ĠDon": 7073,
      "ĠÚ¯Ø°Ø´ØªÙĩ": 7074,
      "Ø¢ÙĨ": 7075,
      "Ġrij": 7076,
      "jÃª": 7077,
      "xaneyÃªn": 7078,
      "wirmend": 7079,
      "Ġgeh": 7080,
      "ĠMah": 7081,
      "act": 7082,
      "ges": 7083,
      "arÃ®yÃª": 7084,
      "girtinÃª": 7085,
      "ĠÃ§ir": 7086,
      "ĠNeteweyÃ®": 7087,
      "Ġlui": 7088,
      "Gava": 7089,
      "ĠØ§Ø±ÙĪ": 7090,
      "yt": 7091,
      "Ġir": 7092,
      "ÙĪØ²Ùĩ": 7093,
      "ita": 7094,
      "HÃ»n": 7095,
      "ĠdawÃ®yÃª": 7096,
      "ĠdikÅŁ": 7097,
      "ĠmilÃ®": 7098,
      "Ġsif": 7099,
      "ĠTaybet": 7100,
      "ĠØ·Ø±Ùģ": 7101,
      "ÙģÙĤ": 7102,
      "ĠJoh": 7103,
      "ĠpÃ®l": 7104,
      "Ġrojhilata": 7105,
      "ĠdinivÃ®se": 7106,
      "istÃ®": 7107,
      "gotin": 7108,
      "itt": 7109,
      "elles": 7110,
      "Ø´ÙĤ": 7111,
      "yara": 7112,
      "ĠrewÅŁenbÃ®rÃªn": 7113,
      "ĠÃ§aw": 7114,
      "ĠHecÃ®": 7115,
      "ĠfÃªrÃ®": 7116,
      "Ð¾": 7117,
      "ĠØ¨ÛĮØ§ÙĨ": 7118,
      "Ø§ÙĩØ´": 7119,
      "ĠNem": 7120,
      "Ġsol": 7121,
      "ĠÙħÙĩØ±": 7122,
      "ino": 7123,
      "ĠØºØ°": 7124,
      "mendÃ®": 7125,
      "ĠØ®ÙĪØ§": 7126,
      "ĠØ³Ø·": 7127,
      "Ġant": 7128,
      "ĠÙĦÙĪØ¨": 7129,
      "ĠØ¬Ø²": 7130,
      "ĠEbdurrezaq": 7131,
      "Ú©Ø§Ø±ÛĮ": 7132,
      "ĠÙĨÙģØ±": 7133,
      "ĠArÃ®": 7134,
      "Ġbazara": 7135,
      "ĠherdÃ»": 7136,
      "Ġdigrin": 7137,
      "ĠkaranÃ®na": 7138,
      "ĠÃĩend": 7139,
      "Ġsivik": 7140,
      "Mirov": 7141,
      "ĠtemsÃ®l": 7142,
      "ĠMisilman": 7143,
      "ĠamerÃ®k": 7144,
      "ĠÙħØ¬ÙħÙĪØ¹Ùĩ": 7145,
      "ĠÙħØ´Ø±": 7146,
      "ĠÙħÙĪØ¬ÙĪØ¯": 7147,
      "ĠÙħØ´Ø®Øµ": 7148,
      "ØªÙĦ": 7149,
      "ÙĪØ§Ø¹": 7150,
      "ĠBas": 7151,
      "ØµÙĩ": 7152,
      "dogan": 7153,
      "ĠÙģÙĤØ·": 7154,
      "ĠxÃªra": 7155,
      "xin": 7156,
      "ÛĮØ±ÙĪ": 7157,
      "ris": 7158,
      "ĠÚĨØ±Ø§": 7159,
      "ĠrÃ©s": 7160,
      "ionn": 7161,
      "Ġdiff": 7162,
      "ĠØ®ÙĪØ§ÙĨ": 7163,
      "Ġrek": 7164,
      "BelÃª": 7165,
      "ĠtecrÃ»b": 7166,
      "omarÃª": 7167,
      "ĠQendÃ®lÃª": 7168,
      "Heke": 7169,
      "Ġhaya": 7170,
      "Ġreq": 7171,
      "ĠÙģÙĦ": 7172,
      "Ġge": 7173,
      "Ã¾": 7174,
      "ĠÙĨÙħÙĪÙĨÙĩ": 7175,
      "Ġtattoo": 7176,
      "ĠberamberÃ®": 7177,
      "ĠÃĩimkÃ®": 7178,
      "Ġdamezrandina": 7179,
      "BerÃ®": 7180,
      "rÃ®n": 7181,
      "ĠcÃ®hÃª": 7182,
      "Ġkerema": 7183,
      "ĠdizanÃ®": 7184,
      "Ġberpirsiy": 7185,
      "Ġkomkujiya": 7186,
      "ĠÙĪÛĮÚĺÙĩ": 7187,
      "oÄŁan": 7188,
      "ĠØ¢ÙħÙĪØ²Ø´ÛĮ": 7189,
      "esÃ®": 7190,
      "Ġnotre": 7191,
      "ĠKol": 7192,
      "ĠNY": 7193,
      "Ġeve": 7194,
      "ication": 7195,
      "ĠMele": 7196,
      "ĠviraÅŁt": 7197,
      "ĠMesÃ®h": 7198,
      "ĠbÃ»ya": 7199,
      "Ġsiwar": 7200,
      "ĠMizg": 7201,
      "Ġguhertina": 7202,
      "ĠcivatÃª": 7203,
      "Ã¤n": 7204,
      "ĠTevÃ®": 7205,
      "Ġgotinan": 7206,
      "ĠÅŁima": 7207,
      "Ġdihes": 7208,
      "Ġhatibe": 7209,
      "Ġbinirx": 7210,
      "ĠtunebÃ»": 7211,
      "ĠØ¯Ùģ": 7212,
      "iers": 7213,
      "Ġpor": 7214,
      "set": 7215,
      "ĠTirkÃ®yeyÃª": 7216,
      "ĠkirinÃª": 7217,
      "ĠÃ§emÃª": 7218,
      "ĠRÃ»dawÃª": 7219,
      "ĠgazÃ®": 7220,
      "ĠÃ§Ãªbibe": 7221,
      "ĠnavendÃªn": 7222,
      "ĠwÃªne": 7223,
      "05": 7224,
      "Ġnizane": 7225,
      "ĠÙ¾ÙĪÙĦ": 7226,
      "Ã§ik": 7227,
      "izan": 7228,
      "reÅŁ": 7229,
      "Ġvegotin": 7230,
      "ØµØ±": 7231,
      "bara": 7232,
      "ĠØªÙĪØ³Ø¹Ùĩ": 7233,
      "ĠÙģØ±ÙĩÙĨÚ¯ÛĮ": 7234,
      "ĠAw": 7235,
      "ĠØ¢Ø®Ø±": 7236,
      "ĠNATO": 7237,
      "Ġhelbestvan": 7238,
      "Ġama": 7239,
      "Ġpi": 7240,
      "Ġfit": 7241,
      "ĠÙħÛĮØ§ÙĨ": 7242,
      "ĠÃ©l": 7243,
      "Ġvaj": 7244,
      "Ġfin": 7245,
      "Duh": 7246,
      "ĠÙħÚ©": 7247,
      "bijartin": 7248,
      "Ġhatim": 7249,
      "Ø±Ø§Ùģ": 7250,
      "embre": 7251,
      "ĠÚļÙĩ": 7252,
      "ĠØ§ÙģØª": 7253,
      "ĠØ§ÙĨÙĪØ§Ø¹": 7254,
      "ĠgerÃ®layÃªn": 7255,
      "ĠØ§Ø®Øª": 7256,
      "ĠÃĩewl": 7257,
      "Ġpenaberan": 7258,
      "Ġhevalan": 7259,
      "ĠzÃªr": 7260,
      "ĠdostÃªn": 7261,
      "ĠCiwan": 7262,
      "baÅŁ": 7263,
      "Ã®ÅŁÃª": 7264,
      "ĠKit": 7265,
      "ĠØ³ÙĨÚ¯": 7266,
      "ultan": 7267,
      "Ø³Ø±Ùĩ": 7268,
      "Ġbaw": 7269,
      "ĠÃªzdÃ®": 7270,
      "Ø§ÙĨØª": 7271,
      "ĠsilavÃªn": 7272,
      "ĠrabÃ»n": 7273,
      "ĠdestpÃªkirina": 7274,
      "tÃ»": 7275,
      "ĠpÃªÅŁk": 7276,
      "ĠrÃªhev": 7277,
      "acebo": 7278,
      "IS": 7279,
      "ĠPal": 7280,
      "ĠÙĩÙĨØ¯": 7281,
      "ĠØµÙģØŃÙĩ": 7282,
      "Ġmih": 7283,
      "ĠMixabin": 7284,
      "Ġbex": 7285,
      "Ġnehatine": 7286,
      "ĠMamost": 7287,
      "ĠYÃª": 7288,
      "ĠCon": 7289,
      "Ġdesthilata": 7290,
      "ĠÚīÛĲØ±": 7291,
      "eme": 7292,
      "ĠBah": 7293,
      "ly": 7294,
      "Ġdav": 7295,
      "ĠFeq": 7296,
      "ĠCiwanÃªn": 7297,
      "Ġdagirkeriya": 7298,
      "ĠGirtÃ®geha": 7299,
      "Ġceh": 7300,
      "ĠÙħØ³ØªÙĤ": 7301,
      "iyeka": 7302,
      "ann": 7303,
      "ĠreferandÃ»mÃª": 7304,
      "Ø§Ø¨Øª": 7305,
      "evanÃª": 7306,
      "Ġgerek": 7307,
      "ĠÅŀehÃ®dÃªn": 7308,
      "Ġhovane": 7309,
      "Ø¨ÛĮØ±": 7310,
      "Ã¼t": 7311,
      "ĠØ¬Ú«": 7312,
      "ĠKa": 7313,
      "ĠØ¬Ø§ÙħØ¹Ùĩ": 7314,
      "bert": 7315,
      "Ġnep": 7316,
      "ÛĮÙĨÙĪ": 7317,
      "ĠrÃªyÃªn": 7318,
      "ĠhingÃ®": 7319,
      "ĠPAKÃª": 7320,
      "ĠlÃªkolÃ®nÃª": 7321,
      "ĠverÃª": 7322,
      "ĠmirovÃª": 7323,
      "Kurdistan": 7324,
      "ender": 7325,
      "asa": 7326,
      "ĠØ³ÙĦØ§Ùħ": 7327,
      "ĠfestÃ®v": 7328,
      "ĠbalÃª": 7329,
      "Ġdayin": 7330,
      "ĠvanÃª": 7331,
      "Ã»kÃª": 7332,
      "ĠsÃªyemÃ®n": 7333,
      "nanÃª": 7334,
      "ĠØ³Ø§Ùħ": 7335,
      "Ø¬ÙħÙĩ": 7336,
      "Ã®jin": 7337,
      "ĠÙĦÙĪÙħ": 7338,
      "eyna": 7339,
      "eber": 7340,
      "ĠÙ¾Ø§": 7341,
      "hez": 7342,
      "ĠedebÃ®": 7343,
      "ĠQasim": 7344,
      "iÅŁtina": 7345,
      "ĠÃªvarÃª": 7346,
      "Ġtehl": 7347,
      "Ġnedih": 7348,
      "Ġzanin": 7349,
      "ĠHÃª": 7350,
      "lÃªv": 7351,
      "Ġdaxuyaniyek": 7352,
      "geheke": 7353,
      "bÃ®rÃªn": 7354,
      "Ġvedike": 7355,
      "02": 7356,
      "Ø¨Ø±ÛĮ": 7357,
      "Ġpad": 7358,
      "Ġway": 7359,
      "ĠØªÛĮ": 7360,
      "ĠØ¬ÙĪØ§ÙĨ": 7361,
      "ĠewlehiyÃª": 7362,
      "Ù¾ÙĪØ±": 7363,
      "ĠÚ©Ø§Ø¨ÙĦ": 7364,
      "ĠBerÃª": 7365,
      "ĠeÅŁÃ®r": 7366,
      "Ġnika": 7367,
      "ĠesasÃª": 7368,
      "Ã®hev": 7369,
      "het": 7370,
      "ĠMak": 7371,
      "Ġtewr": 7372,
      "ĠpaÅŁeroj": 7373,
      "Ġbombebaran": 7374,
      "ĠÃ§erm": 7375,
      "abadÃª": 7376,
      "ĠÙĨÙĪØ¹": 7377,
      "ĠÚĺÙĪÙĨØ¯": 7378,
      "Ġvos": 7379,
      "ĠØ¨Ø§ÙĨÚ©": 7380,
      "Ġsirg": 7381,
      "ĠHeleb": 7382,
      "ĠbÃ®ran": 7383,
      "ĠÃ§ew": 7384,
      "Ø§Ø´Ø¯": 7385,
      "ĠxwezayÃª": 7386,
      "75": 7387,
      "Ø´ÙĨØ¨Ùĩ": 7388,
      "ehman": 7389,
      "ets": 7390,
      "Ø¯Ø§Ø´Øª": 7391,
      "ĠrÃ®w": 7392,
      "ĠheÅŁt": 7393,
      "ĠmÃªvan": 7394,
      "ĠÙĩØ§ÛĮÛĮ": 7395,
      "Ġkovar": 7396,
      "ĠdÃ»v": 7397,
      "Ġdibistan": 7398,
      "ĠQer": 7399,
      "Ġtrava": 7400,
      "ĠMi": 7401,
      "ĠTil": 7402,
      "Ú¯Ø±Ø§ÙĨ": 7403,
      "ĠAhmed": 7404,
      "Ø³ØªØ±": 7405,
      "ĠØªØ§Ø¨": 7406,
      "alitÃ©": 7407,
      "ĠÛĮÙĩ": 7408,
      "ĠØ§ÙĨÙĤÙĦ": 7409,
      "ĠMijdarÃª": 7410,
      "Ġtevdi": 7411,
      "Ġbizanin": 7412,
      "ĠnÃ»Ã§eyan": 7413,
      "ĠÙĨØ¯Ø§Ø±Ø¯": 7414,
      "Ġnev": 7415,
      "bu": 7416,
      "Ġnen": 7417,
      "esa": 7418,
      "ĠÃ§imkÃ®": 7419,
      "Ġtesp": 7420,
      "ĠbeÅŁdariya": 7421,
      "ĠÙ¾ÚļØª": 7422,
      "ĠÃ§arÃ§oveyÃª": 7423,
      "ĠbibÃ®": 7424,
      "ÙĪØ§Ø±Ùĩ": 7425,
      "Ġhizir": 7426,
      "mal": 7427,
      "ĠÙĪØ§ÙĦ": 7428,
      "Ø·ÙĪØ±": 7429,
      "hej": 7430,
      "ĠdaxuyaniyekÃª": 7431,
      "ĠerdnÃ®g": 7432,
      "ĠÃ®ÅŁkenc": 7433,
      "Ġxelet": 7434,
      "ĠstratejÃ®k": 7435,
      "ĠevÃ®ndar": 7436,
      "ĠÈĻ": 7437,
      "ĠtirÅŁikÃª": 7438,
      "ammed": 7439,
      "2008": 7440,
      "ĠÙĪØ¶": 7441,
      "ĠØ¢Ø³ÛĮ": 7442,
      "ĠÙ¾Ø§Ø³Ø®": 7443,
      "Ġmeseleya": 7444,
      "Ġkomek": 7445,
      "ĠpevÃ§Ã»nÃªn": 7446,
      "ĠÃĩap": 7447,
      "ĠÙ¼ÙĪÙĦÙĪ": 7448,
      "ĠKurmancÃ®": 7449,
      "tinÃªn": 7450,
      "ten": 7451,
      "Ù¾ÙĪ": 7452,
      "ĠÃ¤": 7453,
      "ĠRih": 7454,
      "ĠTC": 7455,
      "ovÃ®": 7456,
      "Ġkuj": 7457,
      "ĠNÃ»n": 7458,
      "Ġhevr": 7459,
      "WekÃ®": 7460,
      "ĠteslÃ®m": 7461,
      "ĠdÃ®san": 7462,
      "Ġdayika": 7463,
      "ru": 7464,
      "iwan": 7465,
      "pos": 7466,
      "ĠØªØ¹Ø¯": 7467,
      "ĠFeder": 7468,
      "ÚļÛĲ": 7469,
      "PDK": 7470,
      "Ġans": 7471,
      "ĠpÃªxember": 7472,
      "ĠDilÃª": 7473,
      "Ġberda": 7474,
      "wisa": 7475,
      "lekÃ®": 7476,
      "Ġdiger": 7477,
      "eteke": 7478,
      "ĠberÃ§av": 7479,
      "ĠDen": 7480,
      "ĠhilberÃ®na": 7481,
      "ĠnexweÅŁiya": 7482,
      "ĠÃ§Ãªdike": 7483,
      "ÅŁik": 7484,
      "ĠkeÃ§Ãªn": 7485,
      "ĠØ®ÙĪÙĨ": 7486,
      "ĠSE": 7487,
      "Ġdidim": 7488,
      "ĠÚ¯ÛĮØ±": 7489,
      "ÙĨØ´": 7490,
      "ĠÙħØ¨Ø§Ø±": 7491,
      "ĠÙħØ´Ùĩ": 7492,
      "ĠØ¨ÙĩØªØ±": 7493,
      "ØªÛĮØ§": 7494,
      "Ġbuy": 7495,
      "Ġnus": 7496,
      "Ġsep": 7497,
      "ĠMinbicÃª": 7498,
      "ĠniÅŁtec": 7499,
      "isyona": 7500,
      "ĠvÃ®na": 7501,
      "ĠØ²ÛĮØ¨Ø§": 7502,
      "ĠbÃ®ranÃ®na": 7503,
      "Ġxwarina": 7504,
      "ĠRewÅŁa": 7505,
      "Ø±Ø¨Ùĩ": 7506,
      "Ġzewic": 7507,
      "Ġsaliya": 7508,
      "ĠØ¢ÙĤ": 7509,
      "ĠÙĪÚ©ÚĵÙĬ": 7510,
      "ats": 7511,
      "ĠÚģØ§ÛĮ": 7512,
      "ĠÙ¾ÚĺÙĪÙĩ": 7513,
      "ĠÙħÙĨØ·ÙĤÙĩ": 7514,
      "PÃªÅŁ": 7515,
      "deya": 7516,
      "ĠsÃ®nem": 7517,
      "ĠBirÃªz": 7518,
      "ropÃ®": 7519,
      "Ġwelatiyan": 7520,
      "ĠdÃ®tiye": 7521,
      "ĠcÃ®han": 7522,
      "kariya": 7523,
      "ebil": 7524,
      "ĠbersÃ®v": 7525,
      "ÙĩÙħ": 7526,
      "Ġvis": 7527,
      "liman": 7528,
      "efta": 7529,
      "ĠTirkÃ®ye": 7530,
      "Ø±ÛĮÙģ": 7531,
      "gÃ®r": 7532,
      "ĠSÃªr": 7533,
      "emiyÃª": 7534,
      "Ġfirot": 7535,
      "ĠmÃªrx": 7536,
      "ĠÙĤØ¯Ø±Øª": 7537,
      "Ä±m": 7538,
      "ÙĨÛį": 7539,
      "ÙĨØ¯Ú¯Ø§ÙĨ": 7540,
      "PYD": 7541,
      "ĠdabÃ»n": 7542,
      "ĠTebaxÃª": 7543,
      "ĠVa": 7544,
      "ĠfÃ®lmÃªn": 7545,
      "DÃª": 7546,
      "ejmara": 7547,
      "ĠnÃ»Ã§eya": 7548,
      "ĠverÃªn": 7549,
      "Ġkaribe": 7550,
      "ction": 7551,
      "ung": 7552,
      "Ã¶r": 7553,
      "48": 7554,
      "ĠØ³ÙģØ±": 7555,
      "bera": 7556,
      "ĠserokwezÃ®rÃª": 7557,
      "ĠaktÃ®v": 7558,
      "ĠbÃ»yÃ®": 7559,
      "ĠpirtÃ»kan": 7560,
      "ĠrewÅŁÃªn": 7561,
      "Ø²ÙĬ": 7562,
      "Ġgl": 7563,
      "Ġnikarim": 7564,
      "ĠØ¯Ú©ØªØ±": 7565,
      "Ġzel": 7566,
      "hal": 7567,
      "ĠØ¨Ø§Ø´ÛĮØ¯": 7568,
      "ĠEwlek": 7569,
      "ejna": 7570,
      "Ġrojeva": 7571,
      "ĠÅŁexs": 7572,
      "ĀĀĀĀĀĀĀĀ": 7573,
      "Ġmum": 7574,
      "Hat": 7575,
      "ĠbÃªt": 7576,
      "iter": 7577,
      "ĠØ§Ø±Ø¯": 7578,
      "ĠØªÙĪÚ«Ùĩ": 7579,
      "ĠÙħØ³Ø¦ÙĪÙĦ": 7580,
      "ĠTey": 7581,
      "ĠnÃªrÃ®na": 7582,
      "Ġgiha": 7583,
      "ĠÅŀoreÅŁger": 7584,
      "ĠÃİraqÃ®": 7585,
      "Ġbisekinin": 7586,
      "xÃ®": 7587,
      "Ġditirs": 7588,
      "ĠbÃªhna": 7589,
      "ĠHema": 7590,
      "ĠNÃªz": 7591,
      "ĠØ±Ø¦ÛĮØ³": 7592,
      "Ġagahdariya": 7593,
      "Ġlo": 7594,
      "Ø«ÛĮØ±": 7595,
      "ĠÙĩÙģØª": 7596,
      "ĠØ¨Ø¯ÙĨ": 7597,
      "Ġos": 7598,
      "ĠÃ§apemeniya": 7599,
      "ĠÅŁax": 7600,
      "ĠpiranÃ®ya": 7601,
      "ĠmehÃªn": 7602,
      "ĠÃ§areserkirin": 7603,
      "ĠpÃªÅŁengiya": 7604,
      "ĠØ®Ø§ÙĨÙĪØ§Ø¯Ùĩ": 7605,
      "ĠMÃ®nak": 7606,
      "ĠÙĤØ¯": 7607,
      "ĠØ¯Ø±Ø³": 7608,
      "ĠÚ©Ø§Ùģ": 7609,
      "ĠÙĦØ±": 7610,
      "Ã§i": 7611,
      "ĠØ¢ÛĮ": 7612,
      "ĠÙħÙĪØ²ÛĮÚ©": 7613,
      "Ú©ÙĪØ±": 7614,
      "ĠserekÃ®": 7615,
      "Ġxwendekaran": 7616,
      "ĠGoran": 7617,
      "ĠdirÃ»ÅŁ": 7618,
      "Ġnedikir": 7619,
      "ĠrÃªzÃª": 7620,
      "Ġnetewa": 7621,
      "ĠrengÃ®n": 7622,
      "eriyÃª": 7623,
      "ĠÙħÙĦÙĬ": 7624,
      "ĠxerÃ®b": 7625,
      "Ġfree": 7626,
      "ĠØ§ØŃØ³": 7627,
      "ĠØ³Ø®": 7628,
      "urop": 7629,
      "Ġdever": 7630,
      "ĠArif": 7631,
      "udÃª": 7632,
      "ĠkÃªleka": 7633,
      "ĠAgirÃ®": 7634,
      "warÃ®": 7635,
      "ĠjÃªd": 7636,
      "Ã®tÃ®yÃª": 7637,
      "imÃªn": 7638,
      "ĠÚ©Ø±Ø¯ÙĨØ¯": 7639,
      "ĠÙħØ°": 7640,
      "Ġeff": 7641,
      "Ġqat": 7642,
      "ÛĮÙĨÚ¯": 7643,
      "ĠÚģÚ©Ùĩ": 7644,
      "Ġgaran": 7645,
      "loyÃª": 7646,
      "ari": 7647,
      "ĠnebÃ»n": 7648,
      "ĠEreban": 7649,
      "ĠdijminÃªn": 7650,
      "HD": 7651,
      "ĠMet": 7652,
      "ĠBelkÃ®": 7653,
      "Ġcas": 7654,
      "doz": 7655,
      "Ġport": 7656,
      "Ġhewqas": 7657,
      "gh": 7658,
      "Ã®ngÃª": 7659,
      "ĠÃĬzÃ®dÃ®": 7660,
      "ĠpiÅŁtevaniya": 7661,
      "jmin": 7662,
      "Ã®ÅŁÃªn": 7663,
      "ĠÃ§endÃ®": 7664,
      "Ã§ek": 7665,
      "ĠHusÃªn": 7666,
      "retÃª": 7667,
      "Ġbertek": 7668,
      "ĠpÃ®vanÃªn": 7669,
      "ize": 7670,
      "ĠFederal": 7671,
      "Ġdonn": 7672,
      "ison": 7673,
      "ĠÚ©ÙĦÙĩ": 7674,
      "ĠPÃªÅŁmerg": 7675,
      "ĠÅŀirnexÃª": 7676,
      "ĠYekÃ®neyÃªn": 7677,
      "eÅŁÃª": 7678,
      "ĠPÃ®roz": 7679,
      "VÃª": 7680,
      "Ġmesele": 7681,
      "ĠpÃªÅŁeroja": 7682,
      "Ġagirbest": 7683,
      "Ġberpirsiyar": 7684,
      "eserÃ®": 7685,
      "ĠEncÃ»mena": 7686,
      "Ġqehrem": 7687,
      "ĠÚĨØ§": 7688,
      "ĠØ§Ø«Ø±": 7689,
      "ĠÚ©Ø§ÙĩØ´": 7690,
      "ĠØ®Ø¯ÙħØ§Øª": 7691,
      "ĠÚĨÙĪÙĨ": 7692,
      "ĠPl": 7693,
      "Ġtol": 7694,
      "ĠTh": 7695,
      "ĠØ¹ÙĦÙħÛĮ": 7696,
      "kerdiÅŁ": 7697,
      "ĠÃ§iqasÃ®": 7698,
      "ĠÅŀeh": 7699,
      "Ġveke": 7700,
      "ĠÃ§ÃªbÃ»ye": 7701,
      "Ġajansa": 7702,
      "ekarÃ®": 7703,
      "ĠÃİranÃ®": 7704,
      "ĠAp": 7705,
      "ĠÃ§erÃ§oveyÃª": 7706,
      "otam": 7707,
      "Ġesto": 7708,
      "eda": 7709,
      "ĠØ¬ÙĦ": 7710,
      "kur": 7711,
      "Ġxistine": 7712,
      "Ġfot": 7713,
      "ĠQet": 7714,
      "ĠHiz": 7715,
      "Ġnemaye": 7716,
      "Ġgotara": 7717,
      "ĠÅŁÃªr": 7718,
      "ĠAzadiya": 7719,
      "Ã®p": 7720,
      "tar": 7721,
      "ibÃ®nin": 7722,
      "Ø³Ø¨": 7723,
      "ĠErz": 7724,
      "ĠØ²ÛĮØ§Ø¯ÛĮ": 7725,
      "Ġprov": 7726,
      "ĠtesÃ®ra": 7727,
      "ĠÅŁirk": 7728,
      "itiyÃª": 7729,
      "Ġtemps": 7730,
      "Ġvegeriya": 7731,
      "ĠguhÃª": 7732,
      "mek": 7733,
      "rak": 7734,
      "Ġsera": 7735,
      "Ġfeder": 7736,
      "YPG": 7737,
      "ĠStock": 7738,
      "Ġkerdo": 7739,
      "ĠhÃ®k": 7740,
      "ĠbawerÃ®ya": 7741,
      "Ã®kal": 7742,
      "bidest": 7743,
      "ĠEwrÃ»pa": 7744,
      "Ø§ÙħÛĮÙĨ": 7745,
      "ĠBerpirs": 7746,
      "Ġkif": 7747,
      "ĠsÃ»rÃ®": 7748,
      "ĠØ¯ÙģØ§": 7749,
      "ĠaÅŁkera": 7750,
      "ĠfeqÃ®r": 7751,
      "ĠpÃªkhateyÃªn": 7752,
      "Ã¨me": 7753,
      "Ġpeu": 7754,
      "atch": 7755,
      "Ya": 7756,
      "olan": 7757,
      "âĢİ": 7758,
      "ĠØ³ØªØ±": 7759,
      "ĠXir": 7760,
      "Ġvano": 7761,
      "ĠkitÃªba": 7762,
      "ĠniqaÅŁ": 7763,
      "ĠSerÃª": 7764,
      "WÃª": 7765,
      "ĠbÃªhempa": 7766,
      "Heta": 7767,
      "ĠagirÃª": 7768,
      "komarÃª": 7769,
      "ĠÃ§Ã»na": 7770,
      "ĠØ¬ÙħÙĦÙĩ": 7771,
      "ĠØ¢Øº": 7772,
      "Ø±Ø®": 7773,
      ".âĢĻâĢĻ": 7774,
      "ĠÙĪØ§ÛĮ": 7775,
      "2006": 7776,
      "ĠØ¨ÙĪ": 7777,
      "):": 7778,
      "ĠÙģØ±Ø§": 7779,
      "Ġproblem": 7780,
      "ĠhilbijÃªre": 7781,
      "Ġhild": 7782,
      "ĠBotan": 7783,
      "ÙĬÙħ": 7784,
      "ĠÅŁerÃªn": 7785,
      "Ġrez": 7786,
      "Ġkongreya": 7787,
      "ÙĪÛĮØª": 7788,
      "ayÃ®ÅŁÃ®": 7789,
      "ĠkapÃ®t": 7790,
      "Ġaxif": 7791,
      "ĠÃĬr": 7792,
      "ĠmezintirÃ®n": 7793,
      "ĠÙĪØ²ÛĮØ±": 7794,
      "ĠJap": 7795,
      "Ġhom": 7796,
      "ĠÙħÙĨØ¸": 7797,
      "Ġtay": 7798,
      "andar": 7799,
      "Ġtur": 7800,
      "tiq": 7801,
      "Ġlawaz": 7802,
      "ĠradestÃ®": 7803,
      "Ġteybet": 7804,
      "Ġserkird": 7805,
      "Ġpeyvan": 7806,
      "ĠxizmetÃªn": 7807,
      "ĠDÃªrsimÃª": 7808,
      "ĠtÃªkÃ§Ã»na": 7809,
      "ĠdiÅŁew": 7810,
      "ĠÙħØ·Ø§ÙĦ": 7811,
      "ĠRej": 7812,
      "ĠIng": 7813,
      "ĠØ·ÙĪØ±": 7814,
      "uer": 7815,
      "Ġbikaribe": 7816,
      "Ġkinc": 7817,
      "andibÃ»": 7818,
      "ĠkongreyÃª": 7819,
      "danÃ®": 7820,
      "Ã®girÃª": 7821,
      "ĠbirÃªvebirin": 7822,
      "onan": 7823,
      "ĠÃ®ranÃ®": 7824,
      "ĠAP": 7825,
      "Ġbun": 7826,
      "ĠtÃªkiliyÃª": 7827,
      "Ġth": 7828,
      "ĠcrÃ©": 7829,
      "ÙĦÛĮØª": 7830,
      "kara": 7831,
      "aseb": 7832,
      "ĠQed": 7833,
      "ĠxanÃ®": 7834,
      "Ġneda": 7835,
      "ĠqanÃ»nÃªn": 7836,
      "ĠÙĦØŃ": 7837,
      "ĠÅŁewitandin": 7838,
      "Ġketina": 7839,
      "ĠrefÃªn": 7840,
      "á¸¥": 7841,
      "ĠØ¨ÙĪØ¯ÙĨØ¯": 7842,
      "ĠÙĪÚĵØ§ÙĨØ¯ÛĲ": 7843,
      "II": 7844,
      "ĠØ²ÙĬ": 7845,
      "1990": 7846,
      "Ġreb": 7847,
      "ĠØ´Ú©ÙĦ": 7848,
      "Ø§Ø¯Øª": 7849,
      "ĠfÃ»t": 7850,
      "Ø¬ÙĪ": 7851,
      "Ġberpirsyar": 7852,
      "ĠCemÃ®l": 7853,
      "ĠaramÃ®": 7854,
      "ĠÃ§alakiyan": 7855,
      "ĠTehranÃª": 7856,
      "ĠderdorÃª": 7857,
      "ĠØ±ÙĪØº": 7858,
      "ĠgundekÃ®": 7859,
      "ĠprensÃ®": 7860,
      "Ġdoktor": 7861,
      "ÙĨÚī": 7862,
      "ĠØŃØ³Ø§Ø¨": 7863,
      "ĠOn": 7864,
      "Ø§ÙĨØ³": 7865,
      "Ġnu": 7866,
      "ĠAnat": 7867,
      "ĠÚ¯ÛĮ": 7868,
      "Ġmam": 7869,
      "iel": 7870,
      "ĠAzerbay": 7871,
      "ĠAÅŁ": 7872,
      "ĠmeÅŁa": 7873,
      "oÅŁin": 7874,
      "aziyÃªn": 7875,
      "ĠameyÃ®": 7876,
      "ĠmÃªze": 7877,
      "ĠÃ§iya": 7878,
      "Ġhinekan": 7879,
      "Ø§Ø¨ÙĤ": 7880,
      "ĠØ¨Ú¯ÛĮØ±": 7881,
      "95": 7882,
      "Ġspas": 7883,
      "ĠaprÃ¨s": 7884,
      "ĠBey": 7885,
      "Ø¯ÙĩØ¯": 7886,
      "ĠAlÃ®k": 7887,
      "ĠsibehÃª": 7888,
      "uhere": 7889,
      "Ġhejmar": 7890,
      "Ġcid": 7891,
      "Les": 7892,
      "ĠbinivÃ®sin": 7893,
      "Ġtor": 7894,
      "ĠÙ¾Ø§ÛĮØ§ÙĨ": 7895,
      "ĠØ·Ø¨ÛĮ": 7896,
      "ON": 7897,
      "ĠGev": 7898,
      "ĠhiÅŁmendiya": 7899,
      "wÃªdÃ®": 7900,
      "iÅŁtÃª": 7901,
      "ĠdiÅŁop": 7902,
      "Ġstrana": 7903,
      "Ã®tÃ®k": 7904,
      "ĠPeymana": 7905,
      "xwazim": 7906,
      "Ġinter": 7907,
      "ĠcivakÃªn": 7908,
      "ĠYas": 7909,
      "ĠØ¨ÙĪØ¯ÙĨ": 7910,
      "Ġbor": 7911,
      "Ù¼Ø±": 7912,
      "ĠCer": 7913,
      "ĠHesekÃª": 7914,
      "ĠResÃ»l": 7915,
      "ĠsivÃ®lan": 7916,
      "ĠØ³ÙĪÙħ": 7917,
      "Herwiha": 7918,
      "Ġnegih": 7919,
      "ĠdevkÃ®": 7920,
      "Ġmedya": 7921,
      "Ġewle": 7922,
      "ĠermenÃ®": 7923,
      "ĠÙħØ±Ø¨ÙĪ": 7924,
      "Ġplana": 7925,
      "Ġvie": 7926,
      "ĠÙĪÙĦØ§ÛĮØª": 7927,
      "ĠFacebo": 7928,
      "ĠmÃ»": 7929,
      "Ġmem": 7930,
      "Ã®rÃ®n": 7931,
      "ĠdizÃ®": 7932,
      "Navenda": 7933,
      "ĠheremÃª": 7934,
      "ĠsekinÃ®": 7935,
      "ĠkÃ®lomet": 7936,
      "Ã§el": 7937,
      "Ġsalane": 7938,
      "ĠweÅŁanÃªn": 7939,
      "ĠÚ©ÙĪÛĮÙĨ": 7940,
      "Ġmalper": 7941,
      "tÃ®m": 7942,
      "Ġdahat": 7943,
      "ĠserpÃªhat": 7944,
      "ĠØ¹ÙħÙĪÙħÛĮ": 7945,
      "Ġdewr": 7946,
      "Ġwate": 7947,
      "ĠBerl": 7948,
      "ĠPas": 7949,
      "Ġwel": 7950,
      "Ø±ÙĪØ¹": 7951,
      "ages": 7952,
      "duyan": 7953,
      "Gelo": 7954,
      "Ġfikr": 7955,
      "ĠMHP": 7956,
      "Tev": 7957,
      "ĠteknÃ®kÃ®": 7958,
      "iyona": 7959,
      "Ġdemjim": 7960,
      "ĠezmÃ»n": 7961,
      "efer": 7962,
      "ĠØ¢ÙĨÙĦØ§ÛĮÙĨ": 7963,
      "ĠÙħØ§Ø´ÛĮÙĨ": 7964,
      "ĠKo": 7965,
      "Ġmim": 7966,
      "Ġderg": 7967,
      "Ġfirs": 7968,
      "Ġrav": 7969,
      "Ġavant": 7970,
      "andÃ®ye": 7971,
      "ĠSim": 7972,
      "ĠEndamÃª": 7973,
      "ĠzivistanÃª": 7974,
      "ĠbinpÃªkirin": 7975,
      "ĠgelÃ®": 7976,
      "Ġderxistina": 7977,
      "Ġdifikirin": 7978,
      "ĠhemberÃª": 7979,
      "Ø³ÙĦØ§Ùħ": 7980,
      "Ø¨Ø§ÙĨÛĮ": 7981,
      "tÃ®h": 7982,
      "47": 7983,
      "ĠNor": 7984,
      "Ġgrand": 7985,
      "ĠLeyla": 7986,
      "Ù¼Ùĩ": 7987,
      "eur": 7988,
      "Ø±ÛĮØ§ÙĨ": 7989,
      "Ġviraz": 7990,
      "ĠMislim": 7991,
      "ĠrihÃª": 7992,
      "Ġzordest": 7993,
      "ĠÅŁaredar": 7994,
      "tÃ®yÃª": 7995,
      "Ġame": 7996,
      "ĠErmenÃ®stanÃª": 7997,
      "evanÃ®": 7998,
      "ĠÙĦØ§": 7999,
      "ĠDÃ®yar": 8000,
      "ĠÃİsraÃ®lÃª": 8001,
      "Ġragihandina": 8002,
      "Ġrojname": 8003,
      "Ġqels": 8004,
      "ĠÙģØ§ÛĮÙĦ": 8005,
      "DI": 8006,
      "ÙĨÛĮÙĪ": 8007,
      "ĠØ³ÙĪÛĮ": 8008,
      "ĠÙĦÛĮÙĨÚ©": 8009,
      "ĠNÃ»r": 8010,
      "exm": 8011,
      "ĠcamÃªr": 8012,
      "ĠxelkÃªn": 8013,
      "Ġberdewamiya": 8014,
      "Ġxwendekar": 8015,
      "ĠØ´Ø§Ùĩ": 8016,
      "ĠÅŁid": 8017,
      "ĠSerokatiya": 8018,
      "ĠasayÃ®": 8019,
      "ĠTÃªkil": 8020,
      "ØºÙĪ": 8021,
      "Û±Û¹": 8022,
      "ĠØ¨Ø±Ø®Ùĩ": 8023,
      "ĠStockhol": 8024,
      "ĠÙħÛĮØ±": 8025,
      "oxan": 8026,
      "ĠnÃ®yo": 8027,
      "aretÃª": 8028,
      "Ġderec": 8029,
      "ĠHAK": 8030,
      "Ġserhildana": 8031,
      "izÃª": 8032,
      "yekÃª": 8033,
      "ĠgoÅŁt": 8034,
      "eftÃª": 8035,
      "ĠserkeftinÃª": 8036,
      "uks": 8037,
      "ĠTi": 8038,
      "gar": 8039,
      "Ġvera": 8040,
      "EL": 8041,
      "eko": 8042,
      "lik": 8043,
      "ĠnÃ®ÅŁana": 8044,
      "ĠhelbestÃª": 8045,
      "ĠSerÃªkaniyÃª": 8046,
      "ĠkomÃª": 8047,
      "Ġetn": 8048,
      "ĠLewre": 8049,
      "ĠbiÅŁÃ®nin": 8050,
      "Ġbidestxistina": 8051,
      "ton": 8052,
      "Ġxor": 8053,
      "ĠzanebÃ»n": 8054,
      "ĠpÃªÅŁketin": 8055,
      "ĠØ¯ÙĪØ¨ÙĦÙĩ": 8056,
      "ĠÙĩÛĮÙĪØ§Ø¯": 8057,
      "Ġdun": 8058,
      "antona": 8059,
      "Ġid": 8060,
      "ĠÚ©Ø§Ø±ÛĮ": 8061,
      "ĠQu": 8062,
      "aleke": 8063,
      "ĠxeynÃ®": 8064,
      "RT": 8065,
      "nanÃ®": 8066,
      "Ġdadgeh": 8067,
      "Ġsat": 8068,
      "ĠØ²Ùĩ": 8069,
      "ĠØ®ÙĪØ§Ø¨": 8070,
      "ĠØ¨Ø³ÛĮØ§Ø±ÛĮ": 8071,
      "Ġstandard": 8072,
      "ĠArmanca": 8073,
      "ĠlaÅŁ": 8074,
      "ĠØŃÙĪØ²Ùĩ": 8075,
      "ĠweÅŁanÃª": 8076,
      "Ġserbilind": 8077,
      "ĠsÃ®yaseta": 8078,
      "Ġtas": 8079,
      "zanÃªn": 8080,
      "ĠÃ§ÃªtirÃ®n": 8081,
      "Ġhewldan": 8082,
      "ĠxortÃªn": 8083,
      "Ġramana": 8084,
      "ĠpÃªro": 8085,
      "ĠØ¹Ø§ÙĦÛĮ": 8086,
      "Ø¬Ø¨": 8087,
      "ĠErdoÄŁan": 8088,
      "jin": 8089,
      "ecan": 8090,
      "ĠÚ©ÚĵÙĩ": 8091,
      "Ã¼n": 8092,
      "Ġdana": 8093,
      "Ġxis": 8094,
      "ĠrÃ®wayet": 8095,
      "ĠØ¹Ø¨Ø¯Ø§ÙĦ": 8096,
      "ĠyÃªk": 8097,
      "ĠÅŀam": 8098,
      "Ġvegere": 8099,
      "Ġvedigere": 8100,
      "Ġhinceta": 8101,
      "Ġrakir": 8102,
      "Ġhejmarek": 8103,
      "ĠasÃ®mÃ®l": 8104,
      "ĠBor": 8105,
      "ĠNÃ®sanÃª": 8106,
      "ĠpÃªÅŁbirk": 8107,
      "Ġparlamentoya": 8108,
      "ĠFiratÃª": 8109,
      "ĠÙĨÙĤØ´": 8110,
      "ĠpisporÃªn": 8111,
      "ĠrÃªxistinÃ®": 8112,
      "ĠMustafa": 8113,
      "ys": 8114,
      "Û±Û°": 8115,
      "ezan": 8116,
      "Ġpat": 8117,
      "Ġusa": 8118,
      "Ġsan": 8119,
      "ische": 8120,
      "ifa": 8121,
      "ĠSovyet": 8122,
      "ĠcÃ®n": 8123,
      "ÅŁta": 8124,
      "ĠÃ®q": 8125,
      "Ġrawestandin": 8126,
      "ĠleÅŁkerÃª": 8127,
      "Ġxwendevan": 8128,
      "Ġpartiyan": 8129,
      "ĠnÃªrÃ®n": 8130,
      "ĠcinsÃ®": 8131,
      "ĠRihayÃª": 8132,
      "ĠØ¬Ø°": 8133,
      "ĠbÃ®nÃ®": 8134,
      "Ã®tÃªn": 8135,
      "Ġcarinan": 8136,
      "ĠgirÃªdana": 8137,
      "ĠÛĮØ¹": 8138,
      "Ð°": 8139,
      "ĠnÃªzÃ®kat": 8140,
      "ĠÙ¾ÛĮØ±": 8141,
      "ĠÚ¯Ø§Ùħ": 8142,
      "ĠÙĪÚĺ": 8143,
      "meh": 8144,
      "Ġmob": 8145,
      "ĠÚĨØ§Ù¾": 8146,
      "Ġpenc": 8147,
      "ĠreferandÃ»ma": 8148,
      "ĠswÃªdÃ®": 8149,
      "ĠWeq": 8150,
      "Ġagahiyan": 8151,
      "Ġhemu": 8152,
      "ĠÙĩØ§ÙĬ": 8153,
      "DÃİ": 8154,
      "ĠBerxwe": 8155,
      "Ġbuye": 8156,
      "ĠØ¯ÙĪÙĩ": 8157,
      "Ġtest": 8158,
      "to": 8159,
      "Ġnon": 8160,
      "ĠrÃªve": 8161,
      "AS": 8162,
      "ĠpÃªngava": 8163,
      "Ġdersa": 8164,
      "maÃ®l": 8165,
      "ĠberhemÃª": 8166,
      "osÃª": 8167,
      "eÅŁk": 8168,
      "Ġki": 8169,
      "ĠRam": 8170,
      "Ġtou": 8171,
      "ĠIm": 8172,
      "ĠØ±Ø³Ø§ÙĨÙĩ": 8173,
      "ĠØ·ÙĪÙĦ": 8174,
      "ĠØ¹Ø´ÙĤ": 8175,
      "Ã®ter": 8176,
      "wek": 8177,
      "ĠØ§ÙĤØªØµØ§Ø¯ÛĮ": 8178,
      "ĠJinan": 8179,
      "Ġbaly": 8180,
      "ĠzÃªdetirÃ®": 8181,
      "Ġzeyt": 8182,
      "ĠdayÃª": 8183,
      "ĠFilistÃ®nÃª": 8184,
      "ĠpÃªwendÃ®": 8185,
      "geriyÃª": 8186,
      "Ġkab": 8187,
      "ĠpÃªwÃ®stÃ®": 8188,
      "Ø§ÙĦØª": 8189,
      "ĠMan": 8190,
      "meta": 8191,
      "ĠÙħÙĨÚģ": 8192,
      "ĠØªÙĪÙħØ§ÙĨ": 8193,
      "ĠØ¹ÙĦÛĮÙĩ": 8194,
      "ĠSir": 8195,
      "ĠSip": 8196,
      "ric": 8197,
      "Ø¨Ø±Ø§ÙĨ": 8198,
      "Ġbibo": 8199,
      "ĠYPJ": 8200,
      "kujÃ®": 8201,
      "ĠHeq": 8202,
      "ĠnabÃ®nin": 8203,
      "ĠkerdÃ®": 8204,
      "Ġermen": 8205,
      "Ġvexwarin": 8206,
      "Ø³Ø§Ø²ÛĮ": 8207,
      "Ġsec": 8208,
      "Ġhezkirina": 8209,
      "Ġrejima": 8210,
      "ĠÙ¾ÛĲ": 8211,
      "ØªÙĪØ±": 8212,
      "civ": 8213,
      "ĠØ§Ø¬Ø±Ø§ÛĮ": 8214,
      "ĠDonald": 8215,
      "Ġkas": 8216,
      "Ġpot": 8217,
      "ĠCew": 8218,
      "ĠbÃ»yeran": 8219,
      "Ġxelata": 8220,
      "ĠlÃªpirsÃ®n": 8221,
      "ĠserlÃªd": 8222,
      "ĠÚĨØ´Ùħ": 8223,
      "ĠÃ§aren": 8224,
      "Ġsist": 8225,
      "Ġbur": 8226,
      "1970": 8227,
      "Ø±Ú«": 8228,
      "ĠÙģÛĮ": 8229,
      "ĠÙħÙĩÙĨØ¯Ø³ÛĮ": 8230,
      "ĠØªØŃÙĤÛĮÙĤ": 8231,
      "ĠDin": 8232,
      "Ġrah": 8233,
      "Ġwor": 8234,
      "ĠAdara": 8235,
      "Ã®tÃ®ya": 8236,
      "ĠEke": 8237,
      "ĠhevkarÃ®": 8238,
      "Ġqedexekirin": 8239,
      "Ġsere": 8240,
      "Dr": 8241,
      "Ġfet": 8242,
      "Ġfey": 8243,
      "ĠÙĩÙĬ": 8244,
      "Ä±k": 8245,
      "ĠØ´Ø§ÙħÙĦ": 8246,
      "Ġprogram": 8247,
      "opotam": 8248,
      "ĠColemÃªrgÃª": 8249,
      "Ġkax": 8250,
      "ĠdanÃ»standin": 8251,
      "ĠÃ®mze": 8252,
      "Ġdestek": 8253,
      "Ġbeleng": 8254,
      "ĠjÃ®yanÃª": 8255,
      "Ġfikra": 8256,
      "Ġparvekirin": 8257,
      "ĠØ¨Ø±Ø§Ø¨Ø±": 8258,
      "sÃªn": 8259,
      "ĠØ§ÙĦØ¨ØªÙĩ": 8260,
      "ĠÙĦØ§Ø²Ùħ": 8261,
      "ĠÙĨÛĮÙħ": 8262,
      "ider": 8263,
      "ĠÃĸz": 8264,
      "bas": 8265,
      "ĠÙħÛĮÙĦÛĮÙĪÙĨ": 8266,
      "Ġdara": 8267,
      "ĠSÃ®yabend": 8268,
      "Ġereban": 8269,
      "ĠÃ®b": 8270,
      "Ġelew": 8271,
      "Ġawayek": 8272,
      "Ġhewa": 8273,
      "Ġmatery": 8274,
      "Ġmilyonan": 8275,
      "ĠzÃªrÃ®n": 8276,
      "ĠÅŁor": 8277,
      "uler": 8278,
      "Ø±Ø§Ø¬": 8279,
      "Ġsh": 8280,
      "Ġsond": 8281,
      "nak": 8282,
      "Ø¨ÙĬ": 8283,
      "stit": 8284,
      "ÙģØ§ÙĪØª": 8285,
      "Ġbip": 8286,
      "ĠBul": 8287,
      "Ġsemed": 8288,
      "ĠMesela": 8289,
      "ĠnanÃª": 8290,
      "Ġfilan": 8291,
      "ĠdayÃ®ka": 8292,
      "Ġfilm": 8293,
      "ĠÙħÙĪÚĸ": 8294,
      "**": 8295,
      "atir": 8296,
      "Ù¾Ø±": 8297,
      "ĠØ§ÙĨØªÙĤ": 8298,
      "ĠØ§ÙĨÙĤÙĦØ§Ø¨": 8299,
      "Ġdif": 8300,
      "ĠhejmarÃªn": 8301,
      "ĠbazirganiyÃª": 8302,
      "ĠYekgirtÃ®": 8303,
      "Kes": 8304,
      "ĠqadÃª": 8305,
      "Xwend": 8306,
      "ĠqaÅŁo": 8307,
      "ĠPartÃ®": 8308,
      "Ġxwer": 8309,
      "sÃ®n": 8310,
      "ĠgÃ»": 8311,
      "ÙħÛĮÙħ": 8312,
      "Ú¯ÙĬ": 8313,
      "Ú©ÛĮÙĦ": 8314,
      "ĠSu": 8315,
      "ĠØ®ÙĦÚ©ÙĪ": 8316,
      "ĠÙħØ«ÙĦ": 8317,
      "gen": 8318,
      "ÙħÙĪÚĸ": 8319,
      "Ġsoh": 8320,
      "abit": 8321,
      "ĠWez": 8322,
      "ĠkirdkÃ®": 8323,
      "Ã®vers": 8324,
      "ĠdimeÅŁÃ®ne": 8325,
      "ĠØ¯Ø±ØµØ¯": 8326,
      "fÃªn": 8327,
      "ĠdiparÃªzin": 8328,
      "ĠpirsgirÃªkan": 8329,
      "ĠSerd": 8330,
      "ewÅŁa": 8331,
      "ĠbÃªguman": 8332,
      "ĠØ¶Ø¯": 8333,
      "ĠhÃªzÃª": 8334,
      "ĠKeÃ§": 8335,
      "kÃ»": 8336,
      "Ø³ÙĦ": 8337,
      "xwar": 8338,
      "ĠÙ¾Ø±ÙĪÚĺÙĩ": 8339,
      "ĠNec": 8340,
      "ÃİT": 8341,
      "chn": 8342,
      "Ġtep": 8343,
      "ÙĪÙĨÚī": 8344,
      "ĠÙħØ³ØªÙĤÛĮÙħ": 8345,
      "ĠØ¯Ø±Ø¢": 8346,
      "ĠÃ§arÃ§": 8347,
      "ÅŁtin": 8348,
      "ĠØ¢Ù¾": 8349,
      "Ġmuc": 8350,
      "ĠraporÃª": 8351,
      "ĠkulÃ®l": 8352,
      "ĠfÃ®lmÃª": 8353,
      "ĠplanÃªn": 8354,
      "ĠxalÃª": 8355,
      "isation": 8356,
      "kariyÃª": 8357,
      "ĠsÃ®x": 8358,
      "Ġpirsan": 8359,
      "ĠÚ©ÙĪÙĦÙĪ": 8360,
      "ĠÅŀan": 8361,
      "ĠØªÙĪØ§ÙĨØ¯": 8362,
      "96": 8363,
      "Ġmix": 8364,
      "Ġvol": 8365,
      "Ø§Ø¨Ø¹": 8366,
      "ÙĩÙĨ": 8367,
      "ĠpenaberÃªn": 8368,
      "ĠdiÃ§Ã»n": 8369,
      "ĠÅŀemz": 8370,
      "Ġkevnar": 8371,
      "ĠewlekariyÃª": 8372,
      "Ġboykot": 8373,
      "ĠHÃ®n": 8374,
      "Ãªvaj": 8375,
      "ĠdidomÃ®ne": 8376,
      "iqÃ®": 8377,
      "Ġkomara": 8378,
      "Ġqirkirina": 8379,
      "Ġcl": 8380,
      "iment": 8381,
      "ĠÚ¯ÙĪØ´ÛĮ": 8382,
      "ĠÃ¢": 8383,
      "ÙĪÙĦÙĬ": 8384,
      "unc": 8385,
      "ĠØ¨Ø§ÙģØª": 8386,
      "ĠÙĪÙĪÛĮÙĦ": 8387,
      "Ġname": 8388,
      "uss": 8389,
      "ĠÅŁehad": 8390,
      "ĠRemezanÃª": 8391,
      "ĠENK": 8392,
      "Ø§ÙĨÙĬ": 8393,
      "ĠParÃªz": 8394,
      "ĠhÃ®Ã§": 8395,
      "Ġwerbi": 8396,
      "ĠxebatkarÃªn": 8397,
      "eddÃ®n": 8398,
      "ØªØ§": 8399,
      "ĠpergalÃª": 8400,
      "insi": 8401,
      "ĠÙħØ¬ÙĦØ³": 8402,
      "iÅŁÃ®n": 8403,
      "Ã®hn": 8404,
      "oxÃª": 8405,
      "Ġvexwend": 8406,
      "ĠpÃ®rozb": 8407,
      "Ã®dan": 8408,
      "ĠhÃªvÃ®dar": 8409,
      "ĠDÃ®yarbek": 8410,
      "ektÃ®f": 8411,
      "Ġsuis": 8412,
      "Ġsem": 8413,
      "ĠpirsgirÃªkÃª": 8414,
      "Ø³Ùħ": 8415,
      "ĠMala": 8416,
      "ĠLib": 8417,
      "ĠCen": 8418,
      "ombre": 8419,
      "Ġhak": 8420,
      "press": 8421,
      "Ġins": 8422,
      "Ġbeyan": 8423,
      ".,": 8424,
      "ĠTir": 8425,
      "ĠTurkiyÃª": 8426,
      "seroka": 8427,
      "ĠÙģØ±ÙĩÙĨÚ¯": 8428,
      "ĠsemÃ®n": 8429,
      "ĠsÃ®stemÃª": 8430,
      "Ġparlem": 8431,
      "bec": 8432,
      "ĠFaris": 8433,
      "Ġxwedan": 8434,
      "ĠØŃÙĤÙĪÙĤ": 8435,
      "ĠlÄ±": 8436,
      "ĠØ§ÙĦÙħ": 8437,
      "mez": 8438,
      "ises": 8439,
      "ĠNad": 8440,
      "eu": 8441,
      "ĠØ¢Ø´ÙĨ": 8442,
      "Ø¹ÙĬ": 8443,
      "ĠrengÃªn": 8444,
      "ÅŁtiyÃª": 8445,
      "ĠBakÃ»rÃª": 8446,
      "Ġhevpeyman": 8447,
      "ĠtÃ®ma": 8448,
      "bayÃª": 8449,
      "ĠpiÅŁtevan": 8450,
      "Ġhejmareke": 8451,
      "ĠmeydanÃª": 8452,
      "ĠhewayÃ®": 8453,
      "nde": 8454,
      "Ġpiyan": 8455,
      "Ġpirtir": 8456,
      "Ġxala": 8457,
      "ĠÃªriÅŁÃªn": 8458,
      "Ġfon": 8459,
      "ĠprÃ©": 8460,
      "ĠØ¨ÙĩØ±": 8461,
      "ÙĪÙĨÚ©ÙĪ": 8462,
      "Ġgum": 8463,
      "Ø´ØªÛĮ": 8464,
      "ĠÚ©ÙĪØ¯Ú©": 8465,
      "zem": 8466,
      "ĠÚģÙĪØ§Ú©": 8467,
      "ĠnimÃªja": 8468,
      "ĠsebebÃª": 8469,
      "ĠmamosteyÃªn": 8470,
      "Ã®yekÃª": 8471,
      "ĠFirat": 8472,
      "Ġbelavkirina": 8473,
      "ĠnamÃ®ne": 8474,
      "ĠÅŁÃ®rketa": 8475,
      "ĠtelevÃ®zyon": 8476,
      "ĠgerdÃ»nÃ®": 8477,
      "Ġsoza": 8478,
      "ĠderhÃªn": 8479,
      "Ġqehreman": 8480,
      "ĠhevÃ»": 8481,
      "ĠÙħØªØŃ": 8482,
      "ĠBeÅŁar": 8483,
      "ĠDaw": 8484,
      "2005": 8485,
      "Ġmut": 8486,
      "sala": 8487,
      "ĠÙħØ±Øª": 8488,
      "ĠÙĩÙģØªÙĩ": 8489,
      "ĠAkadem": 8490,
      "ĠKaya": 8491,
      "Ġstir": 8492,
      "ĠØ¯Ø±ÛĮØ§ÙģØª": 8493,
      "ĠmexdÃ»r": 8494,
      "ÄŁemberÃª": 8495,
      "ĠRizg": 8496,
      "ĠpartÃ®ya": 8497,
      "ĠÃ®nsanÃ®": 8498,
      "Ø§ØªÛĲ": 8499,
      "ĠgrÃ»": 8500,
      "ĠTÃ®": 8501,
      "Ġdaxuyaniyeke": 8502,
      "ĠÃ§epÃª": 8503,
      "ĠhÃ®nÃ®": 8504,
      "ĠzilamÃª": 8505,
      "ĠErÃª": 8506,
      "ÃªÅŁÃª": 8507,
      "ĠØ·Ø±ÛĮÙĤ": 8508,
      "Ġronak": 8509,
      "Ð¸": 8510,
      "ĠÙĨØŃ": 8511,
      "ĠazadÃ®ya": 8512,
      "ĠgoreyÃª": 8513,
      "rayÃª": 8514,
      "ĠÅŀaredariya": 8515,
      "Ġaboriya": 8516,
      "Ġxwendevanan": 8517,
      "ĠØ¬ÙĩØ§ÙĨÛĮ": 8518,
      "ĠbidawÃ®": 8519,
      "ument": 8520,
      "onyayÃª": 8521,
      "ĠØ³Ø®Øª": 8522,
      "vent": 8523,
      "Ġdibim": 8524,
      "ĠØ¨Ø´": 8525,
      "ĠØµÙĨØ¹Øª": 8526,
      "arg": 8527,
      "ĠGu": 8528,
      "://": 8529,
      "Ġnaxwaze": 8530,
      "ĠØ®Ø¨Ø±Ùĩ": 8531,
      "ilam": 8532,
      "ĠxeyalÃªn": 8533,
      "Ġguf": 8534,
      "ĠseranserÃ®": 8535,
      "ĠWer": 8536,
      "ĠrasteqÃ®n": 8537,
      "ĠbikiÅŁÃ®nin": 8538,
      "Ġvu": 8539,
      "sk": 8540,
      "ĠPa": 8541,
      "ivers": 8542,
      "ĠÙĪÙĤØªÛĮ": 8543,
      "evim": 8544,
      "Ã®stÃ®": 8545,
      "Ġnemir": 8546,
      "Ġbifikirin": 8547,
      "ĠmabÃ»": 8548,
      "ikÃ®ne": 8549,
      "ĠÅŀe": 8550,
      "ĠherkesÃ®": 8551,
      "Ã®tal": 8552,
      "1992": 8553,
      "ÃªmanÃ®": 8554,
      "Ġhevs": 8555,
      "ĠbidomÃ®nin": 8556,
      "Ġdipirs": 8557,
      "ĠÙĪÛĮØ¯": 8558,
      "ĠfÃ®n": 8559,
      "iyanÃ®": 8560,
      "ĠÙĬÙĪÙĩ": 8561,
      "Ø§Ø±Ø§Øª": 8562,
      "âĢ¦âĢ¦": 8563,
      "ĠAN": 8564,
      "ĠØ§ØŃØ³Ø§Ø³": 8565,
      ")ØĮ": 8566,
      "ĠWe": 8567,
      "ÙĨØ¯ÛĮ": 8568,
      "gul": 8569,
      "ĠØªÙĩÛĮÙĩ": 8570,
      "Ġbif": 8571,
      "Ġpolit": 8572,
      "Ġmedres": 8573,
      "ĠrÃªza": 8574,
      "ĠpÃªÅŁÃ®ya": 8575,
      "ĠÙħØŃÙĦ": 8576,
      "ĠÃĬzidÃ®": 8577,
      "ĠÃĬlihÃª": 8578,
      "ĠxwedÃ®yÃª": 8579,
      "ĠrÃ»pelÃª": 8580,
      "xwazÃ®": 8581,
      "ibu": 8582,
      "ĠgotarÃªn": 8583,
      "Ã©rat": 8584,
      "ĠevÃ®nÃª": 8585,
      "ĠÙħØ¯Øª": 8586,
      "Ġorgan": 8587,
      "ÛĲØ±Ùĩ": 8588,
      "Ø³ÙĪ": 8589,
      "Ã®de": 8590,
      "ĠxwarÃª": 8591,
      "ĠgirÃ®ngiya": 8592,
      "ĠDÃ®c": 8593,
      "ĠDigel": 8594,
      "ĠBeriya": 8595,
      "Ġxwes": 8596,
      "ĠdabeÅŁ": 8597,
      "ĠÙħØ§Ø¯Ø±": 8598,
      "Ġwergerandin": 8599,
      "ĠbajarekÃ®": 8600,
      "ĠdanÃ»stend": 8601,
      "Ðµ": 8602,
      "ĠnÃªzÃ®kÃª": 8603,
      "ĠMac": 8604,
      "cl": 8605,
      "yab": 8606,
      "ĠØ®Ø§Ø·Ø±": 8607,
      "ĠmÃ®yan": 8608,
      "Ġrabin": 8609,
      "ĠpÃªÅŁniy": 8610,
      "Ã®tin": 8611,
      "Ġnasname": 8612,
      "ĠguhertinÃªn": 8613,
      "Ġju": 8614,
      "ĠronÃ®": 8615,
      "ĠtÃ»r": 8616,
      "oman": 8617,
      "Ġgengaz": 8618,
      "Ġkl": 8619,
      "Ġrest": 8620,
      "Ġrel": 8621,
      "ĠRay": 8622,
      "HDP": 8623,
      "fo": 8624,
      "ÙħÛĮØª": 8625,
      "Êķ": 8626,
      "ĠØ§ÙĦØ¹": 8627,
      "ĠneÅŁ": 8628,
      "ĠnÃ»ner": 8629,
      "ĠÚĨÛĮÙĨ": 8630,
      "ĠeskerÃ®": 8631,
      "ĠragihandinÃª": 8632,
      "Ġmera": 8633,
      "Ã®nga": 8634,
      "ĠØ³ÛĮØ§Ø³ÛĮ": 8635,
      "bul": 8636,
      "ĠÙĨÚ¯Ø§Ùĩ": 8637,
      "Ġhol": 8638,
      "Ġdoh": 8639,
      "TP": 8640,
      "EK": 8641,
      "dag": 8642,
      "ĠÃ®fad": 8643,
      "á¹": 8644,
      "Ġxwecih": 8645,
      "Ġradibe": 8646,
      "Ġmebesta": 8647,
      "gÃ®nÃ®": 8648,
      "Ġhedefa": 8649,
      "ĠeÅŁÃ®ra": 8650,
      "Ġenerj": 8651,
      "Ġyeke": 8652,
      "Ġafirandina": 8653,
      "Ã§Ã®n": 8654,
      "ĠÙħØ²": 8655,
      "ĠEmÃ®n": 8656,
      "ĠgirtÃ®gehan": 8657,
      "Ġhefteya": 8658,
      "ĠÅŁÃ»nde": 8659,
      "ĠdengekÃ®": 8660,
      "Ã»lÃª": 8661,
      "ĠSekreterÃª": 8662,
      "ĠpÃªÅŁmerge": 8663,
      "ĠGotin": 8664,
      "Ġxeyal": 8665,
      "ĠpÃªvajo": 8666,
      "afÃª": 8667,
      "ĠpÃªÅŁniyaz": 8668,
      "ĠdixwazÃ®": 8669,
      "ĠÙħØ§ÙĦÛĮ": 8670,
      "stin": 8671,
      "ĠØ§Ø¶": 8672,
      "ĠÙĨØ³Ø®Ùĩ": 8673,
      "ĠSef": 8674,
      "Kon": 8675,
      "ĠlÃªn": 8676,
      "Ġmintiq": 8677,
      "ĠtesbÃ®t": 8678,
      "Ġvegera": 8679,
      "ĠRojnam": 8680,
      "Ġtah": 8681,
      "Ġteor": 8682,
      "ĠØ§Ø±Ø²": 8683,
      "ĠØ±Ø§Ø¨": 8684,
      "iyam": 8685,
      "ĠØ³Ø¹": 8686,
      "''": 8687,
      "ĠØ±ÙĪØŃ": 8688,
      "ĠÙĩØºÙĪ": 8689,
      "ĠØ§ØµÙģÙĩ": 8690,
      "Ø§Ø³Ø§ÙĨ": 8691,
      "Ġbera": 8692,
      "ĠzilmÃª": 8693,
      "ĠbeÅŁdarÃª": 8694,
      "ĠSerokwezÃ®r": 8695,
      "ĠAzadiyÃª": 8696,
      "ĠkomkujiyÃª": 8697,
      "ĠzÃªdebÃ»na": 8698,
      "ĠsÃªyem": 8699,
      "ĠØªÙĦØ§Ø´": 8700,
      "ediya": 8701,
      "ĠBÃªr": 8702,
      "CO": 8703,
      "yÃ®n": 8704,
      "ĠÙ¾Ø±ÛĲ": 8705,
      "lÃªk": 8706,
      "Ġsch": 8707,
      "ches": 8708,
      "ĠMad": 8709,
      "Ø¶Ùĩ": 8710,
      "ĠAnatol": 8711,
      "ĠÙħÛĮÙĦ": 8712,
      "2004": 8713,
      "Ġqul": 8714,
      "Ġstandin": 8715,
      "Ø³ØªØ§ÙĨÛĮ": 8716,
      "Ġzek": 8717,
      "Ø§Ø¨Ùĩ": 8718,
      "Fermand": 8719,
      "Ġbihata": 8720,
      "Ġfehm": 8721,
      "nasÃ®": 8722,
      "Ġdipey": 8723,
      "WAAR": 8724,
      "ĠQey": 8725,
      "ĠMafÃª": 8726,
      "dÃªn": 8727,
      "Hey": 8728,
      "Art": 8729,
      "ĠoÃ¹": 8730,
      "ĠÙģÙĪØª": 8731,
      "ĠCo": 8732,
      "ĠÙħÙĪÙģÙĤ": 8733,
      "Ġzinc": 8734,
      "ÛĮØ·": 8735,
      "ĠØ³ØªÙĪÙĨ": 8736,
      "ĠÙ¾Ø§ÛĮÙĩ": 8737,
      "ĠHuseyÃ®n": 8738,
      "ĠNexweÅŁ": 8739,
      "ĠprojeyÃª": 8740,
      "axÃ®": 8741,
      "Ġgotine": 8742,
      "ĠsalekÃª": 8743,
      "ĠÅŁikest": 8744,
      "Ø¬Ø§ÙĨ": 8745,
      "ĠmÃ®n": 8746,
      "ĠfÃªhm": 8747,
      "Ġderdixe": 8748,
      "ĠastÃª": 8749,
      "Ãªdana": 8750,
      "ĠSun": 8751,
      "ĠØ´ÙĩØ±Ø³ØªØ§ÙĨ": 8752,
      "Ø§ÙĦØ§Øª": 8753,
      "ĠÙĪØ§Ú©": 8754,
      "ÛĢ": 8755,
      "ĠPlat": 8756,
      "Ã©ment": 8757,
      "ĠØŃØ¯ÙĪØ¯": 8758,
      "Ġnijadperest": 8759,
      "ĠRewÅŁenb": 8760,
      "Ġzeng": 8761,
      "medar": 8762,
      "ĠnebÃ»na": 8763,
      "ĠØºÙĪÚļØª": 8764,
      "Ġvi": 8765,
      "ĠtÃªkeve": 8766,
      "Ã®van": 8767,
      "ĠÅŁoreÅŁgerÃ®": 8768,
      "eyman": 8769,
      "ĠØ¨Ø±Ø§ÙĬ": 8770,
      "ĠLal": 8771,
      "Ġbelge": 8772,
      "ĠÃ©c": 8773,
      "ĠAf": 8774,
      "ight": 8775,
      "ution": 8776,
      "ĠØ³Ø·ØŃ": 8777,
      "xeb": 8778,
      "ayanÃª": 8779,
      "ĠÙħØ±ØŃ": 8780,
      "ĠsÃ®": 8781,
      "rÃ®k": 8782,
      "ĠpÃªÅŁd": 8783,
      "Ġfahm": 8784,
      "ĠtevlÃ®hev": 8785,
      "vÃªn": 8786,
      "bex": 8787,
      "Ø²Ùħ": 8788,
      "ĠØ³Ø±ÙħØ§ÛĮÙĩ": 8789,
      "ĠÙĪØ±Ú©": 8790,
      "ĠReb": 8791,
      "ĠØ¨Ø±Ú¯Ø²Ø§Ø±": 8792,
      "ism": 8793,
      "Ġben": 8794,
      "ĠÙĪØŃ": 8795,
      "ĠDih": 8796,
      "Ġcewh": 8797,
      "ĠÃĩil": 8798,
      "ĠpÃªdiviyÃªn": 8799,
      "ĠderbasbÃ»yÃ®": 8800,
      "ĠdaxuyaniyÃªn": 8801,
      "kiÅŁ": 8802,
      "Ġewro": 8803,
      "Ġdagirkirina": 8804,
      "ĠnivÃ®sandinÃª": 8805,
      "ĠrÃªzdar": 8806,
      "ĠpÃªwÃ®stiya": 8807,
      "Ġfelsefeya": 8808,
      "ĠÙħØ¯Ø§Ø±": 8809,
      "ĠÙ¾Ø±Ø¯Ø§Ø®Øª": 8810,
      "astin": 8811,
      "ĠRew": 8812,
      "ĠÚ©ÙĨÙħ": 8813,
      "ĠgÃ®h": 8814,
      "Ġserfir": 8815,
      "Ġdef": 8816,
      "ĠpÃªÅŁan": 8817,
      "ĠperÃ§e": 8818,
      "ĠKURD": 8819,
      "ĠbingehÃªn": 8820,
      "ĠBegÃª": 8821,
      "ĠHevpeymaniya": 8822,
      "ĠØ±Ø´ØªÙĩ": 8823,
      "ĠØ²Ø¯Ùĩ": 8824,
      "imin": 8825,
      "Ġni": 8826,
      "ary": 8827,
      "ĠParlement": 8828,
      "ĠØ²ÙħØ§ÙĨÛĮ": 8829,
      "ĠdÃ¤": 8830,
      "ĠØ³Ø§Ø¯Ùĩ": 8831,
      "Ġbez": 8832,
      "Ġsind": 8833,
      "ĠSul": 8834,
      "edi": 8835,
      "Ġqa": 8836,
      "Ã§in": 8837,
      "ĠnexweÅŁxaneyÃª": 8838,
      "ĠpÃ®ÅŁesaziya": 8839,
      "ĠKomÃ®syona": 8840,
      "ĠCizÃ®rÃ®": 8841,
      "ĠbiharÃª": 8842,
      "ĠHerÃ®": 8843,
      "Ġrojek": 8844,
      "ĠcivÃ®nÃªn": 8845,
      "ĠAmer": 8846,
      "ĠÙĨØªÛĮ": 8847,
      "ĠPÃªxember": 8848,
      "ĠRagih": 8849,
      "ĠÙħØŃÛĮØ·": 8850,
      "Ġpeyw": 8851,
      "Ġencore": 8852,
      "ĠØ±Ø´Ø¯": 8853,
      "ĠÅŁÃªwaza": 8854,
      "Un": 8855,
      "Ġdonc": 8856,
      "Ġnos": 8857,
      "Ġmizgeft": 8858,
      "ĠhÃ»nÃª": 8859,
      "Ġqebul": 8860,
      "Ġdixwestin": 8861,
      "ĠtelefonÃª": 8862,
      "ĠØ®Ù¾ÙĦÙĩ": 8863,
      "Ġist": 8864,
      "ĠØŃØ§ÙĦØª": 8865,
      "Ġwww": 8866,
      "44": 8867,
      "Ġind": 8868,
      "Ġzoz": 8869,
      "Ã¼rk": 8870,
      "Ġserb": 8871,
      "Ġxu": 8872,
      "ĠÃĩand": 8873,
      "ĠMÃ»ÅŁ": 8874,
      "ĠrÃªvebir": 8875,
      "ĠbilÃªv": 8876,
      "ĠÙħØ§ÙĦ": 8877,
      "asyonÃªn": 8878,
      "ĠnerazÃ®bÃ»n": 8879,
      "ĠbÃ®nim": 8880,
      "Ġkerdene": 8881,
      "ĠÙ¾ÙĦÛĮ": 8882,
      "ĠTop": 8883,
      "ĠZag": 8884,
      "Ġsoci": 8885,
      "ĠØ¹ÙħÙĦÛĮ": 8886,
      "ĠFrance": 8887,
      "Ġforma": 8888,
      "entre": 8889,
      "Ġsc": 8890,
      "Ġnay": 8891,
      "dirÃ»d": 8892,
      "ĠElmanyayÃª": 8893,
      "Pirs": 8894,
      "ĠbistÃ®ne": 8895,
      "Ġhewldana": 8896,
      "Ġewlehiya": 8897,
      "Ġtav": 8898,
      "Ġsav": 8899,
      "ĠHec": 8900,
      "ÙħØŃ": 8901,
      "Ġsous": 8902,
      "Ġfab": 8903,
      "ĠÃ§andiniyÃª": 8904,
      "ĠNetewÃ®": 8905,
      "ĠpÃªÅŁin": 8906,
      "Ġzilma": 8907,
      "Ãªja": 8908,
      "ÛĮØ¯ÙĨ": 8909,
      "Ġwezareta": 8910,
      "ĠbÃ®yo": 8911,
      "ĠØ´ÙĪÙĩ": 8912,
      "ĠØ±ÙĤ": 8913,
      "Ġsent": 8914,
      "Ġfes": 8915,
      "ti": 8916,
      "ss": 8917,
      "ĠÙħØ±Ø¨ÙĪØ·": 8918,
      "ÙĴ": 8919,
      "ĠØ¬Ø¯": 8920,
      "ho": 8921,
      "Ø§ÙĩÙħ": 8922,
      "Hun": 8923,
      "Ġmah": 8924,
      "ĠØ¢ØºØ§Ø²": 8925,
      "ĠSeyÃ®d": 8926,
      "ĠCejna": 8927,
      "Ġziyan": 8928,
      "Ġheyeta": 8929,
      "ĠØ´Ø±ÙĪØ¹": 8930,
      "erdiÅŁÃª": 8931,
      "ĠbangÃ®": 8932,
      "Ã®stanÃ®": 8933,
      "PiÅŁt": 8934,
      "Ġserek": 8935,
      "ĠdanÃ»standinÃªn": 8936,
      "Ø§ÙĩØ§ÛĮ": 8937,
      "ĠÙĪØ§ØŃ": 8938,
      "An": 8939,
      "Ġhikumeta": 8940,
      "ĠeÅŁk": 8941,
      "ĠÃ®slam": 8942,
      "Ġfirok": 8943,
      "Ġdamezirandin": 8944,
      "Ġhevre": 8945,
      "Ġdeveran": 8946,
      "ĠfransÃ®": 8947,
      "ĠresmÃ®": 8948,
      "ĠcÃ®ran": 8949,
      "ĠdayikÃª": 8950,
      "ĠbÃªm": 8951,
      "ĠnakokÃ®": 8952,
      "ikim": 8953,
      "ĠØªØ§Ú©": 8954,
      "gne": 8955,
      "Ġ>": 8956,
      "ĠØŃÛĮ": 8957,
      "Ġsup": 8958,
      "ĠÙģÙĪÙĤ": 8959,
      "alog": 8960,
      "ĠÚ©ÛĮÚĸÙĬ": 8961,
      "ÙħØ§ÙĦ": 8962,
      "ĠØ¯ÙĨÛĮØ§": 8963,
      "AM": 8964,
      "ÙĪÙĨØª": 8965,
      "ites": 8966,
      "abe": 8967,
      "elan": 8968,
      "akar": 8969,
      "ĠlÃªbelÃª": 8970,
      "Ġbihev": 8971,
      "ĠdÃ®tine": 8972,
      "Ġbazirganiya": 8973,
      "58": 8974,
      "Ã®wana": 8975,
      "ĠmejiyÃª": 8976,
      "ĠdestkeftiyÃªn": 8977,
      "ĠlÃªkolÃ®na": 8978,
      "ĠÙħØŃØµÙĪÙĦØ§Øª": 8979,
      "ĠkirÃª": 8980,
      "oyan": 8981,
      "AT": 8982,
      "ĠØ¯ÙĨØ¨Ø§ÙĦ": 8983,
      "baran": 8984,
      "Ġperd": 8985,
      "Ġtaq": 8986,
      "ĠAbd": 8987,
      "66": 8988,
      "elÃ®k": 8989,
      "Ã§end": 8990,
      "Ġbigerin": 8991,
      "ĠbendÃª": 8992,
      "ĠpÃªngav": 8993,
      "ĠkÃªmasÃ®": 8994,
      "ĠmuzÃ®k": 8995,
      "ĠÅŁarÃ®": 8996,
      "ĠteqÃ®na": 8997,
      "ĠzanÃ®na": 8998,
      "verÃ»": 8999,
      "ÙĦØ§Ú©": 9000,
      "ĠMaz": 9001,
      "ĠØŁ": 9002,
      "ith": 9003,
      "eki": 9004,
      "ĠHol": 9005,
      "ĠÙĦÙĬ": 9006,
      "Ġconf": 9007,
      "ĠEk": 9008,
      "Ġprobl": 9009,
      "Ġbaran": 9010,
      "Ġderan": 9011,
      "ØªÙĨ": 9012,
      "ĠberÃ®ya": 9013,
      "ĠtespÃ®t": 9014,
      "ĠkifÅŁ": 9015,
      "ĠrÃ»bir": 9016,
      "ĠherÃªman": 9017,
      "ĠÃ§u": 9018,
      "ĠDers": 9019,
      "ĠkirÃ®n": 9020,
      "ĠbihÃªle": 9021,
      "hatina": 9022,
      "birina": 9023,
      "ĠderdorÃªn": 9024,
      "Ġkoka": 9025,
      "oÅŁÃ®na": 9026,
      "ĠÚ©ÛĲÚĸÙĬ": 9027,
      "ja": 9028,
      "ues": 9029,
      "Ø³Ùģ": 9030,
      "ting": 9031,
      "Ø´ÙĨØ§Ø³ÛĮ": 9032,
      "ĠserokwezÃ®r": 9033,
      "ĠCivaka": 9034,
      "Ġdaran": 9035,
      "ĠNetew": 9036,
      "ĠyekÃ®neyÃªn": 9037,
      "ĠdemÃ®": 9038,
      "Ġyeka": 9039,
      "Ġutilis": 9040,
      "stÃ®tuya": 9041,
      "amb": 9042,
      "Ø¸ÛĮÙħ": 9043,
      "Ġfois": 9044,
      "ĠRuh": 9045,
      "ĠØ¯Ùħ": 9046,
      "Ø³Ø§Ø²": 9047,
      "ĠØªÙĪØ§ÙĨÛĮØ¯": 9048,
      "Ġpropagand": 9049,
      "ÙĪÙĦØ§": 9050,
      "ĠÙĪÙĦØ³Ùħ": 9051,
      "ĠØ¨ÛĮÙħÙĩ": 9052,
      "pag": 9053,
      "ĠÙĩØ²ÛĮÙĨÙĩ": 9054,
      "ĠØ¹ÙĤ": 9055,
      "ĠQamiÅŁloyÃª": 9056,
      "yas": 9057,
      "attÃ®n": 9058,
      "Ġziyaret": 9059,
      "Ã®yayÃ®": 9060,
      "ĠWeÅŁan": 9061,
      "ĠRiza": 9062,
      "Ġxewn": 9063,
      "HevserokÃª": 9064,
      "ĠhanÃª": 9065,
      "ĠÙħÙĪØ¨": 9066,
      "ĠjÃ®r": 9067,
      "ĠlÃ®stikÃªn": 9068,
      "Ġnikaribe": 9069,
      "ĠØ§ÙĪÙĦÛĮÙĨ": 9070,
      "St": 9071,
      "Ġferas": 9072,
      "teur": 9073,
      "akan": 9074,
      "Kur": 9075,
      "ĠØ±ÙĪØ³Øª": 9076,
      "Ø§ØªØ±": 9077,
      "Ã©m": 9078,
      "ĠÙĨØ¯Ø§Ø±": 9079,
      "ĠNas": 9080,
      "Ù¾ÙĪÙĦ": 9081,
      "âĢľ.": 9082,
      "Ġpuis": 9083,
      "ĠØ·ÛĮ": 9084,
      "Ġbetlan": 9085,
      "ĠxÃªz": 9086,
      "ĠDÃ®l": 9087,
      "ĠxweyÃ®": 9088,
      "enn": 9089,
      "Ġerka": 9090,
      "ĠtÃ»j": 9091,
      "ĠevÃª": 9092,
      "ĠbandorÃª": 9093,
      "Ã»nan": 9094,
      "Ġhesibandin": 9095,
      "egerxwÃ®n": 9096,
      "uver": 9097,
      "ĠgÃ©n": 9098,
      "ĠÙĨØªÛĮØ¬Ùĩ": 9099,
      "ĠÙħØ³ÙĦÙħØ§ÙĨ": 9100,
      "ĠhezkirinÃª": 9101,
      "ĠØªØ®ØµØµ": 9102,
      "ĠØ¹Ø§Ø´": 9103,
      "ĠÈ": 9104,
      "Ø§Ø³ÛĮÙĪÙĨ": 9105,
      "ĠvÃ®r": 9106,
      "ĠtevlÃª": 9107,
      "ĠserxwebÃ»n": 9108,
      "ĠÃ®lonÃª": 9109,
      "ĠÙ¾ÙĪØ³Øª": 9110,
      "Gir": 9111,
      "qan": 9112,
      "Ġdernek": 9113,
      "ĠramanÃª": 9114,
      "iqÃª": 9115,
      "ĠOsmaniyan": 9116,
      "ĠcayÃª": 9117,
      "erekÃ®": 9118,
      "ĠbaÅŁtirÃ®n": 9119,
      "ĠanÃ®na": 9120,
      "Ġho": 9121,
      "tÃ®n": 9122,
      "KC": 9123,
      "ĠUm": 9124,
      "ĠØ¬Ø§": 9125,
      "49": 9126,
      "pro": 9127,
      "ĠMuz": 9128,
      "Lew": 9129,
      "ĠÚ©Ø§ÙħÙ¾": 9130,
      "ĠÙĤÙĪÙħ": 9131,
      "ĠHet": 9132,
      "ĠbÃ®nan": 9133,
      "ĠmeÅŁrÃ»": 9134,
      "ĠdersÃªn": 9135,
      "ĠHac": 9136,
      "ĠbirÃªxistin": 9137,
      "ĠAydin": 9138,
      "ĠrexneyÃªn": 9139,
      "ĠberpirsÃª": 9140,
      "BaÅŁ": 9141,
      "ĠYÃ»s": 9142,
      "Ø³Ø§": 9143,
      "rÃªz": 9144,
      "ĠÃĩÃ®n": 9145,
      "ĠtÃªkildar": 9146,
      "ĠÃ§areserÃ®": 9147,
      "ĠnavberÃª": 9148,
      "ĠØ¯ÛĮÚ¯Ø±ÛĮ": 9149,
      "Ø§Ø³Ùħ": 9150,
      "Ø´Ø§": 9151,
      "ateur": 9152,
      "ĠØªØ¬Ø±Ø¨Ùĩ": 9153,
      "ĠÙħØ¨": 9154,
      "ĠÙħØº": 9155,
      "ĠDel": 9156,
      "Ø¨Ø§Ø´Ø¯": 9157,
      "ĠbibÃ»n": 9158,
      "GelÃª": 9159,
      "ĠwaÅŁt": 9160,
      "ĠtÃ®mÃªn": 9161,
      "komar": 9162,
      "isÃ®": 9163,
      "ĠMisrÃª": 9164,
      "ĠStockholmÃª": 9165,
      "Ġdiket": 9166,
      "ĠÙĤÙĩØ±": 9167,
      "ĠSerh": 9168,
      "150": 9169,
      "Ġgotineke": 9170,
      "Ġpartic": 9171,
      "ĠÙĩÙĪØ§": 9172,
      "ĠÃ©v": 9173,
      "ET": 9174,
      "Ġemper": 9175,
      "Ġaf": 9176,
      "gre": 9177,
      "ĠÙħÙĦØª": 9178,
      "1993": 9179,
      "ĠØ¶Ø±": 9180,
      "ÙĪØ·": 9181,
      "Ġstend": 9182,
      "ĠMeclisa": 9183,
      "Ø§ØªÙĬ": 9184,
      "55": 9185,
      "ĠewÃ®": 9186,
      "Ġeyal": 9187,
      "ĠdidÃ®t": 9188,
      "Ġbizanibin": 9189,
      "EYA": 9190,
      "ĠNavdewletÃ®": 9191,
      "ĠbÃªhn": 9192,
      "ĠBasNews": 9193,
      "__": 9194,
      "ĠÙ¾ÙĪØ´": 9195,
      "Ġbest": 9196,
      "ĠØ§ÙĪÙĨ": 9197,
      "Ġenv": 9198,
      "ĠØ§Ø³ØªØ§Ø¯": 9199,
      "Ø¨Ø¹": 9200,
      "rit": 9201,
      "Ø§ØªÙĦ": 9202,
      "illa": 9203,
      "ange": 9204,
      "onya": 9205,
      "ume": 9206,
      "ĠØ§Ø³ÙĦØ§ÙħÙĬ": 9207,
      "ĠÙĦÚ©Ùĩ": 9208,
      "ĠØ§Ø±Ø²Ø´": 9209,
      "Ġxweseriya": 9210,
      "Ø³ÛĲ": 9211,
      "Ġhereket": 9212,
      "ĠKarÃª": 9213,
      "Ġavah": 9214,
      "ĠÙĪØ§ÙĤØ¹": 9215,
      "ĠzehmetÃ®": 9216,
      "ĠnakokiyÃªn": 9217,
      "yemÃ®n": 9218,
      "ĠHSD": 9219,
      "Ġbikir": 9220,
      "ĠhÃªsantir": 9221,
      "ĠbeÅŁdarbÃ»na": 9222,
      "Ġsekinandin": 9223,
      "ĠrÃ»pela": 9224,
      "ĠqÃ®met": 9225,
      "kov": 9226,
      "Ġdal": 9227,
      "ĠHoll": 9228,
      "ĠEg": 9229,
      "ĠÙħØ´Ú©ÙĦØ§Øª": 9230,
      "Ġnombre": 9231,
      "wey": 9232,
      "ĠÙ¼Ø§Ú©": 9233,
      "ĠÙĨÚ¯Ùĩ": 9234,
      "ĠÚļØ§Ø±": 9235,
      "âĢ¦âĢĿ": 9236,
      "ĠØ¨ØŃØ«": 9237,
      "ĠÙĨÙĨ": 9238,
      "ĠÙĩÙĪØ´": 9239,
      "Civ": 9240,
      "ĠØ³ÙĨ": 9241,
      "ĠbeÅŁeke": 9242,
      "ĠdestpÃªkir": 9243,
      "darÃ®ya": 9244,
      "ĠdÃ®ktator": 9245,
      "afÃ®": 9246,
      "ĠzÃ»tir": 9247,
      "ĠhavÃ®nÃª": 9248,
      "ĠNivÃ®skar": 9249,
      "ĠhÃªviyÃªn": 9250,
      "ĠsiyasetmedarÃªn": 9251,
      "BerdevkÃª": 9252,
      "ĠÃİzm": 9253,
      "Ġrakirina": 9254,
      "ĠØ§ÙħÙĪØ±": 9255,
      "ĠÙħØ¯Ø±Ø³": 9256,
      "ĠEx": 9257,
      "Ã¤t": 9258,
      "ĠØ¨ÛĮØ±": 9259,
      "Ã¤l": 9260,
      "ĠÚ«Úī": 9261,
      "ĠLond": 9262,
      "ĠÙħØ·ÙĦØ¨": 9263,
      "ÙĪØ±Ø´": 9264,
      "Ġlay": 9265,
      "bikin": 9266,
      "ĠÙĤØ§Ø¨": 9267,
      "Ġfar": 9268,
      "ĠØ¬Ø¹": 9269,
      "Ġweku": 9270,
      "ĠÅŀÃ®": 9271,
      "ĠQada": 9272,
      "ĠnÃ®jadperest": 9273,
      "ĠbazarÃª": 9274,
      "ĠDemir": 9275,
      "Ġxemil": 9276,
      "Ġderxin": 9277,
[...]
