#version: 0.2
w a
Ġ k
Ġ m
y a
Ġ wa
e n
e r
a n
l i
á ĥ
Ġ ya
k a
t i
Ġ n
i n
Ġ s
Ġ h
Ġk u
Ġ a
a r
e t
Ġ d
Ġ u
Ġ b
Ġ M
a m
Ã ¥
t a
i s
Ġk wa
o r
Ġn a
Ġ f
k u
Ġ v
e l
a ti
Ġ o
h a
z i
l a
Ġ i
e s
Ã ª
o n
Ġ p
z a
j i
k i
Ġm a
t e
k e
u n
h i
o m
Ġk ati
t o
b a
Ã ¸
Ġkati ka
i a
Ã ®
l e
r i
d a
y o
d i
Ġo g
u m
Ġ K
a s
k o
y e
r e
Ġ S
in g
Ġ g
r a
e d
n a
e m
Ġk i
c h
Ġ ti
Ġh a
s i
j a
t u
Ġh i
Ġf or
w e
Ġ j
áĥ Ĳ
Ġm wa
Ġv i
d e
w en
an a
t er
Ġ áĥ
Ġ D
Ġ T
Ġ Ã¥
g e
Ġ A
f a
z o
áĥĲ áĥ
h u
Ġti l
Ġ U
Ġh u
b u
c ha
in i
Ã »
Ġn i
g o
an i
Ġ za
Ġ t
Ġ in
el e
Ġ en
Ġ er
Ġa m
ar a
Ġ B
e g
áĥ ĺ
ku u
Ġa v
Ġ la
wen ye
Ġ H
m u
a l
2 0
g u
ar i
Ġ N
Ġku wa
f u
e k
Ġm i
Ġku to
o ja
p o
Ġs om
Ġ W
en e
ko a
Ġp Ã¥
r u
Ġd et
r o
g a
s a
an d
n e
m a
Ġ li
Ġb a
Ġ J
ku wa
Ġb i
ĠM a
f an
Ã¸ r
m e
Ġmwa ka
Ġ l
Ġ (
t t
p p
â Ģ
i ka
Ġm ed
Ġa li
s t
Ġ R
Ġ I
b i
l er
Ġ w
Ġd e
v er
d er
áĥĺ áĥ
Ġ ta
Ġ P
b e
Ġ r
Ġs i
am a
an o
Ġ cha
l o
p i
n g
áĥ Ķ
Å Ł
Ġd i
20 1
Ãª n
Ġu t
Ġk a
Ġi li
li g
Ġhi yo
Ġ E
in a
h o
p a
Ġ C
Ã ¦
Ġam ba
Ġk wenye
k er
j en
Ġ Ã»
i li
Ġ F
áĥ Ŀ
Ġa t
em a
g i
j on
s e
is i
Ġh ar
f un
c hi
b o
a da
Ġm u
en d
wa n
ĠM koa
Ġ e
d hi
Ġ et
Ġ L
áĥĶ áĥ
ka ti
ĠK i
i fa
Ġ V
is ha
v i
k ke
k t
Ġv ya
am u
ĠM kuu
s u
an g
Ġa ki
Ġkuto ka
s h
Ġ ji
Ġwa na
k k
Ã¥ r
Ġs a
s k
t en
f i
áĥĿ áĥ
er e
Ġo m
Ġwa li
Ġ O
Ġ re
Ġin a
Ġs t
i d
Ġd a
áĥ £
n ing
on go
fan ya
b wa
la ya
Ġ G
Ã¦ r
Ġo pp
Ġ zi
ĠW a
l l
s ha
0 0
Ġ x
Ġd en
Ġba ada
t um
u r
an da
Ġu li
m ba
d u
as i
Ġm en
Ġs er
s s
Ġ Ã
Ġi kke
et t
Ġk an
am i
v yo
un g
y Ãª
i laya
h e
p an
Ġj u
s hi
d o
m oja
f or
. .
Ġ le
ji li
g er
un i
g en
ki wa
d en
ch ini
Ġ an
Ġ âĢ
j e
o l
Ġwa kati
Ġa l
as a
Ġf ra
Ġn o
Ġ z
is hi
áĥ£ áĥ
Ġhu o
am oja
on i
k s
1 9
Ġv ar
is h
m i
u a
m er
Ġin n
h et
es t
ing i
li ng
in e
ika li
i r
i di
Ġd u
Ġk om
o d
Ġp amoja
Ġs e
an z
v a
is t
Ġn y
fan y
ri ka
s er
t et
u ri
l u
ĠT a
Ġa jili
za ji
ch e
end ele
ia ka
Ã® n
li wa
ongo zi
s en
um a
Ġm an
j Ã¸
Ġ c
Ġb le
Ġm iaka
o s
m en
is a
v e
v u
Ġwa n
ta ifa
Ġs am
ĠD et
k wa
Ġju u
an ga
k ana
Ġu m
Ġhu u
li a
el ler
gu zi
Ġya ke
en de
Ġm koa
Ġwa tu
te k
Ġ tu
li mu
Ġ to
hu su
o t
an ia
ar e
si li
Ġs eg
t ano
Ġza idi
g g
z wa
Ġd er
ł áĥ
a dhi
Ġn chi
s te
Ġj eg
ku bwa
Ġb li
i l
ka zi
Ġs ka
Ġp ro
z e
Ġkwa n
anz ania
Ġn chini
s ke
Ġu na
Ġili yo
p e
Ġm oja
n er
Ġm kuu
ya n
Ġka zi
we za
Ġh e
Ġu ta
ĠA f
el l
ĠV i
Ġm w
Ġ y
u s
ami i
Ġx we
b er
un gu
as jon
ba li
Ġu n
j ini
áĥĲáĥ ľ
or d
Ġ ch
es ha
Ġk ama
Ã¸ y
ĠT anzania
ku tano
Ġm Ã¥
on ge
Ġs Ã¥
fany ika
h am
Ġku n
ĠS er
ĠS a
Ġa r
s Ã¥
pa ta
Ġvi l
n et
Ġb e
j er
fun zi
Ġkwan za
Ġkuto a
is ho
p er
Ġo ver
Ġam e
n s
es te
om a
r an
Ġ ana
k ti
r in
Ġ Z
Ġku husu
r en
z ung
20 0
to a
Ã¦ re
s ema
zung um
Ġ eller
Ġ ra
Ġm e
el se
ĠK a
Ġ -
w i
Ġm ji
Ġwa ke
ĠÃ §
Ġhi i
ĠM i
Ġb ru
Ġk am
j Ã¸r
l d
p en
ri ki
m an
Ġm ara
Ġet ter
ish wa
ĠW ilaya
ĠR a
ch o
y r
b ari
es ema
es hi
u l
Ġmwa n
Ġog sÃ¥
Ġk on
un d
W a
m et
h ari
t ter
Ġh er
di g
Ġs k
um u
ke a
Ġ Ã¸
Ġska l
ta ka
or t
Ġhi vyo
Ġf Ã¸r
Ġwali o
l an
t te
in di
ti n
Ġj Ã®
en t
Ġm wenye
ĠÃ¥ r
h er
Ġ ye
Ġb o
Ġw ilaya
Ġv ed
Ġm in
Ġb er
Ġamba yo
s jon
r is
h em
Ġwa ki
Ġha li
ĠS i
Ġ Y
el t
zi ri
ĠH a
ed ha
Ġi me
pan go
Ġku fanya
n i
ji a
f isi
l et
Ġs p
Ġ wenye
Ġuli o
Ġp o
am bo
M a
r ing
ba bu
Ġáĥ Ľ
Ġn e
Ġh v
áĥĲáĥ ¨
um e
Ġs hu
ĠR u
ĠM u
or a
M kuu
Ġku bwa
Ġsi ku
áĥĺáĥ ¨
ĠSer ikali
ari fa
s ti
Ġp i
Ġmwa na
y n
shi riki
tu a
Ġa u
n o
ati bu
Ġ es
Ġw i
o te
v en
Ġm moja
201 8
li ge
y u
Ġka b
Ġ te
or o
Ġkwa mba
to to
ki a
Ġm er
v ar
Ġhi lo
ki ti
m as
Ġg jen
ji bu
pi ta
e i
be id
s ta
Ġ and
cha guzi
hem u
u ku
ĠAf rika
d de
endele o
Ġm bali
an chi
j um
s p
s ka
f f
r es
ku m
si m
o k
Ġs el
j el
b ar
1 0
ĠM ar
Ġu we
el a
l en
um o
d ani
n es
we zi
Ġs ek
k on
tek ele
k ini
i m
e o
k en
ĠK u
âĢ Ŀ
d et
Ġf a
Ġv Ã¦re
t Ã®
ĠRa is
Ġno en
f asi
di li
.. .
Ġp ia
t anda
ĠD ar
ra di
Ġáĥ ĵ
r y
Ġaki wa
es i
Ġba adhi
Ġf i
v is
am bu
l le
le wa
201 7
l y
Ġs asa
f t
on g
wan ja
Ġku u
Ġha bari
Ġg i
j wa
um i
Ġamba o
zungum za
n d
Ġsa babu
Ġhu yo
Ġna fasi
Ġh an
Ġb ar
áĥĲáĥ ļ
Ã¦r t
ĠU moja
Ġ we
Ġta arifa
Ġdet te
her ia
Ġn or
Ġmu da
Ġe limu
p ya
Ġwa me
Ġser ikali
k et
Ġf in
d ha
Ġf Ã¥
la am
ha uri
Ġ ÅŁ
tum ia
n om
Ġhi zo
) .
âĢ Ļ
r Ã¸
Ġf edha
ľ áĥ
am o
d uma
s om
k ker
un ge
Ġku p
ĠN or
Ġki la
Ġzi li
t wa
an za
s et
Ã¸ l
Ġ Â
Ġha dde
g r
a ta
Ġno e
Ġam esema
Ġ "
le gg
Ġku ji
Ġvi ongozi
ĠK ur
y Ãªn
p et
ĠM an
b Ã»
Ġha di
Ġti mu
Ġma ji
ko ani
ing en
mas hauri
um ba
mba li
Ġina yo
Ġa sili
Ġku m
hi mu
Ġp er
Ġp Ãª
Ġle o
Ġbli r
Ġali kuwa
r Ã¥
Ġand re
ĠTa ifa
Ġun der
Ġ wen
ho ld
Ġha tua
en ye
ĠN a
ĠM wa
Ġm kubwa
Ġku s
Ġwan anchi
ĠL i
k Ã®
on a
ĠM he
ĠB a
in d
Ġal le
Ġshu le
Ã §
on y
ler e
tanda o
e a
00 0
Ġwana funzi
Ġkuto kana
K wa
in du
Ġku ka
Ġm kutano
1 8
ĠC h
o v
u li
Ġg od
Ġha yo
Ġmu jibu
hu ri
en g
s an
Ġu p
u g
la g
re m
Ġk o
an zi
ĠKur d
endele a
Ġz ina
is k
ki o
ĠF or
Ġgjen nom
ĠM as
Ġmbali mbali
Ġj amii
ar t
áĥĶáĥ ¤
tum i
r et
or i
Ġv an
Ġna v
om be
Ġm ot
Ġu pan
Ġm wezi
Ġr as
Ġu me
áĥ ·
ene o
g on
Ġ ro
am ba
c e
Ġg r
b ia
Ġhu duma
Ġn jia
r Ã®
Ġen eo
Ġamba ye
Ġya o
ĠK am
Ġv er
ki li
m ia
h and
Ġku i
che zo
Ġse hemu
Ġya li
v in
Ġi m
Ġti d
hu si
ta ji
onge za
Ġb Ã»
ĠâĢ ĵ
et a
Ġkab la
Ġum ri
hi di
f Ã¸r
en ter
yo te
wa la
Ġg ir
vi k
Ġma eneo
Ġu chaguzi
áĥĲáĥ łáĥ
ia sa
Ġ ek
Ġsel v
tu o
Ġb y
Ġs li
Ġs Ã¸
u t
áĥ ł
ĠJ o
i z
Ġm o
u ti
un n
Ġn dani
ĠH al
j ek
B a
Ġwa ta
ĠSa laam
wenye kiti
ĠS t
es a
an Ãª
ka o
on d
Ġku r
z uri
ĠI n
1 5
Ġn Ã¥
m o
tu r
ati ng
ĠJ am
Ġ chini
K u
) ,
Ġst or
s ingi
Ġp ili
Ġj o
Ġut en
bi li
Ġupan de
Ġl Ã¸
Ġamba po
áĥ Ľ
Ġn di
Ġwa kiwa
Ġ q
Ġd em
ma taifa
is ke
ĠB i
C M
d amu
Ġd eg
jum be
Ġv el
Ġu ch
Ġw Ãª
b ele
k in
ks jon
áĥĺáĥ ľ
Ġili kuwa
l and
Ġd el
l t
s on
Ġm pango
la ss
r Ãª
li n
ĠRu kwa
Ġ eg
e zi
Ġd in
ku ru
jÃ¸ re
sh wa
an gu
en s
ĠD a
gon jwa
Ġya na
Ġáĥ Ĵ
Ġku pi
s m
m un
kti g
Ġg jÃ¸r
an e
ĠK wa
Ġen n
Ġali sema
Ġwana o
y Ã®
w ili
Ġn Ã¥r
al g
is er
ing ine
ek ani
áĥĲáĥ ł
d ara
Ġ Ð
Ġj ana
Ġden ne
Ġ ri
ĠJam huri
Ġt en
ĠWa ziri
Ġki j
li si
om bo
Ġmw isho
ti a
te m
Ġs ana
Ġ zo
Â »
as isi
lig het
Ġma endeleo
Ŀ áĥ
Ġasili mia
A li
u d
un a
t h
et u
ĠA n
Ġi ta
o ka
b in
wan i
k Ãª
Ġp a
el d
Ġha o
201 6
áĥĲáĥ ¡
Ġu s
Ġpi cha
Ġ ,
Ġb es
sh ara
Ġku we
ĠHal mashauri
on do
Ġh ati
Ġm jini
Ġv Ã¦rt
le m
fun zo
1 2
ti l
Ġn ett
p uni
áĥ ķ
Ġku fu
Ġse x
Ġu sa
ĠM o
ĠM ungu
Ġzi ara
Ġh un
ĠâĢ ľ
un ia
Ġwa kazi
i ya
ĠD e
Ġk ia
Ġb are
v et
Ġs y
g jen
Ġku pata
fi ti
f umo
da di
3 0
fanya kazi
ĠMa taifa
ĠO fisi
m ili
wa li
am ili
b ru
jen zi
Ġwa o
Ġw ote
ĠÂ «
et e
j em
ĠS h
Ġmu himu
do go
Ġsek ta
áĥĲáĥ Ľ
f isa
ati ka
a la
ji ji
ung ano
Ġku t
Ġwa toto
Ġm ye
Ġd ating
201 5
b ara
to ke
Ġk jÃ¸
Ġh Ã¸y
Ġla kini
Ġta ifa
Ġm eg
f ani
a t
ati kana
Ġt Ãª
ĠMar ekani
Ġzili zo
u zi
and ishi
Ġar beid
fa a
amu zi
Ġm pya
gu a
Ġf rem
Ġta tu
for m
Ġs ta
Ġaki zungumza
fa dhi
g wa
Ġk l
Ġli tt
ki rin
Ġda g
Ġku ta
Ġman ge
om ba
Ġd hidi
ch uku
Ã¸ k
Ġv Ãª
Ġr es
Ġm tu
Ġp e
Ġh os
ar u
ĠC CM
áĥ£áĥ ł
Ġali ye
hi taji
Ġv y
j ana
ek ana
Ġki r
b y
k es
Ġs pi
ku n
ug ha
Ġh ver
d h
Ġp ar
che zaji
Ġv e
Ġg ang
Ġb eg
Ġfor t
am ia
k isha
áĥ ¡
Ġ ru
Ġk la
ati a
i da
hu ru
o a
ĠM wan
ĠS e
ĠA r
Ġn am
Ġi kiwa
za zi
z u
ĠD kt
tumi zi
iz ara
ĠD i
da g
ka ma
1 6
der e
ba dili
Ġs in
al ama
kum bi
Ð °
Ġku li
Ġm koani
ning er
Ġe w
Ġáĥ Ĺ
o ko
el le
Ġd is
a li
Ġhv or
Ġki li
end o
od oma
Ġma sh
Ġg jÃ¸re
Ġb Ã¥
Ġma ka
ĠD odoma
Ġb ara
Ġku na
ĠM wenyekiti
en i
d Ã®
v an
em e
Ġl ugha
en ki
Ġfi kk
or g
pita li
Ã¸ d
Ġt re
mi wa
tekele zaji
en go
id ia
1 4
Ġu jenzi
fi kia
Ġre g
ĠMu ungano
da i
Ġsam men
Ġo ss
Ġáĥ ł
Ġhu ku
Ġo fisi
ki r
an di
áĥ ¢
em ba
Ġuwe zo
ti d
Ġf lere
p indi
wen da
ĠN i
anzi bar
ĠW izara
h eshi
f si
ĠD en
1 7
19 9
Ġáĥ ľ
es ter
ti ng
Ġmi koa
Ġn ye
tum ishi
s lo
r er
Ġma p
Ġk is
v Ã®
hi rika
Ġn gu
d an
c k
f ya
ing ia
ļ áĥĺ
s jek
d d
wa sili
Ġm Ã¸
Ġh em
g ge
Ġh va
ĠA l
Ġáĥ ¬
Ġm ka
Ġi dadi
i bu
ĠJ a
Ġd est
p as
Ġali po
fu ko
gen zi
1 3
v el
Ġn ed
Ġm singi
Ġk ari
f ar
ami zi
kuru genzi
5 0
li oni
Ġkia si
an s
Ġhi cho
Ġma s
Ġbi l
wan go
Ġáĥ ¡
n en
Ġg o
Ġd o
pa ka
wan da
m bo
Ġmwan am
ell om
j ar
ĠZ anzibar
ĠJ i
Ġa k
N a
li zi
Ġnam na
is l
Ġáĥ Ļ
Ġkom mun
Ġin ter
i mu
Ġma funzo
Ġf Ã¥r
Ġb Ãª
Ġs heria
Ġf u
p s
k an
Ġs en
k om
D et
to lewa
1 1
Ġk ar
Ġma a
is te
ĠB o
da ji
Ġy enye
b b
Ġki pindi
áĥĲáĥ ¤
Ġu tekelezaji
z ingi
Ġs u
Ġm si
fu ta
Ġe v
Ġma t
ka ri
indu zi
heshi miwa
ku r
d ar
Ġwa si
f ika
t or
hu o
Ġsli k
Ġvi r
ti na
al amu
Ġh en
V i
Ġm fumo
zingi ra
ĠfÃ¸r ste
Ġma j
ĠK us
dha a
ing a
m ed
Ġm tandao
g oro
b unge
c o
Ġmi l
Ġf Ã¸l
d el
ony esha
Ġm ellom
un ga
Ġáĥ Ŀáĥ
e w
Ġn je
ing s
ĠNor ge
ha ki
ing er
g ger
Ġh el
Ġk jen
ele za
Ġma tumizi
Ġku tumia
Ġji jini
Ġb ed
p u
ĠP ro
Ġ Ãª
ning en
âĢ ľ
Ġku sa
ĠM en
o g
a v
Ġm chezo
Ġfor s
al t
ĠH er
d om
Ġha ki
ĠE n
Ġs ku
ĠB ar
fa uti
g ang
Ġy Ãªn
z ini
ĠK atibu
Ġo f
ĠK as
ele zo
Ġs te
Ġmi radi
i t
ĠbÃ¥ de
s ho
g ine
Ġma isha
po kea
i i
ĠJ u
ta a
ĠDet te
s es
Ġla g
po ti
Ġhe v
Ġkun ne
ord an
ia shara
2 5
Ġb este
tt et
Ġi gjen
z Ã®
Ġ .
ta k
Ġvy ombo
Ġt ren
áĥ ®
Ġal t
u o
Ġfor sk
es h
ku a
ĠR e
Ġv Ã¥r
f er
ĠP a
fu ata
ĠC huo
r ett
Ġi ki
Ġut vik
Ġáĥĵ áĥĿ
n y
Ġen d
b uni
H a
ĠM kutano
Ġu wanja
Ġ em
f o
id ha
Ġkla bu
ring a
Ġh asa
p ro
Ġb ora
toke o
Ġen k
Ġb et
Ġwi ki
Ġyali yo
um la
ĠKus ini
Ġwen gi
l ler
o pp
Ġb ina
ĠJ eg
Ġr Ãª
Ġl and
Ġm ambo
Ġa fya
n n
ĠP o
l es
Ġkij amii
Ġ X
ker e
te g
Ġu kumbi
Ġmwanam ke
Ġngu vu
ed e
ka mu
on er
Ġh ist
âĢ ¦
t s
ĠI ringa
áĥĿáĥ ł
Ġzo te
st en
Ġsi mu
Ġki mataifa
form asjon
Ġku shiriki
ka zini
isl amu
Ġm bili
vi l
Ġa ina
ke zaji
uni ani
Ġ Ã®
ĠU laya
r am
Ġw Ã®
we li
Ã¥ l
Ġl Ãª
be ya
Ġka ta
Ġm sa
Ġma al
j o
s y
K atika
la ka
ĠKurd ist
h en
en ya
ĠL a
l Ã¸
Ġk wenda
en o
Ġj in
Ġc i
Ġf amili
ĠAf ya
A N
Ġper son
Ġ tek
ar beid
Ġn Ã¦r
Ġsi den
ĠE limu
Ġan net
ti kk
or ia
li sha
zi ma
Ġo n
Ġp or
bi dhi
hu s
li ma
mi yu
Ġza o
Ġáĥ ĺ
pa a
Ġs ko
Ġh umo
Ġek s
Ġvi ktig
Ġwa fanyakazi
ku bali
Ba adhi
Ġh Ãª
p ar
ĠSi miyu
áĥĺáĥ ¡
onge ze
Ġha ta
Ġh elt
b ora
t hi
Ġkom mer
Ġu ka
ĠR o
Å ŀ
Ġh ol
Ġdis se
Ġli li
Ġd unia
c a
201 4
ta ba
Ġk vin
Ġ Q
ru sha
Ġh ele
Ġha wa
da la
Ġzina zo
ĠJo h
Ġk ina
b ani
el sen
Ġwa kuu
Ġgr unn
h ar
am laka
Ġm ch
sim amizi
Ġza ke
y i
Ġl y
ning s
is paa
ter e
r as
Ġuch umi
Ġha l
Ġpro du
p t
Ġm paka
ĠU t
hari bi
v Ãª
K a
b isha
ĠB ara
áĥ Ļ
kun di
ĠMa endeleo
ua ji
de o
Ġnor ske
Ġp ir
Ġya ko
m ar
ĠK enya
am ini
ĠA rusha
Ġk es
lan t
Ġha i
an Ã®
Ġum ma
Ġha t
d s
Ġl ang
wa ida
Ġ yote
u lu
ĠS ek
an u
i cha
Ġma g
Ġma zingira
Ġkam puni
ĠM beya
Ġh jel
Ġst Ã¸r
f ari
Ġd Ã®
r ia
i er
Ġt ar
k te
ĠÃ İ
gen i
Ġsi er
Ġj umla
Ġgod t
Ġku fun
ko po
Ġki ta
ns ka
Ġku ra
S A
Ġma ha
Ġkupi tia
Ġf er
b Ãª
Ġk e
ĠM ji
on ekana
an gi
is jon
Ġhv ordan
Ġg j
s ia
Ġu k
ĠKam ati
k ri
d t
Ġka waida
hu d
is e
Ġma tokeo
Ġv en
er t
ka la
ere za
Ġm radi
t ara
ya ma
Ġma su
2 2
Ġm ar
ji wa
ati lia
Ġma ana
ele kea
k ter
Ġn ia
ll et
Ġto fauti
Ġvi jana
ta tu
adhi m
Ġg Ã¥r
Ġv Ã¥
Ġwali kuwa
Ġt angu
en er
áĥĶáĥ ľáĥ
ĠS p
Ġstor e
j Ã®
Ġmasu ala
el ser
t Ãª
lo g
sa tt
gu liwa
ya ri
ki m
am e
ĠpÃª ÅŁ
Ġbru ker
lig ere
ke e
Ġha pa
ga zi
ong oni
áĥ ¥
ch u
Ġa ta
ur sa
Ġki kubwa
shi rika
Ð ¾
d ri
kk en
chuku a
2 4
b an
sha uri
Ġm toto
Ġáĥ¬ áĥĲáĥľ
b or
K i
Ġg Ã¥
Ġki wango
Ð ¸
ĠK ili
R a
ond ari
d ra
z in
Ġch ama
Ġras mi
Ġwa tumishi
hari ki
áĥĶáĥ ł
k to
Ġta asisi
Ġma elezo
Ġvi ta
m in
ĠH an
Ġt y
ol k
A ki
t ro
ĠK ati
Ġmw ili
Ġu moja
Ġr und
ti g
ru pp
áĥĲáĥ Ĺ
Wa ziri
wa hi
Ġch uo
vu ti
ar d
ĠS heria
Ġs v
l Ã®
sh indi
ten daji
fany wa
ĠK an
we z
ch ama
ku la
T a
Ġh o
Ġr ett
Ġuta fiti
we ka
Ġny umba
Ġs ki
Ð µ
f la
or e
Ġn ne
Ġvya ma
li i
y l
A idha
Ġku anza
Ġmsi mu
Ġn gazi
b li
Ġma da
ser t
Ġki rin
áĥĲáĥ ĵ
Ġwa da
Ġli na
ris to
Ġpo lisi
Ġ ...
v n
ĠW ana
Ġwa andishi
ĠKi kuu
Ġamba zo
1 00
m esema
an go
Ġulio fanyika
Ġyana yo
badili ko
Ġs h
Ġk asi
Ġkam ati
201 2
Ġd uniani
Ġin formasjon
Ġma li
ska p
áĥ ĵ
Ã® ne
áĥĿáĥ łáĥ
ya r
Ġum eme
et er
ombe a
ĠA li
es ten
s var
ĠM koani
yu o
re fu
s ter
ĠM e
g n
Ġdi ke
gr am
Ġs hi
Ġmwana funzi
ongeze ka
bele a
Ġhu ko
de ge
Ġu ha
Ġ yÃª
ĠF a
Ġk as
ĠMwa ka
Ġb iashara
Ġb lant
fan o
Ã» n
Ã¸ re
ti zo
Ġp lan
i wa
áĥ ļ
wa na
ÅŁ tÃ®
ĠK is
ling en
jum la
j u
Ġrund t
Ġsam me
Ġiliyo fanyika
Ġkuwa sili
Ġl es
ĠO g
201 3
ĠN y
l Ã¥
Ġku fikia
Ġk j
ĠJ amii
ing ereza
kili shi
Ġki tuo
4 0
Ġáĥł áĥĶ
Ġs tu
ba ke
M A
Ð ½
Ġu fa
Ġha po
ĠMan ispaa
Ġwada u
âĢ ĵ
Ġm wen
Ġm n
el en
Ġbli tt
ĠKa ta
Ġnor sk
bi ti
ĠU ta
kk et
Ġki jiji
Ġl engo
Ali sema
Ġa wali
ĠMas hariki
Ġu ongozi
Ġ ele
Ġku z
Ġr et
19 7
an t
f Ã¸l
Ġb u
ĠD er
Ġkwa ke
Ġu fun
ho l
Ġmi lioni
Ġkab isa
Ġm fu
Ġku sh
ch ang
ĠKi mataifa
ĠKurdist anÃª
ns ker
s Ã®
ĠI dara
g ene
ati s
Ġg u
Ġmwana damu
Ġma kubwa
l om
Ġki u
pi ga
toa ji
Ġki ongozi
s ko
Ġh jem
Ġku a
Ġku ongeza
Ġha ya
Ġwa ko
Ġs ine
Ġku ku
ĠN chi
Ã¥ nd
Ġa ll
6 0
am ani
Ġki kao
Ġma som
Ġs iasa
shiriki ano
Ġt ra
ti v
ĠJoh n
Ġs iste
Ġu jumla
ĠMwan za
Ġvi tuo
Ġg a
áĥĿáĥ ĳ
Ġtil legg
Ġk r
fi ki
no lo
Ġhi vi
Ġd ri
Ġáĥ ĳ
Ġmasom o
ĠA m
het er
w er
ĠKu u
2 3
ta kiwa
Ġki taifa
Ġv in
Ġp res
let a
da l
Ãª r
Ġáĥ £
Ġkari bu
Ġmi ongoni
yan si
Ġwenye we
anga za
Ġbi la
kir ina
Ġ el
h Ã®
g hu
Ġf il
Ġwali mu
Ġf ursa
Ġhi li
umu iya
Ġm bele
áĥĺáĥ ł
Ġvi deo
Ġg el
Ġya me
Ġuna o
Ġa wa
ĠT r
Ġpor no
ĠB er
Ġli ke
ĠB unge
tekele za
Ġaki toa
Ġku ingia
kum bu
ĠO slo
t ene
ele wa
Ñ Ģ
v alg
2 1
Ġhos pitali
Ġv ei
Ġmsa ada
and in
ĠU m
Ġsi ta
em p
et s
Ġj ina
pas wa
org an
Ġsku lle
pa to
Ġku ru
sta a
ĠC ha
ĠKi k
Ġu gonjwa
g ombea
áĥĿáĥ ļ
Ġd ere
Ġver den
N i
pe wa
Ġ Åŀ
Ġku ja
Ġu toaji
u liwa
za lisha
Ġbeg yn
ĠÃ¸ nsker
ĠU chaguzi
Ġtil bake
Ġgi kk
Ġk ra
Ã®n in
am b
je ti
ha da
Ġny ingine
as t
Ġm est
Ġfor hold
Ġu mu
h Ãª
ĠA b
ĠB enki
w Ã®
Ġno k
amo to
Ġinn en
ĠBo di
M heshimiwa
Ġj ambo
Ġu ki
ĠN o
Ġf e
jen ga
Ġha ku
h ani
ĠT ir
Ġf ar
ĠD u
Ġt una
li m
19 8
Ġs m
Ġmwa h
un guzi
ghu li
ri k
Ġbar n
Ġji mbo
Ġkus ini
ta l
Ġbru ke
ĠT u
Ġpro sjek
hu le
va li
áĥĲáĥłáĥ Ĺ
Ġvel dig
ch umi
tem belea
husi ano
g es
Ġsk ri
isha ji
za liwa
Ġ ja
ks om
gr amu
adhim isho
l Ãª
Ġ |
li ti
yan ga
p atikana
Ġma taifa
Ġ yo
Ġs al
ĠH i
Ġhe wa
Ġma badiliko
es ho
ti r
s el
Ġam et
Ġa ka
ĠU wanja
ĠMi koa
ĠâĢ ĺ
Ġmu lig
ĠH os
ongo za
d re
Ġ ingen
Ġk re
um ani
Ġ /
áĥĺáĥ Ĺ
fani kio
zi ki
ĠvÃ¥ re
Ġf ly
Ġm kon
g et
Ġb in
Ġkuto sha
ĠM kurugenzi
Ġs to
Ġeg en
ĠD k
ĠJ uma
anz ishwa
b et
Ġmen nes
Ġvi li
ji ri
g t
áĥ ¨
ov ed
ambu a
het en
tara jiwa
Ġmi ezi
Ġwen gine
kto ba
Ġina weza
ek Ã®
ĠSh in
k re
t an
Ġ áĥĲáĥ
s hu
du gu
Ġn do
x wa
Ġku ondo
ĠÃ ĺ
Ġg ra
Ġmaal um
Ġfin ne
áĥ ľ
ĠB u
Ġbed re
ĠT o
ze a
st yr
ele ke
áĥĺáĥ ļ
Ġb en
ĠM oro
ma li
staa fu
ĠâĢ ¦
z ani
ĠMa p
Ġt r
Ġ or
Ġf ri
re d
ang amoto
Ġndi o
Ġusa fi
to ka
bÃ» n
ÅŁ a
Ġus alama
ar atibu
g jÃ¸r
gen de
p te
Ġbru k
ĠI s
Ã® na
Ġáĥ ŀ
Ġr angi
em o
Ġny ingi
zungum zo
Ġp lass
Ã® ya
k l
H A
ek t
sim amia
Ġkis iasa
ba bisha
t ana
h an
ĠPo lisi
Ġu huru
g ra
Ġáĥ ¨
Ġu amuzi
Ġm fano
Ġp en
ende ke
an sa
Ġma ta
b el
Ġma ba
Ã® r
Ġli gi
Ġba do
Ġfamili a
ĠShin yanga
et ter
wa po
áĥĶáĥ ĳ
Ġwa jumbe
hand isi
Ġch angamoto
be i
ĠO ktoba
Ġn u
an se
b le
in da
s pi
ka r
Ġbi kin
anda a
Ġm ta
Ġk weli
Ġmu lighet
k jen
201 9
E R
esh wa
are he
Ġvi wanda
ĠS hule
Ġf l
Ġu si
aru fu
un da
t es
Ġd es
zi a
ĠJ uni
Ġg jel
hu di
Ġuli kuwa
Ġt ro
m bi
ĠU s
Ġumu himu
ĠTa asisi
áĥĶáĥ¤ áĥĺáĥ¨
áĥĶáĥ ¨
sen t
haki kisha
Ġmn amo
Ġmi tandao
Ġáĥ Ķ
ger a
Ġs ti
as hi
fu atilia
Ġfor m
v Ã¥
Ġin ne
Ġle ver
Ra is
ĠMa g
Ġs ha
2 8
Ġhist oria
R A
áĥ Ĵ
jer umani
Ġu ra
om o
d ene
Ñ ģ
Ġgr atis
ĠB w
Ġf un
ĠCh ama
Ġta yari
j ua
ĠH u
Ġra is
ĠfÃ¥ tt
tu kio
ingi da
ku lia
Ġar dhi
ungu za
ĠH e
Ġst ar
ĠÃ ħ
Ġu te
as ema
husi ka
201 1
le d
ele k
wa ke
Ġu z
ĠM ed
anzi a
Ġili vyo
ĠáĥĽ áĥ£áĥ
2 7
Ġwa zi
Ba ada
st ani
Ġst yr
Ġvi dere
ĠT ume
tum ika
ed er
ter t
ĠR i
asjon er
Ġhi zi
pp er
Ġs lu
Ġ ord
sti l
Ġwa le
ka to
Ġ Ġ
Ġsi tt
d em
Ġopp le
s ani
Ġbi ke
ifa dhi
Ġm refu
sjon er
h ara
Ġbe i
áĥĿáĥ ľ
Ġzi man
Ä ±
h isi
2 6
ĠT anga
Ġwa chezaji
201 0
W A
Ġb Ã¸r
Ð »
ĠS ingida
Ġma fanikio
a b
Ã®n Ãª
ang er
Ġvi t
ĠL u
si kt
Ġuli ke
sk je
k ani
ĠKas kazini
ĠTa wala
Ġz amani
ÅŁ t
h amu
i e
Ġs yn
di o
áĥĺáĥ Ļ
Ġu simamizi
Ġvi faa
Ġn zuri
Ġtu kio
Ġma futa
in n
E S
ĠH as
chang ia
Ġj enter
Ġu le
Ã§ e
Ġk lo
Ġk al
j ell
ĠM jini
ene ja
um bani
Ġndi yo
Ġgo de
ta kt
un ti
áĥĶáĥ ļ
cha guliwa
ĠP ar
Ġeks emp
le a
en da
w ed
ĠMoro goro
on e
d in
ho to
áĥĶáĥ ¡
ur der
hi ti
de lig
Ġh and
Ġjin si
Ġma zungumzo
ĠE r
ling er
ko sa
ru si
A mesema
to kana
gi r
áĥ£áĥł áĥĺ
el la
Ġa kti
ĠâĢ Ķ
ĠF edha
fani kiwa
Ġmu ziki
ĠHa bari
áĥ£áĥ ļáĥĺ
Ġv alg
ul ta
ĠHos pitali
un kt
Ġm amlaka
Ġmwan zo
Ġfu ll
Ġm are
vi r
ĠsÃ¸ ker
Ġm is
sa idia
Ġuta wala
Ġbara bara
ĠK om
H ata
Ġn dege
ĠWa kuu
ĠS ta
Ġu po
Ġp u
p wa
st ra
Ġd h
Ġpe kee
ka bidhi
tu ru
Ġi met
e b
j in
. âĢĿ
Ġr om
Ġch an
ling i
Ġs ett
ri g
Ġsp Ã¸r
far ansa
Ġbi dhaa
Ġbina fsi
kon om
w ete
ĠS u
I N
Ġt arehe
ti hani
Ġy etu
Ġv yuo
te ja
Ġl en
ua la
Ġde w
rÃ¸ m
Ġkvin ner
Ġt jen
Ġkur d
pi ra
a d
Ġ [
Ġvi zuri
Ġst Ã¸
we kezaji
Ġk esi
Ġba k
Ġom rÃ¥
u ro
Ġv iser
Ġup atikana
Ġme chi
19 6
s o
Ġupatikana ji
wasili ano
Ġp rÃ¸
s Ã¸k
Ġsp esi
T A
for d
al l
Ġsa ba
Ġam ani
bin u
Ġm ba
ĠH ifadhi
ĠMa kamu
Ġtu zo
Ġkili cho
Ġma adhimisho
s ene
un di
Ġb est
Ġk or
anu ari
go goro
Ġkj Ã¦r
Ġáĥľ áĥĲáĥĽ
f ter
Ġd ar
nska p
bi o
jer ne
on esha
Ġuna weza
Ġkwan i
Ġf o
ĠS te
ĠÃ¥ p
Ġkuwe po
Ġnia ba
Ġmwenye kiti
Ġcha kula
me kuwa
Ġl o
Ġp as
ĠmÃ¥ l
ĠS am
Ã¸r er
Ġfor b
Ã¦r ing
Ġma kuu
ĠU n
Ġku hakikisha
hi fadhi
tt en
ĠÅŁ er
Ġáĥ ķ
Ġ :
Ġmen n
m wen
Ġki kuu
Ġaliye kuwa
Ġg am
E N
Ġki m
v es
er i
um bu
Ġb lo
ĠKik wete
ĠT i
ĠÃ§ i
ĠMa gu
n zi
im ar
am ano
isi wa
chu ano
cha kato
ga ji
ind wa
áĥĲáĥ ®
p ri
vi tet
d ini
ama d
ĠF e
Ġáĥ ¤
Ġmwenye we
Ġsi kker
Ġbil der
Ġm or
si ka
Ġk in
fÃ¸r t
Ġwa stani
ĠLi gi
fu li
mili ka
da to
ĠT il
Ġdi kin
Ġku si
Ġhal mashauri
Ġa d
Ġf ram
Ġvi le
l am
o ks
f rika
ĠM h
Ġku tekeleza
Ġmka taba
Ġten a
Ġti ng
vali tet
ta le
et te
áĥĶáĥ¤ áĥĺ
ya ra
F or
Ġma tukio
Ġha fla
Ġuch unguzi
ati wa
Ġmi kopo
Ġtid ligere
ent lig
200 7
m es
Ġba jeti
pen zi
w emo
Ġsk j
Ġya n
un go
k lu
áĥĿáĥ ¡
Ġro j
ta tt
Ġmen gi
Ġb enki
Ġsen sa
ere he
Ġkun di
Ġku ti
Ġh oved
v ua
Ġd ini
po kuwa
Ġmi wili
p res
Ġe z
Ġbe hand
Ġs o
K atibu
Ġw etu
ish oni
Ġwa pata
to kea
áĥ· áĥĽ
ĠM ei
Ġd amu
Ġuli mwen
Ġhi fadhi
Ġwapata o
ĠP Ã¥
Ġmed lem
áĥĺáĥ ľáĥ
áĥĶáĥ łáĥ
p ongeza
M wenyekiti
Ġita kuwa
ĠMagu fuli
Ġh Ã¸
ka m
D i
turu ki
ele zea
er a
Ġmi chezo
Ġta tt
t ar
Ġu j
Ġp ris
pp en
Ã¦r er
ek ano
la i
esha ji
r on
m Ãª
x we
ind ano
Ġvi wanja
Ġma hitaji
Ġwalio kuwa
Ġka dhaa
ring er
Ġby gg
200 8
Ġder for
Ġba hari
Ġut aratibu
2 9
st and
li ne
Ġmen s
di ri
i o
Ġsam t
st re
Ġmi ro
st Ã¥
Ġvir ke
Ġvil le
ol d
ten gene
Ġkom me
Ġd an
Ã» r
áĥ£áĥ ļ
Ġli v
Ġs n
Ġsv Ã¦rt
áĥĶáĥ ľ
n ia
om bi
ĠTa bora
Ġi dara
zo e
ing atia
ĠU huru
t re
Ġme zin
Ġl oka
Ġv is
ska pet
Ġv ia
ti sk
Ġg elek
Ġkjen t
Ġsek ondari
Ġu shirikiano
ina li
Ġkam pen
Ġkl ar
Ġla ke
ka l
st ri
Ġwilaya ni
Ġshi lingi
Ġshu ghuli
o p
200 9
Ġndo a
Ġuz induzi
zu ia
Ġkili mo
Ġ organ
e h
Ġb ra
Ġg ot
Ġs oka
ĠMap induzi
Ġmi chuano
Ġalipo kuwa
Ġamba lo
Ġt ano
Ġku fanyika
Ġwanao ishi
Ġs em
ĠD es
ter n
Ñ Ĥ
Ġh y
Ġwa wili
Ġkuwe ka
as je
Ġf olk
Ġal ler
ĠmÃ¸ te
Ġl u
o u
Ġhv is
ĠJ anuari
Ġuli nzi
ti ske
che za
ku lima
d ishi
am er
ly s
ĠUm ma
Ġáĥ ¥
8 0
Ġmw ishoni
tekele zwa
Ã® ÅŁ
al o
Ġ ter
p Ãª
Ġtek nolo
ĠM fuko
Ġkushiriki ana
7 0
im bo
Ġh ara
ĠSi mba
ĠVi ongozi
anda lizi
Ġpo liti
Ġp ri
Ġfor di
em ber
is ter
Ġhem Ã»
Ð ²
zoe fu
ĠHas san
al am
ĠK o
x is
ze e
ch ana
ĠM pango
twa ra
we kwa
ham ia
di ge
ĠH ar
I S
M wa
sk ri
Ġfa g
b la
id ler
ĠSi ku
Ġeksemp el
ĠJ umuiya
Ġfin nes
Ġd Ãª
Ã¸ ker
Ã ©
Ġku l
Ð º
od ha
Ġzo ezi
zalisha ji
Ġma uaji
bi l
ko si
pen da
ĠKati ba
Ġv eg
Ġda wa
Ġusa wa
áĥĶáĥ Ĺ
ste m
Ġt ry
fi l
Ġu ng
ge lig
onge a
Ġmkon o
Ġm chakato
ele zwa
ĠE ng
bi ri
Ġsa wa
sa tte
Ġv a
áĥĺáĥ Ķ
Ma kamu
Ġs uala
gi zo
Ġáĥ ¢
ĠCh ina
f ten
y s
Ġma wa
áĥĿáĥ ¨
es u
Ã¸ te
Ġs ent
ati on
Ġn g
hi ri
ĠMa ha
ze ko
we ze
f e
ĠM twara
Ġma kundi
fsi ri
Ġv ye
ĠU turuki
teg em
Ġu jumbe
Ġuwe kezaji
man jar
Ġwa k
wahi li
ÅŁ Ãª
Ġmch ango
bia shara
Ġmi tatu
uku mu
Ġkari buni
an isha
Ġmw ingine
Ġwe k
Ġm ama
Ġgjel der
Ġh am
ĠS el
v t
Ġye ye
ĠU jerumani
Ġinter es
Ġ is
Ġo ff
ĠlÃ¸ pet
ku san
ĠP wani
umi wa
Ġkan skje
Ġtu r
Ġc a
v or
ĠK or
Ġma kazi
Aki zungumza
om u
Ġku anzia
o koa
Ġku jenga
áĥĺáĥ Ŀáĥ
c i
Ġkon takt
Ñ ı
Ġmennes ker
Ġma l
ĠE v
ĠKili manjar
ran s
Ġr Ã¥
kt ari
et o
ge zeko
P icha
kili za
Ġwa fu
Ġime kuwa
Ġku ona
p h
Ġkom p
la h
Ġenk elt
áĥĿáĥ Ľ
Ġh in
ĠÃ ĩ
ish ati
Ġri poti
Ġku simamia
Ġmali po
áĥ §
Ġto vuti
ungu a
Ġma amuzi
amad uni
Ġku lia
ĠD unia
Ġhver t
Ġinter n
wan ga
Ġwana wake
ĠBara za
ĠKa gera
in zani
ĠM ambo
ĠP i
an n
S er
Ġarbeid s
ĠH am
Ġbru kes
Ġn Ã»
bi wa
Ġk jÃ¸r
Ġmin dre
tu ba
H ii
Ġda gen
Ġs hirika
Ġma andalizi
ku sho
kusho to
ĠM ara
p ele
Ġmil li
Ġam a
Ġbi r
Ġ isi
ĠKilimanjar o
3 5
Ġf ul
Ġmaa fisa
Ġm pira
tumia ji
sani i
asjon en
v un
en a
Ġjo bb
r ani
ĠMwa limu
kati fu
Ġhu sika
y wa
Ġv ina
ĠE m
ĠZ a
or te
p lass
Ġan nen
Ġn Ãª
Ġtil f
Ġs var
Ġv oks
amu a
Ġu zoefu
Ġsm Ã¥
i k
Ġgj ort
z ara
B A
ĠÃ§ Ãª
ing wa
ĠL e
l ene
Ġka uli
pi g
ĠVi jana
Ġmap ema
Ġzi ta
ĠM ta
Ġra ia
chuku liwa
Ġwa gonjwa
ĠU faransa
la l
un du
Ġda ta
áĥĲáĥ ¢
Ġmi pango
Ġm chezaji
hiti mu
ĠK atika
Ġma kao
a le
le der
te d
Ġsam arbeid
ĠmÃ¥ tte
j uli
Ġáĥĺ áĥ
Ġufun guzi
Ġm dogo
har ama
ti dig
f in
Ġhjel p
Ġku endelea
ara bu
Ġu ko
Ġny umbani
Ġwana chama
ongo zwa
ĠNa ibu
ba ini
Ġwata alamu
200 6
C O
Ġd Ã¸
la t
Ġye k
Ġáĥ ®
ĠstÃ¸r re
Ġ )
Ġki tu
d umu
m el
sjon en
sm Ã¥l
áĥĺáĥ £
ĠmÃ¥ te
Ġny tt
Ġtren ger
Ġkas kazini
Ġbina damu
ke ti
Ġp ra
ku men
Ġb and
c om
Ġhat ari
P ia
ĠU ingereza
Ġku weza
Ġni vÃ®
Ġforsk jel
s lag
i ta
Ġall tid
Ġm ati
Ā Ā
Ġg ener
t ra
ia di
Ġmo yo
Ġj eshi
Ġu husiano
ti ya
Ġt he
ell es
al uma
k wi
Ġto k
ĠE l
3 1
Ġbar ne
ti za
ĠUs alama
Ġame kuwa
Ġamet oa
Ġn dogo
anga zwa
k ene
t on
v ene
4 5
ĠBar iadi
Ġiliyo pita
Ġuka guzi
Ġwame kuwa
Ġv urder
Ġk ri
ĠI ran
l me
ĠH un
ĠG a
g anga
Ġma oni
Ġmi kutano
di wani
Ãª de
ĠE tter
ar ia
Ġbeste m
f ri
ĠU ni
L i
s ere
Ġsa laam
ĠL indi
Ġamba ko
Ġon gezeko
ra q
en te
g el
Ġ Ãªn
Ġder es
Ġna tur
d Ãª
tum a
bÃ» na
pp e
pte mba
Ġbi lioni
li fu
ĠfÃ¸r st
Ġs na
Ġfin ner
Ġh vil
M i
áĥĺáĥ Ľ
ber g
Ġs ter
ĠT A
t ta
Ġx e
ten go
Ġmwana ume
Ġmwa limu
Ġmaha kama
Ġkommun e
os ia
áĥĺ áĥĲáĥľ
ĠMa a
ĠL Ãª
Ġst Ã¥r
s j
ĠK on
ji ra
Ġk m
ĠáĥľáĥĲáĥĽ áĥ£áĥ
Ġli gger
andi ka
ĠB e
ĠbÃ» n
ku ja
Ġkus hoto
Ġkiu chumi
j umu
Ġu zalishaji
Ġlili lo
Ġnett ste
Ġb el
g an
z Ãªn
Ġpro gramu
um ia
Ġvan ske
m ini
ll en
Ġku fa
ungu fu
di er
Ġan svar
Ġsa fari
9 0
Ġro bo
áĥĶáĥ¤ áĥ¡
al en
Ġb as
um an
Ġsk jer
ĠY esu
Ġkuto kea
ĠM singi
Ġof te
Ġutvik ling
ei ta
Ġe i
anga lia
k ra
g anda
Ġkon tro
th ony
20 00
Ġres ulta
in o
wa si
Ġn ini
Ġki ke
Ġkatika ti
Ġma dai
Ġman n
i en
om s
ti ne
ĠA mer
ĠD o
s ker
z ungu
Ġw ela
yan ya
Ġsi o
Ġma arufu
Ġhaku na
Ġpro sent
ĠW an
Ġdi be
. [
Ġinn legg
ĠS ha
ter ing
Ġmen er
ĠKi g
pan ga
imar isha
tegem ea
by gg
K am
ÅŁ Ã®
ĵ áĥ·
y d
Ġn Ã¸d
ĠS hirika
Ġmen gine
und wa
Ġkis asa
Ġawa mu
Ġuwe z
Ġkuto lewa
Ġnav Ãª
ĠN A
eld re
ang an
er ing
ĠE w
áĥĿáĥ ®
gu u
Ġk valitet
Ġb asi
go sti
Ġor odha
husi ana
endeke zo
umba wanga
S S
ele f
ĠF ran
áĥĲáĥ ¥
ĠÃ¸ konom
ĠFe bru
Ġba dala
Ġwi to
ĠlÃ¸ s
Ġf an
bu d
I M
Ġa ja
Ġti r
Ġh Ã¥nd
Ġaki m
ondo a
ĠM heshimiwa
ang wa
kua ji
y on
ar an
kti sk
ver k
Ġsa la
ĠG o
ĠG eita
Ġs oko
ĠSp ika
Ġla zima
un der
ĠT e
j eshi
Ġku elekea
Ġkuto kuwa
Ġwi zara
Ġkufu atia
ĠWana funzi
Ġwa ziri
Ġg harama
Ġo per
ĠMa ja
ff ek
Ġs pen
áĥ ¦
kti ge
D en
ĠPa ul
Ġh else
W ana
f Ã¸re
ra t
Ġmi tano
un ua
ambu li
Ġkati ba
Ġman eno
Ġf re
L a
áĥĺ áĥĲáĥ¨
ĠH ii
ti sha
ĠMa ji
ĠP emba
jen gwa
ĠSek ta
Ġkuli ko
Ġjo b
H i
áĥ ŀ
ĠV ed
Ġku ongezeka
anda liwa
ĠS umbawanga
Ġvili vyo
kwi mu
ĠN Ã¥r
Ġmar ke
Ġti den
v else
Ġma ss
ĠC hi
ĠÃ§ a
ĠM er
Ã ĺ
alo zi
ĠSe ptemba
ĠJ eshi
Ġd ine
Ġv et
Ġ '
Ã® ka
J eg
Ġzi me
Ġku ch
Ġz Ãªde
lin zi
Ġmfu pi
h umiwa
ĠKan isa
Ġsa tt
ĠS Ã¥
ĠA u
sp ro
Ġl Ã¥
ho v
pi li
Ġut dan
200 5
Ġli me
Ġm vua
Ġyo yote
Ġk Ãª
Ġma zo
i ro
ĠS hi
ĠO pp
áĥĺáĥ ĵ
Ġg or
ĠH o
Ġenk el
ĠJu u
Ġku zi
isi tiza
Ġny uma
Ġim ani
ĠIs ra
ver t
i twa
ham ani
Ġku mu
fari ki
zungum zia
wez esha
anga zaji
Ġsko le
áĥ Ĺ
A n
Ġhan s
ĠO r
te uliwa
toke za
ma vu
ĠMaha kama
j or
Ġl ov
x a
Ġt l
Ġg rupp
ĠC o
Ġfort satt
ĠN ew
áĥĺáĥ ¢
ĠIn n
Ġu zazi
Ġuwez ekano
Ġmati babu
kubali ano
li v
Ġspi ll
ver e
g h
Ġkur dÃ®
p or
S e
gi za
em be
ta ll
Ġs til
ili a
ri ye
ĠA gosti
Ġki dato
Ġma pato
ek Ãª
ĠNor ges
Ġben y
ba s
ĠÂ ·
Ġd y
Ġmil jÃ¸
bru k
ĠI ku
ĠM taka
ĠKis wahili
ĠDes emba
Ġt ume
Ġkuz ingatia
ĠJu lai
Ġwa teja
ĠMo shi
Ġlang t
Ġhi l
Ġma b
ĠTir ki
Ġsam fun
ing e
Ġáĥ ¯
U N
su t
F A
ĠU rusi
Ġmata tizo
we po
bo ok
ĠpÃª k
h ati
Ġal dri
Ġd ika
d isha
Ġwa m
Ġbi dra
r om
ĠÃ§ ar
du ksjon
I C
t y
Ġku sema
Ġkampen i
dh ara
an ishwa
indu a
bor esha
ist rer
ĠA nd
ke b
n ende
ĠfÃ¸l ge
ĠN ov
es ia
Ġre kke
Ġu ja
Ġba ÅŁ
sta wi
es s
Ġwa zazi
Ġku chukua
dai wa
ĠN ord
sti tu
er er
ka ya
re v
T E
tumi wa
Ġfa inali
Ġulimwen gu
esa bu
Ġvan n
Ġle gge
zi m
v eg
hi li
Ġmi ka
s ett
k ning
gr unn
ĠK risto
ĠM is
Ġdi bÃª
Ġm zuri
ĠM w
Ġwasi wasi
Ġm fuko
Ġbaada ye
Ġu kuaji
Ġmaj ukumu
Ġli cha
Ġku re
K A
Ġforskjel lige
s ku
Ġc Ã®
Ġgang er
Ġwe we
Ġhara ka
fun gua
Ġta tizo
Ġmaal umu
Ġdem ok
um p
wa di
Ġda ger
ĠmÃ¥ n
Ġst ra
un e
Ġali yo
fany iwa
ĠK ar
er o
r and
Ġpe y
Ġd amer
ry kk
Ġha tt
Ġsy k
fÃ¸r ing
Ġkr oner
5 00
f tet
ĠMag haribi
Ġwa kulima
ishi a
g rupp
er ia
ĠÅŁ e
ĠO m
Ġma len
Ġl ett
Ġser a
y ika
Ġlag et
Ġn ord
ki zi
ĠPro f
Ġame wa
Ġka unti
Ġsh erehe
Ġulio pita
ĠM sa
Ġv ek
je a
Ġd ek
ĠáĥĽ áĥĲ
Ġp la
Ġu a
Ġk ort
Ġn este
on s
ja dala
Ġiliyo po
ke za
Ġwa shiriki
Ġv yote
ĠSek ondari
Ġba li
ĠF i
Ġh Ã¥
ce book
re g
u le
ĠN g
áĥ ¬
Ġáĥ łáĥ
zi wa
Ġku fi
sp unkt
li zo
Ġkup unguza
Ġbar ua
Ġkus hu
h ama
ĠN e
f te
i ti
Ġpro gram
hi hi
Ġf lo
Ġhe ye
E n
Ġsi fa
P A
ĠY anga
o lewa
an ske
Ġs ol
ka a
Ġq e
Ġle der
Ġav a
Ġbru kt
dig het
Ġmaba o
b ati
ongo zo
Ġfa ida
Wa kati
T u
m ene
al es
Ġsa a
Ġd ema
Ġer far
Ġku mi
3 4
k jÃ¸
ĠK in
ĠB ru
ĠI ta
Ġb ek
ham ini
Ġhu su
Ġali wa
Ġu ba
Ã¸ m
Ġmi d
Ġsi ya
Ġg re
Ġm s
ĠFebru ari
Ġnu su
lal ami
ĠM wen
lu t
t anzania
ĠKi islamu
Ġu fan
Ġkan uni
ar s
19 5
Ġdi jÃ®
Ġte m
Ġh ot
cha p
ĠS Ã»
Ġfl este
ĠkjÃ¸ pe
as h
tt es
ari ki
ta sjon
Ġhu ru
Ġura is
d es
D a
Ġte v
Ġáĥ ļ
ris ti
ĠF o
Ġku la
ha i
y et
k Ãªn
ksjon er
Ġg jerne
t ani
P ro
Ġkuja dili
Ġhu wa
Ġmba ya
Ġaki pokea
Ġji ji
juli kana
Ġs j
fÃ¸r er
Ġher Ãª
ĠY a
Ġhist ori
Ġopp ga
Ġli te
k y
za ke
S i
Ġk ish
Ġst and
Ġg ani
Ġki ma
isi tu
ĠMa kon
Ġt hamani
fu a
Ġn amba
Ġuta lii
Ġmwan dishi
bei der
ĠP er
ye ke
li ki
Ġp asi
Ġb al
Ġd ham
ĠMaja liwa
Ġmalen go
Ġku vu
mali za
met a
ĠÃ¸ n
r ang
Ġen er
D E
Ġr Ã»
Ġkul tur
am p
D A
Ġav s
ksom het
ara ja
Ġk anda
ĠMo ham
áĥĺ áĥĲ
áĥ ĳ
Ġku imarisha
Ġta bia
Ġkuta futa
fadhi li
Ġs ed
Ġdi vÃª
Ġh eller
und om
Ġet t
ri ge
Ġdi tt
ĠÃ¥ pen
Ġs Ã¸r
ĠS ulu
ta lt
dha bu
Ġmash ariki
Ġopp da
Ġba jar
Ġt an
áĥ£áĥ łáĥ
Ġhati ye
Ġgam le
ĠâĢ Ŀ
ko s
Ġmass asje
ĠN Ã¥
Ġs ing
sp ort
Ġen da
Ġs Ã¦r
ĠKig oma
ÅŁ e
Ġmka kati
ĠS amia
Ġma gonjwa
Ġz enye
Ġho tuba
Ġkar ne
Ġufa ulu
fun za
lu lizo
Ġvi kuu
Ġu shauri
undom binu
ĠA v
ĠnÃ¸d ven
" .
ĠU ganda
Ġv Ã®
Ġk ro
Ġci va
un do
ĠvÃ¥r t
a chi
Ġs osia
Ġvan lig
Ġg ari
d ia
Ġha u
Ã¥ ende
ong we
anz isha
ras ia
idi zi
áĥĺáĥ ļáĥĺ
Ġ %
um mer
áĥĺáĥ łáĥ
du stri
b Ã®
Ġwi ha
Ġsk y
ĠDen ne
Ġli ten
ĠT he
Ġo slo
fi r
ĠM al
ĠSulu hu
ĠKi jiji
Ġume kuwa
Ġu shindi
lizi ka
Ð ±
áĥ ¤
3 8
n ene
ki ka
hen gi
ba ll
Ġu bora
Ġmash indano
Ġu haki
ĠU kumbi
ver si
3 6
Ġki lom
3 2
v ek
ĠD is
Ġb an
Ġr am
Ġw o
ĠL o
Ġkon kur
Ġre w
Ġli ta
Ġp os
ĠspÃ¸r smÃ¥l
Ġmu si
po te
Ġza wadi
ĠM tendaji
Ġana ye
Ġdar asa
t Ãªn
m eld
ĠM r
d rett
R I
pi r
ĠSt ella
yo ta
ku tana
áĥĿáĥ ľáĥ
Ġku badili
dhi biti
Ġkut ambua
Ġmazo ezi
Ġx w
b ina
z an
s ek
ham as
Ġ &
ĠMa chi
B i
p anda
ĠA S
Ġm p
x i
Ġha ja
Ser ikali
Ġku husiana
ua wa
fa lme
Ġusi ku
Ġvit endo
Ġma kubaliano
ye k
ĠK ia
Ġung dom
Ġk ol
Ġfi re
ĠW i
Ġm ang
ze ti
Ġste d
Ġbe hov
ĠM amlaka
Ġu wa
T imu
kur asa
Ġki fo
ĠTu zo
tum e
ja dili
de ling
Ġulio po
Ġma wasiliano
Ġspesi elt
K K
hamia ji
m Ã®
Ã ħ
k ing
Ġmiro v
Ġb ry
ĠstÃ¸r ste
g as
S a
ta llet
Ġto ka
Ġki ume
Ġku boresha
Ġku fika
ish na
ĠKor ea
an sen
ĠP icha
in isha
Ġm gogoro
Ġwasi o
Ġba ina
andi kwa
Ġdi re
Ñ ĥ
Ġaller ede
r ene
Ġtr or
Ġno v
Ġs tem
ĠT imu
Ġhi ki
k ring
Ġsom mer
ĠMakon da
Ġm shindi
Ġmfu lulizo
Ġn ishati
Ġkuka gua
Ġufan isi
Ġma ombi
ĠM staafu
Ġhjel pe
Ġon line
ha di
ber t
ĠS om
ĠN j
ĠsÃ¸ k
Ġli vet
u ka
Ġup as
Ġkusa idia
Ġku shi
Ġsa yansi
ĠMan yanya
M kurugenzi
Ġi taka
as ili
Ġsi de
fa tter
z oni
v Ã¦r
Ġgi tt
Ġer o
.. ..
Ġali yÃª
Ġf elles
ning ene
ĠZ iwa
Ġn ane
s Ãª
ĠMa funzo
omba ji
ĠS he
ĠU ongozi
Ġmi ji
Ġjo to
Ġkush indwa
Ġkish eria
Ġvanske lig
den de
si de
lin da
Ġkra v
hol der
Ġz an
pp or
Ġmi ta
fa ll
Ġm g
R D
Ġf ast
si g
x e
ba ki
sk et
buni fu
ĠN dugu
Ġwa jibu
Ġupas uaji
Ġf ol
ĠS o
Ġs ette
b ika
re y
Ġbet yr
ka ta
ist an
on al
ĠH vis
Ġgel Ãª
Ġli n
Ġna sjon
Ġkom pet
Ġakti vitet
Ġbo di
Ġut ford
lag t
ĠU linzi
Ġkam bi
Ġwa tendaji
Na ibu
Ġvya n
ta jwa
Ġwa tumiaji
si den
Ġst ort
Ġan ga
Ġsen ere
Ġt ri
ĠG od
ĠM il
ya yÃª
tu s
ĠrÃ¥ d
b yr
ari bu
vi ce
Ġorgan is
Ġta kri
Ġku zuia
Ġmag ari
Ġbes Ã¸k
Ġa jira
Ġe ffek
Â» .
Ġintern asjon
ĠG u
Ġbed ri
o ver
Ġdel er
Ġher Ã®
Ġdi gi
áĥĿáĥłáĥ Ĺ
ĠM us
in er
Ġs end
ĠĠ ĠĠ
mi l
Ġkvin ne
ĠKam puni
Ġvi fo
Ġki zazi
Ġmag haribi
Ġvyan zo
endele za
Ġw ingi
ĠJa kaya
be fa
Ġin v
c Ã®
o o
ĠI nd
Ġdo kumen
el s
Ġs an
, âĢĿ
ran Ãª
esi gn
Ġet ab
ĠÃ¥r ene
hus isha
and amano
ya na
Ã¥ let
n ame
ĠE t
ba da
ote li
Ġdel ta
Ġmin st
Ġhol de
je f
Ġdew let
Ġnor ge
ĠE uro
áĥ Ł
ĠI raq
Ġtil gjen
ĠK anda
Ġye kÃª
Ġten Ãª
Ġlag t
lu bb
Ġk li
O N
s for
ĠHa ki
mili ki
Ġju hudi
Ġcha ke
Ġamba vyo
ling ana
ĠM ka
Ġsem ina
rÃ¥ d
ĠA wa
Ġdi yar
áĥĶáĥ Ľ
q u
Ġlen ge
xis tin
Ġsy ke
st ru
la hi
Ġarbeid et
ĠâĢ ¢
z ar
lag et
Ġhali si
Ma kala
ch wa
ser te
r asjon
Ã¸d t
id en
du l
ĠN je
y bet
ger ia
Ġma dara
Ġvi jiji
Ġku leta
u da
Ġek stra
re vet
Ġgra d
F F
Ġ che
k el
ĠP ia
Ġre gi
Ã® ro
ĠNor sk
fun di
b es
kim wi
fanya biashara
Ġz ar
fun gu
Ġku ishi
ĠWa tu
. "
b eg
ĠU N
Ġman u
Ġk ny
Ġf Ã¸
zi to
Ã® yÃª
E C
Ġf em
Ġn esten
ku mu
Ġf yl
ĠKata vi
áĥ£áĥ Ľ
Ġki dogo
Ġwa bunge
Ġwaki fuatilia
Ġuten daji
Ġkwa o
Ġteknolo jia
wez ekana
Ġm bio
Ġmilli oner
fÃ¸l ge
K U
u p
Ġma i
Ġbi be
k Ã»
d isjon
Ġun ge
v ende
Ġa za
Ġm ke
ĠMwen ge
Ġi ko
ĠM wenye
Ġkuwasili sha
Ġna o
ĠNj ombe
kama twa
ĠM handisi
ĠT h
Ã ¼
Ġbo lig
Ġful ani
ff e
f olk
Ġfo ku
s am
Ġmo to
ĠU SA
Ġan satte
Ġk ara
Ġd Ã¥r
Ġak is
Ġun i
Ġu kurasa
za o
Ġziman Ãª
cha gua
Ġles e
ĠB iashara
Ġmap endekezo
ku wepo
bi le
H u
klu der
ĠA pri
ĠnÃ¦r m
Ġre du
Ġdi xwa
Ġp re
ĠIsra el
ti on
Ġh eta
r ar
Ġs c
Ġakiwa sili
Ġvi wango
un uzi
Ġkuka ma
ku fu
it y
Ġule mavu
ĠM in
Ġh Ã»n
Ġfe il
ĠJo se
D e
Ġn et
R C
v al
eg a
Ġtu li
la la
y er
ska ri
ĠB an
Ġstu den
ã ģ
or k
Ġmawa zo
ji o
Ġkom be
Ġju a
Ġma kini
Ġmi undombinu
ĠKili mo
I L
ĠáĥĹ áĥĶ
Ġb ort
or de
li kt
T O
ĠÃ¸ kt
20 20
Ġeg ne
ĠG i
isi ko
Ã¸ n
4 8
ĠA na
ha t
Ġfor stÃ¥
ambu kizi
C CM
Ġu kubwa
ĠB wana
isa ada
Ġra hisi
Ġa si
ĠâĢ ŀ
3 00
s v
sta d
D P
p ul
Ġhe w
and re
ng Ã¥
Ġko di
ll y
Ġki ka
Ġi ka
ĠNov emba
ĠKi tuo
ĠMta katifu
Ġm ingi
Ġmaj ina
Ġchan jo
hu ria
Ġj engo
Ġslu tt
B C
om rÃ¥
áĥĲáĥļ áĥĺ
am as
u si
Ġby g
Ġn ya
ĠK un
Ġmin u
b lia
sa babisha
ti shwa
ĠKa imu
Ġkun unua
ji tokeza
Ġali toa
as heria
áĥ£áĥ ľ
Ġd ra
f iser
Ġder som
Ġsk jÃ¸
E L
s ki
an ge
ĠH va
ĠL es
p lan
Ġh ene
h ist
ĠAn thony
Ġiliyo kuwa
M kutano
Ġup inzani
Ġkati bu
fan ua
Ġs jek
fun ga
keb isho
Ġuta kuwa
âĢ ¢
Ġkum bu
Ġhati n
f y
200 3
ti yÃª
Ġj Ãª
Ġb or
ff er
ĠV er
4 9
3 7
su r
Ġfan ta
Ġmaka m
Ġvye ma
I n
ĠUta fiti
Ġkuka bidhi
da gen
ĠUta lii
Ġt ran
ĠS em
Ġla ge
Ġgo tin
ĠN ya
áĥĿáĥ ¦
Â ²
Ġki l
ĠA d
ka si
Ġ ang
er ere
f ra
end om
k j
Ġd ha
bi la
ĠkjÃ¸ p
Ġut valg
Ġri ktig
id del
Ġfer dig
ĠU islamu
Ġku cheza
la s
shu kuru
ĠS ongwe
mili sha
Ġma andamano
M wan
Ġkupi ga
ĠB en
kt Ã¸r
led ning
la bu
u di
i yÃª
he im
Ġvirke lig
Ġsi tu
de wa
u k
Ġsent ra
e li
mi za
Ġwe kÃ®
ĠJ imbo
Ġkufun ga
Ġsha hada
Ġwali po
Ġuj uzi
Ġkuka milika
Ġwa geni
Ġku jua
j amii
Ã ¶
Ġbi ld
Ġpu bli
Ġw er
3 3
Ġdo la
áĥĿáĥ ¤
4 2
D C
ĠJ e
ĠÃ¥r et
Ġta s
hengi g
g ana
m y
ĠKi taifa
Ġu kiwa
Ġkuji funza
ati sk
Ġn dugu
ĠNy erere
jen go
as iasa
ne o
dem ok
Ġprodu ksjon
ĠP ili
b ri
Ġáĥ ©
r um
Ġinn hold
ĠT V
Ġko st
Ġan befa
Ġspi ller
og le
b lem
Ġg er
Ġzi ki
Ġni ha
ĠMi taa
Ġye yote
Ġusafi ri
Ġs l
Ġu fu
ter ia
ĠstÃ¸ tte
Ġforb ind
kjen t
am bia
an de
Ġfa ktisk
Ġby gge
Ġáĥ¬áĥĲáĥľ áĥĲ
ĠW e
Ġmi ti
ĠM A
vi d
Ġd om
man n
Ġr is
wan za
Ġgj orde
ĠSt or
eshi ma
l lere
Ġki kazi
Ġm jadala
ĠAr dhi
Ġuk weli
ji jini
Ġku zaliwa
Ġut um
b ra
Ġs es
Ġsikker het
Ġste det
Ġa s
ĠFa cebook
Ġkam ili
Ġener gi
Ġa dhabu
Ġu sha
Ġku onyesha
Ġki kosi
B O
hud huria
Ġg anske
Ġhen ne
Ġse p
Ġali m
Ġspen nende
idler tid
Ġj e
dra g
or ge
ĠMa li
Ġst y
anu ar
Ġpi ÅŁtÃ®
Ġg esi
k ishwa
d hamini
Ġmi guu
Ġma ambukizi
fu go
Ġku ki
Ġo l
ĠB y
t el
Ġk jem
ati v
200 4
ar ti
ga wa
ten s
ku rat
Ġn Ã¸
Ġ áĥĲáĥłáĥ
Ġf ot
ĠD A
li ke
Ġenkel te
Ġta ybet
Ġspi lle
Ġbehand ling
Ġperson er
. )
kke lig
Ġr y
na d
asi ri
Ġku angalia
Ġkukama twa
ĠSa yansi
Ġal ama
sko fu
sema ji
Ġwaki m
Ġamba cho
J a
ĠnÃ¸dven dig
v anger
ok Ãª
l Ã¦ring
Ġxe ba
Ġele kt
ĠáĥĲáĥ Ļ
ra ha
Ġsi kre
Ġa b
s dag
ĠMa t
Ġti mer
v d
Ġb ud
Ġf y
ĠIta lia
Ġp esa
diri o
M koa
Ġmoja wapo
Ġusa jili
ĠB alozi
ĠR eg
ĠÃª rÃ®
Ġna va
Ġh jer
Ġd yr
Ġuten for
ĠZ i
Ġk v
Ġreg istrer
li t
ĠKa zi
Ġh vi
z Ãª
ĠTr ump
mar k
Ġh oja
pe kee
th mini
La kini
ara tani
amb ano
Ġkup atikana
ĠG e
f es
âĢĿ .
ch ani
ĠM ari
Ġl eng
g we
kt or
ĠsÃ¸ ke
ko l
p hen
Ġb uti
Ġn ete
Ġma sha
Ġr oja
ĠK al
Ġu elewa
uman ne
mili fu
Ġi bada
Ġm taa
Ġfor v
Ġku pokea
i g
li ka
Ġ $
Ġle gger
ska per
vik ling
O R
om e
ĠC a
Ġtil tak
Ġd ia
Ġto pp
es er
tu ren
ĠS Ã¸r
200 2
Ġn em
li s
áĥĲáĥľ áĥĵ
id h
! !
Ġper io
Ġwa ka
Ġg ha
Ġsam tidig
ber a
sti sk
yu ta
Ġzi ada
ele vu
ambu liwa
hi a
Ġbara za
ĠJi jini
Ġaki li
Ġim esema
Ġku maliza
s to
H I
ĠKi m
Ġu ke
Ġm el
áĥķ áĥĲáĥļ
m on
Ġkur dan
wa r
Ã İ
ÅŁ ker
h ana
re p
Ġkun st
ĠB ur
Ġa da
Ã®ÅŁ an
Ġkuru di
lalami ko
Ġuk anda
Ġku taka
Ġkufu ata
Ġma shirika
z amo
Ġti keti
Ġm tihani
Ġiki wemo
Ġh eshima
áĥĲáĥľ áĥ¡
ĠhÃ¸y ere
Ġlike vel
áĥ£áĥ ĵ
ĠW il
Ġa pp
v ne
hi r
5 5
Ġkun nskap
Ġam ri
Ġb unge
Ã®n Ã®
Ġsli ke
ish ara
Ġm ume
Ġmwenye ji
wa kilishi
Ġam em
ĠM eneja
ĠP ombe
Ġuha lifu
Se hemu
ambu zi
Ġt ani
tanda oni
ĠW anga
Ġl Ã¦re
Ġf ung
w w
q a
fi ri
Ġv ise
v de
Ġeg entlig
ĠáĥĽ áĥĶáĥ
Ġj ente
ĠA lle
as s
la d
Ġki me
Ġpen ger
p le
Ġr en
Ġte ma
gu ja
Ġmi taa
kili sha
fika po
pi ki
Ġhuku mu
Ġwafu asi
Ġkumbu kumbu
Ġkut angaza
n u
lys ninger
Ġpar ti
K T
ud an
Ġpo eng
Ġprosjek t
ĠH el
Ġp ol
ĠE li
Ġder med
Ã¥r et
ati ve
versi tet
Ġki le
rÃ¥ k
ĠSte phen
r ere
ama li
Ġya ta
Ġkuwe keza
ĠAwa mu
Ġma dini
fa hamu
Ġmas lahi
t ambo
on esho
Ġfor es
ser ing
ter er
ĠCh ar
Ġf as
Ġfort eller
Ã¸ ke
c t
ur t
Ġpri va
Ð ´
y m
Ġland et
Ġti ÅŁ
ĠS ko
ĠÃ§ end
4 7
Ġim idlertid
ĠF re
Ġk ote
vel ser
t ambua
Ġa gizo
Ġmare kebisho
Ta arifa
Ġunder sÃ¸k
Ġsi la
Ġv ari
ĠMa ka
I A
Ġp art
hi m
hi biti
Ġx wed
jen ester
Ġy u
Ġhem ber
Ġetab ler
Ġprosjek tet
k ka
Ġvi tu
Ġi le
ĠE neo
Ġndi ye
poti wa
ĠMwa na
Ġkuondo a
Ġru shwa
ĠWanga bo
tem ber
ĠgÃ¥ tt
po st
H er
Ġforbind else
E T
ti den
pan ia
Ġmedlem mer
pro sjek
Ġáĥ Ŀ
0 6
Ġm od
Ġhjem me
Ġwa a
Ġen c
ama a
Ġut styr
ĠMa kao
Ġeg et
zungu ko
Ġki pekee
Ġsa hihi
Ġmi tihani
ĠV yuo
rik isho
fany ia
Ġm to
anga zo
Ġmare hemu
Ġm bunge
Ġu shirika
Ġut ro
Ġki ra
áĥĲáĥ Ļ
si der
Ġr un
elef on
per a
Â» ,
sku dd
hol de
Ġbi d
p atia
ti ye
O S
Ġar rang
ĠdÃ® ro
D u
ter te
Ġ Ã¸y
Ġhati ne
Ġutvik le
Ġmaka la
ĠNo en
Ġwaki mbi
end esha
Ġup ungufu
Ġkusa babisha
k wenda
c tor
r g
Ġu to
ĠkjÃ¦r lighet
Ġber Ãª
Ġtid lig
3 9
se fu
Ðº Ð°
ti ve
Ġsko len
h Ãªn
áĥł áĥĺ
Ġc ar
pp et
Ġstar tet
Ġgr un
Ġklo kker
ĠI kke
le g
ĠS al
Ġm ine
yi ko
at hiri
Ġi fikapo
j uma
ĠHu duma
Ġv ingi
Ġwa wekezaji
Ġmanu faa
wasili shwa
Ġko cha
Ġsyn es
Ġkuji unga
Ġdri ft
ĠAb dul
ye kÃ®
ĠI ns
c an
ĠA t
ĠC ity
ser er
ĠbÃ» ye
Ġnav n
ĠgjÃ¸r es
Ġku ri
di e
che zwa
ĠKia frika
Ġj umuiya
Ġwa gombea
ĠM tandao
kati li
Ġkup ele
Ġwasi chana
Ġmusi kk
fun gwa
ĠN di
Ġhver andre
ĠprÃ¸ ve
ĠNi geria
Ġre pres
lÃ¸ s
Ġfun ksjon
Ġb ur
Ġb Ã®
e za
ta s
Ġska pe
f r
Ġalt sÃ¥
d is
Ġm eld
ent lige
M B
Ġin kluder
4 00
c al
M u
L A
p ris
áĥĺáĥ ¥
ĠKurd Ã®
ĠWa kati
ĠKi l
áĥĶáĥľáĥ ¢
li k
s gi
el fu
Ġma lalamiko
vu vi
Ġkuru husu
ĠBi blia
li kuwa
Ġlina lo
Ġmika kati
Ġa hadi
Ġwan yama
ĠM bunge
ĠMa wasiliano
ĠMi pango
Ġuta kao
Ġs alg
ta ja
k is
ĠWa a
iro bi
Ġverden s
Ġp sy
Ġo p
w Ãª
Ġx wen
ĠomrÃ¥ det
Ġf jor
to pp
Ġbegyn te
s b
ss y
Ġkufu atilia
Ġwenye ji
Ġkuku za
Ġku omba
Ha yo
Ġyali kuwa
Ġkuwa nia
Ġtar atibu
fa ham
oko vu
amb ana
ĠY o
Ġb eta
fÃ¸r es
Ġr el
Ġh Ã¸r
Ġkl art
Ġáĥĺáĥ ľáĥ
ĠE s
IN G
zi di
le k
i la
Ġdi b
ter i
Ġbil de
to k
kk el
Ġut gang
ele a
ĠJo achi
Ġma sk
lo zi
and ina
ĠJoachi m
ĠT ek
Ġbe ÅŁ
Ġaja li
Ġal der
v o
Ġfort set
ĠUn guja
ĠMan yara
ĠKi ingereza
Ġwana jeshi
ĠKas sim
Ġku anzishwa
Ġisi yo
Ġm isaada
Ġvina vyo
Ġuhaki ka
ĠAf isa
kati bu
Ġiliyo tolewa
Ġwi mbo
ĠS udan
c c
ĠsÃ¦r lig
Ġt ru
t Ã»
Ġinnen for
Ġg av
ales tina
ĠJose ph
f ia
t un
ĠGo ogle
A me
Ġfil m
Ġskri ve
Ġpro ble
Ġwe ke
P Ã¥
Ġv ekt
hand ling
Ġkom men
ku ta
Ġku tu
Ġ Ã®n
Ġba o
Ġf jer
st an
Ġni vÃ¥
Ġkij eshi
Ġm isitu
Ġyaliyo fanyika
Ka imu
Ġana weza
Ġkita aluma
ĠWa fanyakazi
ho ji
si kiliza
p elekea
Ġku changia
kusan ya
end eshaji
jumu isha
Ġdi j
Ġtra disjon
ri d
Ġten ke
g ar
ĠmÃ¸ ter
áĥĿáĥ Ĵ
gu st
Ġs isi
Ġh as
Ġg und
arbeid et
Ġu tu
Ġt Ãªn
w n
le de
áĥĿáĥ Ĺ
is in
Ġbeg ge
Ġin dustri
Ġha zi
Ġna yo
kt en
áĥĿáĥ ĵ
ĠU k
Ã® l
áĥ£áĥ Ĺ
el o
lan go
J i
Ġma ziwa
Ġmakam puni
Ġm sh
li pwa
Ġuja o
gi wa
Ġa skari
Ġm zima
Ġku dumu
Vi ongozi
v uma
ingi za
Ġut amaduni
tum wa
eleke zo
Ġfun net
ye m
ĠKurd an
ĠI I
Ġtren ing
M en
tin Ãª
Ġres e
s sa
g ere
ĠT AN
Ġáĥ¬áĥĲáĥľ áĥĲáĥ¨
i ge
ĠNa irobi
ta len
Ġminu tter
h el
ĠfÃ¸l ger
Ġ eldre
ĠÐ ¾
ĠÃ ©
Ġjob ber
ĠáĥĿáĥ ¨
Ġskri ver
Ġtjen ester
ko di
u hi
u zo
b are
Ġáĥ ĸ
Ġma wili
Ġkuu za
ĠD uniani
Ġzilizo po
Ġfu raha
Ġma kosa
ĠLa kini
stil ling
ti m
ĠÃ® ro
Ġmin ne
ĠM Ã¸
ven tu
Ġpro blem
ku l
ja a
ĠS en
ĠG r
ĠS y
Ġhu s
Ġsa ken
kl ar
li o
ten de
m wa
ĠK wanza
Ġ â
Ġm bo
ĠIku lu
Ġuwe po
Ġlili kuwa
Ġha dhara
Ġmwana chama
fi kiwa
kwa zo
Ġak isa
ashi riki
Ġkita bu
pele kwa
p angwa
Ġfu pi
Ġle i
men t
ĠS ol
Ð° Ð½
ĠÃ§ av
áĥĲáĥ ª
Ġu f
Ġal Ã®
ĠI na
Ġen este
ĠAnd re
Ġj uni
áĥĺáĥ¡ áĥ¢
ĠF in
n ns
k we
Ð ¼
Ġh is
Ġkny ttet
em en
ĠN d
Ġtu ta
ĠD r
Ġkompet anse
Ġsing le
Ġki t
Ġm zunguko
in ishwa
ma ji
Ġkuondo ka
ji bika
Ġwana ume
Ġáĥĵ áĥ¦
ĠN kasi
Ġkuwa pa
ver n
Ġbar na
Ġven n
and o
Ġna s
Ġki riye
k ta
Ġs ham
ĠR es
Ġden g
ĠI m
Ġpro ses
áĥĶáĥ ¥
Ġda wÃ®
ll es
Ġpo pul
ĠlÃ¸ p
h esa
ĠE d
st Ã¥r
kt et
ES CO
4 6
Ġforsk ning
Ġvei en
Ġk lubb
ett et
ĠT or
Ġan legg
Ġvya o
Ġwen zake
fa fanua
Ġu fadhili
ĠK ombe
ĠU shirika
ĠhÃ¸y t
ambuli sho
Ġma elekezo
ĠI ng
ĠD em
ĀĀ ĀĀ
Ġam eri
Ġpi ÅŁt
Ġkom met
h is
Ġsyk dom
um be
ĠUn der
E tter
Ġf ant
Ġre ise
Ġr isiko
h ema
Ġmu s
Ġkam p
Ġba wer
res s
k ende
in dani
Ġm yn
áĥĲáĥľ áĥ£áĥł
Ġchan zo
ka guzi
Ġend elevu
Ġwakimbi zi
t angaza
jer uhi
uk lia
ĠWa andishi
Ġband ari
Ġwa sanii
ĠBer gen
Ġdi de
tÃ® k
wa da
am Ãª
Ġhvil ke
en ge
ener ali
Ġha v
Ġhen nes
Ġvel ge
pita l
Ġpo si
Ġhol der
7 5
Ġkes Ãªn
P P
ng i
n ere
Ġk art
ĠM ama
ĠHa li
Ġreg jer
Ġak kurat
ĠAm ani
Ġris asi
Ġn eno
Ġzar ok
et ro
Ġnav bera
Ġmwa kilishi
ambu lia
ony esho
Ġm na
p ungua
ĠMr isho
Ġwa po
Ġku kosa
cha che
Ġwata tu
ĠU shirikiano
ĠE U
E M
g Ã¥r
áĥĲáĥ Ĵ
E D
ĠHa ta
Ġl Ã¦r
Ġg ren
Ġg rÃ¸
ru k
Ġmi tt
Ġf Ã¸dt
s in
em ent
U t
Ġwa la
Ġh oteli
Ġs lÃ¥
0 9
ĠSer a
pote za
Na ye
ter es
Ha tua
r atibu
Ġ ishara
ĠJi ji
Ġku ung
Ġwa taka
ĠS iasa
Ġhati ma
ga wan
Ġinayo fuata
j aribu
Ġki pa
Ġkina cho
Ġdham ana
ta fiti
Ġmwan zoni
Ġby en
min ist
ĠG ud
land et
al u
e pu
li tikk
Ġbegyn ner
Ġus o
ha li
w in
áĥĲáĥ ĳ
ans ett
Ġav gjÃ¸r
mil jÃ¸
ki ri
Ġtilgjen gelig
Ġf al
Ġmo der
Ġkontro ll
Ġp r
ĠMa zingira
ĠWa jumbe
Ka uli
ĠJ umanne
husi wa
Ġwata alam
ka milika
Ġku lingana
Ġku teuliwa
p endeke
hud umia
Mwa ka
Ġnav net
Ġfor h
Ġd re
Ġfor n
l s
el Ãª
jen ge
ĠH en
p Ã¥
er te
Ġko sa
ĠTirki ye
si bu
ĠC RD
ku su
Ġili po
Ġku ya
Ġsana a
b ingwa
Ġku su
mba ji
Ġm binu
Ġku anzisha
Ġma zuri
demok rasia
Ġsila ha
Ġn yota
Ġki geni
Ġan n
Ġkv eld
fan uzi
ĠKam ishna
Ġha te
ĠB il
Ġlen ger
ĠE i
Ġin di
bi ki
Ġte g
Ġskj ed
ĠA z
Ġo b
kk es
Ġbarne ha
s ni
Det te
f tig
Ġst Ã¥
hu set
f Ãª
Ġvoks ne
B o
ĠR as
ĠC ar
ka ji
Ġser Ãª
ĠJ uli
ĠCRD B
ĠWan anchi
Ġya ani
kati kati
z indua
Ġup endo
p atiwa
cho che
Ġs alama
Ġm gombea
tengene za
Ġku tembelea
ĠKi jamii
Ġkuli kuwa
ĠhÃª zÃªn
ĠAr beid
Ġfor ut
Ġdest pÃª
n Ã¥
Ġli ker
sp lan
9 5
ste met
K O
I na
l te
W I
Ġven ner
p la
v are
t to
pp ort
SS F
E A
Ġru ss
go zi
ili ki
v ed
Ġmaa dili
ĠKi ongozi
ĠU tumishi
hitaji ka
Ġulio fanywa
Ġuha ba
ĠN dani
ĠRu faa
Ġhusu san
Ġkuvu tia
b ishwa
Ġwana weza
áĥ£áĥ ¡
ĠdÃ¥r lig
on ser
Ġutdan ning
ki ta
ĠV el
lÃ¸ p
ver ket
and ar
Ġku le
Ġin spi
Ġhal v
ĠÃ© n
Ġdem Ãª
Ġopp rett
Ġáĥŀ áĥł
Ġu tt
ĠÃİ ranÃª
ĠF ra
áĥ£áĥ ¨
kt Ã¸y
Ã§ Ã»
in sia
ta ler
Ġpa le
Ġt Ã¸r
ĠU kimwi
ĠM radi
ĠP amoja
fuatilia ji
Ġmas wali
Wana funzi
ki zo
Ġd araja
met oa
h eng
si kring
fa g
men tet
Ġi drett
M S
Ġviktig ste
n else
0 5
ĠQ ur
ĠC on
ĠInd ia
ta d
spi ll
mu a
Ġpres enter
ker ne
be a
Ġma zao
Ġle ÅŁker
sh indani
fu u
ĠJuma pili
fuata yo
Ġji rani
Ġmwan ga
ĠHi vyo
Ġta kwimu
6 5
Ġ áĥĲáĥłáĥĹ
ĠR ama
Ġma sa
V U
Ġgjen opp
an si
Ġki f
z ana
fi kk
Ġfin t
c ia
r oni
en ga
u ru
ĠK ongo
Ġret te
Ġb ela
Ġan tall
Ġd ele
ĠB ina
Ġu ma
ĠS A
Ġna ye
Ġsu ra
ĠR oma
Ġku ma
Ġi po
áĥĶáĥľáĥ ĵ
Ġmwen endo
Ġvita bu
Ġma andishi
Ġw okovu
Ġku husika
on de
Ġute uzi
Ġki bina
P o
ar y
per son
ĠcÃ® h
Ġsta dig
li pp
v end
ri yÃª
Ġf ris
Ġda te
ha d
ĠA ra
e ti
Ġhot ell
k ret
men n
el ses
us jon
zo zo
Ġal vor
hist oria
ĠMoham ed
Ġku tumika
Ġm geni
Ġwa fanyabiashara
to liki
juma a
ĠM wi
Ġmi gogoro
Ġu shiriki
Ġsa uti
Ġkup anda
tara jia
Ġutvik let
s f
ĠK ama
Ġbi bin
ĠnÃª zÃ®
Ġk jÃ¸re
er en
Ġd ame
er u
ĠF Ã¸r
Ġf all
Ġdest Ãª
Ġsel skapet
Ġx o
ĠE le
ker s
ĠSel v
ĠmÃ¥n ed
áĥĲáĥł áĥĺ
un t
Ġtil byr
áĥ® áĥķ
ge ha
ĠÅŁ a
ĠÃ¸ ke
bar t
ge zo
amo si
Ġin stitu
ti hada
Ġakiwasili sha
ru husu
Ġji oni
Ġn zima
ĠU simamizi
ami wa
amba zaji
ĠRu vuma
ĠV o
fuata zo
um amosi
ĠMwenye zi
Ġpi chani
wasili sha
b und
u zaji
Ġtil gang
Ġtre d
9 9
áĥĺáĥ ĸ
Ġs lag
ĠMan ge
ss en
ĠA h
ĠF C
Ġutro lig
ĠI d
Ġfor an
l Ã¦r
Ġn Ã®
lo gi
ĠS oma
or Ãª
ĠChar les
ke lig
" ,
g uni
ĠnivÃ® s
pele ka
ibu ka
Ġata kuwa
Ġku andaa
Ġu bunifu
amini fu
ch ango
Ġku fanikiwa
dh ani
pi gwa
ĠWa islamu
Ka bla
Ġk isha
Ġku endeleza
ĠM tume
Ġma dar
ek s
M he
Ġku ten
fu taji
Ġku pewa
Ġtil bud
ĠH else
áĥ¬ áĥĲáĥľáĥ£áĥł
áĥĲáĥł áĥĺáĥ¨
ĠpÃ¥ vir
yr ia
Ġm am
Ġle gg
Ġcha t
áĥ ¯
200 1
Ġma k
áĥ łáĥ
áĥ£ áĥĲáĥ¤
Ġreg el
ks is
Ġe ier
ÅŁ tin
l ani
áĥĲáĥ ķ
Ġm y
Ġsiya sÃ®
ns yn
ĠBa ba
ke m
ĠP KK
áĥĿáĥ Ļ
Ġvin ter
Ġku me
Ġma si
áĥĶáĥ Ĵ
áĥĶáĥ ¢
ĠSe x
ko ÅŁ
di ya
on o
Ġju kumu
lo jia
Ġv isiwa
ĠMa tumizi
ĠMa kuu
Ġya ki
hud ia
Ġku undwa
ĠA g
ĠG jen
Ð¾ Ð²
Ġti ps
vis jon
I D
Ġz Ã®
Ġdi l
Ġr eng
ĠáĥĹ áĥĺáĥľ
ĠÃ§ ala
áĥĲáĥ ĺ
áĥĿáĥĳ áĥĲáĥ¨
Ġal tern
wa y
Ġver di
Ġt v
Ġxwed Ã®
ĠnÃ¦r ings
ki rÃ®
ja ji
Ġhand ler
ĠE z
c s
ĠRu ss
i ma
Ġk er
bar Ãª
ĠTr oms
Ã® ng
Ġf ani
b est
Ġkjen te
ana ji
var er
Ġtil pas
Ġju zi
Ġti sa
Ġdire kte
Ġm kopo
Ġvi kao
Ġa fisa
fani kisha
ĠA idha
sim amo
Ġmi fuko
Ġmadar asa
Ġkus oma
Ġina vyo
ĠTa arifa
4 4
u su
tiv t
ĠA ma
ĠY e
ĠM Ã¸te
Ġfor el
par te
ĠDis se
Ġrese pt
Ġm Ãª
ĠfÃ¸l gende
15 0
m Ãªn
Ġáĥ¬áĥĲáĥľ áĥĲáĥ¡
Ġnatur lig
Ġf jell
Ġerfar ing
Ġl Ã¦rer
ĠU na
Ġforb ed
Ġra ppor
x Ãª
áĥĺ áĥĲáĥ¡
áĥ¨ áĥĶ
os ho
W an
ĠP or
kom men
Ã» rÃª
W T
K ama
sp lass
Ġmi paka
ĠI T
Ġji tihada
Ġku sim
chap ishwa
ĠApri li
Ġl enye
Ġwa zee
hu tu
Ġn gozi
Ġkuta tua
Ġkilom ita
Ġitaka yo
Ġmta zamo
Ġvi te
li mi
Ġras kt
hi la
ond heim
Ġsi ri
ika sjon
Ġs are
Ġv Ã¦r
Ġf la
Ð± Ð»
Ġx el
0 7
ska ps
fa li
Ġg e
Ġni ka
kt ene
Ġopp mer
Ġvi kundi
Ġku onekana
M eneja
kari bisha
bili ana
Ġu katili
ĠM ganga
haribi fu
Ġma penzi
Ġzi taka
Ġzi fuatazo
Ġz etu
t angazwa
Ġan asema
Ġku linda
ĠMaa fisa
Ġutgang spunkt
Ġste der
ve i
Ġt um
Ã ¡
L I
Ġd ro
isl am
Ġj anuar
ĠE nd
R i
Ġs jÃ¸
c el
Ġinne holder
ĠR Ãª
N Ã¥r
ĠY ork
Ġka li
sa ba
áĥĶáĥ ļáĥĺ
áĥĿáĥ ķ
Ð ³
Ġ: )
Ġku g
Ġti ba
ĠT ra
Ġkjen ner
Ġvi me
Ġgir Ãª
pri l
Ġba ba
wa wa
b en
g in
ĠN dege
Ġki tengo
Ġkomp yuta
ĠWa kala
umbu zi
Ġny uklia
Ġmap ambano
Ġku zungumza
Ġku zalisha
Ġku okoa
dh amu
Ġmas oko
hamas isha
to lea
ĠI lala
Ġwa kubwa
pi mo
Ġma uzo
o tek
Ġk lass
Ġki lo
ĠF ri
ma d
Ġma teria
ĠÃ¸ v
y Ã®n
C C
eng ene
li ko
ĠK eb
áĥĲáĥľ áĥĴ
ĠT id
Ġtek n
v ori
Ġla v
Ġbes kri
Ġáĥĵáĥ¦ áĥĲ
se lig
ĠV est
on en
R O
ĠEng land
Ġen gas
Ġsp esia
ra h
ĠP eter
Ġma cho
an ya
li vet
j ord
Ġbu re
Ġfor del
Ġst rÃ¸m
Ġopp lÃ¦ring
is ini
Ġmi mba
Ġkon g
Ġmi kon
ĠKeb we
onge zwa
Ġuko sefu
Ġma jengo
Wa fanyakazi
ĠBa ada
Ġku fanyiwa
Ġvy umba
g umu
Ġru faa
Ġkuli pa
Ġf omu
v ol
el ote
Ġt est
Ġgor Ã®
âĢ¦ âĢ¦
and ari
ĠR oja
gi tt
Ġhv em
Ġu ker
Ġtil by
ĠÃ¥p ne
n t
Ġkonkur ran
l ar
ĠDer som
ĠC ongo
as Ã®
ĠáĥĿáĥ¨ áĥ¬áĥĲáĥľáĥ£áĥł
ĠAmer ika
d y
ko ba
be ba
Ġna ken
Ġbe h
eng ine
Ġs Ãª
j ema
S D
ĠRi ch
Ġu stawi
w ishi
Ġya si
ĠS yria
beg u
sh inda
ĠMa pato
Ġaki ongea
Ġkushi ka
Ġat hari
Ġku unda
Ġku tekelezwa
lighet en
di r
Ġh und
er Ãª
Ġgjennom fÃ¸rt
P i
le o
ĠSa id
Ġe uro
h y
v and
on gen
x w
an ser
ĠK ong
ĠIn tern
Ã¸ s
Ð¸ Ñı
Ġdagen s
m ing
f ara
ĠB ra
Ġfoku s
Ġzan Ã®n
Ġs ma
Ġbe vis
ĠBi ma
ĠMis ri
Ġbeg ren
Ġma h
a hidi
Ġali i
Ġkilicho fanyika
asiri amali
ba inisha
end eshwa
onge zi
Ġkuka milisha
Ġtakri ban
Ġki ungo
Ġki moja
Ġufa fanuzi
ya hudi
Ġres sur
199 0
Ġoff entlig
teg ori
ĠR wanda
Ġbas ert
Ġflo tt
Ġspi llet
ĠAmer Ã®ka
l la
wi tter
0 8
A r
áĥĲáĥłáĥ Ļ
ĠA le
Ġhil bi
ĠU z
Ġnettste der
i de
t ning
ĠsÃ¸ n
Ġsk revet
x u
Ġst re
P S
H ali
Ġh isa
ar bei
ĠBur undi
áĥĲáĥľ áĥĲ
f old
Ġta k
h uma
ret ari
asi mu
d ema
Ġda kika
andi kisha
ĠT sh
Ġm ti
A fisa
Ġyan gu
Ġu pya
isi wani
Ġkure jea
Ġkup ungua
Ġkui bu
ĠBa adhi
aru ra
kos ekana
ĠUt angazaji
Ġk Ã®
b lo
Ġáĥ ¦
Ġb log
Ġteknolo gi
gu e
Ġvan t
g te
ati vt
0 4
sa k
ÅŁ Ãªn
ĠáĥĽáĥĲ áĥĲáĥłáĥĹ
Ġbet yd
0 3
ĠH us
áĥĺáĥ Ĵ
vis ning
áĥĶáĥ ĵ
Ġt am
kirin Ãª
ei f
ĠT FF
Ġloka le
se p
Ġmulighet er
Ġbo k
amili a
Ġre fer
Ġkom bin
ĠÃ§ Ã»
ĠB us
Ġj ord
ba ya
Ġku vun
Ġilivyo kuwa
sa jili
Ġk isiwa
su bu
M moja
Ġali vyo
M oja
Ġni li
Ġkuma lizika
Ġha dhi
ari bio
Ġmu undo
Ġus huru
Ġk ry
Ġku chukuliwa
ling anishwa
Ġisi pokuwa
Ġsiku kuu
unga ji
jadili ano
ĠZ elote
s ol
ar der
Ġprodu kter
di re
Ġs pe
ĠT ur
m t
Ġi de
Ġhe z
Ġsex y
w o
ani ya
ĠA s
ĠdibÃª je
ke zi
M as
Ġsam let
al er
Ġe ventu
Ġun n
Ġsk je
g ing
in t
Ġt une
Ã¸r dag
ĠK jÃ¸
on ga
ti sti
het ani
ĠU jenzi
Ġwa pya
go di
Ġmada wa
Ġng umu
sha hara
ri kisha
Ġn yara
ĠVi wanda
Ġku andika
Ġu pe
ond on
ĠC om
Ġsy stem
Ġw ere
Ġn eg
Ġfor e
ĠkÃª m
K I
Ġvi ktige
ks en
199 5
k orte
on ya
6 6
áĥ·áĥĽ áĥĲ
Ġs etter
tt ene
: -
log isk
Ġut for
ĠH Ã¸y
v s
S h
Ġst ri
li li
Ġtred je
Ġb anda
ĠA ng
es e
Ġnor m
ĠWilaya ni
ĠKi arabu
Ġku kubali
ĠI jumaa
A wali
tuma ini
ĠA skofu
Ki ongozi
ta alamu
Ġm ingine
han ati
ingi zwa
Ġvi ungo
Ġu endeshaji
Ġm tandaoni
ĠM on
or en
Ġbi len
u e
parte mentet
Ġv iste
Ġforn Ã¸y
Ġhev al
Ġ +
ti ge
Ġji yana
ven n
Ġwa r
Ġsi g
Ġ =
s yn
Ġdis ku
v ing
Ġbi ma
Ġsosia le
Ġras t
Ġkro ppen
ka p
Z a
Ġli k
Ġzi wa
er Ã®
v Ã®n
Ġsep tember
Ġma z
Ġs jel
Ġs ho
ĠDa g
Ġgir Ã®ng
Ġmar s
Ġv yo
Ġmu ungano
undu a
Ġnya kati
ĠU chumi
subu hi
Ġtu huma
vuti o
Ġm zozo
Ġvi jijini
Ġkut angazwa
Ġs aratani
ĠM kazi
andi ko
Ġkufun gua
et tere
ĠH v
0 1
sa v
Ġder etter
Ġf ine
Ġfa vori
ĠNo bel
z anÃ®
Ġgir tin
T I
Ġbud sj
Ġber dewa
Ġbajar Ãª
bu tikk
dar Ã®
Ġmulighet en
ĠMa la
Ã¸r s
f ly
kom mun
áĥĶáĥ Ļ
Ġbak grunn
Ġdi bin
Ġbes ky
ti lle
ĠA lly
t ren
vn t
ar Ãª
k Ã¥r
Ġáĥłáĥ ĵáĥ·
ĠTirki yÃª
Ġfo to
j ene
Ġm Ã®
la li
Ġm et
Ġin vi
set ning
Ġfyl kes
Ġdew leta
Ġs la
om as
ĠPro sjek
kk ene
til ling
ĠhÃ¥ per
Ġbet y
na der
Ġhol dt
ve ien
Ġvel ger
ĠM n
ĠU kaguzi
Ġta fsiri
Ġvya ke
Ġmis ingi
t angu
Ġkush inda
Ġkushu ka
yan Ãª
m ara
Ġklo kke
Ġameri kan
¡ áĥ®
Ġover sikt
p ori
Ġb re
Ġd esign
ĠUni ted
ĠáĥĻ áĥĲáĥļ
ĠKom mun
áĥĶáĥĹ áĥĺáĥ¨
ĠP S
ĠDer for
ĠKi r
Ġsa k
den s
g ele
Ġw isa
ĠL and
Ġend ringer
j an
199 7
yr et
ĠÃ¥r s
vi le
Ġly s
Ġra gi
áĥĲáĥ ĸ
p el
li za
ken ya
Ġopp nÃ¥
Ġmer ke
ĠmÃ¥n eder
Ġ #
Ġl Ã®
Ġfot ball
sh e
ĠU K
ri thi
ĠRe hema
M chezaji
ĠT y
wa kilisha
Ġhu yu
pa ji
Wa tu
Ġm lango
Ġch umba
Ġkui fanya
Ġzitaka zo
Ġkan isa
Ġuta futaji
Ġkes ho
Ġwali yo
Ġsikker t
r un
Ġpo st
Ġopp tatt
Ġáĥ¬ áĥ§
v Ãªn
der s
vin ner
ĠRo j
r Ã¸r
p ek
Ġm Ã®na
Ã ¤
Ġch u
te gi
ĠÃ¸n sket
ĠRo bert
Ġwo w
ĠEuro pa
b ya
ĠáĥĿáĥ łáĥ
ĠomrÃ¥ der
Ġa pril
Ġproble mer
st ari
fa ka
i to
ĠV en
bi r
Ġama de
Ġp ara
Ma a
sko len
xwe ÅŁ
ĠS an
Ġb ord
kto ber
tet ea
Ġkup ambana
Ġmash arti
Ku tokana
ĠWaa frika
Ġbar ani
Ġku tengeneza
fu atia
Ġmi fumo
indu liwa
Ġwa hitimu
Ġku ongoza
ĠBara bara
ĠTi go
Ġma jadiliano
ĠK risti
Ġg ul
bo k
ĠD el
me lig
Ġda xwa
Ġb l
pro du
Ġdag lig
Ġbi li
c ro
ĠmÃ¥ ten
Ġt elefon
Ġek te
Ġdika re
áĥ· áĥľ
Ġtro ss
an ter
âĢĿ ,
m end
A R
c ks
Ġali y
Ġmas se
ĠP u
Ġsan nsyn
este d
ĠL ondon
Ġu v
Ġm on
u za
gi ver
ĠA sia
man Ã®
rÃ¥ det
ĠC HA
Ġd Ã¸d
est ene
man nen
ro ho
Ġhawa na
Ġbygg et
ha sibu
te ua
Ġwow ote
ĠMi kopo
len ga
Ġmaji ra
s isitiza
Ġu pi
ĠS hetani
ini wa
Ġura hisi
Ġwana damu
ĠMwa kilishi
Ġkita alamu
Ġwa weze
Ġku hifadhi
Ġkuka a
arufu ku
hesa biwa
ĠV yama
Ġkus amba
Ġaja bu
Ġma onesho
Ġm eter
ĠnÃ¦rm ere
Ġkre ver
Ġci h
sen al
Ġn r
Ġvalg t
Ġmor gen
ler ing
Ġbest Ã¥r
dig heter
D I
Ġblo gg
Ġras tÃ®
ĠhÃ¸y re
Ġjob be
Ġs ist
Ġre a
ĠF ar
ĠáĥĽáĥĲáĥĲáĥłáĥĹ áĥĲ
ĠÃ¸n ske
Ġbi din
J e
Ġnem lig
z ma
ĠM s
Ġáĥ£ áĥĽ
en ta
sh ana
ĠO ver
ĠB es
Ġáĥ ª
ĠSt ars
st Ã¸
Ġh end
ĠSp ort
Ġwe b
ri ft
M pango
Ġu mbali
tin do
Ġulimwen guni
Ġu fuatiliaji
ga idi
Ġm begu
amuzi ki
Ġus ambazaji
Ġho fu
um bele
dhi fa
Ġkif edha
M wana
Ġu haribifu
di yÃª
pu ko
Ġaki pata
kwa a
Ġwafu gaji
5 6
ĠB jÃ¸r
et Ãª
ur na
Ġa tt
B ar
h Ã¸r
Ġy tter
Ġpra ksis
ele van
ĠC ol
Ġde i
sgi rÃª
sa ker
Ġkommun en
R K
ĠdÃ¸ de
Ġda gir
Ġn yan
Ġt or
I I
Ġti ÅŁt
ĠN T
ran n
ver re
Ġp embe
z ama
Ġly st
Ġvia gra
tek Ã®
Ġmal ba
vel sen
k rani
ĠlÃ¸s ninger
li am
Ġle ve
Ġmas hu
ĠH ans
lu b
li st
áĥĻ áĥ·áĥĽáĥĲ
7 2
asjon s
ada u
Ġa subuhi
ĠM bo
Hi vyo
ambulia ji
ĠJ umamosi
Ġof isini
ku zwa
Ġha ina
ung eni
Ġiliyo andaliwa
Ġvye ti
ha bari
Ġm sanii
Si ku
Ġsu kari
Ġm simamo
gi riki
Ġkup inga
Ġma diwani
under sÃ¸k
Ġvir ksomhet
Ġes c
4 3
5 8
k ler
Ġh ed
s se
t om
dan ning
we yÃ®
tto o
ga ve
ĠM es
xu yan
rin n
Z I
ĠV il
Ġdika rin
ĠÃ§a wa
sk ning
c is
sp or
ĠS tu
ĠD ating
Ġper f
5 9
Â «
C I
t tig
Ġfors lag
am in
Ġun ngÃ¥
Ġder barÃª
ĠTir k
Ġloka l
m b
Ġáĥ£ áĥĻ
ĠM or
wen i
ko fu
Ġs Ã®
ĠW as
Ġpir tÃ»
by g
áĥĲáĥĽ áĥĺ
ĠM ili
onal d
ĠO d
ki za
u se
ĠP Ãª
áĥ£áĥ ľáĥ
Ġsi der
m isha
Ã¸ kt
u zwa
hus ishwa
P amoja
ĠU wekezaji
Ġra fiki
Ġa taka
Ġma elfu
um zi
Ġm shahara
Ġmwa kani
Ġman ispaa
ĠBa jeti
Ġmat angazo
nolo jia
ĠM wili
Ġhel st
teg eme
z uku
jin ia
Ġinternasjon ale
Ð ¹
ati ske
Ġrew ÅŁa
ĠK ris
ti ka
Ġbi de
Ġt es
kan t
ĠáĥĹ áĥĺáĥ¨
ĠFo to
Ġáĥľ áĥĿáĥ¦
Ġpro fes
Ġma la
p on
Ġáĥ Ł
ana da
c y
valg et
áĥĲáĥļ áĥ£
fÃ¸l gelig
Ġes korte
4 1
ĠÃ¥r ets
sk on
Ġom fa
Ġbe veg
el tet
um bi
Ġfor bru
Ġma d
Ġz e
R E
ka ran
bÃ»n Ãª
Ġinn sa
ma t
ke f
Ġku pa
Ġn ina
ati ba
Ġavs lu
is hu
ĠáĥľáĥĲáĥĽáĥ£áĥ Ĺ
Ġ *
hi ya
ĠS eif
da com
Ġmwanam ume
áĥĶáĥ¨ áĥĶ
Ġwa piga
ĠM toto
Ġbaada e
Ġkufu zu
esh eni
V CCM
Ġku kua
ĠK ika
Ġm arufuku
Ġo ktober
Ġhis ia
Ġma husiano
Ġdh ati
Ġm stari
ĠM si
Ġmsi tu
Ġmwen ge
Ġb rans
Ġdet al
Ġgang en
u st
ĠA pp
ĠJ an
en ing
Ġak tu
ĠáĥĽáĥ£áĥ ¨
le y
is ere
i te
ist ri
Ġv es
m m
wi ra
ĠE x
Ġhem an
Ġz in
Ġc on
ĠAn na
ĠH ot
ff et
ĠÃ§ ek
ĠÃ Ĭ
Ġmor som
Ġlu ft
A S
Ġkir ine
ĠSoma lia
ĠMa wa
Ġvideo er
ĠMa al
ĠKi la
Ġpas ser
c ar
197 7
Ġfamili e
um ini
Ġmarke ds
gi ft
Ġkl are
Ġtjen este
Ġhistori e
el sene
Ġkuku tana
Ġwana paswa
Ġz isi
Ġsi yo
ond oni
Ġm kazi
Ġel fu
ĠWa tanzania
Ġmaa gizo
Ġma tumaini
tumi kia
fisa di
Ġkika milifu
ku toka
ra v
Ġmw ongozo
ĠÅŁer Ãª
e ke
ta li
Ġdes ember
Ġhvor for
Ġgam mel
ver s
ĠÃ¸ ye
ĠWi ki
Ġle dd
Ġhjel per
sen ter
Ġend ring
ela g
Ġstyr ke
Ġder bas
legg ing
Ġt om
Ġnettste det
Ġhin ek
r asi
em b
der a
k or
5 1
kti vitet
to l
Ġnov ember
ĠMar ia
ha bu
O g
Ġbid rar
Ġkra ft
Ġal fa
k ne
ĠĠĠĠ ĠĠĠĠ
Ġvurder ing
Ġk na
ĠkjÃ¦r este
Ġsn art
em wa
ĠJ enerali
ĠVo dacom
Ġhi ari
Ġina kuwa
ĠMi chezo
Ġslu tten
som i
Ġalipo tembelea
Ġmaz ishi
Ġhu toa
fun guliwa
ĠKa toliki
Ġkuka biliana
ĠKin ondoni
t ambu
Ġma onyesho
ĠMi radi
ondo ka
eleke za
Ġku fanikisha
Ġki roho
Ġta aluma
ĠKan uni
j esha
Ġwakim sikiliza
dili fu
ili mali
Ġras ilimali
a giza
Ġmaa bara
Ġkuz indua
Ġufun di
eleke o
ĠIn jinia
I li
Ġki wanda
ell en
Ġs ten
pi ll
i ri
Ġáĥ °
wa g
D er
Ġm eto
Ġinne b
ĠÃİ s
J o
ta ket
ĠP ol
ÐºÐ° Ñı
Ġei endom
Ġa ga
áĥĺáĥľ áĥ£
ti ki
Ġfors var
tt ende
ĠRoja va
Ġhen hold
ĠIraq Ãª
T U
Ġu av
ĠF er
Ġtry gg
ĠáĥľáĥĲáĥĽáĥ£áĥ ¨
U F
áĥĲáĥ¨ áĥĶ
Ġwa sa
c Ãª
Ġlegg es
r Ã»
Ġsp rÃ¥k
Ġar beider
Ġa ks
ĠhÃ¸ st
r ende
T he
áĥ· áĥĹ
Ġhai ja
len i
Ġen e
ya sema
Ġmadara ka
as kofu
limi ana
Ġwi zi
ĠKam anda
Ġwa asi
ta wala
Ġkira fiki
Ġk isa
wer de
ĠSem ina
Ġmwa mba
ka gua
Ġhilbi jar
lo ba
d ari
Ġv ist
po s
Ġbi gi
Ġragi hand
Ġkun der
ren g
áĥĺáĥł áĥĺ
g jÃ¸re
q Ã®
Ġfor eldre
organ is
ã ĥ
ĠM os
ar ke
Ġfors Ã¸k
Ġb lÃ¥
Ġhvil ken
Ġana ly
da yÃ®
z en
Ġg lad
Ġdating side
r else
M o
Ġbe folk
Ġi den
in ar
q as
Ġs ven
Ġbild et
Ġhy gge
Ġl ettere
ĠfÃ¸r er
Ġin ng
nska ps
am Ãªn
plass en
Ġre d
j Ãª
n Ã¦r
Ġda xuyan
angan yika
ku li
1 000
hu i
u fa
Ġau gust
) :
ĠHa i
Ã¥ d
ĠfÃ¸ ler
Ãª z
u re
Ġsti lle
Ġu ansett
ja yo
Ġoppga ver
ĠSta vanger
al Ã®
kim bi
Ġm bi
ĠMa dini
Ġku panga
Ri poti
Ġp ongezi
Ġuha i
Ġdh arura
Ġaka unti
Ġame i
Ġmi fugo
ĠI dadi
pen gele
ĠB andari
ĠMa diwani
ĠSe hemu
Ġp wani
ta ur
Ġr elevan
Ġsammen lig
Ń áĥ§
áĥĶáĥ ķ
Ġvir ksom
h ver
ĠNor ske
Ġu d
Ġsta t
ĠJam es
Ðµ Ð½
met o
k jÃ¸r
Ġfanta stisk
Ġk os
Ġm f
Ð ¿
áĥĿáĥĳ áĥĲ
Ġh um
M er
áĥĿáĥ ŀ
ĠN yan
ĠI r
sti ske
ing o
ye kÃª
Ġe x
ĠP h
x ane
Ã¸ st
M e
ĠV Ã¥r
ver ige
for hold
Ġf ry
Ġ ori
n an
van Ãªn
ĠK ara
Ġki ri
Ġtu ren
ĠShe in
ĠDe w
Ġsa fi
ent ene
T o
áĥ ª
Ġbela v
Ġs Ã®n
Ġkommun ikasjon
Ġkam era
hi ki
ĠPro gramu
Ġwa ch
Ġb ri
ĠÐ¾ Ð±Ð»
DE MA
k risto
Ġst art
ĠB Ã¥
Ġkij ana
za l
ĠU stawi
p ishwa
ĠNy umba
ĠKi tengo
isha hara
Ġu aminifu
Ġj uma
Ġkuto ku
ku funzi
ĠV VU
Ġu hifadhi
Ġina paswa
Ġki islamu
thi biti
Ġkuwa po
Ku husu
Ġkuku san
Ġina toa
Ġimet oa
pig ano
Ġkuto lea
ĠMsa idizi
ĠAr senal
Ġoff entlige
Ġsal an
ã Ģ
ĠÃĺ st
199 9
li e
ĠMa h
Ġbi b
Ġh Ã¸re
ĠS ana
sp ek
8 5
Ġut vi
ĠE fr
198 0
t ting
Ġsl ett
ĠP D
ĠT una
ra tÃ®k
am bi
ss el
Ġfor ven
ĠGjen nom
ĠWil liam
Ġmeg et
n ummer
ĠA lt
p inga
or Ã®
er s
g ia
te ya
ĠprÃ¸ ver
ur dere
ĠT anganyika
Ġpir sgirÃª
áĥĲáĥ ¦
ĠbÃ» ne
ĠB ora
vi ta
Ġol je
nings lin
va jo
ĠJuli us
op ia
O M
u el
Ġp lu
ĠTr ondheim
T una
Ġopp rin
q e
an Ãªn
Ġc om
Ġc o
Ġku in
Ġufa hamu
Ġku baini
Ġyasi yo
ĠN ishati
Ġamewa taka
Ġwa dogo
Ġku eleza
Ġvi gezo
Ġwa wakilishi
Ġku chaguliwa
ĠMali asili
ĠD RC
ĠMu him
ĠMuhim bili
ang ili
at hirika
Ġgrunn lag
. Â»
de lige
Ġy r
ĠJa pan
Ġi fÃ¸lge
Ġtek st
M ed
Ġnet topp
Ġforsk jell
Ġinv ester
ĠO le
Ġsiya set
Ġm Ã¸r
Ġti me
gen s
Ġbur de
Ġs ende
ĠVi ta
áĥĲáĥļ áĥ£áĥłáĥĺ
Ġin sta
ÑĢ Ð°
ĠKi lo
f Ãªn
ĠS ki
U na
Ġar ti
et Ã¸y
u zu
esi g
Ġma we
ĠR Ã»
or er
Ġpol Ã®
st y
Ġal b
Ġresulta ter
Ġm no
ĠRa ila
ĠAra bia
Ġmi zi
ĠSha hada
Ġfor fatter
2 50
Ġh ens
Ġder ke
Ġa xa
ĠE thi
n ne
Ġki biashara
Ġopp drag
fany i
hutu bia
kusanya ji
ĠTa kwimu
Ġkuondo lewa
Ġdh ana
Ġuf umbuzi
un zaji
Ġny imbo
Ġiki linganishwa
Ġkil ele
Ġm vu
Ġku epu
Ġhatima ye
adhim isha
Ġimet olewa
jenge a
Maa fisa
Ġki pato
amas ha
ĠWa zazi
ĠO l
Ġwe ÅŁ
7 8
Ġf ir
he v
Ġre gu
Ġten ker
6 00
Ġtran sport
x x
Ã¸ tet
y en
áĥĶáĥł áĥĺ
Ġy ng
ĠhÃ¸ ye
Ġsi tter
ĠH is
si ktig
lighet er
Ġbar net
0 2
asi m
áĥ ľáĥ
ko b
P a
pro gram
Ġnett et
pi ti
Ġfe bru
Ġda tter
to ko
ĠR om
Ġkur s
ek te
Ġhol d
fu ll
Ġruss iske
5 4
ĠÃ¸ ker
ĠMa d
slo ven
E m
H O
l ende
Ġka tegori
p ene
g s
ĠN am
Ġb us
te kt
Ġut s
ĠS and
ksjon en
Ġu sta
er ne
Ġly d
Ġh amu
Ġster k
z esha
Ġmaj eshi
ĠShi rikisho
ilia ji
isa idia
ĠBu koba
ji unga
faham ika
ĠWa limu
L E
Ġu kari
Ġmaha li
kam ani
ĠIku ngi
choche a
had hari
ĠN eno
ĠKi demokrasia
bi liwa
IM WI
ud hui
bu det
da tter
ĠG er
Ġprofes jon
Ġfor klar
ĠK ul
199 4
ĠB la
re k
Ġhe ad
b we
ko st
ĠO n
áĥĿáĥł áĥ£
Ġmid ler
Ġen ten
áĥĿáĥ ¬
Ġa re
z ina
q Ãª
áĥĺáĥ ª
Ġmarke det
mi o
bo la
het s
Ġfin ansi
bygg ing
áĥĲáĥłáĥĻ áĥĺ
Ġbi di
k r
Ġk ero
áĥ ļáĥĺ
Ġinnlegg et
Ñģ ÐºÐ°Ñı
b amba
z on
ĠU ra
ĠEthi opia
Ġdi kir
m Ã¥
S om
c on
en u
K o
Ġen delig
S Ã¥
as e
g ren
BO RA
áĥĲáĥ ©
ĠK una
Ġdixwa zin
Ġwa mesema
ham isi
Ġmaji mbo
jiri wa
i fanya
Ġki historia
Ġmi chango
zal endo
Ġta wala
pa kana
inga wa
Ġkufun gwa
hud umu
kabidhi wa
Ġhusu sani
Ġkupele kwa
ĠM ke
fuata vyo
ĠKenya tta
Ġya fuatayo
Ġp ande
Ġzi mekuwa
retari eti
Ġali pata
Ġku mekuwa
Ġkua cha
n or
áĥ ©
Ġopp lysninger
Ġbetyd ning
Ã¸r en
Ġáĥľ áĥĺáĥľ
ĠF I
ten si
i v
U S
Ġmen g
Ã®n Ãªn
ĠM ong
jen esten
and el
ĠáĥĻáĥĲáĥļ áĥĶáĥľáĥĵ
Ġb Ã¸ker
Ġxwe ÅŁ
S t
Ġme li
lig i
Ġgod kjen
Ġflo tte
T S
Ġav tale
Ġi la
P F
is en
on n
ĠD an
r or
isjon en
Ġsamfun ns
N A
ĠH ol
Ġber eg
Ġver ktÃ¸y
An thony
Ġen gel
Ġty per
Ġsn Ã¸
ar beider
Ġm es
y ona
hu ku
Ġbru kere
Ġgrupp e
Ġm ini
e y
Ġf ys
Ġom s
Ġmba dala
L icha
Ġun unuzi
amini ka
K una
T angu
Ġu kusanyaji
Ġmasa a
Ġkwa a
ta alam
áĥĶáĥľáĥ ¡
ĠJuma tatu
Ġku hamasisha
ĠDem ok
D kt
ish eni
ĠHaki mu
Ġmasha biki
Ġpas s
land s
N Ã¥
bla det
Ġar man
ĠG ab
te gr
7 00
el and
re pet
ĠA K
n elsen
Ġc uda
ri m
ĠC i
m Ã¥l
ĠÃ¥p net
la u
Ġsend t
gu r
ruk tur
Ġinneb Ã¦rer
ĠB eg
Ġsna kke
ska r
Ġsent rum
ri ya
Ġved like
Ġfung erer
Ġd Ã»
ĠAb dal
ĠtÃª koÅŁ
ĠÃª dÃ®
for bund
áĥĲáĥľ áĥ¢
p ort
ĠMu ham
Ġfor rige
du i
ve ber
Ġkro pp
Ġp rin
ĠSÃ» riyÃª
ta si
Ġiden ti
Ġvar me
ri ko
Ġre li
ĠS ongea
ve is
ĠUta wala
ĠWa toto
Ġkim koa
Ġm ishahara
Ġwa dhifa
Ġna kala
ĠU shauri
Ġum eto
bor eshaji
Ġina fanya
Ġsha ka
ĠTA BORA
Ġu fisadi
ĠU fundi
Ġ ingawa
Ġki kundi
Ġmwan asiasa
Ġzinazo endelea
Ġakis oma
5 2
Ġvi kwazo
ĠKik risto
Ġi wapo
ĠN chini
fun go
ĠKal ambo
ĠUK IMWI
li puko
Ġwali m
ĠJuma tano
ĠProf esa
Ġsa ini
ĠCHA DEMA
den i
T il
ĠFran cis
la tt
ĠP lan
b re
Ġsu per
Ġn Ã®ÅŁan
Ġl ar
gra f
Ġ áĥĲáĥĽ
ĠÃ¸konom i
Ä Ł
Ġder ve
Ġhu r
ĠK and
ĠRich ard
Ġh od
Ġta ll
ĠMoham med
ĠT en
su ten
v ist
Ġm ia
ĠáĥĴ áĥ·áĥĽ
Ġl Ã¸rdag
Ġopp fÃ¸l
Ġad minist
K ur
Ġinteres san
v ya
Ġfor eta
Ġd elt
áĥ£áĥ ĳ
Ġres ten
Ġopp fy
Ġka ya
ĠP en
Ġprosjek ter
Ġav hengig
Ġover ras
eg Ã¥ende
ĠAle x
ĠcÃ®h anÃª
Ġb ari
Ġv urdere
Ġan Ã®
po ol
u fi
Ġty delig
ĠT witter
jen da
Ġb on
ĠSana a
k elewa
ĠC ham
Ġmkon oni
Ġi jayo
Ġba hati
ony eshwa
Ġkuli pwa
hari ri
Ġvyo o
Ġfil amu
Mwa limu
ĠA C
Ġtakri bani
Ġkuibu ka
tambu lisha
ĠH esabu
gi zaji
diri wa
Ġupi maji
Ġu zito
ĠM pya
kubali ana
ghuli kia
Ġyana weza
Ġmta alamu
ham isho
Ġshu krani
Ġki chwa
Ġhu enda
zungum zwa
Ġmash ine
Ġkukusan ya
uzu lu
ĠMa ombi
Ġdham bi
U tafiti
ĠMa katibu
kÃª ÅŁ
y ombo
tt el
Ġana kuwa
ĠáĥĿáĥ ĳ
Ġb Ã¦re
Ġklar er
pro duksjon
del es
Ġredu sere
Ġregjer ingen
Ġinkluder t
d elt
ĠHer Ãª
Ġspi llere
20 22
ĠrÃª xistin
Ġmi dt
Ġrom an
ĠBan k
os ta
Ġsek s
tet en
p ia
Ġla ger
ĠDa vid
st Ã®
ĠmÃ¸ tte
ĠKurdist an
Ġsamfun net
Ġsel skap
Ġa ss
Ġdi din
ĠN MB
n ett
ĠBa ÅŁ
p ati
and am
ĠpÃª vajo
ĠSa la
yu po
kt roni
Ġselv fÃ¸lgelig
ĠkjÃ¸ nn
ĠP alestina
Ġtil svar
shi a
ĠH Ã¸
ang en
ĠU ng
Ġma du
y eta
ku fa
Ã ³
bar ani
ĠU WT
kati ka
ishi riki
Ġndi po
Ġm eneja
Ġame fanya
Ġmada ktari
Ġs wali
Ġmaha fali
ĠNchi mbi
Ġm kurugenzi
Ġda lili
Ġhara kati
ĠNd g
Ġu shindani
ĠT ano
Ġkuwe kwa
Ġmash amba
Ġyenye we
Ġmume we
Ġmi tambo
Ġali wahi
Ġina endelea
Ġkin y
Ġm fanyakazi
Ġu refu
Ġaki fungua
Ġmaka bidhi
Ġkor osho
am huri
cha fu
Ġmi kubwa
fi kishwa
zi mio
Ġzili kuwa
Ġvir ker
Ġk lima
vn te
ar Ã®
ĠMÃ¸ t
Ġle d
Â Ń
Ġdi lÃª
R e
Ġ ?
ĠS ir
ĠkjÃ¦r esten
Ġser i
ĠU p
ĠO b
ĠpÃª wÃ®
Ġstar te
Ġutvik lingen
Ġal ene
ĠS E
tro ll
Ġt ett
et h
sko le
T C
Ġfre e
R o
Ġstar ter
ĠJ en
Ġar tikk
ĠH vor
ing ene
Ġfil mer
ret te
ĠJoh an
Ġsjek ke
a a
em an
en za
Ġdi rÃª
k ro
skri ft
le zi
ti tu
ĠfornÃ¸y d
Ġk ris
Ġye kem
ĠdÃ® sa
Ġfebru ar
ĠáĥĴ áĥĺáĥľ
6 9
Ġel sker
Ġhe j
Ġde fin
Ġuni versitet
A l
ĠÅŁ ore
la zim
Ġta kk
p Ã®
ĠáĥĿáĥ¨áĥ¬áĥĲáĥľáĥ£áĥł áĥĲáĥ¨
Ġm aru
Ġkl Ã¦r
ĠAm ina
Ġma po
ya ng
Ġele ver
sni tt
j Ã¦r
Ġf ru
er es
Ġmwen d
Ġmawa ziri
d ana
tengene zo
Ġzisi zo
ĠVi kuu
angu ka
T ume
j asiriamali
ali kwa
ĠOd inga
U moja
Ġwataka o
Ġta hadhari
ch unguzi
ny umbani
Ġmaha kamani
ĠWana wake
Ġbari di
dha li
Ġutum ishi
Ġvi kosi
Ġhai kuwa
andar asi
Ġmakabidhi ano
Ġkuwa saidia
dri d
b ane
Ñ Į
Ġáĥ¥ áĥĺáĥĲáĥľ
Ġwa h
H o
U n
Ġf Ã¸re
Ġutford ringer
leg gende
Ġlever and
A M
Ġpa to
Ġkol le
Ġáĥ¨ áĥ®áĥķ
sek ven
Ġut Ã¸
Ġv old
ĠdibÃª jin
ti c
Ġfar ger
ä ¸
Ġtu sen
ĠTirkiye yÃª
Ġsp ise
Ġberdewa m
ĠS oko
Ġperson lig
Ġsa ker
ĠMa drid
Ġf est
Ġpar as
da len
Ġmoder ne
ĠÃ¸ d
ra l
Ġber hem
es ta
al la
ĠG ambo
Ġsam le
tter a
Ġju l
ĠSer vice
Ġvar e
ke wa
Ġb ist
ĠN SSF
lu h
Ġsky ld
d ating
Ġsvar t
ĠLi bya
bi ria
Ġra di
Ġu da
Ġndo to
r x
Ġwa p
Ġu boreshaji
Ġmaka dirio
M ganga
pi tia
Ġwar sha
Ġu jio
aru husu
Ġku fanywa
Ġkwaa jili
Ġku ham
Ġma arifa
Tu zo
ĠM iaka
ta futa
Ġwa met
Ġmbo lea
ar k
Ġk w
p likt
Ġkommen tar
im ot
Ġinteres se
Ġci hÃª
Ġbili nd
áĥĲáĥłáĥ Ľ
Ġved tak
Ġr Ã¸
ter s
em Ãª
yl kes
ĠdÃ® tin
Ġbeta le
Ġhember Ã®
ĠÅŁ Ãª
Ġlang s
Ġda to
Ġstand ard
ĠL y
hold t
ĠV in
ĠMar tin
ĠRe al
Ġper werde
Ġk vali
Ġkara kter
Ġs or
gi fter
Ġgod kjent
me a
Ġd rÃ¸m
ĠhÃ¸ sten
Ġh ind
Ġvi der
em i
ĠV ar
fÃ¸r te
i ko
sy net
ĠkjÃ¸ per
Ġstu di
g Ã¥
ami ra
h t
ĠMa y
Ġpriva t
k lo
res se
Ġli lle
Ġfor ret
Ġma go
Ġa jenda
ama ki
p indu
Ġenk lere
Ġim ara
Ġku endesha
wag iliaji
huku miwa
I kiwa
ta kuwa
on ekano
isi kiliza
Ġmaka mu
Ġakisa limiana
Ġmash taka
Ġkubadili sha
ĠMo yo
ĠK labu
Ġki fungu
Ġina patikana
Ġch ombo
ĠMas hirika
Ġkima penzi
tangu lia
Ġku kosekana
hibiti sha
Ġin asema
set ting
Ġkuti miza
Ġnyara ka
Ġm staafu
Ġku ing
tu humiwa
Ġmat endo
Ġm gonjwa
Ġma udhui
ĠWa bunge
Ġu hamiaji
ĠU hamiaji
Ġh omo
ĠmÃ¥ ter
Ġra dio
jen t
jel p
sti d
Ġpo le
V ed
isi m
y om
P C
bu l
em enter
og ra
ĠÃ§ar eser
in ne
R U
Ġsek su
© áĥ¥
Ġnav Ã§e
Ġk em
Ġg aran
L B
at Ã¸r
ĠM b
ĠM id
ĠsÃ¥ nn
er n
S E
Ġgjennom fÃ¸re
Ġvin ne
Ġer sta
tig heter
Ã®n dar
kari ya
lig vis
6 4
Ġhjem m
b ed
la v
ĠA k
man uel
xis tina
B S
ĠE ller
Ġta ttoo
P I
ene a
du li
Ġetabler t
Ġb rÃ¸
zi l
Ġa zma
5 3
Ġun na
ste in
Ġperio den
on ea
Ġla vere
fun d
Ġv est
Ġpoliti et
b ler
Ġya le
le i
ku na
ha ba
Ġopple ve
ĠA ir
we zo
i fu
ĠTir kÃ®
ĠsÃ¸ nn
ĠF inn
gh t
ĠCha ke
ĠBa hari
Ġzi met
Ġwata kuwa
tan isha
Ġuta jiri
Ġne ema
Ġkum w
Ġkut un
Ġmch ana
/ =
ĠF ursa
Ġmaj aribio
Ġmbi u
ra bati
ra hia
ĠRo ho
Ġusha hidi
hoji ano
Ġni dhamu
fu pi
Ġkipa umbele
ĠBina damu
ĠM taa
Ġsp or
ki zwa
ru dani
Ġwana fanya
Ġmwa liko
Ġkij insia
kusu di
ĠMwan ri
Ġaki fanya
Ġki pya
Ġkibina damu
Ġáĥĳ áĥŁ
ĠÃ Ľ
ĠW ar
ĠP as
kj ed
ĠáĥĿáĥ Ļ
Ġu r
S el
Ġb Ãªn
si v
6 7
Ġáĥ Ń
Ġtaybet Ã®
Ġpopul Ã¦re
hÃ® d
ati kk
Ġoms org
ĠSi mon
ĠHv ordan
h n
log iske
8 00
b org
hu la
sen s
nska pet
s Ãªn
fri tt
199 2
Ġvalg te
Ġf ran
ĠÃ§ala ki
Ġc aran
ha u
kjÃ¸ p
Ġhens yn
197 0
áĥĲáĥ¨ áĥĲ
ĠEr do
ĠF u
Ġopple ver
sjon s
Ġskj ul
Ġe ÅŁ
bu ri
199 8
h isa
m ere
b eta
kt ora
Ġk vel
Ġ ini
Ġbestem t
Ġh Ã®n
Ġty pe
Ġki ti
Ã¥ re
ĠÐ ļ
Ġpri ori
ĠK e
eg er
C H
P G
vol usjon
led es
Ġam es
Ġro ho
Ġk alt
b ord
Ġm jumbe
ĠUra is
Ġkal enda
Ġina tarajiwa
Wa chezaji
ka diriwa
Ġv ingine
ha l
fan ye
Ġvi baya
Ġali fanya
Ġwana yo
shi rikisha
ĠCha dema
pig anaji
Ġdha habu
Wan anchi
Ġf art
Ġti ja
Ġma pigano
Ġili o
Ġinn ov
ĠF l
Ġslag s
le ver
Ġopprin ne
Ġbedri ft
k dom
Ġresulta t
Ġsal Ãªn
ĠJ in
sm es
Ġle g
ĠPh D
ĠB BC
al Ãª
ĠMar y
Ġs lo
ĠC A
áĥĲáĥ¤ áĥĺáĥļáĥĺ
ĠH oved
ĠK ing
Ñ ĭ
Ġt rÃ¥d
M ar
ti ma
c tion
Ġd am
ĠAn go
Ġgi ÅŁtÃ®
x t
ĠN et
ĠY ek
in ister
kers hus
Ġfortset te
Ġhi kÃ»
dighet ene
Ġaktivitet er
E t
H al
Ġstuden ter
Ġ <
alt ning
tÃ® ya
Ġfre dag
Ġres taur
li d
ĠB ir
ia lis
Ġre f
ĠI sa
Ġf r
Ġg lede
ga ver
Ġut gjÃ¸r
ĠÃ§a p
ĠherÃª mÃª
Ġform id
iser t
Ġvek st
p ed
Ġleng re
ĠnÃ¦r ing
pan de
for nia
Ġwalio po
Ġuta alamu
dh isha
pa kani
ung anisha
ĠWan yama
Ġi we
ĠId di
Ġku buni
Ġusi o
Ġmadara kani
Ġkup atiwa
Ġkit endo
Ġwatu humiwa
Ġmwan anchi
Ġvy enye
Ġma andiko
Ġali eleza
Ġwaki wemo
Ġkukabidhi wa
bli otek
ĠM isitu
Ġvi umbe
Ġzina weza
Ġten Ã¥r
Ġmi lit
ĠTh omas
Ġser vice
fer d
ran sport
ĠV an
k ort
Ġb la
ĠU b
ĠAl lah
ama ha
L O
Ġw ir
Ġforv ent
áĥĲáĥľ áĥ£áĥłáĥĺ
M IS
Ġpart ner
Ġk rig
Ġvi ti
ĠS U
Ã¸ se
ĠkjÃ¸ pt
G O
u tt
Ġski kkelig
Ġbru kte
tin Ãªn
da ger
eme ke
tal te
áĥĿáĥ ¢
legg et
/ /
áĥĶáĥ¤ áĥĺáĥĹ
ĠpiÅŁt gi
ĠI li
Ġku ÅŁtin
Ñģ ÑĤ
áĥĲáĥ £
F a
Ġ ..
Ġbegyn ne
ĠlÃ¸ nns
] .
Y A
ĠB re
Ġp etro
ki lo
t rykk
Ġmi jar
po tek
ch ina
ni vÃ¥
f Ã®
ĠAn ne
per io
ĠÃ¸konom isk
ĠN gu
Ġvoks en
Ġdu ka
Ġum et
M w
H an
ĠD onald
ĠEfr Ã®nÃª
ru di
ĠM na
Ġw ww
Ġhi m
za a
d est
ĠPro duksjon
Ġau tom
at ana
h l
ĠkjÃ¸ kken
ĠH ati
w isha
Ġher ufi
Ġkuwasili shwa
Ġche o
jibika ji
Ġwa kala
Ġku elewa
Ġvi rusi
ĠWa kurugenzi
che zea
Ġwan gu
twa a
Ġkuwe zesha
Ġma hojiano
Ġkuka ta
ondo lewa
fauti ana
Ġforsk nings
tengene zwa
Ġku elezea
ki piki
Ġma jibu
fun disha
shi ka
Ġu pa
Ġina wezekana
tem bea
an yi
Ġh esabu
Ġm amia
Ġku pan
ĠJ KT
Ġwan asiasa
Ġcha che
Ġwalio fika
uru gu
gg rey
wa ssa
v net
v as
le ge
Ġre k
Ġar ki
M ara
Ġbek re
Ġopp dag
Ġinn vand
199 6
ĠÃħ r
Ġpor n
p oner
Ġbi karan
Ġm m
N o
e p
Ġg lem
ni kk
Ġblog gen
b on
for mer
sk om
ĠC O
ves en
Ġyo u
ĠW en
áĥĺáĥ ŀ
de partementet
jen este
áĥ¢ áĥł
bil der
Ġjobb en
Ġsp ort
ĠFI FA
Ġgu her
Ġven stre
po litikk
e v
C h
h vert
gg et
ĠB ro
v ju
Ġbi kar
ĠI N
hu da
sm Ã¥let
t oni
ĠJ es
19 60
áĥĲáĥł áĥĲ
ĠS ve
Ã ĩ
Ġde ver
man Ãª
S M
Ġsta ts
Ġt vil
Ð ·
Ġav Ãª
z ing
p lom
Ġp unkt
Ġnasjon ale
Ġyu ko
Ġre ali
tur er
rer t
ĠO s
ĠD ata
s tu
to vu
ele zi
Ġyu po
D k
Ġr atiba
ĠE var
G P
kker het
Ġsamfun n
ge hÃª
asi hi
ong oro
ĠC UF
Ġaki elezea
Ġmata kwa
Ġmikon o
Ġili tolewa
umu ia
Ġngu zo
âĢ¦ ]
Ġmaba ya
Ġkule vya
M bunge
Ġku tegemea
Ġi bara
Ġi weze
Ġshu leni
kum bwa
Ġkuji toa
Ġs alamu
Ġku uawa
ĠWa tumishi
Ġwak is
x wed
ĠM to
ba lozi
Ġki fua
ber ed
Ġta fiti
Ġku amua
ĠM moja
Ġp amba
Ġin jini
hiti misha
angili o
Ġhar amu
ĠJa ji
Ġmot or
Ġdemok rasia
Ġupe po
ĠT an
Ġkon fer
i et
Ġg is
Ġmada d
Ø §
ĠHerÃª ma
Ġrepres enter
Ġkon tor
. (
Ġgrunn leggende
ting et
ĠH Ã¥
ĠG ir
Ġye kÃ®
ĠBar zanÃ®
' s
Ġtilf eller
il le
w s
Ġme dier
al and
Ġci wan
. ,
ĠÂ §
Ġgre it
p asi
8 8
Ġpa ÅŁ
Ġ áĥĲáĥļ
Ġsk rev
ĠM C
ĠáĥĽ áĥĲáĥ®
e lim
Ġin f
N orge
j ul
dig vis
Ġre volusjon
Den ne
Ġfort elle
Ġfortset ter
Ġi p
ĠN RK
ba ha
Ġskjed de
le gger
ker en
Ã®ro z
Ġklar te
sten dig
Ġvar s
Ġs va
Ġatt ra
K om
Ġkar Ãª
ka rÃ®
ĠK er
hi lat
ĠS il
ff ekt
Ġciva kÃ®
ĠsÃ¸n dag
wed en
Ġoppda tert
meld ing
Ġh ana
ã Ĥ
ĠOr gan
Ġdri ver
Ġhai ku
m ani
Ġro lle
la te
ĠM oja
Ġm k
áĥ£áĥĲáĥ¤ áĥ£
Ġser Ã®
áĥĿáĥļ áĥĿ
Ġkon sekven
Ġbedri fter
Ġu g
st et
ĠMuham mad
den t
Ġali o
Ġta wi
ĠS verige
ĠG ra
Ġma pa
Ġhed hi
Ġakim kabidhi
un uliwa
Ġha kuwa
Ġuna tarajiwa
zi kia
ĠMa adhimisho
ung anishwa
mer i
ĠKu lia
Ġua dilifu
Ġmadu ka
dha lika
ĠMas enza
ĠU VCCM
ĠMi fugo
Ġkufa hamu
Ki la
Ġmwen zake
Ġbu rudani
chi mbaji
uli za
Ġbidi i
Ġkiny ume
o fisa
fa kari
Ġwan am
kama ta
Ġen hver
Ġindi vi
Ġsu kker
1 20
Ġx wa
ĠKul tur
Ġorganis asjon
ĠM omba
ver pool
ĠB ei
ĠPar is
v oka
ring en
u lo
Ã¸ p
cel ona
war d
ĠP C
Ġu ken
B U
med Ãª
ĠSi de
ĠIng en
Ġkir ke
Ġku j
Ġinnsa ts
Ġl ange
van n
Ġbi o
Ġma ge
Ġjobb et
Ġv ol
Ġv as
Ġi var
ĠS Ã¸k
p rÃ¸
bÃ» l
: //
ĠPi ÅŁtÃ®
Ġm este
l Ãªn
Ġmi mi
pp a
ĠDa to
7 3
ĠMu f
ek ta
gg ing
Ġg ro
E v
ĠF il
be handling
ĠzÃªde tir
Ġf is
Ġb od
Ġbeny ttes
7 6
Ġp Ã®
t am
Ġx iz
ĠD ema
f jord
j ort
and er
Ġansvar lig
ĠH em
Ġbuti kk
Ġd Ã»r
áĥ® áĥĲ
áĥĲáĥľ áĥĺ
di ke
Ġ chi
r isha
Ã Ń
el al
ĠAl hamisi
Ġku chagua
ĠKa hama
Ġm tindo
Ġdha hiri
Za idi
Ġwa miliki
u biri
fa o
Ġili anza
Ġda ktari
Ġwan asema
Ġana yo
Ġwo di
jeruhi wa
m ek
Ġiliyo ko
Ġmap induzi
Ġmka li
Ġhawa ku
Kam puni
Ġzilizo kuwa
ka biliwa
Ġvi gumu
Ġru zuku
Ġku staafu
Ġmika taba
zÃ® rÃª
ser es
tek ter
s em
Ġfor eld
ĠL is
Ġover for
k ny
áĥĽ áĥĿáĥ¬
Ġo sv
re di
le gge
Ġáĥ¬áĥĲáĥľ áĥĽáĥĿáĥ¬
ing eh
Ġkon ser
Ġunder s
Ã§ Ã®
p art
sjon ene
Ġmot ta
Ġg Ã¸y
bu ds
Ġ áĥĲáĥĵ
ber Ãª
Ġi d
Ġa ÅŁ
Ġopp fa
áĥĿáĥłáĥĹ áĥ£
Ġf iske
Ġvedlike hold
Ġab sol
sa ken
Ġvin ner
Ġeks ister
r Ã¸y
p unkt
áĥĺáĥ£ áĥļáĥĺ
Ġu ti
ras t
Ġpriva te
Ġku v
Ġju li
ĠgrÃ¸ nn
S I
ĀĀĀĀ ĀĀĀĀ
ĠV ir
ko le
Ġwela tÃª
pp ing
Ġele vene
ĠÃ¸konom iske
Ġha tu
je o
Ġska per
Ġla o
m id
Ġáĥ ¸
ĠomrÃ¥ de
Ġh eter
Ġb rann
ĠDo la
Ġsom o
bu rg
ĠJ on
ki l
li vu
wa ji
else a
áĥĺáĥ ¯
Ġforh Ã¥nd
ka li
pi ller
ĠG ul
or ongoro
ĠU vuvi
Ġm miliki
Ġkuta fsiri
Ġmwend elezo
Ġb ungeni
Ġkuto kom
z ingatia
Ġta thmini
I dadi
li pa
ĠM tu
Ġki vita
ara jiwa
Ġre kodi
Ġwalio hudhuria
Ġhaki ka
Ġkusi kiliza
ĠT emeke
Ġl etu
Ġutum wa
Ġi fuatavyo
Ġki dini
hifadhi wa
U ongozi
Ġn er
Ġkuto kuwepo
Ġu andishi
ki zungumza
Ġame eleza
u kwa
p unguza
Ġma dhara
ĠA ggrey
Ġmwan asheria
ywa ji
Ġz ana
ĠTAN ESCO
áĥĺáĥ£ áĥłáĥĺ
Ġret ningslin
n r
ĠN O
Ġero tiske
sa gt
se x
Ġdagir ker
Ġesc ort
Ġinv ol
Ġhi ÅŁ
d ro
ĠD ani
ĠCh ris
cal an
Ġtan ke
ro pa
Ġut fÃ¸rt
áĥĺáĥĿáĥ ľ
Ã» na
ĠL ea
ĠA kershus
Ġm anda
sk y
gang en
Ġb om
ĠS k
ĠW ash
Ġfamili en
Ġses ong
Ġp Ãªn
Ġfi tte
ĠM are
I Åŀ
ĠSa ba
A U
ĠAma zon
ĠZi mba
Ġt Ã¸
Â ´
toko ll
Ġster kt
Ġbudsj ett
Ġhol Ãª
ĠnÃ¦r heten
Ġt ele
ĠGe orge
Ġh om
ra ft
Ġx is
Ġform Ã¥l
Ġamerikan ske
Ġek sp
ka ra
Ġkjem pe
ĠB as
Ġju le
der en
ĠE bola
Ġgir an
Ġhu set
ĠG ener
ĠE ri
Ġs Ã»
ĠCh elsea
ĠMas ha
ĠavgjÃ¸r ende
áĥĿáĥ ©
ist anÃª
ĠAb bas
za li
ĠMÃ¸t ested
ste mer
E r
slag et
ĠHis pania
p is
s si
der t
) ;
Ġregistrer t
Ġuav hengig
Ġbi ra
Ġch o
Ġska de
Ġaza d
Ġhygge lig
Ġbeny tte
Ġbo ks
ĠÃ¥p ner
fiki ri
Ġj ela
9 8
ĠF ylkes
Ã®n im
Ġn ek
Ġd ane
Ġte am
r ishaji
Ġwan ne
Ġum iliki
ĠMas oko
ĠIn jili
Ġusafi rishaji
Ġm da
Ġhu fanyika
Ġuli po
W ashiriki
fi kisha
Ġmka zo
Ġshi da
ĠKand oro
anga lizi
Ġu hamisho
wi ano
ashi ria
Mi ongoni
Ġsa fu
Ġwali vyo
ĠTa tu
Ġulio kuwa
ĠNdi kilo
Ġut unzaji
Ġina hitaji
endele zaji
ĠTek nolojia
Ġkuta kuwa
hudi wa
pendeke zwa
Ġut satt
ĠEn zi
Ġme za
Ġt hai
sm Ã¸te
Ġven te
s al
ĠáĥĲáĥłáĥ «
ĠJu bile
Ġend re
Ġvider egÃ¥ende
ĠBa g
hold ning
ĠhÃ¸y este
Ġsa gt
áĥ¨ áĥĲ
Ġland s
ktora tet
n ner
ĠT E
ĠK ol
ĠBar celona
sm inister
Ġob ser
kt Ã¸rer
Ġin tegr
20 25
Ġh es
Ġf isk
ĠM ati
ĠB ili
Ġ[ âĢ¦]
spro gram
M an
lat else
Z i
Ġmed isin
áĥĿáĥłáĥ ¯
Ġpro fi
Ġles b
Ġfri vil
eru sa
s verre
Ġb ren
hu sa
m od
Ġt h
ĠS ch
Ġfl Ã¸r
9 3
u ra
6 3
Ġeller s
be vis
ĠSu ra
Ġu b
Ġb lom
ð Ł
p ing
Ġsa t
Ä °
ĠKan skje
kal la
ĠhÃ¸y de
ĠLi verpool
Ġytter ligere
li kk
ĠC ali
áĥĲáĥ Ķ
Ġs mi
Ġáĥ¯ áĥĿáĥ®
Ġopp s
Ġhe zar
Ġqe bÃ»l
ler t
li ster
ver ks
ĠB ri
kumbu sho
ĠMuf indi
Ġc e
Ġpoliti ske
V A
áĥĺáĥĶ áĥ¤
hi ld
Ġstu die
ĠMa kazi
ĠMas wa
Ġsku li
Ġmsa fara
M geni
Ġkwa ko
pan giwa
kumbu kwa
amba tana
Ġmaa fa
m wenye
in yi
anda ji
ĠherÃª ma
Ġwa ombaji
Ġma deni
fu twa
Ġsam bamba
dh aria
ĠSek retarieti
Ġm teja
Ġku ingiza
ongeze a
kim bia
Ġyame kuwa
Mwan am
ĠMong ella
ling anisha
Mwa kilishi
ĠMka taba
shi ria
sh indwa
Ġut ambulisho
a wa
g y
an ce
Ġfor et
Ġba vÃª
ĠÐ ¡
Ġfar ge
Ġsentra l
vi t
ĠFre dri
Ã¥r ene
ĠAK P
ha wa
n Ã®
Ġa we
ĠP an
Ġáĥ¨ áĥ¥
ĠUni versitet
in stitu
s ed
ĠY ou
ĠV eg
Ġsa ks
ĠB el
ĠIn ter
Ġvan lige
ed lem
Ġwa s
spro sjek
Ġblo d
un de
vÃ¦r ende
ĠS lik
Ġfol ke
ĠG el
R F
Ġk n
Ġsommer en
Ġáĥ¬áĥĲáĥľáĥĽáĥĿáĥ¬ áĥĲáĥľáĥĲ
Ġma ga
Ġto l
Ġan ti
vi c
Ġawa yekÃ®
omrÃ¥ det
Ġb yr
H vis
Ġáĥĺáĥľáĥ ĵ
Ġses ongen
Ġutt rykk
Ġman nen
N or
ĠMi cha
Ġka di
nolo gi
ĠkjÃ¸r er
Ġbel Ãª
L eo
ĠAm os
Ġg ri
c co
Ġáĥĵ áĥĺáĥĵ
ĠT jenester
kti ske
ĠN asjon
ĠG ro
ĠNA SA
ĠD Ã®
k grunn
Ġla ko
áĥĲáĥłáĥ ĵ
Ġv isa
par ti
set ter
by en
ĠPi ga
Ġti m
M ada
Ġm ek
Ġuto ver
y ce
am men
Ġx i
s amba
mes sig
Ġsel ve
ttera tur
Ġko zi
ĠW adau
Ġusha wishi
Hal mashauri
M ji
Ġmna da
7 1
Ġkun y
Ġkua chi
ha yupo
ye kuwa
Ġkun ywa
Ġm tumiaji
Ġwa tanzania
Ġku tuma
Ġj or
Ġmwa jiri
Ġza hanati
Ġwan as
hir isha
Ġku tia
Ġli ki
ungu zwa
ĠLa onekana
ĠMa kalla
ĠHa ule
Ġup ana
Ġuwa zi
ho jiwa
Ġina onyesha
ha lifu
asa yansi
Ġhadi thi
Ġm bu
sm arke
Ġtry kk
Ġpubli kum
Ġstyr et
Ġkon tra
wed Ãª
ĠkjÃ¸r etÃ¸y
Ð¾ ÑĢ
Ġpris er
ĠT er
ris k
ĠT ha
ĠmÃ¸ tet
ru s
dar Ãªn
g re
ĠV is
Ġin t
N y
n Ã®ÅŁan
Ġde ba
ĠKu wa
Ġsitu asjonen
ĠS iden
si ve
Ġq u
M E
Ġs mer
Ġrun de
ĠsÃ¸k nad
Ġkommun er
Ġdetal jer
W e
ĠS ka
áĥĺáĥ ķ
ĠáĥĻáĥĲáĥļáĥĶáĥľáĥĵ áĥĲáĥłáĥĺáĥ¨
Ġpsy k
Ġyng re
skri ften
ĠY emen
indu stri
t z
Ġb Ã®r
Ġne xweÅŁ
a ga
T AN
áĥ£áĥ ¦
p and
ĠBar n
ĠU a
Ġengel sk
f ini
ta bu
Ġkommun ene
Ġut ny
Ġsna kker
Ġfull t
Ġku d
Ġopp hold
Ġinn til
Ġopple velse
Ä± n
en ingen
Ġdewlet Ãª
Ġbety delig
ĠInn hold
am en
ra g
Ġnasjon al
Ġi t
isjon er
ĠSa udi
ĠDA IÅŀ
ĠS ten
vi g
hand ler
wa m
Ġku te
z ua
7 7
ĠU sa
ĠE re
Ġre iser
bli kk
ctor ia
ĠN ett
Ġperf ekt
q i
u ki
be ti
Ġt un
Ġbo ken
Ġtir k
Ġmennes ke
ĠMa da
Ġmi let
ĠGa za
Ġc ialis
am ond
Ġku onesha
ĠNg orongoro
Ġku zu
ĠMaal um
Ġanga lau
Ġma pya
ĠN yama
end wa
Ġpi kipiki
Ġwata lii
lim piki
okoa ji
Ġumeto lewa
Ġk inga
Ġna fuu
Ġma tengenezo
ara jio
cho te
Ġmat arajio
dom o
Ġtuna weza
Ġsham ba
Ġm gawan
Ġwalio shiriki
Ġmat unda
Ġwaki fanya
Ġmch angan
Ġdh amira
Ġwa husika
Ġku hudumia
Wa jumbe
Ġhu fanya
Ġkili kuwa
Ka zi
Ġkupele ka
Ġha wezi
Ġmw elekeo
ĠLo wassa
ishi wa
Ġku som
Ġv urugu
Ġvi pimo
ĠM kal
ĠMkal ama
Ġtra fikk
stand er
Ġd esig
p ani
Z A
da go
ĠK ina
ĠM y
Ġgrupp er
H ar
Ġh Ã¥r
lo ven
ga la
9 6
id ent
styr et
ke k
f et
Ġved tatt
ur er
grupp en
Ġreg ler
Ġja kt
n ede
Ġx u
Ġgir tÃ®
ĠT ari
el er
ĠN EC
Ġb ingeh
Ġhati bÃ»
Ġ ;
ĠT ro
áĥĲáĥĵ áĥĲáĥ¨
Ġoppmer ksom
di da
tÃª ÅŁa
ra k
Ġq et
pas s
v urder
set te
Ġdest nÃ®ÅŁan
Ġna kne
do l
rett et
Ġpar ker
Â ·
ĠáĥĽáĥ£áĥ Ń
enge ti
ĠS weden
Ġwi th
áĥĿáĥ ¥
del sen
ĠZimba bwe
Ġsli kt
ska pe
âĢ Ķ
h ami
ĠU l
áĥĺáĥľáĥ Ĵ
ĠIns titu
ling s
Ġte ks
Ġan er
m ot
Ġre ligi
ĠO calan
, "
Ġh umu
a k
Ġmo bi
Ġp an
Ġkon f
Ġsa tte
ĠsÃ¸r ge
name ya
pen s
Ġenk le
tren t
Ġmask in
Ġp Ã®roz
Ġtil kny
lut ning
ĠTroms Ã¸
hu ka
ren o
lut selig
Ġtre kke
Ġs ere
B w
hamas ishaji
ji kita
Ġkuto weka
Kam anda
Ġrun inga
pendeke za
x an
Ġya taka
Ġvi vutio
Ġin asa
Ġwaki ongozwa
anzishwa ji
Ġuwa jibikaji
Ġuli anza
Ġmwen do
Ġkupi tishwa
ĠJa fo
umbu fu
ĠRama dhani
Ġwa zo
Ġwa piganaji
Ġamba e
amili oni
ĠDi vÃª
Ġs amaki
um uni
Ġuli fanyika
asa vyo
ĠEvar ist
Ġip asavyo
ĠM wezi
Ġmu hula
ham is
ki lia
ĠUb ungo
ret s
j es
Ġse ier
Ġk ana
u ba
ling ene
Ġtil stre
Ġhod et
g gen
Ġme di
ĠH Ãª
Ġar bei
ss on
G A
ĠrÃª ya
her i
6 8
tisti kk
Ġna tt
bÃ» yÃ®
ĠdirÃª j
áĥĶáĥļ áĥĺáĥ¨
áĥĲáĥļ áĥĲáĥ¨
ja b
Ġda t
Ġ Ã¦r
ĠA ll
Ġbild ene
ĠIns ta
Bo di
Ġáĥ¡ áĥĲáĥ®
o la
Ġt Ã®
vi ti
Ġna bo
Ġjo urna
Ġte va
Ġda wi
Ġzarok Ãªn
bru dd
ru d
Ġkonkurran se
Ġam atÃ¸r
Ġmiro van
konom i
Ġto ppen
Ġmat ch
ĠF lere
iser ing
ĠtÃª kili
Ġerfar inger
n da
ram men
red ning
ns dag
5 7
kti v
Ġoppga ve
sk land
Ġtilsvar ende
x in
ĠáĥĻ áĥĿáĥľáĥ
n ed
ï ¼
M U
ik h
Ġfor eg
Ġt Ã¥
Ġka le
unn en
Ġfly ttet
stil linger
Ġpe ke
Ġb ona
ĠoppfÃ¸l ging
as ino
m Ã»
Ġj an
Ġle ge
Ġeks per
ĠAz am
199 1
Ġav de
grupp er
Ġsi k
ĠMas h
en for
ĠbÃ» yer
ĠHe wa
Ġvar er
áĥĿáĥ¡ áĥĿáĥ¤
Ġn jaa
ĠAbdal lah
A na
ara fa
Ġg ele
Ġbi rÃª
ĠCh risti
la zwa
ĠUt amaduni
sh eni
Ġbara barani
am ishwa
ĠMa bingwa
Ġka bila
K wenye
ĠK Sh
Ġinayo endelea
Hu u
ĠNyama gana
Ġu anzishwaji
ĠM fumo
Ġma fao
Ġkun i
Ġche ti
Ġwa shindi
Ġy ule
Ġkufi kisha
Wa kazi
Ġus umbufu
Ġmap umzi
Ġufa lme
Ġkusi kia
piti o
Ġmapumzi ko
Ġali ongeza
Ġuka rabati
Ġles eni
Ġkilicho po
Ġya mes
ĠRu to
Ġkuji tolea
ch ungaji
jili wa
M handisi
ombo zi
kumbu ka
Ġkuwa jengea
Po lisi
tum bu
Ġopp ford
h Ã¸
Ġin ngÃ¥
Ġrepres ent
par ten
Ġdixwa ze
áĥ£áĥ ĵáĥ·
Ġber pir
Ã§ o
ĠG re
Ġopp ly
Ġgu tter
v ana
Ġzi m
áĥĺáĥĶ áĥł
ĠQ a
Ġsitu asjon
L L
Ġxel kÃª
ĠlÃ¸ pe
A lle
Ġáĥ£áĥĻ áĥ£áĥļáĥĺ
Ġf elt
ĠP ri
A C
Ġv enter
Ġku k
tid s
ann onser
ĠkjÃ¸ tt
Ġg lass
Ġsty re
ĠBy gg
Ġvan net
Ġyr kes
a u
Ġva kre
Ġperson opp
Ġf ett
ĠB li
Ġhvi t
Ġto talt
di yÃªn
ne ke
Ġm ote
f rey
N U
Ġbek ym
ĠCali fornia
Ġwela t
ĠskjÃ¸ nn
Ġo ven
ĠRuss land
ĠT em
ĠApri l
end Ã®
ĠAngo la
ĠáĥĹáĥĺáĥľ áĥĲ
lo v
Ġend ret
Ġáĥĵ áĥĶáĥĻ
ĠUN ESCO
áĥĶáĥłáĥ ¡
st art
ell ene
na vn
un ya
âĢ ĺ
Ġperio de
ĠSer engeti
Ġny lig
u er
ĠB al
Ġf ler
ĠSam tidig
áĥĲáĥĹ áĥĶ
âĢĻ âĢĻ
Ġarbeid splass
sen de
ĠÃ§ and
ÅŁ i
t else
go go
áĥĲáĥ ŀ
ĠWa zee
ĠA F
Ġtu ki
Ġk Ã»
ĠK C
áĥĺáĥ ®
Ġuna kuwa
Ġmah indi
Ġku unga
Ġmi ongozo
ĠWanyama pori
Ġkutokom eza
Ġm ra
ĠM jumbe
Ġf idia
fa ulu
ĠWa arabu
ĠMwan asheria
Ġwa penzi
ten gwa
Ġkusa fir
lim wen
Hi vi
r ini
Ġku poteza
di liwa
ĠZa ina
Ġm amilioni
Ġku hudhuria
ĠN ne
Ġili sema
sim bo
amo yo
Ġup andaji
Ġwa shirika
Ġali kamatwa
umu ko
Ġupan uzi
bor esho
Ġga zeti
Ġmizi go
g ambo
ĠJubile e
ĠL eg
Ġz angu
ut h
ks er
zi o
Ġb Ã®nin
da ta
Ġli gn
ĠAf ri
Ġras k
ĠX wedÃª
s end
Ġklubb en
Ġd istri
Ġinformasjon skaps
ari o
ĠOg sÃ¥
O pp
ss er
es tin
ste de
Ġmo bil
Ġoper as
ĠlÃ¸s ning
Ġkun de
ĠÅŀ Ãª
ĠgirÃª dayÃ®
hila ta
f ol
men de
Ġb ro
ĠáĥĿáĥ ®
Ġdri kke
Ġf ro
n am
Ġne vnt
Ġni rx
ĠL in
Ġhel best
lo t
ji ya
men ti
Ġinter vju
Ġbi ler
Ġdi kim
Ġhist or
il and
Ã§ Ã»n
ji m
Ġelekt ron
on Ãª
Ġxwen de
ĠS ar
Ġbil lig
Ġaktu elle
Ġb orte
va t
asa ka
Ġsyke hus
N P
ĠSÃ» rÃ®
ĠhÃª la
Ġskri ft
ĠMicha el
b ana
ĠG hana
tig het
Ġkra ftig
ĠÃ¸ st
ĠA bu
ĠBru k
áĥĲáĥľ áĥ¯
áĥĲáĥłáĥ Ĵ
Ġf lin
la a
Ġpoliti sk
am Ã®
h Ã¥nd
vin ne
m p
Ġabsol utt
Ġnorm alt
B er
Ġarbeid sta
or m
vÃ® na
áĥĲáĥ¤ áĥĲ
Ġhar dt
Ġbir yar
Ġles er
ĠB ul
ÅŁ andin
Ġber Ã®
z z
ĠNA TO
ĠK n
ti la
ĠU fun
Ġinn om
Ġtil rett
Ġkvel den
Ġtid s
s isi
ÅŁ and
BA A
ĠGr atis
ĠU hasibu
Ġm su
ene ji
Ġuli yo
ufa ika
as usi
ĠU tekelezaji
po kelewa
U chaguzi
Ġu bunge
Ġb wana
Ġwali sema
Ma tokeo
Ġru husa
198 9
eleke zwa
Ġu kimwi
Ġmi ili
ĠI lani
le ie
Ġame ongeza
ĠHa pi
Ġmtu humiwa
U amuzi
Ġm penzi
Ġu ongo
Ġli kiwa
Ġmara fiki
Ġuta ka
ĠMi ra
M bali
Ġpu pper
Ġrom met
Ġsammen heng
t ri
Ġomfa ttende
Ġbestem te
ch ester
Ġbes kjed
hen ge
Ġselv sagt
Ġk y
Ġam b
Ã§ a
Ġdemok ratÃ®k
Ġb is
lo te
den a
ÅŁ an
anz e
in s
Ġáĥ¬ áĥ·áĥĽ
ĠáĥĹ áĥĲáĥ¨
ª áĥ®
Ã§Ã» k
Ġhe bÃ»
ek om
an en
ell et
ĠIntern ett
Ġh opp
Ġg ar
áĥ¢ áĥĲáĥ¢
f jell
Ġl an
Ġder imot
Ġv isi
Ġl Ã¦ring
na den
sk en
h Ã¸y
prosjek t
ĠK y
Ġl Ã¸y
som rÃ¥
rÃ¸ nd
Ġnett siden
Ġwela tÃªn
ĠÃİs lam
fiser t
la de
kur s
di ko
Ġt ung
hi yÃª
Ã® d
Ġstra tegi
Ġf eng
Pro f
Ġt rinn
no v
lys ningene
Ġst und
Ġber gen
Ġsp re
ĠIn formasjon
ĉ Ċ
ĠlÃª kol
Ġya m
y omo
Ġsi tte
ĠSha ka
Ġni me
áĥĲáĥ¤ áĥĲáĥ¨
8 3
Ġmi j
Ma ha
áĥĶáĥ¨ áĥĲ
Ġáĥ¤ áĥĺáĥļ
li shi
on esia
Ġzi kiwa
dha ifu
M fuko
Ġku jengwa
Ġa biria
ongo zana
he bu
ĠTo vuti
ĠMaa bara
fu rahia
sh ambuliaji
Ġkiu fundi
Ġkara tasi
Ġmwamba o
Ġmapo kezi
Ġha uku
ĠKil wa
Ġu wiano
fa dhali
ĠMa badiliko
amu huri
thibiti sha
ĠBag amoyo
li mia
am isha
ĠV yombo
Ġkum pa
ti wa
Ġku jaribu
pi tishwa
Ġkup elekea
Pro gramu
i zi
ĠWa kenya
u guzi
ĠVi ctoria
tt else
Ġg leder
Ġtid spunkt
Ðµ ÑĢ
arbei de
mer ket
Ġfrem over
Ġingen ting
Ġáĥľ áĥĿáĥłáĥĹ
áĥĺáĥłáĥ Ĺ
6 1
Ġder Ãª
tin i
Ġpre mi
Ġim ot
t ha
Ġma fÃª
9 1
¬ áĥĻáĥ·áĥĽáĥĲ
Ġáĥ£áĥĽ áĥĿáĥ¡
Ġtilgjen ge
Ġko b
Ġom trent
áĥĺáĥĻ áĥĲáĥ¨
Ġgjennom snitt
Ġenc ama
Ġeuro pe
ĠP e
Ġda ye
is tikk
ri el
ĠK ari
Ġhun di
ĠUng dom
is s
ela gt
Ġbes Ã¸ke
Ġperson lige
Ġs he
Ġgener elt
ÅŁ ar
L e
ĠM and
g no
Ġforhold et
ti yÃªn
Ġri z
Ġrel ativt
al ler
as ia
Ġhund re
rÃ¸nd elag
N ew
ari ka
Ġlign ende
ĠSe p
met Ãª
dar Ãª
ĠS C
Ġbir Ã®ndar
g han
zi ya
ĠB or
Ġero tikk
Ġdel en
ĠH A
Ġpi ÅŁ
Ġr Ã¸r
Ġser ver
c to
ĠI g
Ġfil men
Ġta ka
ĠM k
ĠKun st
Ġm ist
ĠV I
Ġgu ll
Ã¸m me
Ġf ang
Ġfrem st
ist ori
Ġkes Ã®
ĠM ba
Ġver dt
áĥĶáĥľáĥ ¬
Ġsentra le
Ġar r
a ter
ĠMu he
Ġkre di
si ge
sikt en
tu ra
Ġvar ia
- ,
ĠE id
ĠA gen
Ġma kt
p es
Ġm t
- -
Ġki k
Ġber xwed
Ġhev dÃ®
Ġann on
Ġ inge
gi ji
Ġh est
ĠS c
grupp e
ĠT im
ĠáĥĶ áĥĻ
Ġforbed re
ona le
Ġvil kÃ¥r
Ġali anza
ji fun
Ġigjen nom
ĠáĥĽáĥ£áĥŃ áĥĿáĥĹ
Ġku am
Ġmke we
wa ga
Ġn yama
Ġna fsi
Ġkui twa
ĠK isha
ES LB
Ġku isha
ĠKu dumu
Ġlo lote
ĠZa idi
Ġuhaki ki
Ġmp ana
Ġcho chote
Ġin jili
Ġkia fya
Ġkong amano
Ġku pita
ambu lizi
Ġmaka li
alen ga
Ġorganis asjoner
ĠMbo zi
Ġku adhimisha
ung wa
shi rik
Ġum as
Ġwame ji
Ġkufun disha
Ġmf umuko
Ġbus ara
Ġmi ongo
Ġka diri
ĠKi jerumani
ĠVi wanja
Ġkufu twa
ĠMa kundi
kir ia
ĠWa kristo
Ġwalio jitokeza
bel giji
z induliwa
Ali ongeza
Ġuba guzi
ĠKi u
Ġhjer te
t Ã¸y
8 7
Ġh Ã®
Ġo k
t ori
Ġfer ie
ĠErdo gan
spro ses
Ġtilf el
ĠAu stra
Ġc m
ĠA ss
Ġsp ar
Ġlever e
ku rÃª
ĠÃ¥pen t
Ġba tter
par Ãª
Ġáĥĵ áĥ£áĥĵ
ter a
ĠD ri
199 3
196 7
Ġvis es
d det
ĠZ ambia
ba sert
Ġpo litikk
R eg
pet anse
Ġste in
Ġk nu
en tasjon
ĠM ul
tet er
áĥĶáĥ ĸ
ĠáĥĵáĥĶáĥĻ áĥĲáĥĵáĥĲáĥ¨
sh em
Ġsu ks
Ġressur ser
Ġster ke
Ġm l
Ġb omu
ĠH oteli
Ġutvik ler
kre vet
ten ga
ing ton
Ġdij min
ĠB ongo
Ġgjennom fÃ¸res
198 2
ĠU r
ki es
ĠáĥĽ áĥĺáĥ¨
Ġdei lig
Ġintern ett
Ġstem mer
Ġspi lte
ĠR Ã¥d
ns ter
j ani
Ġtem pera
Ġma tem
W AN
ĠAn nan
Ġhand le
Ġtilf red
Ġkon kret
' '
Ġe ffekt
ĠLi ber
Ġgund Ãª
áĥĺáĥ ĳ
Ġáĥĳ áĥł
Ġs Ã®ya
Ġbi bÃª
ĠN il
O m
ea tu
st ene
si on
E F
ĠT ela
Ġsel ger
by gger
ĠB ea
Ġser ok
áĥĺáĥĹ áĥĿáĥ¨
ĠD ini
M F
Ġsy ns
Ġplan er
Ġpro f
ĠMad ina
ba ba
Ġxeba tÃªn
Ġfys isk
ga o
ĠÃ§ Ã®ro
ĠBla ck
u sha
po le
ada ka
Ġengas jer
Ġinformasjon en
Ġáĥĺ áĥĵ
ĠH ele
en Ãª
Ġin as
Ġum iddel
bili tet
Ġdo bb
Ġawa yÃ®
Ġf ug
Ġki e
p l
ĠUz induzi
Ġli mekuwa
thi ri
ĠKilo lo
Ġu rithi
st rem
ĠMi kutano
ega wan
i gizaji
k ishia
ĠO limpiki
Ġmsi ba
Ġmag umu
ĠspÃ¸r re
K labu
Ġm pakani
Ġku dhibiti
Ġku fanyia
Ġkuu fanya
yi fu
Ġyanayo endelea
angan yifu
tegeme wa
Ġmage uzi
Ġkuji tokeza
Ġyali o
esa babisha
Ġmap ungufu
Ġkw etu
S hirika
Ġki ki
oma lizika
Ġkupi gwa
Ġhas ara
B alozi
Ġm wekezaji
Ġzilizo tangulia
uzi to
ĠMsa jili
Ġmsa idizi
W ilaya
Ġali zaliwa
ĠE S
y re
ĠF al
9 2
Ġ ing
ĠL ew
Ð° ÑĢ
Ġanbefa ler
i re
áĥ¢ áĥĿáĥł
Ġsosia l
Ġna yÃª
ĠEw ropa
jen te
ĠI S
arbei dere
Ġspesi elle
Ġskjed d
Ġa st
Ġten kt
Ġn Ã®ÅŁ
p r
med e
Ġta b
ĠKi b
r ati
ven da
Ġpra ktisk
K S
Ġdeng Ãª
Ġgjel dende
Ġret ten
zan in
yr er
ĠÃ§ ete
d on
Ġen het
áĥĶáĥ¤ áĥ¥
áĥĺáĥ¢ áĥĿáĥł
Ġ org
T V
ĠforstÃ¥ else
Ã ´
kra ft
ha lo
Ġbeny tter
Ġkom for
Ġf Ãª
buds j
Ġq a
Ġsy kkel
or ld
ĠP la
Ã¸ v
ĠS to
Ġj f
ans var
ĠOb ama
v ia
v ner
tu ri
Ma p
en k
Ġopp e
Ġbevis st
Ġg en
fu r
Ġpsy ko
og n
Ġinteressan t
ea d
ĠBi bi
Ġfun ksjoner
ĠáĥĽáĥĲáĥ® áĥĿáĥł
ĠhÃª z
Ġs and
Ġáĥ¡ áĥĲáĥ¥
ĠÃĺ v
k ninger
Ġne di
pp ene
Ġak sep
ol f
ĠUt valg
po liti
ĠDi amond
R T
ĠKa i
Ġoppmer ksomhet
as jer
sm Ã¸tet
li ste
b ek
ĠL eo
ari fu
el em
Ġkla sse
Ġstil ling
ĠáĥĲáĥ ķ
ug ar
Ġspi lt
en es
Ġoppdag et
K ati
Ġram me
ĠE ks
Ġvi ten
HA MA
Ġinspi rasjon
dh ini
ĠhÃª za
ĠD esign
Ġbegyn nelsen
ĠM c
ĠPD K
Ġregi on
Ġav vik
Ġma tatu
Ġinnhold et
is se
u ko
ĠUs w
f isha
s opp
Ġku idh
Ġika wa
emb eni
Ġu pili
Ġina po
athiri wa
Ġwa somi
Ġs wala
Ġh Ã¸rer
ĠM pira
Ġj amaa
Ġun dani
ĠMap endekezo
ĠMus sa
O fisi
ĠMa tokeo
Ġaki kabidhi
Ġuta biri
Ġwalio fanya
Ġhel w
esh indwa
Ġb ingwa
Ġaki kagua
Ġuta ta
ĠMi ji
Ġusa hihi
Ġufun gaji
kos oa
Ġufu gaji
Ġutu livu
Ġja di
Ġham asa
Ġutakao fanyika
ĠTela ck
K CI
M radi
ĠN jia
fu pa
and amizi
ĠJ umla
ĠMa onesho
Ġkup and
aru husiwa
Ha bari
Ġuja uzito
Ġumas kini
Ġwa chache
Ġj amhuri
Ġvi dogo
Ġali ji
Ġkuing ilia
ji andaa
Ġime anza
kun du
Ġev ne
ĠM bara
Ġili anzishwa
Ġnord menn
M gombea
Ġba la
ĠÐ ¸
Ġrew ÅŁ
klu bb
n em
Ġled else
Â Ĵ
Ġáĥ¢ áĥĶáĥł
ĠF un
prosjek tet
- )
Ġf alt
lo ad
ĠBo lig
ĠT am
ĠtiÅŁ tekÃ®
Ġmilli arder
ĠOrgan is
ĠR ed
ĠP ris
Ġnett sider
N EC
am be
áĥĺáĥĿáĥ ļ
ba si
ĠV G
in do
da te
ĠG ar
Ġtilstre kkelig
ĠSt and
Ġfanta stiske
Ġstil ler
ra b
Ġáĥĳ áĥĿáĥłáĥ¯
ĠáĥĿáĥĳ áĥŁ
Y a
k ningen
Ã§ in
rÃ¸r ende
Ġana l
ĠProsjek t
ĠlÃ¸ se
kker t
Ġero tisk
S ta
lek si
Ġv indu
IC C
Ġsett es
ĠM t
Ġgi ftet
el Ã®
ĠSE O
ĠPa pa
ess or
c Ãªn
Ġwa rÃª
áĥĲáĥł áĥĶ
se in
Ġs ni
m ana
ĠKi t
Ġutgangspunkt et
Ġutford ring
Ġbes tille
ĠÅŁ i
Ġx urt
Ġalvor lig
Ġew le
ĠdÃ®ro ka
ĠIn dustri
Ġs ur
um s
ĠH DP
ĠRes ulta
Ġkes an
Ġsel skaper
Ġkjen ne
Ġd Ã¸r
ĠBjÃ¸r n
Ġáĥķ áĥĲáĥľ
b Ã®r
Ġav deling
ĠP re
Ġfag lig
tu ko
ĠleÅŁker Ã®
lÃ¥ tt
lÃ¸ se
ĠHot el
áĥĶáĥľ áĥĺ
wa pa
ĠáĥĹáĥĲáĥ¨ áĥľ
ĠA P
su l
amas kin
Ġgav ana
Ġv al
Ã®n an
H E
na ds
som t
T anzania
ĠO ff
Ġku ba
Ġmang ler
Ġb inge
ĠSÃ» riye
Ġmam ma
ĠÃ¸ ver
Ġs adaka
Ġku chochea
ĠS aratani
ĠKi islam
imar ishaji
Ġwa tano
ili wa
ishi pa
M chezo
N chi
Ġku hu
um wa
Ġki kwazo
wa liwa
el elezo
Ġma jeruhi
ama anisha
Ġana takiwa
Ġjin sia
ĠChi ku
ĠYa ke
t ambuliwa
Ġm godi
Ġki fungo
ĠU limwen
uli zwa
ĠYe ye
Ġud anganyifu
Ġmaru dio
Ġkutun za
a cha
Ġwaki pata
Ġwame fanya
andaa ji
Ġyames emwa
ĠMuhe za
Ġku hitimu
Ġu bingwa
Ġime ongezeka
Ġmash ambulizi
Ġyaliyo kuwa
Ġkure jesha
h aru
Ġm pi
Ġt amasha
Ġli she
Ġina onekana
Ġwalio ko
kusan yiko
Ġkuch unguza
ĠMawa ziri
zing atiwa
Ġm shi
ro dha
Ġkupi ma
saba bishwa
Ġut ambuzi
Ġkuwa taka
Ġju kwaa
18 0
Ġmwan ya
Ġnyan ja
Ġan sikt
Ġwa te
ĠH es
Ġtir kÃ®
O T
Ġfor mer
Ġli ve
ĠT re
ĠMan chester
Ġprogram met
p esi
b ry
ĠA medÃª
ĠÅŁe hÃ®d
Ġna ke
Ã¸ pig
sti ng
b Ã¥
Ġáĥĸ áĥ£áĥ¦
b ro
ell y
is ti
Ġev alu
dire ktoratet
áĥĺáĥľáĥ ¯
Ġx a
Ġny te
ko len
Ġhe ya
ĠF r
rÃ® ya
Ġs vi
Ġprodu kt
ta v
ĠI bra
ĠslÃ¥ tt
ĠáĥĴ áĥł
ĠvÃ¥r en
Ġkon tin
et Ã®
Ġdi m
Ġbeh sa
g jort
Ġan ledning
plass er
O L
ver di
Ġinteres sert
tor en
Ġalb um
for men
m Ã¸te
v est
Ġp lutselig
un kter
Ġmyn digheter
are ke
an legg
fi re
ĠFran k
Ġves entlig
ĠDer med
Ġprin si
Ġhen tet
6 2
f isk
Ġenn Ã¥
f s
te in
ĠSu per
en inger
jÃ¸r ing
dena fil
tu re
ĠInd onesia
J I
ĠJ ul
ĠB are
Ġr Ã¸y
Ġnete we
ĠLi ke
ur te
ki ra
Ġfylkes kommun
ĠRÃ» s
ĠP at
ĠMa kka
ĠH y
ĠH or
ĠM Ã»
ari da
ĠI P
ĠNor way
Ġek tes
ĠG rÃ¸
ĠAh med
Ġali e
ĠAmerÃ®ka yÃª
Ġim es
ĠEd ward
ha la
bin o
lÃ¸s ning
Ġla ste
ĠHa ji
sti g
ken s
ne vnte
Ġuna po
Ġwa we
kl are
ja wa
ĠHu u
ĠSh ar
Ġtekn iske
f elt
Ġpar tÃ®
ĠI bara
Ġby gger
S asa
bo lÃª
V I
ĠT un
Ġkusim ama
Ġki cha
Ġin aruhusu
asi chana
ĠMer u
ĠMus oma
Ġkuin ua
ka kati
Ġkuwa wezesha
Ġume fanyika
Ġmka sa
ĠShi g
eneji menti
Ġu dhamini
Ġu vuvi
Ġmwan amuziki
im arika
iser ikali
heshi mu
Ġmab ingwa
Ġmra ba
Ġna omba
Ġvi pindi
Ġw ema
Ali kuwa
badili ka
Ġbin ti
Ġkilom eta
Ġmask ini
h oro
Ġwa jasiriamali
Ġya po
Ġa ibu
ĠM zee
sha hada
erehe kea
Ġas asi
Ġm ema
fu atana
baini ka
Ġut ume
Ġinayo tekelezwa
faham isha
Bar ua
Ġku dai
Ku fuatia
h esabu
Ġhu tolewa
Ġu uzaji
Ġuna paswa
Ġk var
d am
Ĥ ¬
Ġr Ã¸d
w ir
Ġbo ka
Ġvanlig vis
ler er
ĠY ekÃ®
Ġdokumen tasjon
Ġmen te
li sten
Ġse kun
is ten
S B
Ġska der
jer ingen
ĠB I
vek st
Ġned enfor
Ġret tigheter
Ġstar ten
Ġhistori en
ĠT eh
ĠÐ ł
ĠÐ Ĵ
od ri
ĠVi dere
E z
Ġáĥ¨áĥ¥ áĥĲáĥ¡
7 4
Ġh ema
Ġder d
Ġmarke d
l ana
li kter
ĠEi endom
Ñ ħ
ĠáĥĹáĥĲáĥ¨áĥľ áĥĶáĥ¨áĥĶ
ĠáĥĿ áĥĽ
ut vikling
Ġhel het
Ġbarneha ge
Ġga ve
Ġh et
ĠáĥĽ áĥĲáĥ
áĥĶáĥ ©
Ġbi kim
Ġgjennom fÃ¸ring
Ġsven ske
Ġg loba
ist oria
ti ner
EM I
Ġhi t
ĠáĥķáĥĲáĥľ áĥĲáĥłáĥĻáĥĺ
Ġhen te
Ġ >
el u
áĥ£ áĥĲáĥ¨
ĠTy skland
b n
Ġf yr
ĠIs sa
ĠBen j
ĠAu st
s g
ĠP ir
ĠIsra eli
Ġutt ry
ĠInsta gram
Ġáĥĺ áĥ£áĥļáĥĺ
Ġáĥĺáĥ£áĥļáĥĺ áĥĲáĥľáĥ£áĥłáĥĺ
em er
Ġu l
áĥĺáĥľ áĥĶáĥĳ
Ġre is
áĥ£áĥłáĥ Ĵ
Ġarbei de
kri velse
ĠÃ® m
Ġnett butikk
Ġfrem tiden
ele di
ĠMala wi
ĠW am
h und
g um
ber Ã®
G E
ĠF ro
Ġre al
Ġend te
Ġp engene
ĠáĥľáĥĿáĥ¦ áĥĲ
Ġáĥ® áĥĿáĥļáĥĿ
smes sig
li sert
Ã¸ nn
Ġfrem deles
Ku wa
ation al
ti ll
Ġord in
Ġx xx
Ġde v
ĠH jem
ti ver
Ġredu sert
Ġg rÃ¥
Ġv ok
IC HA
om er
ÅŁ tina
P L
ĠSer ok
Ã¸ ya
ĠáĥĻ áĥĿáĥĽ
ĠH Ã¥nd
tak else
ĠF Ã¸l
ret ting
Ġindivi du
Ġkr ist
for sk
mas kin
si kk
gon o
C hama
Ġeksister ende
i za
Ð½ Ð°
áĥĿáĥķ áĥĺáĥĹ
Ġku o
Ġresulta tet
Ġivar eta
% .
ĠS kuli
Ġfi go
ĠkjÃ¸ nns
ĠMe ja
M toto
Ġm guu
enye ji
Ġalipo wasili
W izara
Ġwa meta
Ġu dhibiti
do a
Ġny uki
Ku toa
Ġsh indano
Ġu okoaji
ani fu
Ġame ji
ĠDa udi
a ji
in ishaji
dhi ri
vu li
ot arajiwa
Ġwaki toa
ĠMke mia
Ġna ibu
hu hudia
Ġli kizo
Ja ji
Maha kama
Ġwa umini
Ġz ingine
Mwana funzi
Ġma boresho
em belea
ĠHa tua
Ġkuji uzulu
Ġgha fla
A kiwa
Ġm ko
ĠU belgiji
ĠMa jengo
Ġms amaha
j esho
M sanii
ha wapo
Ġch enye
Ġut angazaji
Ġkus indi
ĠF ol
end Ã¸rs
ĠM ot
Ġlever er
ga ven
vek s
c ent
Ġpasi enter
ĠÅŁ Ã®
is me
stil lingen
ss jef
Ġn j
. -
Ġb r
Ġdia log
Ġdi Ã§e
Ġtev lÃ®
Ġhar d
Ġta p
u wa
ĠmÃ¥ let
ĠSi ta
Ġli ng
ĠN ye
b Ãªn
Ġc am
Ġforeld rene
da yÃª
áĥ£ áĥĲ
om i
ĠeÅŁ kere
enter et
Ġu ga
ĠlÃ¥ n
ĠB ed
Ġjin an
ĠtiÅŁt Ãªn
Ð¾ Ð»
Ġgele kÃ®
ban en
ĠL ar
Ġb red
Ġkri gen
ĠH il
s or
Ġkurd Ãªn
u ss
Ġri ba
B L
vi ten
ĠundersÃ¸k else
yan Ã®
Ġmer ket
ĠC anada
B I
Ġb ia
jÃ® ma
en ten
Ġhvi te
ĠA ri
Ġpos ta
ĠW est
ĠMa k
vi ya
ĠV a
ĠE ner
ti s
ĠK em
elef oner
M O
Ġfrem me
ï¼ Į
ĠZ e
ĠD iya
ĠF OR
ĠáĥĴ áĥ·
ĠbÃ¥ t
Ġdi kirin
ĠÃ§ e
Ġkam pan
kommen de
Ġsend es
Ġaxa f
Ġa xi
ĠB ya
ara we
Ġzi wan
hen ger
ĠC or
ĠáĥĿ áĥĿáĥłáĥ£
ju i
Ġom fatter
Ġb Ã¦r
ĠkjÃ¸r te
Ġeffek tiv
di l
ĠPa k
m al
Ġhu d
wan ia
ĠJ une
áĥĲáĥł áĥĲáĥ¨
Ġfor bi
Ġsy m
Ġautom atisk
Ġfavori tter
ĠKi lom
Ġnettste d
Ã§ av
bygg ere
G o
Ġmu se
ĠstÃ¸r relse
áĥĵ áĥĲ
ĠSta tens
Ġv ind
ĠBer lin
Ġroja va
vir ksomhet
omrÃ¥ der
tt p
Ġetter som
am ama
ĠÃİ ran
Ã¥r ingen
ja li
le kt
ĠGod frey
9 7
sut vikling
ĠEm manuel
ku za
f fi
ĠJes us
Ġf ei
m or
Ġut landet
H va
C A
Ġle dere
Ġtre ff
Ġmen ing
ĠlÃ¸ nn
ge hÃªn
bi ler
ene za
Ġy enu
L engo
Ġuts lipp
Ġdag ene
Ġu dhaifu
p her
Ġu ana
ĠM eatu
Wa ombaji
ĠMi fuko
fadhi liwa
M wili
hi miza
Ġali zo
Ġal Ã®ka
Ġra undi
Ġkuji andaa
Ġkus isitiza
Ġkua pishwa
ĠSir ro
W ito
Ġn gono
Ġu hitaji
Ġma fu
ri potiwa
ĠKi baha
Ġmw ombaji
Ġkuu zwa
Ġkupi tisha
Ġyanayo husu
Ġwa semaji
fan ana
Ġwana vyo
Ġuna hitaji
Ġura ia
ĠHam isi
ĠUk anda
Ġuma kini
Ho tuba
Ġyataka yo
Ġku tetea
ĠMa henge
Ġali chaguliwa
oko lewa
angi wa
Ġgha sia
lazim ika
I likuwa
Ġwa staafu
Ġzi le
kan wa
Ġkusa firi
Ġku fariki
Ġin am
Ġmg umu
plom asia
Zi ara
Aki zungumzia
Ġ áĥĲáĥ¤
Ġam ela
Ġwan asayansi
dh umuni
wez eshaji
Ġkush angaza
ĠKi giriki
Ġstu dier
Ġinternasjon alt
Ġi r
Ġsma k
Ġ ðŁ
Ġfavori tt
Ġdes sverre
áĥĿáĥł áĥĺáĥľ
ĠfÃ¸r te
l ett
ĠK r
ĠAustra lia
ĠpÃªwÃ® st
Ġen ig
ĠB lo
J u
ĠH ew
Ġf jerne
Ġarr anger
Ġek strem
Ġi ll
Ġp is
ris ke
ho vet
Ġfly tte
Ġli g
Ġfor plikt
Ġsal Ã®
v ning
Sel v
ĠSko le
Ġunder vis
áĥĺáĥľáĥ ĵ
ĠA bi
Ġfi kra
T i
Ġkiri bÃ»
ĠkjÃ¸ pte
ĠF A
k se
Ġstem me
land ske
ĠE rik
Ġmu sk
wi ha
ring s
b s
b este
Ġu ly
ĠH ur
ele ktroni
Ġka pi
s asje
197 6
H U
Ġet c
Ġnett verk
Ġu for
Ġtan ker
po li
kti ve
Ġland ets
ĠSer okÃª
ye ti
ĠKurdist ana
Ġsvar te
Ġder ket
Ġbeny ttet
Ġret ning
ĠM Ã¥
ĠPer son
ĠM Ã¥l
set ninger
Ġdri ve
ĠS ov
is he
Ġhem Ã®
og istikk
ĠMi g
in ner
ele w
sm Ã¥
áĥĶáĥľáĥ ª
áĥ· áĥ¤
Ġopprett et
Ġfor and
Ġku ng
ka st
Ġka da
h jem
Ġm isi
HI F
Ġha tÃ®
Ġpris en
Ġre da
Â °
ch el
ĠL A
Ġb ang
Ġna turen
M n
Ġfore lig
lÃ¸ pet
ret ten
kul tet
sh et
ĠDa wa
Ġki rÃ®
ko fi
áĥĶáĥľáĥ¬ áĥ·áĥ¤
Ġer eb
D F
ban k
Ġhoved sak
Ã§o ve
Ġnam e
s jÃ¸
ĠR Ã¸
ru tter
be var
Ġpos isjon
Ġaltern ativ
ĠNe ema
f isere
Pi ÅŁtÃ®
kal te
tir Ã®n
ashi d
R S
Ġc em
bet h
Ġ áĥĲáĥ¡
Ġgi ft
Ma ka
Ġdigi tale
p alestina
ju u
Ġje vn
Ġcha o
Ġye w
ĠpÃª kan
ĠAf ghan
Ġre kl
Ġl urt
Ġbru ken
Ġsa ts
M amlaka
ite en
m ester
um bwa
Ġarbeids giver
ĠMaka dirio
ja bu
Ġime fanya
Ġuka milifu
zungu ka
ĠSal um
Ġmwa ke
ĠMa askofu
Ġaliyo i
Ġkufi kishwa
ĠDis emba
Ġkug undua
M ratibu
Ġku vi
Ġki gaidi
Ġto leo
ĠMwa k
kusan yika
yem be
Ġku gombea
Ġma lezi
om wa
Ġki fupi
fu kuzwa
Ġmi undo
ĠKati kati
M sa
Ġki bali
Ġla ki
Ġwana ishi
Ġvili kuwa
Ġvilivyo po
Ġuba lozi
ĠRas mi
Ġkuepu ka
Ġvi wili
vu tia
Ġwalio chaguliwa
Ġhai wezi
I me
Ġvi zazi
ĠU falme
ĠJ amuhuri
und uma
sta hili
Ġja po
hara kati
Ġtum bo
zali shwa
Ġjina i
ĠMili oni
Ġvirksom heten
Ġny heter
Ġwaki li
Kam ati
Ġmus wada
ishu kuru
Ġak ina
Ġku hamia
Ġmab omu
ĠKi faransa
Ġhe y
Ã§ i
ĠDani el
Ġa x
Ã¸k ene
Ġf are
kar Ãªn
ĠFor skning
ĠB Ãª
ra d
fu lle
F Ã¸r
Ġbir yara
ĠÃ¸ kte
ll ar
ĠfÃ¸ le
Ġdes suten
ya ya
si o
Ġda yÃ®n
ĠvÃ¥ pen
áĥĿáĥ £
Ġk Ã¥
Ġl un
Ġáĥ¢áĥĶáĥł áĥĺáĥ¢áĥĿáĥł
ÅŁ ti
Ġsta di
Ġover fla
Ġtor sdag
dari ya
ĠB ot
Ġdigi tal
vir kning
I V
Ġned e
Ġder ba
ĠK ro
Ġsku es
áĥĶáĥ¡ áĥŀ
s ra
ĠáĥĴ áĥĺáĥ¨
ĠA N
m os
Ġan Ã®n
ĠrÃª veber
Ġheval Ãªn
D B
ĠDan mark
s ler
Ġfa ktor
Ġend amÃªn
áĥĲáĥ¨ áĥ®áĥĲ
ĠnÃ¸ ya
we gi
Ġeventu elt
ĠBra zil
ĠC H
s tek
ĠSam men
Ġaltern ati
Ġtren ings
Ġa ku
ĠnÃ¸ ye
Ġtren er
andin Ãª
ĠNa vn
F M
in ti
Ġakti ve
Ġleg em
ÅŁ Ã®ne
Ġkon to
Ġbefolk ningen
Ġko pi
H e
ĠT ransport
ĠJ er
ĠÐ ľ
ĠV M
kur ran
ĠJ ina
Ġm b
g Ã¥ende
o kia
ĠN yu
B e
j ina
Ġskj ema
Ġtr ene
197 4
c u
ĠGab riel
ĠÂ »
Ġposi tive
Ġpar Ã§e
ĠI GP
ĠFor man
Ġsam svar
j et
Ġover le
ĠStor tinget
ĠÃ¸v rig
Ġsig na
Ġste de
ĠSt ar
in k
196 4
Ġáĥ¨áĥ®áĥķ áĥĲ
ĠáĥĲáĥĽ áĥĶáĥł
Ġberhem Ãªn
ĠSt ore
Ġunn tak
je ya
Ðµ Ð²
Ġkre ft
Ġbikaran Ã®n
Ġb land
Ġgu h
KU U
u b
Ġbidra g
ĠB et
in Ãª
ĠÃ¥ tte
Ġki d
lu ft
Ġori enter
ĠPÃª ÅŁ
r unn
áĥĿáĥľ áĥĺ
ĠV al
Ġma lÃª
ĠW Ãª
Ġtil syn
Ġveg er
i Ã¸r
E FA
ĠA za
Ġpen sjon
Ġv ema
N K
Ġhver dag
ĠĠĠĠĠĠĠĠ ĠĠĠĠĠĠĠĠ
Ġp ombe
bara za
jek k
M I
Ġku beba
Ġcha chu
vun o
Ġana po
haki kishia
Ġua limu
elim isha
J umla
Ġwa tumwa
Ġku husishwa
Ġku isaidia
el ati
Ġi lani
ĠJ insia
Aki toa
ĠUm my
Ġkuru disha
ĠBina fsi
M tu
Ġki pengele
Ġha lali
gi zwa
Ġvya kula
Ġwana po
idi ka
Ġame fariki
Ali yekuwa
ĠMka pa
Ġukari bu
Ġmaga zeti
Ġm domo
Ġu endelezaji
Ġna dharia
Ġma pitio
ĠU reno
Ġali cho
dhi hirisha
eng wa
Ġkufu a
p isha
s und
Ġm ganga
Ġwali pata
Vi le
ĠBya kanwa
Ġk ando
Ġuch ambuzi
Ġkufun guliwa
Ġka zini
Ġm tambo
Ġu bia
ĠMsa ada
Ġutu kufu
v isheni
ĠT ri
Ġakti v
Ġâ ĸ
Ñ ĩ
Ġfri tt
Ġof fisi
ĠM ur
áĥĴ áĥĺáĥľ
n Ãª
Ġkategori er
sp art
g skolen
Ġnika re
sm iddel
g Ãª
s vis
ĠB lu
Ġbegren set
Ġfor um
Ġres er
Ġc oo
Ġpar Ãªz
K an
ka lt
la ter
Ġdike ve
áĥĿáĥļ áĥĿáĥĴ
Ġq ir
Ã¦r en
Ġ ed
Ġmi ll
Ġda d
ĠMomba sa
ji yÃª
Ġtekn isk
ĠU kra
Ġmi dd
Ġs ov
Ġdi go
Ġan ner
wn load
ĠSi g
pen t
Ġo kt
Ġrelevan t
wa ma
om en
Ġeg er
Ġsere ke
d ing
Ġriz gar
Ġproses sen
Ġl est
áĥĶáĥľ áĥĲ
Ġbrans je
ta b
Ġinformasjonskaps ler
Ġakti vt
Ġt end
Ġsu b
kol oni
sa ge
m Ã¸
Ġann onser
hu l
Ġeksemp ler
Ġresulta tene
ĠÃªrÃ® ÅŁÃªn
Ġmanda g
Ġref le
in de
dh ar
Ġsna kket
ĠáĥĴ áĥķ
Ġbedri ften
v ari
ĠWash ington
S am
Ġt rÃ¸
áĥ ĸ
ĠÃ¥r lig
ĠMe ya
Ġd r
Ġti der
ta z
t her
T T
ĠC e
ĠÃ¸ kning
Ġover vÃ¥
ĠX we
Ġn ummer
bru ks
Ã® ye
Ġre x
ĠspÃ¸r smÃ¥let
Ġmateria le
8 6
ll ene
und ation
ses jon
Ä± r
ji ka
ĠMa ta
ĠwÃª ne
ĠÐ ¢
ĠOr d
Ġáĥĺáĥ łáĥ
Ġf Ã¸d
ĠAfghan istan
ut danning
ĠO mar
ek er
Ġdat amaskin
Ġi l
Ġmid dag
Ġhel gen
Ġev ent
Ã»n Ãª
s oma
Ġwe ha
ĠKurd Ãªn
áĥĿáĥ® áĥĿáĥļ
ĠH ver
Ġver dier
Ġáĥ¡áĥĲáĥ® áĥĶáĥľáĥ¬áĥ·áĥ¤
Ġzi ma
Ġhotell et
ĠÃ§i qas
áĥĲáĥ¤ áĥĺáĥļ
Ġq ede
bar n
um bo
Ġdest hilat
ĠTi ba
ĠstÃ¸ tter
ren ing
Ġte ori
ĠMe h
Ġmo tiv
ane ti
Ġf os
Ġmot tatt
j eller
ĠtÃª k
ven dig
wegi an
d yr
Ġst rÃ¥
ĠMil jÃ¸
Ġmel de
t ch
g Ã®
es tiv
ĠJoseph ine
po sten
Ġáĥ¨ áĥĲáĥľ
b and
M C
Ġxu ya
v Ã¦re
Ġg ru
8 9
Ġtradisjon elle
ta ki
Ġret ur
ot ball
ĠÐ Ł
p ende
st rum
cha t
Ñģ Ðº
Ġa ktÃ¸rer
ĠKa le
Ġs ang
ĠK isiwa
ja zo
i mbaji
ĠM ku
fanyika zi
Ġime kuja
Ġndi vyo
Ġkubadili shana
Ġkira ia
Ġkuung ana
to fautiana
ru disha
kum o
ĠAli kuwa
ĠKin ana
Ġki demokrasia
Ġt amaa
ĠO fisa
Ġame u
umba ji
ĠUm eme
ia ji
Ġaki ba
Ġum wagiliaji
tek ete
ĠCh unya
Ġkuta ja
MIS EMI
M ke
pi go
Ġaki fafanua
Ġre dio
Wa kuu
Ġinayo zungumzwa
Ġsham bu
Ġkuvun ja
Ġkisa yansi
Ġku baki
ĠM panda
ba liwa
Ġmwa o
ĠKus hoto
ĠMwana damu
Ġtam ko
ing uni
gu so
Ġmaka a
Ġyanayo fanyika
Ġmpi to
d amizi
Ġm taji
Ġwa fungwa
Ġs aru
ch unguza
Ko cha
fu atiwa
Ġkibina fsi
ĠNyan da
ri ks
ha ug
Ġj ern
ĠBÃ¥ de
jÃ¸r n
Ġumu lig
Ġfer d
ĠHa ug
el es
H ei
Ġbehand let
Ġtil skudd
áĥĲáĥļ áĥĲ
ĠSte ven
Ġkon stru
Ġst ren
ĠsÃ®n or
Ġskyld es
ĠM asa
ĠÃİ raq
ja kk
bu ti
ĠN Ã»
Ġwan an
ĠSve in
ans and
p Ã¸r
en gi
b Ã¦r
mar ke
Ġs ann
lÃ¸ st
da li
Ġsek tor
Ġmu a
Ġroj name
Ġbestem m
Ġansvar et
mi r
Ġkon sent
Ġbi m
ly on
Ġtilpas set
pens asjon
Ġsuks ess
Ġsjek k
os te
ĠP hili
co b
kri ke
or om
Ġin tro
ĠF ort
Ġmot stand
Ġfly kt
yet Ãª
197 8
cia l
ĠSy stem
men g
ene ti
i yÃªn
8 2
Ġut fÃ¸re
organis asjon
Ġim poner
ĠS kal
Ġforskjel lig
Ã» l
Ġsjel den
ret ter
Ġser kef
áĥĲáĥłáĥ ¢
ĠK jem
Ġdri v
rans jen
Ġdre pt
l Ã¥r
ste d
ĠT P
ĠC hu
Ġser okÃª
Ġpersonopp lysninger
skap ene
Ġm oro
Ġst ruktur
m und
Ġartikk elen
ĠáĥĻ áĥļ
ĠD rammen
ĠSko g
ĠÃ¸d ele
ĠS ti
Ðµ Ð»
ĠM g
Ġdel tok
Ġkry ss
áĥ£áĥ ¯
j Ãªr
ber o
Ġben dera
Ġsitu asjoner
pa te
isi on
Ġin stru
f art
Ġin du
ĠBenj amin
Ġfol ket
áĥł áĥĿáĥŀ
ĠtÃªkoÅŁ Ã®na
l ling
Ġvar m
: )
Ġbi bliotek
Ġme h
eni or
ĠnÃ¦rm este
Ġrel asjoner
Ġsi l
Ġkunst ner
áĥĲáĥľ áĥĺáĥ¨
es ela
198 4
Ġan satt
Ġhu ske
Ġb rev
ĠF amilia
Ġdi ra
so ft
st r
ĠAu gust
b Ã¸ker
H un
Ġtren i
E TA
t r
Ġf ungu
hi te
pro ses
ĠP ang
Ġki ji
Ġinn trykk
Ġanner ledes
o vu
ge h
asi ra
ĠN as
Ġten kte
Ġza ko
Ð° Ð»
Ġg le
ĠY usu
andikisha ji
Ġali ko
Ġali mu
Ġzina tarajiwa
esa idia
Ġkuri dhisha
Ġmago li
a inishwa
Ġali p
Ġz anzibar
ĠRu angwa
Ġmwana we
Ġwi go
jel wa
piga ji
M wezi
M jumbe
P ICHA
g haribi
Ġwa fanya
Ġku chang
or oro
Ġma shauri
Ġvi paji
Ġali u
ere ji
oma ji
ishwa ji
mas hariki
Ġkuta jwa
ĠWana hisa
Ġkuwasili ana
Ġkuti sha
Ġmafu riko
Ġm falme
Ġku tumiwa
ĠS un
ĠU sajili
ĠU balozi
Ġwana takiwa
ong amano
huri wa
ĠZaina b
Ġya kiwa
ch angiwa
Ġhu tumia
sha ji
ung ana
Ġmara dhi
Ta ifa
Ġmg ongo
Ġmg omo
Ġkupan ua
Ġza buni
ara fu
pi tisha
sim amiwa
Ġmch u
bor eshwa
ĠSu kari
kam ano
Ġmp angilio
ĠBili oni
F edha
Ġm lipuko
ĠK hamis
Ġwana habari
vyo kuwa
Ġasi lia
rin Ãª
ĠKiu chumi
ĠMa kala
ĠKam bi
áĥ °
Ġverden sk
g ha
Ġsp are
ĠhÃª vÃ®
Ġparas tina
ĠJ erusa
y kke
ĠUt danning
gr et
skri fter
Ġsel ge
Ġs jef
Ġsen der
Ã¸l v
Ġven tet
es to
áĥĿáĥłáĥ Ľ
Ã¸ pet
Ġom gang
Ġri melig
Ġáĥĺ áĥ¡
Ġb Ã®ne
ĠE ld
Ġinnov asjon
Ġpro fil
Ġjin Ãªn
st rÃ¸m
f eltet
Ġstra ff
cks on
li te
Ġaza dÃ®
el son
Ġsko g
gu s
Ã¸ ket
áĥĿáĥ ĸ
Ġfa cebook
la ger
Ġmed ia
Ġsta ten
Ġkon tak
ut vik
Ġlo ver
ĠT MA
ven s
Ĺ áĥ®
Ġka pasi
ĠL ars
ĠÃ§Ãª kirin
Ġ !
Ġb ind
Ġfor bered
lig gende
Ġforv altning
ĠTha iland
mo ud
ku s
Ġ Ä°
Ġpar lam
Ġplass ert
197 1
Ġsyn lig
pen i
Ġpasi ent
Ġo nsdag
ti bÃ»
ĠN ete
Ġdire ktÃ¸r
c us
à ¤
Ġxw est
Ġa ya
kom o
fÃ¸r ingen
Ġopple vd
ĠH and
Ã® k
áĥĺáĥľ áĥĲáĥĹ
c er
ĠSi mu
L S
Ġbes til
Ġmu l
Ġgrupp en
Ġbes krevet
J A
Ġvei er
ĠMe xi
Ġdi xe
L Ãª
Ġgo li
Ġforsk rift
a c
gu o
ll s
ĠS kjÃ¸
ĠdÃ®ro kÃ®
Ġsto d
bil de
Ġalfa beti
Ġunder visning
Ġb lu
til synet
ĠQ u
ĠMand ela
Ġme c
ĠS Ã¸ker
Ġma fÃªn
Ġtilrett ele
Ġinternasjon al
M h
Ġra d
Ġhe be
Ġáĥ¬áĥ§ áĥĲáĥłáĥĽ
Ġk ni
ĠáĥĽ áĥĿáĥ¡áĥĿáĥ¤
ĠnÃ¸dven dige
Ġr amani
Ġfor siktig
Ġengas jem
ĠfÃ¸l elser
ĠM el
Ġte gn
ĠT RA
bor Ã®
Ġroj an
M in
Ġ ede
ĠrÃª z
ĠRe ise
Ġkan dida
Ġby tte
Ġkontro ller
ĠP lu
Ġve di
ĠnivÃ® skar
Ġs Ã¥r
M b
Ġa gen
ĠUniversitet et
yar Ãªn
un u
ĠP etro
tt ar
Ġwa ra
i mba
Ġub ongo
Ġvurder t
ĠÃ®n san
gen tina
Ġm we
Ġan go
Ġle dende
s jef
k le
Ġna be
n as
na dene
lan zi
Ġgu tt
ar ch
ĠW A
te ka
Ġb ombe
áĥĲáĥļ áĥ£áĥł
Ġuda hili
Ġmda halo
Ġu handisi
ĠA sha
Ġunder stre
Ġsha uku
Ġkim kakati
ĠMr atibu
ĠU dhibiti
Ġli si
ĠI kiwa
Ġngu o
Ġoper esheni
Ġmsh ambuliaji
ka milisha
ku twa
Ġma shi
ed wali
fu gaji
ru shwa
Ġka dha
asa ha
Wa andishi
Ġime wa
Ġkuji ondoa
Ġkum iliki
Ġkut ambuliwa
taa fu
hir ishwa
ĠMna zi
anen ane
tum u
Ġana taka
ĠKas esela
Ġzinazo tolewa
Ġuha li
ĠUk risto
Ġku twaa
ĠM kon
ch oro
we kea
Ġam ete
fi wa
Ġserikali ni
Ġshi rikisho
Ġkute kwa
Ġmsi chana
Ġuk ombozi
horo fa
Ġm shauri
Ġcha guzi
amili ki
Ġhai ta
Ġkuung anisha
Ġi dhini
Ġwali zo
Ġkam per
Ġposi tiv
Ġma dhumuni
endele e
Ġwanao fanya
ĠLu dewa
I dara
ĠlÃª ger
Ġm bwa
ĠÅŀÃª x
ĠtÃª ki
h ya
Ġfru kt
ĠO cto
Ġfas te
n est
ĠSa g
Ġunder veis
Ġly kkes
j uni
Ġlever t
ĠMi cro
e weyÃ®
ĠáĥĲáĥĵ áĥĲáĥĽ
Ġáĥ «
ãĢ ģ
ĠU ten
ĠD om
Ġne i
ĠdÃ® t
Ġfor stÃ¥r
Ġqede xe
ri ke
Ġinn tekt
Ġdewlet Ãªn
p ekt
, -
ord in
ĠT om
Ġdom mer
Ġv ond
Ġtro lig
Ġáĥĺáĥĵ áĥķáĥĲáĥļ
i ler
Ã® yan
ĠS op
ĠáĥĴ áĥĶáĥ¨áĥĲ
ĠK um
ket Ã¸y
Ġko Ã§
Ġtu rer
ĠH ed
áĥł áĥĲáĥ¤
ĠPro du
on ia
Ġfer mÃ®
áĥĶáĥľáĥ ¯
bu r
ĠV ia
Ġhew l
Ġopple velser
ĠT Ãª
ÅŁ Ã®nin
Ġvek k
es o
wa zi
Ġsi vÃ®
ĠHa u
ĠRa dio
ani yÃª
Ġhistori er
196 3
Ġhez aran
L C
Ġretningslin jer
e z
ter ne
áĥ£áĥ ¢
s c
ĠáĥĲáĥ ®
ĠáĥĻ áĥĿáĥĻ
de k
ĠF iske
Ġpres ident
l Ã¸y
ĠkjÃ¸r t
da y
ĠmÃ¸ tt
ĠH ei
ĠhÃ¥ p
ne y
m idler
Ġs ok
j ing
Ġs w
Ġk et
Ġtil stand
bi t
Ġsta tus
ĠÃ¥p ning
S U
ĠE co
ĠPo liti
Ġz Ã»
ĠG am
Ġvirksom heter
Ġty ske
Ġsy stemet
ĠSa lim
ĠstÃ¸r r
ina le
i le
ela get
ĠK vinner
venn lig
kob ling
Ġsp is
Ġdin yayÃª
Ġhver dagen
p uli
ĠC up
Ġmil f
Ġk g
sa la
yo ya
f est
ĠlÃ¸ per
Ġfl est
Ġpey da
9 4
Ã» ra
M ama
ĠM am
ĠPor no
w eta
ĠHa wa
hem ed
ĠR og
A F
ĠCh risto
ĠVi t
ĠtÃª ne
bi i
Ġmist et
Ġan ge
ĠNy heter
Ġplan lagt
Ġtilf elle
Ġferdig heter
pos isjon
Ġinn byggere
Ġu su
Ġnika rin
ĠP eder
ĠO D
ĠA me
Ġtjen esten
las se
Ð² Ð°
Ġska tte
Ġvei ledning
h jelp
Ġnett les
Ġver sjon
Ma t
ĠG ran
Ġrett et
ĠundersÃ¸k elser
bru ket
ĠK K
ï ¿
ĠPak istan
ĠH ou
ĠÃĺ konomi
áĥ£áĥłáĥ ¡
Ġba a
Ġd uni
ĠG ol
Ġs mar
Ġtil nÃ¦r
Ġdem on
Ġsko ler
ĠR ashid
ĠnÃ¸ya ktig
Ġli kes
in ess
Ġopp tak
Ġvi do
ĠI l
Ġs et
s re
Ġt rans
Ġsp iser
ĠN ort
Ġji we
ta ks
Ġgi za
ĠhÃª san
ĠSt yret
Ġska tt
ar ed
shi p
sk lu
ĠHe v
Ġu andikishaji
ĠYo hana
Ġu cha
Ġma vuno
Ġm ishipa
Ġwa dhamini
Ġki arabu
Ġali lo
Ġuna onyesha
ham ishwa
Ġana amini
oro ka
Ġhau wezi
Ġa weze
Ġu kuta
Ġmi jini
ĠJ ua
Ġw eledi
he hebu
Ġime fanikiwa
Ġkita lii
Ame ongeza
kusu dia
B wana
Ġwa andamizi
Ġku chapishwa
hi mili
Ġvi pi
ĠJ umuia
Ġwana kuwa
Ġina wa
Ġana paswa
Ġulio ishia
Ġmmoja wapo
Ġkur atibu
Ġmaka buri
Ġkuna weza
Ġmaba si
Hi yo
Ġku ingizwa
Ġu vun
Ġi kis
zo te
ĠKi ja
ĠWa tendaji
Ġzina onyesha
Ġalipo fanya
Ġkina ch
hud huriwa
shu kiwa
WA SA
Ġkusi tisha
dishi a
Ġms ongamano
ĠUna weza
Ġu shirik
ĠD araja
ho lanzi
sh takiwa
Ġinayo tolewa
Ġhom oni
Ġili fanyika
ĠRa jab
ĠCha kula
ambuli ka
Ġwalipo tembelea
fund isho
ĠT unduma
Ġmta ala
Ġkuten ga
Ġki di
Ġsu lu
Ġuki linganisha
Mwanam ke
Ġime endelea
let ea
Ġbegyn t
Ġwa vuti
ĠsÃ® ste
re ke
bi ld
Ġgener al
Ġciva kÃª
Ġtry gt
Ġkal les
ta sjoner
áĥĲáĥĵ áĥĲáĥļ
Ġhy dro
ĠNov ember
Ġser xwe
ss am
ĠáĥĴáĥ· áĥ¨
Ġt ann
A v
Ġare al
ĠpÃªvajo ya
Ġji yan
Ġbib Ã®nin
Ġtil latelse
ĠB rig
lÃ¥ n
ï¿ ½
ĠS ara
Ġt rÃ¥
ĠBar ne
Ġt et
Ġher du
ĠáĥĹáĥĺáĥ¨ áĥĺ
ĠL ei
Ġka ffe
M W
ĠS wÃª
ds el
tu t
i ere
Ġposi tivt
Ġpresenter e
ĠNo e
ĠM ang
ĠMed ia
ĠN Ã¦r
Ġbil Ã®
Ġg un
Ġkre ves
ĠAn legg
Ġen ige
Ġb ini
ana ly
áĥĶáĥĳ áĥĲáĥ¨
Ġli sten
Ġgjenopp retting
ĠfÃ¸r t
ring e
Ð¾ Ð½
Ġar tÃªÅŁa
ĠMu se
Ġen heter
Ġrek rutter
ari ya
ĠM p
Ġr ing
Ġkur man
Ġoven for
em ani
ro id
Ġf red
p al
Ġinn spill
perio den
ĠNa vÃ®n
ĠV ei
Ġa la
áĥ£áĥľ áĥĲ
Ġras kere
fiser ing
Ġz eh
ĠTh or
Ġg um
Ġáĥ¡áĥĲáĥ¥ áĥĿáĥłáĥĹáĥ£
Ġnet ta
Ġdating sider
L U
Ð¸ Ð½
meld inger
ĠÃ¸ kende
omrÃ¥ de
Ġsli pper
m s
ĠSt ra
Ġnete weyÃ®
Ġut form
hi yÃªn
Ġwe x
ĠJo bb
Ġpubli sert
Ġtu be
ya rÃ®
M ange
Ã» d
stÃ¸ tte
fun n
Ġhand ling
Ġ ani
WA S
Ã® rÃª
1 10
T ER
er Ãªn
Ġle ke
Ġáĥĵáĥĺáĥĵ áĥĺ
de lingen
áĥĲáĥĶ áĥĺáĥĿáĥļ
sa fa
ĠáĥĲáĥ ĳ
ver dig
Ġhen sikt
kk ing
Ġmel der
und et
lo so
K on
Ġre vi
Ġresept fritt
ĠE mer
ar Ãªn
A g
Ġd or
ĠFran krike
Ġdek ke
Ġmal pera
Ġeg net
Ġopp til
Ġkri tikk
c ker
Ġtilfred ss
ĠII I
Ġti de
as in
Ġkun nska
ĠÃ¸y nene
ĠO L
Ġny ttig
P D
ĠE b
o to
ru st
Ġan as
po eng
Ġdy re
Ĵ áĥĲáĥľ
Ġroj Ãª
n Ã¸
Ġsentra lt
ten sia
Ġkon e
ĠW o
od h
ĠA G
F ra
ĠH amad
Ġra w
Ã Ĭ
ĠPo st
ka bili
Ġfor sikring
19 50
kl Ã¦r
hila tÃª
f tige
Ġli tteratur
Ġle det
c m
Ġd ans
ĠApp le
Ġbuti kker
li th
Ġte q
ĠKn ut
áĥĺáĥ£ áĥļ
Ġsv are
Ġáĥ¯ áĥķ
ĠK es
E BC
F O
bi di
Ġsol gt
vel sene
Ġstuden t
Ġang rep
Ġáĥ¤áĥĺáĥļ áĥĽ
Ġumiddel bart
Ġfal ler
Ġmeto der
en ce
ĠDag bladet
f as
dra get
IM U
Ġmi la
Ġ ishi
ĠShe ikh
u tu
Ġj enta
áĥĲáĥ¨ áĥĺ
en to
sk jema
teri Ã¸r
áĥ£ áĥĲáĥľ
le ier
K us
ĠL en
Ġh ek
D U
ĠF ili
Ġtas nia
ĠZi ara
Ġiliyo wekwa
ĠRi poti
Ġmazo ea
d ishaji
Ġzi jazo
Ġana tarajiwa
ĠMwan jelwa
ĠTu ko
Ġuj asiri
Ġyata kuwa
Ġwanyama pori
ĠMwak yembe
Ġku tua
Ġki ini
Ġvi kubwa
ĠU husiano
Ġili toa
Ġaki hutubia
Ġwana os
wi wa
ĠAli zeti
Ġamet angaza
Ġwam em
undersÃ¸k else
Ġmsu kumo
H ESLB
Ġwa kaa
Ġku on
Ġma iti
Ġvi pya
ini lith
Ġali fariki
sha wishi
Ġuta fanyika
Ġame yasema
ĠMi fumo
Ġulio tolewa
Ġita saidia
ĠIm ani
his isha
Una weza
ĠMare hemu
Ġin alenga
Ġw ino
ĠWa kili
Ġita anza
Ha di
Ġpembe jeo
Ġint aneti
ĠMira ji
Ġishi rini
ĠM tatu
Ġkim wili
Ġua inishaji
dire ktÃ¸r
Ġmshi kamano
ĠMtatu ru
p ambana
endele zo
zu izi
ĠZa hanati
Ġmchangan yiko
ĠKu toka
ĠMaa dili
Ġkusamba a
Map ema
Ġmko jo
Ġsulu hu
Ġm zazi
ĠU jumbe
Ġwa uzaji
Ġmas wala
Ġan kom
Ġgrun ner
ew Ã®
ĠP etter
ĠSp Ã¸r
sk jer
ĠS pi
i der
pa la
áĥĲáĥļ áĥĶ
ka pital
se a
Ġr ent
no logisk
No en
19 45
ĠV ol
Ġc um
ĠP asi
Ġfeng sel
ut styr
Ġ Ñģ
ĠÅŀ e
ĠB lant
198 3
ĠK U
Ġga va
Ġdib Ã®nin
ĠLiber ia
qu e
Ġaka dem
Ġspesi ell
Ġreg n
hist ori
Ġfi ro
Ġji yanÃª
Ġfors Ã¸ker
yon Ãª
p re
Ġáĥ£ áĥ¦
Ġh or
áĥ¬ áĥĻáĥ·áĥĽáĥĲ
Ġte vÃ®
p ren
Ġfor talte
bru ker
âĢ¦âĢ¦ âĢ¦âĢ¦
Ġbes Ã¸ker
G a
man ns
ĠsÃ¥ kalte
Ġk vi
kari yÃª
f on
I nn
ĠAr gentina
Ġx em
ĠSa k
Ġarman ca
h else
197 5
Ġny het
Ġhev der
ĠGud s
ĠKar l
p ha
ĠS I
ĠCh an
Ġmijar Ãª
Ġpsyk isk
Ġsto ff
ĠomrÃ¥ dene
Ġover na
ĠE h
Ġmak sim
ĠJo yce
v anÃª
Ġdij Ã®n
ĠMah moud
áĥĺáĥľ áĥĲáĥ¨
Ġavslu ttet
Ġsikkerhet s
ĠIr eland
person er
id ar
Ġf ron
Ġom gi
Ġproses s
È Ļ
Ġfir ma
Ġby er
Ġide er
áĥ£áĥłáĥ Ĺ
ĠNT NU
Ġsp rÃ¥
Ġri ya
ĠPar tiya
ĠáĥĿáĥ ¤
fin ner
Ġra pport
ĠC Ã®
Ðµ Ñģ
y es
Ġder he
ĠKon takt
parti et
jer a
ĠBa kgrunn
Ġb omba
ĠHus sein
Ġli gge
n isk
Ġmini m
Ġfull stendig
Ġut arbeidet
Ġut fÃ¸res
no k
Ġhe bÃ»n
to e
gÃ¥r d
ke o
ans ela
Ġs pan
Ġfor ny
ĠL ang
Ġnorm al
anuar y
Ġk isi
yn t
Ġsik rer
ĠSep tember
Ġd rÃ¸
Ġju ster
ĠnavÃ§e ya
Ġinkluder er
Ġvi b
9 00
ĠB od
ind re
v y
hÃ® m
Ġvinter en
Ġini ti
k valitet
si tu
ĠS oka
Ġbeta ling
Ġn ani
Y E
Ġeg g
ĠÃ¸v rige
ĠhÃ¥nd tere
Ġmin ste
áĥ¢ áĥ£áĥł
lo jÃ®
ĠáĥĲáĥĻ áĥĽ
ĠA ka
Ã¥ p
ĠáĥĽáĥ£áĥ ľ
p end
ĠM ol
Ġáĥ¬áĥĲáĥľ áĥĶáĥ¤áĥ¡
ĠÃ® s
Ġn Ã®ne
Ġstuden tene
ĠlÃ¦r ere
ĠS asa
ĠnÃ¦rings liv
Ġsed ema
ali tet
Ġgjenopp rett
8 1
kk elen
Ġand el
ĠR os
Ġres ul
he w
Ġty pen
ĠO G
Ġba kken
fun net
Ġre dd
produ kter
stan bul
ĠD ha
Ġd os
ĠÐ Ĳ
un zi
Ġne hati
Ġprodu sert
Ġmu lige
Ġmod ell
Ġbuti kken
asi us
sto ff
Ġdaxwa za
Ġforret ning
ĠV Ã¦r
ho p
gi rÃª
ĠG ala
ĠLea gue
Ġt vers
Ġhand el
sett es
po t
man ta
Ġder dike
Ġeurope iske
ĠAn t
po to
Ġopp stÃ¥r
ĠAl bert
te ma
y t
ĠM ha
ri wa
shi o
Ġpre get
h fa
xa bin
ĠChristi an
ĠN Ã¦ring
Ġáĥŀ áĥĶáĥł
Ġetter pÃ¥
ĠIn ge
ĠGi ÅŁtÃ®
ĠU EFA
hu lu
hari b
i f
Ġom kring
ĠMa jeshi
Ġchu pa
kimbi zwa
jifun zaji
p yuta
Ġina yom
Ġmsh tuko
Ġuv amizi
Ġya tima
ĠWa taalam
kiti shwa
ĠDi wani
ĠNg ara
Ġkumw okoa
Ġwara ka
ĠM lima
ĠM semaji
Ġina kuja
Ġch ote
umbu a
Ġn jema
Ġku imarika
ĠM fa
hu kuru
fun i
anga li
Ġkuji onea
Ġkufu kuzwa
Ġkas oro
Ġkin yang
Ġmp inzani
Sa babu
Ġufu pi
Ġuf asaha
anyi ro
ĠTE HAMA
Ġkusafir isha
Ġm Ãªr
Ġm semaji
Ġku anguka
am shi
el elezi
om bwa
ĠU giriki
ĠKi dato
Ġime hesabiwa
Ġkum fanya
Ġup elelezi
Ġume anza
ĠDa ktari
ĠKis arawe
Ġdes turi
vun ja
ĠUz amili
A metoa
d ishwa
Ġm kusanyiko
Ġwa athirika
Ġma katibu
Ġmi fano
ĠMa ziwa
Ġr asimu
eshi ka
Ġwame anza
Ġkuji tegemea
kili zwa
kumbu sha
ĠMati ro
Ġmua faka
M ka
Ġm simamizi
Ġwa mes
ĠKu fuatana
jumu ika
kusudi wa
ini kizo
Ġmil ele
ĠGa iro
Ġhau kuwa
Ġmvu tano
ukwa ji
Ġwa metoa
Ġina penda
Ku lingana
kan isa
Ġwa hamiaji
Ġku ua
im o
ĠU diwani
Ġpas se
ĠMer kel
áĥ£áĥĳ áĥļ
fil mer
m isjon
r d
ali m
ti dige
e f
Ġm Ã»
b ini
del en
ĠT her
Ġinsta lla
ĠJerusa lem
kun st
tor er
Ġtir sdag
Ġa sta
áĥĲáĥľ áĥĻ
kdom mer
Un der
s ar
Ġetter hvert
Ġgrun ns
ĠÃ¸ ko
ĠhÃ¸r t
ĠkjÃ¸p es
ĠRoj hilata
ĠmÃ¥ le
Ġetter sp
Ġfin n
Ġdy p
kjen te
ĠNA V
ped ia
il Ã®
ĠO la
kal ling
D o
ĠSa di
Ġáĥ ľáĥ
est rÃ¸m
Ġst jer
Ġvis ste
Ġq an
ĠFor sikring
for ening
ĠmÃ¸ tes
ĠB on
A t
le men
V Ã¥r
Ġch oo
áĥĶáĥĹ áĥĺáĥ¡
san legg
tan nia
zi yÃªn
Ġanlegg et
ge za
Ġinn stilling
Ġetab lere
r asjonen
s lig
Ġpa use
ĠpÃªÅŁ ni
ĠnÃ» Ã§e
Ġdi hat
Ġt Ã®ne
Ġmal per
Ġparker ing
ot h
Ã¥ s
Ġkre ve
p in
Ġ: -)
z y
Ġp ul
Ġre visjon
Ġm ester
áĥĶáĥĳ áĥ£
ĠtiÅŁ tek
i yan
197 9
si l
Ġopprinne lig
mer ge
áĥĿáĥłáĥ ¢
Ġs ke
opp le
ĠÐ ĵ
Ġop tim
Ġbin Ãª
Ġna e
Ðµ ÑĤ
ÅŁ te
pe y
Ġq asÃ®
Ġkra vene
ĠT hai
ger in
smarke d
en ti
Ġs let
kk ende
lag te
s ini
co w
ba serte
Ġne bÃ»
Ġli ste
ĠB K
ww w
st ro
Ñ Ĩ
Ġsannsyn lig
áĥĶáĥłáĥ «
nor sk
ĠY PG
Ġvi de
ĠU i
ĠNord land
Ġdi xw
gra der
Ġklo kken
Ġtro dde
New s
d isi
st anÃª
Ġu la
Ġnete wÃ®
ĠBer g
Ã® kÃ®
Ġleverand Ã¸r
ker t
ol ar
Ġhomo fil
Ġg ass
Ġáĥª áĥĶáĥľáĥ¢
p li
Ġeventu elle
om met
áĥ£áĥĹ áĥĲ
Ġlesb isk
ĠbesÃ¸k ende
ĠC ro
Ġf rom
Ġkredi tt
áĥĲáĥłáĥ ¡
ĠpÃªÅŁ ke
Wa li
ea h
Ġáĥł áĥ£áĥ¡
å ¸
ko p
Ġc Ã»
. âĢĻ
Ġxwen din
Ġhjemm esi
Ġfordel er
Ġin dre
s lige
me i
k inga
ĠbÃª h
ĠáĥĽáĥ£áĥ¨ áĥĺ
Ġfor d
lu tt
Ġmed arbeidere
ÅŁe ke
Ġfor ed
bri tannia
ĠnÃ¦rm est
Ġfung ere
ĠVi deo
Ġkontakt annonser
ĠMid t
ĠDer etter
M P
ing u
áĥł áĥĲáĥľáĥĴ
Ġh oma
som me
r t
ĠA ya
ĠhikÃ» meta
Ġsamarbeid et
Ġha vi
u gu
ĠAd am
ĠÃĺ y
Ġforel Ã¸pig
Ġj entene
Ġmen ig
Ġetter mid
Ġblom ster
Ġwa t
ĠáĥľáĥĲáĥĽ áĥ£
ati n
do kumen
Ġâĸ ·
Ġut merket
Ġ ....
ĠB uti
ka t
d Ã»
Ġover gang
le dere
b by
c am
Ġta a
Ġord et
Ġsym pt
Ġpla st
Ġbet ra
198 6
an an
Ġdi kt
ku lu
Ġfy lle
u pe
d iser
ani i
áĥĶáĥ ®
si kia
ĠI ko
dh an
Ġm j
Ġhat ar
Ġcoo kies
ĠT I
tu si
ĠMa c
Ġsta sjon
Ġegen skaper
KA WA
Ġki fa
Ġvalg et
ĠpÃ¥vir ke
ĠMa thi
g Ã®n
áĥĺáĥĻ áĥ£áĥłáĥĺ
Ġc ur
Ġrelevan te
yem Ã®n
áĥĲáĥłáĥĹ áĥĺ
ĠáĥĺáĥĵáĥķáĥĲáĥļ áĥ£áĥĲáĥ¤áĥ£
sa babu
Ġp embeni
Ġmi lima
Wa toto
lim ani
Ġuana chama
Ġwa zima
Ġn enda
ki liwa
Ġti shio
si ku
Ġkuwa patia
Ġmu onekano
ĠKi manta
ĠWa kulima
ĠVi tuo
Ġuwe ze
Ġkis u
Ġufun dishaji
Ġmikon oni
Ġku gawa
Ġma cha
ĠK ondoa
Ġvi tengo
Ġkuwa fanya
Ġli taka
wan jani
Ġina tokana
ĠTa thmini
yan hulu
Wa tumishi
taka bali
Ġuwa kilishi
Ġtri lioni
Ġakis ema
tas ari
tika di
Ġmad hehebu
Ġusta arabu
Ġkem ikali
ĠBul yanhulu
ĠKisha pu
J eshi
J KCI
Ġwa pi
Ġki jijini
Ġkuwa hi
Ġana fanya
let wa
Ġkuu gua
Ġmn yama
Ġng oma
Ġkufi kiwa
M shambuliaji
i taka
j eshwa
ĠM chezaji
Ġwana tarajiwa
Ġny ongeza
Ġuna taka
Ġkam anda
Ġyaliyo po
Ġuha lali
umbu liwa
ĠKig amb
iti kio
ĠUlimwen gu
Ġuhali sia
to zwa
Ġvi pengele
Ġmi fupa
ĠW enye
Ġali teuliwa
Ġwali pokuwa
Ġman tiki
Ġkuka taa
Ġmtu kufu
ĠAr ki
Ġyaliyo tolewa
adhim ishwa
shu ka
lalami kia
M semaji
Ġm lo
Ġm tendaji
Ġg horofa
Ġmwa m
hu huda
ĠI EBC
Ġmu endelezo
ĠKi vu
Ġwana taka
ĠWa yahudi
Ġwalio ishi
Ġzo zote
Ġhati a
ĠAli sema
pote a
pindu pindu
Ġwanam gambo
ĠA jira
fu rah
kati ba
Ġzita kuwa
chap isha
tumbu iza
ĠA sili
Ġkuto wa
Ġuna endelea
Ġb onde
Ġwa amini
ho dha
voka t
fan g
Ġopp gjÃ¸r
at ar
196 6
ver r
ĠFÃ¸r st
Ġarrang ement
Ġhend elser
Ġav an
f yl
áĥĲáĥ ¸
ĠA cc
Kur d
ĠK likk
ĠD in
ĠH ara
Ãªr Ã®n
dri ft
Ġf leksi
ĠbÃ¦re kra
jen er
Ġhel g
K E
ĠR us
var o
ĠJa cob
Ġdobb elt
G U
Ġsiyaset a
L o
Ġbal len
Ġav talen
N O
áĥĳ áĥŁ
u sa
ÅŁ ger
Ġáĥł áĥĶáĥ¡áĥŀ
si mu
n der
Ġc an
Ġpe dago
ĠE ver
ĠP res
ĠV Ã¥re
ĠHan sen
Ġpa pir
Ġproduksjon en
ĠS ing
xwa zin
Ø§ Ù
Ġgra vi
Ġk le
tre pren
áĥĿáĥĳ áĥĲáĥ¡
p ora
ĠK en
Ġmeld ing
ri fter
Ġ Ã¸r
ĠB ang
Ġber fire
ver se
til bud
vis en
Ġarti kler
spi ller
ti me
Ġfor ekom
. :
G C
eld ing
ĠFun ksjon
ord ningen
Ġal ko
bu dt
ĠT U
c ke
ma kt
om bia
Ġopprett holde
byr Ã¥
Ġbre dt
da ter
áĥĶáĥłáĥ Ľ
ĠL ille
je wen
vurder ing
Ġan ta
Ġxeba ta
Ġmi kro
m Ã¥let
Ġved kommende
yl dig
Ġkonsekven ser
ha j
v ent
Ġfar lig
es co
Ġinteres ser
do la
áĥĺáĥ Ŀ
f ek
ati ma
Ġmilit Ã¦r
Ġmid ten
w ia
Ġvond t
Ġreg ist
Ġc asino
Ġwa teya
ĠM ana
Ġanaly se
Ã® la
sk j
pp ara
Ġwer in
ss els
Der som
ve lig
ĠÃ§ar Ã§ove
Ġster kere
ĠáĥłáĥĶáĥ¡áĥŀ áĥ£áĥĳáĥļ
áĥ Ń
ri l
áĥķ áĥĲáĥĵ
ĠDiya r
ä ¼
Ġtra fi
el ling
Ġja pan
is ta
ĠN Ã¸d
Ġbingeh Ã®n
Ġkrist ne
Ġk esa
Ġtil stede
ĠJ Ã¸r
ĠBru ssels
Ġpo li
Ġop po
ä º
am et
ĠAn ders
ĠK A
pu bli
Ġc eza
Ġava kirin
ye ka
ĠbÃª tir
Ġsti mu
ĠDet al
Ġl ot
Ġmorsom t
Ġ eld
s lÃ¥
ĠAbdul lah
il y
Ġkj ede
Ġen or
ĠPa ulo
ĠÐ ĳ
Ġke Ã§
ĠPar k
ti sh
fil m
Ġti tt
ul le
Ġst rÃ¸
ĠLi tt
D O
Ġpa ppa
Ġtre kker
f ta
Ġe pis
Ġliv s
ĠFor svar
Ġyekem Ã®n
Ġektes kap
Ġhun er
ĠK aria
B en
Ġfe ir
Ġh jul
ord ning
Ġopprinne lige
Ġda yÃ®
4 50
ĠMi ro
e wa
Ġf estiv
Ġar gum
Ġf en
ĠProsjek tet
Ġz ama
re ya
Ġc ara
gi kk
ks tad
ist Ã®
W as
ga ta
Ġhind re
or et
Ġst rand
ĠSt yr
197 2
es und
le ke
asa ba
gjÃ¸r ing
Ġkun dene
on zi
w ino
Ġst am
oni ca
âĢĻ .
ĠáĥĿáĥĳáĥŁ áĥĲáĥĹáĥĶ
áĥĲáĥ Ń
S hi
amba zi
to p
Ġveg u
ĠReg i
F I
Ġopp lysningene
D S
Ġkar ri
ogra fia
or idh
Ġku cha
Ġmwa mini
Ġbu stani
Ġkumu ua
ĠTari me
ĠUsw isi
N dugu
Ġwa fanyikazi
Ġku ongea
Ġhu sababisha
ĠWa palestina
Ġuka me
Mn amo
Ġlisi lo
r Ãªn
ĠM geni
am biwa
Ġma ono
Ġma askofu
re jea
Ġg res
Ġki wanja
Ġali kiri
Ġina onesha
Ġulio chezwa
Ġkum pongeza
Ġkuta tanisha
Ġimet a
Ġkula la
Ġkombin asjon
Ġmacha fuko
E limu
u kuu
ge uka
ĠU chunguzi
ĠB inilith
Ġali dai
Ġali sisitiza
ĠKi mei
Ġaki changia
ongo ji
ĠWa taalamu
Ġkun unuliwa
Ġana wa
kiti ko
len gwa
pas wi
mar ekani
kumbu kwe
shu hudia
ĠMoro cco
Ġwaa jiri
wasilisha ji
Ġmasi kitiko
Ġspesia l
Ġpembe zoni
Ġu chimbaji
ku zi
Ġma kusudi
ba kia
ili kiwa
ĠL ugha
Ġwana amini
Ġda ima
Ġuna fanyika
met olewa
Ku toka
Ġkas hfa
Ġvit ambulisho
lam ika
ĠMw inyi
Ġhau ja
andam ana
Ġku hari
ĠM tanda
Ġali weza
isi mua
Ġaki mu
sim ama
har amia
Ġkuch elewa
Ġenda po
ĠFrancis ko
Ġupa tan
Ġma ofisa
Ġhu tokea
Ġwata fiti
Ġng ome
K esi
Ġkun nskaps
Ġupan gaji
Ġuki ukwaji
emen tet
or odh
Ġwana hitaji
ul t
Ġpos ho
Ġproble met
Ġmadawa ti
ish we
Ta kwimu
eshi riki
Ġaki omba
z ane
ĠMo i
tin ga
ĠO ne
Ġpla tt
go s
V el
st on
Ġjin Ãª
g isk
ĠMu sa
ver net
Ġunder tÃ¸y
Ġopp bevar
Ġutdan nings
E U
ĠC lub
L M
i ce
Ġl urer
Ġbruker ne
ĠÅŀ a
ĠskjÃ¸ nner
Ġopp start
Ġplan legging
ĠDew leta
u ten
Ġha vet
ĠSÃ»riye yÃª
N ina
Ġz u
Ġskrift lig
ĠP A
áĥĺáĥĿáĥ ĵ
18 00
Ġp ana
Ġbi hÃª
Ġhe bÃ»na
Ġuni ke
Ġper spek
Ġa sa
ĠHa di
Ġforven tet
ĠW hite
ĠF N
T e
wo od
ĠpÃªÅŁ Ã®
ĠP rin
kti vt
for eningen
A m
áĥĶáĥľáĥ ĵáĥ·
sti lt
ĠpolÃ® tÃ®
Ġtar Ã®
Ġtil hÃ¸r
Ġbyg d
ĠÃ§ iya
Ġutfor ske
áĥł áĥĺáĥ¨
áĥĶáĥ¤ áĥ¨áĥĶ
be ki
Ġst Ã¸y
ĠW orld
fÃ¸r sel
ĠM ens
Ġfor mu
Ġku f
Ġkon klu
ĠfÃ¸l te
we ha
Ġny tte
hand el
ĠM et
Ġkilom eter
ĠundersÃ¸k elsen
ĠÃ§av Ãªn
ba h
Ġsl Ã¥r
Ġst ran
ĠD C
ĠTe v
áĥĿáĥĳ áĥĲáĥĹ
áĥĺáĥĻ áĥĲ
ĠInstitu tt
st ar
ha vn
ĠFa g
Ġun y
ĠS var
Ġd rar
Ġv elly
Ġdistri bu
t d
Ã¸ ver
Ġmer ker
t tige
kon troll
Ġi k
ĠbÃ® ra
Ġkon sesjon
Ġgra der
ĠHi j
ĠJ ana
ti k
sa d
p ana
Ã¥r s
Ġkommentar er
ĠAr ne
B ara
l ami
áĥĺáĥ ¤
rid ge
Ġnatur lige
P E
go d
Ġber jewen
Ġt hat
yn Ã®
Ġl ango
un net
ĠK anada
Ġpri m
Ġf Ã¦r
ĠÃĺv rige
Ġp ere
Ġbord et
pres ent
ĠbeÅŁ darÃ®
N S
li na
ĠBru ker
Ġkommun est
ĠM ua
de ya
gn os
ĠáĥĽ áĥĿáĥ®
ĠAn der
G H
ĠáĥĻ áĥĽ
S isi
ga i
ĠP art
Ġkj Ã¦re
Ġaza diya
re kÃ®
c le
ÅŁ tÃª
å ·
Ġned er
sam ling
ĠMexi co
Ġmin ner
ĠK h
Ġsty rem
ĠÅŁ ert
ĠMed isin
ĠF as
Ġbet alt
Ġhel digvis
Ġpra ktiske
Ġsy mbo
Ġmer iv
legg es
Ġadminist rasjon
ĠEli as
ju e
Ġhen ger
bi xwe
Ġbu ss
ä »
Ġser ie
li ts
Ġka pital
Ġvurder es
Ġfjer de
ĠpÃªÅŁ kÃªÅŁ
ĠEwropa yÃª
wa le
ĠRojava yÃª
g ner
Ġi P
ĠR odri
Ġteks ter
ĠU le
Ġsven sk
Ġoppo ver
Ġfors Ã¸ke
ĠW al
Ġbi Ã§Ã»k
Ġg eo
Ġd ram
ĠMos cow
Ġsc en
m asi
ĠPan ama
IN A
ĠA M
ĠPro gram
áĥ£áĥ Ļ
Ġban en
Ġhvil ket
v ind
ĠF elles
Ġgener isk
ĠBi otek
ĠChristo pher
Ġhu den
dig heten
el et
ver ktÃ¸y
Ġengasjem ent
ĠhÃª ja
Ġn ar
g net
Ġforklar er
Ġne ke
Ġforelig ger
ble mer
Ġmi len
Ġdo llar
Ġmalba ta
ĠJa ckson
Ġer dÃª
Ġdi t
Ġsed em
ĠT ele
bo lig
ĠZ ambi
ĠC as
ĠáĥĴ áĥĶáĥķ
ĠN elson
ren go
ĠI L
ĠAr um
¬ áĥ§
Ġle vende
Ġsi kt
Ġto tal
Ġgjen g
áĥĲáĥ¡ áĥ¢
Ġina y
ft ari
Ġvis st
ĠVi le
ĠÃªrÃ® ÅŁ
ĠMa j
Ġro je
Ġdin Ãª
ĠK ana
ĠB in
b be
ĠKi wanda
Ġiliyo fanywa
Ġu pigaji
Ġwali toa
Ġwakiwa sili
Ġmgawan yo
Ġu hamasishaji
ji panga
fu zu
Ġmi mea
Ġali yasema
ĠI likuwa
Ġsa kata
Ġwali wa
Ġkij ani
Ġiki ongozwa
SA DC
gh wira
miljÃ¸ et
Ġkuvun jwa
ĠES RF
elektroni ki
A skofu
Ġku aminika
Ġhu tegemea
Ġam esha
endele zwa
Ġman unuzi
Ġkuji kita
Ġkuka twa
Ġkia po
Ġsta hiki
Ġmaka bila
ĠBar ua
Ã¸m mer
hai fu
ĠAg ano
umbi ji
andam anaji
alla wa
Ġamete uliwa
M KUU
Ġwa simamizi
Ġwa fadhili
Ġu bina
Ġu zalendo
Ġki pigo
Ġfor odha
Ġwame pata
Ġinayo weza
Ġkuta thmini
ĠWana chama
Ġlililo po
Ġkufa fanua
Ġmab anda
Ġuba kaji
ĠCham wino
Ġames isitiza
Ġvisi ma
jawa zito
J uma
ku baliwa
um bile
ja diliwa
Ġali amua
Ġcha fu
Ġre ÅŁ
Ġmw ito
Ġmwan diko
Ġime eleza
Ku andaa
opp gaver
Ġhur uma
ĠKigamb oni
Ġki katiba
tu zi
Ġam eta
ĠP inda
Ku lia
Ġchan ya
Ġataka ye
Ġkupa twa
fanyi ke
samba zwa
ĠIg unga
U chunguzi
Ġili pata
Ġwana zo
Ġto kea
Ġuta weza
Ġkui ba
Ġita endelea
Ġus huhuda
aru di
Ta asisi
Ġmaba ki
Ġmta katifu
Ġaliwa taka
ĠArum eru
ele weka
wi dhi
Ġwaki endelea
Ġhawa ja
ta zama
ĠMka guzi
kum ene
ĠKika o
Ġu lov
his pania
Ġbe hovet
Ġmobi lt
ĠU KAWA
versi ty
vil kÃ¥r
ĠáĥĿáĥłáĥ ĴáĥĲáĥľ
z er
ĠáĥĽáĥ£áĥ ĵ
ĠA ren
Ġf ara
Ġek sklu
Ġj un
Ġsn u
Ġc amp
Ð ¶
Ġny delig
Ġinn fly
ĠKo b
ĠnÃªzÃ® kÃ®
ud s
c in
ĠdestpÃª ka
ck y
y oni
196 8
fun ksjon
Ġplass er
ĠÃ§i ma
Ġdel vis
Ġut se
Ġav stand
ĠalÃ® kariya
áĥĿáĥĴ áĥłáĥĲáĥ¤
Ġd ada
Ġg jer
ĠA po
ste der
plan en
hali fa
Ġsm art
ĠB A
Ġkun den
Ã§ Ãª
Ġhej mara
Ġnett dating
hi l
er ende
ĠMed lem
Ġle k
Ġne be
ĠR am
ĠKjÃ¸ p
Ġkapi ttel
Ġfors kere
ĠBaÅŁ Ã»rÃª
Ġmeng der
Ġa borÃ®
res sen
Ġfe b
Ġsten di
Ġpir sa
Ġungdom s
ĠK asi
be ÅŁ
ĠbÃ¥ ten
ĠÃ¸ye bli
ĠDri kke
áĥķ áĥĺáĥĹáĥĿáĥ¨
ĠáĥĶ áĥķ
Ġdib Ã®ne
ĠS ent
Ġtev gera
Ġverdensk rig
Ġtilgjenge lige
ĠBÃ¥ t
Ġska ffe
ha gen
tin o
ĠMa f
k tur
Ġloka lt
Ġl am
Ġgotin Ãªn
Ġbegren s
ĠM v
vi deo
Ġkal ler
ãĢ Ĥ
ar ki
áĥĶáĥ £
áĥĲáĥļ áĥĿ
Ġblo gger
Ġgel Ãªn
¡áĥ® áĥ£
196 1
mas Ã¸y
Ġut gitt
Ġkapasi tet
Ġgjennom gang
Ġkos ter
ĠSa ks
f l
pris en
onal do
ĠIn teriÃ¸r
ĠáĥĳáĥĿáĥłáĥ¯ áĥĺáĥ¡
ĠLike vel
Ġáĥ¬áĥ§áĥĲáĥłáĥĽ áĥĲáĥļáĥ£
áĥĺáĥ£ áĥł
Ġsta tistikk
end ana
Ġxwe diyÃª
Ġme ha
Ġsam ler
Ġy t
? ?
å ı
Ġmas ter
Ġnu ru
Ġbi bi
ĠMa z
ĠM Ã¥let
ĠÅŁ ik
áĥĺáĥľ áĥĺ
w el
ĠSa hara
Ġful gt
196 5
Ġmod eller
Ġsli ppe
Ġgren ser
Ġful gte
ĠMar tine
Ġprof essor
Ġdi gel
Ġwela tÃ®
ĠN ed
pro tokoll
Ġhem me
ĠOn line
Ġzi lam
ĠReise liv
ĠK lÃ¦r
Ġsli ter
b Ã¸
llet ter
u ji
Ġvurder er
ĠkjÃ¦rlighet en
Ġrappor ten
Ġdek ker
Ġutvi det
Ġle ie
ĠÃ¸y ne
hold et
ĠBi lal
h anga
Ġprodu ktene
ĠAust ria
lÃ¦r ingen
Ġtv ang
r andin
ĠLand bruk
ĠOff entlige
áĥĺáĥľáĥ ª
ĠMe di
Ġski lle
Ġbeskri ver
Ġt unge
Ġter orÃ®
ĠpÃ¥vir ker
ut hi
ĠShar on
klo kke
Ġt Ã®nin
ĠVi ti
n ek
ĠN M
Ġorganis asjonen
gra fi
kon tor
Ġbesky tte
Ġr ela
Ġf lu
8 4
15 00
es he
ĠMu da
ĠB onde
Ġxeba t
Ġnett side
Ġsyn tes
ĠMari e
Ġtjen estene
Ġtre kk
UN DP
P u
c ol
Ġdek ket
Ġte c
Ġroj Ãªn
ĠOl sen
fu l
ĠSa fari
Ġdelt ar
Ġbod de
Ġt Ã»
Ġkre vende
elef oni
Ġr asi
Ġri k
ĠAl man
Ġartikk el
ĠA V
Ġser o
ei er
li ni
ĠKo cha
ya i
pu ka
gu sa
Ġblo gu
ĠA ca
ĠHa kuna
ĠTAN U
ĠS Ã¸
Ġbru ks
ĠMe dier
res ulta
ĠSkjÃ¸ nn
Ġbi g
kjÃ¸r ing
sm idler
ĠprÃ¸ vde
Ġunders Ã¸ke
Ġlever es
ĠSel skapet
am ko
im ama
ĠC iz
Ġpe pe
mu zi
ĠN ane
ha bili
Ġki mi
Ġlo ven
Ġregi onen
ĠB ok
áĥĲáĥ¤ áĥ£
ĠAndre as
N BAA
Ġk wen
Ġwa hariri
ti bwa
Ġu jifunzaji
Ġkwa sababu
Ġkufu fu
Ġma jera
om ea
ĠR asimu
Ġmkon do
ĠHam is
ĠPen sheni
Ġmajera ha
U jumbe
Ġku kiwa
ĠT angu
ĠW asichana
ĠG allawa
Ġmw ema
ĠKa unti
Ġkuji fungua
Ġkuji tambulisha
Ġkuz induliwa
Ġunao fanyika
Ġwak isikiliza
Ġakis isitiza
Ġmilen ia
S heria
h tasari
Ġku athiri
Ġa dui
Ġd haifu
ba inishwa
Ġha zina
Ġmi onzi
Ġmw itikio
Ġpo inti
shiriki ana
mili shwa
dere va
Ġkufun dishia
Ġáĥ¨ áĥ¢áĥĲáĥ¢
lai ki
hibiti shwa
ĠMtu kufu
W adau
Ġku hama
Ġhu weza
ĠN kur
ĠW ario
ĠMa futa
amu ru
ĠWa teja
Ġmo tisha
Ġunao endelea
ĠKo di
ĠMw isho
Si mba
ĠMaka mba
ĠUk weli
TC L
ĠWario ba
C huo
Ġm lima
Ġkuwa pongeza
ĠTa fsiri
ĠKa bla
Ġzilizo tolewa
Ka dhalika
Ġtas wira
isim amia
Ġsaru ji
Ġm tumishi
Ġs arafu
ĠM jema
ĠM simbo
Ã® z
ĠU chuku
cha pa
Ġume ongezeka
Ġmata wi
An asema
Ġwach anga
Ġamela zwa
ĠUchuku zi
O rodha
ĠM tandaoni
ĠG harib
Ġkusa iniwa
ĠNdi yo
Ime elezwa
anga zia
Ġuna vyo
amba a
Ġele kezi
gawa ji
Ġbolig er
ĠJe an
b l
ed ia
fi le
Ġmul ti
man Ãªn
i ke
or s
rah man
ĠS V
ĠLi ll
Ġava kirina
c ket
Ã® m
Ġreg ne
Ġd isk
kt es
ĠMa uri
ĠáĥĽ áĥĺ
s ma
Ġm ari
Ġenc am
an Ã®n
Ġu be
ĠIbra him
ĠJ us
Ġob jek
d anÃª
Ġgj ester
7 9
ĠFri tid
ten i
ĠFo undation
195 8
ĠS ugar
van an
Ġxwen d
ĠHa dde
si ya
Ġla ve
xane ya
Ġáĥ¡ áĥĲáĥĽ
ĠR U
ĠÃĺst fold
ĠáĥĻ áĥĺáĥľ
ĠMicro soft
Ġmulighet ene
Ð½ Ð¾
Ġfag lige
Ġh esa
Ġhew ld
Ġsj ansen
nd re
ĠE ger
ĠDa y
Ġin form
Ġsna kk
wa ya
áĥĺáĥľáĥĴ áĥļ
Ġciva ka
Ġj ur
Ġm eta
Ġnetta potek
Ġalvor lige
12 5
Ġhew ce
es eri
ut valget
Ġgra vid
Ġregi onale
Ġel ementer
b ransjen
Ġdre ier
ĠR et
Ġnasjon alt
Ġplan en
Ġso lid
Ġf unn
Ġavs l
Ġre par
c ed
ĠC an
Ãĺ TE
Ġstra teg
Ġkon a
n is
ĠC he
Ġkjen diser
Ġs ju
em Ã®n
Ġned over
Ġopp rette
vi dt
sh andel
ya l
Ġmang lende
ĠE lÃ®
q Ã»
ĠKer kÃ»
Ġma ten
ĠE ro
O A
ĠV ene
å ħ
ĠS kri
f red
t sen
ĠpÃ¥ pek
Ġly kke
ĠbaÅŁ Ã»rÃª
om me
ĠK ha
Ġáĥ© áĥĺáĥľáĥĶáĥĳ
Ġxis tin
áĥĿáĥł áĥĺ
ĠÃ®n an
ĠA B
ĠG ri
w d
ĠáĥĿáĥ ļ
F i
Ġregjer ing
Ġrex ne
Ġg alt
Ġo ft
Ġut elu
Ġhu sker
sy stemet
Ġr um
Ġkost nader
Ġkur Ãª
âĢ ĭ
di m
ĠD or
Ġdi jwa
Ġbehand le
Ġal Ã®yÃª
3 50
Ġmarkeds fÃ¸ring
g else
Ġtev ger
Ġsk ru
Ġut sikt
lo pp
Ġse y
m and
va a
E w
ĠRog aland
Ġvis s
m elt
ĠG or
Ġbarneha gen
ĠYekÃ® tiya
ĠY A
c ir
ĠKristi ansand
Ġder keti
q et
ĠmiljÃ¸ et
1 30
Ġbe finner
Ġpe v
Ġse li
ĠHa ya
m bu
as ha
s ing
áĥĵ áĥĺáĥĵ
s pe
ĠH D
ĠFÃ¸r ste
Ġsyke ple
Ġmedlem mene
E Z
Ġi gang
van net
ĠKu ra
g is
ĠH eta
tÃ® yÃª
re gi
Ġav taler
Ġforeg Ã¥r
Ġsannsyn ligvis
Ġba zi
Ã¥ tt
ĠBei jing
ĠP PP
ne lig
te x
ĠEng ro
ung an
Ġsho w
ĠáĥĴ áĥĺáĥĽ
Ġáĥ¥áĥĺáĥĲáĥľ áĥĲáĥ¨
uer lig
for skning
Ġtu ris
l oni
198 8
áĥĿáĥľ áĥĺáĥ¨
Ġbefolk ning
Ġgr am
Ġmil ki
Jo hn
be hÃ¸r
Tu be
b elen
ku ma
Ġba ck
en tet
b w
Ġuten landske
t est
ĠlÃ¸s ningen
Ġga te
Ġko selig
Ġalder s
Ġti ÅŁtÃ®
Ġra i
gue z
ng en
Ð¸ ÐºÐ°
ba k
Ġsta vanger
ĠInn ledning
ĠB ol
Ġbist and
ati ni
sa fir
ĠbÃ» m
ĠG elÃª
Ġyo ur
Ġvoks er
Ġut gave
Ġew Ãª
h Ã¸rer
ĠOD M
ĀĀĀĀĀĀĀĀ ĀĀĀĀĀĀĀĀ
ĠC iti
Ġpo tensi
Ġre de
ar o
Ġkon t
ĠT G
ĠT undu
Ġprogram mer
ĠH ili
ĠGro up
Ġz ind
ĠD eo
ĠAng ela
Ġtil delt
in ns
Ġfort satte
vis er
ver ing
Ġta ji
áĥĲáĥľáĥĵ áĥ·
Ġill ust
ĠS ed
hi yo
Ġwa di
ff en
Ma zungumzo
Ali eleza
Ġmis uli
Ġk iserikali
Ġma fundi
ĠK isiwani
Ġki tovu
sa iniwa
ĠMa onyesho
Ġwaki onyesha
Ġwasi fu
ĠUm wagiliaji
a jiriwa
ĠM tihani
ĠM ghwira
ele ze
pi ma
ĠC hem
ĠL uku
Ġiliyo pangwa
Ġwalio ji
ĠHa pa
Ġzilizo endelea
kom bora
Ġkuja li
imar ishwa
Ġkie limu
U shauri
Ġwa alikwa
Ġku ongezwa
Ġu wanjani
Ġf araja
Ġki vutio
Ġha laiki
Ġj angwa
hu biri
Ġkuwa hudumia
ek wa
Ġta thi
Ġdi wani
Ġe kari
Ġana hitaji
ĠKa uli
sta hiki
Ġinayo ongoza
Ġzina patikana
ĠMas asi
chang an
ĠHas unga
Ġvia shiria
undu liwa
ĠFi zikia
ĠMaal umu
a chwa
a gizwa
Ġk ingine
Ġwa jawazito
Ġn est
Ġp indi
ki dhi
re jesha
Ġvi kali
hu ghuli
hu kumu
Ġen zi
Ġkuwa ta
bo bea
ifa a
Ġina taka
Ġame agiza
umi vu
tumi e
ĠKam ili
Ġak isikiliza
Ġkua chana
Ġwak ish
ĠSel emani
Hu duma
ĠKong amano
ĠCA G
Ġwakis ubiri
ĠUfun uo
ĠShig ela
ĠKilom bero
Maka dirio
Ġwakaa zi
N jia
ri riko
ĠK wenye
Ġki mekuwa
Ġkuwa jibika
Ġmi jadala
Ġta jiri
kwa juni
Ġkui funga
Ġkur asa
Ġkupi gia
ĠMal engo
Ġakisa ini
Ġmashu huri
ĠUp inzani
v amia
Ġm husika
Ġki pimo
ĠMa kam
ua ha
idi wa
Ġinayo husu
ĠMwa m
Ġkus isimua
Ġwata wala
haribi wa
Ġkuja za
Ġku tembea
Ġri dhaa
Ġmaj umu
ĠMwana funzi
luh ishi
ĠM fano
Ġali kwenda
ĠG as
Ġke tin
Ġzilizo fanyika
Ġku hesabu
ĠV ETA
Ġpres s
Ġeffek tivt
ĠHvor for
Ġleverand Ã¸rer
is tiske
ri ften
ĠL ou
ĠH vil
ĠO dd
ĠI rak
Ã ¨
ĠD Ãª
P er
for eta
áĥĲáĥª áĥĺáĥĲáĥ¨
tiv o
ĠL ogistikk
Ġmyn dighetene
Ġser ien
ĠZ u
SA F
ĠI CC
Ġhjer tet
Ġinn sikt
Ġg ran
ri ck
ld t
Ġf ed
P Ãª
Ġt ha
Ġfors ter
ĠRuss ia
on gi
ha te
bo ks
Ġarrang ert
ut ta
Ġsammenlig net
p het
hengi ge
it s
Ã¶ r
Ġinn skudd
Ġmij ara
pl oma
Ġhoved sa
ĠDetal j
Ġgjennom gÃ¥
ĠUnder holdning
ĠS m
ĠB log
ĠÐ Ŀ
ĠF le
Ġvis se
ĠWa li
Ġp al
áĥ¡ áĥŀ
che a
Ġli m
áĥĶáĥ© áĥĵ
Ġrepresenter er
Ġt este
ĠS pania
Ġher under
ĠStor britannia
ĠAlex ander
ĠU kjent
Ġna kin
ĠI k
Ġzarok an
tek nologi
ut valg
Ð¾ Ð´
Ġbri tiske
ĠS ky
ĠQ atar
Ġne vne
ye yÃª
Ġber iya
Ġz elal
pres jon
I kke
áĥĺáĥł áĥĿ
áĥĺáĥĿáĥ ĸ
Ġkvalitet en
or y
Ġper Ã§e
ĠKristi an
ĠI drett
g het
ĠN I
Ġp ga
ppor ten
Ġminim um
g al
Ġs unn
Ġau g
Ġ islam
Ġskj Ã¦re
li ya
ĠO per
en der
Ġáĥ¡áĥĲáĥ®áĥĶáĥľáĥ¬áĥ·áĥ¤ áĥĿ
ĠMar ch
Ġdi zanin
ĠDes suten
ktroni kk
Ġli dar
Ġbed t
ĠSten bolÃª
Ġty p
Ġin ten
mu ligheter
ĠN E
ĠT ry
elen ga
sy stem
Ġkvalitet s
ĠV ati
Ġa j
ch ua
Ġvel kommen
Ġga y
ĠN es
ĠR y
Ġele ven
Ġdelta kere
li tet
Ġsp urte
ti vitet
ĠM ye
Ġx weza
Ġfor ur
Ġdesig net
Ġpass asjer
Ġli kte
Ġlever ing
Ġáĥĺ áĥĽ
wa ti
ĠA ns
Ġba jÃªr
Ġfor be
ema le
Ġfjell et
ĠMi z
Ġelektron isk
ĠKjem isk
Ġprofesjon elle
Ġber Ã¸r
Ġna tten
ĠM un
á »
ĠfÃ¸l es
Ġmatem atikk
ba ck
Ġhun der
å¸ Ĥ
ma il
nes s
Ġáĥ¡ áĥ¥
si dene
áĥķ áĥĲáĥł
Ġprodu ktet
Ġho de
áĥķ áĥĺáĥļ
Ġru tiner
Ġtest et
áĥķ áĥĲáĥĽ
sp ar
Ġbyg ning
ĠáĥĶ áĥļ
Ġinn bygger
Ġáĥ¡ áĥ£áĥĽ
ĠI fÃ¸lge
Ġinn rÃ¸m
li ga
ĠMu ga
ĠÃ§Ãª bi
ĠherÃª mÃªn
ĠVest fold
Ġser bixwe
ĠáĥľáĥĲáĥĽáĥ£áĥ ĵ
s tin
Ġsykdom mer
forbund et
bild et
rÃ® na
Ġobser v
ĠáĥĿáĥ ¡
uma ini
Ġsva k
ĠH in
sa ha
ĠA U
ĠHo llen
ĠKi ta
Ġaxi vÃ®
li en
ĠGab on
Ġtre ffe
Ġbygg es
ĠSwÃª dÃª
in y
Ġdag lige
and oa
Ġhalv parten
Ġstyr ker
Ġkla ge
K ia
da d
eng Ãª
zi yÃª
ĠMas sa
kati ya
ĠW Ã®
ĠpiÅŁtgi riya
ĠEle ktronikk
Ã¸ konom
bar het
dagen s
Ġinvol vert
ĠV Ã¥
ĠáĥĽáĥ£áĥ ¡
ha gelig
Ġbo ti
an ten
ĠH um
Ġ {
ĠÐ ¿
ä ½
Ġne v
å· ¥
Ġmilli on
Ġmi lyon
ĠJo b
ĠHÃ¥nd verk
ÅŁ o
es el
by tte
20 30
Ø ±
ĠYe ho
Ġtilfel dig
Ġn k
ĠKa g
] [
kul tur
zu ka
Ġle w
Ġku jin
Ã´ r
Ã¥r d
med ia
ĠMÃ¸te dato
bo ka
K as
Ġfrivil lige
ple men
I fÃ¸lge
Ġperson en
vi tra
ban ken
ĠbeÅŁ dar
par k
y ne
ĠNasjon al
Ġn ji
ĠM tibwa
Ġf asihi
ĠI V
Ġku amini
Ġb alozi
ĠM gombea
Ġiliyo fikiwa
Ġwalio fariki
Ġwame amua
Ġinayo tarajiwa
pu kizi
ĠSiku kuu
hibiti sho
Ġkusamba zwa
h umu
o lojia
ka twa
Ġu gaidi
ĠM enejimenti
is emi
ku tanisha
ki uka
Ġma kombora
ba ada
Ġam esh
ĠR ongo
ĠF idia
Ġwali uawa
Ġuta anza
Ma kofi
Ġmch ele
chu kuwa
yon ga
ambuli shwa
Ġuma hiri
ĠMada ktari
Ġkuidh inisha
Ġku jibu
Ġu anz
ati biwa
Ġmwa faka
Ġt hel
Ġkuwa ondoa
Ġmu ongo
ang iaji
Ġaki wemo
Ġwali om
Ġsam puli
Ġana vyo
Ġkusi tishwa
wam bia
Ġwa hudumu
Ġku chi
Ġku zaa
Ġp engine
Ġmwa ko
ĠU holanzi
Ġom bi
Ġina tambua
Ġc u
Ġum es
Ġwen zao
Ġyana fanyika
Ta fsiri
ĠMka kati
Ġhazi ku
ĠRama dhan
Ġpetro li
Ġmilet Ãª
Ġinasa idia
Ġmt angazaji
Ġmb inguni
Ġb wawa
ĠM falme
Ġv isiwani
Ġki elelezo
Ġki zuizi
ĠU bunifu
ĠB ingwa
Ġmi pya
sh eleza
ĠWa kazi
Ġuli omalizika
Ġinayo fanya
Ġimet angaza
Ġmba o
tengene zaji
Ġzita tumika
Ġuma arufu
Ġku enea
ĠM isaada
Ġkuwa fikia
ĠWa wekezaji
Ġuli vyo
vu ko
ĠMi guu
gwa ng
fya tua
ibu a
yar isho
Ġkuti bu
ĠB ungeni
Ġali ou
Ġmajumu isho
Ġu chafu
Ġut umia
Ġka imu
ĠLis su
haru ki
Ġutumia ji
Ġume baini
ĠS or
ĠIs land
Ġwaa limu
Ġevent yr
a damu
d Ã®n
ĠG ren
ett s
Ġáĥĵ áĥĺáĥ®
ĠsÃ¸k naden
ĠHou se
Ġska pt
sg jer
Ġmi z
Ġkom Ãªn
áĥĶáĥĳ áĥĲ
Ġma ku
ĠrÃª ba
ĠÃİslam Ã®
Ġalko hol
ĠS ku
Ġa c
ĠS ur
ĠE sk
Ġparti yÃªn
= >
Ġs alt
Ġver ne
bo l
ĠmÃ¸ nster
Ġsko gen
T D
ĠKom ara
Ġgrunn en
Ġvurder inger
j ari
ĠS yn
Ġfor hand
Ġb ran
Ġáĥ¡ áĥ¢
Ġhilbijar tin
ĠrÃ» ni
ĠFor sk
Ġsi te
ĠG unn
Ġb all
un ns
ud ia
mÃ» ne
ĠArbeid smarked
ĠVel vÃ¦re
IS I
ĠDe c
Ġsa z
Ġpen a
ter ende
Ġvar mt
Y D
Ġav fall
del er
M T
Ġr art
Ġin fo
Ġl Ã¦rt
ĠC ho
C D
Ġsto ppe
Ġq ur
Ġbajar Ãªn
ĠD ok
Ġmas sage
Ġhovedsa kelig
ĠNÃ¦ring smiddel
ke hus
19 00
Ġsam ling
Ġreg nskap
ĠEs c
Ġa ktÃ¸r
Ġut tal
ĠáĥĶ áĥĵ
mu s
Ã¥ det
Ġberfire h
la wi
Ġski p
ĠtenÃ¥r ing
ĠsÃ¸ t
k na
ĠBe x
t rer
Ġle delsen
ĠAr beider
he i
ĠFor eninger
ĠtÃ¸r r
ĠL um
Ġinn kjÃ¸p
Ġkr on
ĠE A
ĠrÃª ve
ĠnÃ¦r mer
ele ya
Ġpresenter t
Ġindu sti
P ar
at or
Ġf eltet
Ġter ror
áĥĺáĥĶ áĥłáĥĺ
ĠáĥĿáĥĿáĥłáĥ£ áĥĶ
ba tt
tu be
pp i
ĠsÃ¸r ger
ss ta
masÃ¸y tisk
D ema
Ġgrunn laget
Ġh ov
ĠÃ¥pen bart
ĠJohan nes
Ġs har
ris en
org es
Ġa frika
Ġna ko
ĠM anda
Ġkil de
ĠO man
vis e
ĠYou Tube
Ġdo za
Ġbe vil
Ġqe y
jel d
Ġinf rast
s je
Ġâ Ĥ¬
ĠNÃ¸d nummer
ĠSkog bruk
Ġri ktige
Ġkris ten
Ġver ken
áĥĶáĥłáĥ Ĵ
Ġbigi rin
áĥĿáĥĽ áĥ£áĥ¨
ĠrÃ¸ de
å Ĳ
Ġsvar er
196 2
Ġx er
Ġta llet
ĠFre e
v altning
Ġber ed
beta ling
Ġdawi yÃª
Ġgre p
Ġber si
Ġrisiko en
Ġt verr
Ġta le
program met
hati n
ĠDAIÅŀ Ãª
ĠMan n
U m
G G
ĠT ren
ĠáĥĹ áĥĶáĥ¨
Ġmi r
ĠA mba
Ġgo tina
AN I
ĠF rem
ĠCol ombia
Ġm ore
Ġt onn
Ġk onge
Ġsku dd
ĠsivÃ® l
se ya
Ġf Ã®l
ĠS um
ĠFar masÃ¸ytisk
ĠOrganis asjoner
ĠBiotek nologisk
ĠEngro shandel
Ġspiller ne
Ġhot eller
sni vÃ¥
Ġdo st
Ġbry ll
ĠN u
Ġh ere
re ft
ĠR E
vin ning
ĠT elefoni
Ġdi visjon
for stÃ¥
Ġhistor iske
Ġfy lt
ĠáĥĴ áĥ·áĥľ
Ġn yo
Ġhej mar
áĥĺáĥĲáĥľ áĥ£áĥļáĥĺ
ĠprÃ¸ vd
Ġki b
áĥ£áĥľáĥ ¡
Ġza f
Ġáĥĺáĥ ¸
Ġxw estin
ĠG elek
ĠPu tin
Ġmu zÃ®
ĠFebru ary
Ġd ora
M L
si kkerhet
Ġsamarbeid spart
k oma
Ġtil latt
Ġreg lene
Ġut stilling
Ġan meld
Ġfor klare
ĠAbdul rahman
ma in
ĠlÃªkol Ã®n
áĥĿáĥ ª
jen ter
Ġsi r
Ġáĥľ áĥĲáĥľ
p x
ĠP R
anÃ® na
edlem mer
bÃª j
fa ktor
ĠS MS
ĠSkjÃ¸nn het
ĠHu sk
ĠstÃ¸ v
Ġspesi fi
Ġderve yÃ®
rem bo
áĥĺáĥĲáĥľ áĥĺ
19 18
ĠAl varo
G od
S o
Ġkor re
x Ã®
Ġski ller
ĠnÃ¸dvendig vis
Ġs tikk
end en
Ġmeto de
ĠJ anuary
ĠMas ter
Ġku pe
Ġmen t
j eg
ze ki
c ation
Ġkes Ãª
Ġkvar tal
til linger
æ ľ
ter inger
Ġinstitu sjoner
Ġir ri
Ġkontin uerlig
ra pport
áĥĺáĥĻ áĥĲáĥ¡
Ġpen is
ĠMa hi
pres s
ĠMi hemed
Ġ iste
Ġkonf likt
Ġaga h
ĠnÃ» ner
k lia
Ġs enior
Ġalt for
ĠB este
rom met
Ġforhold ene
stÃ¥ ende
Ġaza diyÃª
Ġfris k
ter ingen
ĠF ord
Ġw inda
Ġkom ku
Ġpa y
ann on
se pt
Ġma ch
ker er
ĠC am
sgi ver
Ġa sy
lo w
d r
Ġopp var
b end
Ġperf ekte
pe li
ba t
Ġm zi
tet a
Ġfas ts
f en
v ika
Ġro lig
ku mba
Ġbereg net
ona o
Pu bli
áĥ® áĥ£áĥľ
ĠáĥĲáĥłáĥ« áĥĲáĥ¨áĥĶ
ga li
Ġa potek
om ero
ĠÃ ĸ
Ġd hi
ĠA w
ĠTim es
elle k
M al
ĠSi ha
ĠHi ll
an ti
o ezi
ĠJ enter
bar ua
Ġke vn
Ġki enyeji
we keza
ĠD amu
ua giza
ĠMw ongozo
ĠMili ma
ki mu
we kewa
Ġvi labu
ĠU wezo
Ġmi liki
ĠP asaka
Ġime wekwa
Ġkut oroka
Ġkis wahili
ĠJa pani
Ġkush takiwa
Ġuj asiriamali
In gawa
Ġtilpas se
ĠMv omero
Ġku ko
Ġku heshimu
Ġu wasilishaji
Ġma yai
Ġma umivu
Ġj umuia
hu ba
Ġt yn
Ġin amaanisha
ga wiwa
sa firi
ĠJ ang
ĠF ly
Ġaki zindua
kwa ju
Ġim em
ĠSh erehe
Ġkut hibitisha
Ġkuz ungu
Ġkush erehekea
Ġkim singi
Ġkuti wa
Ġvia tu
mwa ka
ĠKara gwe
Ġusta di
Ġwameta kiwa
M iaka
S wali
W engi
Ġhi o
ĠT arafa
ĠKi yahudi
Ġwenye viti
im wa
ĠBa y
Ġkuka ri
Ta yari
ĠFa inali
Ġkuri poti
tun za
Ġzin asema
Mar ekani
Ġmbu zi
Ġushirik ishwaji
Ġku kimbia
Ġhu saidia
Ġni ta
sa limia
ĠR uaha
dhi a
Ġwana pata
ĠTa bia
vu ka
Ġuta tuzi
Ġbe ve
Ġuwe kaji
amba po
Ġuch uku
Ġkufu ta
oa ji
Ġaka wa
mbi u
choche zi
luh isho
Ġkuham isha
ĠKija zi
ĠK umbu
Ġhu tumiwa
Ġl ami
ĠKi gwang
Ġwalio kaa
Ġreg net
Ġnyan da
Ġwasa idizi
Ġt angazo
Ġji pya
angu lizi
Ġkusa jiliwa
Ġsh inikizo
ungu u
oma liza
Ġzina onesha
Ġkuondo kana
te ke
S hule
Ġt arafa
ss et
ĠkÃª f
ĠáĥĴáĥł áĥĺáĥĴ
g rep
ĠáĥĽáĥĿáĥ¡áĥĿáĥ¤ áĥĶáĥļáĥĺáĥ¨
Ġmeld inger
Ġkor te
ĠalÃ®ka rÃ®
Ġdaxwa z
ĠM Ãªr
G R
Ġki tÃª
ĠgrÃ¸ nne
ĠSt rÃ¸m
gra fer
Ġh ttp
Ġoppga ven
Ġkonkret e
ĠbÃª je
ki riye
ĠChi le
Ġgrun dig
Ġin strum
ja l
Ġsa et
per est
Ġgir t
ĠHollen der
ĠsÃ®ste ma
Ġregistrer ing
H os
ĠSer ena
Ġáĥ¡ áĥĿáĥĵ
sk rav
u ge
bo ken
Ġut gifter
ĠBu sh
Ġar ena
Ġdi ya
ly st
Ġmirov Ãªn
áĥĺáĥłáĥ ¡
sti den
ĠP ara
Ġb ere
ĠB os
ada la
Ġpart ene
en Ã®
sy ns
inger s
luft s
Ġnor way
Ġu ku
v ordan
gi vning
ĠnÃ¥ vÃ¦rende
bel Ãª
Ġgjen ta
iser te
da s
men Ã®
Ð¸ ÑĢ
áĥĿáĥľ áĥĿáĥĽ
ĠB eni
Ġbehand lingen
ĠáĥĽáĥĶáĥ ¯
C P
ĠD ia
K HA
Ġkontra kt
f iske
iser er
ĠFran sa
Ġforv alt
Ã¥ pent
Ġso ve
be hand
ĠÃ¸ ya
Ġba d
ĠS ho
ĠPre mi
Ġli gel
Ġmot setning
Ãªn Ã®
ĠÃİraq Ãª
Ã¸r relse
Ġforret nings
Ġepis o
Ġn Ã®n
ĠbÃª yÃ®
Ñĥ ÑĢ
in formasjon
ĠV alg
ela t
" ]
Ġa kin
ss enter
Ã»n Ã®
ĠMas sasje
ka wa
Ġsmer te
áĥĶáĥł áĥĺáĥ¨
ĠSp esi
Ġsing el
Ġmennes kene
teri ell
ĠdestpÃª kÃª
Ġs os
ĠLe on
Ha ya
Ġfores lÃ¥r
ut dan
Ġta kket
ns berg
Ġfjer net
jor den
ket s
ĠL ov
ĠAt lan
Ġme z
Ġbrans jen
di ki
ĠlÃ® sti
bi ya
áĥĺáĥľ áĥĲ
ĠáĥĽ áĥĲáĥ¡
lÃ® st
Ġhati bÃ»n
ĠUni versity
gir tin
l der
ĠPa to
ĠSop hia
h indi
Ġuli k
in ter
ke ke
si c
ĠD N
wa z
Ġte h
et ning
Ġ áĥĲ
Ġk Ã¥ret
Ġdil do
áĥ¢ áĥĺ
Ġen gang
lub ber
Ġver re
ĠA ks
å ¹
ist ana
Ġplu ss
met er
ĠJu ven
Ġkil der
ug h
Vi deo
mi ra
Ġfamili er
p ning
ĠSem alt
prosjek ter
Ġh Ã¥ret
ĠTa kk
T rÃ¸ndelag
ĠfÃ¦r re
ĠDetalj varer
Ã» rÃ®
ent es
ĠJul y
Ġlin je
Ġpro je
Ġta l
Ñ Ī
Ġv eter
ter em
ss tu
ĠS ven
Ġáĥł áĥĶáĥĴ
me hÃª
Ġprofi ler
Ġfys iske
du s
Ġoverna tting
Ġkvinne lige
ĠO lav
wa re
ĠHÃ¥ per
fag lig
Ġviten skape
Ġrepresent anter
Ġekstrem t
fu ru
p Ãªn
Ġbestem me
ĠN ina
Ġel ement
O slo
ĠFin land
ĠMa ch
Ġqu iz
Ġd um
Ġde z
ĠWi to
like vel
fes tiv
wa i
Ġban k
Ġ Ø
Ġnavnet eweyÃ®
ï »
ste det
lin k
Ġmo ttar
áĥ£áĥł áĥĿ
Ġan sett
Ġprodu sere
Ġbes tilling
ŀ áĥĺáĥ¯
stra tegi
Ġn ema
3 000
Ġtek sten
b om
an ne
ĠKa t
ĠTirkÃ® yÃª
ĠL td
ĠKam pala
gu lu
Ġele v
ĠMuga be
led ningen
kom petanse
ĠlÃ¥ ne
Ġry gg
Ġfa bri
ĠHer o
Ã§Ã» na
set ningen
S F
p unkter
da hi
Ġgaran ti
Ġw elati
Ù ħ
ĠpÃª wen
ĠE M
ĠE N
ven sjon
ĠÃ§ er
áĥĶáĥĹ áĥĺ
zar eta
tter e
Ġx ist
ĠáĥĴ áĥķáĥĲáĥļ
O r
ĠáĥŀáĥĶáĥł áĥĺáĥĿáĥĵ
ama la
ki ma
Ġvi ki
net eg
Ġun ik
Ġtur ner
sha sa
Ġbes lut
Ġbestem mer
Ġfors Ã¸kt
Ġkas tet
Ġfors laget
Ġfa ttig
Ġdeba tt
Ġkommun ens
Ġforvent ninger
Ġhe ft
sin ne
del ser
se y
Ġinteressan te
ĠPo wer
Ġer d
S O
l Ã¸k
y esha
w let
it to
EM BA
ï» ¿
el eder
Ġlag re
Ġland ene
ba ta
ĠN z
Ã¥ fÃ¸r
Ġh jÃ¸r
Ġen de
S p
Ġinng Ã¥r
Ġre iste
min istrer
o per
s le
si vt
u ta
ĠA yo
ĠD ere
ber Ãªn
lem ani
ĠStand ard
demok rasi
ĠÃª ri
b ber
re a
B E
ĠF olk
ĠsÃ¸ te
v Ã®nÃª
Ġdi x
J ON
ĠTa wi
Ġge vin
da t
ĠT O
Ġd vs
spi llet
Ġhur tig
Ġma ko
hold es
lÃ¸s ninger
hen a
Ġju rid
li on
Ġfor talt
Ġkri ti
Ġtempera tur
Ġinspi rert
ĠAgen tur
Ġe y
Ġg li
ĠP esa
ĠKi tabu
ter ier
Ġji bu
loba l
jem i
ĠáĥĽáĥ£áĥ Ĺ
Ġdokumen ter
ĠáĥĿáĥ ĵ
ti miza
var d
19 40
y kker
Ġ[ "
ĠSag ini
Ġvido le
Ġkwen u
"] =>
Ġh asira
zi kwa
Ġhi yari
Ġvi oo
Ġut hibitisho
Ġmw ingi
Wa kizungumza
ĠRu vu
Ġmwana habari
Ġko fia
Vi jana
Ġuki uka
Ġmta wala
Ġzita tolewa
Ġuko o
idh inishwa
meto kea
Ġzimet olewa
Ġmwamini fu
Ġukiuka ji
u wawa
Ġwa andamanaji
Ġku olewa
ĠM chezo
Ġj arida
ĠN anenane
Ġkuto zwa
ĠW ete
st jer
Ġili fanya
Ġume wa
ut amaduni
ĠJi pya
aria dha
Ġkusu biri
Ġkuten da
Ġuda ktari
Mw isho
ĠMasha hidi
Ġlitaka lo
dahi liwa
y uni
Ġna penda
ĠT anda
fa idika
Ġhu patikana
sa ji
ĠR asili
pi mwa
Ġaki onesha
Ġina elezwa
ĠWa handisi
vu ta
Ġame ahidi
Wa bunge
hari mu
Ġwalio pata
ĠHa zina
Ġshu kur
amba za
Ġpa kubwa
Ġus anifu
chuku lia
ĠRe dio
Ġmch anga
Ġyame fanyika
Ġkushu hudia
ĠAna weza
ĠVen ance
Ġukari mu
ĠGel asius
ĠUa limu
zeki el
Ġshukur ani
B enki
v unia
Ġm ny
Ġku twa
Ġu andaaji
ha tar
zi fanya
Ġma jum
Ġfor delt
Ġt endo
Ġmi taji
Ġwana ji
Ġuna yo
Ġuta pata
Ġuta yari
Ġun yanya
Ġch ati
Ġame dai
Ġwaki pita
ĠDar asa
Ġkum karibisha
Ġzilizo pita
Ġsu luhisho
fuata o
Ġhawa kuwa
Ġke ki
PA HI
Ġpasi po
Ġtuta kuwa
Ġmasi kini
Ġmti ririko
Ġamei pongeza
Ġkuham ishwa
Vile vile
ĠAG PAHI
ka taa
Ġu laya
ĠM ch
Ġma fundisho
Ġki faa
Ġwali fanya
asi kini
Ġmin ane
nd wa
Ġume endelea
Ġim esha
badili shana
Ġkula zim
ta hili
Ġkuwa peleka
Ġwali fika
tet ezi
Ġkum wa
Ġkika pu
Ġmbo vu
ĠKilo sa
ta fsiri
Ġji cho
Ut angazaji
furah ishwa
Ġiliyo undwa
Ġzili z
Ġher lig
indi kaji
ĠRu shwa
Ġt jene
Ġali ingia
fi kiria
Ġtil budet
Ġka ka
Ġregu lering
as Ãª
Ġopp ha
Ġvir ket
ĠW eb
ĠáĥĴ áĥĶ
ĠMe c
Ġna venda
ĠN Ãª
Ġc ol
Ġan ska
ĠB DP
Ġdi verse
ĠpÃªÅŁ ve
ret ning
h one
Ġem Ãª
um bia
Ġbet aler
ĠÃ§av kani
elem ark
Ġg ud
Ġregist rere
Ġ áĥĲáĥł
E OS
ĠE no
Ġveg ne
Ġs lekt
ĠB ud
ĠAn n
D SM
el y
Ġpasi enten
eb r
kjen ning
ran Ã®
ta in
al et
Ġste g
Ġhy tte
Ġut endÃ¸rs
ĠBi la
Ġungdom ss
Ġd ua
ĠT F
Ġmang el
Ġq ona
ksjon ene
fiser te
Ġklo kka
Ġbi xw
ĠAnd roid
ĠL eder
S K
Ġdawi ya
t ry
Ġni mÃ»ne
Ġber name
áĥĺáĥľáĥ ·
Ġko se
ĠBaÅŁ Ã»r
set a
Ġneg ative
Ġforel sket
Ġhjemmesi de
andi ye
ĠpÃ¥ rÃ¸rende
kl art
C han
mer ke
Ġm ina
Ġbeve ge
C E
lÃ¸ per
s um
ĠÐ ĺ
Ġsi kret
Ġp il
Ġkvin nen
Ġviktig ere
ĠÃ§Ãª bÃ»
ĠMa x
Ġkonkur rans
Ġk el
ĠNT B
Ġfjer n
T L
ar m
Ġvi m
áĥĺáĥłáĥĹ áĥ·
Ġarbeidsplass er
z za
ĠnÃ¦rings livet
p um
Ã¸ ye
Ġdis pensasjon
by gge
Ġl eter
Ġut fÃ¸rer
Ġi dag
ve ier
Ġne vnte
ĠBod Ã¸
Ġla vt
ll ett
Ġan vend
ĠbesÃ¸k te
ĠL ind
ĠMar co
< /
l est
ĠEner gi
T EN
ĠFylkes mannen
ĠpÃª di
Ġkar Ãªn
ĠS ino
ĠKun nskaps
Ġkur set
b Ã¸r
ĠN ei
Ġreg nes
Ġh d
H el
Ġkonkurran sen
k ina
Ġ Î
hi ra
ĠN ami
ĠS jekk
Ġji bo
ĠRodri guez
Ġnoen sinne
I ta
Ġf le
Ġli kt
Ġrefer and
ĠgrÃ¸nn saker
ÐµÑģ Ð¿
full t
ĠdÃ®ro kÃª
Ġp us
ko o
ch er
Ġvanske lige
wa ri
å ¿
Ġlun sj
Ġbru dd
Ł áĥĺáĥł
ti mer
Ġni kari
ĠWen ger
ua i
Ġk lin
ĠNort h
Ġmiro va
Ġesc orte
Ġdever Ãªn
Ġopply ser
ĠÃ¥r hund
c es
Ġna ver
me zar
Ġopp gitt
Ġlik het
ĠáĥľáĥĲáĥĽáĥ£áĥĵ áĥĲ
s elen
Ġr isi
ĠJ ens
wen de
ĠG ha
it Ã©
ĠÃ§ anda
is sa
Ġst ress
ĠáĥĴáĥłáĥĺáĥĴ áĥĿáĥł
Ġh wd
Ġfart Ã¸y
ĠMathi as
Ġre dde
Ġvirke ligheten
Ġz or
ĠDel ta
ĠAf ten
Ġmeng de
Ġkri tisk
be veg
hol m
Ġvil je
ĠBeg ge
Ġram mer
ĠIntern ational
Ġh ekta
si er
ĠT ar
lin ton
ĠHam za
R Ãª
14 0
g ne
sti kk
o le
ma ya
b r
Ġci vÃ®na
ĠMor ten
rer er
i ki
Ġsi kte
Ġu re
198 1
B es
ĠÅŁ Ã®r
Ġkol oni
ĠM bu
tt ps
ĠS ham
ya rÃª
Ġmeld t
Ġri ke
ĠbÃ¦rekra ftig
ĠMa lin
os jon
Ġk ja
Ġy tre
Ġoverras ket
N I
ans ene
ĠWa ke
st jenester
ok Ãªn
Ġg lade
Ġfrivil lig
ine a
Ġst r
ĠT wa
Ġde h
har d
CM C
Ġband or
A PA
V E
ĠKi bo
ĠlÃ¸ st
ĠN OR
ro s
D r
Ġsi es
Ġlei lighet
áĥ£ áĥĲáĥ¡
Ġforskjell en
áĥ£áĥ ¥
Ġva kker
ĠpirsgirÃª kÃªn
Ġtilkny tning
q il
blo gg
ĠáĥĹ áĥĺáĥ¥
Ġopple vde
Ġáĥ¥ áĥĺáĥĽ
Ġc ir
Ġeffek ten
!! !
ĠNi ha
Ġk Ã»r
Ġdem eke
tten ham
195 7
ze ba
Ġm iste
ĠL Ã¸
Ġgodkjen ning
ktig het
d der
ru t
Ġsosia lt
mo en
j isi
Ġsj anse
ĠM od
Ġski l
ĠdÃ¥r lige
ĠnÃ¸d t
ĠC amer
ĠBara ck
Ġan ses
ĠrÃªxistin Ãªn
ĠMo on
ĠSte in
ĠáĥĽ áĥĲáĥļ
Ġfa kta
Ġs ens
Ġali yÃªn
ĠF M
K un
ĠI stanbul
fer anse
áĥĿáĥł áĥĿ
áĥĺ áĥĲáĥĹ
Ġder fet
Ġ áĥĲáĥľ
Ġwe zÃ®
Ġáĥ¨áĥĲáĥľ áĥ£áĥļ
Ġr ene
ter et
v em
li sering
Ġsam tale
Ġkir ken
ĠW ord
Ġsend te
as ani
ssy stem
ba ss
Ġn de
ĠÃ¸ velser
Ġoft est
Ġmi to
Ġutford rende
ĠVÃ¥r t
Â» -
C HA
Ġden s
Ġg ere
li yÃª
B ru
Ġut et
ten t
Ġkin es
Ġf Ã®
kt Ã®
T IMU
R u
Ġda y
ĠAir tel
ĠN du
ony m
fun g
lin ga
ĠHv em
Ġli le
ur s
Ġd ist
ĠAfri ca
ĠY u
Ġmer k
Ġdu kker
Ġáĥ¤ áĥĲáĥłáĥĹ
y p
5 000
Ġpo tensia
Ġbike ve
Ġtusen vis
ĠÃ¥r lige
ĠHi yo
Ġkommen de
Ġman e
ĠJoh ansen
Ġderba sÃ®
Ġter a
ĠHÃª zÃªn
dd is
vi m
undersÃ¸k elsen
Ġrett fer
Ġm li
Ġu singi
ha ge
ĠKu toa
husi wi
Ġkut oridh
Ġwale zi
Ġkusim amishwa
Ġusingi zi
N HIF
Ġo fa
ĠK CMC
ĠMa kubaliano
Ġcha ko
Ġwana f
Ġina kadiriwa
Ġuli anzishwa
shi fu
husu si
Ġkui pongeza
Na e
Ki wango
Ġtra fiki
shu ghulikia
ĠPar okia
Ġkima endeleo
fua twa
EL EZ
Ġnj ama
ĠIk weta
I kumbukwe
h iniwa
Ġku zungumzia
Ġu gumu
Ġu angalizi
Ġb weni
ki jiji
Ġma dereva
um ilia
em ekana
tu humu
Ġt amaduni
ĠW ema
ĠMa gonjwa
ĠMa andiko
Ġali chukua
ĠKi china
ĠV isiwa
ung wi
Ġiliyo jengwa
Ġuta saidia
dha ba
Ġri waya
Ġyame elezwa
ĠKor osho
ĠTA MISEMI
Ġkubadili shwa
Ġufu kwe
Ġwap inzani
ĠTam isemi
u kiwa
Ġm gao
Ġu diwani
Ġb undu
la fu
Ġki refu
ĠT arehe
ĠMa tukio
Ġdi risha
Ġili y
ĠE zekiel
Ġhe kima
us alama
Ġame chaguliwa
Ġkuji andikisha
Ġwen u
ĠMas uala
Ġkui tisha
Ġwanao taka
ombo le
badili sha
ĠJu kwaa
Ġkura hisisha
Ġkuru husiwa
rik ishi
shu hudiwa
ĠHam du
jumu ishwa
Ġitaka po
Ġkuung anishwa
Ġfal safa
Ġkukubali ka
ĠMs umbiji
ĠTan esco
ĠJina i
Ġkifa hari
Ġtathi mini
M taalamu
Ġma jaji
Ġvi chwa
ĠA mesema
ĠA zimio
Ġmi chache
ĠMa ana
Ġwana endelea
ĠWa lio
Ġtu kufu
Ġra dhi
ĠMu ziki
Ġwame uawa
Ġzili vyo
Ġinayo shiriki
Ġkum chagua
esa ini
Ġmash ambuli
Ra ia
Ġamet hibitisha
ĠMaa fa
keb ishwa
Ġuja zo
ĠKil atini
Ġling ine
Ġmashambuli o
J amhuri
Ġm shiriki
Ġm handisi
Ġm shukiwa
Ġwa islamu
Ġi wezekana
Ġp ungufu
Ġma staa
ĠU handisi
Ġun ywaji
Ġulio wekwa
Ma tumizi
ĠKis utu
Ġkuz ama
Ġwak ishiriki
chap isho
Ġwasa firi
meri potiwa
Ġupatan isho
Ġv ala
ing ili
Ġki falme
Ġki pindupindu
Ġmi koani
ĠMi undombinu
Ġwen z
Ġkuta fakari
Ġwale mavu
Ġsyn d
Ġmgawan yiko
ebr ania
Ġu ro
Ġu gawaji
Ġut engene
chap ishaji
Ina daiwa
Ġkusamba za
Ġwa kurugenzi
Ġm zee
Ġnye kundu
sy ona
Ġshe hena
ĠfÃ¸d sel
Ġinayo ongozwa
Ġskues piller
Ġgren se
ĠShi lingi
Ġg jÃ¸
Ġdi dom
Ġar ter
Ġb Ã¸l
Ġb Ã¸kene
197 3
Ġutny tte
Ġinn vil
ĠÃ¸d elagt
Ġsi dene
Ġki ÅŁand
Ġl ette
Ġkomp on
Ġbi ker
m ond
Ġáĥĺáĥľáĥĵ áĥĿ
Ġle ker
ĠTo ttenham
Ġbazi rg
Ġba by
end t
Ġh ing
Ġpa ÅŁÃª
ĠkÃ® jan
Ġkli kk
Ġpar ve
n b
lever and
C U
ĠÃ§ar eseri
Ġeffek tive
k lass
Ġpro sed
Ġoverras kende
S u
sku ddet
f ili
por no
ĠT rykk
Ġw elÃª
ĠK l
kan ske
3 60
Ã¸m te
ĠA th
pen ger
ĠK vinne
Ġlesb iske
Ġmateria ler
Ġfor len
ĠÃ¦r lig
Ġs um
ĠY anÃ®
Ġtek ni
Ġoper asjon
ĠtÃ¸ ff
eg rupp
Ġsy v
Ġutvi de
Ġanbefa le
Ġdame z
Ġáĥ¢ áĥĺáĥĿáĥĸ
ĠAg der
Ġd revet
Ġn om
ĠOcto ber
Ġaga hÃ®
Ġfro kost
Ġfor holde
veks ling
kir ine
ĠR oms
Ġselskapet s
Ġstre kker
Ġwer ger
Ġbehand les
ha fi
do o
ĠÅŀ ore
ĠF ul
h r
Ġkir ina
Ġun ga
áĥĿáĥķ áĥĺáĥľáĥª
K or
Ġkom Ã®
lu ttet
ĠáĥĽáĥĶáĥ ¢
man c
h ra
Ġt und
Ġle vitra
Ġinn fÃ¸ring
ĠEmer Ã®ka
ĠáĥĻáĥĿáĥĽ áĥŀ
Ġbar Ãª
li tt
Ġto g
su s
ĠhÃª dÃ®
Ãĺ S
ĠL as
Ġbor ger
Ġinn hen
F u
Ġfran ske
ĠU ansett
Ġeld ste
id rett
ktivitet er
Ġplass en
Ġla st
ĠáĥĴáĥłáĥĺáĥĴáĥĿáĥł áĥĺáĥĲáĥľáĥ£áĥļáĥĺ
ĠrewÅŁ en
elo ven
Ġoppford rer
áĥĲáĥľ áĥĿáĥ¦
Ġba kurÃª
ka ss
is tisk
ba y
Ġma lig
ï ¬
ĠDar fur
l end
ĠsÃ®ya sÃ®
marke det
ĠSol berg
Ġrepresent ant
ĠA sh
ĠsÃ¥ pass
Ġne yÃª
Ġvelly kket
Ġhol des
Ġny sgjer
Ġhum or
Ġfis ker
za wa
ti yan
ĠGod win
Ġo ut
ĠL O
Ġser vic
Ġu ri
T r
ĠáĥĹ áĥĺáĥ¡
ĠM Ã®
Ġzi k
Ã® yÃªn
ta sjonen
ĠM ona
áĥķ áĥĶáĥļ
Ġr est
Ġtil lit
ÅŁ k
Ġinn tekter
Ġto tale
fÃ¸l gende
Ġmed fÃ¸rer
Ġre duksjon
Ġforven ter
ek on
yon Ãªn
Ġb Ã¦rer
Ġsi tes
Ġhe yÃ®
ĠF la
h ere
ĠÃ§Ãª di
ĠM ore
ĠDo wnload
ĠGre en
Ġ est
ĠLill estrÃ¸m
v old
ĠS uma
ĠÃ§ Ã»n
Ġnav dar
Da g
Ġdi men
ĠHÃ¸y re
ĠR A
Ġansikt et
Ġtung t
Ġting ene
Ġutvikling s
Ġa gir
ĠGr unn
Ġs ant
ĠR onaldo
16 0
ĠáĥĿáĥ Ĺáĥ®
Ġrestaur ant
h m
Ġbas is
et ea
ber i
ĠIn ns
Ġoppda ge
sk raft
Ġforsvar lig
ĠBar na
te ktene
Ġdel takelse
Ġforsk jeller
ĠstÃ¸r st
Ġforbru ker
Ġza y
H F
Ġinne holde
Ġsem inar
Ã¸ ter
ĠH asa
Ð¸ ÑĤ
re f
ĠbirÃª ve
shem mede
ĠCiti zen
s Ã¸
Ġlan sert
ba kken
ĠLew ra
áĥĺáĥľ áĥĺáĥ¡áĥ¢
Ġáĥĺ áĥĻ
ĠáĥľáĥĲáĥľ áĥĲáĥľáĥĿáĥ¦
áĥĲáĥļ áĥĺáĥ¨
Ġr ona
Ġutse ende
Ġanbefa les
tisti kken
k else
ĠL oka
ĠSt an
Ġres pekt
jer n
Ar beid
viten skap
os ted
ĠS na
Ġdigi re
Ġhe fte
n iske
Ġbal kÃªÅŁ
ting elser
Ġsto ffer
ĠinngÃ¥ tt
g ano
Ġska r
Ġhjem met
Ġbidra tt
jor de
Ġp ort
ter en
Ġarbeids miljÃ¸
Ġvanske ligere
ĠfÃª m
vi lle
ĠáĥĴ áĥĶáĥĴ
... ]
Ġgel o
Ġáĥķ áĥĲáĥłáĥĵ
áĥ «
b Ã®ya
pp y
ĠRÃ»s ya
N ING
Ġnek in
áĥĲáĥ ¬áĥĻáĥ·áĥĽáĥĲ
ĠI KT
ĠNew s
ĠpÃªÅŁ iya
Ġbeg a
ç ļ
da da
bi bu
ĠC lo
st ore
ken es
ka mer
Ġen der
mu se
Ġutstyr t
Ġersta tning
Ġfor kant
Ġe li
Ġover ord
ĠAna ly
Ġressur s
Ġvi dt
Ġzeh met
Ġtrygg het
i ene
Ġslu tte
Ġtem po
Ġenc amÃª
ra y
ĠS ist
Ġgener ell
ĠÃªrÃ® ÅŁa
du du
eg al
ĠX X
ĠnivÃ® ska
ta t
ĠJ os
Ġsed an
Ġle de
Ġskjer men
Ġska det
ut oma
Ġaks jer
fo to
ĠSport s
ĠFol ke
ĠtilhÃ¸r ende
ĠáĥĲáĥłáĥĹ áĥĿ
II I
ĠB Ã¦r
ĠB un
Ġko ble
an sk
k la
ĠM m
ĠSal ma
Ġsam arbeide
Ġbon us
f re
o us
ĠDa gens
çļ Ħ
ma teria
Ġtry gge
ĠfÃ¸l else
ĠMa cha
ĠRu ten
z m
Ġin former
ĠE gy
ĠKurdist anÃ®
ĠtÃªkili yÃªn
Ġdi bÃ»
gir tina
hu r
âĢĻ ,
ĠsÃ¸ kes
Ġdijwa r
Ġutform ing
c as
Ġdan Ã»
Ġdigo t
Ġver ste
k h
f ting
ĠG jÃ¸r
ch ing
ver den
Ġres pek
U p
la ba
Ġn es
Ġdo go
ĠMa gn
ĠSA DC
Ġim plemen
ĠVati can
áĥĿáĥ¡ áĥ¥
set jenesten
k ombo
ol je
for um
Ġgi fte
Ġya we
ha tÃ®
Ġen trepren
sut valget
ble met
ĠÅŁe x
Ġopps ummer
p rin
ĠDemok ratÃ®k
Ġp likt
Ġper s
Ġsto lt
ĠK isi
Ġplass ering
Ġstil te
sa ka
Ġuten om
Ġdu ru
Ġopp stÃ¥
Ġana o
ga tor
f rem
Ġk jek
isa lim
ĠAr t
Ġtren gte
ĠF it
Ġre jÃ®ma
ĠF O
Ġden i
Ġu zuri
Ġav ril
ong wa
Ġkuachi wa
wa saidia
ĠU imarishaji
Ġni likuwa
ĠMa alim
Ġili chukua
Ġwali nzi
Ġz amu
Ġum eshika
Ġame kamatwa
cho ki
Ġime kamilika
Ġkuji husisha
Ġyali fanyika
lem bo
Ġkuvun jika
pel elezi
Ġalip om
dhaba hu
O fisa
k wisha
Ġwa vu
Ġn cha
Ġku eneza
Ġu fanya
ĠM su
Ġhu ja
Ġla ini
ĠH F
fu kuza
Ġuli paji
Ġuna otarajiwa
Ġwaki piga
Ma funzo
ĠKu husu
Ki tuo
ju kuu
ĠMta alamu
angan ya
Ġms ongo
Ġkika bila
ĠLuku vi
Ġutet ezi
M singi
U VCCM
g undua
l ongo
ya fanya
Ġwa amuzi
Ġwa handisi
Ġwa athiriwa
ĠM dogo
Ġma ele
Ġma ua
Ġki ingereza
Ġhu pata
ma gharibi
Ġaki onyesha
Ġina ongoza
tum bo
ĠMi tandao
Ġime weka
Ġime amua
Ma fanikio
sim amisha
chuku e
Ġalipo zungumza
Ġkusa ini
Ha pa
Ha kuna
Ġyanayo tarajiwa
yar isha
Ġmta alam
ĠMag ereza
Kam ishna
Ġwasio kuwa
Ġsan amu
Mwan dishi
Ġmus takabali
ĠDew ji
tekete zwa
k isi
Ġku hitimisha
Ġma dogo
ba bishwa
Ġmi lipuko
Ġkuto fanya
Ġuna fuu
Ma elfu
Ġpa qi
van t
kusan yo
fungu ka
ĠNya sa
Ġuto vu
umzi ka
Me chi
ĠMfa widhi
ĠYeho va
Ġkuwa shirikisha
Ġmi choro
Ġkuto fautiana
ĠWa wakilishi
Ġum asikini
haki ki
Ġmwili ni
Ġkua giza
Ġmata yarisho
kato liki
Ġwak isa
Ġtuli kuwa
Ġmsh takiwa
TU KO
pand ishwa
Ġmchu jo
Ġiwezekana vyo
Ġwa kufunzi
Ġmwa muzi
ham ishiwa
Ġus oni
Ġvile vile
ashiriki ana
ĠMua dhamu
ĠSino di
Ġutengene zaji
di ger
Ġmi wani
ĠMbara wa
Ġm fanyabiashara
Ġsha ba
Ġki po
Ġmwana ye
Ġhen der
ES T
ĠM isi
Ġry ggen
áĥķáĥĲáĥļ áĥĶ
ĠMos es
D G
Ġoffisi elle
Ġser ti
ĠáĥĽáĥĶáĥ¯ áĥĺáĥľáĥĲáĥĹ
Ġfors ker
Ġkra vet
pa pir
far ing
ĠáĥĽ áĥĲáĥłáĥĲ
Ġras te
zani m
Ġdia gno
Ġso ver
ĠáĥľáĥĲáĥĽáĥ£áĥ ¡
ĠPKK Ãª
Ġdi me
Ã¸v rig
Ġbeveg else
vde lingen
ĠIN EOS
Ġle ir
ĠT IL
ĠCon tin
ĠflÃ¸r ting
ĠForman nskapet
Ġt witter
sp likt
Ġid Ã©
B il
Ġpir r
Ġtil behÃ¸r
ĠÃ¸ l
ĠD amer
ft elsen
Ġsto ppet
ĠK I
ku ra
Ġles ere
di tet
ĠY NK
Ġáĥĺáĥľáĥ Ĵ
h ed
Ġáĥĺáĥ¡ áĥ¢áĥĿáĥł
Ġma ler
Ġáĥ£áĥĽáĥĿáĥ¡ áĥĺ
e ka
Ġve kirÃ®
l on
Ġforbru ks
Ġt ara
sut styr
ĠMa ga
ĠF Ã¥
stil tak
áĥŀ áĥĶáĥł
Ġs Ã¸lv
Ġproses ser
Ġgren sen
u z
ĠR ho
log y
ĠL ema
Ġx ew
Ġma gen
dig ere
Ġat mos
ĠpirsgirÃª ka
F il
Ġbi xe
D L
ĠS T
ka pet
ĠRo se
sp rÃ¥k
Ġfa get
ĠáĥĽ áĥĶáĥľáĥª
perio de
C a
Ġfored rag
la y
gi rÃ®
Ġbry st
set h
si dig
Ġfi loso
budsj ettet
Ġq ada
ent re
Ġkla ger
Ġdan ske
Ġbeskri velse
ĠpirtÃ» ka
Ġst ring
Ġreg ner
ĠK ort
Ł áĥĲáĥĽ
ĠA y
ÐµÑģÐ¿ Ñĥ
c ore
Ġast eng
ĠBo ys
di c
Ġde bu
ĠáĥľáĥĲáĥĽ áĥĵáĥĲ
Ġte x
ĠM uni
G EN
ĠBe dir
Ġut fÃ¸r
Bi la
Ġdemon st
ss to
ĠlÃ¸ fte
ĠB est
ra el
Ġv unnet
20 21
Ġsli t
Ġto p
ba do
kj ema
ia l
Ġma f
Ð¸ Ðº
vÃ® s
Ġmi xabin
198 5
Ġs jar
ĠF ir
Ġettermid dag
b rett
ker di
Ġtru kket
Ġla gret
Ġmo tiver
fa llet
ĠRÃª berÃª
f amili
Ð» Ð°
Ġkli ni
Ġva ks
enter er
g ri
le mu
Z AN
ĠÐ ´
A d
vesen et
va kt
o ta
ĠC le
ĠG eo
Ġan gi
ri ch
ĠT rans
ss te
rÃ¸ nn
G I
b un
n den
Ġpopul Ã¦rt
Ġher wiha
Ġsekun der
al d
ĠáĥĶáĥĵ áĥĿáĥĽáĥ£áĥ¨
to s
ĠBot s
áĥĺáĥ ¦
ya m
ĠAC T
Ġsm s
ÑģÐº Ð¸
Ġand res
ĠTor ger
Ġc ure
Ġbinge ha
ĠnivÃ®s andin
Ġve ÅŁar
ren t
id o
ister et
ĠArbeid s
ĠSÃ¸k nad
Ġgj estene
Ġpa kke
Ġsto pp
Ã¥r sa
Ġgener elle
Ġf ut
pi llere
Ġsammen hen
ĠmÃ¥ned en
ĠN Y
Ġklass isk
Ġbe ÅŁa
van lig
Ġmam oste
n Ã¦ring
Ġtema et
ĠFredri k
ĠNor wegian
ĠtiÅŁ tÃª
19 20
Ġáĥŀáĥł áĥĿáĥķáĥĺáĥľáĥª
pen sjon
Ġáĥ© áĥ®
O ver
u x
áĥĶáĥ¨ áĥĺ
rÃ¸ d
v ekt
Ð±Ð» Ð¸ÐºÐ°
ĠG en
Ġkas te
Ġger Ã®la
ti ons
N H
S en
fi eld
Ġáĥ¡áĥĲáĥ¥áĥĿáĥłáĥĹáĥ£ áĥĿáĥ¨
Ġopp fÃ¸rt
em eni
Ġliv ss
lys ning
Ġsyke huset
ĠG lobal
Ġragihand in
ĠHam as
ĠU SD
Ġba kter
IM AN
Ġfar en
y stemet
Ġa pr
Ġgjennom fÃ¸rte
al ti
person ell
áĥĺáĥĸ áĥĽ
áĥĶáĥ¥ áĥ¢
áĥĲáĥł áĥĺáĥľáĥ£
24 0
lo tt
Ġq ue
áĥłáĥ ¡
ĠÃ§arÃ§ove ya
ĠH elt
Ġord fÃ¸rer
ĠáĥĽáĥĲáĥ®áĥĿáĥł áĥĿáĥĳáĥĲáĥ¨
ĠstÃ¥ tt
J U
ĠleÅŁker Ãªn
or n
Ġba har
T H
Ġk jerne
ten es
le ba
oa d
Ġpass ord
ĠBots wana
C o
Ġinter iÃ¸r
ĠMol de
ĠP rÃ¸
Ġinfrast ruktur
Ġvenn lig
Ġhelw esta
valg te
ĠM Ã¸re
Ġte ater
Ġparti et
i kke
ĠL ulu
Ġvi d
g ama
ki e
ĠM ika
l Ã»
Ġt ant
Ġfri tid
ĠáĥķáĥĲáĥłáĥĵ áĥĲ
j Ã®n
ĠHen rik
áĥĿáĥ¥ áĥĺáĥĽ
ti lt
áĥĿáĥ ªáĥ®
Ġáĥ¯áĥĿáĥ® áĥĿ
ĠÃĩ a
ĠsÃ¸ ster
ĠskjÃ¸nn het
Ġhistor isk
budsj ett
Ġagen da
ĠfÃ¸l ges
Ġbid est
men s
Ġkla ssi
l man
rer ende
Ġáĥł áĥĿáĥĽ
ĠdÃ¸ mt
sa lia
1 15
ĠS on
di et
ĠM S
ĠKo fi
av ana
styr ing
ring ene
ĠkjÃ¸r ing
is ani
Ġhand linger
Ġori gin
Ġsk rem
Ġgrad vis
ĠdÃ¥r ligere
ker ud
Ġdel es
ĠEver ton
ĠA baba
Ġsv ek
áĥĲáĥĻ áĥĲáĥĹ
gu ru
, .
re am
v eld
Ġmeg awa
kam p
ĠlÃ¦r ings
ĠYek bÃ»yÃ®
Ġle z
ĠNami bia
ĠU fa
å Ĭ
ĠL os
ĠnÃªzÃ® k
ĠnÃ® v
ĠHa y
Ġtil lits
bli gator
Ġsed sala
ĠJuven tus
Ġhen vend
Ġ tere
ĠN BA
ĠRe li
ĠPor n
Ġkommun ale
Ġfrem med
Ġkjen dis
Ġav is
Ġat omu
Ġk and
re yÃª
rand ina
ĠdÃ¸d s
bu tu
Ġkal de
Ġamerikan sk
ane ke
ĠKa li
E uro
Ġpres se
% ,
Ġm ana
om et
Ġaxaf tina
ĠáĥĲ áĥĲáĥ¨
W E
©áĥ¥ áĥĺáĥľ
or ks
ĠBara ka
Ġpo p
Ġbruker en
e x
Ġki tek
ĠTev gera
ĠAg nes
ĠIn nov
Ġfor men
M M
Ġda w
Ġutvalg te
kt um
ÐµÑģÐ¿Ñĥ Ð±Ð»Ð¸ÐºÐ°
Ġtan ken
Ġvari erer
ĠTr ond
Ġki ba
be zi
Ġm he
Ġflykt ninger
Ġbe holde
ja ge
ĠAl geria
ĠKaria koo
shi wa
ĠM sh
Ġm ga
ĠW eah
ĠUni on
ĠX e
vik lingen
ĠLa g
ĠP ra
ĠGe org
ii i
ĠD h
ĠL engo
Ġzi ko
Ġbestemm elser
Ġd anse
Ġspen ning
ĠÃ¸ re
Ġforvent es
G jen
Ġinn fÃ¸rt
Ġtilbake meldinger
an ta
Ġfull fÃ¸rt
n di
sm od
sa ts
ĠK os
Ġvok se
H istoria
Ġb Ã¸n
Ġser dana
indo ws
Ġsil denafil
ĠHi ja
A liwa
ĠM bio
Ġma hususi
re w
ika o
Ġwali amua
Ġame kutana
una ji
ĠAl haj
Ġmaa jabu
ĠKom pyuta
Ġu ume
ĠS eneti
Ġki elektroniki
Ġj anuari
Ġvi tatu
Ġkuwa okoa
ĠP EMBA
Ġili kua
ĠF asihi
fi zikia
ĠG esi
ĠZ SSF
Ġmwan za
Ġulio pigwa
ĠMan eno
Ku ji
Ali toa
Ġmag hala
Ġuj asusi
ĠSen sa
Ġchu ki
Ġataka po
LE IMAN
Ġviti sho
ĠSU LEIMAN
egawan ywa
J amii
M wenye
Ġwa chimbaji
ĠM san
ĠM godi
Ġki utamaduni
Ġvi mekuwa
ĠB wa
Ġkuwa linda
Ġka hawa
Ġzi po
ish ani
Ġiliyo chezwa
Ġiliyo chapishwa
Ġana toa
Ġime elezwa
Ma tukio
Ġfa hamu
Ġkuji eleza
ĠMan ji
umba ku
Ġkui gwa
Ku simamia
Ġkuti biwa
Ġham sini
Ġlililo fanyika
Ġuto toni
epu sha
Ġuanz ishaji
U pande
a pishwa
Ġna saha
Ġi tikadi
Ġma kusanyo
Ġj edwali
ĠU pili
Ġkup unguzwa
amba yo
ĠJa phet
kubali ka
Ġret ter
ph one
ĠKar ume
ĠMal angali
Ġmita ani
Ġupe o
ĠWen gi
ĠUfun guzi
egawan yika
Ġmotiv asjon
Ġnde fu
Ġbundu ki
M ta
Ġu chochezi
is ari
hu ghulikia
wan dani
Ġaki a
Ġaki ongoza
Ġina eleza
asa idia
kwa ma
Ġiliyo andikwa
Ġch uma
Ġwaki elekea
Ġup endeleo
tumi ke
Ġkilicho kuwa
por om
Ġkushu ghulikia
gawan ywa
sajili wa
Ġud ongo
Ġsok oni
ĠáĥĶáĥķ áĥłáĥĿáĥŀ
i pata
Ġs umu
Ġma umbile
Ġali tumia
Ġme dali
Ġime fikia
Ġkui tumikia
Ġkia kili
ĠMwan am
Ġbara ka
Ki tabu
Ġvye o
Ġblu u
Ġmzi go
Ġa dha
ĠA kizungumza
hu hudiwa
Ġkum piga
Ġmaa zimio
Ġband ia
ĠMbara li
Mka taba
ĠB anda
ĠMa eneo
Ġiliyo pelekea
Ġmwan damizi
Ġwame fanikiwa
lizi a
juli sha
Ġkara fuu
p tion
ku p
in Ã®
ĠV isa
ĠC linton
sk ra
Ġsamt ykke
ĠÃ¸ver ste
ĠKris tin
Ġiniti ativ
Ġbi parÃª
Ġkommun isere
H P
tel lig
Ġz er
ĠforsÃ¸k te
Ġgu ide
Ã§ ar
ĠbrÃ¸ d
Ġsystem atisk
S ER
! )
ĠÃİ l
d isk
Ġbet al
t ari
Ġbigi re
V er
A pp
for svar
ĠEks emp
Ġta ket
vir ke
ĠDi re
Ġinvi terer
Ġm ere
ĠAl li
Ġprodu serer
Ġvi ll
ĠRoms dal
Ġdelta kerne
Ġtil hÃ¸rer
Ġyan Ã®
à ¸
ĠT elemark
Ġta pt
Ġarbeids livet
Ġd Ã®n
ĠH it
Ġinstitu sjon
Ġx ort
m isjonen
Ġsa ziyÃªn
K im
CO N
Ġintro du
al s
Ġkvin nene
ĠW ang
Ġsam arbeider
Ġsy stemer
ĠnÃ¸ kkel
Ġsig ner
Ã¸r ene
Ġziman Ãªn
Ġfor ber
fa l
Ġkri m
Ġklass en
Ġven nskap
ĠTid ligere
Ġj Ã¸d
Ġli ksom
K J
Ġáĥľáĥĺáĥľ áĥĲ
Ġidenti fisere
ĠáĥĴ áĥĶáĥ
Ġáĥĳ áĥ£áĥľ
wan o
áĥĿáĥ ¸
Ġhi z
Ġb ol
ĠU li
ĠO pen
sjÃ¸ en
h anÃª
Ġker d
ĠPol and
Ġn Ã¸y
Ġulov lig
Ġma il
Ġbel Ã¸p
ĠWiki pedia
ret Ã¦r
Ãĺ R
Ġ; )
to il
Ġda taba
Ġfri het
Ġhun den
iner ende
ĠU S
Ġni m
Ġereb Ã®
Ġc areke
ĠMar mara
Ġveg g
ĠáĥĹ áĥĲáĥł
Ġs kum
var t
Ġdemok rasi
ten da
ut s
Ġstil linger
ĠSe Ã®d
áĥł áĥĿ
Ġáĥ£ áĥĵáĥĺáĥĵ
' ,
Ġfores lÃ¥
ĠáĥĳáĥŁ áĥĲáĥĶáĥĺáĥĿáĥļ
Ġhydro gen
Ġpir s
T B
Ġk lubber
ĠN ar
ĠEre b
ĠSpesi elt
198 7
ist ene
Ġst Ã¥l
Ġs enter
B y
S he
ĠI A
ĠS in
Ġen heten
var en
le ketÃ¸y
ĠB ug
Ġkli kke
Ġinn le
Ġflin k
Ġoff ent
ĠI MF
ĠsÃ¥ kalt
vi e
Ġsn ar
Ã¤ r
Ġhav net
Ġxwa rin
áĥĶáĥ¥ áĥ¡
Ġis o
Ġna si
Ġáĥ® áĥķáĥĲáĥļáĥĶ
Ġgu le
áĥĲáĥł áĥĶáĥ¤áĥĺáĥ¨
ĠÃİ m
Ġrevolusjon en
Ġmo den
ĠK jÃ¦r
Ġal likevel
áĥĲáĥłáĥ ¯
Ġs mu
ĠÃ¸ye blikk
et nam
ĠS isi
Ġdib istan
Ġoppfy lle
ĠÅŁer mezar
somrÃ¥ der
ĠLu ka
eg ler
Ġbekre ftet
a ki
b lin
si ktige
ĠA p
Ġbyg ninger
ĠR en
Ġmi ra
Ġpoliti kere
ĠMus ta
Ġdy pt
bo ko
Ġi v
ĠD on
s ama
ĠhatÃ® ye
ten a
s reg
bord et
Ġpev Ã§Ã»n
Ġver ks
el eta
Ġk ne
Ġorgan isert
ĠgÃ¥r den
Ġtil deling
sa ini
áĥĶáĥĳ áĥ£áĥļáĥĺ
Ġáĥ¢áĥĺáĥĿáĥĸ áĥĺ
Ġstor ting
Ġa f
Ġrea ger
Ġma le
Ġaktu elt
Ġut gi
ĠD il
Ġmilit Ã¦re
ho o
ĠS ea
m andar
ĠBa kurÃª
ĠReg jeringen
Ġn Ã¦rt
til lingen
M are
Pro sjek
Ġinvi tert
Ġya ku
ĠO ti
ĠK jell
Ġbel ast
ĠK OM
Ġan tallet
ĠMu ro
Ġin c
Ġteknologi en
ĠutÃ¸ ver
b oni
ĠUkra ine
áĥ· áĥĵ
áĥ· áĥľáĥ
ĠB OT
áĥĿáĥķáĥĺáĥĹ áĥĲáĥł
ĠA ki
ĠR ek
sko ler
to ver
ri min
ĠáĥĽ áĥĿáĥľáĥ
ĠM asi
se vne
Ġopp drett
wi t
ĠK M
ĠLu x
Ġhjer nen
ker Ãªn
Ġeg ner
Ġboks ta
asa i
ĠS v
ĠT Ã¸
Ġengasjer t
Ġfor man
Ġfron t
M s
G u
I ns
j na
ĠB ry
Ġom talt
Ġtran spor
Ġte men
ĠH indi
on da
Ġq ed
Ġderd ora
un ner
ĠPla y
ĠpolÃ®tÃ® ka
Ġp c
æ Ģ
ĠM U
ĠGunn ar
de v
Ġor den
re gu
tre kk
ation s
© áĥ®
ĠB run
vis or
Ġme ÅŁ
2 20
áĥĶáĥĳ áĥ£áĥļ
ili ng
ĠA ddis
Ġz uri
áĥ£áĥł áĥĺáĥ¨
Ġusi kker
Ġei end
ĠÃ¥r smÃ¸tet
Ġmask iner
áĥĺáĥ Ńáĥ§
Ġuk jent
ss ek
Ġgjennomsnitt lig
Ġáĥĸáĥ£áĥ¦ áĥĲáĥ¨
ya yÃ®
min ister
ari yÃª
Ġkam ba
Ġre v
å ¯
ĠÂ £
Ġdr ama
ĠSto ck
Ġkar Ã®
ĠNil s
lei man
Ġde presjon
Ġbi xwe
Ġsjek ket
Ġkarri ere
lt ra
ĠEn q
Ġplan legger
Ġzi l
ĠbÃª ne
ĠTe ch
Ġreligi on
ĠF is
rand o
Ġáĥ£ áĥ©
áĥĿáĥ¨ áĥ®áĥķ
17 0
fri e
Ġsammenlig ne
Ġarbeidsta ker
ser ien
byg d
Ġma to
Ã ±
Ġmyn dighet
e lig
ĠI di
Ġut arbeid
Ġstra ks
Ġfran sk
den ter
ska pen
H Ãª
ĠI C
sprosjek ter
c ts
Ġna ku
kker e
ĠmÃ¸r ke
ĠF red
Ġcar Ãª
ï¬ Ĥ
ĠP osta
ĠÃ§ete yÃªn
Y e
Ġde fini
ĠpÃªn c
ĠD am
gjen nom
Ġfinansi ering
r asjoner
be ho
ĠÃ® ÅŁ
Ļ ¥
z dÃ®
Ġhu ll
Ġax av
- /
der te
ĠHam ar
ĠpÃªkan Ã®na
áĥĿáĥ «
áĥ£áĥĹ áĥĲáĥ¡
Ġforur ens
Nor sk
Ġe vig
V is
Ġruss isk
Ġg as
ĠáĥĴ áĥĿáĥķáĥĺáĥĹáĥĲáĥł
on t
ham mer
ĠHara ld
Ġgir ing
áĥĺáĥ¨ áĥĶ
ĠE k
ru p
ĠÃ§alaki yÃªn
, ,
Ġum bo
ko ko
Ġbry ster
ĠT wi
ĠBer n
Ġspe ed
Ġkn ulle
Ġbur sdag
Ġfylkeskommun e
Ġprosjekt leder
ĠHe ke
Ġforeta tt
ĠÐł ÐµÑģÐ¿ÑĥÐ±Ð»Ð¸ÐºÐ°
Ġq Ã®
Ã¼ r
Ġam ana
ĠNa v
IN I
o yo
omrÃ¥ dene
ĠEd win
ĠutÃ¸ vere
ĠV e
K ar
ĠU j
pi cha
Ġhev pey
Ġpres set
med lem
Ġfast satt
ĠN Ã®
ĠTa li
ĠÅŁa ÅŁ
Ġbehand ler
Ġtil tre
splan en
Ġt ester
ĠY uda
Ġbet eg
ĠlÃ¸nns om
Ġdest Ãªn
ar ani
ĠspÃ¸rsmÃ¥l ene
Ġdaxuyan i
Ġmis ter
ĠK art
Ġvi v
ĠBea ch
K undi
Ġfa ÅŁÃ®
Ġali yet
ĠP amba
Ġna zo
ye za
Ġ @
ĠÅŁore ÅŁa
ĠáĥĴ áĥĿ
Ġmus lim
ĠE st
Ġáĥ¢ áĥł
g ania
C ar
Ġm and
ĠLe vanger
Ã¥r ing
mel sene
Ġmulig ens
mes sige
sproses sen
n go
t ania
u husiwa
Ġki usalama
pan ua
ot ambuliwa
ĠKam peni
thi es
ĠTe ule
ĠLA PF
ĠPang isa
T embelea
Ġwa weza
in jili
Ġu imarishaji
Ġp ori
ke chea
ĠS alama
ĠN doa
Ġkuwa weka
ĠMa bati
Ġaki piga
Ġji mb
ĠWa ingereza
Ġmwana fizikia
pas uaji
Ġzinazo fanywa
ĠKis umu
emp ongeza
ĠhÃ¥ pet
ĠEnd elea
Ġeventu ell
safir ishwa
ELEZ O
i kiwa
Ġwa vuvi
Ġs indano
on eshwa
Ġki mas
Ġki oo
Ġha una
Ġha lafu
ge uza
and ami
Ġina fanyika
ĠWa chezaji
ung we
Ġan wani
vu gu
are jea
ĠVi jiji
Ġpi go
Ġkum pata
amba zwa
Ġkui pa
Ġkui ongoza
Ġndi zo
dh ishwa
zu oni
Ġlililo kuwa
Ġkuch omwa
lazim isha
Ġkik anda
Ġkuam kia
ĠAyo ub
Ġku jeruhiwa
ĠM pwa
zi lishi
ĠK undi
ĠU bunge
ĠU endeshaji
Ġili eleza
pa umbele
wan Ãª
Ġaki patiwa
Ġsa yari
Ġwali os
Ġuna onekana
Ġkam we
ĠMu leba
ambu kizwa
umi za
Ġwanao hitaji
Ġkufu fua
Ġmat amshi
Ġmwen gine
Ġuki endelea
Ġkim bari
kusan ywa
ĠEs cro
tende a
gawan ya
ĠAz ania
Ġalfa jiri
Ġshambu lio
ĠÃ®s lam
Ġthel uthi
Ġuchuku zi
ĠMpwa pwa
ĠEscro w
ku liwa
Ġma kon
Ġki katili
Ġj anga
ĠU andishi
ĠI bada
Ġum esema
Ġiliyo anzishwa
Ġmji bu
Ġulio ko
Ġkuji patia
Ġinayo fanywa
Ġkui tumia
kari bia
Ha po
Ġkiu tendaji
Ġaliyo kuwa
Ġinavyo onekana
ĠWas hirika
organis asjoner
Msa fara
Ġula ji
wa fanya
ĠM bali
Ġvi bali
ĠT aratibu
Ġali zungumza
Ġta haruki
ema liza
Ma ofisa
Ġim ek
Ġkuna ko
Ġvin ywaji
Ġunao fanywa
Ġkontro llere
Tu kio
achi wa
Ġhazi ja
Ġalb amu
Ġmwam ko
Bara za
Ġu ingi
Ġki gezo
ch emba
ĠMa dola
Ġali shiriki
amu liwa
shi kilia
Ġkui ti
win daji
ĠMwi gulu
ĠJin si
Ġmalig hafi
Ġdos ari
N e
Ġh on
Ġmwen za
ĠMu shi
Ġzu io
ĠG jer
am esema
u sen
T ir
Ġr ente
Ġve kirin
p chat
âĢľ ,
lo gen
Ġbet ong
Ġro jek
Ġtr ondheim
h jel
bo ur
Ġsalg s
g res
ĠTo talt
Ġfa kultet
ad da
Ġidrett s
ĠÃ¸yebli kket
Ġdi hÃª
Ġfin ans
ĠavÃª tin
Ġs unt
ren n
fa i
Ġsky te
bla d
Ġgul v
ĠðŁ Ļ
Ġp likter
ner en
bru kere
Ġspill es
undersÃ¸k elser
bu la
amo ver
ĠGu inea
Ġtilkny ttet
Ġre habili
Ġáĥ¬áĥĲáĥľáĥĲáĥ¨ áĥĶ
Ġpresenter er
ĠFinn mark
Ġslu ttet
ĠS P
ĠÃ¥r saken
in en
g ro
ĠMar k
den g
Ġnu ll
Ġover sett
for skriften
ĠSt art
ba kk
ĠáĥĲáĥłáĥ ¢
ĠSand nes
Ġga ver
s let
Ġg al
somrÃ¥ de
ke huset
Ġs pa
ĠHÃ¸ gskolen
led else
Ġprofesjon ell
ĠPat rick
Ġa ksjon
Ġd ur
Ù Ī
ĠDec ember
ĠT in
Ġnord iske
Ġtil late
ung et
Ġetabler te
Ã¸ ks
Ġvol um
z anÃª
Ġpis por
yan mar
fa t
fa de
Ġq ala
Ġbe in
Ġp eker
ĠáĥĹ áĥĺ
Ġáĥŀ áĥĿáĥļ
áĥĶáĥļ áĥ¡
Ġder xistin
ĠáĥĶ áĥł
ĠS Ã¦
ĠCh ang
Ġkjen neteg
d f
ol usjon
Ġtr ist
ĠEli sa
sb rev
Ġveg gen
Ã¥pent ligvis
ĠSe y
ĠLa w
Ġforet re
Ġpsyk iske
S iden
ÅŁ emÃª
kam pen
Ġrekl ame
bia s
x y
Ġguher tin
Ġhe q
Ġenor me
ĠO ri
d ur
ĠB Ã¸r
Ġtil b
ĠPeder sen
å į
ka rÃª
Ġband ora
Ġb unn
Ġgo tiye
Ġsamt lige
ĠEsk orte
Ġful le
Ġmorsom me
Ġdu kket
Ġved legg
Ġalternati ver
Ġforut setninger
cir ca
B as
ĠfÃ¸l elsen
19 17
ĠáĥĻ áĥķ
Ġal li
Ġq eh
ĠC al
ĠJ or
Ġnav Ãªn
ĠJon as
Ġsh emale
ĠB O
R L
E l
H vor
Ġfris ke
kj Ã¦r
t jenester
dal s
Ġan am
Ġka p
ĠE va
Ġplan legge
ka te
ier re
ĠUt dan
yi k
ele ka
ja d
Ġvel g
Ġli met
liko p
Ġhjelp em
Ġgener asjon
âĢ Į
ĠAn kara
ksom heten
ĠkjÃ¸kken et
Ġaks je
ler te
ĠLeg g
Ġra ya
Ġdi hatin
bo t
m iddel
áĥĺáĥľáĥ Ľ
ma le
Ġsm Ã¸r
S tor
we ke
ĠMen n
Ser okÃª
ĠÅŁore ÅŁger
Ġover skudd
Ġsti lt
t he
Ġro la
Ġl ete
fÃ¸r ings
Ġxiz meta
ver dige
Ġperson lighet
Ġc lub
Ġber bi
ĠRi ks
Ġhi p
ting en
bi bliotek
ĠF und
Ġfoto graf
Ġhomo file
ĠSil Ãª
h ane
ĠEller s
ĠbÃª jin
Ġraw est
st jenesten
ĠCar l
Ġfort el
Ġstyr ing
Ġl ati
Ġfor nu
Ġuk ene
r ela
Ġfrem tid
Ġmal aria
ĠAnder sen
Ġm unt
Ġr Ã®
Ġkurman cÃ®
Ġhev beÅŁ
Ġderke vin
N E
ĠBi ll
x Ãªn
b um
t ti
ĠáĥĶ áĥŃ
áĥĲáĥ ¬
x ist
áĥĿáĥĵ áĥķáĥĲáĥļ
is iner
ĠwÃª je
ĠV Ãª
te li
Ġnov eller
Ġar t
Ġski fte
Ġegen kapital
tu lerer
Ġfr ist
ı å
Ġreng Ã®
ĠKob anÃª
ter ings
kurran se
Ġtilbake melding
li sh
di ka
Ġsto pper
o b
Â Ķ
d Ã¸
Ġde wam
E nd
11 1
ĠwelÃª t
bi an
Ġet a
b ell
ĠS Ãª
x as
ban on
Ġpir anÃ®
ĠpÃ¥pek er
áĥĲáĥļ áĥĶáĥ¤áĥĺáĥ¨
ĠAn tall
Ġkes ekÃ®
ĠÃħ s
ch en
Ġd on
áĥĲáĥļ áĥĶáĥ¤áĥĺ
b Ã®n
10 8
Ġbal anse
adda fi
di rÃª
Ġsen est
Ġty ng
Ġarrang ementer
sav tale
Ġbesky ttelse
kon takt
ĠmÃ¸te plass
Ġin klu
Ġopple ves
ĠbÃªh tir
sel skapet
Ġavsl Ã¸r
ĠFredri kstad
ĠS Ã®
ĠJa kob
re ise
Ġsykdom men
ki ya
ĠR EA
L es
to wa
sa kene
Ġmis ten
Ġby ens
Ġut lÃ¸
ĠG E
buti kker
b jÃ¸rn
ent s
Ġsat se
âĢľ .
be hov
Ġfa ktum
ĠÃ§ala kÃ®
Ġplan ter
ĠvÃ¦r et
ĠT uku
Ġby ttet
Ġperio der
let ter
ĠHol m
ĠRe pres
Ġad vokat
m yn
ĠMu h
ĠAd minist
Ġci vÃ®n
ĠL an
Ġderhe qÃª
ĠSen egal
K is
Ġky st
Ġdemok rati
Ġanska ff
Ġasi atiske
ĠK oro
Ġpir aniya
ĠW indows
ĠF jell
Ġvidere utvik
grupp a
vel ses
Ġny este
Ġher i
Ġkjen nskap
gi vere
Ã ĥ
Ġbeveg er
Ġr yd
c ing
Ġra ye
at ene
p ara
å ®
ĠHar ry
ÅŁ ta
ĠQ ue
co o
sp arti
Ġr under
ĠM yanmar
Ġp yn
ĠC D
kom un
ĠK hal
les und
Ġimponer ende
Ġvel ferd
ĠáĥĽáĥĲáĥ Łáĥĺáĥł
Ġdi k
res sur
opp gjÃ¸r
ĠÅŀ eng
sti der
áĥĺáĥ¡áĥ¢ áĥĺ
Ġkontak te
Ġad ministrer
ĠpiÅŁt re
ĠT anz
Ġser hild
ĠK lo
ĠB r
Ġben da
Ġm ani
Ġ }
) (
Ġing redi
b is
Ġd anÃ®
zÃ® r
Ġteg nes
ga te
go si
Ġbolig en
ĠDemok rat
ĠT BL
ĠÐ º
kl Ã¦ring
tine ke
vÃ¥ g
ĠNasjon alt
Ġutdan net
da hl
H D
m Ã®n
mer ker
Ġoppda tere
Ġdy ktige
ra hi
Ġha gen
Ġtren gs
byg gende
ĠBen dera
Ġkim ya
ĠsÃ¸k nader
Ġhen ge
Ġty der
pi x
Ġs un
gir tÃ®
rÃ» pa
ÅŁ in
Ġv and
Ġme ÅŁandin
ĠáĥĳáĥŁ áĥĲáĥĵáĥĲáĥļ
ĠArki v
in ert
ĠrÃ¸y k
ĠF eder
ĠF esto
ĠM te
ĠS laa
Ġpen alti
M uda
ĠG PS
Ġel ske
Ġnor ges
Ġstat sminister
Ġg utta
Ġfoku sere
Ġinstitu tt
Ġreng jÃ¸ring
Ġn Ã¦re
Ġdek k
Ġfr amover
ser ende
Ġidenti tet
Ġberxwed ana
ĠS ong
ĠZ A
ĠD ra
ast le
Ġf ing
? âĢĿ
ĠFu ll
gi tal
gen t
ĠD est
bar d
ĠI ti
Ã Ľ
den es
Ġhel ses
ĠVel g
Ġskjer m
Ġya i
ĠK uku
áĥ£áĥ ª
Ġmedisin sk
Ġhvi tt
Ġi pi
t we
Ġfy ller
od ene
Ġk no
Ġtema er
Ġoppfa tning
ĠáĥĹ áĥĲáĥłáĥĺ
Ġsam taler
ĠáĥĽ áĥĺáĥĿáĥ
Ġbe ki
áĥĺáĥ Ń
ĠáĥĻ áĥ£áĥļ
áĥĲáĥª áĥĺáĥĲ
S P
ĠSta toil
Ġdisku sjon
Ġrestaur anter
u la
Ġenc amÃªn
D om
hu a
tet e
y na
19 30
Ġki ja
1 14
eme ko
Ġmi g
gjÃ¸r else
ĠDa d
Ġc ru
limi ta
M fumo
p isho
Ġwa bunifu
Ġma babu
da hili
di kiwa
ĠN gazi
Ġwali anza
umu ishi
ĠKis iasa
ĠKis waga
Ġpen ati
SS RA
Ame eleza
ĠAbdal la
ĠMash indano
ĠFal me
poto shwa
komun isti
J ambo
m ika
Ġk isiwani
Ġma uti
Ġki taka
ch ambuzi
ĠU ratibu
ĠU fuatiliaji
Ġmi limita
Ġmu uzaji
Ġaki eleza
Ġhuo huo
Ġwan amuziki
zwa gi
Ġuna toa
Ġuna pakana
Ġame weka
Ġwame wa
Ġwanao daiwa
Ġkut hibitishwa
kun gu
Ġmch oro
ĠBu zwagi
Ġuz amili
stand en
ĠTA SAF
Ġfol eni
ĠNya ka
Ġhatima e
Ġmchangan uo
Ġkicha po
Ġinayom ilikiwa
funi kwa
Ġufanya ji
Ġjimb oni
M HE
o geza
Ġwa toa
Ġku pen
Ġku katika
Ġu gen
Ġma baraza
ĠK wi
ch ambua
ĠU tendaji
Ġmi kwaju
Ġka dri
ĠKi ji
Ġz enu
Ġwan andoa
Ġwaki ji
ĠMu hu
Ġmwana jeshi
Ġwame weza
ĠCh ini
Ġume pata
Ġume onyesha
Ġkui mba
Ġkupi gania
Ġkuta wala
Ġyaliyo patikana
Ġkubadili ka
Ġwasio julikana
Ġteg em
ĠMn yeti
Ġkubaini ka
Ġkuzu ka
Ġkiji ografia
Ġkuzungu ka
Ġugen ini
N yota
Ġwa ratibu
ti biwa
Ġu ratibu
Ġu zio
Ġu komo
Ġki koloni
Ġmi godi
ru ki
Ġba yana
ĠI wapo
Ġina takiwa
Ġina tekeleza
ĠWa heshimiwa
Ġwan unuzi
Ġum esababisha
Ġmwan zilishi
Ġulio andaliwa
Ma elezo
Ġume pungua
ĠHal fan
kur anga
Ġkita kuwa
Ġkuru dishwa
Ġtuna yo
Ġtume kuwa
Ġlita kuwa
MB E
Ġhas wa
Ġkipa ji
Ġmizi zi
Prof esa
ĠMig ori
ĠRasili mali
Ġmaele wano
M taalam
i pongeza
k nings
Ġma chapisho
mu liwa
gu ti
Ġali onekana
Ġali pewa
ĠI dhaa
Ġta fadhali
jon zi
Ġhar usi
fun gia
Ġina zungumzia
Ġju isi
Ġana endelea
Ġwaki ingia
Ġwaki imba
Ġmwana e
kum bo
ori potiwa
Ġkij asusi
Ġmag ereza
Ġwak andarasi
iti shwa
Ġms isi
lalami kiwa
Ġoppga vene
ĠAma an
Ġkusim amisha
ĠEnd elevu
pand wa
Ġkid unia
orom oko
Ġunyanya saji
ZAN IA
Ġna amini
ja liwa
Ġj ezi
zo ezi
ĠN chemba
ĠV isiwani
Wa taalamu
Ġher weha
Ġime pungua
kili zaji
Ġim ed
Ġon yo
Ġkusi kilizwa
Ġwam esha
Ġmasha hidi
ĠMaka me
Ġkug haramia
Ġkuibu a
Ġilio po
Kati kati
kombo a
Ġbahar ini
Ġku chapisha
Ġu kuu
ji weza
ko sefu
Ġame wahi
Ġwaki tumia
Ġmali asili
Ġhaku kuwa
ĠTundu ru
ĠRuten gwe
isalim isha
Ġm shirika
ĠK aribu
ĠU fini
ĠI me
ĠKi fua
Ġmakam anda
Ġp leier
Ġmsa ko
Ki kosi
ek an
ĠE manuel
Ġkjede lig
Ġsten gt
f ast
urder ing
Ġdam ene
ett es
Ø ª
we zÃ®rÃª
ĠU v
Ġopp vekst
ĠÂ ´
ĠáĥĲáĥ ¢
he wa
ĠV alen
ĠáĥĽ áĥĿáĥłáĥ
ĠáĥĻ áĥĲáĥĹ
Ġmo ti
gel and
li an
Ġav gift
ĠNa tur
ĠK v
Ġseksu ell
ger en
, (
ĠT rÃ¸ndelag
Ġsk red
Ġdo g
Ġfaktor er
ĠT eg
Ġetabler ing
ĠJen sen
j ele
Ġst rid
gra d
Ġminu tt
Ġklass iske
Ġu ll
Ġtri ves
Ġhend ene
u al
Ġn ami
pp el
ĠB asi
kke de
N C
Ġbeg runn
ĠR C
t vikling
da ye
kon to
Ġbikaran Ã®na
for t
Ġbel ge
âĢ¦ .
i b
B M
Ġglem t
Ġfang et
ĠH Ã¸r
Ġopple velsen
er ingen
Ġprogram vare
ĠBli r
ļ áĥĲáĥľáĥĵ
áĥĺáĥļ áĥĶáĥĳ
Ġram met
áĥĺáĥľ áĥĺáĥ¨
Ġev t
Ġmidler tidig
ĠáĥľáĥĲáĥľáĥĲáĥľáĥĿáĥ¦ áĥĲ
ha yÃª
le kÃ®
Ġsi t
ĠÃ§av Ãª
ĠVin cent
ĠK ra
Ġf und
ĠAb ra
g uman
ĠNÃ¦r ings
Ġáĥ¡ áĥ®áĥ£áĥľ
Ġdi Ã§in
áĥĲáĥ¨ áĥ¥
pp le
ĠPu bli
Ġmaskin en
Ġfin alen
ĠRÃª veber
fe il
ĠðŁĻ Ĥ
Ġqe til
lig gen
m else
fer ds
und t
ssa d
Ġhil ber
Ġhopp e
ĠDo kumen
kÃ» meta
ĠTeh ran
ĠHed mark
ĠA as
ĠP r
Ġover grep
Ġoppfy lt
Ġselv stendig
Ġf Ãªr
Ġxi rab
p se
Ġo ne
Ġd ari
IL I
on ger
Ġsed Ã®
Ġeksp lo
led ninger
ĠnivÃ¥ er
ĠVeg ard
Ġinng ang
ĠChris tine
ĠK amu
ĠOs manÃ®
Ġj Ãªr
ĠR ett
ĠP al
ĠC amp
kom mer
Ġkolle ga
Ġomgi velser
ĠM O
Ġvaria sjon
sk Ã®
Ã ¢
Ġbeskri ve
x it
Ġad resse
Ġforven te
z am
in teres
Ġu hel
è µ
ĠMa gi
der er
ĠS ama
Ġd yn
ĠS enter
Ġxw es
Ġta u
liv s
Ġin de
Ġinnvand rere
Ġfer sk
Ġleng de
ĠÃ¥r smÃ¸te
fy ll
sel skaper
Ġutvalg et
ĠKommun en
Ġdi da
vi ttig
ĠhevdÃ® tin
ĠAn ton
Ġstu dere
Ġstil lingen
ĠsÃ¸ kte
Ġtry kke
ĠA ker
ĠiP hone
ĠRe fer
áĥĲáĥĵ áĥĿáĥ¨áĥ®áĥķ
Ġbe x
Ġva kt
j are
ĠáĥľáĥĲáĥĽáĥ£áĥ¡ áĥ·áĥĹ
g iske
eo ul
ĠS hari
Ġde han
klo kker
Ġci vÃ®nÃª
et Ãªn
ĠhÃ¸y tta
ĠweÅŁ andin
Ġend res
ĠkÃ¥ te
re kk
Ġseksu elle
le ti
ĠF id
ĠDew let
Ġdri ves
I TA
Ġne ppe
bygg et
ĠW ek
Ġno t
ĠÃİ ro
AN A
Ġvi ra
kun nskap
res ten
Ġ' '
ĠR ol
men nes
fu g
Ġat ferd
s berg
6 000
ĠdestpÃª kirin
ĠG ur
Ġge ÅŁ
Ġatmos f
ĠáĥľáĥĿáĥłáĥĹ áĥĺ
u ps
ĠáĥĲáĥĽáĥĶáĥł áĥĺáĥĻ
ĠáĥĶ áĥ¨
Ġpopul Ã¦r
Ġk ok
ami ÅŁ
Ġdrift s
ĠgÃ¥r d
Ġnas kirin
ĠÃ¥ nd
Ġgle den
Ġv Ã¦
Ġfi gu
I P
T F
ĠÃĺ ster
Ġgund Ãªn
Ġa ri
ĠhÃª j
Ġopp kobling
Ġmoder n
ĠLar sen
Ġh ede
ĠO f
xwe yÃ®
M Ã¸te
ĠT isa
ĠtenÃ¥r inger
Ġras tiyÃª
ĠÅŁ Ã»na
ĠherÃª mÃ®
eg g
Ġx war
Ġav holdt
f Ã¸d
ti der
Â ®
on Ã®
J in
Ġgaran tert
ĠdrÃ¸m mer
K jÃ¸
Ġfrem for
Ġhi j
ĠFa us
Ġg ur
Ġutfordring ene
T P
Ġgel an
áĥ£áĥ Ĵ
Ġso fa
Ġbira yÃª
ĠdÃ® yar
áĥĶáĥ¡ áĥ¢
Ġtilf ellet
ĠbÃ»yer Ãªn
ba d
ĠÐ Ľ
ĠtÃªki lÃ®
P J
Ġáĥ¥ áĥĿáĥłáĥĹ
o on
an er
Ġfull makt
ami l
Ġre fu
ĠD al
Ġgloba le
mu sikk
Ġd Ä±
Ġb ens
Ġbygg ing
Ġs ar
ed y
Ġopp grader
ssy stemet
Ġhel dig
y de
Ġad circa
b ela
ĠW anÃª
ĠUSA s
ĠOrd fÃ¸rer
Ġvis u
Ä į
Ġroj ane
ili ge
ta ÅŁ
d or
ĠS jÃ¸
Ġgi hÃ®
le h
áĥĺáĥĶáĥ¤ áĥĺ
A b
ĠhÃ¸r te
Ġtem amÃ®
Ġstu dio
áĥĶáĥ ŀ
Ġpres entasjon
Ġk jer
sh istori
Ġor dent
Ġm un
Ġb lan
ĠSta t
Ġaliye kÃ®
z mÃª
Ġdisku tere
* *
Ġska m
Ð° Ð¹
Ġbarneha ger
ĠÅŁ Ã»n
195 9
wa zÃ®
ĠSam s
Ġg enge
Ġp Ã®ÅŁ
yu ka
ss alen
Ġhil we
Ġxiz met
ĠK omba
Ġderke tin
Ã Ĩ
ĠsÃ¸ ket
ĠNa vnet
Ġsti ftet
ken o
ĠO p
Ġmed fÃ¸re
Ġfri lufts
ek sjon
Ġser dest
Ġdim Ã®ne
sta den
ĠpirtÃ» k
ĠS uri
Ġmusk el
ly m
ansvar lig
Ġbawer iya
ĠG ene
Ġoppda tering
Ġkonfer ans
A B
Ġst k
1 200
b Ã®nin
ĠK umi
ĠKom Ã®
áĥĺ áĥĲáĥ¥
be yo
Ġse va
Ĩ Ĵ
ni e
ĠTo ur
ĠNO K
Ġziwan Ãª
ĠW in
Ġkal dt
M ari
ĠZ uma
Ġbar nes
fin ansi
Ġl este
Ġkna pt
f jorden
Ġbi ci
Ġha ge
Ġger m
kl ene
b Ã¥nd
ĠhÃ¸r es
ket e
Ġ.... ..
em u
ma i
Ġa fi
ĠH ud
Ġper gala
Ġspesia list
ĠSi tta
Ġforb undet
ĠN go
T id
ĠF ifa
ĠG addafi
Ġáĥķ áĥĲ
Ġhjemm elaget
u i
Ġfan ge
va zi
Ġkompet ans
ĠSvein main
Ġprodu senter
Ġelekt riske
Ġscen en
Ġbyr Ã¥
Ġo bligator
Ġku ll
ku nd
bes Ã¸k
áĥĿáĥ Ńáĥ§
ĠG rupp
Ġhenhold svis
Ġdefini tivt
Ġunderstre ker
H vordan
Ġavs la
ĠO fte
po stad
Ġland slag
ĠDen mark
Ġst ram
N BS
U k
s burg
et ru
ĠAb basi
Ġdew lem
S tu
ten ge
ĠRo ck
ĠKin shasa
B asi
ĠMi mi
th man
ĠM W
ĠAmer i
sprosjek t
pi llet
Ġty sk
Ġb ane
ĠAn ti
Ġinvol ver
Ġsympt omer
Ġski lt
Ġjevn lig
ĠAS P
ĠmÃ¥l ene
u wezo
ĠKerkÃ» kÃª
di yan
Ġt ete
gen er
ĠJ ur
Ġglem me
áĥĽ áĥĲáĥł
Ļ áĥķ
for ma
ĠáĥŃ áĥĲáĥł
ĠÃĩ i
Ġnet to
g gi
fo ss
ĠáĥĴ áĥĿáĥ¤
Ġtem am
Ġáĥ©áĥĺáĥľáĥĶáĥĳ áĥ£áĥļáĥĺ
ĠA dol
Ġstra te
ara ka
di ano
de wlet
ĠMa fia
Ġnaken bilder
Ġmi kuu
Ġbeg repet
ban go
bu su
es p
kun ga
Ġsta a
ĠH isa
ĠA we
Ġf rÃ¸
Ġeiendom men
ĠpÃ¥ ske
ĠV ann
Ġeks amen
ski lt
ti mali
Ġsku tt
Ġpart nere
Ġkost hold
wi ya
ĠInter net
Ġpa po
ĠdÃ¸ gn
Ġhelhet lig
sh Ã¸y
ĠS like
me ke
ĠSko len
Ġsla pp
T ra
ĠW ind
ĠA bo
ĠKa ya
Ġdem Ãªn
Ã» t
Ġku elimisha
ĠMa beyo
Ġwaki toka
ĠKu tokana
anzi lishi
Ġak ishiriki
WA MA
fungu lia
Ġmasha ka
ĠMsi tu
Ġmvu to
Ġkuny esha
ĠĠĠĠĠĠĠĠĠĠĠĠĠĠĠĠ ĠĠĠĠĠĠĠĠĠĠĠĠĠĠĠĠ
ĠYusu ph
ĠVit ambulisho
Ġkinach otambuliwa
Ġkufufu ka
Ġkutoridh ishwa
Ġwa mer
Ġku endelezwa
zi taja
ĠA beid
eg undua
po anza
ĠJ KU
Ġali andika
ĠKi wango
ĠKi kosi
Ġaki panda
Ġwana tumia
Ġuta shi
Wa gombea
ĠKu jenga
ĠBa hi
taji ri
Ku fanya
Na fasi
og elea
ĠUt unzaji
Ġhai to
amb amba
Ġwak risto
jadili ana
Ġmala zi
Ġkuni pa
Ġkuidh inishwa
Ġaliyoi toa
ĠNyu ki
Ġfara gha
Ġwanaf amilia
H ifadhi
U shindani
U wezo
t ambulika
Ġm linzi
Ġm himili
Ġwa fanye
Ġku shauri
Ġku teua
Ġku elekeza
Ġku ashiria
Ġu wasilishwa
Ġu umbaji
ta futwa
ke vu
ri dhisha
ĠT TCL
ĠH ukumu
ĠN amba
Ġkuwa shukuru
ĠW ashiriki
ĠW engine
Ġali lipwa
Ġaki zungumzia
Ġaki teta
ish inda
per usha
ĠZ itto
Ġkufanya kazi
Ġkuu wawa
Ġkum teua
enye kevu
Ġume fika
Ġyali yomo
Ġkut ambulishwa
badili shwa
ĠUt aratibu
Ġmaha busu
Ġlina weza
Ġuha sama
ĠLu h
turu jia
Di wani
pig ana
KU RU
Ġasi ye
Ġkuri thi
tun ukiwa
ĠMwi ta
Pi chani
Sh erehe
ĠPS PF
Ġchu oni
ĠNgu vu
taz amiwa
Ġkuhari bu
ĠDok ta
ĠCamer oon
ĠOti eno
Ġuwasilishwa ji
F amilia
N SSF
p angilio
s oaji
z uni
Ġm piga
Ġm kulima
Ġwa lengwa
Ġku bainisha
Ġku onyeshwa
Ġd oria
ĠM paka
ĠM kuranga
to d
yo sisi
di ria
Ġvi gogo
Ġni mekuwa
Ġkuwa ruhusu
ĠMa elezo
ang ilia
ere jea
Ġina tumika
Ġzi weze
ĠWa o
Ġame zindua
Ma badiliko
Ġzili anza
Ġkuji kinga
gon ga
Ġkupi gana
Ġmka a
Ġkua hidi
ĠCha to
ĠTo fauti
Ġkuzi kwa
bas amu
ĠMw l
Ġusha iri
Ġnem bo
engene zwa
ufa isha
Ġkuepu sha
ĠUp endo
ĠSoko ine
Mada ktari
ĠUsa fi
elew eshwa
Ġuvun jaji
Kus hoto
Ġmegawa ti
U shirika
Ġma sika
ĠT esha
Ġkutoka milika
Ġina zidi
Ġina hitajika
mi zwa
Ġana ishi
Ġwaki dai
enye kiti
Ġkupi giwa
Ġbara fu
ĠKas ulu
Ġhat ma
Ġbu di
Ġkush ambuliwa
Ġmto ano
ĠChem ba
M shindi
w ilaya
Ġku is
Ġku chu
ĠM bili
Ġkwa kuwa
ha dhar
Ġki kiwa
Ġki chungaji
ĠMa oni
Ġwan asheria
Ġiliyo wasilishwa
ĠY erusa
Ġinayo toa
kan usha
Ġsu gu
ash indwa
ĠIm amu
kimbi za
Ġmf ereji
samba a
Ġsekun de
Kia si
ĠKhal fan
Ġla wama
Ġina tarajia
Ġulio wa
Ġkui wezesha
Ġkusa ka
Ġmis wada
Ġwah anga
ĠUle mavu
Ġkuli ma
ĠMon duli
orodh eshwa
ĠKana li
ĠT ru
tegeme e
ĠMsi mu
Ġwana tarajia
Ġame pata
áĥĿáĥľáĥ Ĺ
ĠáĥªáĥĶáĥľáĥ¢ áĥł
ĠKi rando
16 00
ĠTG NP
Ġved rÃ¸rende
ori enter
áĥĺáĥĶ áĥĳ
Ġxw Ã®n
Ġinsta ller
yet Ã®
ĠEn kel
ĠhÃ¸r ing
Ġáĥĸ áĥĿáĥ®
Ġkommer si
Ġfors vinner
Ġpaqi j
Ġdeba tten
y stem
mer t
ĠZ anÃ®n
Ġdek or
ĠS ela
Ã® t
Ġlo go
dan Ãªn
ĠJ un
Ġapp s
ĠTa ttoo
Ġxeba tÃª
Ġin tensi
Ġke tiye
Ġh indi
Ġla t
p ra
ĠMÃ¸te protokoll
Ġspesifi kke
ĠHal vor
kk om
Ġend amÃª
Ġsti lles
ĠBÃ¦r um
Ġbini vÃ®
na v
x ember
yet Ãªn
Ġst Ã¥ende
ĠHen ry
Ġsa kene
Ġoppfy ller
Ġso li
ĠáĥĽáĥĶáĥľáĥª áĥĲáĥł
áĥĺáĥ¡áĥ¢ áĥĶáĥĽ
Ġáĥļ áĥ·áĥĽ
áĥĶáĥľáĥ¯ áĥĺ
Ġviv anza
Ġáĥĵ áĥĺáĥľ
wan Ãªn
Ġáĥ¡ áĥŀ
Ġkal le
195 1
Ġáĥ¨áĥ®áĥķ áĥĲáĥĵáĥĿáĥ¨áĥ®áĥķ
vi yÃªn
Ġz ara
al le
ind ana
g un
nd ar
ĠA mali
Ġregel verket
Ġv alu
ema il
for bruk
R P
ĠT ore
' .
si an
bo x
ĠsjÃ¸ en
S tar
Ġstyr ings
Ã¦r lig
Ġselskap ene
Ġmobi len
Ġintegr ert
ĠSer bia
Ġi verks
Ġkunnska pen
f fa
Ġorgan isering
Ġregel messig
ry g
Ġsv ing
ĠS hu
Ġbi kari
Ġvar denafil
H uku
ma ge
yÃ® ÅŁÃª
ĠW ekÃ®
g skole
lo ger
xwa ze
sta ll
ĠResulta tet
Ġvil lig
Ġita lien
Ġje vnt
smes sige
tu al
Ġinformasjon s
Ġdetal j
ĠKjÃ¸ pe
ĠdanÃ» st
ĠáĥĿáĥĽ áĥĲáĥ¤
2 60
Ġstyr es
Ġv o
áĥĲáĥ¤ áĥĲáĥĹ
Ġbarne vernet
jÃ® mÃª
Ġbir Ã§Ã®
ĠPD F
n ga
Ġasi atisk
ska m
Ġkj eller
n eg
ĠÃ¸ver st
ĠB and
leder en
ĠdÃ®ro k
ĠstrÃ¥ lende
Ġmot satt
u ser
pp es
Ġmed arbeider
lubb en
Ġz ord
Kom mun
kjen ne
Ġunder lagt
ĠHew lÃª
we yÃªn
ĠlÃ¸p ende
ĠA zi
áĥĿáĥł áĥĿáĥľáĥĹ
A mer
C ha
áĥĲáĥ «
om on
ker te
áĥĿáĥł áĥĿáĥªáĥ®
Ġdaxwa zÃªn
Ġa ÅŁtÃ®
ĠáĥľáĥĿáĥłáĥĹ áĥĺáĥ¡
Ġn Ãªr
Ġsing ler
Ãªn Ãª
gÃ¥r den
Ġmusi kken
Ġk va
R IS
kom st
Ġeks terne
ĠpÃªvajo yÃª
Ġeksper i
Ġslu tter
i ba
ĠJÃ¸r gen
f Ã¸dt
Ġsat ser
sen ten
Ġski ftet
men ter
Ġu Ã¸n
Ġtan kene
ĠRÃ»s yayÃª
ĠS my
P ress
ĠH andel
Ġperson vern
send t
19 24
Ġkal d
ĠL und
vek sten
for man
Ġstri kke
Di vÃª
till ende
er ings
kar t
pa t
Ġkomp lett
ĠMar ke
ĠI h
ĠáĥĻ áĥĲáĥľ
Ġla b
ĠM SD
Ġhim mel
F D
rig het
tre a
ĠrÃ» yÃª
Ġne x
per wer
Ġlidar xistin
Ġk ing
ĠT v
ĠAF P
P ir
w isa
Ð½ Ñĭ
jo b
Ġfal le
Ġde partementet
ĠBa kur
Ġdixwa zim
ĠZ im
ĠáĥĴáĥĶ áĥĿáĥĴáĥłáĥĲáĥ¤
Ġgjennom fÃ¸rer
Ġjord bÃ¦r
n te
Ġfor bruk
ĠRÃª ber
Ġforbered t
fika sjon
Ġekte f
S V
f ris
ĠTa k
Ġti Ã¥r
ĠFor fatter
f ond
Ġom tale
IN E
Ġl os
ĠBy g
and an
en si
is men
ĠRepres enterer
ĠL us
th on
ard in
Ġáĥ¬áĥ·áĥĽ áĥĲáĥłáĥĺáĥľáĥ£
ga ard
ĠáĥĻ áĥĿáĥļ
Ġrojava yÃª
Ġáĥĵ áĥĿáĥ®
Ġdo z
Ġkna ppen
Ġhilbijar tinÃªn
Ġpe ji
ĠáĥľáĥĿáĥ¦ áĥĲáĥ¨
Ġxer ab
Ġplan te
an ja
13 2
Ġbarne vern
Ã¡ r
j us
ket Ã®
Ġbar ns
ĠtÃª r
Ġkor tere
s is
li x
Ġbry te
Ð¾ Ð¼
Ġklass er
Ġfry kt
Ġkin o
ĠÃİslam Ãª
amiÅŁ lo
ret a
Ġ ).
and ine
Ġm h
ĠbaÅŁ tir
j ere
ĠM Ã®r
Ġsho pping
Ġsp urt
Ġkon kluder
ta bel
ba tÃª
ses ongen
tet s
ĠD Ãªr
ĠF y
ĠSu kker
fÃ¸l else
Ġaltern ative
Ġdixe bi
Ġsam les
Ġsmar tt
Ġmu sika
áĥĲáĥ¥ áĥ¢
Ġutdan nelse
ha vet
Ġse es
áĥĽ áĥĺáĥľáĥĺáĥ¡áĥ¢
Ġim port
IN N
al th
D ew
ĠS pe
Ġmo bile
Ġtjen er
lo s
bes ta
Ġder man
Ġdem ekÃª
ĠP LC
chi a
et ten
ĠX a
in ho
ĠAn toni
ĠC enter
Ġban ker
Ġpena ber
ken ce
pha el
ĠCi va
ĠFÃ¸l gende
xwa z
Ġelekt roni
da land
Ġforfatter en
D isse
Ġb Ä±
ĠF otball
Ġbil ligere
Ġvoks te
ĠhÃ¥ pe
analy se
ĠtilnÃ¦r ming
zÃ® dÃ®
Ġha ug
d esign
Ġre ist
C har
ĠH istoria
Ġte w
rÃ® ne
ĠI le
ĠS ett
á º
Ġli po
Ġpara ll
F re
áĥĿáĥ Ń
ĠR ead
Ġsp ons
Ġs eng
ĠNil sen
tu sia
Ġp es
Ġsam bo
Ġunder holdning
áĥĲáĥ¦ áĥĲáĥļ
ĠáĥĻ áĥĿáĥ©
W F
Ġun as
Ġerfar ne
Ġinnsa tsen
senter et
t Ã¸r
pir s
Ġlikes tilling
Ġaxav tina
lin jen
form Ã¥l
Ġev ner
ĠBus kerud
Ġi lle
Ġfrem tidige
Ġska p
rer te
ĠBes Ã¸k
ĠDer ve
ĠJ ar
Ġtema ÅŁe
Ġkom a
bi gi
ĠEle kt
ĠP YD
ĠK ua
Ġpo te
? !
ta p
ĠâĢĺ âĢĻ
Ġras tiya
ĠAndre w
T RA
mend Ãªn
f ekt
en ser
ĠÃ® d
ĠH Ã»n
Ġx wÃ®
Ġy telse
organis asjonen
ĠÂ ĵ
bÃ®r Ãªn
Ġmen o
Ġvir kning
Ġle gen
bes krivelse
ĠKr F
Ġen g
Ġstat lige
ĠHel digvis
ĠP I
Ġfelles skap
el te
Ġbina v
ĠÃ¥r saker
ĠEr nest
Ġáĥ¡ áĥĻ
Ġkos te
ĠVen stre
Ġres pon
ĠÅŁ ared
ĠÃ§and Ã®
1 12
gua y
V il
ĠG enk
ĠMi che
Ġmor al
Ġmedlem s
Ġt Ã¸y
fe li
bes ky
ĠN is
Ġe post
Ġvari ere
Ġelektron iske
Ġfor ma
legg ingen
Ġkre ative
Ġforut setning
bi hu
Ġrepresenter t
w ele
g jorde
Ġbe hagelig
vas k
ba i
ĠD W
ĠRich mond
Ġkontro l
Ġfler tall
en zo
Ġm te
pla y
ĠFor lag
f is
Publi c
b les
ĠÃ§ Ã®
U ta
ĠN ass
ĠW asa
c ri
Ġáĥ¡ áĥĺáĥ¡áĥ¢áĥĶáĥĽ
196 9
Ġwa j
10 1
tre ff
Ġuni vers
ĠK rav
ambo dia
Ġall menn
m ji
ĠP y
áĥĿáĥ¡áĥ¥ áĥĺáĥļ
Ġáĥĺáĥ¸ áĥ£
ĠDu blin
Ġdel tatt
Ġevalu ering
Ġkre fter
Ġhand let
Ġber dan
K ON
Ġvas ke
Ġvok st
B ra
Ġbe ina
K r
yo o
ĠA ga
Ġdag s
ĠAften posten
Ġman ne
hem be
ĠL ED
ĠAC P
Ġku kom
ĠAs asi
K uli
ĠMa kumbusho
Ġle gi
KA TI
Ġst res
ĠaÅŁ tiyÃª
K IA
Ġm re
en na
195 4
Ġh Ã»r
kan Ã®
ba l
Ġat om
L u
Ġfor enk
fa bri
Ġmy k
Ġf on
ĠÐ ²
Ġformid ling
Ġto zo
ĠBu hi
Ġfoto grafer
Ġrew ÅŁÃª
Ġhvi le
b ind
ng er
Ġlang siktig
Ġvirke lighet
Ġforh indre
Ġfore bygge
Ġetter kant
ĠX i
Ġpotensi elle
Ġvars let
Ġdan net
wa ki
and Ã®
Ġaki la
Ġa rab
19 29
Ġáĥĺáĥľáĥ ¢
áĥĲáĥļ áĥ¡
Ġtradisjon ell
ĠH old
ĠbÃ® ran
Ġzar o
ĠJa ck
jo le
ĠHos pital
Ð° Ð¼
P esa
Ġku po
Ġma vazi
Ġj umuishi
ĠN simbo
Ġkuto lipwa
Ġl ote
vyo te
Ġame ongozana
Ġkup indu
bili oni
Ġkua jiriwa
Ġkin amama
Ġuko loni
Ġmati ni
ĠMwi la
WT Z
ĠTP B
Ġfut ari
H uo
J ibu
J umanne
K aribu
W engine
Ġu somi
Ġi mer
ji husisha
Ġma tusi
to fahamu
ge penda
ĠU ki
ĠU gonjwa
Ġhu lipwa
Ġkuto za
Ġaki tokea
Ġkwan gu
Ġwalio fanikiwa
Ġime piga
Ma ombi
Ġkui pata
Ġyali vyo
Ġmo yoni
ĠHal mas
Ġwanao pata
Ġkut hamini
ali sema
Ġalipo fika
haki mu
ĠBara barani
Aki fafanua
Ġkua ga
Ġhaya kuwa
Ġkufa ulu
ĠMw iny
Ġaliwa pongeza
Ġinayofuata Mpango
Ġmak taba
ĠWar sha
Ġkisu kari
Ġubina damu
jare ja
ĠMwiny im
H atima
M si
U gonjwa
Ġn inyi
Ġku jili
Ġku umia
Ġku linganisha
ĠM WI
ia dha
Ġki ch
Ġvi kiwa
ĠA wali
Ġin ada
ĠN usu
Ġli mesema
Ġcha guo
ifa i
Ġaki fuatilia
ĠWa geni
ĠWa tafiti
Ġwan ane
Ġame pokea
Ġana tarajia
Ġime ji
Ġime fanyika
ong elea
Ġkup orom
ĠKam isheni
Ġwanao tumia
Ġita fanya
Ġusa idizi
Ġkis asi
Ġkusa jili
Ġkusa hau
Ġhal fa
áĥ¨ áĥĿ
Ġmare jeo
Ġimet enga
Ġmawa kili
ĠMaha fali
Da ktari
ON GO
Ġziki wemo
Ġkuki uka
kwe pa
ĠSaba saba
ĠMasha ka
Ġkuachi liwa
Ġalie kuwa
ĠBrig edia
Ġmako cha
ĠMWI BA
Ġkuporom oka
S ekta
m ishwa
wa kati
Ġku chezwa
Ġku fikiri
Ġa skofu
Ġki vuli
Ġha dhar
Ġhu changia
ĠB unda
Ġali fika
Ġali tangaza
Ġali jiunga
Ġda ftari
bwa wa
Ġame weza
Ġame funguka
Ġmwana harakati
Ġwame pewa
Ġzina paswa
Ġuch angiaji
Ġmat undu
Ki ungo
Ġvit ongoji
Ġkula lamika
achi a
Ġmadara ja
Hu yu
Mu onekano
Ġmapa tano
dhiri fu
Ġshambu lizi
ision ari
ĠWenye viti
Ġmlo longo
ĠLum umba
Ġuku zaji
B unge
N ili
Ġku penda
ta waliwa
Ġma kumbusho
bu du
ĠMa husiano
pi wa
Ġdi mba
ĠKi ambu
ĠKi ebrania
isha uri
Ġina itwa
mba ka
ĠSa uti
Ġame pewa
Wa zee
Ġkus onga
Ġndi ko
Ġzilizo wekwa
Ġmaj anga
pro gramu
Ġdere va
tan ishi
ĠMta alam
ĠGa guti
Ġkuki dhi
ĠMn ara
Ġkuhifadhi a
ĠMul ongo
reke bisha
Mare hemu
Ġmsisi tizo
Ġu zima
Ġali ahidi
Ġwana dai
fasi ri
ĠAm ana
Ġkusu di
Ġgri di
Ġkidi plomasia
ĠChan jo
A gizo
wa ziri
Ġm rengo
Ġt anzania
bo vu
ham isha
Ġzili tolewa
Ġtele visheni
ĠKigwang alla
Ġi kulu
Ġg ereza
Ġvya ndar
ong ano
ov o
Ġvyandar ua
Ġkusom ewa
Ġkusindi ka
ĠAl laa
ten g
Ġregel verk
Ð¾Ð² ÑģÐºÐ°Ñı
Ġlig gende
Ġh ende
Ġtra kk
ĠsÃ¸ kere
wer i
Gjen nom
f Ã»
venn lige
Ġser vert
Ġalder en
ĠP ort
Ġkiri bÃ»n
le ya
Ġsats ing
Ġk lem
Ġhu sk
36 5
u te
Ġkorre kt
ĠsÃ¸ vn
Ġperspek tiv
ĠVel dig
ĠRo bin
Ġderke ve
ĠM I
Ġderdike ve
I sra
ĠM ED
Ġg uman
Ġana lys
Ġfor budt
Ġadminist r
Ġciwan Ãªn
Ġsem ester
áĥ¤ áĥĶáĥł
a ppara
tek Ãª
kra v
Ġsw ingers
ch us
Ġsex leketÃ¸y
áĥĺáĥª áĥĺ
áĥĿáĥł áĥĺáĥ¨
ĠáĥĽ áĥĶáĥłáĥ
Ġord ningen
Ġteva hÃ®
Ġtyp isk
E P
Ġloka ler
Ġáĥ¬áĥ§ áĥĲáĥłáĥ
Ġla tter
ti cs
Ġut ry
Ġsam lede
sp esi
Ġq ad
Ġs anger
ĠdÃ¸ m
Ġflin ke
ĠÃª ÅŁ
Ġab onn
Ġformid le
van ns
ĠT ema
sel skap
è ĥ
Ġwa rÃ®
ko k
Ãİ Åŀ
den for
ĠHewlÃª rÃª
Ġba de
æ Ŀ
za kÃ®
6 50
m Ã¸tet
Ġb bw
ĠL av
ĠC ot
Ġder di
Ġweb cam
Ġdiyar kirin
cho ol
Ġhvor vidt
Ġtelefon en
ĠsÃ®n orÃª
men nene
Ġmateria let
da h
Ġsv Ã¸mme
Ġreda ktÃ¸r
ĠsprÃ¥ ket
Ġfor Ã¸vrig
ĠE ras
f le
spunkt et
Ġli den
fri het
áĥ® áĥĺáĥł
Ġinnfly telse
Ð° ÑĤ
Ġáĥĵ áĥĿáĥłáĥ
ĠÂ °
Ġáĥ §
áĥĺáĥł áĥĺáĥľ
19 46
ĠPi ÅŁt
ĠSom mer
ĠáĥĽ áĥĺáĥļ
Ġmo bb
ĠÅŁer vanÃªn
Ġáĥ¥ áĥĺáĥłáĥ¡
reng th
S an
ĠB le
f ru
ba kgrunn
Ġfores lÃ¥tt
ĠI bn
d iske
Ġbi x
Ġopp tre
Ġvi ka
ĠhÃ¥nd tering
ĠF at
Ġly tte
gift ene
em Ã¥l
kte lig
ĠflÃ¸r te
Ġsto lte
Ġettersp Ã¸r
na l
pro blemer
D es
ss ki
Ġutvik les
ĠbÃ¥ nd
Ag der
dala fil
Ġtek no
I KA
ĠG B
ĠLi v
chel or
z om
Ġx eter
ĠAbra ham
Ġpi kk
ĠO k
Ġs ul
Ġlu k
is ia
ĠáĥĲáĥ ĸ
ĠGe ir
ĠB Ã¸
Ġde vÃª
ĠVed legg
nor ske
ĠvÃ¥ t
fin alen
prÃ¸ ver
Ġlag ring
áĥĶáĥ©áĥĵ áĥĿáĥķáĥĺáĥĹ
ĠAk kurat
ĠáĥĿáĥĻ áĥĿ
áĥĺáĥĿáĥľ áĥĺ
e ffek
Ġfor handling
Ġbes luttet
ĠáĥĽ áĥĲáĥĵ
Ġstyr ket
Ġf else
ĠÃĺ nsker
áĥĺáĥĻ áĥĿáĥ¡
ru ga
ge han
Ġd rev
Ġrek ord
Ġser anser
politikk en
ĠS lo
b ere
Ġta dalafil
Ġsta tu
Ġt his
ĠI G
Ġbo ok
ĠC el
Ġprosjek tene
ĠM P
Ġhel ga
sy onÃª
Ġhati na
Ġdy b
Ġgam melt
ĠFi kk
Ġfen omen
Ġof tere
ĠTÃ¸ nsberg
Y o
Ġbekre fter
f inn
Ġvar sel
Ġhold ninger
Ġs ve
ze ke
Ġf Ã¶r
ĠJu ba
ĠFil m
áĥķ áĥĲáĥľ
la us
áĥĶáĥłáĥ ľ
ĠUtdan nings
A s
ÅŁ Ã®n
ĠáĥĿáĥļ áĥ¥
em per
ĠRo uge
tila sjon
ĠHero es
in Ã¦r
Ġhew il
Ġmu r
Ġsc ene
ĠEsc ort
Ġlov lig
ĠkirÃ® ye
Ġpris ene
Ġziman Ã®
ĠmÃ¸te plassen
ne vnt
gi ften
Ãħ r
Ġni mÃª
Ġarbeidsta kere
nb sp
ĠQ amiÅŁlo
Ġuten riks
Ġdri ften
Ġpas set
Ġinn tak
Ġlav este
n Ã¥r
ĠJoh ns
Ġis rael
pa ganda
Ã® ra
Ġg lim
Ġkur t
Ġsc ore
Ġx Ãª
Ġq er
ce p
lu s
ĠA L
k si
ĠSt rength
ĠE y
ĠFor slag
ĠC G
Ġáĥ¤ áĥĿáĥłáĥĽ
an k
áĥĿáĥľáĥ ¡
n Ã¸y
ĠMi ke
Ġsol dater
Ġgul vet
ĠÃ¸dele gge
Ġinform ere
ĠF ram
ĠáĥĽáĥ£áĥĵ áĥĲáĥľ
Ġsamarbeidspart nere
st jeneste
for fatter
Ġban ken
Ġungdom mer
Ġend rer
M UN
I m
ĠS amu
ĠtÃ¥ ler
Ġa sÃ®
Ġpen ge
ĠDom ini
vir kninger
ĠFor um
ĠcÃ» da
im ara
ĠA mi
Ġwela tan
di an
Ġmed isiner
n um
R M
dd y
195 5
F er
institu ttet
P RO
til ler
dd am
Ġp ing
tro ller
Ġbatter i
ĠEuro pe
lÃ¸p ende
ĠbÃ» bÃ»
Ġeksempel vis
Ġbe bo
27 0
Ġg olf
Ġhi mm
Ġkombin ert
Ġredu serer
Ġserxwe bÃ»na
ĠsÃ¸ kt
beg yn
ĠR oad
ĠÃ§ek dar
M t
yr ene
ĠDÃ® sa
is ser
ĠáĥĽáĥĲáĥŁáĥĺáĥł áĥĲ
Ġxw eser
áĥ·áĥľ áĥĲ
ĠTorger sen
Ġáĥ¨áĥ®áĥķáĥĲáĥĵáĥĿáĥ¨áĥ®áĥķ áĥĲ
Ġl od
Ġd isi
va la
cha l
el ed
áĥĲáĥĵ áĥĴáĥĺáĥľ
ĠH istori
ĠD CI
Ġavan serte
áĥł áĥĲáĥ¢
yd ro
st Ãªn
kon stru
land sk
Ġporno filmer
ĠD YA
Ġter reng
Ġhot el
a utoma
Ġb ror
Dag bladet
ĠHi p
ĠÃİ ng
â Ĥ¬
Ġbe liggen
ĠvÃ¥ k
Ġsvar et
ĠO li
ĠH IV
es ulta
Ġfor Ã¥rsa
ĠMa i
Ġd oms
Ġdu yemÃ®n
Ġv isjon
ĠSe ctor
Ġmek an
Ġbes lutning
in an
Ġb Ã¸
ren s
Ġmen ings
Ġse il
A f
ĠEw rÃ»pa
Ġmin er
Ġorg as
ĠBi te
ĠEh med
ssy kdommer
HA L
ĠÃªrÃ® ÅŁÃ®
ĠM em
ĠÃİ n
ĠÅŀ em
Ġgotin Ãª
Ġkomfor t
. ),
po l
Ġhav ner
ver en
rÃ¥ der
Ġáĥĺ áĥł
áĥĿáĥłáĥ ĵ
Ba ba
Ġfer dige
Ġtrafi kken
MA S
áĥĿáĥĳ áĥ£áĥłáĥĺ
ĠElisa beth
in ere
áĥĲáĥ¤ áĥĲáĥ¡
ĠdÃ¸ gnet
ger ne
ĠS IM
ĠáĥĻáĥ£áĥļ áĥ¢áĥ£áĥł
s jen
áĥļ áĥĺáĥ¡
Ġnavnet ewÃ®
Ma li
Ġivar et
Ġordent lig
Ġlegem idler
ĠR ea
Ġne kir
san svar
Ġkun des
Ġx al
ot to
ĠEri trea
ĠbeÅŁ ek
ĠN F
Ġl og
Ġbib Ã®ne
ĠU su
T un
Ġtir kan
fer ansen
ĠGene va
ĠBa d
ta kti
ĠG oma
Ġp in
Ġta pte
Ġbens in
Ġe da
Ġav gjÃ¸re
Ġregistrer te
ĠTer je
Ġili m
da wÃ®
ĠÃ¥pen het
Ġku ÅŁtina
da ge
ot ho
ĠmÃ¥ned ene
r ine
Ġi fra
este ya
Ġmeng den
Ġav isen
we i
Ġnett verket
ĠÃ§ala k
tas je
ĠMes si
ger s
h es
eg i
F OR
áĥ ¸
ĠáĥĽ áĥĲáĥľáĥĴ
s kere
Ġáĥ£ áĥľ
ĠMusta fa
di ye
re de
ĠSm art
Ġáĥ¯áĥĿáĥ® áĥĿáĥĵáĥķáĥĲáĥļ
ĠG rand
Ġro sa
Ġkor n
Ġgot Ã»
ek ter
ĠP B
ĠMo ga
Ġs le
Ġforbed ret
bygg ingen
grunn lag
ĠS ogn
sti lle
Ġned satt
smarke det
p ua
Ġj en
19 47
ĠpÃ¥vir ket
Ġfor styr
Ġ( "
Ġ ÑĤ
ĠJ ordan
Ġz inge
Ġpra kti
ĠÅŁe v
Ġpey vÃªn
ĠGod kjent
ĠForman nskap
ĠZ er
ĠSam arbeid
U P
f lu
van Ã®
ĠkjÃ¸ ttet
isa la
Ġkon sert
ĠSt Ã¸
Ġsj oko
2 10
gi tali
ĠBa yer
Ñ İ
Ġs opp
Ġem ner
ĠAr n
áĥĶáĥłáĥ ¢
sam men
ĠDa ily
Ġlag res
proses sen
ĠNor den
stil bud
inali tet
ĠgrÃ¸ nt
ĠL Ã®
Ġhev det
® áĥķáĥĶáĥļ
Ġet asje
la tor
ĠáĥĶ áĥ¡áĥŀ
mann ens
Ġfort jener
ĠN an
ĠTo ure
J uni
Ġbikar hÃªn
J ana
Ġp reg
19 49
Ġberpir s
as wa
Ġhi gh
13 6
P O
ĠnÃ® qa
Ġbi kÃ®
sen g
Ġteva hiya
ĠHaug esund
ku yu
Ġkost nad
ĠR ing
Ġproblem ene
Ġreng Ãª
Ġopp gi
Ġra por
Ġkri min
Ġtre kkes
n ettet
Ġti da
som rÃ¥det
Ġorienter ing
D ER
Ġut bytte
di di
si ta
ĠKa p
Ġbo da
ĠC ambodia
Ġang st
r elser
asjon ene
Ġg la
Ġtek nikk
ĠBlu e
ĠStrength ening
Ġopp rÃ¸r
Ġbar nd
r isho
y umba
ĠPlu s
p tali
ĠUl anga
Ġpar tiya
Ġdia gnos
fu o
ĠG elo
f ram
Ġr uman
Ġver k
Ġb angi
Ġmi wa
Ġse ba
fr ist
ĠT elen
ĠáĥĹ áĥ£áĥĹ
Ġáĥ¡áĥĿáĥĵ áĥĶáĥĹ
ĠSte d
gu l
l ang
ta les
Ġre h
M eza
ĠP ress
ĠSe ko
g oma
li le
Ġjo po
Ġana y
Ġsamle ie
ĠE inar
fi e
Ġhe likop
áĥĿáĥĵ áĥĴáĥĺáĥľ
pu la
Ġnehati ye
for slag
Ġver t
Ġarranger es
Ġstand ar
ĠbeÅŁ Ãªn
Ġmorgen en
ĠAfri can
o se
Ġfrem stÃ¥r
Ġbort sett
ord et
Ġro llen
Ġad gang
to g
Ġbid ro
Ġfor late
Ġleng st
B iashara
M kufunzi
f ereji
ĠM limani
ha yo
ĠU pelelezi
ĠN HIF
ru husiwi
Ġba bake
su biri
Ġaki weka
uma ku
Ġwalio lazwa
Ġwaki pokea
Ġkum simamia
kili shwa
Ġmo duli
lima li
Ġuk oma
ĠWana ume
Ġyanayo weza
Ġunao tolewa
Ġhaku weza
unguzi a
ĠBu lembo
ĠMaji maji
Ġkufi kiria
Ġche kechea
ĠMwenye we
Ġdha bihu
Ġmasha iri
Ġameri potiwa
ĠTra koma
ĠAs as
Ġvyo vyote
Ġaliko kuwa
ĠButi ama
uji za
Ġalipom tembelea
ĠMuhu ga
ĠSmy thies
ĠIle je
ĠMwinyim vua
u fanya
ĠM kwa
Ġna faka
Ġv umbi
la umu
Ġp engo
Ġma hiri
Ġmi amala
Ġkuto kwa
ĠMa kosa
ĠMa baraza
Ġmed ani
Ġili fanikiwa
ĠKi demokrasi
Ġwana pokuwa
ĠG huba
Ġny uzi
ĠSa babu
Ġime kubali
Ġinayo jumuisha
ĠIn gawa
ĠDa yosisi
Ġwanao endelea
Ġmaka mbi
ĠMen gi
ram enti
vuti wa
Ġmali mbi
ĠCha cha
hisi wa
ĠTi zeba
Ġkin ywa
Ġvina weza
Ġnili po
Mas ha
Ġhaija wahi
iko lojia
Ġmisi mu
Ġwanan funzi
ĠAka unti
Ġmalimbi kizo
M ambo
u husu
Ġm beya
Ġwa pate
Ġku faa
Ġa fisi
Ġu w
Ġu anga
Ġu kumbusho
ĠM tanzania
Ġv yu
la amu
um isha
ĠA skari
ĠU tume
Ġam esi
Ġali si
ĠV ifaa
Ġaki furahia
Ġaki badilishana
Ġwali kutana
Ġina ku
ĠWa fanyabiashara
Ġiliyo wa
ĠSa idi
Ġame piga
Ġime pata
Ma adhimisho
Ġmaji ji
Ġkum taka
ĠMas hauri
Ġkui fikia
Ġyana kuwa
Ġyana vyo
Ġzilizo ko
ĠMwan damizi
ĠKili fi
Ġkuja diliwa
Ġtuna hitaji
patikana ji
Ġupo tovu
kabidhi ano
Ġsaba saba
Ġmab enki
ĠMis ungwi
Ġmai gizo
idh inisha
Ġkutu pwa
ĠBus ia
ĠMn dol
Ġzimet engwa
ĠHur ia
Ġgum zo
Ġwanaos oma
Ġinay or
ĠKumbu kumbu
ĠMalin di
Ġgere zani
Ġtegem eo
Ġruman de
ĠMndol wa
M wi
U jenzi
Ġwa ji
Ġwa angalizi
Ġwa shtakiwa
Ġu cho
ĠM shauri
ati zo
Ġma gaidi
te kwa
to sha
ĠT umbo
Ġam esaini
ika bili
Ġali weka
Ġili weza
Ġili tokea
dhi lifu
fi cha
Ġwali p
ĠWa dhamini
Ġwalio teuliwa
uku liwa
ĠMwan asha
zu ru
Ġalipo kea
Ġmsi kiti
Ġamewa pongeza
Ġuba dhirifu
Ġuba dhilifu
ĠNdugu lile
Mwana ume
Ġmaru diano
ĠNyu klia
ĠTU KO
Ġkuchi mba
Ġmajum bani
Ġkitek nolojia
Ġmre jesho
Ġhadhar ani
Ġk andarasi
Ġku hesabiwa
Ġku hojiwa
Ġa idha
ĠM kumbo
Ġma jonzi
Ġki komo
Ġki vuko
ari potiwa
Ġmi oyo
Ġali thibitisha
Ġuta endelea
zungum zaji
ĠKa lemani
Ġwalio husika
Ġulio pangwa
Ġwame ona
ĠNa fasi
ĠMas omo
Ġita weza
bin ti
Ġkuna tokana
Ġmat eso
Ki jana
shu tumu
ĠMag esa
ĠSta shahada
ĠHo tuba
Ġkuvu ja
Ġmita ala
Ġkupa kua
dhali lisha
Ġkusindi kiza
Ġnj ano
ĠTF DA
in ua
ĠM dhibiti
Ġna hodha
Ġki kristo
ĠT BA
Ġali zeti
Ġut angulizi
Ġmu ongozo
Ġaki p
Ġuli baini
anga liwa
Ġra isi
Ġkufu atana
ĠMwan zo
zu iwa
Ġhospitali ni
Ġmah esabu
Ġnyo ka
ĠNz ega
Ġkuiti kia
Ġma jini
Ġli metoa
ĠMwan anchi
ĠIr amba
Ġuchafu zi
K ume
ĠN ga
ĠAren a
es ko
Ġma ye
Ġmare jesho
Ġp un
as oka
Ġsmer ter
na h
gu her
Ġver d
sy on
ĠDem Ã®r
aa a
Ġáĥ© áĥ¥
ĠCham pi
Ġdewlem end
Ġhe bin
Ġkunst nere
chus etts
w id
fan get
ĠfornÃ¸y de
vÃ¦r et
Ġordin Ã¦r
Ġei ere
M il
Ġha ha
Ġsek sjon
Ġmot tok
Ġsel ges
Ġmuse um
ĠstÃ¸ ttet
Ã¸rs elen
Ġmet all
Ġs mil
áĥĲáĥ Ńáĥ§
isi tet
ĠAl ler
ĠDer es
Ġhimm elen
Ã® lÃ®
Ġre ad
ĠRo sen
áĥ£áĥł áĥĲ
Ġret tighet
Ġopp gir
Ġbegren se
ĠáĥĲáĥķ áĥ¢
Ġskri tt
ER E
T ek
y ya
Ġw esa
ĠMo sk
ela tende
Ġnaver oka
Ġsem i
ĠA I
19 48
ĠM ÃĺTE
ĠTe am
og lu
ĠX uda
wen d
Ġme ya
ĠRegi on
Ġstyr er
Ã¸m t
st ant
ĠprÃ¸ v
Ġeffek ter
Ġutgang en
Ġfor si
Ġkun ng
este der
è Ģ
ĠFor mÃ¥let
Ġne w
Ġgjen stander
Ġsol en
ĠnivÃ¥ et
Ġsla ppe
Ġh ela
Ġsal Ãª
Ġa ppen
Ġarrang ementet
B u
ĠT yr
Ġski pet
emeni yÃª
Ġg ellek
Ġt eng
e per
Ġba v
ja h
amb ridge
Ġáĥ¤áĥĲáĥłáĥĹ áĥĿáĥĳ
Ġp ent
Ġzan istÃ®
ov ara
ĠáĥĴáĥĿáĥ¤ áĥĲáĥ©
ĠrÃ» pel
ĠlÃ¦r te
ĠE di
Ãĺ st
ĠEgy pt
Ġkommun es
fi ler
Ġmenn ene
se ier
Ġska pte
Ġpar ter
ti si
for sikring
Ġsol gte
del ta
Ġtilby s
Ġpro stitu
Ġfors vant
sky ld
Ã¥ n
Ġtil s
Ġaga hiyÃªn
present ant
d Ã®nÃª
Ġg em
Ġes ker
lika sjoner
we a
sk valitet
le kÃª
ĠI D
sm yn
Ġengel ske
on es
Ġkon sep
mi g
Ġda bÃ»
ks et
Ġsy ssel
Ġinv est
li ty
Ġmod ne
q ua
ĠPa y
Ġgr Ã»
Ġut bygging
Ġinter ne
ĠMassa chusetts
ĠK ri
par ken
ĠgjennomgÃ¥ tt
ĠMari t
et tig
Ã» m
A lt
ven te
gjÃ¸r es
b lÃ¥
Ġdi r
M Z
Ġnaturlig vis
Ġt unn
ki yÃª
Ġuk jente
ĠKommun est
Ø§Ù Ħ
A frika
s me
Ġta ler
ĠC E
ĠPÃªÅŁ merge
ĠtÃªki ld
ĠstÃ¸rr elsen
¨ áĥĲ
h or
Ġlei ligheten
Ġbi jÃ®
áĥĲáĥĵ áĥ·
ĠMil an
Ġbeg re
tt y
ĠP sy
ĠR un
ĠX V
vi lt
ora v
Ġbersi va
Ġáĥ¡ áĥĲáĥ¤
Ġk ed
ĠL ed
Ġbli kk
ĠGo od
Ġoppvar ming
Ġles ing
ĠT ho
ĠJ iz
sker ne
Ġopp sto
Ġelekt risk
ĠpirtÃ» kÃªn
Ġg aller
ĠA sker
ti da
be handler
Ġdan Ã®n
Ġtil sier
Ġskri ves
ke tina
Ġtil later
Ġrela tert
S T
Ġbes Ã¸kt
Ġk Ã¸
ĠMo ss
ĠR ew
Ġanbefa linger
Ġkamp ene
k tura
Ġgjel de
ĠL TD
Ġend am
vo ll
f ti
Ġdokumen tere
ĠPor s
Ġru te
áĥĲáĥ¤ áĥĲáĥļáĥĺ
Ġta pet
vei ledning
ni vÃ®
Ġfestiv al
bir ina
ĠPhili p
Ġa gg
Ġsp as
ĠÃħ rets
ĠC u
Ġover alt
ĠL ine
Î ¿
Ġutstyr et
F lere
è ¡
Ġkon sul
ĠmÃ¸ t
Ġb ringe
ĠP uli
Ġbak gr
Ġseri Ã¸se
ĠstrÃ¸ k
Ġfru st
fa get
ĠMi ch
ft es
Ġto al
Ġtall ene
bi rin
ĠmÃ®na k
est Ã¥ende
ĠpÃªÅŁ Ã®n
ĠÃ§areseri yÃª
ĠDA ÃİÅŀ
len g
Ġkon gen
jo bb
Ġmi rinÃª
ĠS SB
ÅŁ ik
tek tur
lÃ® sa
Ġji ya
ĠH ard
ke ve
ten berg
Ġmec bÃ»
Ã»r Ãªn
Ġtilgjenge lighet
ri c
ol en
Ġpe ya
Ġkompet ansen
Ġb rÃ¥
Ġfri e
Ġforh Ã¥pentligvis
Ġd Ã¸ren
Ġgra v
ĠFor di
Ġma be
bora tori
ĠhikÃ» metÃª
Ġfrem gang
ĠN este
ĠPoliti et
Ġt Ã¥r
ĠSi m
Ġha y
Ġtr oms
Ġle ger
g ani
p top
Ġta lan
ph rey
ĠHem Ã»
Ġtere f
ĠtÃª gi
ĠrÃª xistina
j ed
Ġmalba tÃªn
asi o
Ġde ilige
ogra fi
o ll
Ġna zi
Ġq ew
v nen
ĠUnder sÃ¸k
Ġbeg run
annon se
H ev
ĠjÃ® yana
Ã¥ rige
Ġsk inn
Ġavslu tter
Ġform Ã¥let
Ġsam linger
Ġapp ara
Ġintervju et
fer ie
Ġb unnen
Ġinn blikk
pris er
Ġinnbygger ne
Ġen orm
ĠÅŀe hÃ®d
Ã®n er
Ġc or
Ġtend ens
som het
Ġsko lene
Ġxwend ina
S te
ĠE f
tin n
g ning
áĥĲáĥłáĥ ·
áĥķ áĥĲ
Ġbor Ã®
Ġinnvand ring
Ġkes ek
ĠkÃ¥ t
ĠZanÃ®n geha
áĥĲáĥ© áĥĶáĥĽ
Ġspe il
ĠáĥĿáĥ® áĥĿáĥł
ĠáĥĽ áĥĿáĥ£
c Ã»
ĠpÃ¥ lite
fjell et
ĠReg istrer
] ,
áĥĺáĥ ©
áĥĶáĥ¡ áĥĺ
ĠvilkÃ¥r ene
ĠáĥĶ áĥĴ
Ġanlegg s
y ren
ĠhÃ¸y est
Ġber g
ĠnivÃ®s Ã®n
áĥĺáĥŃáĥ§ áĥ·
ĠFi ji
wa sa
Ã¥l mo
yÃ® na
19 25
Ġho p
Ġpay tex
ta ble
ĠRe u
ĠÅŁe vÃª
est Ã®
Ġbeg rep
T or
c os
Ġh ekte
ĠSp are
Ġte koÅŁ
G e
Ġmiro vÃ®
ket a
fy lt
tatu s
Ġriktig nok
Ġgro v
ĠN HO
ĠÃħ lesund
gir Ãªn
Ġf este
ss ka
p set
fi gu
Ġtr Ã¦r
Ġgrunn lagt
Ġby ene
ĠKh mer
Ġk yl
ĠS S
Ġhas tighet
ĠC em
Ġsj Ã¥fÃ¸r
Ġtir s
I ngen
k g
ti stisk
Ġfar gen
graf iske
ĠZa ka
Ġfung erte
K it
ĠGod t
Ġved taket
g am
Ġkon ver
ĠO ce
ĠT ok
ver y
ĠP lat
R ead
h man
áĥĶáĥľáĥ¢ áĥĺ
ĠgirtÃ® gehÃª
Ġtra ff
Ġu rin
Ġen del
Ġvalu ta
s wa
ĠAl Ã®
Ġgel emper
ĠSams ung
li sa
ĠB ene
si kker
den tene
Ġras ke
ĠÃ§ek Ãªn
ĠÃ¥r sak
tab elt
ĠsÃ¸r get
Ġtr end
Ġunders Ã¸kt
me lige
Ġmod ellen
Ġu eni
pi le
K Ãª
Ġhe ke
lag ene
c ko
di um
andina via
B ur
Ġf ili
ÅŁ op
Ġnar ko
Ġpir sÃªn
Ġperwerde ya
Ġbi rin
Ġmann lig
ba ka
195 6
ĠMul ti
10 2
av tale
Ġfas e
Ġg lipp
áĥĺáĥľ áĥĶ
Ġveg vesen
Ġfal ske
c io
Ġser best
Ġja zz
ĠDi ploma
ĠL ES
Ġdan ner
b anÃ®
f Ã©
kom iteen
Ġinvester inger
áĥĲáĥ¤ áĥĺáĥłáĥĿ
ord ninger
fika sjoner
m l
Ġar v
kan ten
ĠBre xit
Ġbry ter
Ġfoku serer
ĠSpÃ¸r smÃ¥l
Ġzi ka
Ġned gang
vi er
ĠT umaini
rÃ® ka
Ġmor en
st ren
ter net
Ġke vin
Ġk ret
ĠÃĬ dÃ®
histori e
Ġáĥ¢ áĥĿáĥĽ
ĠFa ki
ĠN B
H ome
Vi ta
Ġhilbijar tinÃª
ĠkÃªf xweÅŁ
h re
å Ī
re en
H am
ni tt
fa lt
Ġreg nskaps
ĠWe zareta
ĠM eg
Ġme die
ori ya
lÃ® sÃª
Ġp um
ro p
tu ro
Ġl angu
m is
ĠH on
Ġfin an
Ġforetre kker
Ġinvester ing
ĠInnov asjon
ia ba
HA S
ani yan
Ġte ore
ĠHo sea
su si
Ġjor den
ĠMuni ch
idi ana
Ġc in
ĠC uba
Ġse kund
Ġkri tiske
Ġew qas
t tek
èĥ ½
ĠXwe da
ĠáĥĽáĥĺ áĥĲáĥłáĥĶ
áĥĶáĥĸ áĥĺáĥĵ
áĥĶáĥ¤ áĥ¬áĥĻáĥ·áĥĽáĥĲ
ĠAcc ra
f lo
12 6
Ġoperas yona
ĠA la
ĠH T
ĠM ir
Ġgeneral for
Ġinnvand rer
tern ati
Ġm z
ar ter
ĠJo el
ge kÃ®
Ġforvalt nings
ana l
Ġom setning
ne ya
ĠÃ§alaki ya
19 32
Ġplass ere
Ġutfor met
N orges
fun ksjoner
ur en
ĠHam id
kumen i
vi ew
Og sÃ¥
in in
Ġun Ã¸d
ser ingen
Ã³ n
Ġm nd
ĠB all
ĠHa t
Ġfull fÃ¸re
ĠM IL
der ne
ĠV A
Ġspen t
per t
195 2
Ġko var
Ġskolen s
ĠDa te
ĠFi gur
Ġu ji
Ġede biya
ang we
Ġti ne
Ġx era
ĠGa va
Ġbi Ã§in
ler en
ĠC ru
Ġgir ls
Ġtegnes er
lÃ¸p ere
q an
re is
are al
ĠSov jet
ĠMan gu
Ġfort lÃ¸pende
Ġat am
ĠTu sen
ame he
ĠSu leiman
ĠáĥĽáĥĶáĥ £
Ġkny tte
R CO
Ġhi qÃ»
Ġopp draget
áĥ¡ áĥ¢áĥł
nett steder
Ġav talt
ĠSi ri
Ġord ene
Ġáĥ¡ áĥĲáĥĳ
áĥ® áĥ£
áĥĺáĥ¢ áĥĶáĥ¢
¡áĥ® áĥ£áĥĲáĥ¤
4 000
em ea
ĠKag ame
ashi m
ĠSU MA
áĥĿáĥ ļáĥĺ
l ske
to fu
ĠU GC
sk jÃ¸
Ġva kkert
Ġforut setter
Ġseri Ã¸st
ti bÃ»n
Ġbawer Ã®
ĠáĥĽáĥĲáĥ®áĥĿáĥł áĥĿáĥĳáĥĲ
Ġta ta
Ã¸n dag
Ġmil Ã®
Ġt ari
Ġhand els
ĠAss o
Ġhev par
ge li
dis hu
ĠMoga dishu
ĠM z
ÅŁ ka
ali ye
ĠI var
ĠFa kultet
xane yÃª
ĠMagn us
o y
ĠTu bu
Ġtitt elen
ĠN eder
sprogram met
d Ãªn
ar n
U A
maskin er
Ġtemen Ãª
Ġna vi
Ġordin Ã¦re
ver and
Ġarbeids oppgaver
ami za
Ġrappor ter
Ġre ktor
til tak
Ġfl Ã¸y
ĠÃ¥p nes
Ġâ ĨĴ
A sili
K ikao
q ed
å Ľ
ka lu
ku tokana
Ġma dhabahu
ĠU zazi
Ġin ashi
Ġkuwa lipa
ru husiwa
ĠF adhi
Ġaki taka
funzi a
Ġana jua
Ġkon doo
Ġwalio jeruhiwa
Ġime jengwa
im ani
Ġkup u
Ġwata pata
Ġnye upe
Na o
Ġyame bainishwa
ĠMap ambano
Ġng umi
ĠSel eman
ĠMaji mbo
Ġkuki ri
Ġamem uagiza
kta dha
Ġtum boni
ĠMb inga
Ġmapa fu
ĠShig ella
Ġmakaa zi
Ġkuon ana
ĠMakamba ko
ĠNyaka b
H ili
S ambamba
Ġm ratibu
Ġwa zalishaji
Ġku ingi
Ġku hukumiwa
Ġp emba
Ġma wi
Ġma chache
ĠK weli
Ġj enerali
Ġvi unga
mu himu
ĠN ili
fu tia
Ġkuto onekana
ru we
ru kket
ĠJ ambo
Ġka dhalika
bo fya
Ġmu htasari
ĠKi po
Ġaki jibu
Ġwana toa
Ġwali weza
Ġwali kusanyika
Ġre jareja
ish ana
mi kwa
Ġwan ufaika
ende za
onge zana
Ġame kiri
Ġana yes
ĠKa kam
Wa limu
Wa zazi
indi kiza
Ġime pokea
Ġkab ambe
ĠKu zuia
Ġfa ini
Ġwame piga
Ġwame kufa
Ġkuji ridhisha
Ġkum pokea
Ġume kua
Ġndi lo
angu lia
Ġyana onekana
etu humiwa
Ġkuta saidia
ĠMwan dishi
Ġsin tofahamu
Ġmash am
Ġngu ruwe
Ġsimu lizi
Ġata takiwa
wez eshwa
endeke za
Ġmaba lozi
Ġura fiki
Ġkuti mua
Ġzita saidia
Wana ume
Ġkumu ona
Ġbek jem
Ġmp unga
Ġtuli yo
Ġwalipo fika
Ġmacho zi
Ġalii toa
Ġmashu leni
ĠKara tu
Ġmapo keo
Ġpole pole
Ġkud umisha
ĠMk ongo
Ġimes huka
ĠMak taba
ĠMha gama
Ita kumbukwa
Ġmand hari
ĠKoro gwe
Ġkupen ya
ĠBite ko
ĠKakam ega
T amko
Ġm rithi
Ġu itwa
Ġu chapishaji
ri poti
Ġki halifu
Ġvi taka
fa fan
Ġhu itwa
Ġhu zuni
bu ru
Ġmi tindo
ene zwa
ĠMa lima
Ġali endelea
Ġali cheza
ĠR ungwe
dhi ka
Ġaki endelea
Ġwana daiwa
Ġina elezea
Ġny ere
Ġum ati
Ġuna chukua
Ġuta wa
Ġuta katifu
Ġwaki furahia
Ġulio tokea
Ġkuji weka
Ġinayo patikana
Ġinayo tumiwa
ĠMwa i
ĠBa bati
Ġkui chapa
ĠSt y
Ġaliye m
Ġkili ch
Ġmap oromoko
Ġkusa fisha
jo to
ard inali
ĠMag anga
Ġwam ek
Ġkure jeshwa
Ġua gizaji
ĠKim koa
Ġamem u
Ġamem shukuru
Ġisiyo kuwa
Ġmasa fa
Ġkuten gwa
Ġkuhifadhi wa
Ġkusafir ishwa
ĠMig una
Ġalicho ki
Ġtara kimu
Hatima ye
Ġuitwa o
S ura
U ki
U faransa
W amiliki
b isho
s asa
Ġm mea
Ġwa falme
Ġwa halifu
Ġku tinga
ĠM simamizi
Ġmwa sisi
Ġvi ko
Ġvi po
Ġvi wandani
ĠA sa
ĠU china
Ġkuwa pata
ĠW ote
Ġba kur
Ġali ishi
Ġali wasili
Ġta basamu
Ġwana ona
Ġwali dai
Ġwali chukua
ĠO rodha
Ġina tumia
tum ba
Ġkup umzika
Ġkuji vunia
Ġinayo wa
Ġkum kabidhi
Ġzina a
Ġkui chezea
Ġwata fanya
asisi tiza
Ġkufu rahia
bara ge
ongeze wa
kri ban
Ġufun uo
tokana yo
Ġvirke lige
Ġmawa kala
Ġkuch ambua
Ġaliwa ambia
ĠYa ko
Ġtuli vyo
tun gi
Mas omo
To fauti
Ġinge kuwa
kosoa ji
Ġhatar ishi
ungan ishi
Ġtha biti
ĠAtlan tiki
ĠNdu gai
ĠFit ri
Ġklini ki
b ishia
e kumene
Ġi fuatayo
ĠK iserikali
hu buti
Ġali elezea
Ġili onyesha
Ġaki ji
Ġaki pewa
Wa tafiti
Ġsek retarieti
Ġume pokea
Ali fafanua
Ġwasi kilizaji
Ġiki zingatiwa
Ġvita lu
Ġmfu asi
Ġyame anza
Ġdan si
op ungua
Ġkauli mbiu
Ġwasio jiweza
bra hÃ®m
Ġmad hubuti
asim amia
tila fu
diki zaji
tafsiri wa
Ġa sema
tu liwa
ĠT amasha
fi fu
Ġkili o
Ġlag ene
ĠUta futaji
Ġkin yama
ĠMala ika
Ġwaliyo kuwa
Ġumet oa
Ġbis ek
Ġyalio fanyika
ĠKib ondo
ĠIP TL
HU RI
Ġuingi zaji
ĠYerusa lemu
Ġj umamosi
pa twa
Ġkam ishna
Ġmang fold
Ġmbu ga
vis ningen
Ġnav xweyÃ®
idha a
min ne
Ġwam eshiriki
ĠBex dayÃª
Ġus indikaji
Ġdin ya
in es
ĠbÃ»yer Ãª
áĥĺáĥĶ áĥ¥
Ġáĥ¨ áĥĺáĥļáĥĶáĥĳ
¥ áĥ·áĥĹ
ĠáĥĽáĥĺáĥ¨ áĥĽ
Ġs ort
Ġim por
Ġbi dom
áĥĺáĥĿáĥ ľáĥ
Ġáĥ¬áĥ§áĥĲáĥłáĥ ŀáĥĺáĥ¯
Ġáĥķ áĥĺáĥĹáĥĿáĥ¨
ĠVel kommen
b rand
Ġsi bÃª
B Ã¥
te yÃª
bi lletter
ker ing
ma king
al der
Ã¥ sen
ĠsÃ¥ ledes
Ġtur ist
Ġre diger
ĠÃ§a van
ĠSen ere
ss ted
Ġindividu elle
Ã» s
ĠBil der
Ġhygge lige
Ġaner kjente
ĠmÃ¸ bler
ĠO S
Ġun d
ent ral
Ġhum Ã¸r
sfor bund
Ġinter net
ĠLille hammer
ĠâĢ Ļ
sty re
Ġtren ere
Ġdike vin
Ġcamp ing
c um
ĠS tol
Ġdigi rin
ĠBus iness
C F
ĠWord Press
go t
Ġb run
Ġin tellig
Ã¦ v
men ts
Ġsk rÃ¥
de yÃªn
la ta
Ġstem ning
Ġh Ã®na
opp lÃ¦ring
prÃ¸ ve
let e
ye ya
Ġev nen
Ġáĥĵ áĥĿáĥ®áĥĿáĥļ
O F
va yÃª
Ġpres enta
Ġrea ksjoner
ber ry
ĠðŁ ĺ
ĠD y
Ġáĥ¡ áĥ¢áĥĲáĥ¢
Ġengas jere
Ġáĥĵ áĥĿáĥľ
ĠHvil ke
ĠD R
Ġh ttps
ta i
one y
ĠVer onica
ĠSt rand
ĠÅŁe hÃ®
ĠÅŁ ir
Ġgar n
s un
ĠS j
ĠÃĩ ar
ĠAu gu
di en
Ġz ane
ĠR O
Ù Ĩ
ĠlÃ® ste
tu res
ĠBa k
Ġmel k
t v
ĠkjÃ¸ les
Ġoppbevar ing
ĠpÃªn ga
Ġtil syns
ti ps
Ġteg net
ĠrÃ¥d giver
an te
ĠS pill
bar Ãªn
Ġendring ene
ĠMal ta
Ġut vid
Ġlu re
Ġdek ning
Ġarki v
ĠhÃ¥ nden
Ġfor deling
ĠpiÅŁ ta
Ġpres sem
ĠmÃ¥l setting
Ġs min
Ġavslu tte
x anÃª
Ġ[ ...]
Ġta pe
Ã¼ n
An na
ĠHal l
Ġqe zen
ĠT opp
ĠBi o
ĠI b
Ġlivss til
Ġomsorg s
ĠS ame
Ġali yan
tek st
ĠáĥĽ áĥĲáĥĻáĥĲáĥĹ
Ġpro tein
Ġy Ã®
áĥĲáĥłáĥ ľ
all s
Ã®r Ãªn
áĥĿáĥ¡áĥ¥áĥĺáĥļ áĥĲáĥĵ
áĥĶáĥ ª
im kÃ®
ĠáĥĹ áĥĲáĥ¥
ĠP RO
lÃ¸ ps
C ho
Ã¥ Ã¥
tek nikk
opp gave
ĠE ÃĺS
ĠtiÅŁ tan
Ġhensikt smessig
Ġn an
Ġz orÃª
Ġlu ften
Ġeffek tivitet
Ġsammen henger
Ġeks tern
ati vitet
Ġdemok r
ba tter
Ġop timali
ĠaktÃ¸r ene
Ã¥ rig
Ġm v
en sen
ĠMÃ¸te plassen
w ork
Ġundervis nings
Ġdixw est
Ġved tok
ven i
Ġkommun al
ĠÃ¥ n
ĠFi re
Ġom stilling
ĠTa y
z ano
gh ts
Ġinter a
ĠS iste
Ġme han
ĠMu sic
Ġpey va
Ġbin pÃª
lojÃ® k
sj ett
Ġd k
ĠMo ur
Ġvit amin
Ġ ~
ĠB ung
s datter
Ġnav Ã®n
ĠnivÃ® sÃ®
Ġinstitu sjonen
Ġkunnska per
fun ksjonen
Ġbil lige
ĠNy tt
lly wood
Ġforber ede
kia t
áĥĶáĥ¤ áĥ¨áĥĲ
Ø ¯
Ġb un
ĠáĥĲáĥļ áĥĽ
ĠrÃªveber iya
Ġsv anger
ĠáĥĲáĥ® áĥĲáĥļáĥĺ
áĥĿáĥ¦ áĥĲáĥļ
Ġq i
áĥĲáĥłáĥ ¥
ĠáĥĽ áĥĿáĥľ
gi l
Ġfyl ke
institu sjoner
d g
Ġxel as
ĠB oko
7 50
q asÃ®
S y
a h
ter res
Ġbudsj ettet
Ġha ve
ĠS eoul
bi c
ĠH elen
Ġopp skrift
Ġfanta si
Ġforbruks lÃ¥n
A ma
si te
produksjon en
su f
ĠÃ§ap emen
ĠW u
ĠKommun e
ĠÅŁore ÅŁÃª
ĠWa h
Ġopp skrifter
ĠG Ã¥
for valtning
ĠKur da
Ġsv ind
Ġh eng
gren se
ĠArbeid et
list ene
V Ã¥re
Ġke vne
ĠtÃ¸r re
Ġkontak ter
Ġfly tter
ĠFor el
Ġblom st
Ġs verige
Ġmidd elal
Ġanalys ere
kÃª ÅŁÃ®
c tic
Ġwex tÃª
ĠAca dem
nivÃ¥ et
el Ãªn
ĠáĥĽ áĥĺáĥĹ
Ġdini vÃ®
do s
ĠGol den
Ġbr yr
zi e
áĥł áĥĲáĥª
ĠáĥĴ áĥĿáĥļ
ĠB rann
Ġ| .
Ġtredje part
r el
tera pi
Ġbu ssen
ella s
ĠX el
av talen
Ġbetyd ningen
Ġstand arder
Ġtradisjon er
at Ã¸rer
l Ã¦rer
Ġusi kkerhet
Ġide en
Ġoppda ger
Ġvanlig ste
Ġfor val
iser es
ĠÃ¸nske lig
Ġgir tina
Ġty kk
Ġbakgrunn en
å Ĩ
ĠHum phrey
Ġgjen stand
Ġgener asjoner
H C
Ġdel ene
le we
Ġk en
ved tak
F U
Ġsk jel
ĠHes en
bi lt
Ġg ora
ĠH eg
Ġbudsj etter
ĠKu ta
ĠT ran
bo ard
Ġpo ker
OS I
D ar
gra ph
ĠT ea
ck ing
ĠpÃªÅŁ eng
et ting
ĠHen sikten
fÃ¸d te
Ġplatt form
Ġarrang ere
ĠGrÃ¸ n
U ni
ang rep
Ġtidspunkt et
Ġad var
ĠbibÃª jin
Ġáĥĵáĥ£áĥĵ áĥĺáĥ¨
Ġmobilt elefoner
K ili
Ġsp iste
ĠB eh
Ġsam handling
ĠDes sverre
per i
ãģ ®
E ller
Ġbi Ã§e
Ð¸ Ñģ
Ġáĥ£áĥĵáĥĺáĥĵ áĥĲáĥ¨áĥĺ
áĥĿáĥĳ áĥ£áĥł
Ġr an
beki rÃª
ĠbaÅŁ Ã»r
ĠC y
L AN
Ġmalper Ãªn
ler es
ĠO lym
eg en
N ord
Ġb os
Ġkon sta
Ġfla sh
ĠT el
ĠM B
Ġb ele
ĠS ke
pan y
ve it
ĠT uli
Ġmedlem skap
Ġhe qÃª
Ġmin ori
Ġproduksjon s
ĠL ug
ĠtÃ¸r ke
Ġsykeple ier
Ġg ja
Ġrappor tering
ĠW er
he ke
Ġforsk rifter
ĠA c
Ġopp mun
ga vene
Ġcar Ã®
Ġvest lige
Ġf eder
18 3
ĠMÃ¸ tet
ĠDor ot
j as
ĠskjÃ¸ nte
Ġav iser
Ġdan ne
Ġindi ka
? "
Ġta lt
Ġgrun net
i kk
Ġinn i
z we
Ġxw u
ĠV oks
ĠÃ® ra
Å ¡
ĠIn no
en ia
Ġarman c
Ġk eno
Ġover fÃ¸rt
Ġpey wen
k ano
Ġras tÃª
ĠSe c
K LA
Ġa fri
bar an
ĠAza d
ĠáĥĿáĥłáĥ Ĺ
ĠÃ§Ãª kirina
ĠpiÅŁ te
Ġbim Ã®ne
ru a
wi la
Ġhin ekÃ®
ĠMala y
æ º
ĠÐ ¼
ĠCo ca
b red
áĥĲáĥĴ áĥĲáĥĵ
ĠC li
ren es
gu li
Ġx eta
Ġforklar ing
Ġopp lÃ¦ringen
ĠáĥĽáĥ£áĥ ŁáĥĲáĥĽ
ĠWe zÃ®rÃª
tu l
ĠB ashi
Ġvurder ingen
Ġba det
Ġd rÃ¸y
Ġmes ele
wa l
Ġut gaven
Ġkonkur ren
beveg elsen
be folk
t Ã³
ku t
ki kk
èµ Ħ
Ġme y
meto der
Ġsitt ende
Ġfem te
Ġke tine
Ġly set
ĠÃ® fade
Ġlang vari
manc kÃ®
dari yÃª
19 0
je til
Ġte ke
Ġx Ãªr
pe ym
Ġc ena
ĠC ra
æº Ĳ
ĠU ru
Ġter min
G er
ĠSara h
b Ã®ne
ĠL ongi
am pu
je e
c anÃª
Ġfor dy
M is
Ġku lt
ĠR une
ĠK jÃ¸r
ĠÐ ½
Ġfrem ste
ĠEri c
industri en
mas sasje
Ġsyk ler
Ġtiltak ene
H en
Ġkandida ter
Ġm isjon
es enter
áĥ® áĥĲáĥĸ
ĠstÃ¸rr elser
Ġang repet
Ġáĥĳ áĥĿáĥļ
ĠavgjÃ¸r else
ĠLeon ard
Ġvide os
Ġhy pp
Ġjourna lister
A nn
ĠáĥĿáĥłáĥĴáĥĲáĥľ áĥĺáĥĸ
Ã® tÃ®
áĥł áĥĶ
ĠáĥľáĥĲáĥĽáĥ£ áĥĶáĥ¤áĥĺáĥĹ
n ar
Ġdemokrasi yÃª
Ġtilsyn elatende
Ñ Ħ
ĠPremi er
Ġju bile
andin Ãªn
Ġdor pÃª
l und
ä½ ĵ
ea v
F PA
pe o
ĠFas te
Ġparkering splass
z ed
ĠK vin
b Ã¸l
Ġsal am
Ġta kke
ĠPro blemet
fÃ¸r inger
Ġrekrutter ing
Ġgjenta tte
Ġu til
ĠC C
ĠI dd
Ġut arbeide
Ġnettles eren
Ġarbeids liv
ĠSing le
ti us
Ġtra v
Ġgu ttene
Ġanaly ser
Ġtv unget
ss p
Ġdan sk
Ġarranger er
der ing
Ġgjel d
ĠJ ong
Ġbi xin
un gi
Ġdefin ert
Kor ea
ĠB is
y ene
ek k
ĠAgen da
Ġredu seres
Ġh eger
Ġkreditt kort
end Ãª
ĠForsvar et
Ma g
f ro
Ġi OS
G B
ĠÃ§ ew
Ġha to
ir Ãª
ĠCe c
áĥĲáĥ °
s la
.... ....
Ġer e
Ġáĥ ļáĥĺ
áĥķ áĥĺáĥĹ
Ġsam spill
áĥĲáĥĹ áĥ£
Ġsa zÃ®
Sa fari
Ġc ot
Ġáĥł áĥĲáĥĺ
é Ľ
ĠB emba
Ġk enÃª
ĠJ AM
Ġom fang
Ġdest Ã»ra
Ġsty kke
Ġamb isjoner
Ġs tiv
Ġtre ffer
pÃ¸r smÃ¥l
hi e
Ġskjema et
ĠDÃªr sim
Ġsk ju
pÃ¸r sel
Ġli ni
ĠSa ken
b ania
kjen nelse
ĠMiro v
Ġover fÃ¸ring
Ġvari ert
Ġnev nes
dÃ® a
Ġk ele
Amer ika
ha ts
ĠS ul
ho t
æ Ī
ĠO ld
D el
ot ter
h ttp
ĠMo si
ĠId li
ĠF rÃ¸
hem e
Ġparas tin
ĠL Ã¸s
cc os
Ġderke tina
Ġtil lat
ĠAm ri
ĠLes otho
jes el
am ana
ĠS wahili
tal ene
her a
sta sjon
Ġven nene
ese ka
Ġmalba tÃª
Ġsni ll
Ġha vne
Ġsku ffet
Ġu lem
Ã¸y er
Ġbel kÃ®
grupp ene
ĠKOM MUN
Ġmunt lig
zu ela
Ġkost nadene
re gel
ĠS ia
em bu
Ġsannsyn lighet
ĠHa j
Ġdek kes
Ħ ¢
inn legg
Ġtry kket
Ġvenn inne
fan t
Ġlin k
veg en
p esa
Ð°Ð½ Ð´
Ġm om
ĠÅŁ andin
ran Ãªn
tikk el
and en
Ġre isen
ĠK ish
¡áĥ® áĥĺáĥł
¨ áĥĶ
Ġbas e
ĠNew ro
Ġsi be
ĠáĥŀáĥĿáĥļ áĥĺáĥ¢
ke y
ĠLu is
Ġáĥ¤ áĥĲáĥľ
Ġli ko
áĥĿáĥ ¯
ĠM ela
Ġhos pital
ĠpiÅŁtgi rÃ®
p oni
uku ma
Ġáĥłáĥ ©áĥ¥
Ġgre i
Ġb ati
Ġe ÅŁÃ®
ra eli
ĠMa ku
ĠS ande
Ġaka m
e arch
F oto
j ama
Ġansvar lige
A skari
om vi
ĠI sh
Ġc il
ban tu
ÑĢ Ðµ
ĠLe banon
ĠSch olar
éĽ Ĩ
ĠH ashim
som wa
ĠPar lam
ĠH imo
ĠO thman
ĠG PA
Ġrefer anse
ĠHay dom
Ġfor fall
ĠKa bila
Ġsk yl
Ġver sjonen
fer ien
ĠC ash
ĠStor ting
ĠTen k
Ġu h
Ġregistrer er
Ġhjem mes
Ġnas name
Ġnirx Ãªn
Ġky sten
Ġom handler
Ġmar k
Ġanbefa lt
Ġkob let
ati ya
Ġkart legging
ĠG il
v ester
tu elle
Ġhin dek
ĠEli za
Ġdaxuyan iyÃª
Ġwaa aaa
uli o
ĠH op
Ġdet s
ĠHer man
Ġroj nam
Reg jeringen
Ġpi Ã§Ã»k
ĠWa is
Ġali n
gel o
ĠTo wn
áĥĿáĥľáĥ ĵ
b rev
Ġmi rÃ®
K al
ĠS us
áĥķ áĥĶáĥľ
Ġhy tta
M jadala
ķ Ĩ
Ġku liwa
ha dhiri
ji funza
ji wekea
Ġki do
Ġvi pele
Ġhu wezi
ĠN dogo
ek elezwa
Ġmi chakato
Ġmi pakani
kuwa nga
Ġali taka
ĠKi da
ĠKi juu
he ha
uma h
Ġame hitimu
Ġana pata
Ġra kaa
Wa wakilishi
Ġwalio hitimu
Ġwaki angalia
ĠSerikali ni
Ġkuji funzia
Ġinayo sababisha
tem bele
th ini
Ġkuta zama
Ġaliye wahi
Ġnye ti
Ġpor ini
Ta tu
Ġlina onyesha
yara ka
Ġakim karibisha
ĠChi pukizi
ĠSom anda
ĠMil anzi
ĠMA ELEZO
ĠMali po
Ja pokuwa
ĠKil ele
Ġmwanga za
Ġkif amilia
ben havn
Ġaliy es
Ġuv unaji
ĠMawa kili
ĠCA F
Ġmapa cha
gus wa
Ġucha wi
Ġuny enyekevu
Hos pitali
ĠMsan ge
åį ıå
WAMA TA
ĠMwila pwa
Ġping amizi
èĥ½ æºĲ
ĠNyakab indi
åįıå ķĨ
A ICC
I wapo
W asichana
s umbua
Ġwa aminifu
Ġn duli
ar ekani
ĠM we
ĠM kopo
ĠM kenya
Ġma chi
Ġma bango
le pole
Ġki haru
hu li
ĠU umbaji
ĠU pasuaji
Ġhu leta
Ġhu tumika
Ġam eshindwa
ĠMa bula
ĠR asi
Ġili pigwa
Ġili shuka
Ġat hira
ema lizika
ĠKi fungu
ĠKi bantu
Ġaki elekea
Ġwali ko
Ġwali shiriki
Ġina pata
Ġina pakana
Ġuli patikana
Ġuli yota
Ġkan isani
Ġan diko
Ġiliyo baki
Ġkun ya
Ġkun ufaika
Ġame andika
ĠKa beho
Ġime onesha
sim amishwa
Ġkum shukuru
Ġkuka milishwa
Ġume onesha
Ġwata hiniwa
Ġwanao wa
Ġkut eleza
Ġnam bari
Ġfu kwe
pu uza
buni wa
Ġhawa po
Ġhaya ku
pig ania
Ġmab omba
Ġms wada
Ġkuvu ta
Ġwaka guzi
ĠTAN APA
tim isho
Ġmbo ga
Ġinayofuata Programu
blo gu
ĠKir umba
kimbi zi
ĠMong ela
Kur atibu
Un gependa
Ġkuv amiwa
ĠMare kebisho
rud ishwa
ĠKy ela
ĠUsw idi
ĠEld oret
ĠMaf inga
Ġamesh inda
ĠTanda le
vim be
ĠBun ju
Ġwavu lana
ĠBwa wani
porom oka
ĠTuku fu
Ġkitaka cho
ĠKiji chi
Ġkiharu si
Ġuliyota fsiri
K ansela
M tandao
U tekelezaji
b log
v yom
Ġwa lig
Ġwa dudu
Ġku kati
Ġku jumuika
Ġa itwa
Ġu windaji
am zito
di plomasia
ĠK ansela
ĠS anga
Ġki man
ch oma
Ġha ifai
Ġvi fuatavyo
Ġvi paumbele
ĠT BC
Ġkuwa kabidhi
Ġmi lango
ĠMa uli
ĠMa fanikio
Ġali kubali
Ġali mua
Ġcha pa
Ġili endelea
Ġili tangaza
ĠKi jaji
sh we
sh ambulia
Ġwana om
Ġwana ch
Ġwana chi
fi ria
ĠO bado
Ġina faa
ĠWa jibu
ishi o
ĠTa fadhali
Ġtu taka
Ġuna lenga
Ġame amua
ĠMi chango
hari bika
Ġwame kamatwa
Ġwame kusanyika
Ġkup ona
Ġkum waga
uli sha
Ġzina toka
Ku shiriki
Ġita fanyika
Ġkuwe kewa
oko zi
Ġmaka da
Ġnye usi
Ġfu jo
wez ekani
Ġuha sibu
Ġkua hirishwa
fiki ana
rik ishwa
Ġimet o
ĠMta guso
Ġkima a
ĠMil enia
ĠOn gezeko
Ġkusom wa
Ġmchu ano
ĠDha habu
Ġmj amzito
Ġkulazim ishwa
ĠFul ani
Ġkija cho
embu zi
Ġwa asisi
Ġu igizaji
Ġu imara
ku kuru
zi pata
zi taka
Ġma bwawa
ĠN jo
Ġkuwa ka
Ġkuwa tumia
ĠW okovu
Ġba iske
pi giwa
ĠKi pa
Ġaki ongozana
Ġina ongozwa
Ġuli onyesha
Ġame omba
Ġpo tofu
Ġwame kubaliana
Ġkum saidia
Ġume kuja
Ġume pangwa
ĠKam barage
Ġaliye zaliwa
Ġkuli pia
Ġkuna kuwa
Ġmaa dui
Ġwasi opungua
Ġmaj ani
Ġmaj ambazi
Ha kika
Ġbet ri
Ġmag endo
Ġkiu tawala
Ġja ji
TA MISEMI
Ġdar asani
tegem ezi
Ġaliwa shukuru
Ġkushi rikisha
Ġkukama ta
Ġutum bo
Ġgha la
Ġyaki endelea
usu rika
Ġdro o
zama ji
Ġmk andarasi
meri poti
Ġuti i
ĠPasi fiki
ĠMiz engo
ĠTwa weza
ingili ano
Ġlab da
ĠBuhi gwe
Mt angazaji
Ġbaiske li
Ġm fungo
Ġwa uguzi
Ġh asimu
Ġku ongozwa
Ġku lenga
ĠM tig
ĠM so
Ã® s
um we
ĠU BA
Ġkuwa fahamisha
ĠMa uzo
ĠTa fakari
ora ji
áĥĲáĥļ áĥĶáĥ¤áĥ¡
Ku kamatwa
Ġita kua
Ġzilizo wasilishwa
Ġru lle
Ġja pokuwa
Ġkin ara
Ġakim pongeza
Ġkuvu ka
Ġilipo pitishwa
ĠMawa zo
Ġkik ombe
Ġil hali
ĠChu wa
ĠMtig umwe
U kosefu
Ġwa wezeshaji
ka biliana
ĠK WA
Ġki china
ĠMa kanisa
bi anchi
Ġuli fanywa
asa babisha
idi e
ĠBi kira
Ali zaliwa
Ġnya dhifa
ĠMat hew
Ġgha fi
Ut aratibu
Ġwach ungaji
Ġtilfredss tillende
SER IKA
SERIKA LI
fi chua
Ġny enzo
Ġyaliyo tangazwa
Ġuki wemo
Ġkie kumene
beste mm
Ġvidereutvik le
Ġr inge
ĠNgu zo
es si
Ġli hev
sy stemer
Ġprinsi pper
viten skape
st Ã¸r
Ġdel te
pa kke
sp Ã¸r
Ġarbeid skraft
form id
ĠHor daland
Ġi ld
ĠnÃ¦r liggende
Ð¾ Ñģ
miljÃ¸ er
Ġbeh Ã¸ver
ĠMour inho
or gen
go da
fi c
p ore
Ġu vanlig
ĠA mo
ĠG ama
Ġq ise
us o
Ġdigo tin
Ġlo ve
kk yn
ski l
k ki
ret e
Ġri ks
ĠFr p
h Ã»
Ġkli pp
Ġwelati yÃªn
Ġgjen spe
Ġlag es
ĠÃ¥p ningen
Ġblo gge
ĠkjÃ¸ pet
ĠK jen
Ġl oja
Ġbi llett
Ġ- >
Ġnettles er
Ġoff er
Ġju la
Ġdatamaskin er
Ġta i
st rand
ĠBedir xan
Ã¸ kere
Ġfa ttige
Ġbland ing
Ã¸ sten
ĠK Ã¸
Ġread ing
Ġtran sa
ashi on
áĥĿáĥ© áĥĲáĥĽ
ĠL or
ĠáĥĲáĥĻáĥĽ áĥĲáĥĵáĥĴáĥĺáĥľ
Ġciva k
áĥĻ áĥĿ
ĠdibÃª jim
ĠS co
ĠkoÃ§ ber
ĠáĥĺáĥĽ áĥŀáĥĶáĥł
Ġf inger
ĠKha sho
as yona
ĠGod kjenning
ĠSt Ã¸r
Ġgj est
ĠStol tenberg
Ġinn fÃ¸re
j Ã¦re
M ens
ze ka
B ruk
Ġbo satt
Ġperson al
ĠVil la
r Ã©
Ġg yldig
Ġselv til
ĠsnÃ¸ en
san te
sv oll
v aniya
Ġe tiske
IC EF
h anÃ®
Ġbli n
Ã® sÃª
Ġinvester e
iste fa
wan di
V ER
ĠT C
Ġtilsvar er
Ġb ut
Ġn era
Ġdika rÃ®
r Ã®n
si us
Ġplan ene
ĠContin ue
ãĥ ¼
1 18
ĠK AN
áĥĲáĥł áĥĲáĥļáĥ£
KO LL
Ġdi g
po si
Ġpar k
ge a
ĠÅŁ ar
Ġentrepren Ã¸r
ĠEliza beth
ĠÃ® stÃ®
ĠÃĺ r
Ġkjem ikali
Ġle ketÃ¸y
ĠpolÃ® san
Ġáĥłáĥ ĵ
áĥĺáĥĶáĥ¤ áĥĺáĥ¨
áĥĳáĥŁ áĥĲáĥĵáĥĲáĥļ
t oma
kor tet
ĠmÃ¸r k
áĥ£áĥł áĥĶ
am an
áĥ£áĥĵ áĥĶáĥ¡
ĠEri ksen
Ġberjewen diyÃªn
ĠH MS
TA L
áĥĲáĥľ áĥĹ
ĠL il
ĠO z
ĠH iz
T Ãª
ĠS ende
ĠH PG
ĠL Ã¦r
ĠY il
Ġsen gen
Ġdisku sjoner
Ġklubb ens
Ġb ot
Ġder Ã®
stri d
Ġattra ktive
Ġpro paganda
¡ áĥ¢
Ġsi m
Ġbarnd om
ĠArbeider partiet
ĠsÃ®ya set
Ġbi ki
Ġdi zane
ĠA ina
ro v
Ġheval Ãª
Ġd ara
IS O
ç »
Ġsa x
Ġorigin al
ĠHe y
kÃ® ne
ho st
17 00
Ġne xwe
Ã» ma
ĠR is
ĠÃ§alaki yÃª
ra ppor
Ġmann lige
ela ta
Ġbar ber
ts lipp
Ġra batt
Ġprodu sent
Ġbeliggen het
Ġboks tav
ĠTher esa
Ġmang fol
Ġs Ã¦re
p ere
ĠsÃ¸k nads
Ġg arder
ĠTil tak
19 06
Ġhoved staden
Ġhel dige
Ġtilrettele gging
L P
Ġho bby
Ġrea ksjon
Ġa ff
Po liti
k li
Ġunder teg
Ġmaksim al
Ġo lÃ®
Ġpr omo
Ġdem ek
Ġáĥ£ áĥłáĥ
ver i
ĠÅŀeng alÃª
lig ht
áĥĽ áĥĿáĥ¡
ĠC ur
ĠáĥĿáĥ¤ áĥĺáĥªáĥĺ
ĠÃ§ek darÃªn
ĠáĥĽáĥ£áĥľ áĥĲáĥ©áĥĶáĥĽ
ori da
ĠáĥĻ áĥł
er ra
áĥĺáĥł áĥĺáĥľáĥ£
Ġp leie
ĠU M
lan se
Ġstjer ner
ti vis
ĠkjÃ¦r ester
Ġke eper
ĠbibÃª je
Ġdriv stoff
Ġxweza yÃ®
s per
ĠHa iti
Ġinstalla sjon
Ġraye darÃªn
ĠFor eta
bet alt
Ġdokumen tert
ĠMona co
Ġku tte
KK E
Ġgja ldt
Ġopp skriften
ĠrÃ¥d hus
Ġfei re
Ð¸ Ð¼
ha tt
la sting
Ã¸y en
Ġmest ring
ks Ã¥
Ġel sket
Ġbyg de
ĠsÃ¸n nen
Ġro ller
[...]
