{"[UNK]":0,"!":1,"\"":2,"#":3,"$":4,"%":5,"&":6,"'":7,"(":8,")":9,"*":10,"+":11,",":12,"-":13,".":14,"/":15,"0":16,"1":17,"2":18,"3":19,"4":20,"5":21,"6":22,"7":23,"8":24,"9":25,":":26,";":27,"<":28,"=":29,">":30,"?":31,"@":32,"A":33,"B":34,"C":35,"D":36,"E":37,"F":38,"G":39,"H":40,"I":41,"J":42,"K":43,"L":44,"M":45,"N":46,"O":47,"P":48,"Q":49,"R":50,"S":51,"T":52,"U":53,"V":54,"W":55,"X":56,"Y":57,"Z":58,"[":59,"\\":60,"]":61,"^":62,"_":63,"`":64,"a":65,"b":66,"c":67,"d":68,"e":69,"f":70,"g":71,"h":72,"i":73,"j":74,"k":75,"l":76,"m":77,"n":78,"o":79,"p":80,"q":81,"r":82,"s":83,"t":84,"u":85,"v":86,"w":87,"x":88,"y":89,"z":90,"{":91,"|":92,"}":93,"~":94,"¡":95,"¢":96,"£":97,"¤":98,"¥":99,"¦":100,"§":101,"¨":102,"©":103,"ª":104,"«":105,"¬":106,"®":107,"¯":108,"°":109,"±":110,"²":111,"³":112,"´":113,"µ":114,"¶":115,"·":116,"¸":117,"¹":118,"º":119,"»":120,"¼":121,"½":122,"¾":123,"¿":124,"Â":125,"Ã":126,"Ä":127,"Å":128,"Æ":129,"Ç":130,"È":131,"É":132,"Ê":133,"Ë":134,"Ì":135,"Î":136,"Ï":137,"Ð":138,"Ñ":139,"Ò":140,"Ó":141,"Ô":142,"Õ":143,"Ö":144,"×":145,"Ø":146,"Ù":147,"Ú":148,"Û":149,"Ü":150,"ß":151,"à":152,"á":153,"â":154,"ã":155,"ä":156,"å":157,"æ":158,"ç":159,"è":160,"é":161,"ê":162,"ë":163,"ì":164,"í":165,"î":166,"ï":167,"ð":168,"Ā":169,"ā":170,"Ă":171,"ă":172,"Ą":173,"ą":174,"Ć":175,"ć":176,"Ĉ":177,"ĉ":178,"Ċ":179,"ē":180,"Ė":181,"Ę":182,"ę":183,"ĝ":184,"Ġ":185,"ġ":186,"Ģ":187,"ģ":188,"Ĥ":189,"ĥ":190,"Ħ":191,"ħ":192,"Ĩ":193,"ĩ":194,"Ī":195,"ī":196,"Ĭ":197,"ĭ":198,"Į":199,"į":200,"İ":201,"ı":202,"Ĳ":203,"ĳ":204,"Ĵ":205,"ĵ":206,"Ķ":207,"ķ":208,"ĸ":209,"Ĺ":210,"ĺ":211,"Ļ":212,"ļ":213,"Ľ":214,"ľ":215,"Ŀ":216,"ŀ":217,"Ł":218,"ł":219,"Ń":220,"wa":221,"Ġk":222,"Ġm":223,"ya":224,"Ġwa":225,"en":226,"er":227,"an":228,"li":229,"áĥ":230,"Ġya":231,"ka":232,"ti":233,"Ġn":234,"in":235,"Ġs":236,"Ġh":237,"Ġku":238,"Ġa":239,"ar":240,"et":241,"Ġd":242,"Ġu":243,"Ġb":244,"ĠM":245,"am":246,"Ã¥":247,"ta":248,"is":249,"Ġkwa":250,"or":251,"Ġna":252,"Ġf":253,"ku":254,"Ġv":255,"el":256,"ati":257,"Ġo":258,"ha":259,"zi":260,"la":261,"Ġi":262,"es":263,"Ãª":264,"on":265,"Ġp":266,"za":267,"ji":268,"ki":269,"Ġma":270,"te":271,"ke":272,"un":273,"hi":274,"om":275,"Ġkati":276,"to":277,"ba":278,"Ã¸":279,"Ġkatika":280,"ia":281,"Ã®":282,"le":283,"ri":284,"da":285,"yo":286,"di":287,"Ġog":288,"um":289,"ĠK":290,"as":291,"ko":292,"ye":293,"re":294,"ĠS":295,"ing":296,"Ġg":297,"ra":298,"ed":299,"na":300,"em":301,"Ġki":302,"ch":303,"Ġti":304,"Ġha":305,"si":306,"ja":307,"tu":308,"Ġhi":309,"Ġfor":310,"we":311,"Ġj":312,"áĥĲ":313,"Ġmwa":314,"Ġvi":315,"de":316,"wen":317,"ana":318,"ter":319,"Ġáĥ":320,"ĠD":321,"ĠT":322,"ĠÃ¥":323,"ge":324,"ĠA":325,"fa":326,"zo":327,"áĥĲáĥ":328,"hu":329,"Ġtil":330,"ĠU":331,"Ġhu":332,"bu":333,"cha":334,"ini":335,"Ã»":336,"Ġni":337,"go":338,"ani":339,"Ġza":340,"Ġt":341,"Ġin":342,"ele":343,"Ġen":344,"Ġer":345,"Ġam":346,"ara":347,"ĠB":348,"eg":349,"áĥĺ":350,"kuu":351,"Ġav":352,"Ġla":353,"wenye":354,"ĠH":355,"mu":356,"al":357,"20":358,"gu":359,"ari":360,"ĠN":361,"Ġkuwa":362,"fu":363,"ek":364,"Ġmi":365,"Ġkuto":366,"oja":367,"po":368,"Ġsom":369,"ĠW":370,"ene":371,"koa":372,"ĠpÃ¥":373,"ru":374,"Ġdet":375,"ro":376,"ga":377,"sa":378,"and":379,"ne":380,"ma":381,"Ġli":382,"Ġba":383,"ĠJ":384,"kuwa":385,"Ġbi":386,"ĠMa":387,"fan":388,"Ã¸r":389,"me":390,"Ġmwaka":391,"Ġl":392,"Ġ(":393,"tt":394,"pp":395,"âĢ":396,"ika":397,"Ġmed":398,"Ġali":399,"st":400,"ĠR":401,"ĠI":402,"bi":403,"ler":404,"Ġw":405,"Ġde":406,"ver":407,"der":408,"áĥĺáĥ":409,"Ġta":410,"ĠP":411,"be":412,"Ġr":413,"Ġsi":414,"ama":415,"ano":416,"Ġcha":417,"lo":418,"pi":419,"ng":420,"áĥĶ":421,"ÅŁ":422,"Ġdi":423,"201":424,"Ãªn":425,"Ġut":426,"Ġka":427,"Ġili":428,"lig":429,"Ġhiyo":430,"ĠE":431,"ina":432,"ho":433,"pa":434,"ĠC":435,"Ã¦":436,"Ġamba":437,"Ġkwenye":438,"ker":439,"jen":440,"ĠÃ»":441,"ili":442,"ĠF":443,"áĥĿ":444,"Ġat":445,"ema":446,"gi":447,"jon":448,"se":449,"isi":450,"Ġhar":451,"fun":452,"chi":453,"bo":454,"ada":455,"Ġmu":456,"end":457,"wan":458,"ĠMkoa":459,"Ġe":460,"dhi":461,"Ġet":462,"ĠL":463,"áĥĶáĥ":464,"kati":465,"ĠKi":466,"ifa":467,"ĠV":468,"isha":469,"vi":470,"kke":471,"kt":472,"Ġvya":473,"amu":474,"ĠMkuu":475,"su":476,"ang":477,"Ġaki":478,"Ġkutoka":479,"sh":480,"Ġji":481,"Ġwana":482,"kk":483,"Ã¥r":484,"Ġsa":485,"sk":486,"ten":487,"fi":488,"áĥĿáĥ":489,"ere":490,"Ġom":491,"Ġwali":492,"ĠO":493,"Ġre":494,"Ġina":495,"Ġst":496,"id":497,"Ġda":498,"áĥ£":499,"ning":500,"ongo":501,"fanya":502,"bwa":503,"laya":504,"ĠG":505,"Ã¦r":506,"Ġopp":507,"Ġzi":508,"ĠWa":509,"ll":510,"sha":511,"00":512,"Ġx":513,"Ġden":514,"Ġbaada":515,"tum":516,"ur":517,"anda":518,"Ġuli":519,"mba":520,"du":521,"asi":522,"Ġmen":523,"Ġser":524,"ss":525,"ĠÃ":526,"Ġikke":527,"ett":528,"Ġkan":529,"ami":530,"vyo":531,"ung":532,"yÃª":533,"ilaya":534,"he":535,"pan":536,"Ġju":537,"shi":538,"do":539,"moja":540,"for":541,"..":542,"Ġle":543,"jili":544,"ger":545,"uni":546,"gen":547,"kiwa":548,"den":549,"chini":550,"Ġan":551,"ĠâĢ":552,"je":553,"ol":554,"Ġwakati":555,"Ġal":556,"asa":557,"Ġfra":558,"Ġno":559,"Ġz":560,"ishi":561,"áĥ£áĥ":562,"Ġhuo":563,"amoja":564,"oni":565,"ks":566,"19":567,"Ġvar":568,"ish":569,"mi":570,"ua":571,"mer":572,"Ġinn":573,"het":574,"est":575,"ingi":576,"ling":577,"ine":578,"ikali":579,"ir":580,"idi":581,"Ġdu":582,"Ġkom":583,"od":584,"Ġpamoja":585,"Ġse":586,"anz":587,"va":588,"ist":589,"Ġny":590,"fany":591,"rika":592,"ser":593,"tet":594,"uri":595,"lu":596,"ĠTa":597,"Ġajili":598,"zaji":599,"che":600,"endele":601,"iaka":602,"Ã®n":603,"liwa":604,"ongozi":605,"sen":606,"uma":607,"Ġman":608,"jÃ¸":609,"Ġc":610,"Ġble":611,"Ġmiaka":612,"os":613,"men":614,"isa":615,"ve":616,"vu":617,"Ġwan":618,"taifa":619,"Ġsam":620,"ĠDet":621,"kwa":622,"Ġjuu":623,"anga":624,"kana":625,"Ġum":626,"Ġhuu":627,"lia":628,"eller":629,"guzi":630,"Ġyake":631,"ende":632,"Ġmkoa":633,"Ġwatu":634,"tek":635,"Ġtu":636,"limu":637,"Ġto":638,"husu":639,"ot":640,"ania":641,"are":642,"sili":643,"Ġseg":644,"tano":645,"Ġzaidi":646,"gg":647,"zwa":648,"Ġder":649,"łáĥ":650,"adhi":651,"Ġnchi":652,"ste":653,"Ġjeg":654,"kubwa":655,"Ġbli":656,"il":657,"kazi":658,"Ġska":659,"Ġpro":660,"ze":661,"Ġkwan":662,"anzania":663,"Ġnchini":664,"ske":665,"Ġuna":666,"Ġiliyo":667,"pe":668,"Ġmoja":669,"ner":670,"Ġmkuu":671,"yan":672,"Ġkazi":673,"weza":674,"Ġhe":675,"Ġuta":676,"ĠAf":677,"ell":678,"ĠVi":679,"Ġmw":680,"Ġy":681,"us":682,"amii":683,"Ġxwe":684,"ber":685,"ungu":686,"asjon":687,"bali":688,"Ġun":689,"jini":690,"áĥĲáĥľ":691,"ord":692,"Ġch":693,"esha":694,"Ġkama":695,"Ã¸y":696,"ĠTanzania":697,"kutano":698,"ĠmÃ¥":699,"onge":700,"ĠsÃ¥":701,"fanyika":702,"ham":703,"Ġkun":704,"ĠSer":705,"ĠSa":706,"Ġar":707,"sÃ¥":708,"pata":709,"Ġvil":710,"net":711,"Ġbe":712,"jer":713,"funzi":714,"Ġkwanza":715,"Ġkutoa":716,"isho":717,"per":718,"Ġover":719,"Ġame":720,"ns":721,"este":722,"oma":723,"ran":724,"Ġana":725,"kti":726,"rin":727,"ĠZ":728,"Ġkuhusu":729,"ren":730,"zung":731,"200":732,"toa":733,"Ã¦re":734,"sema":735,"zungum":736,"Ġeller":737,"Ġra":738,"Ġme":739,"else":740,"ĠKa":741,"Ġ-":742,"wi":743,"Ġmji":744,"Ġwake":745,"ĠÃ§":746,"Ġhii":747,"ĠMi":748,"Ġbru":749,"Ġkam":750,"jÃ¸r":751,"ld":752,"pen":753,"riki":754,"man":755,"Ġmara":756,"Ġetter":757,"ishwa":758,"ĠWilaya":759,"ĠRa":760,"cho":761,"yr":762,"bari":763,"esema":764,"eshi":765,"ul":766,"Ġmwan":767,"ĠogsÃ¥":768,"Ġkon":769,"und":770,"Wa":771,"met":772,"hari":773,"tter":774,"Ġher":775,"dig":776,"Ġsk":777,"umu":778,"kea":779,"ĠÃ¸":780,"Ġskal":781,"taka":782,"ort":783,"Ġhivyo":784,"ĠfÃ¸r":785,"Ġwalio":786,"lan":787,"tte":788,"indi":789,"tin":790,"ĠjÃ®":791,"ent":792,"Ġmwenye":793,"ĠÃ¥r":794,"her":795,"Ġye":796,"Ġbo":797,"Ġwilaya":798,"Ġved":799,"Ġmin":800,"Ġber":801,"Ġambayo":802,"sjon":803,"ris":804,"hem":805,"Ġwaki":806,"Ġhali":807,"ĠSi":808,"ĠY":809,"elt":810,"ziri":811,"ĠHa":812,"edha":813,"Ġime":814,"pango":815,"Ġkufanya":816,"ni":817,"jia":818,"fisi":819,"let":820,"Ġsp":821,"Ġwenye":822,"Ġulio":823,"Ġpo":824,"ambo":825,"Ma":826,"ring":827,"babu":828,"ĠáĥĽ":829,"Ġne":830,"Ġhv":831,"áĥĲáĥ¨":832,"ume":833,"Ġshu":834,"ĠRu":835,"ĠMu":836,"ora":837,"Mkuu":838,"Ġkubwa":839,"Ġsiku":840,"áĥĺáĥ¨":841,"ĠSerikali":842,"arifa":843,"sti":844,"Ġpi":845,"Ġmwana":846,"yn":847,"shiriki":848,"tua":849,"Ġau":850,"no":851,"atibu":852,"Ġes":853,"Ġwi":854,"ote":855,"ven":856,"Ġmmoja":857,"2018":858,"lige":859,"yu":860,"Ġkab":861,"Ġte":862,"oro":863,"Ġkwamba":864,"toto":865,"kia":866,"Ġmer":867,"var":868,"Ġhilo":869,"kiti":870,"mas":871,"Ġgjen":872,"jibu":873,"pita":874,"ei":875,"beid":876,"sta":877,"Ġand":878,"chaguzi":879,"hemu":880,"uku":881,"ĠAfrika":882,"dde":883,"endeleo":884,"Ġmbali":885,"anchi":886,"jum":887,"sp":888,"ska":889,"ff":890,"res":891,"kum":892,"sim":893,"ok":894,"Ġsel":895,"jel":896,"bar":897,"10":898,"ĠMar":899,"Ġuwe":900,"ela":901,"len":902,"umo":903,"dani":904,"nes":905,"wezi":906,"Ġsek":907,"kon":908,"tekele":909,"kini":910,"im":911,"eo":912,"ken":913,"ĠKu":914,"âĢĿ":915,"det":916,"Ġfa":917,"ĠvÃ¦re":918,"tÃ®":919,"ĠRais":920,"Ġnoen":921,"fasi":922,"dili":923,"...":924,"Ġpia":925,"tanda":926,"ĠDar":927,"radi":928,"Ġáĥĵ":929,"ry":930,"Ġakiwa":931,"esi":932,"Ġbaadhi":933,"Ġfi":934,"vis":935,"ambu":936,"lle":937,"lewa":938,"2017":939,"ly":940,"Ġsasa":941,"ft":942,"ong":943,"wanja":944,"Ġkuu":945,"Ġhabari":946,"Ġgi":947,"jwa":948,"umi":949,"Ġambao":950,"zungumza":951,"nd":952,"Ġsababu":953,"Ġhuyo":954,"Ġnafasi":955,"Ġhan":956,"Ġbar":957,"áĥĲáĥļ":958,"Ã¦rt":959,"ĠUmoja":960,"Ġwe":961,"Ġtaarifa":962,"Ġdette":963,"heria":964,"Ġnor":965,"Ġmuda":966,"Ġelimu":967,"pya":968,"Ġwame":969,"Ġserikali":970,"ket":971,"Ġfin":972,"dha":973,"ĠfÃ¥":974,"laam":975,"hauri":976,"ĠÅŁ":977,"tumia":978,"nom":979,"Ġhizo":980,").":981,"âĢĻ":982,"rÃ¸":983,"Ġfedha":984,"ľáĥ":985,"amo":986,"duma":987,"som":988,"kker":989,"unge":990,"Ġkup":991,"ĠNor":992,"Ġkila":993,"Ġzili":994,"twa":995,"anza":996,"set":997,"Ã¸l":998,"ĠÂ":999,"Ġhadde":1000,"gr":1001,"ata":1002,"Ġnoe":1003,"Ġamesema":1004,"Ġ\"":1005,"legg":1006,"Ġkuji":1007,"Ġviongozi":1008,"ĠKur":1009,"yÃªn":1010,"pet":1011,"ĠMan":1012,"bÃ»":1013,"Ġhadi":1014,"Ġtimu":1015,"Ġmaji":1016,"koani":1017,"ingen":1018,"mashauri":1019,"umba":1020,"mbali":1021,"Ġinayo":1022,"Ġasili":1023,"Ġkum":1024,"himu":1025,"Ġper":1026,"ĠpÃª":1027,"Ġleo":1028,"Ġblir":1029,"Ġalikuwa":1030,"rÃ¥":1031,"Ġandre":1032,"ĠTaifa":1033,"Ġunder":1034,"Ġwen":1035,"hold":1036,"Ġhatua":1037,"enye":1038,"ĠNa":1039,"ĠMwa":1040,"Ġmkubwa":1041,"Ġkus":1042,"Ġwananchi":1043,"ĠLi":1044,"kÃ®":1045,"ona":1046,"ĠMhe":1047,"ĠBa":1048,"ind":1049,"Ġalle":1050,"Ġshule":1051,"Ã§":1052,"ony":1053,"lere":1054,"tandao":1055,"ea":1056,"000":1057,"Ġwanafunzi":1058,"Ġkutokana":1059,"Kwa":1060,"indu":1061,"Ġkuka":1062,"Ġmkutano":1063,"18":1064,"ĠCh":1065,"ov":1066,"uli":1067,"Ġgod":1068,"Ġhayo":1069,"Ġmujibu":1070,"huri":1071,"eng":1072,"san":1073,"Ġup":1074,"ug":1075,"lag":1076,"rem":1077,"Ġko":1078,"anzi":1079,"ĠKurd":1080,"endelea":1081,"Ġzina":1082,"isk":1083,"kio":1084,"ĠFor":1085,"Ġgjennom":1086,"ĠMas":1087,"Ġmbalimbali":1088,"Ġjamii":1089,"art":1090,"áĥĶáĥ¤":1091,"tumi":1092,"ret":1093,"ori":1094,"Ġvan":1095,"Ġnav":1096,"ombe":1097,"Ġmot":1098,"Ġupan":1099,"Ġmwezi":1100,"Ġras":1101,"Ġume":1102,"áĥ·":1103,"eneo":1104,"gon":1105,"Ġro":1106,"amba":1107,"ce":1108,"Ġgr":1109,"bia":1110,"Ġhuduma":1111,"Ġnjia":1112,"rÃ®":1113,"Ġeneo":1114,"Ġambaye":1115,"Ġyao":1116,"ĠKam":1117,"Ġver":1118,"kili":1119,"mia":1120,"hand":1121,"Ġkui":1122,"chezo":1123,"Ġsehemu":1124,"Ġyali":1125,"vin":1126,"Ġim":1127,"Ġtid":1128,"husi":1129,"taji":1130,"ongeza":1131,"ĠbÃ»":1132,"ĠâĢĵ":1133,"eta":1134,"Ġkabla":1135,"Ġumri":1136,"hidi":1137,"fÃ¸r":1138,"enter":1139,"yote":1140,"wala":1141,"Ġgir":1142,"vik":1143,"Ġmaeneo":1144,"Ġuchaguzi":1145,"áĥĲáĥłáĥ":1146,"iasa":1147,"Ġek":1148,"Ġselv":1149,"tuo":1150,"Ġby":1151,"Ġsli":1152,"ĠsÃ¸":1153,"ut":1154,"áĥł":1155,"ĠJo":1156,"iz":1157,"Ġmo":1158,"uti":1159,"unn":1160,"Ġndani":1161,"ĠHal":1162,"jek":1163,"Ba":1164,"Ġwata":1165,"ĠSalaam":1166,"wenyekiti":1167,"ĠSt":1168,"esa":1169,"anÃª":1170,"kao":1171,"ond":1172,"Ġkur":1173,"zuri":1174,"ĠIn":1175,"15":1176,"ĠnÃ¥":1177,"mo":1178,"tur":1179,"ating":1180,"ĠJam":1181,"Ġchini":1182,"Ku":1183,"),":1184,"Ġstor":1185,"singi":1186,"Ġpili":1187,"Ġjo":1188,"Ġuten":1189,"bili":1190,"Ġupande":1191,"ĠlÃ¸":1192,"Ġambapo":1193,"áĥĽ":1194,"Ġndi":1195,"Ġwakiwa":1196,"Ġq":1197,"Ġdem":1198,"mataifa":1199,"iske":1200,"ĠBi":1201,"CM":1202,"damu":1203,"Ġdeg":1204,"jumbe":1205,"Ġvel":1206,"Ġuch":1207,"ĠwÃª":1208,"bele":1209,"kin":1210,"ksjon":1211,"áĥĺáĥľ":1212,"Ġilikuwa":1213,"land":1214,"Ġdel":1215,"lt":1216,"son":1217,"Ġmpango":1218,"lass":1219,"rÃª":1220,"lin":1221,"ĠRukwa":1222,"Ġeg":1223,"ezi":1224,"Ġdin":1225,"kuru":1226,"jÃ¸re":1227,"shwa":1228,"angu":1229,"ens":1230,"ĠDa":1231,"gonjwa":1232,"Ġyana":1233,"ĠáĥĴ":1234,"Ġkupi":1235,"sm":1236,"mun":1237,"ktig":1238,"ĠgjÃ¸r":1239,"ane":1240,"ĠKwa":1241,"Ġenn":1242,"Ġalisema":1243,"Ġwanao":1244,"yÃ®":1245,"wili":1246,"ĠnÃ¥r":1247,"alg":1248,"iser":1249,"ingine":1250,"ekani":1251,"áĥĲáĥł":1252,"dara":1253,"ĠÐ":1254,"Ġjana":1255,"Ġdenne":1256,"Ġri":1257,"ĠJamhuri":1258,"Ġten":1259,"ĠWaziri":1260,"Ġkij":1261,"lisi":1262,"ombo":1263,"Ġmwisho":1264,"tia":1265,"tem":1266,"Ġsana":1267,"Ġzo":1268,"Â»":1269,"asisi":1270,"lighet":1271,"Ġmaendeleo":1272,"Ŀáĥ":1273,"Ġasilimia":1274,"Ali":1275,"ud":1276,"una":1277,"th":1278,"etu":1279,"ĠAn":1280,"Ġita":1281,"oka":1282,"bin":1283,"wani":1284,"kÃª":1285,"Ġpa":1286,"eld":1287,"Ġhao":1288,"2016":1289,"áĥĲáĥ¡":1290,"Ġus":1291,"Ġpicha":1292,"Ġ,":1293,"Ġbes":1294,"shara":1295,"Ġkuwe":1296,"ĠHalmashauri":1297,"ondo":1298,"Ġhati":1299,"Ġmjini":1300,"ĠvÃ¦rt":1301,"lem":1302,"funzo":1303,"12":1304,"til":1305,"Ġnett":1306,"puni":1307,"áĥķ":1308,"Ġkufu":1309,"Ġsex":1310,"Ġusa":1311,"ĠMo":1312,"ĠMungu":1313,"Ġziara":1314,"Ġhun":1315,"ĠâĢľ":1316,"unia":1317,"Ġwakazi":1318,"iya":1319,"ĠDe":1320,"Ġkia":1321,"Ġbare":1322,"vet":1323,"Ġsy":1324,"gjen":1325,"Ġkupata":1326,"fiti":1327,"fumo":1328,"dadi":1329,"30":1330,"fanyakazi":1331,"ĠMataifa":1332,"ĠOfisi":1333,"mili":1334,"wali":1335,"amili":1336,"bru":1337,"jenzi":1338,"Ġwao":1339,"Ġwote":1340,"ĠÂ«":1341,"ete":1342,"jem":1343,"ĠSh":1344,"Ġmuhimu":1345,"dogo":1346,"Ġsekta":1347,"áĥĲáĥĽ":1348,"fisa":1349,"atika":1350,"ala":1351,"jiji":1352,"ungano":1353,"Ġkut":1354,"Ġwatoto":1355,"Ġmye":1356,"Ġdating":1357,"2015":1358,"bara":1359,"toke":1360,"ĠkjÃ¸":1361,"ĠhÃ¸y":1362,"Ġlakini":1363,"Ġtaifa":1364,"Ġmeg":1365,"fani":1366,"at":1367,"atikana":1368,"ĠtÃª":1369,"ĠMarekani":1370,"Ġzilizo":1371,"uzi":1372,"andishi":1373,"Ġarbeid":1374,"faa":1375,"amuzi":1376,"Ġmpya":1377,"gua":1378,"Ġfrem":1379,"Ġtatu":1380,"form":1381,"Ġsta":1382,"Ġakizungumza":1383,"fadhi":1384,"gwa":1385,"Ġkl":1386,"Ġlitt":1387,"kirin":1388,"Ġdag":1389,"Ġkuta":1390,"Ġmange":1391,"omba":1392,"Ġdhidi":1393,"chuku":1394,"Ã¸k":1395,"ĠvÃª":1396,"Ġres":1397,"Ġmtu":1398,"Ġpe":1399,"Ġhos":1400,"aru":1401,"ĠCCM":1402,"áĥ£áĥł":1403,"Ġaliye":1404,"hitaji":1405,"Ġvy":1406,"jana":1407,"ekana":1408,"Ġkir":1409,"by":1410,"kes":1411,"Ġspi":1412,"kun":1413,"ugha":1414,"Ġhver":1415,"dh":1416,"Ġpar":1417,"chezaji":1418,"Ġve":1419,"Ġgang":1420,"Ġbeg":1421,"Ġfort":1422,"amia":1423,"kisha":1424,"áĥ¡":1425,"Ġru":1426,"Ġkla":1427,"atia":1428,"ida":1429,"huru":1430,"oa":1431,"ĠMwan":1432,"ĠSe":1433,"ĠAr":1434,"Ġnam":1435,"Ġikiwa":1436,"zazi":1437,"zu":1438,"ĠDkt":1439,"tumizi":1440,"izara":1441,"ĠDi":1442,"dag":1443,"kama":1444,"16":1445,"dere":1446,"badili":1447,"Ġsin":1448,"alama":1449,"kumbi":1450,"Ð°":1451,"Ġkuli":1452,"Ġmkoani":1453,"ninger":1454,"Ġew":1455,"ĠáĥĹ":1456,"oko":1457,"elle":1458,"Ġdis":1459,"ali":1460,"Ġhvor":1461,"Ġkili":1462,"endo":1463,"odoma":1464,"Ġmash":1465,"ĠgjÃ¸re":1466,"ĠbÃ¥":1467,"Ġmaka":1468,"ĠDodoma":1469,"Ġbara":1470,"Ġkuna":1471,"ĠMwenyekiti":1472,"eni":1473,"dÃ®":1474,"van":1475,"eme":1476,"Ġlugha":1477,"enki":1478,"Ġfikk":1479,"org":1480,"pitali":1481,"Ã¸d":1482,"Ġtre":1483,"miwa":1484,"tekelezaji":1485,"engo":1486,"idia":1487,"14":1488,"Ġujenzi":1489,"fikia":1490,"Ġreg":1491,"ĠMuungano":1492,"dai":1493,"Ġsammen":1494,"Ġoss":1495,"Ġáĥł":1496,"Ġhuku":1497,"Ġofisi":1498,"kir":1499,"andi":1500,"áĥ¢":1501,"emba":1502,"Ġuwezo":1503,"tid":1504,"Ġflere":1505,"pindi":1506,"wenda":1507,"ĠNi":1508,"anzibar":1509,"ĠWizara":1510,"heshi":1511,"fsi":1512,"ĠDen":1513,"17":1514,"199":1515,"Ġáĥľ":1516,"ester":1517,"ting":1518,"Ġmikoa":1519,"Ġnye":1520,"tumishi":1521,"slo":1522,"rer":1523,"Ġmap":1524,"Ġkis":1525,"vÃ®":1526,"hirika":1527,"Ġngu":1528,"dan":1529,"ck":1530,"fya":1531,"ingia":1532,"ļáĥĺ":1533,"sjek":1534,"dd":1535,"wasili":1536,"ĠmÃ¸":1537,"Ġhem":1538,"gge":1539,"Ġhva":1540,"ĠAl":1541,"Ġáĥ¬":1542,"Ġmka":1543,"Ġidadi":1544,"ibu":1545,"ĠJa":1546,"Ġdest":1547,"pas":1548,"Ġalipo":1549,"fuko":1550,"genzi":1551,"13":1552,"vel":1553,"Ġned":1554,"Ġmsingi":1555,"Ġkari":1556,"far":1557,"amizi":1558,"kurugenzi":1559,"50":1560,"lioni":1561,"Ġkiasi":1562,"ans":1563,"Ġhicho":1564,"Ġmas":1565,"Ġbil":1566,"wango":1567,"Ġáĥ¡":1568,"nen":1569,"Ġgo":1570,"Ġdo":1571,"paka":1572,"wanda":1573,"mbo":1574,"Ġmwanam":1575,"ellom":1576,"jar":1577,"ĠZanzibar":1578,"ĠJi":1579,"Ġak":1580,"Na":1581,"lizi":1582,"Ġnamna":1583,"isl":1584,"ĠáĥĻ":1585,"Ġkommun":1586,"Ġinter":1587,"imu":1588,"Ġmafunzo":1589,"ĠfÃ¥r":1590,"ĠbÃª":1591,"Ġsheria":1592,"Ġfu":1593,"ps":1594,"kan":1595,"Ġsen":1596,"kom":1597,"Det":1598,"tolewa":1599,"11":1600,"Ġkar":1601,"Ġmaa":1602,"iste":1603,"ĠBo":1604,"daji":1605,"Ġyenye":1606,"bb":1607,"Ġkipindi":1608,"áĥĲáĥ¤":1609,"Ġutekelezaji":1610,"zingi":1611,"Ġsu":1612,"Ġmsi":1613,"futa":1614,"Ġev":1615,"Ġmat":1616,"kari":1617,"induzi":1618,"heshimiwa":1619,"kur":1620,"dar":1621,"Ġwasi":1622,"fika":1623,"tor":1624,"huo":1625,"Ġslik":1626,"Ġvir":1627,"tina":1628,"alamu":1629,"Ġhen":1630,"Vi":1631,"Ġmfumo":1632,"zingira":1633,"ĠfÃ¸rste":1634,"Ġmaj":1635,"ĠKus":1636,"dhaa":1637,"inga":1638,"med":1639,"Ġmtandao":1640,"goro":1641,"bunge":1642,"co":1643,"Ġmil":1644,"ĠfÃ¸l":1645,"del":1646,"onyesha":1647,"Ġmellom":1648,"unga":1649,"ĠáĥĿáĥ":1650,"ew":1651,"Ġnje":1652,"ings":1653,"ĠNorge":1654,"haki":1655,"inger":1656,"gger":1657,"Ġhel":1658,"Ġkjen":1659,"eleza":1660,"Ġmatumizi":1661,"Ġkutumia":1662,"Ġjijini":1663,"Ġbed":1664,"pu":1665,"ĠPro":1666,"ĠÃª":1667,"ningen":1668,"âĢľ":1669,"Ġkusa":1670,"ĠMen":1671,"og":1672,"av":1673,"Ġmchezo":1674,"Ġfors":1675,"alt":1676,"ĠHer":1677,"dom":1678,"Ġhaki":1679,"ĠEn":1680,"Ġsku":1681,"ĠBar":1682,"fauti":1683,"gang":1684,"ĠyÃªn":1685,"zini":1686,"ĠKatibu":1687,"Ġof":1688,"ĠKas":1689,"elezo":1690,"Ġste":1691,"Ġmiradi":1692,"it":1693,"ĠbÃ¥de":1694,"sho":1695,"gine":1696,"Ġmaisha":1697,"pokea":1698,"ii":1699,"ĠJu":1700,"taa":1701,"ĠDette":1702,"ses":1703,"Ġlag":1704,"poti":1705,"Ġhev":1706,"Ġkunne":1707,"ordan":1708,"iashara":1709,"25":1710,"Ġbeste":1711,"ttet":1712,"Ġigjen":1713,"zÃ®":1714,"Ġ.":1715,"tak":1716,"Ġvyombo":1717,"Ġtren":1718,"áĥ®":1719,"Ġalt":1720,"uo":1721,"Ġforsk":1722,"esh":1723,"kua":1724,"ĠRe":1725,"ĠvÃ¥r":1726,"fer":1727,"ĠPa":1728,"fuata":1729,"ĠChuo":1730,"rett":1731,"Ġiki":1732,"Ġutvik":1733,"ĠáĥĵáĥĿ":1734,"ny":1735,"Ġend":1736,"buni":1737,"Ha":1738,"ĠMkutano":1739,"Ġuwanja":1740,"Ġem":1741,"fo":1742,"idha":1743,"Ġklabu":1744,"ringa":1745,"Ġhasa":1746,"pro":1747,"Ġbora":1748,"tokeo":1749,"Ġenk":1750,"Ġbet":1751,"Ġwiki":1752,"Ġyaliyo":1753,"umla":1754,"ĠKusini":1755,"Ġwengi":1756,"ller":1757,"opp":1758,"Ġbina":1759,"ĠJeg":1760,"ĠrÃª":1761,"Ġland":1762,"Ġmambo":1763,"Ġafya":1764,"nn":1765,"ĠPo":1766,"les":1767,"Ġkijamii":1768,"ĠX":1769,"kere":1770,"teg":1771,"Ġukumbi":1772,"Ġmwanamke":1773,"Ġnguvu":1774,"ede":1775,"kamu":1776,"oner":1777,"Ġhist":1778,"âĢ¦":1779,"ts":1780,"ĠIringa":1781,"áĥĿáĥł":1782,"Ġzote":1783,"sten":1784,"Ġsimu":1785,"Ġkimataifa":1786,"formasjon":1787,"Ġkushiriki":1788,"kazini":1789,"islamu":1790,"Ġmbili":1791,"vil":1792,"Ġaina":1793,"kezaji":1794,"uniani":1795,"ĠÃ®":1796,"ĠUlaya":1797,"ram":1798,"ĠwÃ®":1799,"weli":1800,"Ã¥l":1801,"ĠlÃª":1802,"beya":1803,"Ġkata":1804,"Ġmsa":1805,"Ġmaal":1806,"jo":1807,"sy":1808,"Katika":1809,"laka":1810,"ĠKurdist":1811,"hen":1812,"enya":1813,"ĠLa":1814,"lÃ¸":1815,"Ġkwenda":1816,"eno":1817,"Ġjin":1818,"Ġci":1819,"Ġfamili":1820,"ĠAfya":1821,"AN":1822,"Ġperson":1823,"Ġtek":1824,"arbeid":1825,"ĠnÃ¦r":1826,"Ġsiden":1827,"ĠElimu":1828,"Ġannet":1829,"tikk":1830,"oria":1831,"lisha":1832,"zima":1833,"Ġon":1834,"Ġpor":1835,"bidhi":1836,"hus":1837,"lima":1838,"miyu":1839,"Ġzao":1840,"Ġáĥĺ":1841,"paa":1842,"Ġsko":1843,"Ġhumo":1844,"Ġeks":1845,"Ġviktig":1846,"Ġwafanyakazi":1847,"kubali":1848,"Baadhi":1849,"ĠhÃª":1850,"par":1851,"ĠSimiyu":1852,"áĥĺáĥ¡":1853,"ongeze":1854,"Ġhata":1855,"Ġhelt":1856,"bora":1857,"thi":1858,"Ġkommer":1859,"Ġuka":1860,"ĠRo":1861,"Åŀ":1862,"Ġhol":1863,"Ġdisse":1864,"Ġlili":1865,"Ġdunia":1866,"ca":1867,"2014":1868,"taba":1869,"Ġkvin":1870,"ĠQ":1871,"rusha":1872,"Ġhele":1873,"Ġhawa":1874,"dala":1875,"Ġzinazo":1876,"ĠJoh":1877,"Ġkina":1878,"bani":1879,"elsen":1880,"Ġwakuu":1881,"Ġgrunn":1882,"har":1883,"amlaka":1884,"Ġmch":1885,"simamizi":1886,"Ġzake":1887,"yi":1888,"Ġly":1889,"nings":1890,"ispaa":1891,"tere":1892,"ras":1893,"Ġuchumi":1894,"Ġhal":1895,"Ġprodu":1896,"pt":1897,"Ġmpaka":1898,"ĠUt":1899,"haribi":1900,"vÃª":1901,"Ka":1902,"bisha":1903,"ĠBara":1904,"áĥĻ":1905,"kundi":1906,"ĠMaendeleo":1907,"uaji":1908,"deo":1909,"Ġnorske":1910,"Ġpir":1911,"Ġyako":1912,"mar":1913,"ĠKenya":1914,"amini":1915,"ĠArusha":1916,"Ġkes":1917,"lant":1918,"Ġhai":1919,"anÃ®":1920,"Ġumma":1921,"Ġhat":1922,"ds":1923,"Ġlang":1924,"waida":1925,"Ġyote":1926,"ulu":1927,"ĠSek":1928,"anu":1929,"icha":1930,"Ġmag":1931,"Ġmazingira":1932,"Ġkampuni":1933,"ĠMbeya":1934,"Ġhjel":1935,"ĠstÃ¸r":1936,"fari":1937,"ĠdÃ®":1938,"ria":1939,"ier":1940,"Ġtar":1941,"kte":1942,"ĠÃİ":1943,"geni":1944,"Ġsier":1945,"Ġjumla":1946,"Ġgodt":1947,"Ġkufun":1948,"kopo":1949,"Ġkita":1950,"nska":1951,"Ġkura":1952,"SA":1953,"Ġmaha":1954,"Ġkupitia":1955,"Ġfer":1956,"bÃª":1957,"Ġke":1958,"ĠMji":1959,"onekana":1960,"angi":1961,"isjon":1962,"Ġhvordan":1963,"Ġgj":1964,"sia":1965,"Ġuk":1966,"ĠKamati":1967,"kri":1968,"dt":1969,"Ġkawaida":1970,"hud":1971,"ise":1972,"Ġmatokeo":1973,"Ġven":1974,"ert":1975,"kala":1976,"ereza":1977,"Ġmradi":1978,"tara":1979,"yama":1980,"Ġmasu":1981,"22":1982,"Ġmar":1983,"jiwa":1984,"atilia":1985,"Ġmaana":1986,"elekea":1987,"kter":1988,"Ġnia":1989,"llet":1990,"Ġtofauti":1991,"Ġvijana":1992,"tatu":1993,"adhim":1994,"ĠgÃ¥r":1995,"ĠvÃ¥":1996,"Ġwalikuwa":1997,"Ġtangu":1998,"ener":1999,"áĥĶáĥľáĥ":2000,"ĠSp":2001,"Ġstore":2002,"jÃ®":2003,"Ġmasuala":2004,"elser":2005,"tÃª":2006,"log":2007,"satt":2008,"guliwa":2009,"yari":2010,"kim":2011,"ame":2012,"ĠpÃªÅŁ":2013,"Ġbruker":2014,"ligere":2015,"kee":2016,"Ġhapa":2017,"gazi":2018,"ongoni":2019,"áĥ¥":2020,"chu":2021,"Ġata":2022,"ursa":2023,"Ġkikubwa":2024,"shirika":2025,"Ð¾":2026,"dri":2027,"kken":2028,"chukua":2029,"24":2030,"ban":2031,"shauri":2032,"Ġmtoto":2033,"Ġáĥ¬áĥĲáĥľ":2034,"bor":2035,"Ki":2036,"ĠgÃ¥":2037,"Ġkiwango":2038,"Ð¸":2039,"ĠKili":2040,"Ra":2041,"ondari":2042,"dra":2043,"zin":2044,"Ġchama":2045,"Ġrasmi":2046,"Ġwatumishi":2047,"hariki":2048,"áĥĶáĥł":2049,"kto":2050,"Ġtaasisi":2051,"Ġmaelezo":2052,"Ġvita":2053,"min":2054,"ĠHan":2055,"Ġty":2056,"olk":2057,"Aki":2058,"tro":2059,"ĠKati":2060,"Ġmwili":2061,"Ġumoja":2062,"Ġrund":2063,"tig":2064,"rupp":2065,"áĥĲáĥĹ":2066,"Waziri":2067,"wahi":2068,"Ġchuo":2069,"vuti":2070,"ard":2071,"ĠSheria":2072,"Ġsv":2073,"lÃ®":2074,"shindi":2075,"tendaji":2076,"fanywa":2077,"ĠKan":2078,"wez":2079,"chama":2080,"kula":2081,"Ta":2082,"Ġho":2083,"Ġrett":2084,"Ġutafiti":2085,"weka":2086,"Ġnyumba":2087,"Ġski":2088,"Ðµ":2089,"fla":2090,"ore":2091,"Ġnne":2092,"Ġvyama":2093,"lii":2094,"yl":2095,"Aidha":2096,"Ġkuanza":2097,"Ġmsimu":2098,"Ġngazi":2099,"bli":2100,"Ġmada":2101,"sert":2102,"Ġkirin":2103,"áĥĲáĥĵ":2104,"Ġwada":2105,"Ġlina":2106,"risto":2107,"Ġpolisi":2108,"Ġ...":2109,"vn":2110,"ĠWana":2111,"Ġwaandishi":2112,"ĠKikuu":2113,"Ġambazo":2114,"100":2115,"mesema":2116,"ango":2117,"Ġuliofanyika":2118,"Ġyanayo":2119,"badiliko":2120,"Ġsh":2121,"Ġkasi":2122,"Ġkamati":2123,"2012":2124,"Ġduniani":2125,"Ġinformasjon":2126,"Ġmali":2127,"skap":2128,"áĥĵ":2129,"Ã®ne":2130,"áĥĿáĥłáĥ":2131,"yar":2132,"Ġumeme":2133,"eter":2134,"ombea":2135,"ĠAli":2136,"esten":2137,"svar":2138,"ĠMkoani":2139,"yuo":2140,"refu":2141,"ster":2142,"ĠMe":2143,"gn":2144,"Ġdike":2145,"gram":2146,"Ġshi":2147,"Ġmwanafunzi":2148,"ongezeka":2149,"belea":2150,"Ġhuko":2151,"dege":2152,"Ġuha":2153,"ĠyÃª":2154,"ĠFa":2155,"Ġkas":2156,"ĠMwaka":2157,"Ġbiashara":2158,"Ġblant":2159,"fano":2160,"Ã»n":2161,"Ã¸re":2162,"tizo":2163,"Ġplan":2164,"iwa":2165,"áĥļ":2166,"wana":2167,"ÅŁtÃ®":2168,"ĠKis":2169,"lingen":2170,"jumla":2171,"ju":2172,"Ġrundt":2173,"Ġsamme":2174,"Ġiliyofanyika":2175,"Ġkuwasili":2176,"Ġles":2177,"ĠOg":2178,"2013":2179,"ĠNy":2180,"lÃ¥":2181,"Ġkufikia":2182,"Ġkj":2183,"ĠJamii":2184,"ingereza":2185,"kilishi":2186,"Ġkituo":2187,"40":2188,"ĠáĥłáĥĶ":2189,"Ġstu":2190,"bake":2191,"MA":2192,"Ð½":2193,"Ġufa":2194,"Ġhapo":2195,"ĠManispaa":2196,"Ġwadau":2197,"âĢĵ":2198,"Ġmwen":2199,"Ġmn":2200,"elen":2201,"Ġblitt":2202,"ĠKata":2203,"Ġnorsk":2204,"biti":2205,"ĠUta":2206,"kket":2207,"Ġkijiji":2208,"Ġlengo":2209,"Alisema":2210,"Ġawali":2211,"ĠMashariki":2212,"Ġuongozi":2213,"Ġele":2214,"Ġkuz":2215,"Ġret":2216,"197":2217,"ant":2218,"fÃ¸l":2219,"Ġbu":2220,"ĠDer":2221,"Ġkwake":2222,"Ġufun":2223,"hol":2224,"Ġmilioni":2225,"Ġkabisa":2226,"Ġmfu":2227,"Ġkush":2228,"chang":2229,"ĠKimataifa":2230,"ĠKurdistanÃª":2231,"nsker":2232,"sÃ®":2233,"ĠIdara":2234,"gene":2235,"atis":2236,"Ġgu":2237,"Ġmwanadamu":2238,"Ġmakubwa":2239,"lom":2240,"Ġkiu":2241,"piga":2242,"toaji":2243,"Ġkiongozi":2244,"sko":2245,"Ġhjem":2246,"Ġkua":2247,"Ġkuongeza":2248,"Ġhaya":2249,"Ġwako":2250,"Ġsine":2251,"Ġkuku":2252,"ĠNchi":2253,"Ã¥nd":2254,"Ġall":2255,"60":2256,"amani":2257,"Ġkikao":2258,"Ġmasom":2259,"Ġsiasa":2260,"shirikiano":2261,"Ġtra":2262,"tiv":2263,"ĠJohn":2264,"Ġsiste":2265,"Ġujumla":2266,"ĠMwanza":2267,"Ġvituo":2268,"Ġga":2269,"áĥĿáĥĳ":2270,"Ġtillegg":2271,"Ġkr":2272,"fiki":2273,"nolo":2274,"Ġhivi":2275,"Ġdri":2276,"Ġáĥĳ":2277,"Ġmasomo":2278,"ĠAm":2279,"heter":2280,"wer":2281,"ĠKuu":2282,"23":2283,"takiwa":2284,"Ġkitaifa":2285,"Ġvin":2286,"Ġpres":2287,"leta":2288,"dal":2289,"Ãªr":2290,"Ġáĥ£":2291,"Ġkaribu":2292,"Ġmiongoni":2293,"yansi":2294,"Ġwenyewe":2295,"angaza":2296,"Ġbila":2297,"kirina":2298,"Ġel":2299,"hÃ®":2300,"ghu":2301,"Ġfil":2302,"Ġwalimu":2303,"Ġfursa":2304,"Ġhili":2305,"umuiya":2306,"Ġmbele":2307,"áĥĺáĥł":2308,"Ġvideo":2309,"Ġgel":2310,"Ġyame":2311,"Ġunao":2312,"Ġawa":2313,"ĠTr":2314,"Ġporno":2315,"ĠBer":2316,"Ġlike":2317,"ĠBunge":2318,"tekeleza":2319,"Ġakitoa":2320,"Ġkuingia":2321,"kumbu":2322,"ĠOslo":2323,"tene":2324,"elewa":2325,"ÑĢ":2326,"valg":2327,"21":2328,"Ġhospitali":2329,"Ġvei":2330,"Ġmsaada":2331,"andin":2332,"ĠUm":2333,"Ġsita":2334,"emp":2335,"ets":2336,"Ġjina":2337,"paswa":2338,"organ":2339,"Ġskulle":2340,"pato":2341,"Ġkuru":2342,"staa":2343,"ĠCha":2344,"ĠKik":2345,"Ġugonjwa":2346,"gombea":2347,"áĥĿáĥļ":2348,"Ġdere":2349,"Ġverden":2350,"Ni":2351,"pewa":2352,"ĠÅŀ":2353,"Ġkuja":2354,"Ġutoaji":2355,"uliwa":2356,"zalisha":2357,"Ġbegyn":2358,"ĠÃ¸nsker":2359,"ĠUchaguzi":2360,"Ġtilbake":2361,"Ġgikk":2362,"Ġkra":2363,"Ã®nin":2364,"amb":2365,"jeti":2366,"hada":2367,"Ġnyingine":2368,"ast":2369,"Ġmest":2370,"Ġforhold":2371,"Ġumu":2372,"hÃª":2373,"ĠAb":2374,"ĠBenki":2375,"wÃ®":2376,"Ġnok":2377,"amoto":2378,"Ġinnen":2379,"ĠBodi":2380,"Mheshimiwa":2381,"Ġjambo":2382,"Ġuki":2383,"ĠNo":2384,"Ġfe":2385,"jenga":2386,"Ġhaku":2387,"hani":2388,"ĠTir":2389,"Ġfar":2390,"ĠDu":2391,"Ġtuna":2392,"lim":2393,"198":2394,"Ġsm":2395,"Ġmwah":2396,"unguzi":2397,"ghuli":2398,"rik":2399,"Ġbarn":2400,"Ġjimbo":2401,"Ġkusini":2402,"tal":2403,"Ġbruke":2404,"ĠTu":2405,"Ġprosjek":2406,"hule":2407,"vali":2408,"áĥĲáĥłáĥĹ":2409,"Ġveldig":2410,"chumi":2411,"tembelea":2412,"husiano":2413,"ges":2414,"Ġskri":2415,"ishaji":2416,"zaliwa":2417,"Ġja":2418,"ksom":2419,"gramu":2420,"adhimisho":2421,"lÃª":2422,"Ġ|":2423,"liti":2424,"yanga":2425,"patikana":2426,"Ġmataifa":2427,"Ġyo":2428,"Ġsal":2429,"ĠHi":2430,"Ġhewa":2431,"Ġmabadiliko":2432,"esho":2433,"tir":2434,"sel":2435,"Ġamet":2436,"Ġaka":2437,"ĠUwanja":2438,"ĠMikoa":2439,"ĠâĢĺ":2440,"Ġmulig":2441,"ĠHos":2442,"ongoza":2443,"dre":2444,"Ġingen":2445,"Ġkre":2446,"umani":2447,"Ġ/":2448,"áĥĺáĥĹ":2449,"fanikio":2450,"ziki":2451,"ĠvÃ¥re":2452,"Ġfly":2453,"Ġmkon":2454,"get":2455,"Ġbin":2456,"Ġkutosha":2457,"ĠMkurugenzi":2458,"Ġsto":2459,"Ġegen":2460,"ĠDk":2461,"ĠJuma":2462,"anzishwa":2463,"bet":2464,"Ġmennes":2465,"Ġvili":2466,"jiri":2467,"gt":2468,"áĥ¨":2469,"oved":2470,"ambua":2471,"heten":2472,"tarajiwa":2473,"Ġmiezi":2474,"Ġwengine":2475,"ktoba":2476,"Ġinaweza":2477,"ekÃ®":2478,"ĠShin":2479,"kre":2480,"tan":2481,"ĠáĥĲáĥ":2482,"shu":2483,"dugu":2484,"Ġndo":2485,"xwa":2486,"Ġkuondo":2487,"ĠÃĺ":2488,"Ġgra":2489,"Ġmaalum":2490,"Ġfinne":2491,"áĥľ":2492,"ĠBu":2493,"Ġbedre":2494,"ĠTo":2495,"zea":2496,"styr":2497,"eleke":2498,"áĥĺáĥļ":2499,"Ġben":2500,"ĠMoro":2501,"mali":2502,"staafu":2503,"ĠâĢ¦":2504,"zani":2505,"ĠMap":2506,"Ġtr":2507,"Ġor":2508,"Ġfri":2509,"red":2510,"angamoto":2511,"Ġndio":2512,"Ġusafi":2513,"toka":2514,"bÃ»n":2515,"ÅŁa":2516,"Ġusalama":2517,"aratibu":2518,"gjÃ¸r":2519,"gende":2520,"pte":2521,"Ġbruk":2522,"ĠIs":2523,"Ã®na":2524,"Ġáĥŀ":2525,"Ġrangi":2526,"emo":2527,"Ġnyingi":2528,"zungumzo":2529,"Ġplass":2530,"Ã®ya":2531,"kl":2532,"HA":2533,"ekt":2534,"simamia":2535,"Ġkisiasa":2536,"babisha":2537,"tana":2538,"han":2539,"ĠPolisi":2540,"Ġuhuru":2541,"gra":2542,"Ġáĥ¨":2543,"Ġuamuzi":2544,"Ġmfano":2545,"Ġpen":2546,"endeke":2547,"ansa":2548,"Ġmata":2549,"bel":2550,"Ġmaba":2551,"Ã®r":2552,"Ġligi":2553,"Ġbado":2554,"Ġfamilia":2555,"ĠShinyanga":2556,"etter":2557,"wapo":2558,"áĥĶáĥĳ":2559,"Ġwajumbe":2560,"handisi":2561,"Ġchangamoto":2562,"bei":2563,"ĠOktoba":2564,"Ġnu":2565,"anse":2566,"ble":2567,"inda":2568,"spi":2569,"kar":2570,"Ġbikin":2571,"andaa":2572,"Ġmta":2573,"Ġkweli":2574,"Ġmulighet":2575,"kjen":2576,"2019":2577,"ER":2578,"eshwa":2579,"arehe":2580,"Ġviwanda":2581,"ĠShule":2582,"Ġfl":2583,"Ġusi":2584,"arufu":2585,"unda":2586,"tes":2587,"Ġdes":2588,"zia":2589,"ĠJuni":2590,"Ġgjel":2591,"hudi":2592,"Ġulikuwa":2593,"Ġtro":2594,"mbi":2595,"ĠUs":2596,"Ġumuhimu":2597,"ĠTaasisi":2598,"áĥĶáĥ¤áĥĺáĥ¨":2599,"áĥĶáĥ¨":2600,"sent":2601,"hakikisha":2602,"Ġmnamo":2603,"Ġmitandao":2604,"ĠáĥĶ":2605,"gera":2606,"Ġsti":2607,"ashi":2608,"fuatilia":2609,"Ġform":2610,"vÃ¥":2611,"Ġinne":2612,"Ġlever":2613,"Rais":2614,"ĠMag":2615,"Ġsha":2616,"28":2617,"Ġhistoria":2618,"RA":2619,"áĥĴ":2620,"jerumani":2621,"Ġura":2622,"omo":2623,"dene":2624,"Ñģ":2625,"Ġgratis":2626,"ĠBw":2627,"Ġfun":2628,"ĠChama":2629,"Ġtayari":2630,"jua":2631,"ĠHu":2632,"Ġrais":2633,"ĠfÃ¥tt":2634,"tukio":2635,"ingida":2636,"kulia":2637,"Ġardhi":2638,"unguza":2639,"ĠHe":2640,"Ġstar":2641,"ĠÃħ":2642,"Ġute":2643,"asema":2644,"husika":2645,"2011":2646,"led":2647,"elek":2648,"wake":2649,"Ġuz":2650,"ĠMed":2651,"anzia":2652,"Ġilivyo":2653,"ĠáĥĽáĥ£áĥ":2654,"27":2655,"Ġwazi":2656,"Baada":2657,"stani":2658,"Ġstyr":2659,"Ġvidere":2660,"ĠTume":2661,"tumika":2662,"eder":2663,"tert":2664,"ĠRi":2665,"asjoner":2666,"Ġhizi":2667,"pper":2668,"Ġslu":2669,"Ġord":2670,"stil":2671,"Ġwale":2672,"kato":2673,"ĠĠ":2674,"Ġsitt":2675,"dem":2676,"Ġopple":2677,"sani":2678,"Ġbike":2679,"ifadhi":2680,"Ġmrefu":2681,"sjoner":2682,"hara":2683,"Ġbei":2684,"áĥĿáĥľ":2685,"Ġziman":2686,"Ä±":2687,"hisi":2688,"26":2689,"ĠTanga":2690,"Ġwachezaji":2691,"2010":2692,"WA":2693,"ĠbÃ¸r":2694,"Ð»":2695,"ĠSingida":2696,"Ġmafanikio":2697,"ab":2698,"Ã®nÃª":2699,"anger":2700,"Ġvit":2701,"ĠLu":2702,"sikt":2703,"Ġulike":2704,"skje":2705,"kani":2706,"ĠKaskazini":2707,"ĠTawala":2708,"Ġzamani":2709,"ÅŁt":2710,"hamu":2711,"ie":2712,"Ġsyn":2713,"dio":2714,"áĥĺáĥĻ":2715,"Ġusimamizi":2716,"Ġvifaa":2717,"Ġnzuri":2718,"Ġtukio":2719,"Ġmafuta":2720,"inn":2721,"ES":2722,"ĠHas":2723,"changia":2724,"Ġjenter":2725,"Ġule":2726,"Ã§e":2727,"Ġklo":2728,"Ġkal":2729,"jell":2730,"ĠMjini":2731,"eneja":2732,"umbani":2733,"Ġndiyo":2734,"Ġgode":2735,"takt":2736,"unti":2737,"áĥĶáĥļ":2738,"chaguliwa":2739,"ĠPar":2740,"Ġeksemp":2741,"lea":2742,"enda":2743,"wed":2744,"ĠMorogoro":2745,"one":2746,"din":2747,"hoto":2748,"áĥĶáĥ¡":2749,"urder":2750,"hiti":2751,"delig":2752,"Ġhand":2753,"Ġjinsi":2754,"Ġmazungumzo":2755,"ĠEr":2756,"linger":2757,"kosa":2758,"rusi":2759,"Amesema":2760,"tokana":2761,"gir":2762,"áĥ£áĥłáĥĺ":2763,"ella":2764,"Ġakti":2765,"ĠâĢĶ":2766,"ĠFedha":2767,"fanikiwa":2768,"Ġmuziki":2769,"ĠHabari":2770,"áĥ£áĥļáĥĺ":2771,"Ġvalg":2772,"ulta":2773,"ĠHospitali":2774,"unkt":2775,"Ġmamlaka":2776,"Ġmwanzo":2777,"Ġfull":2778,"Ġmare":2779,"vir":2780,"ĠsÃ¸ker":2781,"Ġmis":2782,"saidia":2783,"Ġutawala":2784,"Ġbarabara":2785,"ĠKom":2786,"Hata":2787,"Ġndege":2788,"ĠWakuu":2789,"ĠSta":2790,"Ġupo":2791,"Ġpu":2792,"pwa":2793,"stra":2794,"Ġdh":2795,"Ġpekee":2796,"kabidhi":2797,"turu":2798,"Ġimet":2799,"eb":2800,"jin":2801,".âĢĿ":2802,"Ġrom":2803,"Ġchan":2804,"lingi":2805,"Ġsett":2806,"rig":2807,"ĠspÃ¸r":2808,"faransa":2809,"Ġbidhaa":2810,"Ġbinafsi":2811,"konom":2812,"wete":2813,"ĠSu":2814,"IN":2815,"Ġtarehe":2816,"tihani":2817,"Ġyetu":2818,"Ġvyuo":2819,"teja":2820,"Ġlen":2821,"uala":2822,"Ġdew":2823,"rÃ¸m":2824,"Ġkvinner":2825,"Ġtjen":2826,"Ġkurd":2827,"pira":2828,"ad":2829,"Ġ[":2830,"Ġvizuri":2831,"ĠstÃ¸":2832,"wekezaji":2833,"Ġkesi":2834,"Ġbak":2835,"ĠomrÃ¥":2836,"uro":2837,"Ġviser":2838,"Ġupatikana":2839,"Ġmechi":2840,"196":2841,"so":2842,"Ġupatikanaji":2843,"wasiliano":2844,"ĠprÃ¸":2845,"sÃ¸k":2846,"Ġspesi":2847,"TA":2848,"ford":2849,"all":2850,"Ġsaba":2851,"Ġamani":2852,"binu":2853,"Ġmba":2854,"ĠHifadhi":2855,"ĠMakamu":2856,"Ġtuzo":2857,"Ġkilicho":2858,"Ġmaadhimisho":2859,"sene":2860,"undi":2861,"Ġbest":2862,"Ġkor":2863,"anuari":2864,"gogoro":2865,"ĠkjÃ¦r":2866,"ĠáĥľáĥĲáĥĽ":2867,"fter":2868,"Ġdar":2869,"nskap":2870,"bio":2871,"jerne":2872,"onesha":2873,"Ġunaweza":2874,"Ġkwani":2875,"Ġfo":2876,"ĠSte":2877,"ĠÃ¥p":2878,"Ġkuwepo":2879,"Ġniaba":2880,"Ġmwenyekiti":2881,"Ġchakula":2882,"mekuwa":2883,"Ġlo":2884,"Ġpas":2885,"ĠmÃ¥l":2886,"ĠSam":2887,"Ã¸rer":2888,"Ġforb":2889,"Ã¦ring":2890,"Ġmakuu":2891,"ĠUn":2892,"Ġkuhakikisha":2893,"hifadhi":2894,"tten":2895,"ĠÅŁer":2896,"Ġáĥķ":2897,"Ġ:":2898,"Ġmenn":2899,"mwen":2900,"Ġkikuu":2901,"Ġaliyekuwa":2902,"Ġgam":2903,"EN":2904,"Ġkim":2905,"ves":2906,"eri":2907,"umbu":2908,"Ġblo":2909,"ĠKikwete":2910,"ĠTi":2911,"ĠÃ§i":2912,"ĠMagu":2913,"nzi":2914,"imar":2915,"amano":2916,"isiwa":2917,"chuano":2918,"chakato":2919,"gaji":2920,"indwa":2921,"áĥĲáĥ®":2922,"pri":2923,"vitet":2924,"dini":2925,"amad":2926,"ĠFe":2927,"Ġáĥ¤":2928,"Ġmwenyewe":2929,"Ġsikker":2930,"Ġbilder":2931,"Ġmor":2932,"sika":2933,"Ġkin":2934,"fÃ¸rt":2935,"Ġwastani":2936,"ĠLigi":2937,"fuli":2938,"milika":2939,"dato":2940,"ĠTil":2941,"Ġdikin":2942,"Ġkusi":2943,"Ġhalmashauri":2944,"Ġad":2945,"Ġfram":2946,"Ġvile":2947,"lam":2948,"oks":2949,"frika":2950,"ĠMh":2951,"Ġkutekeleza":2952,"Ġmkataba":2953,"Ġtena":2954,"Ġting":2955,"valitet":2956,"tale":2957,"ette":2958,"áĥĶáĥ¤áĥĺ":2959,"yara":2960,"For":2961,"Ġmatukio":2962,"Ġhafla":2963,"Ġuchunguzi":2964,"atiwa":2965,"Ġmikopo":2966,"Ġtidligere":2967,"entlig":2968,"2007":2969,"mes":2970,"Ġbajeti":2971,"penzi":2972,"wemo":2973,"Ġskj":2974,"Ġyan":2975,"ungo":2976,"klu":2977,"áĥĿáĥ¡":2978,"Ġroj":2979,"tatt":2980,"Ġmengi":2981,"Ġbenki":2982,"Ġsensa":2983,"erehe":2984,"Ġkundi":2985,"Ġkuti":2986,"Ġhoved":2987,"vua":2988,"Ġdini":2989,"pokuwa":2990,"Ġmiwili":2991,"pres":2992,"Ġez":2993,"Ġbehand":2994,"Ġso":2995,"Katibu":2996,"Ġwetu":2997,"ishoni":2998,"Ġwapata":2999,"tokea":3000,"áĥ·áĥĽ":3001,"ĠMei":3002,"Ġdamu":3003,"Ġulimwen":3004,"Ġhifadhi":3005,"Ġwapatao":3006,"ĠPÃ¥":3007,"Ġmedlem":3008,"áĥĺáĥľáĥ":3009,"áĥĶáĥłáĥ":3010,"pongeza":3011,"Mwenyekiti":3012,"Ġitakuwa":3013,"ĠMagufuli":3014,"ĠhÃ¸":3015,"kam":3016,"Di":3017,"turuki":3018,"elezea":3019,"era":3020,"Ġmichezo":3021,"Ġtatt":3022,"tar":3023,"Ġuj":3024,"Ġpris":3025,"ppen":3026,"Ã¦rer":3027,"ekano":3028,"lai":3029,"eshaji":3030,"ron":3031,"mÃª":3032,"xwe":3033,"indano":3034,"Ġviwanja":3035,"Ġmahitaji":3036,"Ġwaliokuwa":3037,"Ġkadhaa":3038,"ringer":3039,"Ġbygg":3040,"2008":3041,"Ġderfor":3042,"Ġbahari":3043,"Ġutaratibu":3044,"29":3045,"stand":3046,"line":3047,"Ġmens":3048,"diri":3049,"io":3050,"Ġsamt":3051,"stre":3052,"Ġmiro":3053,"stÃ¥":3054,"Ġvirke":3055,"Ġville":3056,"old":3057,"tengene":3058,"Ġkomme":3059,"Ġdan":3060,"Ã»r":3061,"áĥ£áĥļ":3062,"Ġliv":3063,"Ġsn":3064,"ĠsvÃ¦rt":3065,"áĥĶáĥľ":3066,"nia":3067,"ombi":3068,"ĠTabora":3069,"Ġidara":3070,"zoe":3071,"ingatia":3072,"ĠUhuru":3073,"tre":3074,"Ġmezin":3075,"Ġloka":3076,"Ġvis":3077,"skapet":3078,"Ġvia":3079,"tisk":3080,"Ġgelek":3081,"Ġkjent":3082,"Ġsekondari":3083,"Ġushirikiano":3084,"inali":3085,"Ġkampen":3086,"Ġklar":3087,"Ġlake":3088,"kal":3089,"stri":3090,"Ġwilayani":3091,"Ġshilingi":3092,"Ġshughuli":3093,"op":3094,"2009":3095,"Ġndoa":3096,"Ġuzinduzi":3097,"zuia":3098,"Ġkilimo":3099,"Ġorgan":3100,"eh":3101,"Ġbra":3102,"Ġgot":3103,"Ġsoka":3104,"ĠMapinduzi":3105,"Ġmichuano":3106,"Ġalipokuwa":3107,"Ġambalo":3108,"Ġtano":3109,"Ġkufanyika":3110,"Ġwanaoishi":3111,"Ġsem":3112,"ĠDes":3113,"tern":3114,"ÑĤ":3115,"Ġhy":3116,"Ġwawili":3117,"Ġkuweka":3118,"asje":3119,"Ġfolk":3120,"Ġaller":3121,"ĠmÃ¸te":3122,"Ġlu":3123,"ou":3124,"Ġhvis":3125,"ĠJanuari":3126,"Ġulinzi":3127,"tiske":3128,"cheza":3129,"kulima":3130,"dishi":3131,"amer":3132,"lys":3133,"ĠUmma":3134,"Ġáĥ¥":3135,"80":3136,"Ġmwishoni":3137,"tekelezwa":3138,"Ã®ÅŁ":3139,"alo":3140,"Ġter":3141,"pÃª":3142,"Ġteknolo":3143,"ĠMfuko":3144,"Ġkushirikiana":3145,"70":3146,"imbo":3147,"Ġhara":3148,"ĠSimba":3149,"ĠViongozi":3150,"andalizi":3151,"Ġpoliti":3152,"Ġpri":3153,"Ġfordi":3154,"ember":3155,"ister":3156,"ĠhemÃ»":3157,"Ð²":3158,"zoefu":3159,"ĠHassan":3160,"alam":3161,"ĠKo":3162,"xis":3163,"zee":3164,"chana":3165,"ĠMpango":3166,"twara":3167,"wekwa":3168,"hamia":3169,"dige":3170,"ĠHar":3171,"IS":3172,"Mwa":3173,"skri":3174,"Ġfag":3175,"bla":3176,"idler":3177,"ĠSiku":3178,"Ġeksempel":3179,"ĠJumuiya":3180,"Ġfinnes":3181,"ĠdÃª":3182,"Ã¸ker":3183,"Ã©":3184,"Ġkul":3185,"Ðº":3186,"odha":3187,"Ġzoezi":3188,"zalishaji":3189,"Ġmauaji":3190,"bil":3191,"kosi":3192,"penda":3193,"ĠKatiba":3194,"Ġveg":3195,"Ġdawa":3196,"Ġusawa":3197,"áĥĶáĥĹ":3198,"stem":3199,"Ġtry":3200,"fil":3201,"Ġung":3202,"gelig":3203,"ongea":3204,"Ġmkono":3205,"Ġmchakato":3206,"elezwa":3207,"ĠEng":3208,"biri":3209,"Ġsawa":3210,"satte":3211,"Ġva":3212,"áĥĺáĥĶ":3213,"Makamu":3214,"Ġsuala":3215,"gizo":3216,"Ġáĥ¢":3217,"ĠChina":3218,"ften":3219,"ys":3220,"Ġmawa":3221,"áĥĿáĥ¨":3222,"esu":3223,"Ã¸te":3224,"Ġsent":3225,"ation":3226,"Ġng":3227,"hiri":3228,"ĠMaha":3229,"zeko":3230,"weze":3231,"fe":3232,"ĠMtwara":3233,"Ġmakundi":3234,"fsiri":3235,"Ġvye":3236,"ĠUturuki":3237,"tegem":3238,"Ġujumbe":3239,"Ġuwekezaji":3240,"manjar":3241,"Ġwak":3242,"wahili":3243,"ÅŁÃª":3244,"Ġmchango":3245,"biashara":3246,"Ġmitatu":3247,"ukumu":3248,"Ġkaribuni":3249,"anisha":3250,"Ġmwingine":3251,"Ġwek":3252,"Ġmama":3253,"Ġgjelder":3254,"Ġham":3255,"ĠSel":3256,"vt":3257,"Ġyeye":3258,"ĠUjerumani":3259,"Ġinteres":3260,"Ġis":3261,"Ġoff":3262,"ĠlÃ¸pet":3263,"kusan":3264,"ĠPwani":3265,"umiwa":3266,"Ġkanskje":3267,"Ġtur":3268,"Ġca":3269,"vor":3270,"ĠKor":3271,"Ġmakazi":3272,"Akizungumza":3273,"omu":3274,"Ġkuanzia":3275,"okoa":3276,"Ġkujenga":3277,"áĥĺáĥĿáĥ":3278,"ci":3279,"Ġkontakt":3280,"Ñı":3281,"Ġmennesker":3282,"Ġmal":3283,"ĠEv":3284,"ĠKilimanjar":3285,"rans":3286,"ĠrÃ¥":3287,"ktari":3288,"eto":3289,"gezeko":3290,"Picha":3291,"kiliza":3292,"Ġwafu":3293,"Ġimekuwa":3294,"Ġkuona":3295,"ph":3296,"Ġkomp":3297,"lah":3298,"Ġenkelt":3299,"áĥĿáĥĽ":3300,"Ġhin":3301,"ĠÃĩ":3302,"ishati":3303,"Ġripoti":3304,"Ġkusimamia":3305,"Ġmalipo":3306,"áĥ§":3307,"Ġtovuti":3308,"ungua":3309,"Ġmaamuzi":3310,"amaduni":3311,"Ġkulia":3312,"ĠDunia":3313,"Ġhvert":3314,"Ġintern":3315,"wanga":3316,"Ġwanawake":3317,"ĠBaraza":3318,"ĠKagera":3319,"inzani":3320,"ĠMambo":3321,"ĠPi":3322,"ann":3323,"Ser":3324,"Ġarbeids":3325,"ĠHam":3326,"Ġbrukes":3327,"ĠnÃ»":3328,"biwa":3329,"ĠkjÃ¸r":3330,"Ġmindre":3331,"tuba":3332,"Hii":3333,"Ġdagen":3334,"Ġshirika":3335,"Ġmaandalizi":3336,"kusho":3337,"kushoto":3338,"ĠMara":3339,"pele":3340,"Ġmilli":3341,"Ġama":3342,"Ġbir":3343,"Ġisi":3344,"ĠKilimanjaro":3345,"35":3346,"Ġful":3347,"Ġmaafisa":3348,"Ġmpira":3349,"tumiaji":3350,"sanii":3351,"asjonen":3352,"vun":3353,"ena":3354,"Ġjobb":3355,"rani":3356,"ĠMwalimu":3357,"katifu":3358,"Ġhusika":3359,"ywa":3360,"Ġvina":3361,"ĠEm":3362,"ĠZa":3363,"orte":3364,"plass":3365,"Ġannen":3366,"ĠnÃª":3367,"Ġtilf":3368,"Ġsvar":3369,"Ġvoks":3370,"amua":3371,"Ġuzoefu":3372,"ĠsmÃ¥":3373,"ik":3374,"Ġgjort":3375,"zara":3376,"BA":3377,"ĠÃ§Ãª":3378,"ingwa":3379,"ĠLe":3380,"lene":3381,"Ġkauli":3382,"pig":3383,"ĠVijana":3384,"Ġmapema":3385,"Ġzita":3386,"ĠMta":3387,"Ġraia":3388,"chukuliwa":3389,"Ġwagonjwa":3390,"ĠUfaransa":3391,"lal":3392,"undu":3393,"Ġdata":3394,"áĥĲáĥ¢":3395,"Ġmipango":3396,"Ġmchezaji":3397,"hitimu":3398,"ĠKatika":3399,"Ġmakao":3400,"ale":3401,"leder":3402,"ted":3403,"Ġsamarbeid":3404,"ĠmÃ¥tte":3405,"juli":3406,"Ġáĥĺáĥ":3407,"Ġufunguzi":3408,"Ġmdogo":3409,"harama":3410,"tidig":3411,"fin":3412,"Ġhjelp":3413,"Ġkuendelea":3414,"arabu":3415,"Ġuko":3416,"Ġnyumbani":3417,"Ġwanachama":3418,"ongozwa":3419,"ĠNaibu":3420,"baini":3421,"Ġwataalamu":3422,"2006":3423,"CO":3424,"ĠdÃ¸":3425,"lat":3426,"Ġyek":3427,"Ġáĥ®":3428,"ĠstÃ¸rre":3429,"Ġ)":3430,"Ġkitu":3431,"dumu":3432,"mel":3433,"sjonen":3434,"smÃ¥l":3435,"áĥĺáĥ£":3436,"ĠmÃ¥te":3437,"Ġnytt":3438,"Ġtrenger":3439,"Ġkaskazini":3440,"Ġbinadamu":3441,"keti":3442,"Ġpra":3443,"kumen":3444,"Ġband":3445,"com":3446,"Ġhatari":3447,"Pia":3448,"ĠUingereza":3449,"Ġkuweza":3450,"ĠnivÃ®":3451,"Ġforskjel":3452,"slag":3453,"ita":3454,"Ġalltid":3455,"Ġmati":3456,"ĀĀ":3457,"Ġgener":3458,"tra":3459,"iadi":3460,"Ġmoyo":3461,"Ġjeshi":3462,"Ġuhusiano":3463,"tiya":3464,"Ġthe":3465,"elles":3466,"aluma":3467,"kwi":3468,"Ġtok":3469,"ĠEl":3470,"31":3471,"Ġbarne":3472,"tiza":3473,"ĠUsalama":3474,"Ġamekuwa":3475,"Ġametoa":3476,"Ġndogo":3477,"angazwa":3478,"kene":3479,"ton":3480,"vene":3481,"45":3482,"ĠBariadi":3483,"Ġiliyopita":3484,"Ġukaguzi":3485,"Ġwamekuwa":3486,"Ġvurder":3487,"Ġkri":3488,"ĠIran":3489,"lme":3490,"ĠHun":3491,"ĠGa":3492,"ganga":3493,"Ġmaoni":3494,"Ġmikutano":3495,"diwani":3496,"Ãªde":3497,"ĠEtter":3498,"aria":3499,"Ġbestem":3500,"fri":3501,"ĠUni":3502,"Li":3503,"sere":3504,"Ġsalaam":3505,"ĠLindi":3506,"Ġambako":3507,"Ġongezeko":3508,"raq":3509,"ente":3510,"gel":3511,"ĠÃªn":3512,"Ġderes":3513,"Ġnatur":3514,"dÃª":3515,"tuma":3516,"bÃ»na":3517,"ppe":3518,"ptemba":3519,"Ġbilioni":3520,"lifu":3521,"ĠfÃ¸rst":3522,"Ġsna":3523,"Ġfinner":3524,"Ġhvil":3525,"Mi":3526,"áĥĺáĥĽ":3527,"berg":3528,"Ġster":3529,"ĠTA":3530,"tta":3531,"Ġxe":3532,"tengo":3533,"Ġmwanaume":3534,"Ġmwalimu":3535,"Ġmahakama":3536,"Ġkommune":3537,"osia":3538,"áĥĺáĥĲáĥľ":3539,"ĠMaa":3540,"ĠLÃª":3541,"ĠstÃ¥r":3542,"sj":3543,"ĠKon":3544,"jira":3545,"Ġkm":3546,"ĠáĥľáĥĲáĥĽáĥ£áĥ":3547,"Ġligger":3548,"andika":3549,"ĠBe":3550,"ĠbÃ»n":3551,"kuja":3552,"Ġkushoto":3553,"Ġkiuchumi":3554,"jumu":3555,"Ġuzalishaji":3556,"Ġlililo":3557,"Ġnettste":3558,"Ġbel":3559,"gan":3560,"zÃªn":3561,"Ġprogramu":3562,"umia":3563,"Ġvanske":3564,"mini":3565,"llen":3566,"Ġkufa":3567,"ungufu":3568,"dier":3569,"Ġansvar":3570,"Ġsafari":3571,"90":3572,"Ġrobo":3573,"áĥĶáĥ¤áĥ¡":3574,"alen":3575,"Ġbas":3576,"uman":3577,"Ġskjer":3578,"ĠYesu":3579,"Ġkutokea":3580,"ĠMsingi":3581,"Ġofte":3582,"Ġutvikling":3583,"eita":3584,"Ġei":3585,"angalia":3586,"kra":3587,"ganda":3588,"Ġkontro":3589,"thony":3590,"2000":3591,"Ġresulta":3592,"ino":3593,"wasi":3594,"Ġnini":3595,"Ġkike":3596,"Ġkatikati":3597,"Ġmadai":3598,"Ġmann":3599,"ien":3600,"oms":3601,"tine":3602,"ĠAmer":3603,"ĠDo":3604,"sker":3605,"zungu":3606,"Ġwela":3607,"yanya":3608,"Ġsio":3609,"Ġmaarufu":3610,"Ġhakuna":3611,"Ġprosent":3612,"ĠWan":3613,"Ġdibe":3614,".[":3615,"Ġinnlegg":3616,"ĠSha":3617,"tering":3618,"Ġmener":3619,"ĠKig":3620,"panga":3621,"imarisha":3622,"tegemea":3623,"bygg":3624,"Kam":3625,"ÅŁÃ®":3626,"ĵáĥ·":3627,"yd":3628,"ĠnÃ¸d":3629,"ĠShirika":3630,"Ġmengine":3631,"undwa":3632,"Ġkisasa":3633,"Ġawamu":3634,"Ġuwez":3635,"Ġkutolewa":3636,"ĠnavÃª":3637,"ĠNA":3638,"eldre":3639,"angan":3640,"ering":3641,"ĠEw":3642,"áĥĿáĥ®":3643,"guu":3644,"Ġkvalitet":3645,"Ġbasi":3646,"gosti":3647,"Ġorodha":3648,"husiana":3649,"endekezo":3650,"umbawanga":3651,"SS":3652,"elef":3653,"ĠFran":3654,"áĥĲáĥ¥":3655,"ĠÃ¸konom":3656,"ĠFebru":3657,"Ġbadala":3658,"Ġwito":3659,"ĠlÃ¸s":3660,"Ġfan":3661,"bud":3662,"IM":3663,"Ġaja":3664,"Ġtir":3665,"ĠhÃ¥nd":3666,"Ġakim":3667,"ondoa":3668,"ĠMheshimiwa":3669,"angwa":3670,"kuaji":3671,"yon":3672,"aran":3673,"ktisk":3674,"verk":3675,"Ġsala":3676,"ĠGo":3677,"ĠGeita":3678,"Ġsoko":3679,"ĠSpika":3680,"Ġlazima":3681,"under":3682,"ĠTe":3683,"jeshi":3684,"Ġkuelekea":3685,"Ġkutokuwa":3686,"Ġwizara":3687,"Ġkufuatia":3688,"ĠWanafunzi":3689,"Ġwaziri":3690,"Ġgharama":3691,"Ġoper":3692,"ĠMaja":3693,"ffek":3694,"Ġspen":3695,"áĥ¦":3696,"ktige":3697,"Den":3698,"ĠPaul":3699,"Ġhelse":3700,"Wana":3701,"fÃ¸re":3702,"rat":3703,"Ġmitano":3704,"unua":3705,"ambuli":3706,"Ġkatiba":3707,"Ġmaneno":3708,"Ġfre":3709,"La":3710,"áĥĺáĥĲáĥ¨":3711,"ĠHii":3712,"tisha":3713,"ĠMaji":3714,"ĠPemba":3715,"jengwa":3716,"ĠSekta":3717,"Ġkuliko":3718,"Ġjob":3719,"Hi":3720,"áĥŀ":3721,"ĠVed":3722,"Ġkuongezeka":3723,"andaliwa":3724,"ĠSumbawanga":3725,"Ġvilivyo":3726,"kwimu":3727,"ĠNÃ¥r":3728,"Ġmarke":3729,"Ġtiden":3730,"velse":3731,"Ġmass":3732,"ĠChi":3733,"ĠÃ§a":3734,"ĠMer":3735,"Ãĺ":3736,"alozi":3737,"ĠSeptemba":3738,"ĠJeshi":3739,"Ġdine":3740,"Ġvet":3741,"Ġ'":3742,"Ã®ka":3743,"Jeg":3744,"Ġzime":3745,"Ġkuch":3746,"ĠzÃªde":3747,"linzi":3748,"Ġmfupi":3749,"humiwa":3750,"ĠKanisa":3751,"Ġsatt":3752,"ĠSÃ¥":3753,"ĠAu":3754,"spro":3755,"ĠlÃ¥":3756,"hov":3757,"pili":3758,"Ġutdan":3759,"2005":3760,"Ġlime":3761,"Ġmvua":3762,"Ġyoyote":3763,"ĠkÃª":3764,"Ġmazo":3765,"iro":3766,"ĠShi":3767,"ĠOpp":3768,"áĥĺáĥĵ":3769,"Ġgor":3770,"ĠHo":3771,"Ġenkel":3772,"ĠJuu":3773,"Ġkuzi":3774,"isitiza":3775,"Ġnyuma":3776,"Ġimani":3777,"ĠIsra":3778,"vert":3779,"itwa":3780,"hamani":3781,"Ġkumu":3782,"fariki":3783,"zungumzia":3784,"wezesha":3785,"angazaji":3786,"Ġskole":3787,"áĥĹ":3788,"An":3789,"Ġhans":3790,"ĠOr":3791,"teuliwa":3792,"tokeza":3793,"mavu":3794,"ĠMahakama":3795,"jor":3796,"Ġlov":3797,"xa":3798,"Ġtl":3799,"Ġgrupp":3800,"ĠCo":3801,"Ġfortsatt":3802,"ĠNew":3803,"áĥĺáĥ¢":3804,"ĠInn":3805,"Ġuzazi":3806,"Ġuwezekano":3807,"Ġmatibabu":3808,"kubaliano":3809,"liv":3810,"Ġspill":3811,"vere":3812,"gh":3813,"ĠkurdÃ®":3814,"por":3815,"Se":3816,"giza":3817,"embe":3818,"tall":3819,"Ġstil":3820,"ilia":3821,"riye":3822,"ĠAgosti":3823,"Ġkidato":3824,"Ġmapato":3825,"ekÃª":3826,"ĠNorges":3827,"Ġbeny":3828,"bas":3829,"ĠÂ·":3830,"Ġdy":3831,"ĠmiljÃ¸":3832,"bruk":3833,"ĠIku":3834,"ĠMtaka":3835,"ĠKiswahili":3836,"ĠDesemba":3837,"Ġtume":3838,"Ġkuzingatia":3839,"ĠJulai":3840,"Ġwateja":3841,"ĠMoshi":3842,"Ġlangt":3843,"Ġhil":3844,"Ġmab":3845,"ĠTirki":3846,"Ġsamfun":3847,"inge":3848,"Ġáĥ¯":3849,"UN":3850,"sut":3851,"FA":3852,"ĠUrusi":3853,"Ġmatatizo":3854,"wepo":3855,"book":3856,"ĠpÃªk":3857,"hati":3858,"Ġaldri":3859,"Ġdika":3860,"disha":3861,"Ġwam":3862,"Ġbidra":3863,"rom":3864,"ĠÃ§ar":3865,"duksjon":3866,"IC":3867,"ty":3868,"Ġkusema":3869,"Ġkampeni":3870,"dhara":3871,"anishwa":3872,"indua":3873,"boresha":3874,"istrer":3875,"ĠAnd":3876,"keb":3877,"nende":3878,"ĠfÃ¸lge":3879,"ĠNov":3880,"esia":3881,"Ġrekke":3882,"Ġuja":3883,"ĠbaÅŁ":3884,"stawi":3885,"ess":3886,"Ġwazazi":3887,"Ġkuchukua":3888,"daiwa":3889,"ĠNord":3890,"stitu":3891,"erer":3892,"kaya":3893,"rev":3894,"TE":3895,"tumiwa":3896,"Ġfainali":3897,"Ġulimwengu":3898,"esabu":3899,"Ġvann":3900,"Ġlegge":3901,"zim":3902,"veg":3903,"hili":3904,"Ġmika":3905,"sett":3906,"kning":3907,"grunn":3908,"ĠKristo":3909,"ĠMis":3910,"ĠdibÃª":3911,"Ġmzuri":3912,"ĠMw":3913,"Ġwasiwasi":3914,"Ġmfuko":3915,"Ġbaadaye":3916,"Ġukuaji":3917,"Ġmajukumu":3918,"Ġlicha":3919,"Ġkure":3920,"KA":3921,"Ġforskjellige":3922,"sku":3923,"ĠcÃ®":3924,"Ġganger":3925,"Ġwewe":3926,"Ġharaka":3927,"fungua":3928,"Ġtatizo":3929,"Ġmaalumu":3930,"Ġdemok":3931,"ump":3932,"wadi":3933,"Ġdager":3934,"ĠmÃ¥n":3935,"Ġstra":3936,"une":3937,"Ġaliyo":3938,"fanyiwa":3939,"ĠKar":3940,"ero":3941,"rand":3942,"Ġpey":3943,"Ġdamer":3944,"rykk":3945,"Ġhatt":3946,"Ġsyk":3947,"fÃ¸ring":3948,"Ġkroner":3949,"500":3950,"ftet":3951,"ĠMagharibi":3952,"Ġwakulima":3953,"ishia":3954,"grupp":3955,"eria":3956,"ĠÅŁe":3957,"ĠOm":3958,"Ġmalen":3959,"Ġlett":3960,"Ġsera":3961,"yika":3962,"Ġlaget":3963,"Ġnord":3964,"kizi":3965,"ĠProf":3966,"Ġamewa":3967,"Ġkaunti":3968,"Ġsherehe":3969,"Ġuliopita":3970,"ĠMsa":3971,"Ġvek":3972,"jea":3973,"Ġdek":3974,"ĠáĥĽáĥĲ":3975,"Ġpla":3976,"Ġua":3977,"Ġkort":3978,"Ġneste":3979,"ons":3980,"jadala":3981,"Ġiliyopo":3982,"keza":3983,"Ġwashiriki":3984,"Ġvyote":3985,"ĠSekondari":3986,"Ġbali":3987,"ĠFi":3988,"ĠhÃ¥":3989,"cebook":3990,"reg":3991,"ule":3992,"ĠNg":3993,"áĥ¬":3994,"Ġáĥłáĥ":3995,"ziwa":3996,"Ġkufi":3997,"spunkt":3998,"lizo":3999,"Ġkupunguza":4000,"Ġbarua":4001,"Ġkushu":4002,"hama":4003,"ĠNe":4004,"fte":4005,"iti":4006,"Ġprogram":4007,"hihi":4008,"Ġflo":4009,"Ġheye":4010,"En":4011,"Ġsifa":4012,"PA":4013,"ĠYanga":4014,"olewa":4015,"anske":4016,"Ġsol":4017,"kaa":4018,"Ġqe":4019,"Ġleder":4020,"Ġava":4021,"Ġbrukt":4022,"dighet":4023,"Ġmabao":4024,"bati":4025,"ongozo":4026,"Ġfaida":4027,"Wakati":4028,"Tu":4029,"mene":4030,"ales":4031,"Ġsaa":4032,"Ġdema":4033,"Ġerfar":4034,"Ġkumi":4035,"34":4036,"kjÃ¸":4037,"ĠKin":4038,"ĠBru":4039,"ĠIta":4040,"Ġbek":4041,"hamini":4042,"Ġhusu":4043,"Ġaliwa":4044,"Ġuba":4045,"Ã¸m":4046,"Ġmid":4047,"Ġsiya":4048,"Ġgre":4049,"Ġms":4050,"ĠFebruari":4051,"Ġnusu":4052,"lalami":4053,"ĠMwen":4054,"lut":4055,"tanzania":4056,"ĠKiislamu":4057,"Ġufan":4058,"Ġkanuni":4059,"ars":4060,"195":4061,"ĠdijÃ®":4062,"Ġtem":4063,"Ġhot":4064,"chap":4065,"ĠSÃ»":4066,"Ġfleste":4067,"ĠkjÃ¸pe":4068,"ash":4069,"ttes":4070,"ariki":4071,"tasjon":4072,"Ġhuru":4073,"Ġurais":4074,"des":4075,"Da":4076,"Ġtev":4077,"Ġáĥļ":4078,"risti":4079,"ĠFo":4080,"Ġkula":4081,"hai":4082,"yet":4083,"kÃªn":4084,"ksjoner":4085,"Ġgjerne":4086,"tani":4087,"Pro":4088,"Ġkujadili":4089,"Ġhuwa":4090,"Ġmbaya":4091,"Ġakipokea":4092,"Ġjiji":4093,"julikana":4094,"Ġsj":4095,"fÃ¸rer":4096,"ĠherÃª":4097,"ĠYa":4098,"Ġhistori":4099,"Ġoppga":4100,"Ġlite":4101,"ky":4102,"zake":4103,"Si":4104,"Ġkish":4105,"Ġstand":4106,"Ġgani":4107,"Ġkima":4108,"isitu":4109,"ĠMakon":4110,"Ġthamani":4111,"fua":4112,"Ġnamba":4113,"Ġutalii":4114,"Ġmwandishi":4115,"beider":4116,"ĠPer":4117,"yeke":4118,"liki":4119,"Ġpasi":4120,"Ġbal":4121,"Ġdham":4122,"ĠMajaliwa":4123,"Ġmalengo":4124,"Ġkuvu":4125,"maliza":4126,"meta":4127,"ĠÃ¸n":4128,"rang":4129,"Ġener":4130,"DE":4131,"ĠrÃ»":4132,"Ġkultur":4133,"amp":4134,"DA":4135,"Ġavs":4136,"ksomhet":4137,"araja":4138,"Ġkanda":4139,"ĠMoham":4140,"áĥĺáĥĲ":4141,"áĥĳ":4142,"Ġkuimarisha":4143,"Ġtabia":4144,"Ġkutafuta":4145,"fadhili":4146,"Ġsed":4147,"ĠdivÃª":4148,"Ġheller":4149,"undom":4150,"Ġett":4151,"rige":4152,"Ġditt":4153,"ĠÃ¥pen":4154,"ĠsÃ¸r":4155,"ĠSulu":4156,"talt":4157,"dhabu":4158,"Ġmashariki":4159,"Ġoppda":4160,"Ġbajar":4161,"Ġtan":4162,"áĥ£áĥłáĥ":4163,"Ġhatiye":4164,"Ġgamle":4165,"ĠâĢĿ":4166,"kos":4167,"Ġmassasje":4168,"ĠNÃ¥":4169,"Ġsing":4170,"sport":4171,"Ġenda":4172,"ĠsÃ¦r":4173,"ĠKigoma":4174,"ÅŁe":4175,"Ġmkakati":4176,"ĠSamia":4177,"Ġmagonjwa":4178,"Ġzenye":4179,"Ġhotuba":4180,"Ġkarne":4181,"Ġufaulu":4182,"funza":4183,"lulizo":4184,"Ġvikuu":4185,"Ġushauri":4186,"undombinu":4187,"ĠAv":4188,"ĠnÃ¸dven":4189,"\".":4190,"ĠUganda":4191,"ĠvÃ®":4192,"Ġkro":4193,"Ġciva":4194,"undo":4195,"ĠvÃ¥rt":4196,"achi":4197,"Ġsosia":4198,"Ġvanlig":4199,"Ġgari":4200,"dia":4201,"Ġhau":4202,"Ã¥ende":4203,"ongwe":4204,"anzisha":4205,"rasia":4206,"idizi":4207,"áĥĺáĥļáĥĺ":4208,"Ġ%":4209,"ummer":4210,"áĥĺáĥłáĥ":4211,"dustri":4212,"bÃ®":4213,"Ġwiha":4214,"Ġsky":4215,"ĠDenne":4216,"Ġliten":4217,"ĠThe":4218,"Ġoslo":4219,"fir":4220,"ĠMal":4221,"ĠSuluhu":4222,"ĠKijiji":4223,"Ġumekuwa":4224,"Ġushindi":4225,"lizika":4226,"Ð±":4227,"áĥ¤":4228,"38":4229,"nene":4230,"kika":4231,"hengi":4232,"ball":4233,"Ġubora":4234,"Ġmashindano":4235,"Ġuhaki":4236,"ĠUkumbi":4237,"versi":4238,"36":4239,"Ġkilom":4240,"32":4241,"vek":4242,"ĠDis":4243,"Ġban":4244,"Ġram":4245,"Ġwo":4246,"ĠLo":4247,"Ġkonkur":4248,"Ġrew":4249,"Ġlita":4250,"Ġpos":4251,"ĠspÃ¸rsmÃ¥l":4252,"Ġmusi":4253,"pote":4254,"Ġzawadi":4255,"ĠMtendaji":4256,"Ġanaye":4257,"Ġdarasa":4258,"tÃªn":4259,"meld":4260,"ĠMr":4261,"drett":4262,"RI":4263,"pir":4264,"ĠStella":4265,"yota":4266,"kutana":4267,"áĥĿáĥľáĥ":4268,"Ġkubadili":4269,"dhibiti":4270,"Ġkutambua":4271,"Ġmazoezi":4272,"Ġxw":4273,"bina":4274,"zan":4275,"sek":4276,"hamas":4277,"Ġ&":4278,"ĠMachi":4279,"Bi":4280,"panda":4281,"ĠAS":4282,"Ġmp":4283,"xi":4284,"Ġhaja":4285,"Serikali":4286,"Ġkuhusiana":4287,"uawa":4288,"falme":4289,"Ġusiku":4290,"Ġvitendo":4291,"Ġmakubaliano":4292,"yek":4293,"ĠKia":4294,"Ġungdom":4295,"Ġkol":4296,"Ġfire":4297,"ĠWi":4298,"Ġmang":4299,"zeti":4300,"Ġsted":4301,"Ġbehov":4302,"ĠMamlaka":4303,"Ġuwa":4304,"Timu":4305,"kurasa":4306,"Ġkifo":4307,"ĠTuzo":4308,"tume":4309,"jadili":4310,"deling":4311,"Ġuliopo":4312,"Ġmawasiliano":4313,"Ġspesielt":4314,"KK":4315,"hamiaji":4316,"mÃ®":4317,"Ãħ":4318,"king":4319,"Ġmirov":4320,"Ġbry":4321,"ĠstÃ¸rste":4322,"gas":4323,"Sa":4324,"tallet":4325,"Ġtoka":4326,"Ġkiume":4327,"Ġkuboresha":4328,"Ġkufika":4329,"ishna":4330,"ĠKorea":4331,"ansen":4332,"ĠPicha":4333,"inisha":4334,"Ġmgogoro":4335,"Ġwasio":4336,"Ġbaina":4337,"andikwa":4338,"Ġdire":4339,"Ñĥ":4340,"Ġallerede":4341,"rene":4342,"Ġtror":4343,"Ġnov":4344,"Ġstem":4345,"ĠTimu":4346,"Ġhiki":4347,"kring":4348,"Ġsommer":4349,"ĠMakonda":4350,"Ġmshindi":4351,"Ġmfululizo":4352,"Ġnishati":4353,"Ġkukagua":4354,"Ġufanisi":4355,"Ġmaombi":4356,"ĠMstaafu":4357,"Ġhjelpe":4358,"Ġonline":4359,"hadi":4360,"bert":4361,"ĠSom":4362,"ĠNj":4363,"ĠsÃ¸k":4364,"Ġlivet":4365,"uka":4366,"Ġupas":4367,"Ġkusaidia":4368,"Ġkushi":4369,"Ġsayansi":4370,"ĠManyanya":4371,"Mkurugenzi":4372,"Ġitaka":4373,"asili":4374,"Ġside":4375,"fatter":4376,"zoni":4377,"vÃ¦r":4378,"Ġgitt":4379,"Ġero":4380,"....":4381,"ĠaliyÃª":4382,"Ġfelles":4383,"ningene":4384,"ĠZiwa":4385,"Ġnane":4386,"sÃª":4387,"ĠMafunzo":4388,"ombaji":4389,"ĠShe":4390,"ĠUongozi":4391,"Ġmiji":4392,"Ġjoto":4393,"Ġkushindwa":4394,"Ġkisheria":4395,"Ġvanskelig":4396,"dende":4397,"side":4398,"linda":4399,"Ġkrav":4400,"holder":4401,"Ġzan":4402,"ppor":4403,"Ġmita":4404,"fall":4405,"Ġmg":4406,"RD":4407,"Ġfast":4408,"sig":4409,"xe":4410,"baki":4411,"sket":4412,"bunifu":4413,"ĠNdugu":4414,"Ġwajibu":4415,"Ġupasuaji":4416,"Ġfol":4417,"ĠSo":4418,"Ġsette":4419,"bika":4420,"rey":4421,"Ġbetyr":4422,"kata":4423,"istan":4424,"onal":4425,"ĠHvis":4426,"ĠgelÃª":4427,"Ġlin":4428,"Ġnasjon":4429,"Ġkompet":4430,"Ġaktivitet":4431,"Ġbodi":4432,"Ġutford":4433,"lagt":4434,"ĠUlinzi":4435,"Ġkambi":4436,"Ġwatendaji":4437,"Naibu":4438,"Ġvyan":4439,"tajwa":4440,"Ġwatumiaji":4441,"siden":4442,"Ġstort":4443,"Ġanga":4444,"Ġsenere":4445,"Ġtri":4446,"ĠGod":4447,"ĠMil":4448,"yayÃª":4449,"tus":4450,"ĠrÃ¥d":4451,"byr":4452,"aribu":4453,"vice":4454,"Ġorganis":4455,"Ġtakri":4456,"Ġkuzuia":4457,"Ġmagari":4458,"ĠbesÃ¸k":4459,"Ġajira":4460,"Ġeffek":4461,"Â».":4462,"Ġinternasjon":4463,"ĠGu":4464,"Ġbedri":4465,"over":4466,"Ġdeler":4467,"ĠherÃ®":4468,"Ġdigi":4469,"áĥĿáĥłáĥĹ":4470,"ĠMus":4471,"iner":4472,"Ġsend":4473,"ĠĠĠĠ":4474,"mil":4475,"Ġkvinne":4476,"ĠKampuni":4477,"Ġvifo":4478,"Ġkizazi":4479,"Ġmagharibi":4480,"Ġvyanzo":4481,"endeleza":4482,"Ġwingi":4483,"ĠJakaya":4484,"befa":4485,"Ġinv":4486,"cÃ®":4487,"oo":4488,"ĠInd":4489,"Ġdokumen":4490,"els":4491,"Ġsan":4492,",âĢĿ":4493,"ranÃª":4494,"esign":4495,"Ġetab":4496,"ĠÃ¥rene":4497,"husisha":4498,"andamano":4499,"yana":4500,"Ã¥let":4501,"name":4502,"ĠEt":4503,"bada":4504,"oteli":4505,"Ġdelta":4506,"Ġminst":4507,"Ġholde":4508,"jef":4509,"Ġdewlet":4510,"Ġnorge":4511,"ĠEuro":4512,"áĥŁ":4513,"ĠIraq":4514,"Ġtilgjen":4515,"ĠKanda":4516,"ĠyekÃª":4517,"ĠtenÃª":4518,"Ġlagt":4519,"lubb":4520,"Ġkli":4521,"ON":4522,"sfor":4523,"ĠHaki":4524,"miliki":4525,"Ġjuhudi":4526,"Ġchake":4527,"Ġambavyo":4528,"lingana":4529,"ĠMka":4530,"Ġsemina":4531,"rÃ¥d":4532,"ĠAwa":4533,"Ġdiyar":4534,"áĥĶáĥĽ":4535,"qu":4536,"Ġlenge":4537,"xistin":4538,"Ġsyke":4539,"stru":4540,"lahi":4541,"Ġarbeidet":4542,"ĠâĢ¢":4543,"zar":4544,"laget":4545,"Ġhalisi":4546,"Makala":4547,"chwa":4548,"serte":4549,"rasjon":4550,"Ã¸dt":4551,"iden":4552,"dul":4553,"ĠNje":4554,"ybet":4555,"geria":4556,"Ġmadara":4557,"Ġvijiji":4558,"Ġkuleta":4559,"uda":4560,"Ġekstra":4561,"revet":4562,"Ġgrad":4563,"FF":4564,"Ġche":4565,"kel":4566,"ĠPia":4567,"Ġregi":4568,"Ã®ro":4569,"ĠNorsk":4570,"fundi":4571,"bes":4572,"kimwi":4573,"fanyabiashara":4574,"Ġzar":4575,"fungu":4576,"Ġkuishi":4577,"ĠWatu":4578,".\"":4579,"beg":4580,"ĠUN":4581,"Ġmanu":4582,"Ġkny":4583,"ĠfÃ¸":4584,"zito":4585,"Ã®yÃª":4586,"EC":4587,"Ġfem":4588,"Ġnesten":4589,"kumu":4590,"Ġfyl":4591,"ĠKatavi":4592,"áĥ£áĥĽ":4593,"Ġkidogo":4594,"Ġwabunge":4595,"Ġwakifuatilia":4596,"Ġutendaji":4597,"Ġkwao":4598,"Ġteknolojia":4599,"wezekana":4600,"Ġmbio":4601,"Ġmillioner":4602,"fÃ¸lge":4603,"KU":4604,"up":4605,"Ġmai":4606,"Ġbibe":4607,"kÃ»":4608,"disjon":4609,"Ġunge":4610,"vende":4611,"Ġaza":4612,"Ġmke":4613,"ĠMwenge":4614,"Ġiko":4615,"ĠMwenye":4616,"Ġkuwasilisha":4617,"Ġnao":4618,"ĠNjombe":4619,"kamatwa":4620,"ĠMhandisi":4621,"ĠTh":4622,"Ã¼":4623,"Ġbolig":4624,"Ġfulani":4625,"ffe":4626,"folk":4627,"Ġfoku":4628,"sam":4629,"Ġmoto":4630,"ĠUSA":4631,"Ġansatte":4632,"Ġkara":4633,"ĠdÃ¥r":4634,"Ġakis":4635,"Ġuni":4636,"Ġukurasa":4637,"zao":4638,"ĠzimanÃª":4639,"chagua":4640,"Ġlese":4641,"ĠBiashara":4642,"Ġmapendekezo":4643,"kuwepo":4644,"bile":4645,"Hu":4646,"kluder":4647,"ĠApri":4648,"ĠnÃ¦rm":4649,"Ġredu":4650,"Ġdixwa":4651,"Ġpre":4652,"ĠIsrael":4653,"tion":4654,"Ġheta":4655,"rar":4656,"Ġsc":4657,"Ġakiwasili":4658,"Ġviwango":4659,"unuzi":4660,"Ġkukama":4661,"kufu":4662,"ity":4663,"Ġulemavu":4664,"ĠMin":4665,"ĠhÃ»n":4666,"Ġfeil":4667,"ĠJose":4668,"De":4669,"Ġnet":4670,"RC":4671,"val":4672,"ega":4673,"Ġtuli":4674,"lala":4675,"yer":4676,"skari":4677,"ĠBan":4678,"Ġstuden":4679,"ãģ":4680,"ork":4681,"Ġmawazo":4682,"jio":4683,"Ġkombe":4684,"Ġjua":4685,"Ġmakini":4686,"Ġmiundombinu":4687,"ĠKilimo":4688,"IL":4689,"ĠáĥĹáĥĶ":4690,"Ġbort":4691,"orde":4692,"likt":4693,"TO":4694,"ĠÃ¸kt":4695,"2020":4696,"Ġegne":4697,"ĠGi":4698,"isiko":4699,"Ã¸n":4700,"48":4701,"ĠAna":4702,"hat":4703,"ĠforstÃ¥":4704,"ambukizi":4705,"CCM":4706,"Ġukubwa":4707,"ĠBwana":4708,"isaada":4709,"Ġrahisi":4710,"Ġasi":4711,"ĠâĢŀ":4712,"300":4713,"sv":4714,"stad":4715,"DP":4716,"pul":4717,"Ġhew":4718,"andre":4719,"ngÃ¥":4720,"Ġkodi":4721,"lly":4722,"Ġkika":4723,"Ġika":4724,"ĠNovemba":4725,"ĠKituo":4726,"ĠMtakatifu":4727,"Ġmingi":4728,"Ġmajina":4729,"Ġchanjo":4730,"huria":4731,"Ġjengo":4732,"Ġslutt":4733,"BC":4734,"omrÃ¥":4735,"áĥĲáĥļáĥĺ":4736,"amas":4737,"usi":4738,"Ġbyg":4739,"Ġnya":4740,"ĠKun":4741,"Ġminu":4742,"blia":4743,"sababisha":4744,"tishwa":4745,"ĠKaimu":4746,"Ġkununua":4747,"jitokeza":4748,"Ġalitoa":4749,"asheria":4750,"áĥ£áĥľ":4751,"Ġdra":4752,"fiser":4753,"Ġdersom":4754,"ĠskjÃ¸":4755,"EL":4756,"ski":4757,"ange":4758,"ĠHva":4759,"ĠLes":4760,"plan":4761,"Ġhene":4762,"hist":4763,"ĠAnthony":4764,"Ġiliyokuwa":4765,"Mkutano":4766,"Ġupinzani":4767,"Ġkatibu":4768,"fanua":4769,"Ġsjek":4770,"funga":4771,"kebisho":4772,"Ġutakuwa":4773,"âĢ¢":4774,"Ġkumbu":4775,"Ġhatin":4776,"fy":4777,"2003":4778,"tiyÃª":4779,"ĠjÃª":4780,"Ġbor":4781,"ffer":4782,"ĠVer":4783,"49":4784,"37":4785,"sur":4786,"Ġfanta":4787,"Ġmakam":4788,"Ġvyema":4789,"In":4790,"ĠUtafiti":4791,"Ġkukabidhi":4792,"dagen":4793,"ĠUtalii":4794,"Ġtran":4795,"ĠSem":4796,"Ġlage":4797,"Ġgotin":4798,"ĠNya":4799,"áĥĿáĥ¦":4800,"Â²":4801,"Ġkil":4802,"ĠAd":4803,"kasi":4804,"Ġang":4805,"erere":4806,"fra":4807,"endom":4808,"kj":4809,"Ġdha":4810,"bila":4811,"ĠkjÃ¸p":4812,"Ġutvalg":4813,"Ġriktig":4814,"iddel":4815,"Ġferdig":4816,"ĠUislamu":4817,"Ġkucheza":4818,"las":4819,"shukuru":4820,"ĠSongwe":4821,"milisha":4822,"Ġmaandamano":4823,"Mwan":4824,"Ġkupiga":4825,"ĠBen":4826,"ktÃ¸r":4827,"ledning":4828,"labu":4829,"udi":4830,"iyÃª":4831,"heim":4832,"Ġvirkelig":4833,"Ġsitu":4834,"dewa":4835,"uk":4836,"Ġsentra":4837,"eli":4838,"miza":4839,"ĠwekÃ®":4840,"ĠJimbo":4841,"Ġkufunga":4842,"Ġshahada":4843,"Ġwalipo":4844,"Ġujuzi":4845,"Ġkukamilika":4846,"Ġwageni":4847,"Ġkujua":4848,"jamii":4849,"Ã¶":4850,"Ġbild":4851,"Ġpubli":4852,"Ġwer":4853,"33":4854,"Ġdola":4855,"áĥĿáĥ¤":4856,"42":4857,"DC":4858,"ĠJe":4859,"ĠÃ¥ret":4860,"Ġtas":4861,"hengig":4862,"gana":4863,"my":4864,"ĠKitaifa":4865,"Ġukiwa":4866,"Ġkujifunza":4867,"atisk":4868,"Ġndugu":4869,"ĠNyerere":4870,"jengo":4871,"asiasa":4872,"neo":4873,"demok":4874,"Ġproduksjon":4875,"ĠPili":4876,"bri":4877,"Ġáĥ©":4878,"rum":4879,"Ġinnhold":4880,"ĠTV":4881,"Ġkost":4882,"Ġanbefa":4883,"Ġspiller":4884,"ogle":4885,"blem":4886,"Ġger":4887,"Ġziki":4888,"Ġniha":4889,"ĠMitaa":4890,"Ġyeyote":4891,"Ġusafiri":4892,"Ġsl":4893,"Ġufu":4894,"teria":4895,"ĠstÃ¸tte":4896,"Ġforbind":4897,"kjent":4898,"ambia":4899,"ande":4900,"Ġfaktisk":4901,"Ġbygge":4902,"Ġáĥ¬áĥĲáĥľáĥĲ":4903,"ĠWe":4904,"Ġmiti":4905,"ĠMA":4906,"vid":4907,"Ġdom":4908,"mann":4909,"Ġris":4910,"wanza":4911,"Ġgjorde":4912,"ĠStor":4913,"eshima":4914,"llere":4915,"Ġkikazi":4916,"Ġmjadala":4917,"ĠArdhi":4918,"Ġukweli":4919,"jijini":4920,"Ġkuzaliwa":4921,"Ġutum":4922,"bra":4923,"Ġses":4924,"Ġsikkerhet":4925,"Ġstedet":4926,"Ġas":4927,"ĠFacebook":4928,"Ġkamili":4929,"Ġenergi":4930,"Ġadhabu":4931,"Ġusha":4932,"Ġkuonyesha":4933,"Ġkikosi":4934,"BO":4935,"hudhuria":4936,"Ġganske":4937,"Ġhenne":4938,"Ġsep":4939,"Ġalim":4940,"Ġspennende":4941,"idlertid":4942,"Ġje":4943,"drag":4944,"orge":4945,"ĠMali":4946,"Ġsty":4947,"anuar":4948,"ĠpiÅŁtÃ®":4949,"Ġgesi":4950,"kishwa":4951,"dhamini":4952,"Ġmiguu":4953,"Ġmaambukizi":4954,"fugo":4955,"Ġkuki":4956,"Ġol":4957,"ĠBy":4958,"tel":4959,"Ġkjem":4960,"ativ":4961,"2004":4962,"arti":4963,"gawa":4964,"tens":4965,"kurat":4966,"ĠnÃ¸":4967,"ĠáĥĲáĥłáĥ":4968,"Ġfot":4969,"ĠDA":4970,"like":4971,"Ġenkelte":4972,"Ġtaybet":4973,"Ġspille":4974,"Ġbehandling":4975,"Ġpersoner":4976,".)":4977,"kkelig":4978,"Ġry":4979,"nad":4980,"asiri":4981,"Ġkuangalia":4982,"Ġkukamatwa":4983,"ĠSayansi":4984,"Ġalama":4985,"skofu":4986,"semaji":4987,"Ġwakim":4988,"Ġambacho":4989,"Ja":4990,"ĠnÃ¸dvendig":4991,"vanger":4992,"okÃª":4993,"lÃ¦ring":4994,"Ġxeba":4995,"Ġelekt":4996,"ĠáĥĲáĥĻ":4997,"raha":4998,"Ġsikre":4999,"Ġab":5000,"sdag":5001,"ĠMat":5002,"Ġtimer":5003,"vd":5004,"Ġbud":5005,"Ġfy":5006,"ĠItalia":5007,"Ġpesa":5008,"dirio":5009,"Mkoa":5010,"Ġmojawapo":5011,"Ġusajili":5012,"ĠBalozi":5013,"ĠReg":5014,"ĠÃªrÃ®":5015,"Ġnava":5016,"Ġhjer":5017,"Ġdyr":5018,"Ġutenfor":5019,"ĠZi":5020,"Ġkv":5021,"Ġregistrer":5022,"lit":5023,"ĠKazi":5024,"Ġhvi":5025,"zÃª":5026,"ĠTrump":5027,"mark":5028,"Ġhoja":5029,"pekee":5030,"thmini":5031,"Lakini":5032,"aratani":5033,"ambano":5034,"Ġkupatikana":5035,"ĠGe":5036,"fes":5037,"âĢĿ.":5038,"chani":5039,"ĠMari":5040,"Ġleng":5041,"gwe":5042,"ktor":5043,"ĠsÃ¸ke":5044,"kol":5045,"phen":5046,"Ġbuti":5047,"Ġnete":5048,"Ġmasha":5049,"Ġroja":5050,"ĠKal":5051,"Ġuelewa":5052,"umanne":5053,"milifu":5054,"Ġibada":5055,"Ġmtaa":5056,"Ġforv":5057,"Ġkupokea":5058,"ig":5059,"lika":5060,"Ġ$":5061,"Ġlegger":5062,"skaper":5063,"vikling":5064,"OR":5065,"ome":5066,"ĠCa":5067,"Ġtiltak":5068,"Ġdia":5069,"Ġtopp":5070,"eser":5071,"turen":5072,"ĠSÃ¸r":5073,"2002":5074,"Ġnem":5075,"lis":5076,"áĥĲáĥľáĥĵ":5077,"idh":5078,"!!":5079,"Ġperio":5080,"Ġwaka":5081,"Ġgha":5082,"Ġsamtidig":5083,"bera":5084,"stisk":5085,"yuta":5086,"Ġziada":5087,"elevu":5088,"ambuliwa":5089,"hia":5090,"Ġbaraza":5091,"ĠJijini":5092,"Ġakili":5093,"Ġimesema":5094,"Ġkumaliza":5095,"sto":5096,"HI":5097,"ĠKim":5098,"Ġuke":5099,"Ġmel":5100,"áĥķáĥĲáĥļ":5101,"mon":5102,"Ġkurdan":5103,"war":5104,"Ãİ":5105,"ÅŁker":5106,"hana":5107,"rep":5108,"Ġkunst":5109,"ĠBur":5110,"Ġada":5111,"Ã®ÅŁan":5112,"Ġkurudi":5113,"lalamiko":5114,"Ġukanda":5115,"Ġkutaka":5116,"Ġkufuata":5117,"Ġmashirika":5118,"zamo":5119,"Ġtiketi":5120,"Ġmtihani":5121,"Ġikiwemo":5122,"Ġheshima":5123,"áĥĲáĥľáĥ¡":5124,"ĠhÃ¸yere":5125,"Ġlikevel":5126,"áĥ£áĥĵ":5127,"ĠWil":5128,"Ġapp":5129,"vne":5130,"hir":5131,"55":5132,"Ġkunnskap":5133,"Ġamri":5134,"Ġbunge":5135,"Ã®nÃ®":5136,"Ġslike":5137,"ishara":5138,"Ġmume":5139,"Ġmwenyeji":5140,"wakilishi":5141,"Ġamem":5142,"ĠMeneja":5143,"ĠPombe":5144,"Ġuhalifu":5145,"Sehemu":5146,"ambuzi":5147,"Ġtani":5148,"tandaoni":5149,"ĠWanga":5150,"ĠlÃ¦re":5151,"Ġfung":5152,"ww":5153,"qa":5154,"firi":5155,"Ġvise":5156,"vde":5157,"Ġegentlig":5158,"ĠáĥĽáĥĶáĥ":5159,"Ġjente":5160,"ĠAlle":5161,"ass":5162,"lad":5163,"Ġkime":5164,"Ġpenger":5165,"ple":5166,"Ġren":5167,"Ġtema":5168,"guja":5169,"Ġmitaa":5170,"kilisha":5171,"fikapo":5172,"piki":5173,"Ġhukumu":5174,"Ġwafuasi":5175,"Ġkumbukumbu":5176,"Ġkutangaza":5177,"nu":5178,"lysninger":5179,"Ġparti":5180,"KT":5181,"udan":5182,"Ġpoeng":5183,"Ġprosjekt":5184,"ĠHel":5185,"Ġpol":5186,"ĠEli":5187,"Ġdermed":5188,"Ã¥ret":5189,"ative":5190,"versitet":5191,"Ġkile":5192,"rÃ¥k":5193,"ĠStephen":5194,"rere":5195,"amali":5196,"Ġyata":5197,"Ġkuwekeza":5198,"ĠAwamu":5199,"Ġmadini":5200,"fahamu":5201,"Ġmaslahi":5202,"tambo":5203,"onesho":5204,"Ġfores":5205,"sering":5206,"terer":5207,"ĠChar":5208,"Ġfas":5209,"Ġforteller":5210,"Ã¸ke":5211,"ct":5212,"urt":5213,"Ġpriva":5214,"Ð´":5215,"ym":5216,"Ġlandet":5217,"ĠtiÅŁ":5218,"ĠSko":5219,"ĠÃ§end":5220,"47":5221,"Ġimidlertid":5222,"ĠFre":5223,"Ġkote":5224,"velser":5225,"tambua":5226,"Ġagizo":5227,"Ġmarekebisho":5228,"Taarifa":5229,"ĠundersÃ¸k":5230,"Ġsila":5231,"Ġvari":5232,"ĠMaka":5233,"IA":5234,"Ġpart":5235,"him":5236,"hibiti":5237,"Ġxwed":5238,"jenester":5239,"Ġyu":5240,"Ġhember":5241,"Ġetabler":5242,"Ġprosjektet":5243,"kka":5244,"Ġvitu":5245,"Ġile":5246,"ĠEneo":5247,"Ġndiye":5248,"potiwa":5249,"ĠMwana":5250,"Ġkuondoa":5251,"Ġrushwa":5252,"ĠWangabo":5253,"tember":5254,"ĠgÃ¥tt":5255,"post":5256,"Her":5257,"Ġforbindelse":5258,"ET":5259,"tiden":5260,"pania":5261,"Ġmedlemmer":5262,"prosjek":5263,"ĠáĥĿ":5264,"06":5265,"Ġmod":5266,"Ġhjemme":5267,"Ġwaa":5268,"Ġenc":5269,"amaa":5270,"Ġutstyr":5271,"ĠMakao":5272,"Ġeget":5273,"zunguko":5274,"Ġkipekee":5275,"Ġsahihi":5276,"Ġmitihani":5277,"ĠVyuo":5278,"rikisho":5279,"fanyia":5280,"Ġmto":5281,"angazo":5282,"Ġmarehemu":5283,"Ġmbunge":5284,"Ġushirika":5285,"Ġutro":5286,"Ġkira":5287,"áĥĲáĥĻ":5288,"sider":5289,"Ġrun":5290,"elefon":5291,"pera":5292,"Â»,":5293,"skudd":5294,"holde":5295,"Ġbid":5296,"patia":5297,"tiye":5298,"OS":5299,"Ġarrang":5300,"ĠdÃ®ro":5301,"Du":5302,"terte":5303,"ĠÃ¸y":5304,"Ġhatine":5305,"Ġutvikle":5306,"Ġmakala":5307,"ĠNoen":5308,"Ġwakimbi":5309,"endesha":5310,"Ġupungufu":5311,"Ġkusababisha":5312,"kwenda":5313,"ctor":5314,"rg":5315,"Ġuto":5316,"ĠkjÃ¦rlighet":5317,"ĠberÃª":5318,"Ġtidlig":5319,"39":5320,"sefu":5321,"ÐºÐ°":5322,"tive":5323,"Ġskolen":5324,"hÃªn":5325,"áĥłáĥĺ":5326,"Ġcar":5327,"ppet":5328,"Ġstartet":5329,"Ġgrun":5330,"Ġklokker":5331,"ĠIkke":5332,"leg":5333,"ĠSal":5334,"Ġmine":5335,"yiko":5336,"athiri":5337,"Ġifikapo":5338,"juma":5339,"ĠHuduma":5340,"Ġvingi":5341,"Ġwawekezaji":5342,"Ġmanufaa":5343,"wasilishwa":5344,"Ġkocha":5345,"Ġsynes":5346,"Ġkujiunga":5347,"Ġdrift":5348,"ĠAbdul":5349,"yekÃ®":5350,"ĠIns":5351,"can":5352,"ĠAt":5353,"ĠCity":5354,"serer":5355,"ĠbÃ»ye":5356,"Ġnavn":5357,"ĠgjÃ¸res":5358,"Ġkuri":5359,"die":5360,"chezwa":5361,"ĠKiafrika":5362,"Ġjumuiya":5363,"Ġwagombea":5364,"ĠMtandao":5365,"katili":5366,"Ġkupele":5367,"Ġwasichana":5368,"Ġmusikk":5369,"fungwa":5370,"ĠNdi":5371,"Ġhverandre":5372,"ĠprÃ¸ve":5373,"ĠNigeria":5374,"Ġrepres":5375,"lÃ¸s":5376,"Ġfunksjon":5377,"Ġbur":5378,"ĠbÃ®":5379,"eza":5380,"tas":5381,"Ġskape":5382,"fr":5383,"ĠaltsÃ¥":5384,"dis":5385,"Ġmeld":5386,"entlige":5387,"MB":5388,"Ġinkluder":5389,"400":5390,"cal":5391,"Mu":5392,"LA":5393,"pris":5394,"áĥĺáĥ¥":5395,"ĠKurdÃ®":5396,"ĠWakati":5397,"ĠKil":5398,"áĥĶáĥľáĥ¢":5399,"lik":5400,"sgi":5401,"elfu":5402,"Ġmalalamiko":5403,"vuvi":5404,"Ġkuruhusu":5405,"ĠBiblia":5406,"likuwa":5407,"Ġlinalo":5408,"Ġmikakati":5409,"Ġahadi":5410,"Ġwanyama":5411,"ĠMbunge":5412,"ĠMawasiliano":5413,"ĠMipango":5414,"Ġutakao":5415,"Ġsalg":5416,"taja":5417,"kis":5418,"ĠWaa":5419,"irobi":5420,"Ġverdens":5421,"Ġpsy":5422,"Ġop":5423,"wÃª":5424,"Ġxwen":5425,"ĠomrÃ¥det":5426,"Ġfjor":5427,"topp":5428,"Ġbegynte":5429,"sb":5430,"ssy":5431,"Ġkufuatilia":5432,"Ġwenyeji":5433,"Ġkukuza":5434,"Ġkuomba":5435,"Hayo":5436,"Ġyalikuwa":5437,"Ġkuwania":5438,"Ġtaratibu":5439,"faham":5440,"okovu":5441,"ambana":5442,"ĠYo":5443,"Ġbeta":5444,"fÃ¸res":5445,"Ġrel":5446,"ĠhÃ¸r":5447,"Ġklart":5448,"Ġáĥĺáĥľáĥ":5449,"ĠEs":5450,"ING":5451,"zidi":5452,"lek":5453,"ila":5454,"Ġdib":5455,"teri":5456,"Ġbilde":5457,"tok":5458,"kkel":5459,"Ġutgang":5460,"elea":5461,"ĠJoachi":5462,"Ġmask":5463,"lozi":5464,"andina":5465,"ĠJoachim":5466,"ĠTek":5467,"ĠbeÅŁ":5468,"Ġajali":5469,"Ġalder":5470,"vo":5471,"Ġfortset":5472,"ĠUnguja":5473,"ĠManyara":5474,"ĠKiingereza":5475,"Ġwanajeshi":5476,"ĠKassim":5477,"Ġkuanzishwa":5478,"Ġisiyo":5479,"Ġmisaada":5480,"Ġvinavyo":5481,"Ġuhakika":5482,"ĠAfisa":5483,"katibu":5484,"Ġiliyotolewa":5485,"Ġwimbo":5486,"ĠSudan":5487,"cc":5488,"ĠsÃ¦rlig":5489,"Ġtru":5490,"tÃ»":5491,"Ġinnenfor":5492,"Ġgav":5493,"alestina":5494,"ĠJoseph":5495,"fia":5496,"tun":5497,"ĠGoogle":5498,"Ame":5499,"Ġfilm":5500,"Ġskrive":5501,"Ġproble":5502,"Ġweke":5503,"PÃ¥":5504,"Ġvekt":5505,"handling":5506,"Ġkommen":5507,"kuta":5508,"Ġkutu":5509,"ĠÃ®n":5510,"Ġbao":5511,"Ġfjer":5512,"stan":5513,"ĠnivÃ¥":5514,"Ġkijeshi":5515,"Ġmisitu":5516,"Ġyaliyofanyika":5517,"Kaimu":5518,"Ġanaweza":5519,"Ġkitaaluma":5520,"ĠWafanyakazi":5521,"hoji":5522,"sikiliza":5523,"pelekea":5524,"Ġkuchangia":5525,"kusanya":5526,"endeshaji":5527,"jumuisha":5528,"Ġdij":5529,"Ġtradisjon":5530,"rid":5531,"Ġtenke":5532,"gar":5533,"ĠmÃ¸ter":5534,"áĥĿáĥĴ":5535,"gust":5536,"Ġsisi":5537,"Ġhas":5538,"Ġgund":5539,"arbeidet":5540,"Ġutu":5541,"ĠtÃªn":5542,"wn":5543,"lede":5544,"áĥĿáĥĹ":5545,"isin":5546,"Ġbegge":5547,"Ġindustri":5548,"Ġhazi":5549,"Ġnayo":5550,"kten":5551,"áĥĿáĥĵ":5552,"ĠUk":5553,"Ã®l":5554,"áĥ£áĥĹ":5555,"elo":5556,"lango":5557,"Ji":5558,"Ġmaziwa":5559,"Ġmakampuni":5560,"Ġmsh":5561,"lipwa":5562,"Ġujao":5563,"giwa":5564,"Ġaskari":5565,"Ġmzima":5566,"Ġkudumu":5567,"Viongozi":5568,"vuma":5569,"ingiza":5570,"Ġutamaduni":5571,"tumwa":5572,"elekezo":5573,"Ġfunnet":5574,"yem":5575,"ĠKurdan":5576,"ĠII":5577,"Ġtrening":5578,"Men":5579,"tinÃª":5580,"Ġrese":5581,"ssa":5582,"gere":5583,"ĠTAN":5584,"Ġáĥ¬áĥĲáĥľáĥĲáĥ¨":5585,"ige":5586,"ĠNairobi":5587,"talen":5588,"Ġminutter":5589,"hel":5590,"ĠfÃ¸lger":5591,"Ġeldre":5592,"ĠÐ¾":5593,"ĠÃ©":5594,"Ġjobber":5595,"ĠáĥĿáĥ¨":5596,"Ġskriver":5597,"Ġtjenester":5598,"kodi":5599,"uhi":5600,"uzo":5601,"bare":5602,"Ġáĥĸ":5603,"Ġmawili":5604,"Ġkuuza":5605,"ĠDuniani":5606,"Ġzilizopo":5607,"Ġfuraha":5608,"Ġmakosa":5609,"ĠLakini":5610,"stilling":5611,"tim":5612,"ĠÃ®ro":5613,"Ġminne":5614,"ĠMÃ¸":5615,"ventu":5616,"Ġproblem":5617,"kul":5618,"jaa":5619,"ĠSen":5620,"ĠGr":5621,"ĠSy":5622,"Ġhus":5623,"Ġsaken":5624,"klar":5625,"lio":5626,"tende":5627,"mwa":5628,"ĠKwanza":5629,"Ġâ":5630,"Ġmbo":5631,"ĠIkulu":5632,"Ġuwepo":5633,"Ġlilikuwa":5634,"Ġhadhara":5635,"Ġmwanachama":5636,"fikiwa":5637,"kwazo":5638,"Ġakisa":5639,"ashiriki":5640,"Ġkitabu":5641,"pelekwa":5642,"pangwa":5643,"Ġfupi":5644,"Ġlei":5645,"ment":5646,"ĠSol":5647,"Ð°Ð½":5648,"ĠÃ§av":5649,"áĥĲáĥª":5650,"Ġuf":5651,"ĠalÃ®":5652,"ĠIna":5653,"Ġeneste":5654,"ĠAndre":5655,"Ġjuni":5656,"áĥĺáĥ¡áĥ¢":5657,"ĠFin":5658,"nns":5659,"kwe":5660,"Ð¼":5661,"Ġhis":5662,"Ġknyttet":5663,"emen":5664,"ĠNd":5665,"Ġtuta":5666,"ĠDr":5667,"Ġkompetanse":5668,"Ġsingle":5669,"Ġkit":5670,"Ġmzunguko":5671,"inishwa":5672,"maji":5673,"Ġkuondoka":5674,"jibika":5675,"Ġwanaume":5676,"Ġáĥĵáĥ¦":5677,"ĠNkasi":5678,"Ġkuwapa":5679,"vern":5680,"Ġbarna":5681,"Ġvenn":5682,"ando":5683,"Ġnas":5684,"Ġkiriye":5685,"kta":5686,"Ġsham":5687,"ĠRes":5688,"Ġdeng":5689,"ĠIm":5690,"Ġproses":5691,"áĥĶáĥ¥":5692,"ĠdawÃ®":5693,"lles":5694,"Ġpopul":5695,"ĠlÃ¸p":5696,"hesa":5697,"ĠEd":5698,"stÃ¥r":5699,"ktet":5700,"ESCO":5701,"46":5702,"Ġforskning":5703,"Ġveien":5704,"Ġklubb":5705,"ettet":5706,"ĠTor":5707,"Ġanlegg":5708,"Ġvyao":5709,"Ġwenzake":5710,"fafanua":5711,"Ġufadhili":5712,"ĠKombe":5713,"ĠUshirika":5714,"ĠhÃ¸yt":5715,"ambulisho":5716,"Ġmaelekezo":5717,"ĠIng":5718,"ĠDem":5719,"ĀĀĀĀ":5720,"Ġameri":5721,"ĠpiÅŁt":5722,"Ġkommet":5723,"his":5724,"Ġsykdom":5725,"umbe":5726,"ĠUnder":5727,"Etter":5728,"Ġfant":5729,"Ġreise":5730,"Ġrisiko":5731,"hema":5732,"Ġmus":5733,"Ġkamp":5734,"Ġbawer":5735,"ress":5736,"kende":5737,"indani":5738,"Ġmyn":5739,"áĥĲáĥľáĥ£áĥł":5740,"Ġchanzo":5741,"kaguzi":5742,"Ġendelevu":5743,"Ġwakimbizi":5744,"tangaza":5745,"jeruhi":5746,"uklia":5747,"ĠWaandishi":5748,"Ġbandari":5749,"Ġwasanii":5750,"ĠBergen":5751,"Ġdide":5752,"tÃ®k":5753,"wada":5754,"amÃª":5755,"Ġhvilke":5756,"enge":5757,"enerali":5758,"Ġhav":5759,"Ġhennes":5760,"Ġvelge":5761,"pital":5762,"Ġposi":5763,"Ġholder":5764,"75":5765,"ĠkesÃªn":5766,"PP":5767,"ngi":5768,"nere":5769,"Ġkart":5770,"ĠMama":5771,"ĠHali":5772,"Ġregjer":5773,"Ġakkurat":5774,"ĠAmani":5775,"Ġrisasi":5776,"Ġneno":5777,"Ġzarok":5778,"etro":5779,"Ġnavbera":5780,"Ġmwakilishi":5781,"ambulia":5782,"onyesho":5783,"Ġmna":5784,"pungua":5785,"ĠMrisho":5786,"Ġwapo":5787,"Ġkukosa":5788,"chache":5789,"Ġwatatu":5790,"ĠUshirikiano":5791,"ĠEU":5792,"EM":5793,"gÃ¥r":5794,"áĥĲáĥĴ":5795,"ED":5796,"ĠHata":5797,"ĠlÃ¦r":5798,"Ġgren":5799,"ĠgrÃ¸":5800,"ruk":5801,"Ġmitt":5802,"ĠfÃ¸dt":5803,"sin":5804,"ement":5805,"Ut":5806,"Ġwala":5807,"Ġhoteli":5808,"ĠslÃ¥":5809,"09":5810,"ĠSera":5811,"poteza":5812,"Naye":5813,"teres":5814,"Hatua":5815,"ratibu":5816,"Ġishara":5817,"ĠJiji":5818,"Ġkuung":5819,"Ġwataka":5820,"ĠSiasa":5821,"Ġhatima":5822,"gawan":5823,"Ġinayofuata":5824,"jaribu":5825,"Ġkipa":5826,"Ġkinacho":5827,"Ġdhamana":5828,"tafiti":5829,"Ġmwanzoni":5830,"Ġbyen":5831,"minist":5832,"ĠGud":5833,"landet":5834,"alu":5835,"epu":5836,"litikk":5837,"Ġbegynner":5838,"Ġuso":5839,"hali":5840,"win":5841,"áĥĲáĥĳ":5842,"ansett":5843,"ĠavgjÃ¸r":5844,"miljÃ¸":5845,"kiri":5846,"Ġtilgjengelig":5847,"Ġfal":5848,"Ġmoder":5849,"Ġkontroll":5850,"Ġpr":5851,"ĠMazingira":5852,"ĠWajumbe":5853,"Kauli":5854,"ĠJumanne":5855,"husiwa":5856,"Ġwataalam":5857,"kamilika":5858,"Ġkulingana":5859,"Ġkuteuliwa":5860,"pendeke":5861,"hudumia":5862,"Mwaka":5863,"Ġnavnet":5864,"Ġforh":5865,"Ġdre":5866,"Ġforn":5867,"ls":5868,"elÃª":5869,"jenge":5870,"ĠHen":5871,"pÃ¥":5872,"erte":5873,"Ġkosa":5874,"ĠTirkiye":5875,"sibu":5876,"ĠCRD":5877,"kusu":5878,"Ġilipo":5879,"Ġkuya":5880,"Ġsanaa":5881,"bingwa":5882,"Ġkusu":5883,"mbaji":5884,"Ġmbinu":5885,"Ġkuanzisha":5886,"Ġmazuri":5887,"demokrasia":5888,"Ġsilaha":5889,"Ġnyota":5890,"Ġkigeni":5891,"Ġann":5892,"Ġkveld":5893,"fanuzi":5894,"ĠKamishna":5895,"Ġhate":5896,"ĠBil":5897,"Ġlenger":5898,"ĠEi":5899,"Ġindi":5900,"biki":5901,"Ġteg":5902,"Ġskjed":5903,"ĠAz":5904,"Ġob":5905,"kkes":5906,"Ġbarneha":5907,"sni":5908,"Dette":5909,"ftig":5910,"ĠstÃ¥":5911,"huset":5912,"fÃª":5913,"Ġvoksne":5914,"Bo":5915,"ĠRas":5916,"ĠCar":5917,"kaji":5918,"ĠserÃª":5919,"ĠJuli":5920,"ĠCRDB":5921,"ĠWananchi":5922,"Ġyaani":5923,"katikati":5924,"zindua":5925,"Ġupendo":5926,"patiwa":5927,"choche":5928,"Ġsalama":5929,"Ġmgombea":5930,"tengeneza":5931,"Ġkutembelea":5932,"ĠKijamii":5933,"Ġkulikuwa":5934,"ĠhÃªzÃªn":5935,"ĠArbeid":5936,"Ġforut":5937,"ĠdestpÃª":5938,"nÃ¥":5939,"Ġliker":5940,"splan":5941,"95":5942,"stemet":5943,"KO":5944,"Ina":5945,"lte":5946,"WI":5947,"Ġvenner":5948,"pla":5949,"vare":5950,"tto":5951,"pport":5952,"SSF":5953,"EA":5954,"Ġruss":5955,"gozi":5956,"iliki":5957,"ved":5958,"Ġmaadili":5959,"ĠKiongozi":5960,"ĠUtumishi":5961,"hitajika":5962,"Ġuliofanywa":5963,"Ġuhaba":5964,"ĠNdani":5965,"ĠRufaa":5966,"Ġhususan":5967,"Ġkuvutia":5968,"bishwa":5969,"Ġwanaweza":5970,"áĥ£áĥ¡":5971,"ĠdÃ¥rlig":5972,"onser":5973,"Ġutdanning":5974,"kita":5975,"ĠVel":5976,"lÃ¸p":5977,"verket":5978,"andar":5979,"Ġkule":5980,"Ġinspi":5981,"Ġhalv":5982,"ĠÃ©n":5983,"ĠdemÃª":5984,"Ġopprett":5985,"Ġáĥŀáĥł":5986,"Ġutt":5987,"ĠÃİranÃª":5988,"ĠFra":5989,"áĥ£áĥ¨":5990,"ktÃ¸y":5991,"Ã§Ã»":5992,"insia":5993,"taler":5994,"Ġpale":5995,"ĠtÃ¸r":5996,"ĠUkimwi":5997,"ĠMradi":5998,"ĠPamoja":5999,"fuatiliaji":6000,"Ġmaswali":6001,"Wanafunzi":6002,"kizo":6003,"Ġdaraja":6004,"metoa":6005,"heng":6006,"sikring":6007,"fag":6008,"mentet":6009,"Ġidrett":6010,"MS":6011,"Ġviktigste":6012,"nelse":6013,"05":6014,"ĠQur":6015,"ĠCon":6016,"ĠIndia":6017,"tad":6018,"spill":6019,"mua":6020,"Ġpresenter":6021,"kerne":6022,"bea":6023,"Ġmazao":6024,"ĠleÅŁker":6025,"shindani":6026,"fuu":6027,"ĠJumapili":6028,"fuatayo":6029,"Ġjirani":6030,"Ġmwanga":6031,"ĠHivyo":6032,"Ġtakwimu":6033,"65":6034,"ĠáĥĲáĥłáĥĹ":6035,"ĠRama":6036,"Ġmasa":6037,"VU":6038,"Ġgjenopp":6039,"ansi":6040,"Ġkif":6041,"zana":6042,"fikk":6043,"Ġfint":6044,"cia":6045,"roni":6046,"enga":6047,"uru":6048,"ĠKongo":6049,"Ġrette":6050,"Ġbela":6051,"Ġantall":6052,"Ġdele":6053,"ĠBina":6054,"Ġuma":6055,"ĠSA":6056,"Ġnaye":6057,"Ġsura":6058,"ĠRoma":6059,"Ġkuma":6060,"Ġipo":6061,"áĥĶáĥľáĥĵ":6062,"Ġmwenendo":6063,"Ġvitabu":6064,"Ġmaandishi":6065,"Ġwokovu":6066,"Ġkuhusika":6067,"onde":6068,"Ġuteuzi":6069,"Ġkibina":6070,"Po":6071,"ary":6072,"person":6073,"ĠcÃ®h":6074,"Ġstadig":6075,"lipp":6076,"vend":6077,"riyÃª":6078,"Ġfris":6079,"Ġdate":6080,"had":6081,"ĠAra":6082,"eti":6083,"Ġhotell":6084,"kret":6085,"menn":6086,"elses":6087,"usjon":6088,"zozo":6089,"Ġalvor":6090,"historia":6091,"ĠMohamed":6092,"Ġkutumika":6093,"Ġmgeni":6094,"Ġwafanyabiashara":6095,"toliki":6096,"jumaa":6097,"ĠMwi":6098,"Ġmigogoro":6099,"Ġushiriki":6100,"Ġsauti":6101,"Ġkupanda":6102,"tarajia":6103,"Ġutviklet":6104,"sf":6105,"ĠKama":6106,"Ġbibin":6107,"ĠnÃªzÃ®":6108,"ĠkjÃ¸re":6109,"eren":6110,"Ġdame":6111,"eru":6112,"ĠFÃ¸r":6113,"Ġfall":6114,"ĠdestÃª":6115,"Ġselskapet":6116,"Ġxo":6117,"ĠEle":6118,"kers":6119,"ĠSelv":6120,"ĠmÃ¥ned":6121,"áĥĲáĥłáĥĺ":6122,"unt":6123,"Ġtilbyr":6124,"áĥ®áĥķ":6125,"geha":6126,"ĠÅŁa":6127,"ĠÃ¸ke":6128,"bart":6129,"gezo":6130,"amosi":6131,"Ġinstitu":6132,"tihada":6133,"Ġakiwasilisha":6134,"ruhusu":6135,"Ġjioni":6136,"Ġnzima":6137,"ĠUsimamizi":6138,"amiwa":6139,"ambazaji":6140,"ĠRuvuma":6141,"ĠVo":6142,"fuatazo":6143,"umamosi":6144,"ĠMwenyezi":6145,"Ġpichani":6146,"wasilisha":6147,"bund":6148,"uzaji":6149,"Ġtilgang":6150,"Ġtred":6151,"99":6152,"áĥĺáĥĸ":6153,"Ġslag":6154,"ĠMange":6155,"ssen":6156,"ĠAh":6157,"ĠFC":6158,"Ġutrolig":6159,"ĠId":6160,"Ġforan":6161,"lÃ¦r":6162,"ĠnÃ®":6163,"logi":6164,"ĠSoma":6165,"orÃª":6166,"ĠCharles":6167,"kelig":6168,"\",":6169,"guni":6170,"ĠnivÃ®s":6171,"peleka":6172,"ibuka":6173,"Ġatakuwa":6174,"Ġkuandaa":6175,"Ġubunifu":6176,"aminifu":6177,"chango":6178,"Ġkufanikiwa":6179,"dhani":6180,"pigwa":6181,"ĠWaislamu":6182,"Kabla":6183,"Ġkisha":6184,"Ġkuendeleza":6185,"ĠMtume":6186,"Ġmadar":6187,"eks":6188,"Mhe":6189,"Ġkuten":6190,"futaji":6191,"Ġkupewa":6192,"Ġtilbud":6193,"ĠHelse":6194,"áĥ¬áĥĲáĥľáĥ£áĥł":6195,"áĥĲáĥłáĥĺáĥ¨":6196,"ĠpÃ¥vir":6197,"yria":6198,"Ġmam":6199,"Ġlegg":6200,"Ġchat":6201,"áĥ¯":6202,"2001":6203,"Ġmak":6204,"áĥłáĥ":6205,"áĥ£áĥĲáĥ¤":6206,"Ġregel":6207,"ksis":6208,"Ġeier":6209,"ÅŁtin":6210,"lani":6211,"áĥĲáĥķ":6212,"Ġmy":6213,"ĠsiyasÃ®":6214,"nsyn":6215,"ĠBaba":6216,"kem":6217,"ĠPKK":6218,"áĥĿáĥĻ":6219,"Ġvinter":6220,"Ġkume":6221,"Ġmasi":6222,"áĥĶáĥĴ":6223,"áĥĶáĥ¢":6224,"ĠSex":6225,"koÅŁ":6226,"diya":6227,"ono":6228,"Ġjukumu":6229,"lojia":6230,"Ġvisiwa":6231,"ĠMatumizi":6232,"ĠMakuu":6233,"Ġyaki":6234,"hudia":6235,"Ġkuundwa":6236,"ĠAg":6237,"ĠGjen":6238,"Ð¾Ð²":6239,"Ġtips":6240,"visjon":6241,"ID":6242,"ĠzÃ®":6243,"Ġdil":6244,"Ġreng":6245,"ĠáĥĹáĥĺáĥľ":6246,"ĠÃ§ala":6247,"áĥĲáĥĺ":6248,"áĥĿáĥĳáĥĲáĥ¨":6249,"Ġaltern":6250,"way":6251,"Ġverdi":6252,"Ġtv":6253,"ĠxwedÃ®":6254,"ĠnÃ¦rings":6255,"kirÃ®":6256,"jaji":6257,"Ġhandler":6258,"ĠEz":6259,"cs":6260,"ĠRuss":6261,"ima":6262,"Ġker":6263,"barÃª":6264,"ĠTroms":6265,"Ã®ng":6266,"Ġfani":6267,"best":6268,"Ġkjente":6269,"anaji":6270,"varer":6271,"Ġtilpas":6272,"Ġjuzi":6273,"Ġtisa":6274,"Ġdirekte":6275,"Ġmkopo":6276,"Ġvikao":6277,"Ġafisa":6278,"fanikisha":6279,"ĠAidha":6280,"simamo":6281,"Ġmifuko":6282,"Ġmadarasa":6283,"Ġkusoma":6284,"Ġinavyo":6285,"ĠTaarifa":6286,"44":6287,"usu":6288,"tivt":6289,"ĠAma":6290,"ĠYe":6291,"ĠMÃ¸te":6292,"Ġforel":6293,"parte":6294,"ĠDisse":6295,"Ġresept":6296,"ĠmÃª":6297,"ĠfÃ¸lgende":6298,"150":6299,"mÃªn":6300,"Ġáĥ¬áĥĲáĥľáĥĲáĥ¡":6301,"Ġnaturlig":6302,"Ġfjell":6303,"Ġerfaring":6304,"ĠlÃ¦rer":6305,"ĠUna":6306,"Ġforbed":6307,"Ġrappor":6308,"xÃª":6309,"áĥĺáĥĲáĥ¡":6310,"áĥ¨áĥĶ":6311,"osho":6312,"Wan":6313,"ĠPor":6314,"kommen":6315,"Ã»rÃª":6316,"WT":6317,"Kama":6318,"splass":6319,"Ġmipaka":6320,"ĠIT":6321,"Ġjitihada":6322,"Ġkusim":6323,"chapishwa":6324,"ĠAprili":6325,"Ġlenye":6326,"Ġwazee":6327,"hutu":6328,"Ġngozi":6329,"Ġkutatua":6330,"Ġkilomita":6331,"Ġitakayo":6332,"Ġmtazamo":6333,"Ġvite":6334,"limi":6335,"Ġraskt":6336,"hila":6337,"ondheim":6338,"Ġsiri":6339,"ikasjon":6340,"Ġsare":6341,"ĠvÃ¦r":6342,"Ġfla":6343,"Ð±Ð»":6344,"Ġxel":6345,"07":6346,"skaps":6347,"fali":6348,"Ġge":6349,"Ġnika":6350,"ktene":6351,"Ġoppmer":6352,"Ġvikundi":6353,"Ġkuonekana":6354,"Meneja":6355,"karibisha":6356,"biliana":6357,"Ġukatili":6358,"ĠMganga":6359,"haribifu":6360,"Ġmapenzi":6361,"Ġzitaka":6362,"Ġzifuatazo":6363,"Ġzetu":6364,"tangazwa":6365,"Ġanasema":6366,"Ġkulinda":6367,"ĠMaafisa":6368,"Ġutgangspunkt":6369,"Ġsteder":6370,"vei":6371,"Ġtum":6372,"Ã¡":6373,"LI":6374,"Ġdro":6375,"islam":6376,"Ġjanuar":6377,"ĠEnd":6378,"Ri":6379,"ĠsjÃ¸":6380,"cel":6381,"Ġinneholder":6382,"ĠRÃª":6383,"NÃ¥r":6384,"ĠYork":6385,"Ġkali":6386,"saba":6387,"áĥĶáĥļáĥĺ":6388,"áĥĿáĥķ":6389,"Ð³":6390,"Ġ:)":6391,"Ġkug":6392,"Ġtiba":6393,"ĠTra":6394,"Ġkjenner":6395,"Ġvime":6396,"ĠgirÃª":6397,"pril":6398,"Ġbaba":6399,"wawa":6400,"ben":6401,"gin":6402,"ĠNdege":6403,"Ġkitengo":6404,"Ġkompyuta":6405,"ĠWakala":6406,"umbuzi":6407,"Ġnyuklia":6408,"Ġmapambano":6409,"Ġkuzungumza":6410,"Ġkuzalisha":6411,"Ġkuokoa":6412,"dhamu":6413,"Ġmasoko":6414,"hamasisha":6415,"tolea":6416,"ĠIlala":6417,"Ġwakubwa":6418,"pimo":6419,"Ġmauzo":6420,"otek":6421,"Ġklass":6422,"Ġkilo":6423,"ĠFri":6424,"mad":6425,"Ġmateria":6426,"ĠÃ¸v":6427,"yÃ®n":6428,"CC":6429,"engene":6430,"liko":6431,"ĠKeb":6432,"áĥĲáĥľáĥĴ":6433,"ĠTid":6434,"Ġtekn":6435,"vori":6436,"Ġlav":6437,"Ġbeskri":6438,"Ġáĥĵáĥ¦áĥĲ":6439,"selig":6440,"ĠVest":6441,"onen":6442,"RO":6443,"ĠEngland":6444,"Ġengas":6445,"Ġspesia":6446,"rah":6447,"ĠPeter":6448,"Ġmacho":6449,"anya":6450,"livet":6451,"jord":6452,"Ġbure":6453,"Ġfordel":6454,"ĠstrÃ¸m":6455,"ĠopplÃ¦ring":6456,"isini":6457,"Ġmimba":6458,"Ġkong":6459,"Ġmikon":6460,"ĠKebwe":6461,"ongezwa":6462,"Ġukosefu":6463,"Ġmajengo":6464,"Wafanyakazi":6465,"ĠBaada":6466,"Ġkufanyiwa":6467,"Ġvyumba":6468,"gumu":6469,"Ġrufaa":6470,"Ġkulipa":6471,"Ġfomu":6472,"vol":6473,"elote":6474,"Ġtest":6475,"ĠgorÃ®":6476,"âĢ¦âĢ¦":6477,"andari":6478,"ĠRoja":6479,"gitt":6480,"Ġhvem":6481,"Ġuker":6482,"Ġtilby":6483,"ĠÃ¥pne":6484,"nt":6485,"Ġkonkurran":6486,"lar":6487,"ĠDersom":6488,"ĠCongo":6489,"asÃ®":6490,"ĠáĥĿáĥ¨áĥ¬áĥĲáĥľáĥ£áĥł":6491,"ĠAmerika":6492,"dy":6493,"koba":6494,"beba":6495,"Ġnaken":6496,"Ġbeh":6497,"engine":6498,"ĠsÃª":6499,"jema":6500,"SD":6501,"ĠRich":6502,"Ġustawi":6503,"wishi":6504,"Ġyasi":6505,"ĠSyria":6506,"begu":6507,"shinda":6508,"ĠMapato":6509,"Ġakiongea":6510,"Ġkushika":6511,"Ġathari":6512,"Ġkuunda":6513,"Ġkutekelezwa":6514,"ligheten":6515,"dir":6516,"Ġhund":6517,"erÃª":6518,"ĠgjennomfÃ¸rt":6519,"Pi":6520,"leo":6521,"ĠSaid":6522,"Ġeuro":6523,"hy":6524,"vand":6525,"ongen":6526,"xw":6527,"anser":6528,"ĠKong":6529,"ĠIntern":6530,"Ã¸s":6531,"Ð¸Ñı":6532,"Ġdagens":6533,"ming":6534,"fara":6535,"ĠBra":6536,"Ġfokus":6537,"ĠzanÃ®n":6538,"Ġsma":6539,"Ġbevis":6540,"ĠBima":6541,"ĠMisri":6542,"Ġbegren":6543,"Ġmah":6544,"ahidi":6545,"Ġalii":6546,"Ġkilichofanyika":6547,"asiriamali":6548,"bainisha":6549,"endeshwa":6550,"ongezi":6551,"Ġkukamilisha":6552,"Ġtakriban":6553,"Ġkiungo":6554,"Ġkimoja":6555,"Ġufafanuzi":6556,"yahudi":6557,"Ġressur":6558,"1990":6559,"Ġoffentlig":6560,"tegori":6561,"ĠRwanda":6562,"Ġbasert":6563,"Ġflott":6564,"Ġspillet":6565,"ĠAmerÃ®ka":6566,"lla":6567,"witter":6568,"08":6569,"Ar":6570,"áĥĲáĥłáĥĻ":6571,"ĠAle":6572,"Ġhilbi":6573,"ĠUz":6574,"Ġnettsteder":6575,"ide":6576,"tning":6577,"ĠsÃ¸n":6578,"Ġskrevet":6579,"xu":6580,"Ġstre":6581,"PS":6582,"Hali":6583,"Ġhisa":6584,"arbei":6585,"ĠBurundi":6586,"áĥĲáĥľáĥĲ":6587,"fold":6588,"Ġtak":6589,"huma":6590,"retari":6591,"asimu":6592,"dema":6593,"Ġdakika":6594,"andikisha":6595,"ĠTsh":6596,"Ġmti":6597,"Afisa":6598,"Ġyangu":6599,"Ġupya":6600,"isiwani":6601,"Ġkurejea":6602,"Ġkupungua":6603,"Ġkuibu":6604,"ĠBaadhi":6605,"arura":6606,"kosekana":6607,"ĠUtangazaji":6608,"ĠkÃ®":6609,"blo":6610,"Ġáĥ¦":6611,"Ġblog":6612,"Ġteknologi":6613,"gue":6614,"Ġvant":6615,"gte":6616,"ativt":6617,"04":6618,"sak":6619,"ÅŁÃªn":6620,"ĠáĥĽáĥĲáĥĲáĥłáĥĹ":6621,"Ġbetyd":6622,"03":6623,"ĠHus":6624,"áĥĺáĥĴ":6625,"visning":6626,"áĥĶáĥĵ":6627,"Ġtam":6628,"kirinÃª":6629,"eif":6630,"ĠTFF":6631,"Ġlokale":6632,"sep":6633,"Ġmuligheter":6634,"Ġbok":6635,"amilia":6636,"Ġrefer":6637,"Ġkombin":6638,"ĠÃ§Ã»":6639,"ĠBus":6640,"Ġjord":6641,"baya":6642,"Ġkuvun":6643,"Ġilivyokuwa":6644,"sajili":6645,"Ġkisiwa":6646,"subu":6647,"Mmoja":6648,"Ġalivyo":6649,"Moja":6650,"Ġnili":6651,"Ġkumalizika":6652,"Ġhadhi":6653,"aribio":6654,"Ġmuundo":6655,"Ġushuru":6656,"Ġkry":6657,"Ġkuchukuliwa":6658,"linganishwa":6659,"Ġisipokuwa":6660,"Ġsikukuu":6661,"ungaji":6662,"jadiliano":6663,"ĠZelote":6664,"sol":6665,"arder":6666,"Ġprodukter":6667,"dire":6668,"Ġspe":6669,"ĠTur":6670,"mt":6671,"Ġide":6672,"Ġhez":6673,"Ġsexy":6674,"wo":6675,"aniya":6676,"ĠAs":6677,"ĠdibÃªje":6678,"kezi":6679,"Mas":6680,"Ġsamlet":6681,"aler":6682,"Ġeventu":6683,"Ġunn":6684,"Ġskje":6685,"ging":6686,"int":6687,"Ġtune":6688,"Ã¸rdag":6689,"ĠKjÃ¸":6690,"onga":6691,"tisti":6692,"hetani":6693,"ĠUjenzi":6694,"Ġwapya":6695,"godi":6696,"Ġmadawa":6697,"Ġngumu":6698,"shahara":6699,"rikisha":6700,"Ġnyara":6701,"ĠViwanda":6702,"Ġkuandika":6703,"Ġupe":6704,"ondon":6705,"ĠCom":6706,"Ġsystem":6707,"Ġwere":6708,"Ġneg":6709,"Ġfore":6710,"ĠkÃªm":6711,"KI":6712,"Ġviktige":6713,"ksen":6714,"1995":6715,"korte":6716,"onya":6717,"66":6718,"áĥ·áĥĽáĥĲ":6719,"Ġsetter":6720,"ttene":6721,":-":6722,"logisk":6723,"Ġutfor":6724,"ĠHÃ¸y":6725,"vs":6726,"Sh":6727,"Ġstri":6728,"lili":6729,"Ġtredje":6730,"Ġbanda":6731,"ĠAng":6732,"ese":6733,"Ġnorm":6734,"ĠWilayani":6735,"ĠKiarabu":6736,"Ġkukubali":6737,"ĠIjumaa":6738,"Awali":6739,"tumaini":6740,"ĠAskofu":6741,"Kiongozi":6742,"taalamu":6743,"Ġmingine":6744,"hanati":6745,"ingizwa":6746,"Ġviungo":6747,"Ġuendeshaji":6748,"Ġmtandaoni":6749,"ĠMon":6750,"oren":6751,"Ġbilen":6752,"ue":6753,"partementet":6754,"Ġviste":6755,"ĠfornÃ¸y":6756,"Ġheval":6757,"Ġ+":6758,"tige":6759,"Ġjiyana":6760,"venn":6761,"Ġwar":6762,"Ġsig":6763,"Ġ=":6764,"syn":6765,"Ġdisku":6766,"ving":6767,"Ġbima":6768,"Ġsosiale":6769,"Ġrast":6770,"Ġkroppen":6771,"kap":6772,"Za":6773,"Ġlik":6774,"Ġziwa":6775,"erÃ®":6776,"vÃ®n":6777,"Ġseptember":6778,"Ġmaz":6779,"Ġsjel":6780,"Ġsho":6781,"ĠDag":6782,"ĠgirÃ®ng":6783,"Ġmars":6784,"Ġvyo":6785,"Ġmuungano":6786,"undua":6787,"Ġnyakati":6788,"ĠUchumi":6789,"subuhi":6790,"Ġtuhuma":6791,"vutio":6792,"Ġmzozo":6793,"Ġvijijini":6794,"Ġkutangazwa":6795,"Ġsaratani":6796,"ĠMkazi":6797,"andiko":6798,"Ġkufungua":6799,"ettere":6800,"ĠHv":6801,"01":6802,"sav":6803,"Ġderetter":6804,"Ġfine":6805,"Ġfavori":6806,"ĠNobel":6807,"zanÃ®":6808,"Ġgirtin":6809,"TI":6810,"Ġbudsj":6811,"Ġberdewa":6812,"ĠbajarÃª":6813,"butikk":6814,"darÃ®":6815,"Ġmuligheten":6816,"ĠMala":6817,"Ã¸rs":6818,"fly":6819,"kommun":6820,"áĥĶáĥĻ":6821,"Ġbakgrunn":6822,"Ġdibin":6823,"Ġbesky":6824,"tille":6825,"ĠAlly":6826,"tren":6827,"vnt":6828,"arÃª":6829,"kÃ¥r":6830,"Ġáĥłáĥĵáĥ·":6831,"ĠTirkiyÃª":6832,"Ġfoto":6833,"jene":6834,"ĠmÃ®":6835,"lali":6836,"Ġmet":6837,"Ġinvi":6838,"setning":6839,"Ġfylkes":6840,"Ġdewleta":6841,"Ġsla":6842,"omas":6843,"ĠProsjek":6844,"kkene":6845,"tilling":6846,"ĠhÃ¥per":6847,"Ġbety":6848,"nader":6849,"Ġholdt":6850,"veien":6851,"Ġvelger":6852,"ĠMn":6853,"ĠUkaguzi":6854,"Ġtafsiri":6855,"Ġvyake":6856,"Ġmisingi":6857,"tangu":6858,"Ġkushinda":6859,"Ġkushuka":6860,"yanÃª":6861,"mara":6862,"Ġklokke":6863,"Ġamerikan":6864,"¡áĥ®":6865,"Ġoversikt":6866,"pori":6867,"Ġbre":6868,"Ġdesign":6869,"ĠUnited":6870,"ĠáĥĻáĥĲáĥļ":6871,"ĠKommun":6872,"áĥĶáĥĹáĥĺáĥ¨":6873,"ĠPS":6874,"ĠDerfor":6875,"ĠKir":6876,"Ġsak":6877,"dens":6878,"gele":6879,"Ġwisa":6880,"ĠLand":6881,"Ġendringer":6882,"jan":6883,"1997":6884,"yret":6885,"ĠÃ¥rs":6886,"vile":6887,"Ġlys":6888,"Ġragi":6889,"áĥĲáĥĸ":6890,"pel":6891,"liza":6892,"kenya":6893,"ĠoppnÃ¥":6894,"Ġmerke":6895,"ĠmÃ¥neder":6896,"Ġ#":6897,"ĠlÃ®":6898,"Ġfotball":6899,"she":6900,"ĠUK":6901,"rithi":6902,"ĠRehema":6903,"Mchezaji":6904,"ĠTy":6905,"wakilisha":6906,"Ġhuyu":6907,"paji":6908,"Watu":6909,"Ġmlango":6910,"Ġchumba":6911,"Ġkuifanya":6912,"Ġzitakazo":6913,"Ġkanisa":6914,"Ġutafutaji":6915,"Ġkesho":6916,"Ġwaliyo":6917,"Ġsikkert":6918,"run":6919,"Ġpost":6920,"Ġopptatt":6921,"Ġáĥ¬áĥ§":6922,"vÃªn":6923,"ders":6924,"vinner":6925,"ĠRoj":6926,"rÃ¸r":6927,"pek":6928,"ĠmÃ®na":6929,"Ã¤":6930,"Ġchu":6931,"tegi":6932,"ĠÃ¸nsket":6933,"ĠRobert":6934,"Ġwow":6935,"ĠEuropa":6936,"bya":6937,"ĠáĥĿáĥłáĥ":6938,"ĠomrÃ¥der":6939,"Ġapril":6940,"Ġproblemer":6941,"stari":6942,"faka":6943,"ito":6944,"ĠVen":6945,"bir":6946,"Ġamade":6947,"Ġpara":6948,"Maa":6949,"skolen":6950,"xweÅŁ":6951,"ĠSan":6952,"Ġbord":6953,"ktober":6954,"tetea":6955,"Ġkupambana":6956,"Ġmasharti":6957,"Kutokana":6958,"ĠWaafrika":6959,"Ġbarani":6960,"Ġkutengeneza":6961,"fuatia":6962,"Ġmifumo":6963,"induliwa":6964,"Ġwahitimu":6965,"Ġkuongoza":6966,"ĠBarabara":6967,"ĠTigo":6968,"Ġmajadiliano":6969,"ĠKristi":6970,"Ġgul":6971,"bok":6972,"ĠDel":6973,"melig":6974,"Ġdaxwa":6975,"Ġbl":6976,"produ":6977,"Ġdaglig":6978,"Ġbili":6979,"cro":6980,"ĠmÃ¥ten":6981,"Ġtelefon":6982,"Ġekte":6983,"Ġdikare":6984,"áĥ·áĥľ":6985,"Ġtross":6986,"anter":6987,"âĢĿ,":6988,"mend":6989,"AR":6990,"cks":6991,"Ġaliy":6992,"Ġmasse":6993,"ĠPu":6994,"Ġsannsyn":6995,"ested":6996,"ĠLondon":6997,"Ġuv":6998,"Ġmon":6999,"uza":7000,"giver":7001,"ĠAsia":7002,"manÃ®":7003,"rÃ¥det":7004,"ĠCHA":7005,"ĠdÃ¸d":7006,"estene":7007,"mannen":7008,"roho":7009,"Ġhawana":7010,"Ġbygget":7011,"hasibu":7012,"teua":7013,"Ġwowote":7014,"ĠMikopo":7015,"lenga":7016,"Ġmajira":7017,"sisitiza":7018,"Ġupi":7019,"ĠShetani":7020,"iniwa":7021,"Ġurahisi":7022,"Ġwanadamu":7023,"ĠMwakilishi":7024,"Ġkitaalamu":7025,"Ġwaweze":7026,"Ġkuhifadhi":7027,"Ġkukaa":7028,"arufuku":7029,"hesabiwa":7030,"ĠVyama":7031,"Ġkusamba":7032,"Ġajabu":7033,"Ġmaonesho":7034,"Ġmeter":7035,"ĠnÃ¦rmere":7036,"Ġkrever":7037,"Ġcih":7038,"senal":7039,"Ġnr":7040,"Ġvalgt":7041,"Ġmorgen":7042,"lering":7043,"ĠbestÃ¥r":7044,"digheter":7045,"DI":7046,"Ġblogg":7047,"ĠrastÃ®":7048,"ĠhÃ¸yre":7049,"Ġjobbe":7050,"Ġsist":7051,"Ġrea":7052,"ĠFar":7053,"ĠáĥĽáĥĲáĥĲáĥłáĥĹáĥĲ":7054,"ĠÃ¸nske":7055,"Ġbidin":7056,"Je":7057,"Ġnemlig":7058,"zma":7059,"ĠMs":7060,"Ġáĥ£áĥĽ":7061,"enta":7062,"shana":7063,"ĠOver":7064,"ĠBes":7065,"Ġáĥª":7066,"ĠStars":7067,"stÃ¸":7068,"Ġhend":7069,"ĠSport":7070,"Ġweb":7071,"rift":7072,"Mpango":7073,"Ġumbali":7074,"tindo":7075,"Ġulimwenguni":7076,"Ġufuatiliaji":7077,"gaidi":7078,"Ġmbegu":7079,"amuziki":7080,"Ġusambazaji":7081,"Ġhofu":7082,"umbele":7083,"dhifa":7084,"Ġkifedha":7085,"Mwana":7086,"Ġuharibifu":7087,"diyÃª":7088,"puko":7089,"Ġakipata":7090,"kwaa":7091,"Ġwafugaji":7092,"56":7093,"ĠBjÃ¸r":7094,"etÃª":7095,"urna":7096,"Ġatt":7097,"Bar":7098,"hÃ¸r":7099,"Ġytter":7100,"Ġpraksis":7101,"elevan":7102,"ĠCol":7103,"Ġdei":7104,"sgirÃª":7105,"saker":7106,"Ġkommunen":7107,"RK":7108,"ĠdÃ¸de":7109,"Ġdagir":7110,"Ġnyan":7111,"Ġtor":7112,"II":7113,"ĠtiÅŁt":7114,"ĠNT":7115,"rann":7116,"verre":7117,"Ġpembe":7118,"zama":7119,"Ġlyst":7120,"Ġviagra":7121,"tekÃ®":7122,"Ġmalba":7123,"velsen":7124,"krani":7125,"ĠlÃ¸sninger":7126,"liam":7127,"Ġleve":7128,"Ġmashu":7129,"ĠHans":7130,"lub":7131,"list":7132,"áĥĻáĥ·áĥĽáĥĲ":7133,"72":7134,"asjons":7135,"adau":7136,"Ġasubuhi":7137,"ĠMbo":7138,"Hivyo":7139,"ambuliaji":7140,"ĠJumamosi":7141,"Ġofisini":7142,"kuzwa":7143,"Ġhaina":7144,"ungeni":7145,"Ġiliyoandaliwa":7146,"Ġvyeti":7147,"habari":7148,"Ġmsanii":7149,"Siku":7150,"Ġsukari":7151,"Ġmsimamo":7152,"giriki":7153,"Ġkupinga":7154,"Ġmadiwani":7155,"undersÃ¸k":7156,"Ġvirksomhet":7157,"Ġesc":7158,"43":7159,"58":7160,"kler":7161,"Ġhed":7162,"sse":7163,"tom":7164,"danning":7165,"weyÃ®":7166,"ttoo":7167,"gave":7168,"ĠMes":7169,"xuyan":7170,"rinn":7171,"ZI":7172,"ĠVil":7173,"Ġdikarin":7174,"ĠÃ§awa":7175,"skning":7176,"cis":7177,"spor":7178,"ĠStu":7179,"ĠDating":7180,"Ġperf":7181,"59":7182,"Â«":7183,"CI":7184,"ttig":7185,"Ġforslag":7186,"amin":7187,"ĠunngÃ¥":7188,"ĠderbarÃª":7189,"ĠTirk":7190,"Ġlokal":7191,"mb":7192,"Ġáĥ£áĥĻ":7193,"ĠMor":7194,"weni":7195,"kofu":7196,"ĠsÃ®":7197,"ĠWas":7198,"ĠpirtÃ»":7199,"byg":7200,"áĥĲáĥĽáĥĺ":7201,"ĠMili":7202,"onald":7203,"ĠOd":7204,"kiza":7205,"use":7206,"ĠPÃª":7207,"áĥ£áĥľáĥ":7208,"Ġsider":7209,"misha":7210,"Ã¸kt":7211,"uzwa":7212,"husishwa":7213,"Pamoja":7214,"ĠUwekezaji":7215,"Ġrafiki":7216,"Ġataka":7217,"Ġmaelfu":7218,"umzi":7219,"Ġmshahara":7220,"Ġmwakani":7221,"Ġmanispaa":7222,"ĠBajeti":7223,"Ġmatangazo":7224,"nolojia":7225,"ĠMwili":7226,"Ġhelst":7227,"tegeme":7228,"zuku":7229,"jinia":7230,"Ġinternasjonale":7231,"Ð¹":7232,"atiske":7233,"ĠrewÅŁa":7234,"ĠKris":7235,"tika":7236,"Ġbide":7237,"Ġtes":7238,"kant":7239,"ĠáĥĹáĥĺáĥ¨":7240,"ĠFoto":7241,"ĠáĥľáĥĿáĥ¦":7242,"Ġprofes":7243,"Ġmala":7244,"pon":7245,"ĠáĥŁ":7246,"anada":7247,"cy":7248,"valget":7249,"áĥĲáĥļáĥ£":7250,"fÃ¸lgelig":7251,"Ġeskorte":7252,"41":7253,"ĠÃ¥rets":7254,"skon":7255,"Ġomfa":7256,"Ġbeveg":7257,"eltet":7258,"umbi":7259,"Ġforbru":7260,"Ġmad":7261,"Ġze":7262,"RE":7263,"karan":7264,"bÃ»nÃª":7265,"Ġinnsa":7266,"mat":7267,"kef":7268,"Ġkupa":7269,"Ġnina":7270,"atiba":7271,"Ġavslu":7272,"ishu":7273,"ĠáĥľáĥĲáĥĽáĥ£áĥĹ":7274,"Ġ*":7275,"hiya":7276,"ĠSeif":7277,"dacom":7278,"Ġmwanamume":7279,"áĥĶáĥ¨áĥĶ":7280,"Ġwapiga":7281,"ĠMtoto":7282,"Ġbaadae":7283,"Ġkufuzu":7284,"esheni":7285,"VCCM":7286,"Ġkukua":7287,"ĠKika":7288,"Ġmarufuku":7289,"Ġoktober":7290,"Ġhisia":7291,"Ġmahusiano":7292,"Ġdhati":7293,"Ġmstari":7294,"ĠMsi":7295,"Ġmsitu":7296,"Ġmwenge":7297,"Ġbrans":7298,"Ġdetal":7299,"Ġgangen":7300,"ust":7301,"ĠApp":7302,"ĠJan":7303,"ening":7304,"Ġaktu":7305,"ĠáĥĽáĥ£áĥ¨":7306,"ley":7307,"isere":7308,"ite":7309,"istri":7310,"Ġves":7311,"mm":7312,"wira":7313,"ĠEx":7314,"Ġheman":7315,"Ġzin":7316,"Ġcon":7317,"ĠAnna":7318,"ĠHot":7319,"ffet":7320,"ĠÃ§ek":7321,"ĠÃĬ":7322,"Ġmorsom":7323,"Ġluft":7324,"AS":7325,"Ġkirine":7326,"ĠSomalia":7327,"ĠMawa":7328,"Ġvideoer":7329,"ĠMaal":7330,"ĠKila":7331,"Ġpasser":7332,"car":7333,"1977":7334,"Ġfamilie":7335,"umini":7336,"Ġmarkeds":7337,"gift":7338,"Ġklare":7339,"Ġtjeneste":7340,"Ġhistorie":7341,"elsene":7342,"Ġkukutana":7343,"Ġwanapaswa":7344,"Ġzisi":7345,"Ġsiyo":7346,"ondoni":7347,"Ġmkazi":7348,"Ġelfu":7349,"ĠWatanzania":7350,"Ġmaagizo":7351,"Ġmatumaini":7352,"tumikia":7353,"fisadi":7354,"Ġkikamilifu":7355,"kutoka":7356,"rav":7357,"Ġmwongozo":7358,"ĠÅŁerÃª":7359,"eke":7360,"tali":7361,"Ġdesember":7362,"Ġhvorfor":7363,"Ġgammel":7364,"vers":7365,"ĠÃ¸ye":7366,"ĠWiki":7367,"Ġledd":7368,"Ġhjelper":7369,"senter":7370,"Ġendring":7371,"elag":7372,"Ġstyrke":7373,"Ġderbas":7374,"legging":7375,"Ġtom":7376,"Ġnettstedet":7377,"Ġhinek":7378,"rasi":7379,"emb":7380,"dera":7381,"kor":7382,"51":7383,"ktivitet":7384,"tol":7385,"Ġnovember":7386,"ĠMaria":7387,"habu":7388,"Og":7389,"Ġbidrar":7390,"Ġkraft":7391,"Ġalfa":7392,"kne":7393,"ĠĠĠĠĠĠĠĠ":7394,"Ġvurdering":7395,"Ġkna":7396,"ĠkjÃ¦reste":7397,"Ġsnart":7398,"emwa":7399,"ĠJenerali":7400,"ĠVodacom":7401,"Ġhiari":7402,"Ġinakuwa":7403,"ĠMichezo":7404,"Ġslutten":7405,"somi":7406,"Ġalipotembelea":7407,"Ġmazishi":7408,"Ġhutoa":7409,"funguliwa":7410,"ĠKatoliki":7411,"Ġkukabiliana":7412,"ĠKinondoni":7413,"tambu":7414,"Ġmaonyesho":7415,"ĠMiradi":7416,"ondoka":7417,"elekeza":7418,"Ġkufanikisha":7419,"Ġkiroho":7420,"Ġtaaluma":7421,"ĠKanuni":7422,"jesha":7423,"Ġwakimsikiliza":7424,"dilifu":7425,"ilimali":7426,"Ġrasilimali":7427,"agiza":7428,"Ġmaabara":7429,"Ġkuzindua":7430,"Ġufundi":7431,"elekeo":7432,"ĠInjinia":7433,"Ili":7434,"Ġkiwanda":7435,"ellen":7436,"Ġsten":7437,"pill":7438,"iri":7439,"Ġáĥ°":7440,"wag":7441,"Der":7442,"Ġmeto":7443,"Ġinneb":7444,"ĠÃİs":7445,"Jo":7446,"taket":7447,"ĠPol":7448,"ÐºÐ°Ñı":7449,"Ġeiendom":7450,"Ġaga":7451,"áĥĺáĥľáĥ£":7452,"tiki":7453,"Ġforsvar":7454,"ttende":7455,"ĠRojava":7456,"Ġhenhold":7457,"ĠIraqÃª":7458,"TU":7459,"Ġuav":7460,"ĠFer":7461,"Ġtrygg":7462,"ĠáĥľáĥĲáĥĽáĥ£áĥ¨":7463,"UF":7464,"áĥĲáĥ¨áĥĶ":7465,"Ġwasa":7466,"cÃª":7467,"Ġlegges":7468,"rÃ»":7469,"ĠsprÃ¥k":7470,"Ġarbeider":7471,"Ġaks":7472,"ĠhÃ¸st":7473,"rende":7474,"The":7475,"áĥ·áĥĹ":7476,"Ġhaija":7477,"leni":7478,"Ġene":7479,"yasema":7480,"Ġmadaraka":7481,"askofu":7482,"limiana":7483,"Ġwizi":7484,"ĠKamanda":7485,"Ġwaasi":7486,"tawala":7487,"Ġkirafiki":7488,"Ġkisa":7489,"werde":7490,"ĠSemina":7491,"Ġmwamba":7492,"kagua":7493,"Ġhilbijar":7494,"loba":7495,"dari":7496,"Ġvist":7497,"pos":7498,"Ġbigi":7499,"Ġragihand":7500,"Ġkunder":7501,"reng":7502,"áĥĺáĥłáĥĺ":7503,"gjÃ¸re":7504,"qÃ®":7505,"Ġforeldre":7506,"organis":7507,"ãĥ":7508,"ĠMos":7509,"arke":7510,"ĠforsÃ¸k":7511,"ĠblÃ¥":7512,"Ġhvilken":7513,"Ġanaly":7514,"dayÃ®":7515,"zen":7516,"Ġglad":7517,"Ġdatingside":7518,"relse":7519,"Mo":7520,"Ġbefolk":7521,"Ġiden":7522,"inar":7523,"qas":7524,"Ġsven":7525,"Ġbildet":7526,"Ġhygge":7527,"Ġlettere":7528,"ĠfÃ¸rer":7529,"Ġinng":7530,"nskaps":7531,"amÃªn":7532,"plassen":7533,"Ġred":7534,"jÃª":7535,"nÃ¦r":7536,"Ġdaxuyan":7537,"anganyika":7538,"kuli":7539,"1000":7540,"hui":7541,"ufa":7542,"Ġaugust":7543,"):":7544,"ĠHai":7545,"Ã¥d":7546,"ĠfÃ¸ler":7547,"Ãªz":7548,"ure":7549,"Ġstille":7550,"Ġuansett":7551,"jayo":7552,"Ġoppgaver":7553,"ĠStavanger":7554,"alÃ®":7555,"kimbi":7556,"Ġmbi":7557,"ĠMadini":7558,"Ġkupanga":7559,"Ripoti":7560,"Ġpongezi":7561,"Ġuhai":7562,"Ġdharura":7563,"Ġakaunti":7564,"Ġamei":7565,"Ġmifugo":7566,"ĠIdadi":7567,"pengele":7568,"ĠBandari":7569,"ĠMadiwani":7570,"ĠSehemu":7571,"Ġpwani":7572,"taur":7573,"Ġrelevan":7574,"Ġsammenlig":7575,"Ńáĥ§":7576,"áĥĶáĥķ":7577,"Ġvirksom":7578,"hver":7579,"ĠNorske":7580,"Ġud":7581,"Ġstat":7582,"ĠJames":7583,"ÐµÐ½":7584,"meto":7585,"kjÃ¸r":7586,"Ġfantastisk":7587,"Ġkos":7588,"Ġmf":7589,"Ð¿":7590,"áĥĿáĥĳáĥĲ":7591,"Ġhum":7592,"Mer":7593,"áĥĿáĥŀ":7594,"ĠNyan":7595,"ĠIr":7596,"stiske":7597,"ingo":7598,"yekÃª":7599,"Ġex":7600,"ĠPh":7601,"xane":7602,"Ã¸st":7603,"Me":7604,"ĠVÃ¥r":7605,"verige":7606,"forhold":7607,"Ġfry":7608,"Ġori":7609,"nan":7610,"vanÃªn":7611,"ĠKara":7612,"Ġkiri":7613,"Ġturen":7614,"ĠShein":7615,"ĠDew":7616,"Ġsafi":7617,"entene":7618,"To":7619,"áĥª":7620,"Ġbelav":7621,"ĠsÃ®n":7622,"Ġkommunikasjon":7623,"Ġkamera":7624,"hiki":7625,"ĠProgramu":7626,"Ġwach":7627,"Ġbri":7628,"ĠÐ¾Ð±Ð»":7629,"DEMA":7630,"kristo":7631,"Ġstart":7632,"ĠBÃ¥":7633,"Ġkijana":7634,"zal":7635,"ĠUstawi":7636,"pishwa":7637,"ĠNyumba":7638,"ĠKitengo":7639,"ishahara":7640,"Ġuaminifu":7641,"Ġjuma":7642,"Ġkutoku":7643,"kufunzi":7644,"ĠVVU":7645,"Ġuhifadhi":7646,"Ġinapaswa":7647,"Ġkiislamu":7648,"thibiti":7649,"Ġkuwapo":7650,"Kuhusu":7651,"Ġkukusan":7652,"Ġinatoa":7653,"Ġimetoa":7654,"pigano":7655,"Ġkutolea":7656,"ĠMsaidizi":7657,"ĠArsenal":7658,"Ġoffentlige":7659,"Ġsalan":7660,"ãĢ":7661,"ĠÃĺst":7662,"1999":7663,"lie":7664,"ĠMah":7665,"Ġbib":7666,"ĠhÃ¸re":7667,"ĠSana":7668,"spek":7669,"85":7670,"Ġutvi":7671,"ĠEfr":7672,"1980":7673,"tting":7674,"Ġslett":7675,"ĠPD":7676,"ĠTuna":7677,"ratÃ®k":7678,"ambi":7679,"ssel":7680,"Ġforven":7681,"ĠGjennom":7682,"ĠWilliam":7683,"Ġmeget":7684,"nummer":7685,"ĠAlt":7686,"pinga":7687,"orÃ®":7688,"ers":7689,"gia":7690,"teya":7691,"ĠprÃ¸ver":7692,"urdere":7693,"ĠTanganyika":7694,"ĠpirsgirÃª":7695,"áĥĲáĥ¦":7696,"ĠbÃ»ne":7697,"ĠBora":7698,"vita":7699,"Ġolje":7700,"ningslin":7701,"vajo":7702,"ĠJulius":7703,"opia":7704,"OM":7705,"uel":7706,"Ġplu":7707,"ĠTrondheim":7708,"Tuna":7709,"Ġopprin":7710,"qe":7711,"anÃªn":7712,"Ġcom":7713,"Ġco":7714,"Ġkuin":7715,"Ġufahamu":7716,"Ġkubaini":7717,"Ġyasiyo":7718,"ĠNishati":7719,"Ġamewataka":7720,"Ġwadogo":7721,"Ġkueleza":7722,"Ġvigezo":7723,"Ġwawakilishi":7724,"Ġkuchaguliwa":7725,"ĠMaliasili":7726,"ĠDRC":7727,"ĠMuhim":7728,"ĠMuhimbili":7729,"angili":7730,"athirika":7731,"Ġgrunnlag":7732,".Â»":7733,"delige":7734,"Ġyr":7735,"ĠJapan":7736,"ĠifÃ¸lge":7737,"Ġtekst":7738,"Med":7739,"Ġnettopp":7740,"Ġforskjell":7741,"Ġinvester":7742,"ĠOle":7743,"Ġsiyaset":7744,"ĠmÃ¸r":7745,"Ġtime":7746,"gens":7747,"Ġburde":7748,"Ġsende":7749,"ĠVita":7750,"áĥĲáĥļáĥ£áĥłáĥĺ":7751,"Ġinsta":7752,"ÑĢÐ°":7753,"ĠKilo":7754,"fÃªn":7755,"ĠSki":7756,"Una":7757,"Ġarti":7758,"etÃ¸y":7759,"uzu":7760,"esig":7761,"Ġmawe":7762,"ĠRÃ»":7763,"orer":7764,"ĠpolÃ®":7765,"sty":7766,"Ġalb":7767,"Ġresultater":7768,"Ġmno":7769,"ĠRaila":7770,"ĠArabia":7771,"Ġmizi":7772,"ĠShahada":7773,"Ġforfatter":7774,"250":7775,"Ġhens":7776,"Ġderke":7777,"Ġaxa":7778,"ĠEthi":7779,"nne":7780,"Ġkibiashara":7781,"Ġoppdrag":7782,"fanyi":7783,"hutubia":7784,"kusanyaji":7785,"ĠTakwimu":7786,"Ġkuondolewa":7787,"Ġdhana":7788,"Ġufumbuzi":7789,"unzaji":7790,"Ġnyimbo":7791,"Ġikilinganishwa":7792,"Ġkilele":7793,"Ġmvu":7794,"Ġkuepu":7795,"Ġhatimaye":7796,"adhimisha":7797,"Ġimetolewa":7798,"jengea":7799,"Maafisa":7800,"Ġkipato":7801,"amasha":7802,"ĠWazazi":7803,"ĠOl":7804,"ĠweÅŁ":7805,"78":7806,"Ġfir":7807,"hev":7808,"Ġregu":7809,"Ġtenker":7810,"600":7811,"Ġtransport":7812,"xx":7813,"Ã¸tet":7814,"yen":7815,"áĥĶáĥłáĥĺ":7816,"Ġyng":7817,"ĠhÃ¸ye":7818,"Ġsitter":7819,"ĠHis":7820,"siktig":7821,"ligheter":7822,"Ġbarnet":7823,"02":7824,"asim":7825,"áĥľáĥ":7826,"kob":7827,"Pa":7828,"program":7829,"Ġnettet":7830,"piti":7831,"Ġfebru":7832,"Ġdatter":7833,"toko":7834,"ĠRom":7835,"Ġkurs":7836,"ekte":7837,"Ġhold":7838,"full":7839,"Ġrussiske":7840,"54":7841,"ĠÃ¸ker":7842,"ĠMad":7843,"sloven":7844,"Em":7845,"HO":7846,"lende":7847,"Ġkategori":7848,"pene":7849,"gs":7850,"ĠNam":7851,"Ġbus":7852,"tekt":7853,"Ġuts":7854,"ĠSand":7855,"ksjonen":7856,"Ġusta":7857,"erne":7858,"Ġlyd":7859,"Ġhamu":7860,"Ġsterk":7861,"zesha":7862,"Ġmajeshi":7863,"ĠShirikisho":7864,"iliaji":7865,"isaidia":7866,"ĠBukoba":7867,"jiunga":7868,"fahamika":7869,"ĠWalimu":7870,"LE":7871,"Ġukari":7872,"Ġmahali":7873,"kamani":7874,"ĠIkungi":7875,"chochea":7876,"hadhari":7877,"ĠNeno":7878,"ĠKidemokrasia":7879,"biliwa":7880,"IMWI":7881,"udhui":7882,"budet":7883,"datter":7884,"ĠGer":7885,"Ġprofesjon":7886,"Ġforklar":7887,"ĠKul":7888,"1994":7889,"ĠBla":7890,"rek":7891,"Ġhead":7892,"bwe":7893,"kost":7894,"ĠOn":7895,"áĥĿáĥłáĥ£":7896,"Ġmidler":7897,"Ġenten":7898,"áĥĿáĥ¬":7899,"Ġare":7900,"zina":7901,"qÃª":7902,"áĥĺáĥª":7903,"Ġmarkedet":7904,"mio":7905,"bola":7906,"hets":7907,"Ġfinansi":7908,"bygging":7909,"áĥĲáĥłáĥĻáĥĺ":7910,"Ġbidi":7911,"kr":7912,"Ġkero":7913,"áĥļáĥĺ":7914,"Ġinnlegget":7915,"ÑģÐºÐ°Ñı":7916,"bamba":7917,"zon":7918,"ĠUra":7919,"ĠEthiopia":7920,"Ġdikir":7921,"mÃ¥":7922,"Som":7923,"con":7924,"enu":7925,"Ko":7926,"Ġendelig":7927,"SÃ¥":7928,"ase":7929,"gren":7930,"BORA":7931,"áĥĲáĥ©":7932,"ĠKuna":7933,"Ġdixwazin":7934,"Ġwamesema":7935,"hamisi":7936,"Ġmajimbo":7937,"jiriwa":7938,"ifanya":7939,"Ġkihistoria":7940,"Ġmichango":7941,"zalendo":7942,"Ġtawala":7943,"pakana":7944,"ingawa":7945,"Ġkufungwa":7946,"hudumu":7947,"kabidhiwa":7948,"Ġhususani":7949,"Ġkupelekwa":7950,"ĠMke":7951,"fuatavyo":7952,"ĠKenyatta":7953,"Ġyafuatayo":7954,"Ġpande":7955,"Ġzimekuwa":7956,"retarieti":7957,"Ġalipata":7958,"Ġkumekuwa":7959,"Ġkuacha":7960,"nor":7961,"áĥ©":7962,"Ġopplysninger":7963,"Ġbetydning":7964,"Ã¸ren":7965,"Ġáĥľáĥĺáĥľ":7966,"ĠFI":7967,"tensi":7968,"iv":7969,"US":7970,"Ġmeng":7971,"Ã®nÃªn":7972,"ĠMong":7973,"jenesten":7974,"andel":7975,"ĠáĥĻáĥĲáĥļáĥĶáĥľáĥĵ":7976,"ĠbÃ¸ker":7977,"ĠxweÅŁ":7978,"St":7979,"Ġmeli":7980,"ligi":7981,"Ġgodkjen":7982,"Ġflotte":7983,"TS":7984,"Ġavtale":7985,"Ġila":7986,"PF":7987,"isen":7988,"onn":7989,"ĠDan":7990,"ror":7991,"isjonen":7992,"Ġsamfunns":7993,"NA":7994,"ĠHol":7995,"Ġbereg":7996,"ĠverktÃ¸y":7997,"Anthony":7998,"Ġengel":7999,"Ġtyper":8000,"ĠsnÃ¸":8001,"arbeider":8002,"Ġmes":8003,"yona":8004,"huku":8005,"Ġbrukere":8006,"Ġgruppe":8007,"Ġmini":8008,"ey":8009,"Ġfys":8010,"Ġoms":8011,"Ġmbadala":8012,"Licha":8013,"Ġununuzi":8014,"aminika":8015,"Kuna":8016,"Tangu":8017,"Ġukusanyaji":8018,"Ġmasaa":8019,"Ġkwaa":8020,"taalam":8021,"áĥĶáĥľáĥ¡":8022,"ĠJumatatu":8023,"Ġkuhamasisha":8024,"ĠDemok":8025,"Dkt":8026,"isheni":8027,"ĠHakimu":8028,"Ġmashabiki":8029,"Ġpass":8030,"lands":8031,"NÃ¥":8032,"bladet":8033,"Ġarman":8034,"ĠGab":8035,"tegr":8036,"700":8037,"eland":8038,"repet":8039,"ĠAK":8040,"nelsen":8041,"Ġcuda":8042,"rim":8043,"ĠCi":8044,"mÃ¥l":8045,"ĠÃ¥pnet":8046,"lau":8047,"Ġsendt":8048,"gur":8049,"ruktur":8050,"ĠinnebÃ¦rer":8051,"ĠBeg":8052,"Ġsnakke":8053,"skar":8054,"Ġsentrum":8055,"riya":8056,"Ġvedlike":8057,"Ġfungerer":8058,"ĠdÃ»":8059,"ĠAbdal":8060,"ĠtÃªkoÅŁ":8061,"ĠÃªdÃ®":8062,"forbund":8063,"áĥĲáĥľáĥ¢":8064,"port":8065,"ĠMuham":8066,"Ġforrige":8067,"dui":8068,"veber":8069,"Ġkropp":8070,"Ġprin":8071,"ĠSÃ»riyÃª":8072,"tasi":8073,"Ġidenti":8074,"Ġvarme":8075,"riko":8076,"Ġreli":8077,"ĠSongea":8078,"veis":8079,"ĠUtawala":8080,"ĠWatoto":8081,"Ġkimkoa":8082,"Ġmishahara":8083,"Ġwadhifa":8084,"Ġnakala":8085,"ĠUshauri":8086,"Ġumeto":8087,"boreshaji":8088,"Ġinafanya":8089,"Ġshaka":8090,"ĠTABORA":8091,"Ġufisadi":8092,"ĠUfundi":8093,"Ġingawa":8094,"Ġkikundi":8095,"Ġmwanasiasa":8096,"Ġzinazoendelea":8097,"Ġakisoma":8098,"52":8099,"Ġvikwazo":8100,"ĠKikristo":8101,"Ġiwapo":8102,"ĠNchini":8103,"fungo":8104,"ĠKalambo":8105,"ĠUKIMWI":8106,"lipuko":8107,"Ġwalim":8108,"ĠJumatano":8109,"ĠProfesa":8110,"Ġsaini":8111,"ĠCHADEMA":8112,"deni":8113,"Til":8114,"ĠFrancis":8115,"latt":8116,"ĠPlan":8117,"bre":8118,"Ġsuper":8119,"ĠnÃ®ÅŁan":8120,"Ġlar":8121,"graf":8122,"ĠáĥĲáĥĽ":8123,"ĠÃ¸konomi":8124,"ÄŁ":8125,"Ġderve":8126,"Ġhur":8127,"ĠKand":8128,"ĠRichard":8129,"Ġhod":8130,"Ġtall":8131,"ĠMohammed":8132,"ĠTen":8133,"suten":8134,"vist":8135,"Ġmia":8136,"ĠáĥĴáĥ·áĥĽ":8137,"ĠlÃ¸rdag":8138,"ĠoppfÃ¸l":8139,"Ġadminist":8140,"Kur":8141,"Ġinteressan":8142,"vya":8143,"Ġforeta":8144,"Ġdelt":8145,"áĥ£áĥĳ":8146,"Ġresten":8147,"Ġoppfy":8148,"Ġkaya":8149,"ĠPen":8150,"Ġprosjekter":8151,"Ġavhengig":8152,"Ġoverras":8153,"egÃ¥ende":8154,"ĠAlex":8155,"ĠcÃ®hanÃª":8156,"Ġbari":8157,"Ġvurdere":8158,"ĠanÃ®":8159,"pool":8160,"ufi":8161,"Ġtydelig":8162,"ĠTwitter":8163,"jenda":8164,"Ġbon":8165,"ĠSanaa":8166,"kelewa":8167,"ĠCham":8168,"Ġmkononi":8169,"Ġijayo":8170,"Ġbahati":8171,"onyeshwa":8172,"Ġkulipwa":8173,"hariri":8174,"Ġvyoo":8175,"Ġfilamu":8176,"Mwalimu":8177,"ĠAC":8178,"Ġtakribani":8179,"Ġkuibuka":8180,"tambulisha":8181,"ĠHesabu":8182,"gizaji":8183,"diriwa":8184,"Ġupimaji":8185,"Ġuzito":8186,"ĠMpya":8187,"kubaliana":8188,"ghulikia":8189,"Ġyanaweza":8190,"Ġmtaalamu":8191,"hamisho":8192,"Ġshukrani":8193,"Ġkichwa":8194,"Ġhuenda":8195,"zungumzwa":8196,"Ġmashine":8197,"Ġkukusanya":8198,"uzulu":8199,"ĠMaombi":8200,"Ġdhambi":8201,"Utafiti":8202,"ĠMakatibu":8203,"kÃªÅŁ":8204,"yombo":8205,"ttel":8206,"Ġanakuwa":8207,"ĠáĥĿáĥĳ":8208,"ĠbÃ¦re":8209,"Ġklarer":8210,"produksjon":8211,"deles":8212,"Ġredusere":8213,"Ġregjeringen":8214,"Ġinkludert":8215,"delt":8216,"ĠHerÃª":8217,"Ġspillere":8218,"2022":8219,"ĠrÃªxistin":8220,"Ġmidt":8221,"Ġroman":8222,"ĠBank":8223,"osta":8224,"Ġseks":8225,"teten":8226,"pia":8227,"Ġlager":8228,"ĠDavid":8229,"stÃ®":8230,"ĠmÃ¸tte":8231,"ĠKurdistan":8232,"Ġsamfunnet":8233,"Ġselskap":8234,"Ġass":8235,"Ġdidin":8236,"ĠNMB":8237,"nett":8238,"ĠBaÅŁ":8239,"pati":8240,"andam":8241,"ĠpÃªvajo":8242,"ĠSala":8243,"yupo":8244,"ktroni":8245,"ĠselvfÃ¸lgelig":8246,"ĠkjÃ¸nn":8247,"ĠPalestina":8248,"Ġtilsvar":8249,"shia":8250,"ĠHÃ¸":8251,"angen":8252,"ĠUng":8253,"Ġmadu":8254,"yeta":8255,"kufa":8256,"Ã³":8257,"barani":8258,"ĠUWT":8259,"katika":8260,"ishiriki":8261,"Ġndipo":8262,"Ġmeneja":8263,"Ġamefanya":8264,"Ġmadaktari":8265,"Ġswali":8266,"Ġmahafali":8267,"ĠNchimbi":8268,"Ġmkurugenzi":8269,"Ġdalili":8270,"Ġharakati":8271,"ĠNdg":8272,"Ġushindani":8273,"ĠTano":8274,"Ġkuwekwa":8275,"Ġmashamba":8276,"Ġyenyewe":8277,"Ġmumewe":8278,"Ġmitambo":8279,"Ġaliwahi":8280,"Ġinaendelea":8281,"Ġkiny":8282,"Ġmfanyakazi":8283,"Ġurefu":8284,"Ġakifungua":8285,"Ġmakabidhi":8286,"Ġkorosho":8287,"amhuri":8288,"chafu":8289,"Ġmikubwa":8290,"fikishwa":8291,"zimio":8292,"Ġzilikuwa":8293,"Ġvirker":8294,"Ġklima":8295,"vnte":8296,"arÃ®":8297,"ĠMÃ¸t":8298,"Ġled":8299,"ÂŃ":8300,"ĠdilÃª":8301,"Re":8302,"Ġ?":8303,"ĠSir":8304,"ĠkjÃ¦resten":8305,"Ġseri":8306,"ĠUp":8307,"ĠOb":8308,"ĠpÃªwÃ®":8309,"Ġstarte":8310,"Ġutviklingen":8311,"Ġalene":8312,"ĠSE":8313,"troll":8314,"Ġtett":8315,"eth":8316,"skole":8317,"TC":8318,"Ġfree":8319,"Ro":8320,"Ġstarter":8321,"ĠJen":8322,"Ġartikk":8323,"ĠHvor":8324,"ingene":8325,"Ġfilmer":8326,"rette":8327,"ĠJohan":8328,"Ġsjekke":8329,"aa":8330,"eman":8331,"enza":8332,"ĠdirÃª":8333,"kro":8334,"skrift":8335,"lezi":8336,"titu":8337,"ĠfornÃ¸yd":8338,"Ġkris":8339,"Ġyekem":8340,"ĠdÃ®sa":8341,"Ġfebruar":8342,"ĠáĥĴáĥĺáĥľ":8343,"69":8344,"Ġelsker":8345,"Ġhej":8346,"Ġdefin":8347,"Ġuniversitet":8348,"Al":8349,"ĠÅŁore":8350,"lazim":8351,"Ġtakk":8352,"pÃ®":8353,"ĠáĥĿáĥ¨áĥ¬áĥĲáĥľáĥ£áĥłáĥĲáĥ¨":8354,"Ġmaru":8355,"ĠklÃ¦r":8356,"ĠAmina":8357,"Ġmapo":8358,"yang":8359,"Ġelever":8360,"snitt":8361,"jÃ¦r":8362,"Ġfru":8363,"eres":8364,"Ġmwend":8365,"Ġmawaziri":8366,"dana":8367,"tengenezo":8368,"Ġzisizo":8369,"ĠVikuu":8370,"anguka":8371,"Tume":8372,"jasiriamali":8373,"alikwa":8374,"ĠOdinga":8375,"Umoja":8376,"Ġwatakao":8377,"Ġtahadhari":8378,"chunguzi":8379,"nyumbani":8380,"Ġmahakamani":8381,"ĠWanawake":8382,"Ġbaridi":8383,"dhali":8384,"Ġutumishi":8385,"Ġvikosi":8386,"Ġhaikuwa":8387,"andarasi":8388,"Ġmakabidhiano":8389,"Ġkuwasaidia":8390,"drid":8391,"bane":8392,"ÑĮ":8393,"Ġáĥ¥áĥĺáĥĲáĥľ":8394,"Ġwah":8395,"Ho":8396,"Un":8397,"ĠfÃ¸re":8398,"Ġutfordringer":8399,"leggende":8400,"Ġleverand":8401,"AM":8402,"Ġpato":8403,"Ġkolle":8404,"Ġáĥ¨áĥ®áĥķ":8405,"sekven":8406,"ĠutÃ¸":8407,"Ġvold":8408,"ĠdibÃªjin":8409,"tic":8410,"Ġfarger":8411,"ä¸":8412,"Ġtusen":8413,"ĠTirkiyeyÃª":8414,"Ġspise":8415,"Ġberdewam":8416,"ĠSoko":8417,"Ġpersonlig":8418,"Ġsaker":8419,"ĠMadrid":8420,"Ġfest":8421,"Ġparas":8422,"dalen":8423,"Ġmoderne":8424,"ĠÃ¸d":8425,"ral":8426,"Ġberhem":8427,"esta":8428,"alla":8429,"ĠGambo":8430,"Ġsamle":8431,"ttera":8432,"Ġjul":8433,"ĠService":8434,"Ġvare":8435,"kewa":8436,"Ġbist":8437,"ĠNSSF":8438,"luh":8439,"Ġskyld":8440,"dating":8441,"Ġsvart":8442,"ĠLibya":8443,"biria":8444,"Ġradi":8445,"Ġuda":8446,"Ġndoto":8447,"rx":8448,"Ġwap":8449,"Ġuboreshaji":8450,"Ġmakadirio":8451,"Mganga":8452,"pitia":8453,"Ġwarsha":8454,"Ġujio":8455,"aruhusu":8456,"Ġkufanywa":8457,"Ġkwaajili":8458,"Ġkuham":8459,"Ġmaarifa":8460,"Tuzo":8461,"ĠMiaka":8462,"tafuta":8463,"Ġwamet":8464,"Ġmbolea":8465,"ark":8466,"Ġkw":8467,"plikt":8468,"Ġkommentar":8469,"imot":8470,"Ġinteresse":8471,"ĠcihÃª":8472,"Ġbilind":8473,"áĥĲáĥłáĥĽ":8474,"Ġvedtak":8475,"ĠrÃ¸":8476,"ters":8477,"emÃª":8478,"ylkes":8479,"ĠdÃ®tin":8480,"Ġbetale":8481,"ĠhemberÃ®":8482,"ĠÅŁÃª":8483,"Ġlangs":8484,"Ġdato":8485,"Ġstandard":8486,"ĠLy":8487,"holdt":8488,"ĠVin":8489,"ĠMartin":8490,"ĠReal":8491,"Ġperwerde":8492,"Ġkvali":8493,"Ġkarakter":8494,"Ġsor":8495,"gifter":8496,"Ġgodkjent":8497,"mea":8498,"ĠdrÃ¸m":8499,"ĠhÃ¸sten":8500,"Ġhind":8501,"Ġvider":8502,"emi":8503,"ĠVar":8504,"fÃ¸rte":8505,"iko":8506,"synet":8507,"ĠkjÃ¸per":8508,"Ġstudi":8509,"gÃ¥":8510,"amira":8511,"ht":8512,"ĠMay":8513,"Ġprivat":8514,"klo":8515,"resse":8516,"Ġlille":8517,"Ġforret":8518,"Ġmago":8519,"Ġajenda":8520,"amaki":8521,"pindu":8522,"Ġenklere":8523,"Ġimara":8524,"Ġkuendesha":8525,"wagiliaji":8526,"hukumiwa":8527,"Ikiwa":8528,"takuwa":8529,"onekano":8530,"isikiliza":8531,"Ġmakamu":8532,"Ġakisalimiana":8533,"Ġmashtaka":8534,"Ġkubadilisha":8535,"ĠMoyo":8536,"ĠKlabu":8537,"Ġkifungu":8538,"Ġinapatikana":8539,"Ġchombo":8540,"ĠMashirika":8541,"Ġkimapenzi":8542,"tangulia":8543,"Ġkukosekana":8544,"hibitisha":8545,"Ġinasema":8546,"setting":8547,"Ġkutimiza":8548,"Ġnyaraka":8549,"Ġmstaafu":8550,"Ġkuing":8551,"tuhumiwa":8552,"Ġmatendo":8553,"Ġmgonjwa":8554,"Ġmaudhui":8555,"ĠWabunge":8556,"Ġuhamiaji":8557,"ĠUhamiaji":8558,"Ġhomo":8559,"ĠmÃ¥ter":8560,"Ġradio":8561,"jent":8562,"jelp":8563,"stid":8564,"Ġpole":8565,"Ved":8566,"isim":8567,"yom":8568,"PC":8569,"bul":8570,"ementer":8571,"ogra":8572,"ĠÃ§areser":8573,"inne":8574,"RU":8575,"Ġseksu":8576,"©áĥ¥":8577,"ĠnavÃ§e":8578,"Ġkem":8579,"Ġgaran":8580,"LB":8581,"atÃ¸r":8582,"ĠMb":8583,"ĠMid":8584,"ĠsÃ¥nn":8585,"ern":8586,"SE":8587,"ĠgjennomfÃ¸re":8588,"Ġvinne":8589,"Ġersta":8590,"tigheter":8591,"Ã®ndar":8592,"kariya":8593,"ligvis":8594,"64":8595,"Ġhjemm":8596,"bed":8597,"lav":8598,"ĠAk":8599,"manuel":8600,"xistina":8601,"BS":8602,"ĠEller":8603,"Ġtattoo":8604,"PI":8605,"enea":8606,"duli":8607,"Ġetablert":8608,"ĠbrÃ¸":8609,"zil":8610,"Ġazma":8611,"53":8612,"Ġunna":8613,"stein":8614,"Ġperioden":8615,"onea":8616,"Ġlavere":8617,"fund":8618,"Ġvest":8619,"Ġpolitiet":8620,"bler":8621,"Ġyale":8622,"lei":8623,"kuna":8624,"haba":8625,"Ġoppleve":8626,"ĠAir":8627,"wezo":8628,"ifu":8629,"ĠTirkÃ®":8630,"ĠsÃ¸nn":8631,"ĠFinn":8632,"ght":8633,"ĠChake":8634,"ĠBahari":8635,"Ġzimet":8636,"Ġwatakuwa":8637,"tanisha":8638,"Ġutajiri":8639,"Ġneema":8640,"Ġkumw":8641,"Ġkutun":8642,"Ġmchana":8643,"/=":8644,"ĠFursa":8645,"Ġmajaribio":8646,"Ġmbiu":8647,"rabati":8648,"rahia":8649,"ĠRoho":8650,"Ġushahidi":8651,"hojiano":8652,"Ġnidhamu":8653,"fupi":8654,"Ġkipaumbele":8655,"ĠBinadamu":8656,"ĠMtaa":8657,"Ġspor":8658,"kizwa":8659,"rudani":8660,"Ġwanafanya":8661,"Ġmwaliko":8662,"Ġkijinsia":8663,"kusudi":8664,"ĠMwanri":8665,"Ġakifanya":8666,"Ġkipya":8667,"Ġkibinadamu":8668,"ĠáĥĳáĥŁ":8669,"ĠÃĽ":8670,"ĠWar":8671,"ĠPas":8672,"kjed":8673,"ĠáĥĿáĥĻ":8674,"Ġur":8675,"Sel":8676,"ĠbÃªn":8677,"siv":8678,"67":8679,"ĠáĥŃ":8680,"ĠtaybetÃ®":8681,"ĠpopulÃ¦re":8682,"hÃ®d":8683,"atikk":8684,"Ġomsorg":8685,"ĠSimon":8686,"ĠHvordan":8687,"hn":8688,"logiske":8689,"800":8690,"borg":8691,"hula":8692,"sens":8693,"nskapet":8694,"sÃªn":8695,"fritt":8696,"1992":8697,"Ġvalgte":8698,"Ġfran":8699,"ĠÃ§alaki":8700,"Ġcaran":8701,"hau":8702,"kjÃ¸p":8703,"Ġhensyn":8704,"1970":8705,"áĥĲáĥ¨áĥĲ":8706,"ĠErdo":8707,"ĠFu":8708,"Ġopplever":8709,"sjons":8710,"Ġskjul":8711,"ĠeÅŁ":8712,"buri":8713,"1998":8714,"hisa":8715,"mere":8716,"beta":8717,"ktora":8718,"Ġkvel":8719,"Ġini":8720,"Ġbestemt":8721,"ĠhÃ®n":8722,"Ġtype":8723,"Ġkiti":8724,"Ã¥re":8725,"ĠÐļ":8726,"Ġpriori":8727,"ĠKe":8728,"eger":8729,"CH":8730,"PG":8731,"volusjon":8732,"ledes":8733,"Ġames":8734,"Ġroho":8735,"Ġkalt":8736,"bord":8737,"Ġmjumbe":8738,"ĠUrais":8739,"Ġkalenda":8740,"Ġinatarajiwa":8741,"Wachezaji":8742,"kadiriwa":8743,"Ġvingine":8744,"hal":8745,"fanye":8746,"Ġvibaya":8747,"Ġalifanya":8748,"Ġwanayo":8749,"shirikisha":8750,"ĠChadema":8751,"piganaji":8752,"Ġdhahabu":8753,"Wananchi":8754,"Ġfart":8755,"Ġtija":8756,"Ġmapigano":8757,"Ġilio":8758,"Ġinnov":8759,"ĠFl":8760,"Ġslags":8761,"lever":8762,"Ġopprinne":8763,"Ġbedrift":8764,"kdom":8765,"Ġresultat":8766,"ĠsalÃªn":8767,"ĠJin":8768,"smes":8769,"Ġleg":8770,"ĠPhD":8771,"ĠBBC":8772,"alÃª":8773,"ĠMary":8774,"Ġslo":8775,"ĠCA":8776,"áĥĲáĥ¤áĥĺáĥļáĥĺ":8777,"ĠHoved":8778,"ĠKing":8779,"Ñĭ":8780,"ĠtrÃ¥d":8781,"Mar":8782,"tima":8783,"ction":8784,"Ġdam":8785,"ĠAngo":8786,"ĠgiÅŁtÃ®":8787,"xt":8788,"ĠNet":8789,"ĠYek":8790,"inister":8791,"kershus":8792,"Ġfortsette":8793,"ĠhikÃ»":8794,"dighetene":8795,"Ġaktiviteter":8796,"Et":8797,"Hal":8798,"Ġstudenter":8799,"Ġ<":8800,"altning":8801,"tÃ®ya":8802,"Ġfredag":8803,"Ġrestaur":8804,"lid":8805,"ĠBir":8806,"ialis":8807,"Ġref":8808,"ĠIsa":8809,"Ġfr":8810,"Ġglede":8811,"gaver":8812,"ĠutgjÃ¸r":8813,"ĠÃ§ap":8814,"ĠherÃªmÃª":8815,"Ġformid":8816,"isert":8817,"Ġvekst":8818,"ped":8819,"Ġlengre":8820,"ĠnÃ¦ring":8821,"pande":8822,"fornia":8823,"Ġwaliopo":8824,"Ġutaalamu":8825,"dhisha":8826,"pakani":8827,"unganisha":8828,"ĠWanyama":8829,"Ġiwe":8830,"ĠIddi":8831,"Ġkubuni":8832,"Ġusio":8833,"Ġmadarakani":8834,"Ġkupatiwa":8835,"Ġkitendo":8836,"Ġwatuhumiwa":8837,"Ġmwananchi":8838,"Ġvyenye":8839,"Ġmaandiko":8840,"Ġalieleza":8841,"Ġwakiwemo":8842,"Ġkukabidhiwa":8843,"bliotek":8844,"ĠMisitu":8845,"Ġviumbe":8846,"Ġzinaweza":8847,"ĠtenÃ¥r":8848,"Ġmilit":8849,"ĠThomas":8850,"Ġservice":8851,"ferd":8852,"ransport":8853,"ĠVan":8854,"kort":8855,"Ġbla":8856,"ĠUb":8857,"ĠAllah":8858,"amaha":8859,"LO":8860,"Ġwir":8861,"Ġforvent":8862,"áĥĲáĥľáĥ£áĥłáĥĺ":8863,"MIS":8864,"Ġpartner":8865,"Ġkrig":8866,"Ġviti":8867,"ĠSU":8868,"Ã¸se":8869,"ĠkjÃ¸pt":8870,"GO":8871,"utt":8872,"Ġskikkelig":8873,"Ġbrukte":8874,"tinÃªn":8875,"dager":8876,"emeke":8877,"talte":8878,"áĥĿáĥ¢":8879,"legget":8880,"//":8881,"áĥĶáĥ¤áĥĺáĥĹ":8882,"ĠpiÅŁtgi":8883,"ĠIli":8884,"ĠkuÅŁtin":8885,"ÑģÑĤ":8886,"áĥĲáĥ£":8887,"Fa":8888,"Ġ..":8889,"Ġbegynne":8890,"ĠlÃ¸nns":8891,"].":8892,"YA":8893,"ĠBre":8894,"Ġpetro":8895,"kilo":8896,"trykk":8897,"Ġmijar":8898,"potek":8899,"china":8900,"nivÃ¥":8901,"fÃ®":8902,"ĠAnne":8903,"perio":8904,"ĠÃ¸konomisk":8905,"ĠNgu":8906,"Ġvoksen":8907,"Ġduka":8908,"Ġumet":8909,"Mw":8910,"Han":8911,"ĠDonald":8912,"ĠEfrÃ®nÃª":8913,"rudi":8914,"ĠMna":8915,"Ġwww":8916,"Ġhim":8917,"zaa":8918,"dest":8919,"ĠProduksjon":8920,"Ġautom":8921,"atana":8922,"hl":8923,"ĠkjÃ¸kken":8924,"ĠHati":8925,"wisha":8926,"Ġherufi":8927,"Ġkuwasilishwa":8928,"Ġcheo":8929,"jibikaji":8930,"Ġwakala":8931,"Ġkuelewa":8932,"Ġvirusi":8933,"ĠWakurugenzi":8934,"chezea":8935,"Ġwangu":8936,"twaa":8937,"Ġkuwezesha":8938,"Ġmahojiano":8939,"Ġkukata":8940,"ondolewa":8941,"fautiana":8942,"Ġforsknings":8943,"tengenezwa":8944,"Ġkuelezea":8945,"kipiki":8946,"Ġmajibu":8947,"fundisha":8948,"shika":8949,"Ġupa":8950,"Ġinawezekana":8951,"tembea":8952,"anyi":8953,"Ġhesabu":8954,"Ġmamia":8955,"Ġkupan":8956,"ĠJKT":8957,"Ġwanasiasa":8958,"Ġchache":8959,"Ġwaliofika":8960,"urugu":8961,"ggrey":8962,"wassa":8963,"vnet":8964,"vas":8965,"lege":8966,"Ġrek":8967,"Ġarki":8968,"Mara":8969,"Ġbekre":8970,"Ġoppdag":8971,"Ġinnvand":8972,"1996":8973,"ĠÃħr":8974,"Ġporn":8975,"poner":8976,"Ġbikaran":8977,"Ġmm":8978,"No":8979,"ep":8980,"Ġglem":8981,"nikk":8982,"Ġbloggen":8983,"bon":8984,"former":8985,"skom":8986,"ĠCO":8987,"vesen":8988,"Ġyou":8989,"ĠWen":8990,"áĥĺáĥŀ":8991,"departementet":8992,"jeneste":8993,"áĥ¢áĥł":8994,"bilder":8995,"Ġjobben":8996,"Ġsport":8997,"ĠFIFA":8998,"Ġguher":8999,"Ġvenstre":9000,"politikk":9001,"ev":9002,"Ch":9003,"hvert":9004,"gget":9005,"ĠBro":9006,"vju":9007,"Ġbikar":9008,"ĠIN":9009,"huda":9010,"smÃ¥let":9011,"toni":9012,"ĠJes":9013,"1960":9014,"áĥĲáĥłáĥĲ":9015,"ĠSve":9016,"Ãĩ":9017,"Ġdever":9018,"manÃª":9019,"SM":9020,"Ġstats":9021,"Ġtvil":9022,"Ð·":9023,"ĠavÃª":9024,"zing":9025,"plom":9026,"Ġpunkt":9027,"Ġnasjonale":9028,"Ġyuko":9029,"Ġreali":9030,"turer":9031,"rert":9032,"ĠOs":9033,"ĠData":9034,"stu":9035,"tovu":9036,"elezi":9037,"Ġyupo":9038,"Dk":9039,"Ġratiba":9040,"ĠEvar":9041,"GP":9042,"kkerhet":9043,"Ġsamfunn":9044,"gehÃª":9045,"asihi":9046,"ongoro":9047,"ĠCUF":9048,"Ġakielezea":9049,"Ġmatakwa":9050,"Ġmikono":9051,"Ġilitolewa":9052,"umuia":9053,"Ġnguzo":9054,"âĢ¦]":9055,"Ġmabaya":9056,"Ġkulevya":9057,"Mbunge":9058,"Ġkutegemea":9059,"Ġibara":9060,"Ġiweze":9061,"Ġshuleni":9062,"kumbwa":9063,"Ġkujitoa":9064,"Ġsalamu":9065,"Ġkuuawa":9066,"ĠWatumishi":9067,"Ġwakis":9068,"xwed":9069,"ĠMto":9070,"balozi":9071,"Ġkifua":9072,"bered":9073,"Ġtafiti":9074,"Ġkuamua":9075,"ĠMmoja":9076,"Ġpamba":9077,"Ġinjini":9078,"hitimisha":9079,"angilio":9080,"Ġharamu":9081,"ĠJaji":9082,"Ġmotor":9083,"Ġdemokrasia":9084,"Ġupepo":9085,"ĠTan":9086,"Ġkonfer":9087,"iet":9088,"Ġgis":9089,"Ġmadad":9090,"Ø§":9091,"ĠHerÃªma":9092,"Ġrepresenter":9093,"Ġkontor":9094,".(":9095,"Ġgrunnleggende":9096,"tinget":9097,"ĠHÃ¥":9098,"ĠGir":9099,"ĠyekÃ®":9100,"ĠBarzanÃ®":9101,"'s":9102,"Ġtilfeller":9103,"ille":9104,"ws":9105,"Ġmedier":9106,"aland":9107,"Ġciwan":9108,".,":9109,"ĠÂ§":9110,"Ġgreit":9111,"pasi":9112,"88":9113,"ĠpaÅŁ":9114,"ĠáĥĲáĥļ":9115,"Ġskrev":9116,"ĠMC":9117,"ĠáĥĽáĥĲáĥ®":9118,"elim":9119,"Ġinf":9120,"Norge":9121,"jul":9122,"digvis":9123,"Ġrevolusjon":9124,"Denne":9125,"Ġfortelle":9126,"Ġfortsetter":9127,"Ġip":9128,"ĠNRK":9129,"baha":9130,"Ġskjedde":9131,"legger":9132,"keren":9133,"Ã®roz":9134,"Ġklarte":9135,"stendig":9136,"Ġvars":9137,"Ġsva":9138,"Ġattra":9139,"Kom":9140,"ĠkarÃª":9141,"karÃ®":9142,"ĠKer":9143,"hilat":9144,"ĠSil":9145,"ffekt":9146,"ĠcivakÃ®":9147,"ĠsÃ¸ndag":9148,"weden":9149,"Ġoppdatert":9150,"melding":9151,"Ġhana":9152,"ãĤ":9153,"ĠOrgan":9154,"Ġdriver":9155,"Ġhaiku":9156,"mani":9157,"Ġrolle":9158,"late":9159,"ĠMoja":9160,"Ġmk":9161,"áĥ£áĥĲáĥ¤áĥ£":9162,"ĠserÃ®":9163,"áĥĿáĥļáĥĿ":9164,"Ġkonsekven":9165,"Ġbedrifter":9166,"Ġug":9167,"stet":9168,"ĠMuhammad":9169,"dent":9170,"Ġalio":9171,"Ġtawi":9172,"ĠSverige":9173,"ĠGra":9174,"Ġmapa":9175,"Ġhedhi":9176,"Ġakimkabidhi":9177,"unuliwa":9178,"Ġhakuwa":9179,"Ġunatarajiwa":9180,"zikia":9181,"ĠMaadhimisho":9182,"unganishwa":9183,"meri":9184,"ĠKulia":9185,"Ġuadilifu":9186,"Ġmaduka":9187,"dhalika":9188,"ĠMasenza":9189,"ĠUVCCM":9190,"ĠMifugo":9191,"Ġkufahamu":9192,"Kila":9193,"Ġmwenzake":9194,"Ġburudani":9195,"chimbaji":9196,"uliza":9197,"Ġbidii":9198,"Ġkinyume":9199,"ofisa":9200,"fakari":9201,"Ġwanam":9202,"kamata":9203,"Ġenhver":9204,"Ġindivi":9205,"Ġsukker":9206,"120":9207,"Ġxwa":9208,"ĠKultur":9209,"Ġorganisasjon":9210,"ĠMomba":9211,"verpool":9212,"ĠBei":9213,"ĠParis":9214,"voka":9215,"ringen":9216,"ulo":9217,"Ã¸p":9218,"celona":9219,"ward":9220,"ĠPC":9221,"Ġuken":9222,"BU":9223,"medÃª":9224,"ĠSide":9225,"ĠIngen":9226,"Ġkirke":9227,"Ġkuj":9228,"Ġinnsats":9229,"Ġlange":9230,"vann":9231,"Ġbio":9232,"Ġmage":9233,"Ġjobbet":9234,"Ġvol":9235,"Ġvas":9236,"Ġivar":9237,"ĠSÃ¸k":9238,"prÃ¸":9239,"bÃ»l":9240,"://":9241,"ĠPiÅŁtÃ®":9242,"Ġmeste":9243,"lÃªn":9244,"Ġmimi":9245,"ppa":9246,"ĠDato":9247,"73":9248,"ĠMuf":9249,"ekta":9250,"gging":9251,"Ġgro":9252,"Ev":9253,"ĠFil":9254,"behandling":9255,"ĠzÃªdetir":9256,"Ġfis":9257,"Ġbod":9258,"Ġbenyttes":9259,"76":9260,"ĠpÃ®":9261,"tam":9262,"Ġxiz":9263,"ĠDema":9264,"fjord":9265,"jort":9266,"ander":9267,"Ġansvarlig":9268,"ĠHem":9269,"Ġbutikk":9270,"ĠdÃ»r":9271,"áĥ®áĥĲ":9272,"áĥĲáĥľáĥĺ":9273,"dike":9274,"Ġchi":9275,"risha":9276,"ÃŃ":9277,"elal":9278,"ĠAlhamisi":9279,"Ġkuchagua":9280,"ĠKahama":9281,"Ġmtindo":9282,"Ġdhahiri":9283,"Zaidi":9284,"Ġwamiliki":9285,"ubiri":9286,"fao":9287,"Ġilianza":9288,"Ġdaktari":9289,"Ġwanasema":9290,"Ġanayo":9291,"Ġwodi":9292,"jeruhiwa":9293,"mek":9294,"Ġiliyoko":9295,"Ġmapinduzi":9296,"Ġmkali":9297,"Ġhawaku":9298,"Kampuni":9299,"Ġzilizokuwa":9300,"kabiliwa":9301,"Ġvigumu":9302,"Ġruzuku":9303,"Ġkustaafu":9304,"Ġmikataba":9305,"zÃ®rÃª":9306,"seres":9307,"tekter":9308,"sem":9309,"Ġforeld":9310,"ĠLis":9311,"Ġoverfor":9312,"kny":9313,"áĥĽáĥĿáĥ¬":9314,"Ġosv":9315,"redi":9316,"legge":9317,"Ġáĥ¬áĥĲáĥľáĥĽáĥĿáĥ¬":9318,"ingeh":9319,"Ġkonser":9320,"Ġunders":9321,"Ã§Ã®":9322,"part":9323,"sjonene":9324,"Ġmotta":9325,"ĠgÃ¸y":9326,"buds":9327,"ĠáĥĲáĥĵ":9328,"berÃª":9329,"Ġid":9330,"ĠaÅŁ":9331,"Ġoppfa":9332,"áĥĿáĥłáĥĹáĥ£":9333,"Ġfiske":9334,"Ġvedlikehold":9335,"Ġabsol":9336,"saken":9337,"Ġvinner":9338,"Ġeksister":9339,"rÃ¸y":9340,"punkt":9341,"áĥĺáĥ£áĥļáĥĺ":9342,"Ġuti":9343,"rast":9344,"Ġprivate":9345,"Ġkuv":9346,"Ġjuli":9347,"ĠgrÃ¸nn":9348,"SI":9349,"ĀĀĀĀĀĀĀĀ":9350,"ĠVir":9351,"kole":9352,"ĠwelatÃª":9353,"pping":9354,"Ġelevene":9355,"ĠÃ¸konomiske":9356,"Ġhatu":9357,"jeo":9358,"Ġskaper":9359,"Ġlao":9360,"mid":9361,"Ġáĥ¸":9362,"ĠomrÃ¥de":9363,"Ġheter":9364,"Ġbrann":9365,"ĠDola":9366,"Ġsomo":9367,"burg":9368,"ĠJon":9369,"kil":9370,"livu":9371,"waji":9372,"elsea":9373,"áĥĺáĥ¯":9374,"ĠforhÃ¥nd":9375,"kali":9376,"piller":9377,"ĠGul":9378,"orongoro":9379,"ĠUvuvi":9380,"Ġmmiliki":9381,"Ġkutafsiri":9382,"Ġmwendelezo":9383,"Ġbungeni":9384,"Ġkutokom":9385,"zingatia":9386,"Ġtathmini":9387,"Idadi":9388,"lipa":9389,"ĠMtu":9390,"Ġkivita":9391,"arajiwa":9392,"Ġrekodi":9393,"Ġwaliohudhuria":9394,"Ġhakika":9395,"Ġkusikiliza":9396,"ĠTemeke":9397,"Ġletu":9398,"Ġutumwa":9399,"Ġifuatavyo":9400,"Ġkidini":9401,"hifadhiwa":9402,"Uongozi":9403,"Ġner":9404,"Ġkutokuwepo":9405,"Ġuandishi":9406,"kizungumza":9407,"Ġameeleza":9408,"ukwa":9409,"punguza":9410,"Ġmadhara":9411,"ĠAggrey":9412,"Ġmwanasheria":9413,"ywaji":9414,"Ġzana":9415,"ĠTANESCO":9416,"áĥĺáĥ£áĥłáĥĺ":9417,"Ġretningslin":9418,"nr":9419,"ĠNO":9420,"Ġerotiske":9421,"sagt":9422,"sex":9423,"Ġdagirker":9424,"Ġescort":9425,"Ġinvol":9426,"ĠhiÅŁ":9427,"dro":9428,"ĠDani":9429,"ĠChris":9430,"calan":9431,"Ġtanke":9432,"ropa":9433,"ĠutfÃ¸rt":9434,"áĥĺáĥĿáĥľ":9435,"Ã»na":9436,"ĠLea":9437,"ĠAkershus":9438,"Ġmanda":9439,"sky":9440,"gangen":9441,"Ġbom":9442,"ĠSk":9443,"ĠWash":9444,"Ġfamilien":9445,"Ġsesong":9446,"ĠpÃªn":9447,"Ġfitte":9448,"ĠMare":9449,"IÅŀ":9450,"ĠSaba":9451,"AU":9452,"ĠAmazon":9453,"ĠZimba":9454,"ĠtÃ¸":9455,"Â´":9456,"tokoll":9457,"Ġsterkt":9458,"Ġbudsjett":9459,"ĠholÃª":9460,"ĠnÃ¦rheten":9461,"Ġtele":9462,"ĠGeorge":9463,"Ġhom":9464,"raft":9465,"Ġxis":9466,"ĠformÃ¥l":9467,"Ġamerikanske":9468,"Ġeksp":9469,"kara":9470,"Ġkjempe":9471,"ĠBas":9472,"Ġjule":9473,"deren":9474,"ĠEbola":9475,"Ġgiran":9476,"Ġhuset":9477,"ĠGener":9478,"ĠEri":9479,"ĠsÃ»":9480,"ĠChelsea":9481,"ĠMasha":9482,"ĠavgjÃ¸rende":9483,"áĥĿáĥ©":9484,"istanÃª":9485,"ĠAbbas":9486,"zali":9487,"ĠMÃ¸tested":9488,"stemer":9489,"Er":9490,"slaget":9491,"ĠHispania":9492,"pis":9493,"ssi":9494,"dert":9495,");":9496,"Ġregistrert":9497,"Ġuavhengig":9498,"Ġbira":9499,"Ġcho":9500,"Ġskade":9501,"Ġazad":9502,"Ġhyggelig":9503,"Ġbenytte":9504,"Ġboks":9505,"ĠÃ¥pner":9506,"fikiri":9507,"Ġjela":9508,"98":9509,"ĠFylkes":9510,"Ã®nim":9511,"Ġnek":9512,"Ġdane":9513,"Ġteam":9514,"rishaji":9515,"Ġwanne":9516,"Ġumiliki":9517,"ĠMasoko":9518,"ĠInjili":9519,"Ġusafirishaji":9520,"Ġmda":9521,"Ġhufanyika":9522,"Ġulipo":9523,"Washiriki":9524,"fikisha":9525,"Ġmkazo":9526,"Ġshida":9527,"ĠKandoro":9528,"angalizi":9529,"Ġuhamisho":9530,"wiano":9531,"ashiria":9532,"Miongoni":9533,"Ġsafu":9534,"Ġwalivyo":9535,"ĠTatu":9536,"Ġuliokuwa":9537,"ĠNdikilo":9538,"Ġutunzaji":9539,"Ġinahitaji":9540,"endelezaji":9541,"ĠTeknolojia":9542,"Ġkutakuwa":9543,"hudiwa":9544,"pendekezwa":9545,"Ġutsatt":9546,"ĠEnzi":9547,"Ġmeza":9548,"Ġthai":9549,"smÃ¸te":9550,"Ġvente":9551,"sal":9552,"ĠáĥĲáĥłáĥ«":9553,"ĠJubile":9554,"Ġendre":9555,"ĠvideregÃ¥ende":9556,"ĠBag":9557,"holdning":9558,"ĠhÃ¸yeste":9559,"Ġsagt":9560,"áĥ¨áĥĲ":9561,"Ġlands":9562,"ktoratet":9563,"nner":9564,"ĠTE":9565,"ĠKol":9566,"ĠBarcelona":9567,"sminister":9568,"Ġobser":9569,"ktÃ¸rer":9570,"Ġintegr":9571,"2025":9572,"Ġhes":9573,"Ġfisk":9574,"ĠMati":9575,"ĠBili":9576,"Ġ[âĢ¦]":9577,"sprogram":9578,"Man":9579,"latelse":9580,"Zi":9581,"Ġmedisin":9582,"áĥĿáĥłáĥ¯":9583,"Ġprofi":9584,"Ġlesb":9585,"Ġfrivil":9586,"erusa":9587,"sverre":9588,"Ġbren":9589,"husa":9590,"mod":9591,"Ġth":9592,"ĠSch":9593,"ĠflÃ¸r":9594,"93":9595,"ura":9596,"63":9597,"Ġellers":9598,"bevis":9599,"ĠSura":9600,"Ġub":9601,"Ġblom":9602,"ðŁ":9603,"ping":9604,"Ġsat":9605,"Ä°":9606,"ĠKanskje":9607,"kalla":9608,"ĠhÃ¸yde":9609,"ĠLiverpool":9610,"Ġytterligere":9611,"likk":9612,"ĠCali":9613,"áĥĲáĥĶ":9614,"Ġsmi":9615,"Ġáĥ¯áĥĿáĥ®":9616,"Ġopps":9617,"Ġhezar":9618,"ĠqebÃ»l":9619,"lert":9620,"lister":9621,"verks":9622,"ĠBri":9623,"kumbusho":9624,"ĠMufindi":9625,"Ġce":9626,"Ġpolitiske":9627,"VA":9628,"áĥĺáĥĶáĥ¤":9629,"hild":9630,"Ġstudie":9631,"ĠMakazi":9632,"ĠMaswa":9633,"Ġskuli":9634,"Ġmsafara":9635,"Mgeni":9636,"Ġkwako":9637,"pangiwa":9638,"kumbukwa":9639,"ambatana":9640,"Ġmaafa":9641,"mwenye":9642,"inyi":9643,"andaji":9644,"ĠherÃªma":9645,"Ġwaombaji":9646,"Ġmadeni":9647,"futwa":9648,"Ġsambamba":9649,"dharia":9650,"ĠSekretarieti":9651,"Ġmteja":9652,"Ġkuingiza":9653,"ongezea":9654,"kimbia":9655,"Ġyamekuwa":9656,"Mwanam":9657,"ĠMongella":9658,"linganisha":9659,"Mwakilishi":9660,"ĠMkataba":9661,"shiria":9662,"shindwa":9663,"Ġutambulisho":9664,"awa":9665,"gy":9666,"ance":9667,"Ġforet":9668,"ĠbavÃª":9669,"ĠÐ¡":9670,"Ġfarge":9671,"Ġsentral":9672,"vit":9673,"ĠFredri":9674,"Ã¥rene":9675,"ĠAKP":9676,"hawa":9677,"nÃ®":9678,"Ġawe":9679,"ĠPan":9680,"Ġáĥ¨áĥ¥":9681,"ĠUniversitet":9682,"institu":9683,"sed":9684,"ĠYou":9685,"ĠVeg":9686,"Ġsaks":9687,"ĠBel":9688,"ĠInter":9689,"Ġvanlige":9690,"edlem":9691,"Ġwas":9692,"sprosjek":9693,"Ġblod":9694,"unde":9695,"vÃ¦rende":9696,"ĠSlik":9697,"Ġfolke":9698,"ĠGel":9699,"RF":9700,"Ġkn":9701,"Ġsommeren":9702,"Ġáĥ¬áĥĲáĥľáĥĽáĥĿáĥ¬áĥĲáĥľáĥĲ":9703,"Ġmaga":9704,"Ġtol":9705,"Ġanti":9706,"vic":9707,"ĠawayekÃ®":9708,"omrÃ¥det":9709,"Ġbyr":9710,"Hvis":9711,"Ġáĥĺáĥľáĥĵ":9712,"Ġsesongen":9713,"Ġuttrykk":9714,"Ġmannen":9715,"Nor":9716,"ĠMicha":9717,"Ġkadi":9718,"nologi":9719,"ĠkjÃ¸rer":9720,"ĠbelÃª":9721,"Leo":9722,"ĠAmos":9723,"Ġgri":9724,"cco":9725,"Ġáĥĵáĥĺáĥĵ":9726,"ĠTjenester":9727,"ktiske":9728,"ĠNasjon":9729,"ĠGro":9730,"ĠNASA":9731,"ĠDÃ®":9732,"kgrunn":9733,"Ġlako":9734,"áĥĲáĥłáĥĵ":9735,"Ġvisa":9736,"parti":9737,"setter":9738,"byen":9739,"ĠPiga":9740,"Ġtim":9741,"Mada":9742,"Ġmek":9743,"Ġutover":9744,"yce":9745,"ammen":9746,"Ġxi":9747,"samba":9748,"messig":9749,"Ġselve":9750,"tteratur":9751,"Ġkozi":9752,"ĠWadau":9753,"Ġushawishi":9754,"Halmashauri":9755,"Mji":9756,"Ġmnada":9757,"71":9758,"Ġkuny":9759,"Ġkuachi":9760,"hayupo":9761,"yekuwa":9762,"Ġkunywa":9763,"Ġmtumiaji":9764,"Ġwatanzania":9765,"Ġkutuma":9766,"Ġjor":9767,"Ġmwajiri":9768,"Ġzahanati":9769,"Ġwanas":9770,"hirisha":9771,"Ġkutia":9772,"Ġliki":9773,"unguzwa":9774,"ĠLaonekana":9775,"ĠMakalla":9776,"ĠHaule":9777,"Ġupana":9778,"Ġuwazi":9779,"hojiwa":9780,"Ġinaonyesha":9781,"halifu":9782,"asayansi":9783,"Ġhadithi":9784,"Ġmbu":9785,"smarke":9786,"Ġtrykk":9787,"Ġpublikum":9788,"Ġstyret":9789,"Ġkontra":9790,"wedÃª":9791,"ĠkjÃ¸retÃ¸y":9792,"Ð¾ÑĢ":9793,"Ġpriser":9794,"ĠTer":9795,"risk":9796,"ĠTha":9797,"ĠmÃ¸tet":9798,"rus":9799,"darÃªn":9800,"gre":9801,"ĠVis":9802,"Ġint":9803,"Ny":9804,"nÃ®ÅŁan":9805,"Ġdeba":9806,"ĠKuwa":9807,"Ġsituasjonen":9808,"ĠSiden":9809,"sive":9810,"Ġqu":9811,"ME":9812,"Ġsmer":9813,"Ġrunde":9814,"ĠsÃ¸knad":9815,"Ġkommuner":9816,"Ġdetaljer":9817,"We":9818,"ĠSka":9819,"áĥĺáĥķ":9820,"ĠáĥĻáĥĲáĥļáĥĶáĥľáĥĵáĥĲáĥłáĥĺáĥ¨":9821,"Ġpsyk":9822,"Ġyngre":9823,"skriften":9824,"ĠYemen":9825,"industri":9826,"tz":9827,"ĠbÃ®r":9828,"ĠnexweÅŁ":9829,"aga":9830,"TAN":9831,"áĥ£áĥ¦":9832,"pand":9833,"ĠBarn":9834,"ĠUa":9835,"Ġengelsk":9836,"fini":9837,"tabu":9838,"Ġkommunene":9839,"Ġutny":9840,"Ġsnakker":9841,"Ġfullt":9842,"Ġkud":9843,"Ġopphold":9844,"Ġinntil":9845,"Ġopplevelse":9846,"Ä±n":9847,"eningen":9848,"ĠdewletÃª":9849,"Ġbetydelig":9850,"ĠInnhold":9851,"amen":9852,"rag":9853,"Ġnasjonal":9854,"Ġit":9855,"isjoner":9856,"ĠSaudi":9857,"ĠDAIÅŀ":9858,"ĠSten":9859,"vig":9860,"handler":9861,"wam":9862,"Ġkute":9863,"zua":9864,"77":9865,"ĠUsa":9866,"ĠEre":9867,"Ġreiser":9868,"blikk":9869,"ctoria":9870,"ĠNett":9871,"Ġperfekt":9872,"qi":9873,"uki":9874,"beti":9875,"Ġtun":9876,"Ġboken":9877,"Ġtirk":9878,"Ġmenneske":9879,"ĠMada":9880,"Ġmilet":9881,"ĠGaza":9882,"Ġcialis":9883,"amond":9884,"Ġkuonesha":9885,"ĠNgorongoro":9886,"Ġkuzu":9887,"ĠMaalum":9888,"Ġangalau":9889,"Ġmapya":9890,"ĠNyama":9891,"endwa":9892,"Ġpikipiki":9893,"Ġwatalii":9894,"limpiki":9895,"okoaji":9896,"Ġumetolewa":9897,"Ġkinga":9898,"Ġnafuu":9899,"Ġmatengenezo":9900,"arajio":9901,"chote":9902,"Ġmatarajio":9903,"domo":9904,"Ġtunaweza":9905,"Ġshamba":9906,"Ġmgawan":9907,"Ġwalioshiriki":9908,"Ġmatunda":9909,"Ġwakifanya":9910,"Ġmchangan":9911,"Ġdhamira":9912,"Ġwahusika":9913,"Ġkuhudumia":9914,"Wajumbe":9915,"Ġhufanya":9916,"Ġkilikuwa":9917,"Kazi":9918,"Ġkupeleka":9919,"Ġhawezi":9920,"Ġmwelekeo":9921,"ĠLowassa":9922,"ishiwa":9923,"Ġkusom":9924,"Ġvurugu":9925,"Ġvipimo":9926,"ĠMkal":9927,"ĠMkalama":9928,"Ġtrafikk":9929,"stander":9930,"Ġdesig":9931,"pani":9932,"ZA":9933,"dago":9934,"ĠKina":9935,"ĠMy":9936,"Ġgrupper":9937,"Har":9938,"ĠhÃ¥r":9939,"loven":9940,"gala":9941,"96":9942,"ident":9943,"styret":9944,"kek":9945,"fet":9946,"Ġvedtatt":9947,"urer":9948,"gruppen":9949,"Ġregler":9950,"Ġjakt":9951,"nede":9952,"Ġxu":9953,"ĠgirtÃ®":9954,"ĠTari":9955,"eler":9956,"ĠNEC":9957,"Ġbingeh":9958,"ĠhatibÃ»":9959,"Ġ;":9960,"ĠTro":9961,"áĥĲáĥĵáĥĲáĥ¨":9962,"Ġoppmerksom":9963,"dida":9964,"tÃªÅŁa":9965,"rak":9966,"Ġqet":9967,"pass":9968,"vurder":9969,"sette":9970,"ĠdestnÃ®ÅŁan":9971,"Ġnakne":9972,"dol":9973,"rettet":9974,"Ġparker":9975,"Â·":9976,"ĠáĥĽáĥ£áĥŃ":9977,"engeti":9978,"ĠSweden":9979,"Ġwith":9980,"áĥĿáĥ¥":9981,"delsen":9982,"ĠZimbabwe":9983,"Ġslikt":9984,"skape":9985,"âĢĶ":9986,"hami":9987,"ĠUl":9988,"áĥĺáĥľáĥĴ":9989,"ĠInstitu":9990,"lings":9991,"Ġteks":9992,"Ġaner":9993,"mot":9994,"Ġreligi":9995,"ĠOcalan":9996,",\"":9997,"Ġhumu":9998,"ak":9999,"Ġmobi":10000,"Ġpan":10001,"Ġkonf":10002,"Ġsatte":10003,"ĠsÃ¸rge":10004,"nameya":10005,"pens":10006,"Ġenkle":10007,"trent":10008,"Ġmaskin":10009,"ĠpÃ®roz":10010,"Ġtilkny":10011,"lutning":10012,"ĠTromsÃ¸":10013,"huka":10014,"reno":10015,"lutselig":10016,"Ġtrekke":10017,"Ġsere":10018,"Bw":10019,"hamasishaji":10020,"jikita":10021,"Ġkutoweka":10022,"Kamanda":10023,"Ġruninga":10024,"pendekeza":10025,"xan":10026,"Ġyataka":10027,"Ġvivutio":10028,"Ġinasa":10029,"Ġwakiongozwa":10030,"anzishwaji":10031,"Ġuwajibikaji":10032,"Ġulianza":10033,"Ġmwendo":10034,"Ġkupitishwa":10035,"ĠJafo":10036,"umbufu":10037,"ĠRamadhani":10038,"Ġwazo":10039,"Ġwapiganaji":10040,"Ġambae":10041,"amilioni":10042,"ĠDivÃª":10043,"Ġsamaki":10044,"umuni":10045,"Ġulifanyika":10046,"asavyo":10047,"ĠEvarist":10048,"Ġipasavyo":10049,"ĠMwezi":10050,"Ġmuhula":10051,"hamis":10052,"kilia":10053,"ĠUbungo":10054,"rets":10055,"jes":10056,"Ġseier":10057,"Ġkana":10058,"uba":10059,"lingene":10060,"Ġtilstre":10061,"Ġhodet":10062,"ggen":10063,"Ġmedi":10064,"ĠHÃª":10065,"Ġarbei":10066,"sson":10067,"GA":10068,"ĠrÃªya":10069,"heri":10070,"68":10071,"tistikk":10072,"Ġnatt":10073,"bÃ»yÃ®":10074,"ĠdirÃªj":10075,"áĥĶáĥļáĥĺáĥ¨":10076,"áĥĲáĥļáĥĲáĥ¨":10077,"jab":10078,"Ġdat":10079,"ĠÃ¦r":10080,"ĠAll":10081,"Ġbildene":10082,"ĠInsta":10083,"Bodi":10084,"Ġáĥ¡áĥĲáĥ®":10085,"ola":10086,"ĠtÃ®":10087,"viti":10088,"Ġnabo":10089,"Ġjourna":10090,"Ġteva":10091,"Ġdawi":10092,"ĠzarokÃªn":10093,"brudd":10094,"rud":10095,"Ġkonkurranse":10096,"ĠamatÃ¸r":10097,"Ġmirovan":10098,"konomi":10099,"Ġtoppen":10100,"Ġmatch":10101,"ĠFlere":10102,"isering":10103,"ĠtÃªkili":10104,"Ġerfaringer":10105,"nda":10106,"rammen":10107,"redning":10108,"nsdag":10109,"57":10110,"ktiv":10111,"Ġoppgave":10112,"skland":10113,"Ġtilsvarende":10114,"xin":10115,"ĠáĥĻáĥĿáĥľáĥ":10116,"ned":10117,"ï¼":10118,"MU":10119,"ikh":10120,"Ġforeg":10121,"ĠtÃ¥":10122,"Ġkale":10123,"unnen":10124,"Ġflyttet":10125,"stillinger":10126,"Ġpeke":10127,"Ġbona":10128,"ĠoppfÃ¸lging":10129,"asino":10130,"mÃ»":10131,"Ġjan":10132,"Ġlege":10133,"Ġeksper":10134,"ĠAzam":10135,"1991":10136,"Ġavde":10137,"grupper":10138,"Ġsik":10139,"ĠMash":10140,"enfor":10141,"ĠbÃ»yer":10142,"ĠHewa":10143,"Ġvarer":10144,"áĥĿáĥ¡áĥĿáĥ¤":10145,"Ġnjaa":10146,"ĠAbdallah":10147,"Ana":10148,"arafa":10149,"Ġgele":10150,"ĠbirÃª":10151,"ĠChristi":10152,"lazwa":10153,"ĠUtamaduni":10154,"sheni":10155,"Ġbarabarani":10156,"amishwa":10157,"ĠMabingwa":10158,"Ġkabila":10159,"Kwenye":10160,"ĠKSh":10161,"Ġinayoendelea":10162,"Huu":10163,"ĠNyamagana":10164,"Ġuanzishwaji":10165,"ĠMfumo":10166,"Ġmafao":10167,"Ġkuni":10168,"Ġcheti":10169,"Ġwashindi":10170,"Ġyule":10171,"Ġkufikisha":10172,"Wakazi":10173,"Ġusumbufu":10174,"Ġmapumzi":10175,"Ġufalme":10176,"Ġkusikia":10177,"pitio":10178,"Ġmapumziko":10179,"Ġaliongeza":10180,"Ġukarabati":10181,"Ġleseni":10182,"Ġkilichopo":10183,"Ġyames":10184,"ĠRuto":10185,"Ġkujitolea":10186,"chungaji":10187,"jiliwa":10188,"Mhandisi":10189,"ombozi":10190,"kumbuka":10191,"Ġkuwajengea":10192,"Polisi":10193,"tumbu":10194,"Ġoppford":10195,"hÃ¸":10196,"ĠinngÃ¥":10197,"Ġrepresent":10198,"parten":10199,"Ġdixwaze":10200,"áĥ£áĥĵáĥ·":10201,"Ġberpir":10202,"Ã§o":10203,"ĠGre":10204,"Ġopply":10205,"Ġgutter":10206,"vana":10207,"Ġzim":10208,"áĥĺáĥĶáĥł":10209,"ĠQa":10210,"Ġsituasjon":10211,"LL":10212,"ĠxelkÃª":10213,"ĠlÃ¸pe":10214,"Alle":10215,"Ġáĥ£áĥĻáĥ£áĥļáĥĺ":10216,"Ġfelt":10217,"ĠPri":10218,"AC":10219,"Ġventer":10220,"Ġkuk":10221,"tids":10222,"annonser":10223,"ĠkjÃ¸tt":10224,"Ġglass":10225,"Ġstyre":10226,"ĠBygg":10227,"Ġvannet":10228,"Ġyrkes":10229,"au":10230,"Ġvakre":10231,"Ġpersonopp":10232,"Ġfett":10233,"ĠBli":10234,"Ġhvit":10235,"Ġtotalt":10236,"diyÃªn":10237,"neke":10238,"Ġmote":10239,"frey":10240,"NU":10241,"Ġbekym":10242,"ĠCalifornia":10243,"Ġwelat":10244,"ĠskjÃ¸nn":10245,"Ġoven":10246,"ĠRussland":10247,"ĠTem":10248,"ĠApril":10249,"endÃ®":10250,"ĠAngola":10251,"ĠáĥĹáĥĺáĥľáĥĲ":10252,"lov":10253,"Ġendret":10254,"ĠáĥĵáĥĶáĥĻ":10255,"ĠUNESCO":10256,"áĥĶáĥłáĥ¡":10257,"start":10258,"ellene":10259,"navn":10260,"unya":10261,"âĢĺ":10262,"Ġperiode":10263,"ĠSerengeti":10264,"Ġnylig":10265,"uer":10266,"ĠBal":10267,"Ġfler":10268,"ĠSamtidig":10269,"áĥĲáĥĹáĥĶ":10270,"âĢĻâĢĻ":10271,"Ġarbeidsplass":10272,"sende":10273,"ĠÃ§and":10274,"ÅŁi":10275,"telse":10276,"gogo":10277,"áĥĲáĥŀ":10278,"ĠWazee":10279,"ĠAF":10280,"Ġtuki":10281,"ĠkÃ»":10282,"ĠKC":10283,"áĥĺáĥ®":10284,"Ġunakuwa":10285,"Ġmahindi":10286,"Ġkuunga":10287,"Ġmiongozo":10288,"ĠWanyamapori":10289,"Ġkutokomeza":10290,"Ġmra":10291,"ĠMjumbe":10292,"Ġfidia":10293,"faulu":10294,"ĠWaarabu":10295,"ĠMwanasheria":10296,"Ġwapenzi":10297,"tengwa":10298,"Ġkusafir":10299,"limwen":10300,"Hivi":10301,"rini":10302,"Ġkupoteza":10303,"diliwa":10304,"ĠZaina":10305,"Ġmamilioni":10306,"Ġkuhudhuria":10307,"ĠNne":10308,"Ġilisema":10309,"simbo":10310,"amoyo":10311,"Ġupandaji":10312,"Ġwashirika":10313,"Ġalikamatwa":10314,"umuko":10315,"Ġupanuzi":10316,"boresho":10317,"Ġgazeti":10318,"Ġmizigo":10319,"gambo":10320,"ĠJubilee":10321,"ĠLeg":10322,"Ġzangu":10323,"uth":10324,"kser":10325,"zio":10326,"ĠbÃ®nin":10327,"data":10328,"Ġlign":10329,"ĠAfri":10330,"Ġrask":10331,"ĠXwedÃª":10332,"send":10333,"Ġklubben":10334,"Ġdistri":10335,"Ġinformasjonskaps":10336,"ario":10337,"ĠOgsÃ¥":10338,"Opp":10339,"sser":10340,"estin":10341,"stede":10342,"Ġmobil":10343,"Ġoperas":10344,"ĠlÃ¸sning":10345,"Ġkunde":10346,"ĠÅŀÃª":10347,"ĠgirÃªdayÃ®":10348,"hilata":10349,"fol":10350,"mende":10351,"Ġbro":10352,"ĠáĥĿáĥ®":10353,"Ġdrikke":10354,"Ġfro":10355,"nam":10356,"Ġnevnt":10357,"Ġnirx":10358,"ĠLin":10359,"Ġhelbest":10360,"lot":10361,"jiya":10362,"menti":10363,"Ġintervju":10364,"Ġbiler":10365,"Ġdikim":10366,"Ġhistor":10367,"iland":10368,"Ã§Ã»n":10369,"jim":10370,"Ġelektron":10371,"onÃª":10372,"Ġxwende":10373,"ĠSar":10374,"Ġbillig":10375,"Ġaktuelle":10376,"Ġborte":10377,"vat":10378,"asaka":10379,"Ġsykehus":10380,"NP":10381,"ĠSÃ»rÃ®":10382,"ĠhÃªla":10383,"Ġskrift":10384,"ĠMichael":10385,"bana":10386,"ĠGhana":10387,"tighet":10388,"Ġkraftig":10389,"ĠÃ¸st":10390,"ĠAbu":10391,"ĠBruk":10392,"áĥĲáĥľáĥ¯":10393,"áĥĲáĥłáĥĴ":10394,"Ġflin":10395,"laa":10396,"Ġpolitisk":10397,"amÃ®":10398,"hÃ¥nd":10399,"vinne":10400,"mp":10401,"Ġabsolutt":10402,"Ġnormalt":10403,"Ber":10404,"Ġarbeidsta":10405,"orm":10406,"vÃ®na":10407,"áĥĲáĥ¤áĥĲ":10408,"Ġhardt":10409,"Ġbiryar":10410,"Ġleser":10411,"ĠBul":10412,"ÅŁandin":10413,"ĠberÃ®":10414,"zz":10415,"ĠNATO":10416,"ĠKn":10417,"tila":10418,"ĠUfun":10419,"Ġinnom":10420,"Ġtilrett":10421,"Ġkvelden":10422,"Ġtids":10423,"sisi":10424,"ÅŁand":10425,"BAA":10426,"ĠGratis":10427,"ĠUhasibu":10428,"Ġmsu":10429,"eneji":10430,"Ġuliyo":10431,"ufaika":10432,"asusi":10433,"ĠUtekelezaji":10434,"pokelewa":10435,"Uchaguzi":10436,"Ġubunge":10437,"Ġbwana":10438,"Ġwalisema":10439,"Matokeo":10440,"Ġruhusa":10441,"1989":10442,"elekezwa":10443,"Ġukimwi":10444,"Ġmiili":10445,"ĠIlani":10446,"leie":10447,"Ġameongeza":10448,"ĠHapi":10449,"Ġmtuhumiwa":10450,"Uamuzi":10451,"Ġmpenzi":10452,"Ġuongo":10453,"Ġlikiwa":10454,"Ġmarafiki":10455,"Ġutaka":10456,"ĠMira":10457,"Mbali":10458,"Ġpupper":10459,"Ġrommet":10460,"Ġsammenheng":10461,"tri":10462,"Ġomfattende":10463,"Ġbestemte":10464,"chester":10465,"Ġbeskjed":10466,"henge":10467,"Ġselvsagt":10468,"Ġky":10469,"Ġamb":10470,"Ã§a":10471,"ĠdemokratÃ®k":10472,"Ġbis":10473,"lote":10474,"dena":10475,"ÅŁan":10476,"anze":10477,"ins":10478,"Ġáĥ¬áĥ·áĥĽ":10479,"ĠáĥĹáĥĲáĥ¨":10480,"ªáĥ®":10481,"Ã§Ã»k":10482,"ĠhebÃ»":10483,"ekom":10484,"anen":10485,"ellet":10486,"ĠInternett":10487,"Ġhopp":10488,"Ġgar":10489,"áĥ¢áĥĲáĥ¢":10490,"fjell":10491,"Ġlan":10492,"Ġderimot":10493,"Ġvisi":10494,"ĠlÃ¦ring":10495,"naden":10496,"sken":10497,"hÃ¸y":10498,"prosjekt":10499,"ĠKy":10500,"ĠlÃ¸y":10501,"somrÃ¥":10502,"rÃ¸nd":10503,"Ġnettsiden":10504,"ĠwelatÃªn":10505,"ĠÃİslam":10506,"fisert":10507,"lade":10508,"kurs":10509,"diko":10510,"Ġtung":10511,"hiyÃª":10512,"Ã®d":10513,"Ġstrategi":10514,"Ġfeng":10515,"Prof":10516,"Ġtrinn":10517,"nov":10518,"lysningene":10519,"Ġstund":10520,"Ġbergen":10521,"Ġspre":10522,"ĠInformasjon":10523,"ĉĊ":10524,"ĠlÃªkol":10525,"Ġyam":10526,"yomo":10527,"Ġsitte":10528,"ĠShaka":10529,"Ġnime":10530,"áĥĲáĥ¤áĥĲáĥ¨":10531,"83":10532,"Ġmij":10533,"Maha":10534,"áĥĶáĥ¨áĥĲ":10535,"Ġáĥ¤áĥĺáĥļ":10536,"lishi":10537,"onesia":10538,"Ġzikiwa":10539,"dhaifu":10540,"Mfuko":10541,"Ġkujengwa":10542,"Ġabiria":10543,"ongozana":10544,"hebu":10545,"ĠTovuti":10546,"ĠMaabara":10547,"furahia":10548,"shambuliaji":10549,"Ġkiufundi":10550,"Ġkaratasi":10551,"Ġmwambao":10552,"Ġmapokezi":10553,"Ġhauku":10554,"ĠKilwa":10555,"Ġuwiano":10556,"fadhali":10557,"ĠMabadiliko":10558,"amuhuri":10559,"thibitisha":10560,"ĠBagamoyo":10561,"limia":10562,"amisha":10563,"ĠVyombo":10564,"Ġkumpa":10565,"tiwa":10566,"Ġkujaribu":10567,"pitishwa":10568,"Ġkupelekea":10569,"Programu":10570,"izi":10571,"ĠWakenya":10572,"uguzi":10573,"ĠVictoria":10574,"ttelse":10575,"Ġgleder":10576,"Ġtidspunkt":10577,"ÐµÑĢ":10578,"arbeide":10579,"merket":10580,"Ġfremover":10581,"Ġingenting":10582,"ĠáĥľáĥĿáĥłáĥĹ":10583,"áĥĺáĥłáĥĹ":10584,"61":10585,"ĠderÃª":10586,"tini":10587,"Ġpremi":10588,"Ġimot":10589,"tha":10590,"ĠmafÃª":10591,"91":10592,"¬áĥĻáĥ·áĥĽáĥĲ":10593,"Ġáĥ£áĥĽáĥĿáĥ¡":10594,"Ġtilgjenge":10595,"Ġkob":10596,"Ġomtrent":10597,"áĥĺáĥĻáĥĲáĥ¨":10598,"Ġgjennomsnitt":10599,"Ġencama":10600,"Ġeurope":10601,"ĠPe":10602,"Ġdaye":10603,"istikk":10604,"riel":10605,"ĠKari":10606,"Ġhundi":10607,"ĠUngdom":10608,"iss":10609,"elagt":10610,"ĠbesÃ¸ke":10611,"Ġpersonlige":10612,"Ġshe":10613,"Ġgenerelt":10614,"ÅŁar":10615,"Le":10616,"ĠMand":10617,"gno":10618,"Ġforholdet":10619,"tiyÃªn":10620,"Ġriz":10621,"Ġrelativt":10622,"aller":10623,"asia":10624,"Ġhundre":10625,"rÃ¸ndelag":10626,"New":10627,"arika":10628,"Ġlignende":10629,"ĠSep":10630,"metÃª":10631,"darÃª":10632,"ĠSC":10633,"ĠbirÃ®ndar":10634,"ghan":10635,"ziya":10636,"ĠBor":10637,"Ġerotikk":10638,"Ġdelen":10639,"ĠHA":10640,"ĠpiÅŁ":10641,"ĠrÃ¸r":10642,"Ġserver":10643,"cto":10644,"ĠIg":10645,"Ġfilmen":10646,"Ġtaka":10647,"ĠMk":10648,"ĠKunst":10649,"Ġmist":10650,"ĠVI":10651,"Ġgull":10652,"Ã¸mme":10653,"Ġfang":10654,"Ġfremst":10655,"istori":10656,"ĠkesÃ®":10657,"ĠMba":10658,"Ġverdt":10659,"áĥĶáĥľáĥ¬":10660,"Ġsentrale":10661,"Ġarr":10662,"ater":10663,"ĠMuhe":10664,"Ġkredi":10665,"sige":10666,"sikten":10667,"tura":10668,"Ġvaria":10669,"-,":10670,"ĠEid":10671,"ĠAgen":10672,"Ġmakt":10673,"pes":10674,"Ġmt":10675,"--":10676,"Ġkik":10677,"Ġberxwed":10678,"ĠhevdÃ®":10679,"Ġannon":10680,"Ġinge":10681,"giji":10682,"Ġhest":10683,"ĠSc":10684,"gruppe":10685,"ĠTim":10686,"ĠáĥĶáĥĻ":10687,"Ġforbedre":10688,"onale":10689,"ĠvilkÃ¥r":10690,"Ġalianza":10691,"jifun":10692,"Ġigjennom":10693,"ĠáĥĽáĥ£áĥŃáĥĿáĥĹ":10694,"Ġkuam":10695,"Ġmkewe":10696,"waga":10697,"Ġnyama":10698,"Ġnafsi":10699,"Ġkuitwa":10700,"ĠKisha":10701,"ESLB":10702,"Ġkuisha":10703,"ĠKudumu":10704,"Ġlolote":10705,"ĠZaidi":10706,"Ġuhakiki":10707,"Ġmpana":10708,"Ġchochote":10709,"Ġinjili":10710,"Ġkiafya":10711,"Ġkongamano":10712,"Ġkupita":10713,"ambulizi":10714,"Ġmakali":10715,"alenga":10716,"Ġorganisasjoner":10717,"ĠMbozi":10718,"Ġkuadhimisha":10719,"ungwa":10720,"shirik":10721,"Ġumas":10722,"Ġwameji":10723,"Ġkufundisha":10724,"Ġmfumuko":10725,"Ġbusara":10726,"Ġmiongo":10727,"Ġkadiri":10728,"ĠKijerumani":10729,"ĠViwanja":10730,"Ġkufutwa":10731,"ĠMakundi":10732,"kiria":10733,"ĠWakristo":10734,"Ġwaliojitokeza":10735,"belgiji":10736,"zinduliwa":10737,"Aliongeza":10738,"Ġubaguzi":10739,"ĠKiu":10740,"Ġhjerte":10741,"tÃ¸y":10742,"87":10743,"ĠhÃ®":10744,"Ġok":10745,"tori":10746,"Ġferie":10747,"ĠErdogan":10748,"sproses":10749,"Ġtilfel":10750,"ĠAustra":10751,"Ġcm":10752,"ĠAss":10753,"Ġspar":10754,"Ġlevere":10755,"kurÃª":10756,"ĠÃ¥pent":10757,"Ġbatter":10758,"parÃª":10759,"Ġáĥĵáĥ£áĥĵ":10760,"tera":10761,"ĠDri":10762,"1993":10763,"1967":10764,"Ġvises":10765,"ddet":10766,"ĠZambia":10767,"basert":10768,"Ġpolitikk":10769,"Reg":10770,"petanse":10771,"Ġstein":10772,"Ġknu":10773,"entasjon":10774,"ĠMul":10775,"teter":10776,"áĥĶáĥĸ":10777,"ĠáĥĵáĥĶáĥĻáĥĲáĥĵáĥĲáĥ¨":10778,"shem":10779,"Ġsuks":10780,"Ġressurser":10781,"Ġsterke":10782,"Ġml":10783,"Ġbomu":10784,"ĠHoteli":10785,"Ġutvikler":10786,"krevet":10787,"tenga":10788,"ington":10789,"Ġdijmin":10790,"ĠBongo":10791,"ĠgjennomfÃ¸res":10792,"1982":10793,"ĠUr":10794,"kies":10795,"ĠáĥĽáĥĺáĥ¨":10796,"Ġdeilig":10797,"Ġinternett":10798,"Ġstemmer":10799,"Ġspilte":10800,"ĠRÃ¥d":10801,"nster":10802,"jani":10803,"Ġtempera":10804,"Ġmatem":10805,"WAN":10806,"ĠAnnan":10807,"Ġhandle":10808,"Ġtilfred":10809,"Ġkonkret":10810,"''":10811,"Ġeffekt":10812,"ĠLiber":10813,"ĠgundÃª":10814,"áĥĺáĥĳ":10815,"Ġáĥĳáĥł":10816,"ĠsÃ®ya":10817,"ĠbibÃª":10818,"ĠNil":10819,"Om":10820,"eatu":10821,"stene":10822,"sion":10823,"EF":10824,"ĠTela":10825,"Ġselger":10826,"bygger":10827,"ĠBea":10828,"Ġserok":10829,"áĥĺáĥĹáĥĿáĥ¨":10830,"ĠDini":10831,"MF":10832,"Ġsyns":10833,"Ġplaner":10834,"Ġprof":10835,"ĠMadina":10836,"baba":10837,"ĠxebatÃªn":10838,"Ġfysisk":10839,"gao":10840,"ĠÃ§Ã®ro":10841,"ĠBlack":10842,"usha":10843,"pole":10844,"adaka":10845,"Ġengasjer":10846,"Ġinformasjonen":10847,"Ġáĥĺáĥĵ":10848,"ĠHele":10849,"enÃª":10850,"Ġinas":10851,"Ġumiddel":10852,"bilitet":10853,"Ġdobb":10854,"ĠawayÃ®":10855,"Ġfug":10856,"Ġkie":10857,"pl":10858,"ĠUzinduzi":10859,"Ġlimekuwa":10860,"thiri":10861,"ĠKilolo":10862,"Ġurithi":10863,"strem":10864,"ĠMikutano":10865,"egawan":10866,"igizaji":10867,"kishia":10868,"ĠOlimpiki":10869,"Ġmsiba":10870,"Ġmagumu":10871,"ĠspÃ¸rre":10872,"Klabu":10873,"Ġmpakani":10874,"Ġkudhibiti":10875,"Ġkufanyia":10876,"Ġkuufanya":10877,"yifu":10878,"Ġyanayoendelea":10879,"anganyifu":10880,"tegemewa":10881,"Ġmageuzi":10882,"Ġkujitokeza":10883,"Ġyalio":10884,"esababisha":10885,"Ġmapungufu":10886,"Ġkwetu":10887,"Shirika":10888,"Ġkiki":10889,"omalizika":10890,"Ġkupigwa":10891,"Ġhasara":10892,"Balozi":10893,"Ġmwekezaji":10894,"Ġzilizotangulia":10895,"uzito":10896,"ĠMsajili":10897,"Ġmsaidizi":10898,"Wilaya":10899,"Ġalizaliwa":10900,"ĠES":10901,"yre":10902,"ĠFal":10903,"92":10904,"Ġing":10905,"ĠLew":10906,"Ð°ÑĢ":10907,"Ġanbefaler":10908,"ire":10909,"áĥ¢áĥĿáĥł":10910,"Ġsosial":10911,"ĠnayÃª":10912,"ĠEwropa":10913,"jente":10914,"ĠIS":10915,"arbeidere":10916,"Ġspesielle":10917,"Ġskjedd":10918,"Ġast":10919,"Ġtenkt":10920,"ĠnÃ®ÅŁ":10921,"pr":10922,"mede":10923,"Ġtab":10924,"ĠKib":10925,"rati":10926,"venda":10927,"Ġpraktisk":10928,"KS":10929,"ĠdengÃª":10930,"Ġgjeldende":10931,"Ġretten":10932,"zanin":10933,"yrer":10934,"ĠÃ§ete":10935,"don":10936,"Ġenhet":10937,"áĥĶáĥ¤áĥ¥":10938,"áĥĺáĥ¢áĥĿáĥł":10939,"Ġorg":10940,"TV":10941,"ĠforstÃ¥else":10942,"Ã´":10943,"kraft":10944,"halo":10945,"Ġbenytter":10946,"Ġkomfor":10947,"ĠfÃª":10948,"budsj":10949,"Ġqa":10950,"Ġsykkel":10951,"orld":10952,"ĠPla":10953,"Ã¸v":10954,"ĠSto":10955,"Ġjf":10956,"ansvar":10957,"ĠObama":10958,"via":10959,"vner":10960,"turi":10961,"Map":10962,"enk":10963,"Ġoppe":10964,"Ġbevisst":10965,"Ġgen":10966,"fur":10967,"Ġpsyko":10968,"ogn":10969,"Ġinteressant":10970,"ead":10971,"ĠBibi":10972,"Ġfunksjoner":10973,"ĠáĥĽáĥĲáĥ®áĥĿáĥł":10974,"ĠhÃªz":10975,"Ġsand":10976,"Ġáĥ¡áĥĲáĥ¥":10977,"ĠÃĺv":10978,"kninger":10979,"Ġnedi":10980,"ppene":10981,"Ġaksep":10982,"olf":10983,"ĠUtvalg":10984,"politi":10985,"ĠDiamond":10986,"RT":10987,"ĠKai":10988,"Ġoppmerksomhet":10989,"asjer":10990,"smÃ¸tet":10991,"liste":10992,"bek":10993,"ĠLeo":10994,"arifu":10995,"elem":10996,"Ġklasse":10997,"Ġstilling":10998,"ĠáĥĲáĥķ":10999,"ugar":11000,"Ġspilt":11001,"enes":11002,"Ġoppdaget":11003,"Kati":11004,"Ġramme":11005,"ĠEks":11006,"Ġviten":11007,"HAMA":11008,"Ġinspirasjon":11009,"dhini":11010,"ĠhÃªza":11011,"ĠDesign":11012,"Ġbegynnelsen":11013,"ĠMc":11014,"ĠPDK":11015,"Ġregion":11016,"Ġavvik":11017,"Ġmatatu":11018,"Ġinnholdet":11019,"isse":11020,"uko":11021,"ĠUsw":11022,"fisha":11023,"sopp":11024,"Ġkuidh":11025,"Ġikawa":11026,"embeni":11027,"Ġupili":11028,"Ġinapo":11029,"athiriwa":11030,"Ġwasomi":11031,"Ġswala":11032,"ĠhÃ¸rer":11033,"ĠMpira":11034,"Ġjamaa":11035,"Ġundani":11036,"ĠMapendekezo":11037,"ĠMussa":11038,"Ofisi":11039,"ĠMatokeo":11040,"Ġakikabidhi":11041,"Ġutabiri":11042,"Ġwaliofanya":11043,"Ġhelw":11044,"eshindwa":11045,"Ġbingwa":11046,"Ġakikagua":11047,"Ġutata":11048,"ĠMiji":11049,"Ġusahihi":11050,"Ġufungaji":11051,"kosoa":11052,"Ġufugaji":11053,"Ġutulivu":11054,"Ġjadi":11055,"Ġhamasa":11056,"Ġutakaofanyika":11057,"ĠTelack":11058,"KCI":11059,"Mradi":11060,"ĠNjia":11061,"fupa":11062,"andamizi":11063,"ĠJumla":11064,"ĠMaonesho":11065,"Ġkupand":11066,"aruhusiwa":11067,"Habari":11068,"Ġujauzito":11069,"Ġumaskini":11070,"Ġwachache":11071,"Ġjamhuri":11072,"Ġvidogo":11073,"Ġaliji":11074,"Ġkuingilia":11075,"jiandaa":11076,"Ġimeanza":11077,"kundu":11078,"Ġevne":11079,"ĠMbara":11080,"Ġilianzishwa":11081,"Ġnordmenn":11082,"Mgombea":11083,"Ġbala":11084,"ĠÐ¸":11085,"ĠrewÅŁ":11086,"klubb":11087,"nem":11088,"Ġledelse":11089,"ÂĴ":11090,"Ġáĥ¢áĥĶáĥł":11091,"ĠFun":11092,"prosjektet":11093,"-)":11094,"Ġfalt":11095,"load":11096,"ĠBolig":11097,"ĠTam":11098,"ĠtiÅŁtekÃ®":11099,"Ġmilliarder":11100,"ĠOrganis":11101,"ĠRed":11102,"ĠPris":11103,"Ġnettsider":11104,"NEC":11105,"ambe":11106,"áĥĺáĥĿáĥļ":11107,"basi":11108,"ĠVG":11109,"indo":11110,"date":11111,"ĠGar":11112,"Ġtilstrekkelig":11113,"ĠStand":11114,"Ġfantastiske":11115,"Ġstiller":11116,"rab":11117,"ĠáĥĳáĥĿáĥłáĥ¯":11118,"ĠáĥĿáĥĳáĥŁ":11119,"Ya":11120,"kningen":11121,"Ã§in":11122,"rÃ¸rende":11123,"Ġanal":11124,"ĠProsjekt":11125,"ĠlÃ¸se":11126,"kkert":11127,"Ġerotisk":11128,"Sta":11129,"leksi":11130,"Ġvindu":11131,"ICC":11132,"Ġsettes":11133,"ĠMt":11134,"Ġgiftet":11135,"elÃ®":11136,"ĠSEO":11137,"ĠPapa":11138,"essor":11139,"cÃªn":11140,"ĠwarÃª":11141,"áĥĲáĥłáĥĶ":11142,"sein":11143,"Ġsni":11144,"mana":11145,"ĠKit":11146,"Ġutgangspunktet":11147,"Ġutfordring":11148,"Ġbestille":11149,"ĠÅŁi":11150,"Ġxurt":11151,"Ġalvorlig":11152,"Ġewle":11153,"ĠdÃ®roka":11154,"ĠIndustri":11155,"Ġsur":11156,"ums":11157,"ĠHDP":11158,"ĠResulta":11159,"Ġkesan":11160,"Ġselskaper":11161,"Ġkjenne":11162,"ĠdÃ¸r":11163,"ĠBjÃ¸rn":11164,"ĠáĥķáĥĲáĥľ":11165,"bÃ®r":11166,"Ġavdeling":11167,"ĠPre":11168,"Ġfaglig":11169,"tuko":11170,"ĠleÅŁkerÃ®":11171,"lÃ¥tt":11172,"lÃ¸se":11173,"ĠHotel":11174,"áĥĶáĥľáĥĺ":11175,"wapa":11176,"ĠáĥĹáĥĲáĥ¨áĥľ":11177,"ĠAP":11178,"sul":11179,"amaskin":11180,"Ġgavana":11181,"Ġval":11182,"Ã®nan":11183,"HE":11184,"nads":11185,"somt":11186,"Tanzania":11187,"ĠOff":11188,"Ġkuba":11189,"Ġmangler":11190,"Ġbinge":11191,"ĠSÃ»riye":11192,"Ġmamma":11193,"ĠÃ¸ver":11194,"Ġsadaka":11195,"Ġkuchochea":11196,"ĠSaratani":11197,"ĠKiislam":11198,"imarishaji":11199,"Ġwatano":11200,"iliwa":11201,"ishipa":11202,"Mchezo":11203,"Nchi":11204,"Ġkuhu":11205,"umwa":11206,"Ġkikwazo":11207,"waliwa":11208,"elelezo":11209,"Ġmajeruhi":11210,"amaanisha":11211,"Ġanatakiwa":11212,"Ġjinsia":11213,"ĠChiku":11214,"ĠYake":11215,"tambuliwa":11216,"Ġmgodi":11217,"Ġkifungo":11218,"ĠUlimwen":11219,"ulizwa":11220,"ĠYeye":11221,"Ġudanganyifu":11222,"Ġmarudio":11223,"Ġkutunza":11224,"acha":11225,"Ġwakipata":11226,"Ġwamefanya":11227,"andaaji":11228,"Ġyamesemwa":11229,"ĠMuheza":11230,"Ġkuhitimu":11231,"Ġubingwa":11232,"Ġimeongezeka":11233,"Ġmashambulizi":11234,"Ġyaliyokuwa":11235,"Ġkurejesha":11236,"haru":11237,"Ġmpi":11238,"Ġtamasha":11239,"Ġlishe":11240,"Ġinaonekana":11241,"Ġwalioko":11242,"kusanyiko":11243,"Ġkuchunguza":11244,"ĠMawaziri":11245,"zingatiwa":11246,"Ġmshi":11247,"rodha":11248,"Ġkupima":11249,"sababishwa":11250,"Ġutambuzi":11251,"Ġkuwataka":11252,"Ġjukwaa":11253,"180":11254,"Ġmwanya":11255,"Ġnyanja":11256,"Ġansikt":11257,"Ġwate":11258,"ĠHes":11259,"ĠtirkÃ®":11260,"OT":11261,"Ġformer":11262,"Ġlive":11263,"ĠTre":11264,"ĠManchester":11265,"Ġprogrammet":11266,"pesi":11267,"bry":11268,"ĠAmedÃª":11269,"ĠÅŁehÃ®d":11270,"Ġnake":11271,"Ã¸pig":11272,"sting":11273,"bÃ¥":11274,"Ġáĥĸáĥ£áĥ¦":11275,"bro":11276,"elly":11277,"isti":11278,"Ġevalu":11279,"direktoratet":11280,"áĥĺáĥľáĥ¯":11281,"Ġxa":11282,"Ġnyte":11283,"kolen":11284,"Ġheya":11285,"ĠFr":11286,"rÃ®ya":11287,"Ġsvi":11288,"Ġprodukt":11289,"tav":11290,"ĠIbra":11291,"ĠslÃ¥tt":11292,"ĠáĥĴáĥł":11293,"ĠvÃ¥ren":11294,"Ġkontin":11295,"etÃ®":11296,"Ġdim":11297,"Ġbehsa":11298,"gjort":11299,"Ġanledning":11300,"plasser":11301,"OL":11302,"verdi":11303,"Ġinteressert":11304,"toren":11305,"Ġalbum":11306,"formen":11307,"mÃ¸te":11308,"vest":11309,"Ġplutselig":11310,"unkter":11311,"Ġmyndigheter":11312,"areke":11313,"anlegg":11314,"fire":11315,"ĠFrank":11316,"Ġvesentlig":11317,"ĠDermed":11318,"Ġprinsi":11319,"Ġhentet":11320,"62":11321,"fisk":11322,"ĠennÃ¥":11323,"fs":11324,"tein":11325,"ĠSuper":11326,"eninger":11327,"jÃ¸ring":11328,"denafil":11329,"ture":11330,"ĠIndonesia":11331,"JI":11332,"ĠJul":11333,"ĠBare":11334,"ĠrÃ¸y":11335,"Ġnetewe":11336,"ĠLike":11337,"urte":11338,"kira":11339,"Ġfylkeskommun":11340,"ĠRÃ»s":11341,"ĠPat":11342,"ĠMakka":11343,"ĠHy":11344,"ĠHor":11345,"ĠMÃ»":11346,"arida":11347,"ĠIP":11348,"ĠNorway":11349,"Ġektes":11350,"ĠGrÃ¸":11351,"ĠAhmed":11352,"Ġalie":11353,"ĠAmerÃ®kayÃª":11354,"Ġimes":11355,"ĠEdward":11356,"hala":11357,"bino":11358,"lÃ¸sning":11359,"Ġlaste":11360,"ĠHaji":11361,"stig":11362,"kens":11363,"nevnte":11364,"Ġunapo":11365,"Ġwawe":11366,"klare":11367,"jawa":11368,"ĠHuu":11369,"ĠShar":11370,"Ġtekniske":11371,"felt":11372,"ĠpartÃ®":11373,"ĠIbara":11374,"Ġbygger":11375,"Sasa":11376,"bolÃª":11377,"VI":11378,"ĠTun":11379,"Ġkusimama":11380,"Ġkicha":11381,"Ġinaruhusu":11382,"asichana":11383,"ĠMeru":11384,"ĠMusoma":11385,"Ġkuinua":11386,"kakati":11387,"Ġkuwawezesha":11388,"Ġumefanyika":11389,"Ġmkasa":11390,"ĠShig":11391,"enejimenti":11392,"Ġudhamini":11393,"Ġuvuvi":11394,"Ġmwanamuziki":11395,"imarika":11396,"iserikali":11397,"heshimu":11398,"Ġmabingwa":11399,"Ġmraba":11400,"Ġnaomba":11401,"Ġvipindi":11402,"Ġwema":11403,"Alikuwa":11404,"badilika":11405,"Ġbinti":11406,"Ġkilometa":11407,"Ġmaskini":11408,"horo":11409,"Ġwajasiriamali":11410,"Ġyapo":11411,"Ġaibu":11412,"ĠMzee":11413,"shahada":11414,"erehekea":11415,"Ġasasi":11416,"Ġmema":11417,"fuatana":11418,"bainika":11419,"Ġutume":11420,"Ġinayotekelezwa":11421,"fahamisha":11422,"Barua":11423,"Ġkudai":11424,"Kufuatia":11425,"hesabu":11426,"Ġhutolewa":11427,"Ġuuzaji":11428,"Ġunapaswa":11429,"Ġkvar":11430,"dam":11431,"Ĥ¬":11432,"ĠrÃ¸d":11433,"wir":11434,"Ġboka":11435,"Ġvanligvis":11436,"lerer":11437,"ĠYekÃ®":11438,"Ġdokumentasjon":11439,"Ġmente":11440,"listen":11441,"Ġsekun":11442,"isten":11443,"SB":11444,"Ġskader":11445,"jeringen":11446,"ĠBI":11447,"vekst":11448,"Ġnedenfor":11449,"Ġrettigheter":11450,"Ġstarten":11451,"Ġhistorien":11452,"ĠTeh":11453,"ĠÐł":11454,"ĠÐĴ":11455,"odri":11456,"ĠVidere":11457,"Ez":11458,"Ġáĥ¨áĥ¥áĥĲáĥ¡":11459,"74":11460,"Ġhema":11461,"Ġderd":11462,"Ġmarked":11463,"lana":11464,"likter":11465,"ĠEiendom":11466,"Ñħ":11467,"ĠáĥĹáĥĲáĥ¨áĥľáĥĶáĥ¨áĥĶ":11468,"ĠáĥĿáĥĽ":11469,"utvikling":11470,"Ġhelhet":11471,"Ġbarnehage":11472,"Ġgave":11473,"Ġhet":11474,"ĠáĥĽáĥĲáĥ":11475,"áĥĶáĥ©":11476,"Ġbikim":11477,"ĠgjennomfÃ¸ring":11478,"Ġsvenske":11479,"Ġgloba":11480,"istoria":11481,"tiner":11482,"EMI":11483,"Ġhit":11484,"ĠáĥķáĥĲáĥľáĥĲáĥłáĥĻáĥĺ":11485,"Ġhente":11486,"Ġ>":11487,"elu":11488,"áĥ£áĥĲáĥ¨":11489,"ĠTyskland":11490,"bn":11491,"Ġfyr":11492,"ĠIssa":11493,"ĠBenj":11494,"ĠAust":11495,"sg":11496,"ĠPir":11497,"ĠIsraeli":11498,"Ġuttry":11499,"ĠInstagram":11500,"Ġáĥĺáĥ£áĥļáĥĺ":11501,"Ġáĥĺáĥ£áĥļáĥĺáĥĲáĥľáĥ£áĥłáĥĺ":11502,"emer":11503,"Ġul":11504,"áĥĺáĥľáĥĶáĥĳ":11505,"Ġreis":11506,"áĥ£áĥłáĥĴ":11507,"Ġarbeide":11508,"krivelse":11509,"ĠÃ®m":11510,"Ġnettbutikk":11511,"Ġfremtiden":11512,"eledi":11513,"ĠMalawi":11514,"ĠWam":11515,"hund":11516,"gum":11517,"berÃ®":11518,"GE":11519,"ĠFro":11520,"Ġreal":11521,"Ġendte":11522,"Ġpengene":11523,"ĠáĥľáĥĿáĥ¦áĥĲ":11524,"Ġáĥ®áĥĿáĥļáĥĿ":11525,"smessig":11526,"lisert":11527,"Ã¸nn":11528,"Ġfremdeles":11529,"Kuwa":11530,"ational":11531,"till":11532,"Ġordin":11533,"Ġxxx":11534,"Ġdev":11535,"ĠHjem":11536,"tiver":11537,"Ġredusert":11538,"ĠgrÃ¥":11539,"Ġvok":11540,"ICHA":11541,"omer":11542,"ÅŁtina":11543,"PL":11544,"ĠSerok":11545,"Ã¸ya":11546,"ĠáĥĻáĥĿáĥĽ":11547,"ĠHÃ¥nd":11548,"takelse":11549,"ĠFÃ¸l":11550,"retting":11551,"Ġindividu":11552,"Ġkrist":11553,"forsk":11554,"maskin":11555,"sikk":11556,"gono":11557,"Chama":11558,"Ġeksisterende":11559,"iza":11560,"Ð½Ð°":11561,"áĥĿáĥķáĥĺáĥĹ":11562,"Ġkuo":11563,"Ġresultatet":11564,"Ġivareta":11565,"%.":11566,"ĠSkuli":11567,"Ġfigo":11568,"ĠkjÃ¸nns":11569,"ĠMeja":11570,"Mtoto":11571,"Ġmguu":11572,"enyeji":11573,"Ġalipowasili":11574,"Wizara":11575,"Ġwameta":11576,"Ġudhibiti":11577,"doa":11578,"Ġnyuki":11579,"Kutoa":11580,"Ġshindano":11581,"Ġuokoaji":11582,"anifu":11583,"Ġameji":11584,"ĠDaudi":11585,"aji":11586,"inishaji":11587,"dhiri":11588,"vuli":11589,"otarajiwa":11590,"Ġwakitoa":11591,"ĠMkemia":11592,"Ġnaibu":11593,"huhudia":11594,"Ġlikizo":11595,"Jaji":11596,"Mahakama":11597,"Ġwaumini":11598,"Ġzingine":11599,"Mwanafunzi":11600,"Ġmaboresho":11601,"embelea":11602,"ĠHatua":11603,"Ġkujiuzulu":11604,"Ġghafla":11605,"Akiwa":11606,"Ġmko":11607,"ĠUbelgiji":11608,"ĠMajengo":11609,"Ġmsamaha":11610,"jesho":11611,"Msanii":11612,"hawapo":11613,"Ġchenye":11614,"Ġutangazaji":11615,"Ġkusindi":11616,"ĠFol":11617,"endÃ¸rs":11618,"ĠMot":11619,"Ġleverer":11620,"gaven":11621,"veks":11622,"cent":11623,"Ġpasienter":11624,"ĠÅŁÃ®":11625,"isme":11626,"stillingen":11627,"ssjef":11628,"Ġnj":11629,".-":11630,"Ġbr":11631,"Ġdialog":11632,"ĠdiÃ§e":11633,"ĠtevlÃ®":11634,"Ġhard":11635,"Ġtap":11636,"uwa":11637,"ĠmÃ¥let":11638,"ĠSita":11639,"Ġling":11640,"ĠNye":11641,"bÃªn":11642,"Ġcam":11643,"Ġforeldrene":11644,"dayÃª":11645,"áĥ£áĥĲ":11646,"omi":11647,"ĠeÅŁkere":11648,"enteret":11649,"Ġuga":11650,"ĠlÃ¥n":11651,"ĠBed":11652,"Ġjinan":11653,"ĠtiÅŁtÃªn":11654,"Ð¾Ð»":11655,"ĠgelekÃ®":11656,"banen":11657,"ĠLar":11658,"Ġbred":11659,"Ġkrigen":11660,"ĠHil":11661,"sor":11662,"ĠkurdÃªn":11663,"uss":11664,"Ġriba":11665,"BL":11666,"viten":11667,"ĠundersÃ¸kelse":11668,"yanÃ®":11669,"Ġmerket":11670,"ĠCanada":11671,"BI":11672,"Ġbia":11673,"jÃ®ma":11674,"enten":11675,"Ġhvite":11676,"ĠAri":11677,"Ġposta":11678,"ĠWest":11679,"ĠMak":11680,"viya":11681,"ĠVa":11682,"ĠEner":11683,"tis":11684,"ĠKem":11685,"elefoner":11686,"MO":11687,"Ġfremme":11688,"ï¼Į":11689,"ĠZe":11690,"ĠDiya":11691,"ĠFOR":11692,"ĠáĥĴáĥ·":11693,"ĠbÃ¥t":11694,"Ġdikirin":11695,"ĠÃ§e":11696,"Ġkampan":11697,"kommende":11698,"Ġsendes":11699,"Ġaxaf":11700,"Ġaxi":11701,"ĠBya":11702,"arawe":11703,"Ġziwan":11704,"henger":11705,"ĠCor":11706,"ĠáĥĿáĥĿáĥłáĥ£":11707,"jui":11708,"Ġomfatter":11709,"ĠbÃ¦r":11710,"ĠkjÃ¸rte":11711,"Ġeffektiv":11712,"dil":11713,"ĠPak":11714,"mal":11715,"Ġhud":11716,"wania":11717,"ĠJune":11718,"áĥĲáĥłáĥĲáĥ¨":11719,"Ġforbi":11720,"Ġsym":11721,"Ġautomatisk":11722,"Ġfavoritter":11723,"ĠKilom":11724,"Ġnettsted":11725,"Ã§av":11726,"byggere":11727,"Go":11728,"Ġmuse":11729,"ĠstÃ¸rrelse":11730,"áĥĵáĥĲ":11731,"ĠStatens":11732,"Ġvind":11733,"ĠBerlin":11734,"Ġrojava":11735,"virksomhet":11736,"omrÃ¥der":11737,"ttp":11738,"Ġettersom":11739,"amama":11740,"ĠÃİran":11741,"Ã¥ringen":11742,"jali":11743,"lekt":11744,"ĠGodfrey":11745,"97":11746,"sutvikling":11747,"ĠEmmanuel":11748,"kuza":11749,"ffi":11750,"ĠJesus":11751,"Ġfei":11752,"mor":11753,"Ġutlandet":11754,"Hva":11755,"CA":11756,"Ġledere":11757,"Ġtreff":11758,"Ġmening":11759,"ĠlÃ¸nn":11760,"gehÃªn":11761,"biler":11762,"eneza":11763,"Ġyenu":11764,"Lengo":11765,"Ġutslipp":11766,"Ġdagene":11767,"Ġudhaifu":11768,"pher":11769,"Ġuana":11770,"ĠMeatu":11771,"Waombaji":11772,"ĠMifuko":11773,"fadhiliwa":11774,"Mwili":11775,"himiza":11776,"Ġalizo":11777,"ĠalÃ®ka":11778,"Ġraundi":11779,"Ġkujiandaa":11780,"Ġkusisitiza":11781,"Ġkuapishwa":11782,"ĠSirro":11783,"Wito":11784,"Ġngono":11785,"Ġuhitaji":11786,"Ġmafu":11787,"ripotiwa":11788,"ĠKibaha":11789,"Ġmwombaji":11790,"Ġkuuzwa":11791,"Ġkupitisha":11792,"Ġyanayohusu":11793,"Ġwasemaji":11794,"fanana":11795,"Ġwanavyo":11796,"Ġunahitaji":11797,"Ġuraia":11798,"ĠHamisi":11799,"ĠUkanda":11800,"Ġumakini":11801,"Hotuba":11802,"Ġyatakayo":11803,"Ġkutetea":11804,"ĠMahenge":11805,"Ġalichaguliwa":11806,"okolewa":11807,"angiwa":11808,"Ġghasia":11809,"lazimika":11810,"Ilikuwa":11811,"Ġwastaafu":11812,"Ġzile":11813,"kanwa":11814,"Ġkusafiri":11815,"Ġkufariki":11816,"Ġinam":11817,"Ġmgumu":11818,"plomasia":11819,"Ziara":11820,"Akizungumzia":11821,"ĠáĥĲáĥ¤":11822,"Ġamela":11823,"Ġwanasayansi":11824,"dhumuni":11825,"wezeshaji":11826,"Ġkushangaza":11827,"ĠKigiriki":11828,"Ġstudier":11829,"Ġinternasjonalt":11830,"Ġir":11831,"Ġsmak":11832,"ĠðŁ":11833,"Ġfavoritt":11834,"Ġdessverre":11835,"áĥĿáĥłáĥĺáĥľ":11836,"ĠfÃ¸rte":11837,"lett":11838,"ĠKr":11839,"ĠAustralia":11840,"ĠpÃªwÃ®st":11841,"Ġenig":11842,"ĠBlo":11843,"Ju":11844,"ĠHew":11845,"Ġfjerne":11846,"Ġarranger":11847,"Ġekstrem":11848,"Ġill":11849,"Ġpis":11850,"riske":11851,"hovet":11852,"Ġflytte":11853,"Ġlig":11854,"Ġforplikt":11855,"ĠsalÃ®":11856,"vning":11857,"Selv":11858,"ĠSkole":11859,"Ġundervis":11860,"áĥĺáĥľáĥĵ":11861,"ĠAbi":11862,"Ġfikra":11863,"Ti":11864,"ĠkiribÃ»":11865,"ĠkjÃ¸pte":11866,"ĠFA":11867,"kse":11868,"Ġstemme":11869,"landske":11870,"ĠErik":11871,"Ġmusk":11872,"wiha":11873,"rings":11874,"bs":11875,"beste":11876,"Ġuly":11877,"ĠHur":11878,"elektroni":11879,"Ġkapi":11880,"sasje":11881,"1976":11882,"HU":11883,"Ġetc":11884,"Ġnettverk":11885,"Ġufor":11886,"Ġtanker":11887,"poli":11888,"ktive":11889,"Ġlandets":11890,"ĠSerokÃª":11891,"yeti":11892,"ĠKurdistana":11893,"Ġsvarte":11894,"Ġderket":11895,"Ġbenyttet":11896,"Ġretning":11897,"ĠMÃ¥":11898,"ĠPerson":11899,"ĠMÃ¥l":11900,"setninger":11901,"Ġdrive":11902,"ĠSov":11903,"ishe":11904,"ĠhemÃ®":11905,"ogistikk":11906,"ĠMig":11907,"inner":11908,"elew":11909,"smÃ¥":11910,"áĥĶáĥľáĥª":11911,"áĥ·áĥ¤":11912,"Ġopprettet":11913,"Ġforand":11914,"Ġkung":11915,"kast":11916,"Ġkada":11917,"hjem":11918,"Ġmisi":11919,"HIF":11920,"ĠhatÃ®":11921,"Ġprisen":11922,"Ġreda":11923,"Â°":11924,"chel":11925,"ĠLA":11926,"Ġbang":11927,"Ġnaturen":11928,"Mn":11929,"Ġforelig":11930,"lÃ¸pet":11931,"retten":11932,"kultet":11933,"shet":11934,"ĠDawa":11935,"ĠkirÃ®":11936,"kofi":11937,"áĥĶáĥľáĥ¬áĥ·áĥ¤":11938,"Ġereb":11939,"DF":11940,"bank":11941,"Ġhovedsak":11942,"Ã§ove":11943,"Ġname":11944,"sjÃ¸":11945,"ĠRÃ¸":11946,"rutter":11947,"bevar":11948,"Ġposisjon":11949,"Ġalternativ":11950,"ĠNeema":11951,"fisere":11952,"PiÅŁtÃ®":11953,"kalte":11954,"tirÃ®n":11955,"ashid":11956,"RS":11957,"Ġcem":11958,"beth":11959,"ĠáĥĲáĥ¡":11960,"Ġgift":11961,"Maka":11962,"Ġdigitale":11963,"palestina":11964,"juu":11965,"Ġjevn":11966,"Ġchao":11967,"Ġyew":11968,"ĠpÃªkan":11969,"ĠAfghan":11970,"Ġrekl":11971,"Ġlurt":11972,"Ġbruken":11973,"Ġsats":11974,"Mamlaka":11975,"iteen":11976,"mester":11977,"umbwa":11978,"Ġarbeidsgiver":11979,"ĠMakadirio":11980,"jabu":11981,"Ġimefanya":11982,"Ġukamilifu":11983,"zunguka":11984,"ĠSalum":11985,"Ġmwake":11986,"ĠMaaskofu":11987,"Ġaliyoi":11988,"Ġkufikishwa":11989,"ĠDisemba":11990,"Ġkugundua":11991,"Mratibu":11992,"Ġkuvi":11993,"Ġkigaidi":11994,"Ġtoleo":11995,"ĠMwak":11996,"kusanyika":11997,"yembe":11998,"Ġkugombea":11999,"Ġmalezi":12000,"omwa":12001,"Ġkifupi":12002,"fukuzwa":12003,"Ġmiundo":12004,"ĠKatikati":12005,"Msa":12006,"Ġkibali":12007,"Ġlaki":12008,"Ġwanaishi":12009,"Ġvilikuwa":12010,"Ġvilivyopo":12011,"Ġubalozi":12012,"ĠRasmi":12013,"Ġkuepuka":12014,"Ġviwili":12015,"vutia":12016,"Ġwaliochaguliwa":12017,"Ġhaiwezi":12018,"Ime":12019,"Ġvizazi":12020,"ĠUfalme":12021,"ĠJamuhuri":12022,"unduma":12023,"stahili":12024,"Ġjapo":12025,"harakati":12026,"Ġtumbo":12027,"zalishwa":12028,"Ġjinai":12029,"ĠMilioni":12030,"Ġvirksomheten":12031,"Ġnyheter":12032,"Ġwakili":12033,"Kamati":12034,"Ġmuswada":12035,"ishukuru":12036,"Ġakina":12037,"Ġkuhamia":12038,"Ġmabomu":12039,"ĠKifaransa":12040,"Ġhey":12041,"Ã§i":12042,"ĠDaniel":12043,"Ġax":12044,"Ã¸kene":12045,"Ġfare":12046,"karÃªn":12047,"ĠForskning":12048,"ĠBÃª":12049,"rad":12050,"fulle":12051,"FÃ¸r":12052,"Ġbiryara":12053,"ĠÃ¸kte":12054,"llar":12055,"ĠfÃ¸le":12056,"Ġdessuten":12057,"yaya":12058,"sio":12059,"ĠdayÃ®n":12060,"ĠvÃ¥pen":12061,"áĥĿáĥ£":12062,"ĠkÃ¥":12063,"Ġlun":12064,"Ġáĥ¢áĥĶáĥłáĥĺáĥ¢áĥĿáĥł":12065,"ÅŁti":12066,"Ġstadi":12067,"Ġoverfla":12068,"Ġtorsdag":12069,"dariya":12070,"ĠBot":12071,"Ġdigital":12072,"virkning":12073,"IV":12074,"Ġnede":12075,"Ġderba":12076,"ĠKro":12077,"Ġskues":12078,"áĥĶáĥ¡áĥŀ":12079,"sra":12080,"ĠáĥĴáĥĺáĥ¨":12081,"ĠAN":12082,"mos":12083,"ĠanÃ®n":12084,"ĠrÃªveber":12085,"ĠhevalÃªn":12086,"DB":12087,"ĠDanmark":12088,"sler":12089,"Ġfaktor":12090,"ĠendamÃªn":12091,"áĥĲáĥ¨áĥ®áĥĲ":12092,"ĠnÃ¸ya":12093,"wegi":12094,"Ġeventuelt":12095,"ĠBrazil":12096,"ĠCH":12097,"stek":12098,"ĠSammen":12099,"Ġalternati":12100,"Ġtrenings":12101,"Ġaku":12102,"ĠnÃ¸ye":12103,"Ġtrener":12104,"andinÃª":12105,"ĠNavn":12106,"FM":12107,"inti":12108,"Ġaktive":12109,"Ġlegem":12110,"ÅŁÃ®ne":12111,"Ġkonto":12112,"Ġbefolkningen":12113,"Ġkopi":12114,"He":12115,"ĠTransport":12116,"ĠJer":12117,"ĠÐľ":12118,"ĠVM":12119,"kurran":12120,"ĠJina":12121,"Ġmb":12122,"gÃ¥ende":12123,"okia":12124,"ĠNyu":12125,"Be":12126,"jina":12127,"Ġskjema":12128,"Ġtrene":12129,"1974":12130,"cu":12131,"ĠGabriel":12132,"ĠÂ»":12133,"Ġpositive":12134,"ĠparÃ§e":12135,"ĠIGP":12136,"ĠForman":12137,"Ġsamsvar":12138,"jet":12139,"Ġoverle":12140,"ĠStortinget":12141,"ĠÃ¸vrig":12142,"Ġsigna":12143,"Ġstede":12144,"ĠStar":12145,"ink":12146,"1964":12147,"Ġáĥ¨áĥ®áĥķáĥĲ":12148,"ĠáĥĲáĥĽáĥĶáĥł":12149,"ĠberhemÃªn":12150,"ĠStore":12151,"Ġunntak":12152,"jeya":12153,"ÐµÐ²":12154,"Ġkreft":12155,"ĠbikaranÃ®n":12156,"Ġbland":12157,"Ġguh":12158,"KUU":12159,"ub":12160,"Ġbidrag":12161,"ĠBet":12162,"inÃª":12163,"ĠÃ¥tte":12164,"Ġkid":12165,"luft":12166,"Ġorienter":12167,"ĠPÃªÅŁ":12168,"runn":12169,"áĥĿáĥľáĥĺ":12170,"ĠVal":12171,"ĠmalÃª":12172,"ĠWÃª":12173,"Ġtilsyn":12174,"Ġveger":12175,"iÃ¸r":12176,"EFA":12177,"ĠAza":12178,"Ġpensjon":12179,"Ġvema":12180,"NK":12181,"Ġhverdag":12182,"ĠĠĠĠĠĠĠĠĠĠĠĠĠĠĠĠ":12183,"Ġpombe":12184,"baraza":12185,"jekk":12186,"MI":12187,"Ġkubeba":12188,"Ġchachu":12189,"vuno":12190,"Ġanapo":12191,"hakikishia":12192,"Ġualimu":12193,"elimisha":12194,"Jumla":12195,"Ġwatumwa":12196,"Ġkuhusishwa":12197,"Ġkuisaidia":12198,"elati":12199,"Ġilani":12200,"ĠJinsia":12201,"Akitoa":12202,"ĠUmmy":12203,"Ġkurudisha":12204,"ĠBinafsi":12205,"Mtu":12206,"Ġkipengele":12207,"Ġhalali":12208,"gizwa":12209,"Ġvyakula":12210,"Ġwanapo":12211,"idika":12212,"Ġamefariki":12213,"Aliyekuwa":12214,"ĠMkapa":12215,"Ġukaribu":12216,"Ġmagazeti":12217,"Ġmdomo":12218,"Ġuendelezaji":12219,"Ġnadharia":12220,"Ġmapitio":12221,"ĠUreno":12222,"Ġalicho":12223,"dhihirisha":12224,"engwa":12225,"Ġkufua":12226,"pisha":12227,"sund":12228,"Ġmganga":12229,"Ġwalipata":12230,"Vile":12231,"ĠByakanwa":12232,"Ġkando":12233,"Ġuchambuzi":12234,"Ġkufunguliwa":12235,"Ġkazini":12236,"Ġmtambo":12237,"Ġubia":12238,"ĠMsaada":12239,"Ġutukufu":12240,"visheni":12241,"ĠTri":12242,"Ġaktiv":12243,"Ġâĸ":12244,"Ñĩ":12245,"Ġfritt":12246,"Ġoffisi":12247,"ĠMur":12248,"áĥĴáĥĺáĥľ":12249,"nÃª":12250,"Ġkategorier":12251,"spart":12252,"gskolen":12253,"Ġnikare":12254,"smiddel":12255,"gÃª":12256,"svis":12257,"ĠBlu":12258,"Ġbegrenset":12259,"Ġforum":12260,"Ġreser":12261,"Ġcoo":12262,"ĠparÃªz":12263,"Kan":12264,"kalt":12265,"later":12266,"Ġdikeve":12267,"áĥĿáĥļáĥĿáĥĴ":12268,"Ġqir":12269,"Ã¦ren":12270,"Ġed":12271,"Ġmill":12272,"Ġdad":12273,"ĠMombasa":12274,"jiyÃª":12275,"Ġteknisk":12276,"ĠUkra":12277,"Ġmidd":12278,"Ġsov":12279,"Ġdigo":12280,"Ġanner":12281,"wnload":12282,"ĠSig":12283,"pent":12284,"Ġokt":12285,"Ġrelevant":12286,"wama":12287,"omen":12288,"Ġeger":12289,"Ġsereke":12290,"ding":12291,"Ġrizgar":12292,"Ġprosessen":12293,"Ġlest":12294,"áĥĶáĥľáĥĲ":12295,"Ġbransje":12296,"tab":12297,"Ġinformasjonskapsler":12298,"Ġaktivt":12299,"Ġtend":12300,"Ġsub":12301,"koloni":12302,"sage":12303,"mÃ¸":12304,"Ġannonser":12305,"hul":12306,"Ġeksempler":12307,"Ġresultatene":12308,"ĠÃªrÃ®ÅŁÃªn":12309,"Ġmandag":12310,"Ġrefle":12311,"inde":12312,"dhar":12313,"Ġsnakket":12314,"ĠáĥĴáĥķ":12315,"Ġbedriften":12316,"vari":12317,"ĠWashington":12318,"Sam":12319,"ĠtrÃ¸":12320,"áĥĸ":12321,"ĠÃ¥rlig":12322,"ĠMeya":12323,"Ġdr":12324,"Ġtider":12325,"taz":12326,"ther":12327,"TT":12328,"ĠCe":12329,"ĠÃ¸kning":12330,"ĠovervÃ¥":12331,"ĠXwe":12332,"Ġnummer":12333,"bruks":12334,"Ã®ye":12335,"Ġrex":12336,"ĠspÃ¸rsmÃ¥let":12337,"Ġmateriale":12338,"86":12339,"llene":12340,"undation":12341,"sesjon":12342,"Ä±r":12343,"jika":12344,"ĠMata":12345,"ĠwÃªne":12346,"ĠÐ¢":12347,"ĠOrd":12348,"Ġáĥĺáĥłáĥ":12349,"ĠfÃ¸d":12350,"ĠAfghanistan":12351,"utdanning":12352,"ĠOmar":12353,"eker":12354,"Ġdatamaskin":12355,"Ġil":12356,"Ġmiddag":12357,"Ġhelgen":12358,"Ġevent":12359,"Ã»nÃª":12360,"soma":12361,"Ġweha":12362,"ĠKurdÃªn":12363,"áĥĿáĥ®áĥĿáĥļ":12364,"ĠHver":12365,"Ġverdier":12366,"Ġáĥ¡áĥĲáĥ®áĥĶáĥľáĥ¬áĥ·áĥ¤":12367,"Ġzima":12368,"Ġhotellet":12369,"ĠÃ§iqas":12370,"áĥĲáĥ¤áĥĺáĥļ":12371,"Ġqede":12372,"barn":12373,"umbo":12374,"Ġdesthilat":12375,"ĠTiba":12376,"ĠstÃ¸tter":12377,"rening":12378,"Ġteori":12379,"ĠMeh":12380,"Ġmotiv":12381,"aneti":12382,"Ġfos":12383,"Ġmottatt":12384,"jeller":12385,"ĠtÃªk":12386,"vendig":12387,"wegian":12388,"dyr":12389,"ĠstrÃ¥":12390,"ĠMiljÃ¸":12391,"Ġmelde":12392,"tch":12393,"gÃ®":12394,"estiv":12395,"ĠJosephine":12396,"posten":12397,"Ġáĥ¨áĥĲáĥľ":12398,"band":12399,"MC":12400,"Ġxuya":12401,"vÃ¦re":12402,"Ġgru":12403,"89":12404,"Ġtradisjonelle":12405,"taki":12406,"Ġretur":12407,"otball":12408,"ĠÐŁ":12409,"pende":12410,"strum":12411,"chat":12412,"ÑģÐº":12413,"ĠaktÃ¸rer":12414,"ĠKale":12415,"Ġsang":12416,"ĠKisiwa":12417,"jazo":12418,"imbaji":12419,"ĠMku":12420,"fanyikazi":12421,"Ġimekuja":12422,"Ġndivyo":12423,"Ġkubadilishana":12424,"Ġkiraia":12425,"Ġkuungana":12426,"tofautiana":12427,"rudisha":12428,"kumo":12429,"ĠAlikuwa":12430,"ĠKinana":12431,"Ġkidemokrasia":12432,"Ġtamaa":12433,"ĠOfisa":12434,"Ġameu":12435,"umbaji":12436,"ĠUmeme":12437,"iaji":12438,"Ġakiba":12439,"Ġumwagiliaji":12440,"tekete":12441,"ĠChunya":12442,"Ġkutaja":12443,"MISEMI":12444,"Mke":12445,"pigo":12446,"Ġakifafanua":12447,"Ġredio":12448,"Wakuu":12449,"Ġinayozungumzwa":12450,"Ġshambu":12451,"Ġkuvunja":12452,"Ġkisayansi":12453,"Ġkubaki":12454,"ĠMpanda":12455,"baliwa":12456,"Ġmwao":12457,"ĠKushoto":12458,"ĠMwanadamu":12459,"Ġtamko":12460,"inguni":12461,"guso":12462,"Ġmakaa":12463,"Ġyanayofanyika":12464,"Ġmpito":12465,"damizi":12466,"Ġmtaji":12467,"Ġwafungwa":12468,"Ġsaru":12469,"chunguza":12470,"Kocha":12471,"fuatiwa":12472,"Ġkibinafsi":12473,"ĠNyanda":12474,"riks":12475,"haug":12476,"Ġjern":12477,"ĠBÃ¥de":12478,"jÃ¸rn":12479,"Ġumulig":12480,"Ġferd":12481,"ĠHaug":12482,"eles":12483,"Hei":12484,"Ġbehandlet":12485,"Ġtilskudd":12486,"áĥĲáĥļáĥĲ":12487,"ĠSteven":12488,"Ġkonstru":12489,"Ġstren":12490,"ĠsÃ®nor":12491,"Ġskyldes":12492,"ĠMasa":12493,"ĠÃİraq":12494,"jakk":12495,"buti":12496,"ĠNÃ»":12497,"Ġwanan":12498,"ĠSvein":12499,"ansand":12500,"pÃ¸r":12501,"engi":12502,"bÃ¦r":12503,"marke":12504,"Ġsann":12505,"lÃ¸st":12506,"dali":12507,"Ġsektor":12508,"Ġmua":12509,"Ġrojname":12510,"Ġbestemm":12511,"Ġansvaret":12512,"mir":12513,"Ġkonsent":12514,"Ġbim":12515,"lyon":12516,"Ġtilpasset":12517,"pensasjon":12518,"Ġsuksess":12519,"Ġsjekk":12520,"oste":12521,"ĠPhili":12522,"cob":12523,"krike":12524,"orom":12525,"Ġintro":12526,"ĠFort":12527,"Ġmotstand":12528,"Ġflykt":12529,"yetÃª":12530,"1978":12531,"cial":12532,"ĠSystem":12533,"meng":12534,"eneti":12535,"iyÃªn":12536,"82":12537,"ĠutfÃ¸re":12538,"organisasjon":12539,"Ġimponer":12540,"ĠSkal":12541,"Ġforskjellig":12542,"Ã»l":12543,"Ġsjelden":12544,"retter":12545,"Ġserkef":12546,"áĥĲáĥłáĥ¢":12547,"ĠKjem":12548,"Ġdriv":12549,"ransjen":12550,"Ġdrept":12551,"lÃ¥r":12552,"sted":12553,"ĠTP":12554,"ĠChu":12555,"ĠserokÃª":12556,"Ġpersonopplysninger":12557,"skapene":12558,"Ġmoro":12559,"Ġstruktur":12560,"mund":12561,"Ġartikkelen":12562,"ĠáĥĻáĥļ":12563,"ĠDrammen":12564,"ĠSkog":12565,"ĠÃ¸dele":12566,"ĠSti":12567,"ÐµÐ»":12568,"ĠMg":12569,"Ġdeltok":12570,"Ġkryss":12571,"áĥ£áĥ¯":12572,"jÃªr":12573,"bero":12574,"Ġbendera":12575,"Ġsituasjoner":12576,"pate":12577,"ision":12578,"Ġinstru":12579,"fart":12580,"Ġindu":12581,"ĠBenjamin":12582,"Ġfolket":12583,"áĥłáĥĿáĥŀ":12584,"ĠtÃªkoÅŁÃ®na":12585,"lling":12586,"Ġvarm":12587,":)":12588,"Ġbibliotek":12589,"Ġmeh":12590,"enior":12591,"ĠnÃ¦rmeste":12592,"Ġrelasjoner":12593,"Ġsil":12594,"Ġkunstner":12595,"áĥĲáĥľáĥĺáĥ¨":12596,"esela":12597,"1984":12598,"Ġansatt":12599,"Ġhuske":12600,"Ġbrev":12601,"ĠFamilia":12602,"Ġdira":12603,"soft":12604,"str":12605,"ĠAugust":12606,"bÃ¸ker":12607,"Hun":12608,"Ġtreni":12609,"ETA":12610,"tr":12611,"Ġfungu":12612,"hite":12613,"proses":12614,"ĠPang":12615,"Ġkiji":12616,"Ġinntrykk":12617,"Ġannerledes":12618,"ovu":12619,"geh":12620,"asira":12621,"ĠNas":12622,"Ġtenkte":12623,"Ġzako":12624,"Ð°Ð»":12625,"Ġgle":12626,"ĠYusu":12627,"andikishaji":12628,"Ġaliko":12629,"Ġalimu":12630,"Ġzinatarajiwa":12631,"esaidia":12632,"Ġkuridhisha":12633,"Ġmagoli":12634,"ainishwa":12635,"Ġalip":12636,"Ġzanzibar":12637,"ĠRuangwa":12638,"Ġmwanawe":12639,"Ġwigo":12640,"jelwa":12641,"pigaji":12642,"Mwezi":12643,"Mjumbe":12644,"PICHA":12645,"gharibi":12646,"Ġwafanya":12647,"Ġkuchang":12648,"ororo":12649,"Ġmashauri":12650,"Ġvipaji":12651,"Ġaliu":12652,"ereji":12653,"omaji":12654,"ishwaji":12655,"mashariki":12656,"Ġkutajwa":12657,"ĠWanahisa":12658,"Ġkuwasiliana":12659,"Ġkutisha":12660,"Ġmafuriko":12661,"Ġmfalme":12662,"Ġkutumiwa":12663,"ĠSun":12664,"ĠUsajili":12665,"ĠUbalozi":12666,"Ġwanatakiwa":12667,"ongamano":12668,"huriwa":12669,"ĠZainab":12670,"Ġyakiwa":12671,"changiwa":12672,"Ġhutumia":12673,"shaji":12674,"ungana":12675,"Ġmaradhi":12676,"Taifa":12677,"Ġmgongo":12678,"Ġmgomo":12679,"Ġkupanua":12680,"Ġzabuni":12681,"arafu":12682,"pitisha":12683,"simamiwa":12684,"Ġmchu":12685,"boreshwa":12686,"ĠSukari":12687,"kamano":12688,"Ġmpangilio":12689,"ĠBilioni":12690,"Fedha":12691,"Ġmlipuko":12692,"ĠKhamis":12693,"Ġwanahabari":12694,"vyokuwa":12695,"Ġasilia":12696,"rinÃª":12697,"ĠKiuchumi":12698,"ĠMakala":12699,"ĠKambi":12700,"áĥ°":12701,"Ġverdensk":12702,"gha":12703,"Ġspare":12704,"ĠhÃªvÃ®":12705,"Ġparastina":12706,"ĠJerusa":12707,"ykke":12708,"ĠUtdanning":12709,"gret":12710,"skrifter":12711,"Ġselge":12712,"Ġsjef":12713,"Ġsender":12714,"Ã¸lv":12715,"Ġventet":12716,"esto":12717,"áĥĿáĥłáĥĽ":12718,"Ã¸pet":12719,"Ġomgang":12720,"Ġrimelig":12721,"Ġáĥĺáĥ¡":12722,"ĠbÃ®ne":12723,"ĠEld":12724,"Ġinnovasjon":12725,"Ġprofil":12726,"ĠjinÃªn":12727,"strÃ¸m":12728,"feltet":12729,"Ġstraff":12730,"ckson":12731,"lite":12732,"ĠazadÃ®":12733,"elson":12734,"Ġskog":12735,"gus":12736,"Ã¸ket":12737,"áĥĿáĥĸ":12738,"Ġfacebook":12739,"lager":12740,"Ġmedia":12741,"Ġstaten":12742,"Ġkontak":12743,"utvik":12744,"Ġlover":12745,"ĠTMA":12746,"vens":12747,"Ĺáĥ®":12748,"Ġkapasi":12749,"ĠLars":12750,"ĠÃ§Ãªkirin":12751,"Ġ!":12752,"Ġbind":12753,"Ġforbered":12754,"liggende":12755,"Ġforvaltning":12756,"ĠThailand":12757,"moud":12758,"kus":12759,"ĠÄ°":12760,"Ġparlam":12761,"Ġplassert":12762,"1971":12763,"Ġsynlig":12764,"peni":12765,"Ġpasient":12766,"Ġonsdag":12767,"tibÃ»":12768,"ĠNete":12769,"ĠdirektÃ¸r":12770,"cus":12771,"à¤":12772,"Ġxwest":12773,"Ġaya":12774,"komo":12775,"fÃ¸ringen":12776,"Ġopplevd":12777,"ĠHand":12778,"Ã®k":12779,"áĥĺáĥľáĥĲáĥĹ":12780,"cer":12781,"ĠSimu":12782,"LS":12783,"Ġbestil":12784,"Ġmul":12785,"Ġgruppen":12786,"Ġbeskrevet":12787,"JA":12788,"Ġveier":12789,"ĠMexi":12790,"Ġdixe":12791,"LÃª":12792,"Ġgoli":12793,"Ġforskrift":12794,"ac":12795,"guo":12796,"lls":12797,"ĠSkjÃ¸":12798,"ĠdÃ®rokÃ®":12799,"Ġstod":12800,"bilde":12801,"Ġalfabeti":12802,"Ġundervisning":12803,"Ġblu":12804,"tilsynet":12805,"ĠQu":12806,"ĠMandela":12807,"Ġmec":12808,"ĠSÃ¸ker":12809,"ĠmafÃªn":12810,"Ġtilrettele":12811,"Ġinternasjonal":12812,"Mh":12813,"Ġrad":12814,"Ġhebe":12815,"Ġáĥ¬áĥ§áĥĲáĥłáĥĽ":12816,"Ġkni":12817,"ĠáĥĽáĥĿáĥ¡áĥĿáĥ¤":12818,"ĠnÃ¸dvendige":12819,"Ġramani":12820,"Ġforsiktig":12821,"Ġengasjem":12822,"ĠfÃ¸lelser":12823,"ĠMel":12824,"Ġtegn":12825,"ĠTRA":12826,"borÃ®":12827,"Ġrojan":12828,"Min":12829,"Ġede":12830,"ĠrÃªz":12831,"ĠReise":12832,"Ġkandida":12833,"Ġbytte":12834,"Ġkontroller":12835,"ĠPlu":12836,"Ġvedi":12837,"ĠnivÃ®skar":12838,"ĠsÃ¥r":12839,"Mb":12840,"Ġagen":12841,"ĠUniversitetet":12842,"yarÃªn":12843,"unu":12844,"ĠPetro":12845,"ttar":12846,"Ġwara":12847,"imba":12848,"Ġubongo":12849,"Ġvurdert":12850,"ĠÃ®nsan":12851,"gentina":12852,"Ġmwe":12853,"Ġango":12854,"Ġledende":12855,"sjef":12856,"kle":12857,"Ġnabe":12858,"nas":12859,"nadene":12860,"lanzi":12861,"Ġgutt":12862,"arch":12863,"ĠWA":12864,"teka":12865,"Ġbombe":12866,"áĥĲáĥļáĥ£áĥł":12867,"Ġudahili":12868,"Ġmdahalo":12869,"Ġuhandisi":12870,"ĠAsha":12871,"Ġunderstre":12872,"Ġshauku":12873,"Ġkimkakati":12874,"ĠMratibu":12875,"ĠUdhibiti":12876,"Ġlisi":12877,"ĠIkiwa":12878,"Ġnguo":12879,"Ġoperesheni":12880,"Ġmshambuliaji":12881,"kamilisha":12882,"kutwa":12883,"Ġmashi":12884,"edwali":12885,"fugaji":12886,"rushwa":12887,"Ġkadha":12888,"asaha":12889,"Waandishi":12890,"Ġimewa":12891,"Ġkujiondoa":12892,"Ġkumiliki":12893,"Ġkutambuliwa":12894,"taafu":12895,"hirishwa":12896,"ĠMnazi":12897,"anenane":12898,"tumu":12899,"Ġanataka":12900,"ĠKasesela":12901,"Ġzinazotolewa":12902,"Ġuhali":12903,"ĠUkristo":12904,"Ġkutwaa":12905,"ĠMkon":12906,"choro":12907,"wekea":12908,"Ġamete":12909,"fiwa":12910,"Ġserikalini":12911,"Ġshirikisho":12912,"Ġkutekwa":12913,"Ġmsichana":12914,"Ġukombozi":12915,"horofa":12916,"Ġmshauri":12917,"Ġchaguzi":12918,"amiliki":12919,"Ġhaita":12920,"Ġkuunganisha":12921,"Ġidhini":12922,"Ġwalizo":12923,"Ġkamper":12924,"Ġpositiv":12925,"Ġmadhumuni":12926,"endelee":12927,"Ġwanaofanya":12928,"ĠLudewa":12929,"Idara":12930,"ĠlÃªger":12931,"Ġmbwa":12932,"ĠÅŀÃªx":12933,"ĠtÃªki":12934,"hya":12935,"Ġfrukt":12936,"ĠOcto":12937,"Ġfaste":12938,"nest":12939,"ĠSag":12940,"Ġunderveis":12941,"Ġlykkes":12942,"juni":12943,"Ġlevert":12944,"ĠMicro":12945,"eweyÃ®":12946,"ĠáĥĲáĥĵáĥĲáĥĽ":12947,"Ġáĥ«":12948,"ãĢģ":12949,"ĠUten":12950,"ĠDom":12951,"Ġnei":12952,"ĠdÃ®t":12953,"ĠforstÃ¥r":12954,"Ġqedexe":12955,"rike":12956,"Ġinntekt":12957,"ĠdewletÃªn":12958,"pekt":12959,",-":12960,"ordin":12961,"ĠTom":12962,"Ġdommer":12963,"Ġvond":12964,"Ġtrolig":12965,"ĠáĥĺáĥĵáĥķáĥĲáĥļ":12966,"iler":12967,"Ã®yan":12968,"ĠSop":12969,"ĠáĥĴáĥĶáĥ¨áĥĲ":12970,"ĠKum":12971,"ketÃ¸y":12972,"ĠkoÃ§":12973,"Ġturer":12974,"ĠHed":12975,"áĥłáĥĲáĥ¤":12976,"ĠProdu":12977,"onia":12978,"ĠfermÃ®":12979,"áĥĶáĥľáĥ¯":12980,"bur":12981,"ĠVia":12982,"Ġhewl":12983,"Ġopplevelser":12984,"ĠTÃª":12985,"ÅŁÃ®nin":12986,"Ġvekk":12987,"eso":12988,"wazi":12989,"ĠsivÃ®":12990,"ĠHau":12991,"ĠRadio":12992,"aniyÃª":12993,"Ġhistorier":12994,"1963":12995,"Ġhezaran":12996,"LC":12997,"Ġretningslinjer":12998,"ez":12999,"terne":13000,"áĥ£áĥ¢":13001,"sc":13002,"ĠáĥĲáĥ®":13003,"ĠáĥĻáĥĿáĥĻ":13004,"dek":13005,"ĠFiske":13006,"Ġpresident":13007,"lÃ¸y":13008,"ĠkjÃ¸rt":13009,"day":13010,"ĠmÃ¸tt":13011,"ĠHei":13012,"ĠhÃ¥p":13013,"ney":13014,"midler":13015,"Ġsok":13016,"jing":13017,"Ġsw":13018,"Ġket":13019,"Ġtilstand":13020,"bit":13021,"Ġstatus":13022,"ĠÃ¥pning":13023,"SU":13024,"ĠEco":13025,"ĠPoliti":13026,"ĠzÃ»":13027,"ĠGam":13028,"Ġvirksomheter":13029,"Ġtyske":13030,"Ġsystemet":13031,"ĠSalim":13032,"ĠstÃ¸rr":13033,"inale":13034,"ile":13035,"elaget":13036,"ĠKvinner":13037,"vennlig":13038,"kobling":13039,"Ġspis":13040,"ĠdinyayÃª":13041,"Ġhverdagen":13042,"puli":13043,"ĠCup":13044,"Ġmilf":13045,"Ġkg":13046,"sala":13047,"yoya":13048,"fest":13049,"ĠlÃ¸per":13050,"Ġflest":13051,"Ġpeyda":13052,"94":13053,"Ã»ra":13054,"Mama":13055,"ĠMam":13056,"ĠPorno":13057,"weta":13058,"ĠHawa":13059,"hemed":13060,"ĠRog":13061,"AF":13062,"ĠChristo":13063,"ĠVit":13064,"ĠtÃªne":13065,"bii":13066,"Ġmistet":13067,"Ġange":13068,"ĠNyheter":13069,"Ġplanlagt":13070,"Ġtilfelle":13071,"Ġferdigheter":13072,"posisjon":13073,"Ġinnbyggere":13074,"Ġusu":13075,"Ġnikarin":13076,"ĠPeder":13077,"ĠOD":13078,"ĠAme":13079,"Ġtjenesten":13080,"lasse":13081,"Ð²Ð°":13082,"Ġskatte":13083,"Ġveiledning":13084,"hjelp":13085,"Ġnettles":13086,"Ġversjon":13087,"Mat":13088,"ĠGran":13089,"Ġrettet":13090,"ĠundersÃ¸kelser":13091,"bruket":13092,"ĠKK":13093,"ï¿":13094,"ĠPakistan":13095,"ĠHou":13096,"ĠÃĺkonomi":13097,"áĥ£áĥłáĥ¡":13098,"Ġbaa":13099,"Ġduni":13100,"ĠGol":13101,"Ġsmar":13102,"ĠtilnÃ¦r":13103,"Ġdemon":13104,"Ġskoler":13105,"ĠRashid":13106,"ĠnÃ¸yaktig":13107,"Ġlikes":13108,"iness":13109,"Ġopptak":13110,"Ġvido":13111,"ĠIl":13112,"Ġset":13113,"sre":13114,"Ġtrans":13115,"Ġspiser":13116,"ĠNort":13117,"Ġjiwe":13118,"taks":13119,"Ġgiza":13120,"ĠhÃªsan":13121,"ĠStyret":13122,"Ġskatt":13123,"ared":13124,"ship":13125,"sklu":13126,"ĠHev":13127,"Ġuandikishaji":13128,"ĠYohana":13129,"Ġucha":13130,"Ġmavuno":13131,"Ġmishipa":13132,"Ġwadhamini":13133,"Ġkiarabu":13134,"Ġalilo":13135,"Ġunaonyesha":13136,"hamishwa":13137,"Ġanaamini":13138,"oroka":13139,"Ġhauwezi":13140,"Ġaweze":13141,"Ġukuta":13142,"Ġmijini":13143,"ĠJua":13144,"Ġweledi":13145,"hehebu":13146,"Ġimefanikiwa":13147,"Ġkitalii":13148,"Ameongeza":13149,"kusudia":13150,"Bwana":13151,"Ġwaandamizi":13152,"Ġkuchapishwa":13153,"himili":13154,"Ġvipi":13155,"ĠJumuia":13156,"Ġwanakuwa":13157,"Ġinawa":13158,"Ġanapaswa":13159,"Ġulioishia":13160,"Ġmmojawapo":13161,"Ġkuratibu":13162,"Ġmakaburi":13163,"Ġkunaweza":13164,"Ġmabasi":13165,"Hiyo":13166,"Ġkuingizwa":13167,"Ġuvun":13168,"Ġikis":13169,"zote":13170,"ĠKija":13171,"ĠWatendaji":13172,"Ġzinaonyesha":13173,"Ġalipofanya":13174,"Ġkinach":13175,"hudhuriwa":13176,"shukiwa":13177,"WASA":13178,"Ġkusitisha":13179,"dishia":13180,"Ġmsongamano":13181,"ĠUnaweza":13182,"Ġushirik":13183,"ĠDaraja":13184,"holanzi":13185,"shtakiwa":13186,"Ġinayotolewa":13187,"Ġhomoni":13188,"Ġilifanyika":13189,"ĠRajab":13190,"ĠChakula":13191,"ambulika":13192,"Ġwalipotembelea":13193,"fundisho":13194,"ĠTunduma":13195,"Ġmtaala":13196,"Ġkutenga":13197,"Ġkidi":13198,"Ġsulu":13199,"Ġukilinganisha":13200,"Mwanamke":13201,"Ġimeendelea":13202,"letea":13203,"Ġbegynt":13204,"Ġwavuti":13205,"ĠsÃ®ste":13206,"reke":13207,"bild":13208,"Ġgeneral":13209,"ĠcivakÃª":13210,"Ġtrygt":13211,"Ġkalles":13212,"tasjoner":13213,"áĥĲáĥĵáĥĲáĥļ":13214,"Ġhydro":13215,"ĠNovember":13216,"Ġserxwe":13217,"ssam":13218,"ĠáĥĴáĥ·áĥ¨":13219,"Ġtann":13220,"Av":13221,"Ġareal":13222,"ĠpÃªvajoya":13223,"Ġjiyan":13224,"ĠbibÃ®nin":13225,"Ġtillatelse":13226,"ĠBrig":13227,"lÃ¥n":13228,"ï¿½":13229,"ĠSara":13230,"ĠtrÃ¥":13231,"ĠBarne":13232,"Ġtet":13233,"Ġherdu":13234,"ĠáĥĹáĥĺáĥ¨áĥĺ":13235,"ĠLei":13236,"Ġkaffe":13237,"MW":13238,"ĠSwÃª":13239,"dsel":13240,"tut":13241,"iere":13242,"Ġpositivt":13243,"Ġpresentere":13244,"ĠNoe":13245,"ĠMang":13246,"ĠMedia":13247,"ĠNÃ¦r":13248,"ĠbilÃ®":13249,"Ġgun":13250,"Ġkreves":13251,"ĠAnlegg":13252,"Ġenige":13253,"Ġbini":13254,"analy":13255,"áĥĶáĥĳáĥĲáĥ¨":13256,"Ġlisten":13257,"Ġgjenoppretting":13258,"ĠfÃ¸rt":13259,"ringe":13260,"Ð¾Ð½":13261,"ĠartÃªÅŁa":13262,"ĠMuse":13263,"Ġenheter":13264,"Ġrekrutter":13265,"ariya":13266,"ĠMp":13267,"Ġring":13268,"Ġkurman":13269,"Ġovenfor":13270,"emani":13271,"roid":13272,"Ġfred":13273,"pal":13274,"Ġinnspill":13275,"perioden":13276,"ĠNavÃ®n":13277,"ĠVei":13278,"Ġala":13279,"áĥ£áĥľáĥĲ":13280,"Ġraskere":13281,"fisering":13282,"Ġzeh":13283,"ĠThor":13284,"Ġgum":13285,"Ġáĥ¡áĥĲáĥ¥áĥĿáĥłáĥĹáĥ£":13286,"Ġnetta":13287,"Ġdatingsider":13288,"LU":13289,"Ð¸Ð½":13290,"meldinger":13291,"ĠÃ¸kende":13292,"omrÃ¥de":13293,"Ġslipper":13294,"ms":13295,"ĠStra":13296,"ĠneteweyÃ®":13297,"Ġutform":13298,"hiyÃªn":13299,"Ġwex":13300,"ĠJobb":13301,"Ġpublisert":13302,"Ġtube":13303,"yarÃ®":13304,"Mange":13305,"Ã»d":13306,"stÃ¸tte":13307,"funn":13308,"Ġhandling":13309,"Ġani":13310,"WAS":13311,"Ã®rÃª":13312,"110":13313,"TER":13314,"erÃªn":13315,"Ġleke":13316,"Ġáĥĵáĥĺáĥĵáĥĺ":13317,"delingen":13318,"áĥĲáĥĶáĥĺáĥĿáĥļ":13319,"safa":13320,"ĠáĥĲáĥĳ":13321,"verdig":13322,"Ġhensikt":13323,"kking":13324,"Ġmelder":13325,"undet":13326,"loso":13327,"Kon":13328,"Ġrevi":13329,"Ġreseptfritt":13330,"ĠEmer":13331,"arÃªn":13332,"Ag":13333,"Ġdor":13334,"ĠFrankrike":13335,"Ġdekke":13336,"Ġmalpera":13337,"Ġegnet":13338,"Ġopptil":13339,"Ġkritikk":13340,"cker":13341,"Ġtilfredss":13342,"ĠIII":13343,"Ġtide":13344,"asin":13345,"Ġkunnska":13346,"ĠÃ¸ynene":13347,"ĠOL":13348,"Ġnyttig":13349,"PD":13350,"ĠEb":13351,"oto":13352,"rust":13353,"Ġanas":13354,"poeng":13355,"Ġdyre":13356,"ĴáĥĲáĥľ":13357,"ĠrojÃª":13358,"nÃ¸":13359,"Ġsentralt":13360,"tensia":13361,"Ġkone":13362,"ĠWo":13363,"odh":13364,"ĠAG":13365,"Fra":13366,"ĠHamad":13367,"Ġraw":13368,"ÃĬ":13369,"ĠPost":13370,"kabili":13371,"Ġforsikring":13372,"1950":13373,"klÃ¦r":13374,"hilatÃª":13375,"ftige":13376,"Ġlitteratur":13377,"Ġledet":13378,"cm":13379,"Ġdans":13380,"ĠApple":13381,"Ġbutikker":13382,"lith":13383,"Ġteq":13384,"ĠKnut":13385,"áĥĺáĥ£áĥļ":13386,"Ġsvare":13387,"Ġáĥ¯áĥķ":13388,"ĠKes":13389,"EBC":13390,"FO":13391,"bidi":13392,"Ġsolgt":13393,"velsene":13394,"Ġstudent":13395,"Ġangrep":13396,"Ġáĥ¤áĥĺáĥļáĥĽ":13397,"Ġumiddelbart":13398,"Ġfaller":13399,"Ġmetoder":13400,"ence":13401,"ĠDagbladet":13402,"fas":13403,"draget":13404,"IMU":13405,"Ġmila":13406,"Ġishi":13407,"ĠSheikh":13408,"utu":13409,"Ġjenta":13410,"áĥĲáĥ¨áĥĺ":13411,"ento":13412,"skjema":13413,"teriÃ¸r":13414,"áĥ£áĥĲáĥľ":13415,"leier":13416,"Kus":13417,"ĠLen":13418,"Ġhek":13419,"DU":13420,"ĠFili":13421,"Ġtasnia":13422,"ĠZiara":13423,"Ġiliyowekwa":13424,"ĠRipoti":13425,"Ġmazoea":13426,"dishaji":13427,"Ġzijazo":13428,"Ġanatarajiwa":13429,"ĠMwanjelwa":13430,"ĠTuko":13431,"Ġujasiri":13432,"Ġyatakuwa":13433,"Ġwanyamapori":13434,"ĠMwakyembe":13435,"Ġkutua":13436,"Ġkiini":13437,"Ġvikubwa":13438,"ĠUhusiano":13439,"Ġilitoa":13440,"Ġakihutubia":13441,"Ġwanaos":13442,"wiwa":13443,"ĠAlizeti":13444,"Ġametangaza":13445,"Ġwamem":13446,"undersÃ¸kelse":13447,"Ġmsukumo":13448,"HESLB":13449,"Ġwakaa":13450,"Ġkuon":13451,"Ġmaiti":13452,"Ġvipya":13453,"inilith":13454,"Ġalifariki":13455,"shawishi":13456,"Ġutafanyika":13457,"Ġameyasema":13458,"ĠMifumo":13459,"Ġuliotolewa":13460,"Ġitasaidia":13461,"ĠImani":13462,"hisisha":13463,"Unaweza":13464,"ĠMarehemu":13465,"Ġinalenga":13466,"Ġwino":13467,"ĠWakili":13468,"Ġitaanza":13469,"Hadi":13470,"Ġpembejeo":13471,"Ġintaneti":13472,"ĠMiraji":13473,"Ġishirini":13474,"ĠMtatu":13475,"Ġkimwili":13476,"Ġuainishaji":13477,"direktÃ¸r":13478,"Ġmshikamano":13479,"ĠMtaturu":13480,"pambana":13481,"endelezo":13482,"zuizi":13483,"ĠZahanati":13484,"Ġmchanganyiko":13485,"ĠKutoka":13486,"ĠMaadili":13487,"Ġkusambaa":13488,"Mapema":13489,"Ġmkojo":13490,"Ġsuluhu":13491,"Ġmzazi":13492,"ĠUjumbe":13493,"Ġwauzaji":13494,"Ġmaswala":13495,"Ġankom":13496,"Ġgrunner":13497,"ewÃ®":13498,"ĠPetter":13499,"ĠSpÃ¸r":13500,"skjer":13501,"ĠSpi":13502,"ider":13503,"pala":13504,"áĥĲáĥļáĥĶ":13505,"kapital":13506,"sea":13507,"Ġrent":13508,"nologisk":13509,"Noen":13510,"1945":13511,"ĠVol":13512,"Ġcum":13513,"ĠPasi":13514,"Ġfengsel":13515,"utstyr":13516,"ĠÑģ":13517,"ĠÅŀe":13518,"ĠBlant":13519,"1983":13520,"ĠKU":13521,"Ġgava":13522,"ĠdibÃ®nin":13523,"ĠLiberia":13524,"que":13525,"Ġakadem":13526,"Ġspesiell":13527,"Ġregn":13528,"histori":13529,"Ġfiro":13530,"ĠjiyanÃª":13531,"ĠforsÃ¸ker":13532,"yonÃª":13533,"pre":13534,"Ġáĥ£áĥ¦":13535,"Ġhor":13536,"áĥ¬áĥĻáĥ·áĥĽáĥĲ":13537,"ĠtevÃ®":13538,"pren":13539,"Ġfortalte":13540,"bruker":13541,"âĢ¦âĢ¦âĢ¦âĢ¦":13542,"ĠbesÃ¸ker":13543,"Ga":13544,"manns":13545,"ĠsÃ¥kalte":13546,"Ġkvi":13547,"kariyÃª":13548,"fon":13549,"Inn":13550,"ĠArgentina":13551,"Ġxem":13552,"ĠSak":13553,"Ġarmanca":13554,"helse":13555,"1975":13556,"Ġnyhet":13557,"Ġhevder":13558,"ĠGuds":13559,"ĠKarl":13560,"pha":13561,"ĠSI":13562,"ĠChan":13563,"ĠmijarÃª":13564,"Ġpsykisk":13565,"Ġstoff":13566,"ĠomrÃ¥dene":13567,"Ġoverna":13568,"ĠEh":13569,"Ġmaksim":13570,"ĠJoyce":13571,"vanÃª":13572,"ĠdijÃ®n":13573,"ĠMahmoud":13574,"áĥĺáĥľáĥĲáĥ¨":13575,"Ġavsluttet":13576,"Ġsikkerhets":13577,"ĠIreland":13578,"personer":13579,"idar":13580,"Ġfron":13581,"Ġomgi":13582,"Ġprosess":13583,"ÈĻ":13584,"Ġfirma":13585,"Ġbyer":13586,"Ġideer":13587,"áĥ£áĥłáĥĹ":13588,"ĠNTNU":13589,"ĠsprÃ¥":13590,"Ġriya":13591,"ĠPartiya":13592,"ĠáĥĿáĥ¤":13593,"finner":13594,"Ġrapport":13595,"ĠCÃ®":13596,"ÐµÑģ":13597,"yes":13598,"Ġderhe":13599,"ĠKontakt":13600,"partiet":13601,"jera":13602,"ĠBakgrunn":13603,"Ġbomba":13604,"ĠHussein":13605,"Ġligge":13606,"nisk":13607,"Ġminim":13608,"Ġfullstendig":13609,"Ġutarbeidet":13610,"ĠutfÃ¸res":13611,"nok":13612,"ĠhebÃ»n":13613,"toe":13614,"gÃ¥rd":13615,"keo":13616,"ansela":13617,"Ġspan":13618,"Ġforny":13619,"ĠLang":13620,"Ġnormal":13621,"anuary":13622,"Ġkisi":13623,"ynt":13624,"Ġsikrer":13625,"ĠSeptember":13626,"ĠdrÃ¸":13627,"Ġjuster":13628,"ĠnavÃ§eya":13629,"Ġinkluderer":13630,"Ġvib":13631,"900":13632,"ĠBod":13633,"indre":13634,"vy":13635,"hÃ®m":13636,"Ġvinteren":13637,"Ġiniti":13638,"kvalitet":13639,"situ":13640,"ĠSoka":13641,"Ġbetaling":13642,"Ġnani":13643,"YE":13644,"Ġegg":13645,"ĠÃ¸vrige":13646,"ĠhÃ¥ndtere":13647,"Ġminste":13648,"áĥ¢áĥ£áĥł":13649,"lojÃ®":13650,"ĠáĥĲáĥĻáĥĽ":13651,"ĠAka":13652,"Ã¥p":13653,"ĠáĥĽáĥ£áĥľ":13654,"pend":13655,"ĠMol":13656,"Ġáĥ¬áĥĲáĥľáĥĶáĥ¤áĥ¡":13657,"ĠÃ®s":13658,"ĠnÃ®ne":13659,"Ġstudentene":13660,"ĠlÃ¦rere":13661,"ĠSasa":13662,"ĠnÃ¦ringsliv":13663,"Ġsedema":13664,"alitet":13665,"Ġgjenopprett":13666,"81":13667,"kkelen":13668,"Ġandel":13669,"ĠRos":13670,"Ġresul":13671,"hew":13672,"Ġtypen":13673,"ĠOG":13674,"Ġbakken":13675,"funnet":13676,"Ġredd":13677,"produkter":13678,"stanbul":13679,"ĠDha":13680,"Ġdos":13681,"ĠÐĲ":13682,"unzi":13683,"Ġnehati":13684,"Ġprodusert":13685,"Ġmulige":13686,"Ġmodell":13687,"Ġbutikken":13688,"asius":13689,"stoff":13690,"Ġdaxwaza":13691,"Ġforretning":13692,"ĠVÃ¦r":13693,"hop":13694,"girÃª":13695,"ĠGala":13696,"ĠLeague":13697,"Ġtvers":13698,"Ġhandel":13699,"settes":13700,"pot":13701,"manta":13702,"Ġderdike":13703,"Ġeuropeiske":13704,"ĠAnt":13705,"poto":13706,"ĠoppstÃ¥r":13707,"ĠAlbert":13708,"tema":13709,"yt":13710,"ĠMha":13711,"riwa":13712,"shio":13713,"Ġpreget":13714,"hfa":13715,"xabin":13716,"ĠChristian":13717,"ĠNÃ¦ring":13718,"ĠáĥŀáĥĶáĥł":13719,"ĠetterpÃ¥":13720,"ĠInge":13721,"ĠGiÅŁtÃ®":13722,"ĠUEFA":13723,"hulu":13724,"harib":13725,"if":13726,"Ġomkring":13727,"ĠMajeshi":13728,"Ġchupa":13729,"kimbizwa":13730,"jifunzaji":13731,"pyuta":13732,"Ġinayom":13733,"Ġmshtuko":13734,"Ġuvamizi":13735,"Ġyatima":13736,"ĠWataalam":13737,"kitishwa":13738,"ĠDiwani":13739,"ĠNgara":13740,"Ġkumwokoa":13741,"Ġwaraka":13742,"ĠMlima":13743,"ĠMsemaji":13744,"Ġinakuja":13745,"Ġchote":13746,"umbua":13747,"Ġnjema":13748,"Ġkuimarika":13749,"ĠMfa":13750,"hukuru":13751,"funi":13752,"angali":13753,"Ġkujionea":13754,"Ġkufukuzwa":13755,"Ġkasoro":13756,"Ġkinyang":13757,"Ġmpinzani":13758,"Sababu":13759,"Ġufupi":13760,"Ġufasaha":13761,"anyiro":13762,"ĠTEHAMA":13763,"Ġkusafirisha":13764,"ĠmÃªr":13765,"Ġmsemaji":13766,"Ġkuanguka":13767,"amshi":13768,"elelezi":13769,"ombwa":13770,"ĠUgiriki":13771,"ĠKidato":13772,"Ġimehesabiwa":13773,"Ġkumfanya":13774,"Ġupelelezi":13775,"Ġumeanza":13776,"ĠDaktari":13777,"ĠKisarawe":13778,"Ġdesturi":13779,"vunja":13780,"ĠUzamili":13781,"Ametoa":13782,"dishwa":13783,"Ġmkusanyiko":13784,"Ġwaathirika":13785,"Ġmakatibu":13786,"Ġmifano":13787,"ĠMaziwa":13788,"Ġrasimu":13789,"eshika":13790,"Ġwameanza":13791,"Ġkujitegemea":13792,"kilizwa":13793,"kumbusha":13794,"ĠMatiro":13795,"Ġmuafaka":13796,"Mka":13797,"Ġmsimamizi":13798,"Ġwames":13799,"ĠKufuatana":13800,"jumuika":13801,"kusudiwa":13802,"inikizo":13803,"Ġmilele":13804,"ĠGairo":13805,"Ġhaukuwa":13806,"Ġmvutano":13807,"ukwaji":13808,"Ġwametoa":13809,"Ġinapenda":13810,"Kulingana":13811,"kanisa":13812,"Ġwahamiaji":13813,"Ġkuua":13814,"imo":13815,"ĠUdiwani":13816,"Ġpasse":13817,"ĠMerkel":13818,"áĥ£áĥĳáĥļ":13819,"filmer":13820,"misjon":13821,"rd":13822,"alim":13823,"tidige":13824,"ef":13825,"ĠmÃ»":13826,"bini":13827,"delen":13828,"ĠTher":13829,"Ġinstalla":13830,"ĠJerusalem":13831,"kunst":13832,"torer":13833,"Ġtirsdag":13834,"Ġasta":13835,"áĥĲáĥľáĥĻ":13836,"kdommer":13837,"Under":13838,"sar":13839,"Ġetterhvert":13840,"Ġgrunns":13841,"ĠÃ¸ko":13842,"ĠhÃ¸rt":13843,"ĠkjÃ¸pes":13844,"ĠRojhilata":13845,"ĠmÃ¥le":13846,"Ġettersp":13847,"Ġfinn":13848,"Ġdyp":13849,"kjente":13850,"ĠNAV":13851,"pedia":13852,"ilÃ®":13853,"ĠOla":13854,"kalling":13855,"Do":13856,"ĠSadi":13857,"Ġáĥľáĥ":13858,"estrÃ¸m":13859,"Ġstjer":13860,"Ġvisste":13861,"Ġqan":13862,"ĠForsikring":13863,"forening":13864,"ĠmÃ¸tes":13865,"ĠBon":13866,"At":13867,"lemen":13868,"VÃ¥r":13869,"Ġchoo":13870,"áĥĶáĥĹáĥĺáĥ¡":13871,"sanlegg":13872,"tannia":13873,"ziyÃªn":13874,"Ġanlegget":13875,"geza":13876,"Ġinnstilling":13877,"Ġetablere":13878,"rasjonen":13879,"slig":13880,"Ġpause":13881,"ĠpÃªÅŁni":13882,"ĠnÃ»Ã§e":13883,"Ġdihat":13884,"ĠtÃ®ne":13885,"Ġmalper":13886,"Ġparkering":13887,"oth":13888,"Ã¥s":13889,"Ġkreve":13890,"pin":13891,"Ġ:-)":13892,"zy":13893,"Ġpul":13894,"Ġrevisjon":13895,"Ġmester":13896,"áĥĶáĥĳáĥ£":13897,"ĠtiÅŁtek":13898,"iyan":13899,"1979":13900,"sil":13901,"Ġopprinnelig":13902,"merge":13903,"áĥĿáĥłáĥ¢":13904,"Ġske":13905,"opple":13906,"ĠÐĵ":13907,"Ġoptim":13908,"ĠbinÃª":13909,"Ġnae":13910,"ÐµÑĤ":13911,"ÅŁte":13912,"pey":13913,"ĠqasÃ®":13914,"Ġkravene":13915,"ĠThai":13916,"gerin":13917,"smarked":13918,"enti":13919,"Ġslet":13920,"kkende":13921,"lagte":13922,"sini":13923,"cow":13924,"baserte":13925,"ĠnebÃ»":13926,"Ġliste":13927,"ĠBK":13928,"www":13929,"stro":13930,"ÑĨ":13931,"Ġsannsynlig":13932,"áĥĶáĥłáĥ«":13933,"norsk":13934,"ĠYPG":13935,"Ġvide":13936,"ĠUi":13937,"ĠNordland":13938,"Ġdixw":13939,"grader":13940,"Ġklokken":13941,"Ġtrodde":13942,"News":13943,"disi":13944,"stanÃª":13945,"Ġula":13946,"ĠnetewÃ®":13947,"ĠBerg":13948,"Ã®kÃ®":13949,"ĠleverandÃ¸r":13950,"kert":13951,"olar":13952,"Ġhomofil":13953,"Ġgass":13954,"ĠáĥªáĥĶáĥľáĥ¢":13955,"pli":13956,"Ġeventuelle":13957,"ommet":13958,"áĥ£áĥĹáĥĲ":13959,"Ġlesbisk":13960,"ĠbesÃ¸kende":13961,"ĠCro":13962,"Ġfrom":13963,"Ġkreditt":13964,"áĥĲáĥłáĥ¡":13965,"ĠpÃªÅŁke":13966,"Wali":13967,"eah":13968,"Ġáĥłáĥ£áĥ¡":13969,"å¸":13970,"kop":13971,"ĠcÃ»":13972,".âĢĻ":13973,"Ġxwendin":13974,"Ġhjemmesi":13975,"Ġfordeler":13976,"Ġindre":13977,"slige":13978,"mei":13979,"kinga":13980,"ĠbÃªh":13981,"ĠáĥĽáĥ£áĥ¨áĥĺ":13982,"Ġford":13983,"lutt":13984,"Ġmedarbeidere":13985,"ÅŁeke":13986,"Ġfored":13987,"britannia":13988,"ĠnÃ¦rmest":13989,"Ġfungere":13990,"ĠVideo":13991,"Ġkontaktannonser":13992,"ĠMidt":13993,"ĠDeretter":13994,"MP":13995,"ingu":13996,"áĥłáĥĲáĥľáĥĴ":13997,"Ġhoma":13998,"somme":13999,"rt":14000,"ĠAya":14001,"ĠhikÃ»meta":14002,"Ġsamarbeidet":14003,"Ġhavi":14004,"ugu":14005,"ĠAdam":14006,"ĠÃĺy":14007,"ĠforelÃ¸pig":14008,"Ġjentene":14009,"Ġmenig":14010,"Ġettermid":14011,"Ġblomster":14012,"Ġwat":14013,"ĠáĥľáĥĲáĥĽáĥ£":14014,"atin":14015,"dokumen":14016,"Ġâĸ·":14017,"Ġutmerket":14018,"Ġ....":14019,"ĠButi":14020,"kat":14021,"dÃ»":14022,"Ġovergang":14023,"ledere":14024,"bby":14025,"cam":14026,"Ġtaa":14027,"Ġordet":14028,"Ġsympt":14029,"Ġplast":14030,"Ġbetra":14031,"1986":14032,"anan":14033,"Ġdikt":14034,"kulu":14035,"Ġfylle":14036,"upe":14037,"diser":14038,"anii":14039,"áĥĶáĥ®":14040,"sikia":14041,"ĠIko":14042,"dhan":14043,"Ġmj":14044,"Ġhatar":14045,"Ġcookies":14046,"ĠTI":14047,"tusi":14048,"ĠMac":14049,"Ġstasjon":14050,"Ġegenskaper":14051,"KAWA":14052,"Ġkifa":14053,"Ġvalget":14054,"ĠpÃ¥virke":14055,"ĠMathi":14056,"gÃ®n":14057,"áĥĺáĥĻáĥ£áĥłáĥĺ":14058,"Ġcur":14059,"Ġrelevante":14060,"yemÃ®n":14061,"áĥĲáĥłáĥĹáĥĺ":14062,"ĠáĥĺáĥĵáĥķáĥĲáĥļáĥ£áĥĲáĥ¤áĥ£":14063,"sababu":14064,"Ġpembeni":14065,"Ġmilima":14066,"Watoto":14067,"limani":14068,"Ġuanachama":14069,"Ġwazima":14070,"Ġnenda":14071,"kiliwa":14072,"Ġtishio":14073,"siku":14074,"Ġkuwapatia":14075,"Ġmuonekano":14076,"ĠKimanta":14077,"ĠWakulima":14078,"ĠVituo":14079,"Ġuweze":14080,"Ġkisu":14081,"Ġufundishaji":14082,"Ġmikononi":14083,"Ġkugawa":14084,"Ġmacha":14085,"ĠKondoa":14086,"Ġvitengo":14087,"Ġkuwafanya":14088,"Ġlitaka":14089,"wanjani":14090,"Ġinatokana":14091,"ĠTathmini":14092,"yanhulu":14093,"Watumishi":14094,"takabali":14095,"Ġuwakilishi":14096,"Ġtrilioni":14097,"Ġakisema":14098,"tasari":14099,"tikadi":14100,"Ġmadhehebu":14101,"Ġustaarabu":14102,"Ġkemikali":14103,"ĠBulyanhulu":14104,"ĠKishapu":14105,"Jeshi":14106,"JKCI":14107,"Ġwapi":14108,"Ġkijijini":14109,"Ġkuwahi":14110,"Ġanafanya":14111,"letwa":14112,"Ġkuugua":14113,"Ġmnyama":14114,"Ġngoma":14115,"Ġkufikiwa":14116,"Mshambuliaji":14117,"itaka":14118,"jeshwa":14119,"ĠMchezaji":14120,"Ġwanatarajiwa":14121,"Ġnyongeza":14122,"Ġunataka":14123,"Ġkamanda":14124,"Ġyaliyopo":14125,"Ġuhalali":14126,"umbuliwa":14127,"ĠKigamb":14128,"itikio":14129,"ĠUlimwengu":14130,"Ġuhalisia":14131,"tozwa":14132,"Ġvipengele":14133,"Ġmifupa":14134,"ĠWenye":14135,"Ġaliteuliwa":14136,"Ġwalipokuwa":14137,"Ġmantiki":14138,"Ġkukataa":14139,"Ġmtukufu":14140,"ĠArki":14141,"Ġyaliyotolewa":14142,"adhimishwa":14143,"shuka":14144,"lalamikia":14145,"Msemaji":14146,"Ġmlo":14147,"Ġmtendaji":14148,"Ġghorofa":14149,"Ġmwam":14150,"huhuda":14151,"ĠIEBC":14152,"Ġmuendelezo":14153,"ĠKivu":14154,"Ġwanataka":14155,"ĠWayahudi":14156,"Ġwalioishi":14157,"Ġzozote":14158,"Ġhatia":14159,"ĠAlisema":14160,"potea":14161,"pindupindu":14162,"Ġwanamgambo":14163,"ĠAjira":14164,"furah":14165,"katiba":14166,"Ġzitakuwa":14167,"chapisha":14168,"tumbuiza":14169,"ĠAsili":14170,"Ġkutowa":14171,"Ġunaendelea":14172,"Ġbonde":14173,"Ġwaamini":14174,"hodha":14175,"vokat":14176,"fang":14177,"ĠoppgjÃ¸r":14178,"atar":14179,"1966":14180,"verr":14181,"ĠFÃ¸rst":14182,"Ġarrangement":14183,"Ġhendelser":14184,"Ġavan":14185,"fyl":14186,"áĥĲáĥ¸":14187,"ĠAcc":14188,"Kurd":14189,"ĠKlikk":14190,"ĠDin":14191,"ĠHara":14192,"ÃªrÃ®n":14193,"drift":14194,"Ġfleksi":14195,"ĠbÃ¦rekra":14196,"jener":14197,"Ġhelg":14198,"KE":14199,"ĠRus":14200,"varo":14201,"ĠJacob":14202,"Ġdobbelt":14203,"GU":14204,"Ġsiyaseta":14205,"Lo":14206,"Ġballen":14207,"Ġavtalen":14208,"NO":14209,"áĥĳáĥŁ":14210,"usa":14211,"ÅŁger":14212,"ĠáĥłáĥĶáĥ¡áĥŀ":14213,"simu":14214,"nder":14215,"Ġcan":14216,"Ġpedago":14217,"ĠEver":14218,"ĠPres":14219,"ĠVÃ¥re":14220,"ĠHansen":14221,"Ġpapir":14222,"Ġproduksjonen":14223,"ĠSing":14224,"xwazin":14225,"Ø§Ù":14226,"Ġgravi":14227,"Ġkle":14228,"trepren":14229,"áĥĿáĥĳáĥĲáĥ¡":14230,"pora":14231,"ĠKen":14232,"Ġmelding":14233,"rifter":14234,"ĠÃ¸r":14235,"ĠBang":14236,"Ġberfire":14237,"verse":14238,"tilbud":14239,"visen":14240,"Ġartikler":14241,"spiller":14242,"time":14243,"Ġforekom":14244,".:":14245,"GC":14246,"elding":14247,"ĠFunksjon":14248,"ordningen":14249,"Ġalko":14250,"budt":14251,"ĠTU":14252,"cke":14253,"makt":14254,"ombia":14255,"Ġopprettholde":14256,"byrÃ¥":14257,"Ġbredt":14258,"dater":14259,"áĥĶáĥłáĥĽ":14260,"ĠLille":14261,"jewen":14262,"vurdering":14263,"Ġanta":14264,"Ġxebata":14265,"Ġmikro":14266,"mÃ¥let":14267,"Ġvedkommende":14268,"yldig":14269,"Ġkonsekvenser":14270,"haj":14271,"vent":14272,"Ġfarlig":14273,"esco":14274,"Ġinteresser":14275,"dola":14276,"áĥĺáĥĿ":14277,"fek":14278,"atima":14279,"ĠmilitÃ¦r":14280,"Ġmidten":14281,"wia":14282,"Ġvondt":14283,"Ġregist":14284,"Ġcasino":14285,"Ġwateya":14286,"ĠMana":14287,"Ġanalyse":14288,"Ã®la":14289,"skj":14290,"ppara":14291,"Ġwerin":14292,"ssels":14293,"Dersom":14294,"velig":14295,"ĠÃ§arÃ§ove":14296,"Ġsterkere":14297,"ĠáĥłáĥĶáĥ¡áĥŀáĥ£áĥĳáĥļ":14298,"áĥŃ":14299,"ril":14300,"áĥķáĥĲáĥĵ":14301,"ĠDiyar":14302,"ä¼":14303,"Ġtrafi":14304,"elling":14305,"Ġjapan":14306,"ista":14307,"ĠNÃ¸d":14308,"ĠbingehÃ®n":14309,"Ġkristne":14310,"Ġkesa":14311,"Ġtilstede":14312,"ĠJÃ¸r":14313,"ĠBrussels":14314,"Ġpoli":14315,"Ġoppo":14316,"äº":14317,"amet":14318,"ĠAnders":14319,"ĠKA":14320,"publi":14321,"Ġceza":14322,"Ġavakirin":14323,"yeka":14324,"ĠbÃªtir":14325,"Ġstimu":14326,"ĠDetal":14327,"Ġlot":14328,"Ġmorsomt":14329,"Ġeld":14330,"slÃ¥":14331,"ĠAbdullah":14332,"ily":14333,"Ġkjede":14334,"Ġenor":14335,"ĠPaulo":14336,"ĠÐĳ":14337,"ĠkeÃ§":14338,"ĠPark":14339,"tish":14340,"film":14341,"Ġtitt":14342,"ulle":14343,"ĠstrÃ¸":14344,"ĠLitt":14345,"DO":14346,"Ġpappa":14347,"Ġtrekker":14348,"fta":14349,"Ġepis":14350,"Ġlivs":14351,"ĠForsvar":14352,"ĠyekemÃ®n":14353,"Ġekteskap":14354,"Ġhuner":14355,"ĠKaria":14356,"Ben":14357,"Ġfeir":14358,"Ġhjul":14359,"ordning":14360,"Ġopprinnelige":14361,"ĠdayÃ®":14362,"450":14363,"ĠMiro":14364,"ewa":14365,"Ġfestiv":14366,"Ġargum":14367,"Ġfen":14368,"ĠProsjektet":14369,"Ġzama":14370,"reya":14371,"Ġcara":14372,"gikk":14373,"kstad":14374,"istÃ®":14375,"Was":14376,"gata":14377,"Ġhindre":14378,"oret":14379,"Ġstrand":14380,"ĠStyr":14381,"1972":14382,"esund":14383,"leke":14384,"asaba":14385,"gjÃ¸ring":14386,"Ġkundene":14387,"onzi":14388,"wino":14389,"Ġstam":14390,"onica":14391,"âĢĻ.":14392,"ĠáĥĿáĥĳáĥŁáĥĲáĥĹáĥĶ":14393,"áĥĲáĥŃ":14394,"Shi":14395,"ambazi":14396,"top":14397,"Ġvegu":14398,"ĠRegi":14399,"FI":14400,"Ġopplysningene":14401,"DS":14402,"Ġkarri":14403,"ografia":14404,"oridh":14405,"Ġkucha":14406,"Ġmwamini":14407,"Ġbustani":14408,"Ġkumuua":14409,"ĠTarime":14410,"ĠUswisi":14411,"Ndugu":14412,"Ġwafanyikazi":14413,"Ġkuongea":14414,"Ġhusababisha":14415,"ĠWapalestina":14416,"Ġukame":14417,"Mnamo":14418,"Ġlisilo":14419,"rÃªn":14420,"ĠMgeni":14421,"ambiwa":14422,"Ġmaono":14423,"Ġmaaskofu":14424,"rejea":14425,"Ġgres":14426,"Ġkiwanja":14427,"Ġalikiri":14428,"Ġinaonesha":14429,"Ġuliochezwa":14430,"Ġkumpongeza":14431,"Ġkutatanisha":14432,"Ġimeta":14433,"Ġkulala":14434,"Ġkombinasjon":14435,"Ġmachafuko":14436,"Elimu":14437,"ukuu":14438,"geuka":14439,"ĠUchunguzi":14440,"ĠBinilith":14441,"Ġalidai":14442,"Ġalisisitiza":14443,"ĠKimei":14444,
[...]
